#version: 0.2
¾ Ð
Ð ¾Ð
Ñ ģ
Ñ Ģ
½ Ð
µ Ð
° Ð
Ð µÐ
Ð °Ð
¸ Ð
Ĥ Ð
Ñ ĤÐ
Ñ ĥ
Ð ¿
Ð ¸Ð
Ð ½Ð
Ð ²
Ñ ı
Ñ ĭ
Ð º
Ð »
Ġ Ð¿
Ñ Į
ÑĢ Ð
Ġ Ñģ
Ġ Ð²
Ð ´
Ġ Ñ
Ð ¼
¸ Ñ
° Ñ
Ġ Ð½Ð
Ð¾Ð ²
µ Ñ
Ġ Ðº
¾ Ñģ
¾ Ñ
Ð ¸Ñ
ÐµÐ ½Ð
Ð °Ñ
Ġ Ð´
Ð¾Ð »
Ĥ ÑĮ
Ð ±
½ Ñĭ
ÑĢ Ð°Ð
Ð¾Ð ´
³ Ð
Ð µÑ
Ð¾Ð ¼
Ð ·
ÑĢ ÐµÐ
Ġ Ð¼
ÑĤÐ ¾
µ Ñģ
Ñĥ Ñ
ÐµÐ »
Ð ¾Ñ
Ð ¾Ñģ
Ð¾Ð ±
³Ð ¾
Ð µÑģ
Ð¾Ð ¹
Ġ Ð±
Ð°Ð ½Ð
Ð°Ð »
ĠÑ Ĥ
° Ñģ
¸ Ñı
Ġ Ð¸Ð
Ġ Ð·
Ð°Ð º
ÐµÑ Ĥ
Ñ ħ
Ð ¶
ÑĤÐ ²
Ð» Ð
Ðº Ð
Ñģ Ñı
¸ Ñģ
Ð ³
µ ÑĢ
Ð ½Ñĭ
ĠÑ ĩ
Ġ Ñĥ
ÐµÐ ½
i e
ÐµÐ ¼
ĠÐ¿ Ð
ĠÐ½Ð °
ĠÐ¿ ÑĢ
Ð¾Ð ³Ð¾
Ð°Ð ¼
İ Ñ
º Ð
Ð¾Ñ Ĥ
Ð¾Ð ¶
Ð½Ð ¾
ÑĢ Ñĥ
µ ÑĢÐ
Ð» Ñı
Ð ¸Ñģ
Ð¾Ð ½Ð
Ð¸Ñ Ĥ
Ð Ł
Ð°Ð ²
Ð Ĵ
ĠÑ į
ĠÐ¿ ÑĢÐ
Ð ¹
Ð¾Ð º
Ð¾Ð ³
Ð µÑĢ
ÑĤÐ ¸Ð
Ð¸Ð »
ÑĤÐ ¸
µÑ Ĥ
Ð¸Ð ¼
Ñ Ī
Ñ ĤÑĮ
ĠÐ½Ð µ
Ġ ÐŁ
Ġ Ð³
° Ñı
Ġ Ð»
Ñģ ÑĤÐ²
Ð ¡
Ġ ÐĴ
Ð°Ñ ĤÑĮ
Ð¾Ð» ÑĮ
Ġ p
¸Ð µ
Ð¾Ð ¿
â Ģ
Ġ Ð¾Ð±
¾ ÑĢ
ÐµÐ ¹
Ġ ÑĢÐ°Ð
Ð °Ñģ
ÐµÐ» ÑĮ
Ð¾Ð ½
ÑĢÐµÐ ´
ÑĤÐ °
¾ ÑĢÐ
Ð¸Ð ½Ð
ĠÐ² Ñĭ
ĠÑģ Ñ
Ġ -
ÐµÐ ´
Ð¾Ð ·
Ñ İ
Ð°Ñ Ĥ
ÑĤÐ µ
Ð¸Ð ²
° ÑĢ
Ġ w
Ĩ Ð
Ġ âĢ
Ð ļ
ÑĤÐ¾ ÑĢ
Ġ Ð¡
Ð ¾ÑĢ
¾ ÑĤÐ
Ñģ Ñ
Å Ĥ
Ð ŀ
Ð Ŀ
Ð µÑĢÐ
Ð ¾ÑĢÐ
Ñģ Ðº
ÐµÐ½Ð ¸Ñı
Ð¸Ð ¸
½ Ð¾Ð¹
Ġ s
ÑĥÑ ĩ
ĠÐ½Ð °Ð
ĠÑģÑ Ĥ
ÑģÑ Ĥ
İÑ Ĥ
Ð°Ð ½
n a
ÐµÐ º
Ð¸Ñ ħ
Ð°Ð µÑĤ
Ð¾Ð µ
o w
Ð ¾ÑĤÐ
Ð°Ð ·
Ġ Ðļ
Ġ ÑĢÐ
Ġ z
Ñ ĩ
Ð °ÑĢ
ĠÐ¸Ð ·
Ð½Ð ¸Ð
½ Ð¾Ð³Ð¾
Ġ ÐĿ
ÑĢ Ð¾Ð²
Ð°Ð ´
Ð»Ð ¸
Ð¼ Ð
Ġ Ð¶
ĩ ÐµÑģ
Ä Ļ
n i
Ð¸Ñ ĤÑĮ
Ð¸Ð ¹
Ð¸Ð ½
Ä ħ
c z
ÐºÐ ¸
ÑĢÐ °Ñ
Ð¸Ð µ
ĠÐ½Ð µÐ
ĠÑ Ħ
Ñģ Ð
Ð´ Ð
ĠÑĩ ÑĤÐ¾
ĠÐ¿Ð ¾
c h
Ð¸Ð ´
Ð ľ
s t
Ġ 1
Ġ Ðŀ
ĠÐ¿ Ð¾Ð´
Ð Ķ
Ñı Ñ
ÐµÐ½Ð ¸Ðµ
r a
Ð Ĳ
n ie
Ð¾Ñ ĩ
ĠÐ´ Ð»Ñı
ĠÑĢÐ°Ð ·
r z
Ð¾Ñģ Ñ
Ġ d
Ð ł
Ð ĺ
Ġ Ð¾ÑĤ
Ð½Ð ¾Ñģ
ĠÑģ Ð²
Ð°Ð» ÑĮ
Ð¾ÑģÑ Ĥ
ĠÐº Ð
Å ¼
Ð ¢
ĠÐ± Ñĭ
Ð¾Ð´ Ð
ÑĢÐ°Ð ²
» Ð
Ã ³
Ġ o
Ñĥ Ð´
Ġ t
ÑĥÑ İ
ÐµÐ ²
Ð¸Ð ·
ÑĥÑ Ĥ
ÐµÐ ³Ð¾
Ð½Ð µÐ
Ġ ÑĢÐµÐ
ĠÑĤ Ð°Ðº
ĠÑģ Ð»
ĠÐ¿ Ð¾Ð»
Ġ 2
Ñĭ Ð
Ġ Ðľ
Ġ Ð¾ÑĤÐ
ÑĤÐ ¸Ñ
ºÐ °
Ð°Ð ¶
Ġ ÐĶ
ÐµÐ½ Ñ
Ð°Ð» Ð
ĠÐºÐ ¾
Ġ (
Ġ Â
Ð°Ð ¹
ÑĭÐ µ
r o
ĠÐº Ð°Ðº
Ð°Ð¼ Ð
ĠÑ ħ
Â »
ĠÂ «
Ð½Ñĭ Ñħ
Ð¼Ð ¸
Ð½Ñĭ Ð
ÑģÑĤÐ² Ð
Ð½ÑĭÐ µ
Ġ m
Ñĭ Ð²
ÐµÐ½Ð ½Ð
ºÐ ¸
Ð¸Ð º
n e
Ġ Ðł
ĠÐ¼ Ð¾Ð¶
»Ð ¸
Ñ Ĩ
Ġ k
ÐºÐ °
ÑĢÐ °
ĨÐ ¸
Ñ Ħ
½ Ð¾Ð²
ÐµÐ ·
Ġ Ð¸Ñģ
İÑ ī
Ġ Ð¢
ĠÐºÐ¾ ÑĤÐ¾ÑĢ
Ð ³Ð
Ġ i
Ġ Ðĺ
Ĥ Ð¾Ð²
Å Ľ
ĠâĢ ĵ
ĠÑģ Ð¿
Ĥ Ð¾Ð¼
Ð °Ñı
Ð°Ð½Ð ¸Ñı
ĠÐ¿ ÑĢÐµÐ´
Ġ Ñı
s z
Ð ½Ð¾Ð³Ð¾
Ġ na
ÐµÐ½Ð ½Ñĭ
Ð ½Ð¾Ð¹
ĠâĢ Ķ
Ñĭ Ñħ
ĩÐµÑģ Ðº
ÑĢÐµÐ ¼
Ġ ÐĲ
Ð ķ
ĠÑĢÐ °Ñģ
Ð°Ð¼Ð ¸
ÑĤÐ °Ñ
ĠÐ´ Ð
ÐºÐ ¾
Ð°Ð ¿
Ð°Ñ İÑĤ
Ð ĳ
ÑĢ Ñĭ
l e
Ð°Ð½Ð ¸Ð
Ĥ Ñĥ
Ð½Ñĭ Ð¹
½ Ð¾Ðµ
Ñ ĤÐ¾Ð¼
ÐµÑ ĩ
Ġp o
j e
Ð¸Ñ ĩ
Ð´Ð °
ĠÐ¸Ð »Ð¸
ÑĢÐ ¸
Ñĥ Ð¶
ÐµÐ½ ÑĮ
ĠÐ½Ð °Ñ
Ðº Ñĥ
ÐµÐ½Ð ¸Ð
Ð½Ð °Ð
l i
ÐµÐ µ
ĠÐ¿ Ð¾Ñģ
ÐµÐ» Ð
½ Ð¾Ð¼
Ñĭ Ð¹
¾Ñ ĩ
Ð ½Ð¾Ð²
Ð¶ Ð
n y
a r
Ð°Ð ³
Ð¾Ð µÐ
Ð°Ð ±
Ġ Ð¾Ñģ
d z
ĠÑ Ĩ
Ð°Ñ ħ
ÑĤÐ ½Ð
ÑĤÐ¸Ð ²
Ġ ÑĤÐ
ÑıÑ Ĥ
Ð ĵ
¸Ñ Ĥ
Ä ĩ
r e
µ ÑĢÐµÐ
ÐµÑĤ ÑģÑı
ĠÑ Ī
ĠÐ· Ð
Ð² Ð
ĠÐ·Ð °
¼ Ð
ĠÐº Ð¾Ð¼
ĠÐ¿ÑĢÐ ¸
Ġ Ð¾Ð¿
Ġ Ðĳ
Ð¶Ð µ
g o
ĠÐ¸Ð ½
Ð £
i a
Ġ b
Ñħ Ð¾Ð´
Ĥ Ñĭ
Ð°ÐµÑĤ ÑģÑı
Ð»Ð °
Ĩ Ð¸Ð¸
» ÑĮ
ĠÑį ÑĤÐ¾
ÑģÐ µ
ĠÐ¼ Ð
i ÄĻ
Ñ ī
ĠÐ² Ñģ
Ð°Ñ Ī
ĠÐ² Ð¾Ð·
Ñĥ Ð¿
ÑĢÐ°Ð ½Ð
Ð°Ð½Ð ¸Ðµ
rz e
0 0
Ð¾Ð ¸Ð
Ð Ĺ
Ð»Ð µ
ÑĢÐ°Ð ·
ÐµÐ ¶
k a
Ð¸Ð» Ð
ĠÐĿ Ð
Ð¾Ð»ÑĮ ÐºÐ¾
Ġ Ðķ
½ Ñı
e r
ĠÐ¿ÑĢÐ ¾Ñ
ĠÐ¸Ð ¼
Ñĥ Ð¼
Ð¸ÑĤ ÐµÐ»ÑĮ
Ð¸Ð¼ Ð
Ñĥ Ð»
ĠÑĢÐ°Ð ±
ÑĢÐ ¾Ñģ
ÐµÑģ ÑĤÐ²
Ð½Ð °Ñ
Ġ ÐµÑģ
ÐµÐ ³
Ġd o
ÐµÐ ±
ÑĤÐ µÑĢÐ
Ġ P
Ð½Ð¾Ñģ ÑĤÑĮ
Ð Ľ
Ġ Ð¾Ð½Ð
ÐµÑ ī
Ð¾Ð»ÑĮ Ð·
Ġ Ðĵ
ÑĥÑ Ī
l a
ÑĪ Ð
Ð½Ð °Ñı
ÐµÐ ¿
Ġz a
Ð Ń
Ñ ĤÑĥ
½Ñĭ Ñħ
½Ñĭ Ð
½ÑĭÐ µ
Ð°ÑĤ ÐµÐ»ÑĮ
Ã³ w
Ġ ÑĢ
Ð½Ð °
Ñģ Ð»
ÑĥÑ ī
ĠÐ± ÑĥÐ´
Ð»Ð °Ñģ
Ġ a
Ð¾Ð± Ñĭ
ÑĢÑĥ Ð³
Ġ Ð£
k i
ĠÐ» Ñİ
½ ÑĥÑİ
ow a
ÑĢÐ °Ñģ
ĠÐ¿ Ð»
Ð¾Ð» Ð
Ð¾Ð´Ð °
t a
ÐµÐ½Ñ Ĥ
ÑĤÐ µÑĢ
Ð¾ÑģÑĤ Ð°Ð²
ĠÐ² Ð
Ġ ÐĹ
Ñĥ Ñģ
Ð¸Ð» ÑĮ
ni a
Ġ ÐµÐ³Ð¾
ĠÐ½Ð ¾
ĠÐ¸Ñģ Ð¿
Ð ¤
ĠÐ¿ Ð¾Ð¼
c i
ÅĤ a
Ġ ÑĤÐ¾
o r
Ð §
¸ ÑĢÐ¾Ð²
Ġ ÐŃ
Ġ Ð³Ð
ĠÐº Ð¾Ð½
Ð¸Ð ±
Ð¾Ð² Ð
Ð½Ð¾Ñģ ÑĤÐ¸
Ġ ÑĢÑĥ
Ð½Ð¸Ð º
ĠÐ¼Ð¾Ð¶ Ð½Ð¾
Ð½Ñĭ Ð¼
ĠÑģ Ð¼
Ñ İÑ
Ð°Ñ ĩ
ĠÐ½Ð °Ñģ
ĠÐ± Ð¾Ð»ÑĮ
Ġ 3
° ÑĢÐ
ĠÑģ Ð°Ð¼
c e
½Ñĭ Ð¹
Ġ S
Ð ½Ð¾Ðµ
Ð½Ð ¸Ñ
Ñ ĳ
Ð ³Ð¾
µÐ ¼
Ð¸Ñģ Ñ
ĨÐ ¸Ñı
k o
ÑģÑĤÐ²Ð °
ÑĪÐ µ
ÐµÑĢÐ ¶
µÑ ĩ
ĠÑģ Ðº
¸Ñ İ
ĠÐ² ÑĢÐµÐ¼
Ð½Ð ¸
Ġ u
w a
ÑĥÑ ħ
Ð»Ð ¾
Ñĥ Ð±
j a
Ġ ÑĥÑĩ
Ð°Ð»Ð ¸
µÑ Ī
ĠÑĩ Ð°Ñģ
Ġw y
ÐµÐ½Ð ¸
n o
ĠÐ² ÑģÐµ
Ð¾Ð³ Ð´Ð°
Ġ je
ÐµÐ½Ð½Ð ¾
Ð°Ð½ Ð¾Ð²
Ð ½Ð¾Ð¼
ĠÐ´ Ð¾Ð»
ĠÐ¿ ÑĢÐ°Ð²
¸Ð ¼
Ñı Ð·
Ġ ÐĽ
Ð¸Ñ İ
ÐºÐ µ
Ġ Ð§
Ð¾ÑĢÐ ¼
ĠÐ² Ð¸Ð´
Ġ W
t y
Ġ Ċ
¸ ÑĢ
ĠÐ· Ð°Ðº
ĠÐ¿ÑĢÐ ¾Ñģ
Ð¾Ñ ħ
Ð» ÐµÐº
ĩÐµÑģ ÑĤÐ²
ĠÐ´Ð ¾
Ĥ Ð¾Ð±Ñĭ
Ñ ĤÐ¾Ð±Ñĭ
Ð°Ð»Ð °
Ð¸Ñ ĩÐµÑģÐº
Ġ2 0
rz y
d a
µ ÑĤÐµ
m i
ÐµÐ½Ð¸Ð ¸
Ð¾Ñ ī
ĠÑį Ñ
ĠÑįÑ Ĥ
Ð´ ÐµÐ»
Ð» ÐµÐ½Ð¸Ñı
ºÐ ¾
ÑİÑ ĩ
Ð» Ð°Ð´
Ġ Ð¾Ð´
Ġ Ð¾Ðº
¾ ÑĤÐ²
Å¼ e
Ðº Ð¾Ð²
ĠÐ¼ ÐµÑģ
¾Ñ Ī
Ñģ Ð¿
t e
ĠÐ´ ÑĢÑĥÐ³
ĠÐ¶ Ð
Ð¾Ð´ Ñĥ
¸Ñ ĩ
µÑ ħ
ĠÐ¼Ð¾Ð¶ ÐµÑĤ
Ġ Ð°Ð²
ÑĢÐ°Ð ¶
Ġ nie
Ð» ÑİÑĩ
ÑĢÐ µ
j Äħ
ÐµÐ»Ð ¸
Ñĥ ÑĢ
Ġs iÄĻ
Ġ Ð¾Ñĩ
ĠÐ¿ ÑĢÐµÐ
Ð¸ÑģÑ Ĥ
ĠÐ¿ Ð¾Ðº
ĠÐºÐ¾Ð¼ Ð¿
ĠÐ¿ Ð¾Ð²
ĠÐ± ÐµÐ·
ĠÑģ Ð
o n
Ð½Ð°Ñ ĩ
ĠÐ¿Ð µÑĢ
Ð°Ñ İÑī
ÐµÐ» Ñı
Ð°ÑĤÑĮ ÑģÑı
Ð¸Ð ³
¸Ñģ Ñ
Ġ M
Ĥ ÑĢ
Ð¾Ð»ÑĮÐ· Ð¾Ð²
ĠÑĤ Ð¾Ð»ÑĮÐºÐ¾
. .
Ð½Ð µ
ĠÐ¿Ð¾Ð» ÑĥÑĩ
µÐ ½Ð
ĨÐ¸ Ð¾Ð½Ð
¾Ñ Ĥ
ĠÑĥ ÑģÑĤ
Ġ Ð¸Ñħ
Ġ C
Ð½ÐµÐ ½Ð
ĠÐ½Ð°Ð ¿
Ð°Ð µÐ¼
ÑĢ Ñı
ĠÐ± Ð¾Ð»
ÑĢÐ°Ð ½
Ð¸Ð½Ð °Ð
ĠÐ¿ÑĢ Ð¾Ð²
m a
ÑĥÐ» ÑĮ
Ñ Ĭ
Ġ Ð¾Ð½
ÑĥÑ İÑī
Ġ Ð³Ð¾
ĠÑģ Ð¾Ð±
Ð¸Ð ¿
ÑĢÐµÐ ±
¸Ñ ħ
Ġ Ð¾ÑĢÐ
Ð¾Ð´ Ð¸ÑĤ
ĠÐķ Ñģ
e n
Ð² Ð»Ñı
µ ÑĢÐµÐ´
ĠÐ¶Ð µ
ĠÐ»Ñİ Ð±
Ñĭ Ð¼
· Ð²
Ġ "
ĠÑĩ ÑĤÐ¾Ð±Ñĭ
½ ÑĥÐ¶
ÑĢÐ°Ð ¼
ĨÐ °
¸Ð º
Ñ ĤÑĢ
¼Ð ¸
ĠÑĥ Ð´
Ð°Ð¶ Ð
Ñ ĤÐ¾Ð²
Ñ ĤÑĭ
Ð¾Ð ³Ð
ÑĤÐ ¾Ñĩ
ĠÐ¼ Ñĭ
Ð ½ÑĥÐ¶
Ġp rze
Ġ Ð¤
ĠÐ±ÑĥÐ´ ÐµÑĤ
Ð¸Ñ Ī
ĠÐ½Ð°Ñ ĩ
Ġ Ð½Ð¾Ð²
Ġ A
ĠÑģ ÑĢÐµÐ´
ÑģÑĤÐ²Ð ¾
ĠÐ´ Ð²
ÑĢÐ°Ð º
ĠÑĢÐ°Ð± Ð¾ÑĤ
ĠÐ¿ Ð¾ÑĤ
ÑģÑĤ Ð°Ð²
) .
Ð¸Ñ Ĩ
ĠÐ± Ð»
Ġ Ð°Ðº
k u
Ġ T
Ġ Ð½ÑĥÐ¶
Ñĥ ÐµÑĤ
c y
Ð¸Ð½Ð °
ÑģÐº Ð¾Ð¹
ÐµÐ¼ Ñĥ
Ð¾Ð¼ Ñĥ
st a
ĠÐ¸Ð ³
ĠÐºÐ¾ÑĤÐ¾ÑĢ ÑĭÐµ
ĠÑĤÐ°Ðº Ð¶Ðµ
Ġ 5
ĠÐ· Ð°Ð¿
ĠÑģ Ð¾Ð²
Ð¾Ð ¾Ð
¸Ñ ĤÑĮ
cz y
¾Ñ ĤÐ¾Ð²
Ð¾Ð¼ Ð
ĠÐµÑģ Ð»Ð¸
ºÐ µ
´ Ð
ÐµÐ½Ð °
ÐµÑ ħ
ĠÑį Ðº
Ð°Ñ ĨÐ¸Ð¸
¸ ÑĤÐµ
r y
ÐµÐ ½Ñĭ
Ð µÑĢÐµÐ
ÑĢÐ°Ð ±
Ð¸Ñģ ÑĮ
ĠÐķÑģ Ð»Ð¸
ĠÐº Ð¾Ð»
ÑıÑ ī
ĠÐ´Ð¾Ð» Ð¶
ÐµÑģ Ð¿
ĠÐ¿ Ð¾Ð·
ĠÐ¾ÑĢÐ ³
°Ð »ÑĮ
¸ÑģÑ Ĥ
ĠÐ²ÑĢÐµÐ¼ Ñı
ĠÐļ Ð°Ðº
Ġ 4
Ñĥ Ð½Ð
Ð¼ Ð¾Ð¶
Ð¸Ð»Ð ¸
cz e
İÑĤ ÑģÑı
ĠÐ³ Ð»
ÑĤÐ¾ ÑĢÐ
Ġ c
ĠÐ¿Ð µÑĢÐ
Ð ¯
ĩÐµÑģÑĤÐ² Ð
ÐµÐ¼ Ð
Ð¾Ð¾Ð ±
Ġ D
ÅĤ o
ĠÑį ÑĤÐ¾Ð¼
µ ÑĤÐ
i n
Ð°Ð½Ð¸Ð ¸
ÑĥÑī ÐµÑģÑĤÐ²
ÐµÐ½Ð½Ð ¾Ñģ
Ð¾Ð± ÑħÐ¾Ð´
Ð ¥
ÐµÑ Ī
Ġ N
ÐµÐ½Ð¸Ð ¹
ĠÐ¼ Ð¾Ð³
ĠÐ½Ð µÑģ
t u
p o
k ie
ÐµÐ» Ð¾Ð²
Ġ Ð¾Ñ
ĠÑģÐ» ÑĥÑĩ
º Ð¾Ð¼
Ð¸Ð¼Ð ¸
w o
ĠÐ±Ñĭ ÑĤÑĮ
ĠÑģÐ» ÐµÐ´
Ð¸Ð ½Ñĭ
Ð» ÐµÐ½Ð¸Ðµ
ĠÐ²Ñĭ Ð¿
Ð¾Ñģ ÑĤÐ¸
ÑĢÑĥ Ð´
¸ÑĤ ÐµÐ»ÑĮ
Ð½Ð¸Ð ¼
Ñı ÑĤÑĮ
ÑĤÐ½Ð ¾
Ġ B
t o
ĠÐ¿Ð ¾ÑĢ
Ð» ÐµÐ´
Ġ g
ĠÐ· Ð°Ð²
r u
m y
ĠÐ½Ðµ Ð¾Ð±ÑħÐ¾Ð´
ĠÐ¿Ð µÑĢÐµÐ
ĠÐ¸Ð ½Ð
ĠÑĥ Ð¿
ÅĽ ci
ÑģÐ °
Ð ½ÑĥÑİ
Ðº Ð¾Ð¹
Ð°Ñ ī
ĠÐ¿ÑĢ Ð¾Ð¸Ð
Ð½ÐµÐ ¹
ĠÐ½Ð°Ñ Ī
ÐµÐ½Ð½Ñĭ Ñħ
Ð¼Ð °
Ð¸Ð ¶
ÐºÐ °Ñı
Ð¾Ñģ ÑĤÑĮ
Ġm o
ÑģÐº Ð¾Ð³Ð¾
ÑĮ Ñİ
Ð± Ð
l u
Ð´Ð µ
ÑĨ Ð¸Ð¸
Ð°ÑİÑĤ ÑģÑı
ĠÑı Ð²Ð»Ñı
Ð°Ð½Ð¸Ð ·
ÑĤÐ ¸Ñı
ĠÐ¿ Ð¾Ð¿
d y
Ð½Ñĭ Ð¼Ð¸
ÑĤÐ°Ñ ĤÑĮ
ĠÐ¢ Ð°Ðº
ĠÐ±Ð¾Ð»ÑĮ ÑĪ
ÑĤÐ¸Ñ ĤÑĮ
Ð°Ð¶ Ð´
ĠÐ¾ÑĤÐ º
Ñĭ ÑĪ
ĠÐ¾Ñģ Ð½Ð¾Ð²
ÑĤÐ¾ Ñı
Ð¾Ñģ Ð¾Ð±
Ð°Ð½Ð °Ð
Ġ f
ny ch
ĠÐµÑģ ÑĤÑĮ
ĨÐ¸ Ð°Ð»ÑĮ
Ð ¾ÑĤÐ²
ÑĢ Ð¾Ð´
ÑĢÐ µÑģ
Ð¼ Ð¾ÑĤ
Ð¾Ñģ ÑĮ
Ð¿ Ð
ÐµÐ» ÐµÐ¹
ÐµÐ½Ð½Ñĭ Ð
ÐµÐ½Ð½ÑĭÐ µ
Ġo d
ĠÐ¿ÑĢ Ð¸Ð¼
Ð¾Ð¶ Ð
ĠÑĥ ÑģÐ»
½ Ð¾Ð³
ĠÑĤ ÐµÐ¼
ĠÐ¿ÑĢ Ð¾Ð´
ĠÐ¿ÐµÑĢ Ð²
ĠÐ½ÐµÐ ´
c ie
Â» .
ÑĢÐ°Ñ ĤÑĮ
ÑĤÐ¸Ñ ĩÐµÑģÐº
Ġ K
Ġt o
ĠÑĥ Ðº
w i
Ġ ro
ĠÐĿÐ °
ĠÑĥ Ð²
ĠÐĴ Ñĭ
ĠÐ¾Ð½Ð ¸
ĠÐ±Ð¾Ð» ÐµÐµ
ĠÐ´ ÐµÐ»
ĠÐ² Ð·
ĠÑĩ ÐµÐ»Ð¾Ð²
ĠÐ¿ÑĢÐ¾Ñ Ĩ
ĠÐ¿ÑĢ Ð¸Ð²
ĠÐ¼ Ð°Ñģ
ĠÐ¾Ð± ÑĢÐ°Ð·
ĠÐ´ Ð°Ð½Ð
Ð¾Ð» Ð¾Ð³
» Ð¸Ñĩ
ĠÑģ ÐµÐ±
Ġ20 1
ĠÑģÑ ĩ
Ð¾Ð· Ð´
a s
ow e
l o
ÐµÐ½Ð ´
c j
Ð¾Ð½Ð °
Ġt e
Ð°Ð½Ð ´
Ġk o
ow y
ĠÐ¿ÑĢÐ ¾
ĠÐ¾Ñĩ ÐµÐ½ÑĮ
Ð¸ÑĤÑĮ ÑģÑı
ĠÐ¸ÑģÐ¿ Ð¾Ð»ÑĮÐ·Ð¾Ð²
Å Ħ
ĠÐ¿Ð¾Ñģ Ð»Ðµ
Ðº Ð»ÑİÑĩ
ĠÑĤ Ð¾Ð³Ð¾
ÑģÐº Ð¸Ð¹
ĠÐŁ Ð
Ġ Ð¥
Ð¸ÑĤ ÑģÑı
ĠÑĥ Ð¶Ðµ
Ġ ÐµÑī
Ġ Ð¾Ð´Ð
dz ie
ĠÐĶ Ð»Ñı
ÐµÐ½Ð¸ ÐµÐ¼
ĠÐł Ð¾Ñģ
ĠÑģÐ ¾
ĠÑĢÐ µÑĪ
Ġ Ð¯
Ð ¨
ĠÐ² Ð¾Ñģ
ÑĢÐ ¾
Ð» Ñİ
ĠÐŃ ÑĤÐ¾
Ġ ÐµÐµ
Ð°Ð¹ ÑĤÐµ
ĠÑįÑĤ Ð¾Ð³Ð¾
ĠÐ· Ð°Ð±
ĠÐ½ÑĥÐ¶ Ð½Ð¾
½Ñĭ Ð¼
ĠÐ²Ð¾Ð· Ð¼Ð¾Ð¶
Ġ R
ĠÑĢÐ°Ñģ Ð¿
ĠÐŁ ÑĢ
Ġ Ð¾ÑĤÐ²
ÑĤÐ º
ĠÑģ Ð´ÐµÐ»
ĠÐĿÐ ¾
Ġje st
ÑĤÐµÑĢÐ ¸
ÐµÐ½Ð ¸Ñİ
ÐµÐ½Ð ½Ð¾Ð¹
ĠÐ¾Ð± ÑĬ
ĠÐ³ Ð¾Ð´Ð°
t Ã³
ĠÐ´ ÐµÑĤ
ÐµÐ¹ ÑģÑĤÐ²
Ð¾Ñ Ī
Â» ,
Ð°Ð¶Ð µ
ĠÐ¾Ð± Ñī
ÑĤÐ¸Ð ¼
Ð¸Ð¼Ð ¾
Ñı Ð²
Ñģ Ð¸Ð¸
Ġ I
ĠÐ²Ñĭ Ñģ
ĠÑĢÐµÐ ·
Ð¾Ñ į
Ð²Ð °
Ð¾Ð´ Ñĭ
ĠÐ¼Ð °
³Ð ¸
Ð¸Ñ ī
ĠÑģ Ð¸ÑģÑĤ
ÐµÑĢÐ °
ĠÑĤ Ð¾Ð¼
ĠÐ¾ÑĤÐ ´
ĠÐ² Ð°ÑĪ
d e
ĠÑĩ ÐµÐ¼
ÑĢÐ°Ñ ī
½ Ñĥ
ĠÐ· Ð´
2 0
ĠÐ¾ÑĢÐ³ Ð°Ð½Ð¸Ð·
ĠÑģÐ¿ ÐµÑ
ĠÐº Ð¾Ð³Ð´Ð°
Å¼ y
) ,
ĠÐ²Ð ¾
ÑĢ Ð¾Ð
Ð» ÐµÐ¼
ĠÐ· Ð½Ð°Ð
Ġ O
ÑĢÑĥ Ð¿
Ġ G
ĠÐ´ ÐµÐ½ÑĮ
ĠÑĤÐ µÑħ
ĠÐ¸Ð½ ÑĦ
ĠÐŁ ÑĢÐ¸
ÑĢÐ µÑ
Ð°Ð½Ð ¸
ĠÐ¿ÑĢÐ¾Ð¸Ð ·Ð²
sz y
Ġ ja
ĠÐ±Ñĭ Ð»Ð¾
ĠÐº Ð°Ñ
Ð¸Ð»Ð °
ÐµÐ½Ð½Ñĭ Ð¹
ĠÑģÐ¿ Ð¾ÑģÐ¾Ð±
ÑĢÑĥ Ð¶
ĠÑģ Ð¾Ñģ
ĠÑģÐ² Ð¾ÐµÐ
a n
ÑĢÑĥ Ðº
ĠÐŀ Ð±
ÐµÑĢÐ °Ñ
Ġk tÃ³
Ð °ÑĢÐ
Ġ 6
ĠÑģ Ð¾ÑģÑĤÐ°Ð²
Ġ Ð¾ÑģÑĤ
ĠÐ¼Ð¾Ð³ ÑĥÑĤ
Ð¸Ð· Ð
ÐµÐ¶ Ð´
a m
ĠÐºÐ¾ÑĤÐ¾ÑĢ ÑĭÐ¹
ĠÐ» ÑĥÑĩ
Ġp ro
Ñı Ð´
ÑĤÐ ºÐ¸
Ġi n
ĠÐ¼ ÐµÑĤ
ĠÐ´ Ð¾Ñģ
ÑĥÑ İÑĤ
ĠÐ¿ÑĢÐµÐ´ ÑģÑĤÐ°Ð²
ÅĤ y
ÐµÐ½ Ñı
ĠÐ¾ÑĤÐ ½Ð
| |
Ġ J
ĠÐ· Ð°Ð´
Ð¾ÑĢÐ ¾ÑĪ
ÐµÐ½Ð µÐ
µ ÑĤÐ°
ÑĢÐ ¸Ñı
Ĥ Ñı
Ð°Ð½Ð °
Ġ e
ĠÐ³Ð ¾Ñģ
Ð¾Ð¶ Ð´
ÐµÐ½ ÑĤÐ°
ĠÐº Ð°ÑĢ
Ġp rzy
Ð¾Ð²Ð °
ĠÐº Ð°Ð¶Ð´
Ñĥ Ð·
ĠÐ¿ Ð¾Ñĩ
w ie
Ð ½Ñı
ÑĢ Ð¾Ð¹
Ñĥ Ð»Ñı
ĠÐ¿Ð µÑĢÐµÐ´
ĠÐ¿ÑĢ Ð¾Ð±
ĠÑĥÑĩ Ð°Ñģ
Ð°Ñģ ÑĮ
ĠÐº Ð¾Ð½Ð
ĠÐ¶ ÐµÐ»
ĠÐ» ÐµÑĤ
ĠÐ½ÐµÐ ¿
ÐµÐ½Ð ½Ð¾Ð³Ð¾
Ð¾Ð² Ð°Ð½Ð¸Ñı
ÑĢÐ°Ð ´
ÑĥÑ ĤÑĮ
ÐµÑģ ÑĮ
ĠÐµÑī Ð
z y
ĠÐµÑīÐ µ
ÐµÑĤ ÑģÑĤÐ²
Ġm a
Ñģ Ñĭ
ĠÐ¾Ð½Ð °
ĠÑģÐ»ÑĥÑĩ Ð°Ð
Ñĥ Ðº
Ð² Ð¾Ð»
ĠÐ¿Ð¾Ð¼ Ð¾Ñī
Ð» Ð¸Ð²
Ð¼ ÐµÑĢ
ĠÐ°Ð² ÑĤÐ¾Ð¼
ĠÐ²Ñĭ Ð±
o b
ĠÑģ Ð¾Ð·Ð´
ĠÑıÐ²Ð»Ñı ÐµÑĤÑģÑı
Ñģ Ð¾Ð²
Ġ Z
sz e
Ð¾Ð¾Ð± Ñī
Ð µÑĤÐµ
Ð ¦
ĠÐ´ Ð¾Ðº
ÑĤÐ ¾ÑĤ
ÑĤÐ µÑģ
Ð ¸ÑĢ
ÑģÐ ¸
ÑĢÐ°Ñ Ħ
ÐµÑĢ Ñħ
Ñĥ ÑĢÐ
ÑĢÐµÐ´ ÐµÐ»
ÑĤÐ¸Ð º
ÑĢÐ°Ð »ÑĮ
Ġt y
Ð¾Ð¿ ÑĢÐ¾Ñģ
ĠÐº Ð»
g a
ĠÐ´ Ð¾Ð±
ÐµÑ ĤÑĮ
ĠÐ½ÐµÑģ Ðº
¸Ñ Ĩ
o m
ĠÐ½Ð°Ð ·
Ð¸Ð½Ð ¸Ð¼
ÑĤÐ¸Ð »
Ð» ÑĮ
ĨÐ µ
c a
ÐµÑĢÐµÐ ·
Ġ 7
ÐµÑĢ Ð²
Ġ1 0
Ġ L
ÑĢ Ð¾Ð¼
ĠÐº Ð¾ÑĢ
ĠÐ· Ð°Ð¼
ĠÐ½Ð°Ð ´
ÑĤÐ¾Ð¼ Ñĥ
ĠÐ¼Ð° ÑĤÐµÑĢÐ¸
Ð°Ð· ÑĭÐ²
ÑģÐº Ð¸Ñħ
d u
ÑĢÐµÐ ²
ĠÐ¿ Ð¾ÑģÑĤ
Ð ¸Ñı
ĠÐº ÑĢÐ°Ñģ
a k
cj i
ĠÐ² Ð°Ð¼
ÐµÐ¼Ð °
Ġ1 9
ĠÐ³ Ð¾Ð»
ÑĤÐ¸Ð ½Ð
Ð ĸ
Ð¾Ð ¸ÑĤ
½ ÑĥÑĤ
i s
Ñĭ Ñĩ
ĠÐ´ Ð°Ð¶Ðµ
ĠP o
z a
Ð¾Ñį ÑĤÐ¾Ð¼Ñĥ
Ġ Å¼e
Ð²Ð ¸
ÑĢ Ð¸Ð¼
Ð¾Ð³ Ð¾Ð²
ĠÐ±Ñĭ Ð»
Ð¸Ð ºÐ°
ĠÐ¿Ð °ÑĢ
Ġ Ð»Ð¸
ĠÑĢÑĥ Ð±
Ġ |
Ġs p
ÐµÐ½Ñ ĤÐ¾Ð²
ÑĤÐ¸Ñ Ĥ
ĠÐ¾Ñ Ħ
Ð°Ñ ĨÐ¸Ñı
Ð°Ñ Ĩ
ĠÐŁ Ð¾Ñģ
Ð» Ð¾Ð¶
Ð¾Ð² Ð°ÑĤÑĮ
Ġ F
Ð°Ð¹ Ð
Ñ į
ÑıÑĤ ÐµÐ»ÑĮ
ĠÑģ Ð¾Ð
e m
ÐµÐ½Ð µÐ½Ð
Ð¾ÑĢÐ °
ĠÐ²Ñģ ÐµÐ³Ð¾
ĠÑħ Ð¾ÑĢÐ¾ÑĪ
ÐµÑĢ ÑĮ
Ð¸Ñ Ħ
Ñĥ ÐµÑĤÑģÑı
Ð°Ð ½Ñĭ
ÐµÐº Ñģ
Ð¾Ð ¸Ñģ
Ġ h
ĠÑĤ Ñĭ
ĠÐ½Ð ¸Ð
ÑĤÐ¾Ñı Ð½Ð
ĠÑģÐ² ÑıÐ·
³Ð °
ÑĢÐ ¾Ñ
ĠÐ² Ð¾Ð¿ÑĢÐ¾Ñģ
ĠÑħ Ð
ĠÐ´ Ð¾Ð¼
Ðº Ð¾Ð¼
Ð¸Ð ºÐ¸
Ð°Ð»Ð ¾
ÑĦ ÑĦ
ÑĢÑĥ Ð·
ÐµÐ»Ð °
Ñĥ Ð²
ra z
ĠÐ¾Ñģ Ð¾Ð±
Ð¸Ð± Ð
Ð¼ ÐµÑģ
ĠÑģ ÑĤÐ°
Ð¾ÑĢ Ð¾Ð²
b y
ÑĤÐ¸Ð µ
Ð¾Ð ½Ñĭ
ÐµÐ½Ð½Ð¾Ñģ ÑĤÐ¸
ÑĮ Ñı
Ð°Ð¹Ð ½
Ġ 8
ĠÐ¿ÑĢ Ð¾Ð³
¸Ñ ĩÐµÑģÐº
ĠÐ¿ÑĢÐµÐ´ Ð¿
Ð½Ð µÑģ
Ġ Ð¾Ð³
ĠÑĤ ÑĢÐµÐ±
Ñ ĤÑı
Ð¾Ð ºÐ°
ÐµÐ µÑĤ
s i
Ð»Ñı Ñ
ÐµÑĤ Ñĭ
ĠÐĿÐ µ
ĠÐŁÐ ¾
Ð¸Ð½Ð µ
Ð¾ÑĢÐ ¼Ð
º Ñ
Ġd z
Ĥ ÐµÐ¹
Ð¾Ð´Ñĥ Ðº
Ñ ĨÐ°
Ð¾Ð½ Ð¾Ð¼
ÐµÑĢ ÑĪ
ĠÐ¼ Ð¾Ð»
ÐµÑ Ħ
ÑĢÐ°Ñ ħ
i l
Ð» Ð¸Ñĩ
Ð¾Ð¿ Ð¾Ð»
ĠÐ± ÐµÑģÐ¿
ÐµÐ½Ð ¾
ĠÑĦ Ð
ÅĽ Äĩ
ĠÐ± Ð
ĠÐ³Ð¾ ÑĢ
ĠÑģÐ² Ð¾Ð
dz i
ĠÑģÐ»ÑĥÑĩÐ°Ð µ
ĠÑĥÑģÑĤ Ð°Ð½Ð¾Ð²
Ðº Ð°Ð¼Ð¸
Ð» Ð°Ð³
ĠÐº Ð²
½ ÑĮ
Ð ¸ÑĤÐµ
ĠÑĩ ÐµÑĢÐµÐ·
ĠÑĢÐ ¾Ñģ
ÑĤÐ ½ÑĭÐµ
Ñ ĤÐµÐ¹
ÑĢÐµÐ ¿
Ð¾Ð´Ð µ
Ð¾Ð² Ð¾Ð¹
Ñĭ Ð¼Ð¸
ĠÐ¼Ð ½Ð¾Ð³
ÑĤÐ ½ÑĭÑħ
µÑ Ĩ
ĠÐ´ ÐµÐ¹ÑģÑĤÐ²
ĠÐ½ÐµÐ ¼
Ð³Ð ¸
ĠÐ³ Ð´Ðµ
ĠÐ· Ð½Ð°Ñĩ
ĠÐ¿ÑĢ Ð¸Ð½
Ð°Ð· Ð
Ð¾Ð¸Ð ¼
Ñĥ Ð³
Ġ E
ÑĤÐµÑĢÐ µÑģ
ĠÑģÐµÐ± Ñı
ĠÐ¸Ð ´
Ġb y
Ð¾Ñ İ
ĠÑģ ÑĤÐ¾ÑĢ
p a
ĠÐ¾Ð¿ ÑĢÐµÐ´ÐµÐ»
Ð¾Ð¼Ð °
ÐµÐ½Ñ ĤÑĭ
ĠÐ¿Ð¾Ñģ Ð»ÐµÐ´
Ġ Ð¨
ĠÐ½Ð µÑĤ
½Ð ¾
ÑģÐº Ð¸Ðµ
ĠÑĤ ÐµÐ»
ÑĦÑĦ ÐµÐº
ĠÐ¼ ÐµÐ´
Ñĩ Ð°Ñģ
ĠÐ¿Ð¾Ð· Ð²Ð¾Ð»
ĠÑģ ÐµÐ¼
Ð½Ð¾ÑģÑĤÑĮ Ñİ
ĠÐ¿ÑĢÐ¾Ñģ ÑĤÐ¾
ĠÐ³ Ð¾Ð²
ĠÐ½ÐµÐ¾Ð±ÑħÐ¾Ð´ Ð¸Ð¼Ð¾
ÅĤ u
Ð¸ÑĤÐµÐ»ÑĮ Ð½Ð¾
ĠÐ¿ÑĢÐ¾ÑĨ ÐµÑģ
ĠÐ» ÐµÑĩ
ÑĢ Ð¾Ðº
ÑıÑĤ ÑģÑı
Ð½ÐµÐ µ
Ð°Ð½Ð¸Ð ¹
Ð¸Ð±Ð ¾
Ñģ ÐºÐ°Ñı
Ð¼ Ñĭ
ÑĤÐ¸ ÑĢÐ¾Ð²
ĠÐ´ ÐµÐ²
Ñĩ Ð
ĠÐŀ Ð´
ĠÐ¾Ð± Ð»Ð°Ñģ
Ð°ÑĤÐµÐ»ÑĮ Ð½Ð¾
t er
ÐµÑģÑĤÐ² Ð
ĠÐ½Ð°Ñ ħ
ĠÐ±Ð¾Ð»ÑĮ ÑĪÐµ
ĠÐ¸ÑģÐ¿ Ð¾Ð»ÑĮÐ·
ĠÐ¾ÑĤÐ »Ð¸Ñĩ
ĠÑĢÐµÐ ±
a l
Ġ cz
ĠÑĢÐ°Ð±Ð¾ÑĤ Ñĭ
ÐµÐ ºÐ°
ĠÐ¿ÑĢÐ ¸Ñĩ
Ġpo d
ĠÐ² Ð°Ñģ
ĠÐ¼ ÑĥÐ¶
ĠÐ²Ñģ ÐµÑħ
ĠÐ¿ÑĢ Ð¾Ð´ÑĥÐº
ÑĢ ÑĥÑĪ
ĠÐ¼ Ð°Ð»
Ð¾Ð½Ð °Ð
Ð°ÑĤ Ñĭ
ÐµÐ½Ñ ī
Ġ re
ĠÐ¸Ð· Ð¼
Ð» Ð°Ð²
Ġ Ð¦
° ÑĢÐ¸
ĠÑĥ Ð³
ÑĢÐ°Ð ¸Ð
Ð°Ð· Ð°Ð»
ĠÐ¶ Ð¸Ð·
Ñģ Ð¸Ð¹
Ġ H
ĠÐ¸Ð½ÑĦ Ð¾ÑĢÐ¼
ÑĢÐ°Ð± Ð¾ÑĤÐ
Ð¾ÐµÐ ½Ð
ĠÐ¾Ð± ÑıÐ·
ĠÑĤ ÐµÐ¿
º Ñĥ
ĠÐ³ Ð¾Ð´Ñĥ
Ð¸Ð½ Ñĥ
r Ã³
¿ Ð
ĠÐ² ÑģÑĤ
ĠÐ½ÐµÑģÐº Ð¾Ð»ÑĮÐºÐ¾
Ġ 0
ĠÐ² Ð¾Ð»
ĠÐ½Ð ¸Ñħ
ĠÐ´ Ð¾ÑģÑĤ
Ġ Ð°Ð´
ÐµÑģ ÑĤÐ¸
ĠÐ¼ ÐµÐ¶Ð´
ÑĢ ÑĭÐ²
ÑĢÐµÐ ·
ĩÐµÑģÑĤÐ²Ð ¾
Ð¼ Ñĥ
ĠÐ¡ Ñ
ĠÐ¡Ñ Ĥ
ĠÑĢÐµÐ· ÑĥÐ»ÑĮ
.. .
ÑĢÐ°Ñ Ĥ
ĠÐ» ÐµÐ³
ne j
Ð´ ÐµÑĢÐ¶
Ð¾Ð´ ÐµÑĢÐ¶
ĠÐ¸Ð½ ÑĤÐµÑĢ
ow ie
Ġ ÑĢÑĭ
Ð¾Ð»ÑĮ ÑĪ
Ġ ch
ĠÐ¿ÑĢÐ¾Ñ Ħ
¾ÑĤÐ² ÐµÑĤÑģÑĤÐ²
Ð´Ð ¸
m u
ĠÐºÐ¾Ð» Ð¸Ñ
ĠÐ´Ð ¸
w ia
ĠÐ¼ ÐµÐ½Ñı
Ġ Ð°ÑĢ
ÑĢÐ°Ð »
ĠÐłÐ¾Ñģ ÑģÐ¸Ð¸
ĠÑĢÐ°Ð± Ð¾ÑĤÐ
¸ ÑĢÑĥ
ÑģÑĤÐ²Ð ¸Ñı
Ð¾Ð» ÐµÐ²
Ġ Ðĸ
âĢ ¦
Ð¾Ð¼Ð µ
ĠÐŁ Ð¾Ð´
Ð½Ð¸Ð ºÐ°
ÑĢÐµÑ ĤÑĮ
Ġ 9
»Ð °
e t
ĠÐ² ÐµÐ´
m ie
ne go
ºÐ¾ ÑĤÐ¾ÑĢ
ĠÑĥ Ð»
ĠÑį Ð»ÐµÐº
Ñĥ ÑģÐº
ĠÐ¶ Ð¸Ð²
Ð°Ñı Ð²
Ð¾Ð½Ð µ
ÑĢÐµÐ ¶
Ġ ÅĽ
n Äħ
Ð»Ñı ÐµÑĤ
ĠÐ½Ð ¸Ðº
ĩÐµÑģ ÐºÐ¸
ĠÑį ÑĦÑĦÐµÐº
» Ð°Ð¹Ð½
ÑĢÐ°Ñ ĩ
ÑĤÐ¾ÑĢÐ °Ñı
ÐµÐ»Ð ¾
ĠÐ´Ð¾Ðº ÑĥÐ¼
Ð°Ð½ Ñ
ĠÐ¿ÑĢÐ¾ ÑĤÐ¸Ð²
ĠÐ»Ñİ Ð´
Ðº Ð°Ñħ
ĠÑĩ Ð¸Ñģ
Ð²Ð µ
ÑĢ Ð¾Ð±
ĠÑģ Ð¾Ð¾Ð±Ñī
Ð· Ð
ÑĤÐ ½ÑĭÐ¹
Ð¾Ñģ Ðº
°Ñ ħ
Ð°Ñĩ Ð
g i
ĠÐ¼ Ð¾Ð´
ĠÐ² Ð¿
Ġo b
ĠÐ¾Ð´ Ð¸Ð½
Ñĥ Ð
Ñģ ÑĮ
ĠÑģ Ð°Ð¹
ĠÐ±Ñĭ Ð»Ð¸
Ġp ra
ĠÑģÐ¸ÑģÑĤ ÐµÐ¼
ÑĥÐ´ Ð°ÑĢ
ĠÐ¸Ð¼ ÐµÐµÑĤ
Ð°Ñģ Ñ
ĠÐ³ Ð¾Ð´
ĠÐ½ÐµÐ¾Ð±ÑħÐ¾Ð´ Ð¸Ð¼
ÐµÐ ºÐ
ĠÐ±Ñĭ ÑģÑĤ
Ð°ÑģÑ Ĥ
ĠÑģ ÑĥÐ´
ÑĤÐ° ÑĤÐ¾Ñĩ
ĠÐ³Ð» Ð°Ð²
Ð½Ð ¸ÑĤÐµÐ»ÑĮ
Ġs z
¿Ð °
Ð½Ð°Ð ºÐ¾
ÑĤÐµÑģ ÑĮ
¾ ÑĤÐ¾
ĠÑĩÐµÐ»Ð¾Ð² ÐµÐº
n d
ĠÐ¶ ÐµÐ½Ñī
Ð½Ð µÑĤ
ĠÑģ ÑĤÐ°ÑĤÑĮ
Ð¾Ð´Ð¸ÑĤ ÑģÑı
Ð² ÐµÑĤ
³Ð ¸ÑģÑĤ
ĠÐ» Ð¸ÑĪ
t i
ĠÑį ÑĤÐ¾ÑĤ
ÑĤÐ ½Ð¾Ð¹
ĠÑģÐ¾Ð ¾ÑĤÐ²ÐµÑĤÑģÑĤÐ²
Ð» ÐµÐ¹
p e
ĠÐ¿ÑĢ Ð¾ÐµÐ
ĠÑįÑĤ Ð¾Ð¹
âĢ Ŀ
c ja
Ð± Ñĭ
ĠÑĢÐ°Ð· Ð²
½Ð °Ñı
ÑĤÐ°Ñ Ĥ
ĠÑģÑĤ ÑĢÐ°Ð½Ð
ĠÐ¿ÑĢ Ð¸Ð·
Ð¾Ð½ Ñ
ĠÐ¿ÑĢÐ ¸Ñģ
Ñĥ ÑģÑĤ
½Ñĭ Ð¼Ð¸
¸ ÑĢÐ
ÑĮ Ð
ny m
ÐµÑĢÐ ´
Ð¸Ð² Ð°ÑĤÑĮ
ÐµÐ³ Ð´Ð°
Ð¸Ð½Ð ¾
° ÑĢÐ°Ðº
ÑĤÐ¾ ÑĢÐ°
ĠÐ¿ÑĢÐ¾Ð³ ÑĢÐ°Ð¼
Ð°Ð½Ð ¾
ĠÐ· Ð°ÑıÐ²
ĠÐ´Ð µ
Ð¾Ð½Ñ Ĥ
ĠÑģÐ´ÐµÐ» Ð°ÑĤÑĮ
ÐµÐ½Ð½Ñĭ Ð¼
ĠÑĥ ÑĢÐ¾Ð²
ĠÐ²Ð¾Ñģ Ð¿
ĠÐ² Ð°Ð¶
ÑģÑĤ ÑĢÑĥÐº
ĠÑĢÐ°Ð· Ð»Ð¸Ñĩ
Ð½ÐµÐ ²
ÑĢÐ¸Ð¼ ÐµÑĢ
Ġ U
ĠÐ¿Ð °
Ð°Ð½Ð°Ð »
Ð°Ð½Ð ¸Ñİ
ÑĤÐ¸Ð ºÐ¸
ÑĢ Ð¾Ð¿
ĠÑĤÐ µÑĢ
µ ÑĢÐµÐ¼
ĠÐºÐ¾Ð½ Ñ
½ ÑĥÑĤÑĮ
Ð¼Ð µ
ĠÐ¿ÑĢÐ¾Ð¸Ð·Ð² Ð¾Ð´
ĠÑģÐ² Ð¾Ð¹
ÑģÐ» ÐµÐ´
ĠÐ¾Ð½Ð »Ð°Ð¹Ð½
ĠÐ¸Ð½ ÑĤÐµÑĢÐµÑģ
Ð¾Ð´Ð ½Ñı
ĠÐŀ Ð
Ð°Ð½Ð º
ĠÐĺ Ð·
ÐµÐ½Ð ½Ð¾Ðµ
¾Ñģ ÑĤÑĮ
ĠÐŀÐ ½
Ð¾Ð» Ð¶
¾Ñģ ÑĤÐ¸
ĠÑĦ Ð¾ÑĢÐ¼
Ġ1 5
ÑĢÐµÐ »
ÑĢÐ°Ð¶ Ð´
ĠÐ² Ð½Ð¸Ð¼
ĠÐ²ÑĭÑģ Ð¾Ðº
¸Ð ¹
Ġro z
ĠÐ¼ Ð¸Ð½
ĠÑĢÐ°Ñģ Ñģ
ĠÐºÐ¾ ÑĤÐ¾ÑĢÐ°Ñı
w y
ĠÑĥ Ñģ
ĠÑĢÐ°Ð· Ð²Ð¸
Ðº Ð¸Ñħ
ĠÐ²Ð¾Ð· Ð´
Ð¾Ð»Ð ¸
ĠÐ¶Ð¸Ð· Ð½Ð¸
ĠÐ¼Ð°ÑĤÐµÑĢÐ¸ Ð°Ð»
Ð³Ð ¾ÑĤÐ¾Ð²
ĠÐº ÑĢÐ¾Ð²
Ð°Ð½Ð¸ ÐµÐ¼
ĠÑģÐ¾Ð± ÑģÑĤÐ²
¾ Ñı
ĠÑ İ
ÑĤÐ°Ñ ħ
ĠÑģÐ»ÐµÐ´ ÑĥÑİÑī
ÑħÐ¾Ð´ Ð¸ÑĤ
ĠÑĤÐ ¾Ñĩ
ĠÐ· Ð°Ñī
ĠÐ² Ð¾Ð´
Ð¾ÑĢ Ñ
Ġ2 00
p ie
Ð½Ð¸Ð ºÐ¸
ĠÐ³Ð ¾ÑĤÐ¾Ð²
Ð¸ÑĤ Ñĥ
ĠÑģ Ð¾Ð´ÐµÑĢÐ¶
ĠÐ¼Ð¾Ð¶ ÐµÑĤÐµ
ĠÐ±Ñĭ Ð»Ð°
Ð¾Ð· Ð
ÐµÐ» Ð¸Ñĩ
Ð°Ð»ÑĮ Ð½Ð¾
¾ ÑĤÐ°
ÐµÑģÐ¿ ÐµÑĩ
ĠÑĥ Ð·
Ð°ÑĤ ÐµÐ»Ñı
ÑĪ Ð¸Ñħ
µÐ ²
ĠÐ±ÑĥÐ´ ÑĥÑĤ
ÐµÑĢÐ µ
Ġ Ð°Ð¿
Ð² ÐµÑģ
ÐµÐ½Ð½Ð °Ñı
ĨÐ¸ Ð°Ð»
ÑĤÐ ½Ð¾Ð³Ð¾
ĠÐ½ÐµÐ ±
ÐµÐ½Ð½Ð¾Ñģ ÑĤÑĮ
ÐµÐ³ Ð¾Ð´Ð½Ñı
Ġd la
ĠÐ·Ð°Ð² Ð¸Ñģ
Ð°Ñ İ
Ġ ÐµÐ´
ĠÐº ÑĤÐ¾
Ð¾Ð» Ð½ÐµÐ½Ð
Ð¾Ð²Ð ¸Ñı
e z
Ð½ÐµÐ ¼
ow o
ĠÑįÐº ÑģÐ¿
m o
ĠÐ· Ð°ÑĤ
ĠÐĺ Ð
ĠÐ²Ð¸Ð´ Ð
b i
ÑĭÐ² Ð°ÑĤÑĮ
ĠÑĢÐµÐ °Ð
ĠÐ· Ð²
h e
Ð±Ð ¸
s u
Ġc o
ĠÐ½Ð°Ð ¼
ĠÐĺÐ ½
Ð°Ð½Ñ Ĥ
¸Ð ¸
Ð¾Ð² ÑĭÐµ
ĠÑĦ Ð°Ðº
s ki
Ð½Ð¸Ð ¹
ĠÐ°Ðº ÑĤÐ¸Ð²
ĠÐ½ÐµÐ ²
Ñ ĨÐ¸Ñı
ÐµÐ ¾
ĠÐ¸Ð¼ ÐµÑ
ĠÐ¿ÑĢÐ¾Ð± Ð»ÐµÐ¼
ĠÐºÐ¾ÑĤÐ¾ÑĢ ÑĭÑħ
Ð°Ð· Ð°ÑĤÑĮ
ĠÐº ÑĥÐ¿
ÑĤÐ¾ ÑıÑī
ĠÑĦ ÑĥÐ½Ð
ĠÐ½Ð°Ð º
ÑĢÐ°Ð½Ð µÐ½Ð
ĠÑĥ Ð¼
Ð¸Ðº Ð¾Ð²
ĠÑģÑĤ Ð¾Ð¸ÑĤ
Ġw ie
Ġs t
ĠÐ³Ð¾Ñģ ÑĥÐ´Ð°ÑĢ
ĠÐ±ÐµÑģÐ¿ Ð»Ð°
ĠÐĶ Ð
ĠÑħÐ °ÑĢÐ°Ðº
Ġm ie
ĠÐ² ÐµÑī
ĠÐ¾Ð± ÐµÑģÐ¿ÐµÑĩ
ĠÐ²Ñģ ÐµÐ³Ð´Ð°
ĠÐ´ Ð¾ÑĢ
ĠÐºÐ°Ñ ĩÐµÑģÑĤÐ²Ð
Ð»Ð ¸Ñģ
ĠÐ´ Ð°Ð²
ĠÑģ ÑĥÑīÐµÑģÑĤÐ²
ÐµÑ Ĩ
ĠÐ½ÐµÐ ºÐ¾ÑĤÐ¾ÑĢ
ĠÐ²Ð °ÑĢÐ¸
Ð¾Ð² Ð°Ð½Ð¸Ðµ
ĠÐ½Ð ¸
ĠÐ¿ÑĢ Ð¸Ð´
Ð¾Ð² ÑĭÑħ
ĠÐ½Ð°Ð »
ĠÑģ Ð¸Ð»
c ia
ĠÐ²Ð ½ÑĥÑĤ
ĠÐ¾ÑĤÐ½Ð ¾ÑĪ
ĠÐ½Ð°Ð ±
ĠÐ¼ÐµÐ¶Ð´ Ñĥ
ĠÐ´ Ð»
Ð µÑĤÐ
Ġ czy
ĠÐ¼ Ð¾Ð¼
Ð¾Ð¶Ð µ
ÐºÑĥ Ñģ
ĠÑĤ ÑĢ
ºÐ¾Ð¼ ÐµÐ½Ð´
Ð¸Ð» ÑģÑı
Ð°ÑĢ Ñı
ĠÐ¿Ð¾Ð» Ð
Ð·Ð °
Ð¾ÑĢÑ Ĥ
ĠÑģÐ»ÐµÐ´ ÑĥÐµÑĤ
Ð°Ð ¸Ð
Ð°Ð» ÑģÑı
ĠÐ² ÐºÐ»ÑİÑĩ
ĠÐ¿ Ð¾ÑįÑĤÐ¾Ð¼Ñĥ
ĠÐ¾ÑĤÐº ÑĢÑĭ
Ð¸Ð½Ð °Ñ
Ð°Ð½Ð ½ÑĭÐµ
Ð¾Ð½ Ð¾Ð²
Ð¾Ð½Ð °Ð»ÑĮ
ĠÐ´Ð¾Ð± Ð°Ð²
Ð¸Ð² Ð°ÐµÑĤ
ĠÐ¿ ÑĢÐ°Ðº
ĠÑģÐ» Ð¾Ð¶
ĠÐ¡ Ð¿
ĠÐ¼ Ð½Ðµ
ĠÐ³ ÑĢÑĥÐ¿
ĠÐ¼ Ð°ÑĢ
ĠÐ¼ Ð½Ð¾Ð³Ð¾
Ġ lu
ĠÐ¿ Ð¾Ð½
ĠÐ¼ÐµÑģ ÑıÑ
ĠÐ¿ÑĢÐ¾Ñģ Ñ
ĠÐ»ÑĥÑĩ ÑĪÐµ
ĠÐ¿ÑĢÐ¾ÑģÑ Ĥ
ĠÐ½Ð°Ð¿ ÑĢÐ°Ð²
Ð°Ð» Ð¸ÑģÑĮ
Ġ ,
ĠÑĥÑģÐ» Ð¾Ð²Ð¸Ñı
ÐºÐ ¾ÑĢÐ
ĠÐ°Ð²ÑĤÐ¾Ð¼ Ð¾Ð±
ÑĢÐµÐ´ Ð
Ñĥ Ð¹
ĠN a
ÑģÐº Ð¾Ð¼
ni u
Ġ Ð°Ð»
ÑĤÐ¸Ñ ħ
ĠÐ¾Ð±Ð»Ð°Ñģ ÑĤÐ¸
ĠÐ¾ÑĤÐ ¿
Ð³Ð °
Ð½Ð¸Ðº Ð¾Ð²
Ġ â
Ġja k
Ñı ÐµÑĤ
ĠÐ¿Ð¾Ðº ÑĥÐ¿
Ñı Ð¼
ĠÐ·Ð°Ð± Ð¾Ð»ÐµÐ²
ÑĤÐ² Ð¾ÑĢ
ÑĢÐ ³
ĠÑħ Ð¾ÑĤ
ĠÐ´ Ð¾Ð²
ĠÐ´ÑĢÑĥÐ³ Ð¸Ñħ
ĠÐĴ ÑģÐµ
ĠÐ¾Ð± ÑĭÑĩ
k Ã³w
ĠÐ² ÐµÑĢ
ĠÐ§ ÑĤÐ¾
ĠÐ²Ñĭ Ð·
ĠÐ¿Ð¾Ð» Ð¾Ð¶
ÐµÐ¹ ÑĩÐ°Ñģ
ĠÐ½Ð°Ð ¹
Ġ ÑĤÐ¸Ð
ĠÑĢÐ ¸Ñģ
Ñĭ Ñ
ÑĤÐ ºÐ°
ĠÐ¿Ð¾ÑĤ ÑĢÐµÐ±
Ð½Ð ¸Ðµ
ĠÑĥ Ð±
ĠÐ¿ÐµÑĢÐ ¸
ĠÑĦ Ð¾ÑĢÐ¼Ð
ÑĭÑ Ĥ
b ie
ĠÑģÐ¿ÐµÑ ĨÐ¸Ð°Ð»ÑĮ
Ð»Ñı ÑĤÑĮ
ÐµÐ»Ð µ
ÑĪ Ð¸Ð¹
ĠÐ¸ÑģÐ¿Ð¾Ð»ÑĮÐ·Ð¾Ð² Ð°ÑĤÑĮ
ĠÑĨ ÐµÐ½ÑĤ
1 0
ĠÐ¿Ð¾ ÑıÐ²
ĠÐ¿ Ð¾Ð±
ĠÑģ Ñĥ
Ð°Ðº Ð
ĠÐ² ÐµÑģ
ÑĢÐ µÑĩ
ĠÐ¿ÑĢ Ð¸Ð±
Ġ .
ĠÑĪ Ðº
ĠÐŁÐ¾Ñģ Ð»Ðµ
e s
e k
ĠÑĢÐµÐ ºÐ¾Ð¼ÐµÐ½Ð´
Ñı Ð¶
Ġs ta
Ð¸Ð»ÑĮ Ð½Ð¾
ÐµÐ½Ð ºÐ°
ĠÐ½Ð ¾ÑĢÐ
Ġ r
ÑĥÐ± Ð»
ĠÐ²ÑĢÐµÐ¼ ÐµÐ½Ð¸
Ġ1 2
Ð¿Ð °
Ð½Ð ´
Ð°Ð´ Ð
ĠÑģ Ð¾Ð³
ÑĢÐ°Ð ¹
ÑĢ Ð¾Ð¼Ðµ
ÑĢÐµÐ º
½Ð¾Ð¼ Ñĥ
ĠÐľ Ñĭ
ĠÑĨ Ð²ÐµÑĤ
ÑĤÐ°ÑĤÐ¾Ñĩ Ð½Ð¾
s kie
ĠÑĩÐµÐ»Ð¾Ð² ÐµÐºÐ°
Ð½Ð¸Ñ Ĩ
¼Ð µ
p i
ĠÑĤ ÑĢÑĥ
ÑıÑ İÑĤ
ĠÑĢÐ°Ð· Ð¼
owy ch
´Ð °
ĠÐ¿Ð¾Ð¼Ð¾Ñī ÑĮÑİ
ĠÐ½ÐµÐ ³Ð¾
ĠÑģ ÑĥÐ¼
ĠÑĥÐ¿ ÑĢÐ°Ð²
Ð¸Ð· Ð½ÐµÑģ
ÑĥÑĤ ÑģÑĤÐ²
ĠÑģÑĤ Ð¾Ð»
Ð»Ñı Ð´
Ð°ÑĨ Ð¸Ñİ
ĠÑģ Ð¾Ñ
ĠÑĨ ÐµÐ»
Ġna j
Ġ V
u r
ĠÐ´ Ð¾Ð¿Ð¾Ð»
ĠÐ¿ÑĢ Ð¸Ð
ÑĤÐ¸Ð ¹
ĠÐł Ð°Ð·
ĠÑģÐµÐ± Ð
Ð» ÐµÐ½
b a
Ð°Ð·Ð °
00 0
u n
Ð»Ñİ Ð´
ĠÐ¿Ð¾Ð´ Ð´ÐµÑĢÐ¶
ÐµÐ´ ÐµÐ½Ð¸Ñı
g ra
ĠÐ¿ÑĢÐ¾Ñ Ī
± Ð¾Ð»
ÑĤÐ¸Ð ºÐ°
ĠÑģÐµÐ±Ð µ
ĠÐ¿ Ð¾Ð»ÑĮÐ·Ð¾Ð²
ĠÑĥ ÑģÐ¿
Ð ®
Ð» Ð¾Ð²
ĠÑģÑĤ Ð°Ð²
ow i
ĠÐº Ð»Ð°Ñģ
ÑĤÐ¸Ñ ĩ
ĠÐ¼ Ð°Ð³
µÑĢÐµÐ ²
ĠÐ² ÐµÑĢÐ
ĠÐ¾Ð± ÑĢÐ°
ĠÐ» Ð¸Ñĩ
Ð¾Ð»Ð¾Ð³ Ð¸ÑĩÐµÑģÐº
ĠÐ¿ÑĢ Ð¾Ð¸Ñģ
Ð¾Ð» Ð¾Ð¶
no ÅĽci
Ð ½Ð¾Ð³
ÑĨ Ñĭ
ĠÑģ Ð±
ĠÐºÐ² Ð°ÑĢ
ĠÐ¿ Ð¾Ð½Ð
ĠÑĤÐ°Ðº Ð¾Ð¹
ĠÑģ Ð¾ÑĤ
ĠÑģÑĢÐµÐ´ ÑģÑĤÐ²
ÑģÐ ¸Ñı
½ Ð¾Ð¶
Ð¾Ð¿ Ð°Ñģ
ĠÑĢÐ°Ñģ ÑģÐº
ÑĢÐµÐ´Ð ¸
Ð¸Ð»Ð ¾
ÑĤÐ¾ÑĢ Ð¸Ð¸
Ð°Ð½Ð¸Ð ¼
ĠÑģÐ» ÑĥÐ¶
Ð½Ð¸Ñ ħ
Ðº Ð¸Ð¹
ÑĤÐ¸ ÑĤÐµ
ÐµÐ´ Ð
ĠÑĤÐ µÑĩ
ĠÑģ Ð¸Ð¼
Ð°Ðº Ñģ
¸ ÐµÐ¼
ĠÐ´ÐµÐ² ÑĥÑĪ
Ġs Äħ
ĠÐº Ð°Ð¿
ĠÐ»ÑİÐ´ ÐµÐ¹
nie j
ĠÑĤ ÑĢÐ°Ð½
Å º
s y
ĠÐ´Ð¾Ð»Ð¶ Ð½Ñĭ
ÑĢÐ°Ñ ĨÐ¸Ð¸
Ġ n
Ġt a
ĠÐ´Ð¾ÑģÑĤ ÑĥÐ¿
Ġ Ð¾ÑģÑĤÐ°Ð²
ÑĢÐ°Ñ Ī
ĠÑģ ÐµÐº
³Ð ¾ÑĤÐ¾Ð²
ÑģÑĤÐ²Ð µ
Ð»ÐµÐº Ñģ
Ġ ni
ÐµÐ½Ð µ
ÐµÑĢ Ñĭ
Ġ1 8
ĠÐ¼Ð ¸
ĠÐ½Ð°Ð ²
r i
ĠÑĢÐ µÑģ
st y
ĠÑĤ ÑĢÑĥÐ´
f i
ĠÑģÐ²Ð¾Ð ¸
ĠÐ¸Ð½Ð ´
ĠÐ¿ Ð¾Ð³
m en
ĠÑģÐ²Ð¾ÐµÐ ¹
ĠÑģÐ¾Ð² ÐµÑĢÑĪ
b o
ĠÐ¿Ð¾Ð¼ Ð¾Ð³
Ð¾Ð³ ÑĢÐ°ÑĦ
ĠÑģÑĤÐ° ÑĢ
Ð°Ð½Ð ½ÑĭÑħ
ĠÑĩÐ°Ñģ ÑĤÐ¾
ĠÐ¼ Ð°ÑĪ
ĠktÃ³ re
ĠÐ´ÐµÑĤ ÐµÐ¹
ĠÐ¿Ð¾Ðº Ð°Ð·
ÑĪ Ð¸Ðµ
ĠÑģÐ² Ð¾Ñİ
ĠÐ·Ð°Ðº Ð¾Ð½
Ðº Ð¸Ðµ
Ġt ak
ÑĤÑĥ Ð¿
Ð°Ñ ĨÐ¸
µÐ µ
Ġo raz
ĠÐ¸Ð¼ ÐµÐ½Ð½Ð¾
ÑĢÐ ¾Ñĩ
Ġk on
ĠÑĥÐ² ÐµÐ»Ð¸Ñĩ
Ġ Ð°Ð½
ĨÐ¸Ð¾Ð½Ð °Ð»ÑĮ
Ġs po
Ð½Ð°Ñ ĤÑĮ
ĠÑį ÑĤÐ¸
Ġ3 0
ĠÐ¿ÑĢÐ°Ð² Ð
Ð µÑĢÐµÐ´
ĠÐºÐ¾Ð¼Ð¿ Ð°Ð½Ð¸Ð¸
ĠÑĢÐ°Ñģ Ñ
ĠÑĢÐ°ÑģÑ Ĥ
ĠÑģ Ð¸ÑĤÑĥ
ĠÐ´Ð¾Ð»Ð¶ ÐµÐ½
ĠÐº Ð°Ð·
ĠÐºÐ¾Ð½Ñ Ĥ
ÑĢÐµÐ¶ Ð´
Ð½Ð¸Ñ ĤÑĮ
ĠÑģÑĤ ÑĢÐ¾Ð
ĠÐ³ ÑĢÐ°Ð¶Ð´
ĠÐ» Ð¸ÑĨ
Ð¸Ð ½Ð¾Ð¹
Ñı Ñģ
Ġje d
ĠÐ£ Ðº
ÑĢÐ µÑĤ
ĠÐ´Ð µÑĢÐµÐ²
ÑĢÐ°Ð ¼Ð¸
ÑĢÐ¾Ñģ Ñ
ÑĢÐ¾ÑģÑ Ĥ
ÑĢÐ ¸Ñģ
ĠÑĩÐ°Ñģ ÑĤÑĮ
ĠÐ¾Ð± Ð
e d
ĠÐ² Ð²
Ġ ÐµÐ¼Ñĥ
t Ã³w
ĠÐŀÐ´ Ð½Ð°ÐºÐ¾
ĠÐ½ÐµÐ ·
ĠÐĴ Ð
ĠÐ²Ð¸Ð´Ð µ
ĠÐł Ð¤
p ra
ĠÐ·Ð´ Ð¾ÑĢÐ¾Ð²
p u
¸ÑĢÐ¾Ð² Ð°ÑĤÑĮ
ÑĤÐ¸Ñ ĩÐµÑģÐºÐ¸
Ġ go
ĠÐº ÑĥÑĢ
ĠÐ´ Ð¸Ñģ
ÑĤÐ¾ ÑıÑĤÐµÐ»ÑĮ
ĠÐ²Ð¸Ð´ ÐµÐ¾
¾ ÑĤÐµ
Ð» ÐµÐ½Ð¸Ð¸
ĠÐ´ Ð¾Ð¼Ð°
Ð¾ÐµÐ ´
ĠÑĢÐ°Ð± Ð
Ð°Ð» Ð¾ÑģÑĮ
ĠÐ¿ÑĢÐµÐ´ Ð¾ÑģÑĤÐ°Ð²
Ġp a
Ġprze z
ĠÑģÐ¿ÐµÑ ĨÐ¸Ð°Ð»
ÑĥÑ İÑĤÑģÑı
ĠÐ· ÐµÐ¼
ÑĢÐµÐ ¹
Ð¿ ÐµÑĢÐ°Ñ
sz a
Ġk a
ĠÐ¿ Ð¾Ñħ
ÑĢÐ°Ð½Ð ¸Ñĩ
ĠÐ¼ÑĥÐ¶ Ñĩ
Ð¸Ð² Ð°ÐµÑĤÑģÑı
Ð°Ð½Ð ½ÑĭÐ¹
dz e
ĠÐ» Ð¸Ñ
Ñ İÑĤÑģÑı
ĠÐ· Ð°Ñģ
ĠÐ¿ÑĢÐ ¾Ñĩ
ĠÐ¸Ð· Ð±
¶ Ð
ĠÐ²Ñĭ Ð³
ĠÐ½Ð°Ð ³
Ð¾Ð³Ð ¸
ĠÐ± Ð¸Ð·Ð½ÐµÑģ
ĠÑĦÐ ¾ÑĤÐ¾
ĠÑĢ Ð¾Ð´
ĠÐ¿ÑĢÐ¾Ð² Ð¾Ð´
ĠÑĢÐµÐ ³
ĠÐ¼ ÐµÐ½ÐµÐ
Ð»Ð ¸Ñı
j u
ÐµÐ¹ ÑģÑĤÐ²Ð¸Ñı
ĠÐ· Ð°Ð½Ð¸Ð¼
ĠÐº Ð°Ð¼
ĠÐ¿Ð¾Ð² ÑĭÑĪ
ĠÐ¿ÑĢÐ¾Ñ ħ
Ġ ÑĥÑĤ
³Ð µ
ĠÐ² ÑĤÐ¾ÑĢ
ĠÑģÐ» Ð¾Ð²
Ð½Ð µÑĢÐ
ĠÐ³Ð¾ ÑĢÐ¾Ð´
Ġ ÑĥÑħ
ĠÐ¸Ð· Ð²ÐµÑģ
ĠÑĩ ÑĥÐ²
ĠÐ¼Ð¸Ð½ ÑĥÑĤ
Ð¾Ñ Ħ
ĠÑĢÐ°Ð ¹
ĠÐ½Ð°Ð »Ð¸Ñĩ
Ð½Ð µÑĪ
ĠÐ³ ÑĢ
ĠÐ¾ÑĤÐ½Ð ¾Ñģ
Ð½Ð°Ð »
´Ð ¾
Ġ Ð°Ð½Ð°Ð»
ĠÐ¿ÑĢÐ µÑģ
Ð¾Ð ºÐ
ĠÐ· Ð°Ð³
ĠÐ´ÑĢÑĥÐ³ Ð¸Ðµ
o s
ÑĮ ÑĤÐµ
ĠÐ¾ÑĤ Ñģ
ĠÐ½Ð° ÑĢÑĥÑĪ
Ð½Ð¾Ð¼ Ñĥ
ÑĤÐ½Ð °Ñı
ĠÐ¼ÐµÑģ ÑĤÐ¾
½ Ñ
Ð¸Ð½ Ð¾Ð²
ĠÐ¿ÑĢÐµÐ ¿Ð°
j ÄĻ
ĠÑįÐ»ÐµÐº ÑĤÑĢ
ĠÐ¿ÑĢÐ¾Ð´ Ð¾Ð»Ð¶
ÐµÑĢ Ñģ
Ð¾Ð²Ð ¾
ĠÐŀ ÑĤÐ
ĠÐ¾Ð±ÑĢÐ°Ð· Ð¾Ð¼
o ne
ĠÑĤ Ð°Ð¼
ĠÐ²Ð¾Ð» Ð¾Ñģ
Ð°Ð»ÑĮ Ð½ÑĭÐµ
Ġ li
20 1
ĠÑģÐ¾ÑĤ ÑĢÑĥÐ´
ĠÑĥÐ´ Ð¾Ð±
Ð¾Ð¹ Ð´
ºÑ Ĥ
Ð¸Ð» Ð¸ÑģÑĮ
ĠÑģÐ¸ÑģÑĤÐµÐ¼ Ñĭ
Ð¾Ð¶ ÐµÑĤ
o l
ĠÐ² ÑĢÐ°Ñĩ
Ñĥ ÑĤÐ
ĠÐľ Ð¾ÑģÐº
ÑĨ ÐµÐ²
Ñı Ð²Ð»Ñı
ĠÐ² Ð¼ÐµÑģ
ĠÐ´ Ð²Ð°
ĠÐ¿Ð ¸Ñģ
Ð¸Ð¼ Ð¾ÑģÑĤÐ¸
ĠÐ¿Ð¾Ð»ÑĥÑĩ Ð¸ÑĤÑĮ
Ð°Ñģ Ñģ
ĠÑħ Ð¾Ð»
ĠÐ¿ÑĢÐ¾ÐµÐ º
Ġ le
Ġz na
ĠÐ¿Ð¾Ð¼ ÐµÑī
ĠÑĢÑĥÐ± Ð»ÐµÐ¹
ĠÐ´Ðµ ÑıÑĤÐµÐ»ÑĮ
ĠÐ§ ÑĤÐ¾Ð±Ñĭ
ĠÐ² Ð¾ÑĤ
Ð¿ÐµÑĢÐ°Ñ ĤÑĥ
¸Ðº Ð¾Ð²
ĠÑģÐ¼ Ð¾ÑĤ
Ð¼ Ð¸Ð½Ð
ĠÐ¾ÑĦ Ð¾ÑĢÐ¼
ĠÐŁ Ð¾Ð»
ĠÐºÐ²Ð°ÑĢ ÑĤÐ¸
cz a
Ð¸Ð½Ð µÐ½Ð
Ġ ÑĤÐµ
ĠÐ²Ð¾Ð·Ð¼Ð¾Ð¶ Ð½Ð¾ÑģÑĤÑĮ
ĠÑĤÐµÐ» ÐµÑĦ
ĠÑĢÐ°Ð±Ð¾ÑĤÐ °Ñ
Ġ Ð¾Ð·
ĠÐ¿ÑĢ Ð¸Ð»
Ġw i
ÑĤÐ¾ÑĢ Ñĭ
ĠÐ´Ð¾Ñģ ÑĤÐ°ÑĤÐ¾ÑĩÐ½Ð¾
ĠÐ¿Ð¾Ð´ Ð¾Ð±
Ñĥ Ð´Ð°
ÑĢÐ°Ð· Ñĥ
ĠÑħÐ¾ÑĢÐ¾ÑĪ Ð
Ñı Ð
s ka
Ð» Ð¾Ð¼
ĠÐºÐ¾Ð»Ð¸Ñ ĩÐµÑģÑĤÐ²Ð¾
° ÑĤÐ
ie r
Ð°ÑĤ ÑĢ
ĠÐ½ÐµÐ± Ð¾Ð»ÑĮÑĪ
ĠÐ±Ð» Ð°Ð³
ĠÑģ Ð½Ð¸Ð
ĠÐ·Ð´ ÐµÑģÑĮ
ĠÐ¿ÐµÑĢÐ¸ Ð¾Ð´
" .
¸Ñ Ī
ĠÐ´Ð² ÑĥÑħ
ĠÐ²Ð¾Ð· ÑĢÐ°Ñģ
ĠÐ¿ÑĢÐ¾ÑĦ ÐµÑģ
Ð°Ð»ÑĮ Ð½ÑĭÐ¹
k ÅĤa
ĠÐ½Ð°Ñħ Ð¾Ð´
Ð¾Ð½ Ñĥ
ĠÐ³Ð¾Ð² Ð¾ÑĢÐ
ĠÐ´Ð¾Ð¿Ð¾Ð» Ð½Ð¸ÑĤÐµÐ»ÑĮ
ÐµÑĩ Ð
ĠÐŀ Ð½Ð¸
ĠÐ» Ð¸Ð±Ð¾
ĠÐº Ð°ÑĤ
Ð°ÑİÑī Ð¸Ñħ
ĠÐ± ÐµÐ»
ĠÐ¿Ð¾Ð² ÐµÑĢÑħ
ĠÐ´ÐµÐ» Ð°ÑĤÑĮ
ĠÑĢÐµÐ ³Ð¸ÑģÑĤ
ĠÑģ ÐµÐºÑģ
Ġb ÄĻ
ĠÐºÐ¾ÑĤÐ¾ÑĢ Ð¾Ð¹
Ð¸ÑĤ ÐµÐ»Ñı
ÑĢÐ°Ð± Ð¾ÑĤ
ÐµÐ½Ð ½ÑĥÑİ
ĠÐ¢Ð°Ðº Ð¶Ðµ
Ð°Ð»ÑĮ Ð½Ð¾Ð¹
Ð¸Ð» Ð°ÑģÑĮ
Ð¾Ð² Ð°ÑĢ
Ð¾Ð· Ð¼Ð¾Ð¶
Ġo f
Ð¸Ð½Ð ³
ÑĭÐ² Ð°ÑİÑĤ
ĠÑģ ÐµÐ³Ð¾Ð´Ð½Ñı
ÑģÑ ĳ
½Ð °
ĠÐ¿ÑĢ Ð¾Ð¿
ĠÐ»Ð¸ÑĪ ÑĮ
Ð¸Ð² Ð°ÑİÑĤ
ĠÐ³Ð¾ÑģÑĥÐ´Ð°ÑĢ ÑģÑĤÐ²
ĠÐº Ð½Ð¸Ð
ĠÐ¿Ð¾Ñģ ÑĤÐ¾ÑıÐ½Ð
ĠÑįÑĦÑĦÐµÐº ÑĤÐ¸Ð²
ÑĢÐ°Ð ¿
½ Ð¾Ðº
s a
ĠÐ¼ Ñı
ÑģÑĤ Ð°Ð½Ð¾Ð²
ĠÐ´ Ð¾Ð³Ð¾Ð²
ĠÐ¿ÐµÑĢÐµÐ ²
Ġmo Å¼e
d ni
owa Äĩ
Ġdz ie
ÑĤÐ² ÐµÑĢÐ¶
ĠÑı Ð·
ÑĭÐ² Ð°ÐµÑĤ
ĠÐº Ð»Ð¸
Ð°Ð»ÑĮ Ð½ÑĭÑħ
ĠÐ½ÐµÐ ¹
ĠÐ²Ð½ÑĥÑĤ ÑĢ
in g
ĠÐ±ÐµÐ· Ð¾Ð¿Ð°Ñģ
Ð» ÐµÑĩ
ĠÐ¾Ñģ ÑĥÑīÐµÑģÑĤÐ²
ĠÑĢÐ°Ð ´
ĠÐ± ÑĢ
ĠÐ¿Ð¾Ð¿ ÑĥÐ»Ñı
ĠÑĤÐ°Ðº Ð¸Ðµ
ÑĤÐ¸Ð ¸
ÑĥÑħ Ð
ĠÐĿ Ð°Ð¿
ĠÑĢÑĥ Ñģ
Ġ ra
st ÄĻ
ĠÐ½Ð¾ÑĢÐ ¼
ÑĤÐ¾ÑĢ Ð¾Ð²
ĠÐļ Ð
Ð² Ð¸Ð¶
ÑĤÐ²ÐµÑĢÐ¶ Ð´
ĠÑħÐ¾ÑĢÐ¾ÑĪÐ ¾
Ð°ÐºÑģ Ð¸Ð¼
Ð°Ð» Ð°ÑģÑĮ
ÐµÐ» Ñİ
ĠÐ¸Ñģ ÑģÐ»ÐµÐ´
ĠÐ¿ÑĢÐµÐ´ Ð»Ð¾Ð¶
Ð°Ð µÑĤÐµ
5 0
ĠÑģ Ð¾Ñħ
ÐµÑĢÐ ¼
ĠÑĢ ÑıÐ´
Ð»Ñı ÐµÑĤÑģÑı
ĠÐ¾Ñ Ĩ
w e
ĠÐ¿ Ð¾ÑģÑĤÐ°Ð²
ĠktÃ³ ry
Ð¸Ð² Ð°Ð½Ð¸Ñı
Ð½ÐµÐ ³Ð¾
Ĩ Ð¸Ñİ
Ñĥ Ð»Ð¸
ĠÐ¡ Ðº
" ,
ĠÑĤÐµÐ¼ Ð¿ÐµÑĢÐ°ÑĤÑĥ
ĠÐ´ÐµÐ½ÑĮ Ð³Ð¸
Ð¸Ð½Ð°Ð ½
t or
ĠÑĥÑģÑĤ ÑĢÐ¾Ð¹
ÐµÑĢ Ñ
ĠÐ¸Ð·Ð¼ ÐµÐ½ÐµÐ½Ð
ÑĥÐ¶ Ð´
ĠÑĢÐµÐ ³Ð¸
Ð² Ñĭ
ĠÐ³ÑĢÑĥÐ¿ Ð¿
ĠÐ¼ÐµÑģÑıÑ Ĩ
ĩÐµÑģ ÐºÐ°Ñı
ÐµÑĤ Ð¾Ð²
Ġd a
ĠÐºÐ°ÑĩÐµÑģÑĤÐ²Ð µ
ÑĮÐ µ
Ð½ÐµÐ½Ð ¸Ñı
ĠÐº ÑĢÑĥÐ¿
ĠÐ´ Ð½ÐµÐ¹
ĠÐ²Ð½Ð¸Ð¼ Ð°Ð½Ð¸Ðµ
ĠÑĢÐ°Ð ²
ĠM a
ĠÑģÐ¾Ð² ÑĢÐµÐ¼
ĠÑįÐº Ð¾Ð½Ð¾Ð¼
Ð°Ð»Ð µ
ĠÑģÐ¾Ð± Ð¾Ð¹
ÐµÑĢÑ Ĥ
ĠÐ½Ð°Ð ·Ð²
ĠÑģ ÐµÐ¹ÑĩÐ°Ñģ
ĠÑĤÐµÑĩ ÐµÐ½Ð¸Ðµ
Ñĥ ÐµÐ¼
Ð½Ð¸Ð ²
ĠÐ¿ÑĢÐ¸ Ð¾Ð±
ÑĢÐ ¸ÑĤ
ĠÑĢÐµÐ ¶
Ð°ÑĤ ÐµÐ»ÐµÐ¹
ĠÑĦ Ð¸Ð»ÑĮ
ĠÐ²Ñĭ Ð²
ĠÐº Ð¾ÑĢÐ
ĠÐŀ Ð¿
ĠÐ·Ð½Ð°Ð ºÐ¾Ð¼
ĠÐ¿ÑĢÐ¾ÑĨÐµÑģ Ñģ
ÑĤÐ°Ñ ĨÐ¸Ð¸
o na
Ð¾Ð»Ð ½Ñı
ÐµÑģ Ñ
ch o
Ġ /
Ð¸Ñģ Ð
Ðº Ð¾Ð»ÑĮ
½ ÑĥÐ»
Ð°Ñī Ð
Ġ Ð°Ð½Ð
ĠÐ²ÑģÑĤ ÑĢÐµÑĩ
ĠÐ½Ð°Ñģ ÑĤÐ¾ÑıÑī
Ð¾Ð»Ð µ
ĠÐ·Ð°Ðº Ð»ÑİÑĩ
ĠÑ ī
Ġm i
ÐµÑģÑ Ĥ
ÅĤ e
ÐµÐ´ Ñĥ
Ġty m
ÑĨ Ð¸Ñİ
Ð¾Ð½Ð µÐ
° ÑĤÐ°
Ñĭ Ðº
Ñĩ ÐµÑģ
ĠÐ¿ÑĢ Ð¸Ð½Ð¸Ð¼
µÑĤ ÑģÑı
ĠÐ½Ð°Ð ¸Ð
o sta
Ð¾Ð»Ð ¾
s p
Ð½Ð¸Ñ ĩ
Ð¸Ñģ Ð»
ĠÐŁ Ð¾ÑįÑĤÐ¾Ð¼Ñĥ
Ġ1 1
ĠÑĤÐ°Ðº Ð¸Ñħ
ĠÑĤ Ð¾Ð¶Ðµ
Ġ Ð®
Ñĩ Ð¸Ðº
n g
ĠÐ±ÑĭÑģÑĤ ÑĢÐ¾
Ð°Ð» Ð»
i r
ĠÑģ Ð¾Ð¿
ĠÐºÐ°Ð¶Ð´ ÑĭÐ¹
ĠÐĹ Ð
u je
ĠÐ²Ñĭ Ð´
ĠÐ¿ÑĢÐµÐ´ Ð»Ð°Ð³
ĠÐ¿ÑĢÐµÐ º
Ð¸ÑĤ ÐµÐ»ÐµÐ¹
Ð¾Ð¾Ð± ÑĢÐ°Ð·
ĠÑħ Ð¾Ñĩ
ĠÐ¼Ð¾Ð» Ð¾Ð´
ĠÐ¿Ð¾ÑĤ Ð¾Ð¼Ñĥ
Ð°Ñ Ħ
Ñĳ Ð½Ð
Ð¸Ð² Ð
Ð°Ñĩ Ð°ÑĤÑĮ
Ð¾Ð² Ð¾Ð³Ð¾
ĠÐ´Ð² Ð¸Ð¶
ÐµÐ½Ð °Ð
Ñģ Ð¸Ñħ
ĠÑĥÐº Ð°Ð·
Ð» Ð°Ð¼
Ð¸ÑĤ Ñĭ
ĠÐ¿ÑĢÐ¸Ð¼ ÐµÐ½ÐµÐ½Ð
ĠÑį ÑĤÐ¸Ñħ
µÐ ¹
ĠÑĩ ÐµÐ³Ð¾
ÑĢÐ°Ð ½Ñĭ
ĠÑĤÐµÑĢ ÑĢÐ¸
ÐµÐ² Ð
¼Ð °
ĠÑĢÐµÐ º
Ð¾Ð³Ð °
ĠÑģ ÑĢÐ°Ð·Ñĥ
ĠÐ±Ð¾Ð» ÐµÐ·
ĠÐļ Ð¾Ð³Ð´Ð°
Ġ1 4
ĠÐ· Ð°Ð½
Ð°ÑĪ Ð
ÑģÑĤÐ² Ð¾Ð¼
Ñİ Ð´
ĠÐ¾Ð±ÑĬ ÐµÐº
ÑĢÐ ¼
ĠÑģÐ²Ð¾Ð ¸Ñħ
ÑĤÐ °Ñı
Ð°Ð»ÑĮ Ð½Ð¾Ð³Ð¾
Ġ la
ĠÐļ Ð¾Ð¼
Ġ1 00
ĠÑģÑĢÐµÐ´ ÑģÑĤÐ²Ð°
Ġz e
ĠÐ¿ÑĢÐ¸Ð· Ð½Ð°Ð
ĠÑģ Ð°Ð¹ÑĤÐµ
ĠÐ¸Ð½Ð ²
ĠÐĹÐ °
ĠÐ¿Ð °Ñģ
ÐµÐ» ÐµÐ¼
ÑĢÑĥ Ð¼
ĠÑĢÐµÐ ¼
ĠÐ²Ð¾Ð· Ð½Ð¸Ðº
ĠÑĩÐ°Ñģ ÑĤÐ¸
ĠÐ½Ð ¾Ñģ
ĠÐ£Ðº ÑĢÐ°Ð¸Ð
ÑĪ ÐµÐ³Ð¾
ĠÑį Ð»ÐµÐ¼
ĠÑĢÐ°Ð· Ð
Ð°Ñ ĨÐ¸Ð¾Ð½Ð
Ð°Ð½Ð ½Ð¾Ð¹
ĠÑģÑĤÐ¾ÑĢ Ð¾Ð½Ñĭ
Ð°Ð¼Ð °
ĠÐ² Ð¾Ð´Ñĭ
Ð°ÑĩÐ ¸
ĠÐ¿Ð¾ÑĢ ÑıÐ´
ĠÐ¿ Ð¾ÐºÐ°
_ _
ĠÑĢÐ°Ð· Ð¼ÐµÑĢ
ĠÐ¼ Ð¸Ð»
ÐµÐ½Ð ½Ð¾Ð¼
ĠÐº ÑĢ
Ġ Ð¾Ñħ
ÐµÑģÑĤÐ²Ð °
ĠÐ³Ð¾Ð» Ð¾Ð²
ĠÐ¿ÑĢ Ð¸Ðº
µÑĩ Ð½Ð¾
ĠÐ½Ð°Ð ´Ð¾
Ð¾Ð½Ð ½Ð
ĠÐ¼Ð°Ð³ Ð°Ð·
ĠÑĪ Ð¸ÑĢ
ty cz
ĠÐ¾Ð± ÑĢÐ°Ñī
Ġlu b
ĠÐ¿ÑĢÐµÐ ²
Ġ Ð½Ð¾Ð¼
ĠÐ¿ÑĢÐ¸Ð¼ ÐµÑĢ
Ġd e
ĠÐ²Ñģ ÐµÐ¼
ĠÐ³Ð¾Ð² Ð¾ÑĢ
ĠÑĤ ÐµÐ±
ĠÐºÐ¾Ð½ ÑĤÑĢ
ĠÐ· Ð°Ð»
±Ð¾Ð» ÐµÐµ
Ð¾ÑĢ ÑĤÐ°
Ð»Ð ¾ÑĤÐ
Ð°Ð½Ð°Ð ²
Ġb ez
ĠÐ¼ÐµÐ½ÐµÐ µ
ĠÑģÑĤÑĢÐ¾Ð ¸ÑĤÐµÐ»ÑĮ
µÑģ Ñı
ÐµÑģÑĤÐ²Ð ¾
ĠÐ½Ð°Ð· Ð½Ð°Ñĩ
ĠÐ¼ ÐµÑĢ
¸ ÑĤÐ°ÑĤÑĮ
ĠÐ¿ Ð¸ÑĤ
ĠÐ¿Ð» Ð¾Ñī
Ð± ÑĢÑı
ĠÐºÐ°Ð· Ð¸Ð½Ð¾
ĠÑĢÑĥ ÐºÐ¾Ð²
re s
ĠÐļ ÑĢÐ¾Ð¼Ðµ
Ħ ĸ
ĠÑĢÐ°Ð± Ð¾Ñĩ
ĠÑģ Ñĭ
a d
ÑģÐº Ð¾Ðµ
ÑĪ ÐµÐ¹
¾ ÑĢÑĥÐ´
ĠÐ¡ Ð²
Ġ1 6
ÑĨ Ð¸Ð¹
ĠÑģÑĤ Ð¾Ð¸Ð¼
ĠÐº Ð¾Ñģ
ĠÑģÐ¾Ð³ Ð»Ð°Ñģ
ĠÑĢÑĭ Ð½Ð
ĠÑĨ Ð²Ð
. ,
Ð°ÑİÑī Ð¸Ðµ
ĠÐ±ÐµÑģÐ¿Ð»Ð° ÑĤÐ½Ð¾
Ñĳ Ñ
Ð±Ð °
ÑĳÑ Ĥ
ÐµÑģ Ð
owe j
ĠÐ¿Ð¾Ð·Ð²Ð¾Ð» ÑıÐµÑĤ
ĠÐ¼ Ð¾ÑĢ
ÐµÐ¼Ð µ
ĠÐ¼Ð¾Ð¼ ÐµÐ½ÑĤ
ĠÐºÐ¾Ð½Ð º
ĠÐ´ ÐµÐ½ÐµÐ
ĠÑģÑĤ Ð°Ð½Ð¾Ð²
Ġo s
Ð¾Ð½Ð ´
ĠÐĿ Ð¾Ð²
ĠÐŀ Ñģ
Ð¸Ð» Ð¾ÑģÑĮ
Ġ Ð°Ð¼
»Ð µ
ÑĤÐ¸Ð ·
ĠâĢ ŀ
ĠÐ¼ÐµÑĤ Ð¾Ð´
ĠÐ¿ Ð¾Ð¶
ĠÐ¶ Ð¸Ð·Ð
u s
e l
ĠÐ¿ÑĢ Ð¾Ð¼
Ð¾ÑĢÐ µ
ĠÐ¾Ð´Ð ½Ð¾Ð¹
ÑĢÐ µÑĪ
ĠÑģÑĩ Ð
ra n
Ġ ce
ĠÐ¡ Ð°Ð¼
Ġ Ð°ÑĢÐ
ĠÐ¾Ñĩ ÐµÑĢÐµÐ´
Ð» ÐµÐ½Ñĭ
Ð¾Ð· Ñı
owa nie
ĠÑĢÐµÐ± ÐµÐ½ÐºÐ°
ĠÐ¸Ñģ ÐºÐ»ÑİÑĩ
ĠÐºÐ¾ÑĤÐ¾ÑĢ Ð¾Ðµ
ĠÑĩ Ð
ĠÑĢÐ°Ð ½Ð
ĠÐ»Ñİ Ð´Ð¸
ĠÑģÐ¾Ñ ĨÐ¸Ð°Ð»ÑĮ
ĠÑħÐ°ÑĢÐ°Ðº ÑĤÐµÑĢÐ
Ð¾Ð»Ð¾Ð³ Ð¸Ð¸
Ð°Ð½Ð ½Ð
ĠÐ¿Ð¾Ð´ Ð³Ð¾ÑĤÐ¾Ð²
z na
ĠÐ½Ð ¸Ñĩ
ÑĢÐ µÑħ
Ð ½Ñĥ
ĠÐ´ Ð°Ð»ÑĮ
ÐµÐ½Ð ·
t t
ÑĢÐ¸ ÑĢÐ¾Ð²
f or
st o
Ð¸Ñ ĨÐ¸
ĠÐŁ ÑĢÐµÐ´
ĠÑĥÐ´ Ð°Ð»
ĠâĢ ľ
º Ð¾Ð²
ĠÐ´Ð¾Ñģ ÑĤÐ¸Ð
ĠÐ±Ñĭ Ð²
· ÑĭÐ²
ĠÐ¿ÑĢÐ ¸Ñħ
ÐµÐ½Ð½Ñĭ Ð¼Ð¸
ĠÐºÐ¾Ð½ Ñģ
Ð¸ÑĩÐµÑģÐº Ð¸Ñħ
ĠÐ³ ÑĢÑĥ
ÐµÑĢ Ðº
jÄħ cy
Ð¾Ð¸Ð ¼Ð¸
Ð¿Ð ¸
ĠÐ¾ÑĤÐ ¼
Ġâ Ħĸ
Ã³ ÅĤ
ĠÐ¿Ð¾ÑĢ Ð½Ð¾
Ð°ÑĢ Ñ
ÑģÑĤ ÑĥÐ¿
Ð¸Ð· Ð°ÑĨÐ¸Ð¸
szy st
ĠÑģÑĩ ÐµÑĤ
Ð°ÑĢÑ Ĥ
ĠÑĪ Ñ
ĠÑĪÑ Ĥ
2 1
Ġmo Å¼
Ġs wo
ĠÐ» Ð¸Ð½Ð
ĠÐķ Ð²
ĠN ie
ĠÑģÑĩ Ð¸ÑĤ
ĠÑĦ Ð¸Ð·
ĠJ e
t k
ĠÐ¿ÐµÑĢÐ µÑģ
ÐµÐ· Ð´
ĠÑĢÐ¾Ñģ ÑģÐ¸Ð¹
ĠÑĢÐ°Ð±Ð¾ÑĤ Ñĥ
ĠÐ¾ÑĤÐ´ ÐµÐ»
ĠÐ¿ÑĢÐ¾Ð² ÐµÑĢ
ÑĤÐ ½ÑĭÐ¼
Ð¾ÐµÐ ²
Ð¸Ñ ĨÐ¸Ð°Ð»ÑĮ
ĠÑĢÐµÐ·ÑĥÐ»ÑĮ ÑĤÐ°
Ð¾ÑĢ Ñĭ
ĠÐ½Ð°Ð¿ ÑĢÐ¸Ð¼ÐµÑĢ
Ġ1 3
ĠÐŀ Ñ
ĠÐŀÑ Ĥ
ĠZ a
Ġ ÐµÑ
ĠÑĤÐµÑħ Ð
ĠÐ¾Ð³ ÑĢÐ°Ð½Ð¸Ñĩ
Ð¿ Ð»
ĠÐº Ð°Ñģ
ÑĥÑĩ ÑĪ
Ð¸Ð´ Ñĥ
ĠÐĺ Ð¼
ĠÑĤÐµÑħÐ ½
ĠÑģÐ²Ð¾ÐµÐ ³Ð¾
ĠÑģÐ¿ ÑĢÐ°Ð²
u m
ĠÐŀ Ð½Ð°
ĠÑĤÐµÐ¿ Ð»
Ġ5 0
ĠÐ² ÑģÑĳ
ĠÐ¼ ÑĥÐ·
u l
ĠÐ¿Ð¾Ð½Ð ¸Ð¼
ĠÐ´Ð ½Ñı
Ð»ÑıÑ İÑĤ
ÑĤÐ ½Ð¾Ðµ
ĠÐ¿Ð¾Ð´ ÑħÐ¾Ð´
Ð¾Ð½Ð ¸Ð
Ð¸Ñī Ð
Ġb ar
Ġa le
ĠÑģÑĤ ÑĢÐ°Ñħ
ĠI n
µÑ Ħ
cy j
ia ÅĤa
ÑĨ Ð¸Ð¿
½Ñ Ĥ
Ð´Ð ¾
ĠÐ² Ð½ÐµÑĪ
iÄĻ k
Ð¾Ð¿ ÑĢÐ¸Ñı
Ġ ÑĢÐµÐ´
r owa
ĠÑıÐ²Ð»Ñı ÑİÑĤÑģÑı
Ð¾Ð´ Ð°ÑĢÑı
c o
°Ñ Ĥ
ĠÐºÐ»Ð°Ñģ Ñģ
Ð¾Ð¶Ð´ ÐµÐ½Ð¸Ñı
Ð°Ð½Ð°Ð² Ð»Ð¸Ð²
ĠÐ½Ð°Ð¹ ÑĤÐ¸
ĠÐºÐ¾ÑĤÐ¾ÑĢ Ð¾Ð³Ð¾
ĠÐ¾Ñģ Ð²
ĠÑĢÐ°ÑģÐ¿ Ð¾Ð»Ð¾Ð¶
c je
c k
ĠÐºÐ°Ñ ĩÐµÑģÑĤÐ²
ÐµÐ½Ð ¸ÑĤÑĮ
ĠÑĢÐ°Ð· Ð´
µ ÑĤÐ¸
ÑĢÐ¾Ñ Ħ
ĠÑĢÐ°Ð·Ð²Ð¸ ÑĤÐ¸Ñı
ĠÐ¿Ð¾Ð» Ð½Ð¾ÑģÑĤÑĮÑİ
Ð¾ÑĤ Ñĭ
ĠÐºÐ¾Ð½ ÑģÑĤÑĢÑĥÐº
ÑĥÑīÐµÑģÑĤÐ² Ð
ÐµÑĢÐ°Ñ ĨÐ¸Ð¸
ĠÑģ Ð¸Ð»ÑĮ
ĠÐ¼ Ð¸Ðº
ĠÐ´Ð¾Ð»Ð¶ Ð½Ð°
ĠÐ´ Ð¸Ð·
ĠÐ¾ÑĤÐ¿ ÑĢÐ°Ð²
Ð°ÑĤ ÐµÐ»Ð¸
ĠÐ¿Ð¾Ð» ÐµÐ·
ĠÐº ÑĥÐ»ÑĮ
ĠÑĦ Ð¸Ð½Ð°Ð½
ĠÑĢÐµÐ °Ð»ÑĮ
ĠÐŁ ÑĢÐ
ÐºÐ¾Ð»ÑĮ ÐºÑĥ
Ð¼Ð¾ÑĤ ÑĢ
ÑĭÐ² Ð°ÐµÑĤÑģÑı
Ð°Ð½Ð µ
ĠÑģ Ñħ
Ġprze d
rz Äħ
ĠÑģÐ² Ð¾Ð¸Ð¼Ð¸
1 2
ĠÑģ ÑĢÐ¾Ðº
ĠÐ¿Ð¾Ð»Ð ¸
ĠÑģÑĤÐ°ÑĤÑĮ Ð
ĠÐ½Ð°Ð ½Ð
ĠÑģ ÐµÑĢÐ´
ĠÑĤÑĭ ÑģÑı
ÑģÑĭ Ð»
ĠÐºÐ¾Ð½ ÑĨ
ia ÅĤ
ÐµÑĢÐ ³
ĠÐ¾Ðº Ð¾Ð»Ð¾
°Ñ ĩ
ĠÐ¿Ð» Ð°ÑĤ
ĠÑģÑ Ħ
ĠÐ°Ð²ÑĤÐ¾Ð¼Ð¾Ð± Ð¸Ð»
ĠÐ² Ð¾Ð¹
ĠÐ¸Ð¼ÐµÑ İÑĤ
ĠÐ² Ð»Ð¸Ñı
ÅĽ li
ĠÐ²Ð¾Ð· Ð²
½ Ñİ
ĠÐŁ ÑĢÐ°Ð²
d o
ĠÐºÑĥÐ¿ Ð¸ÑĤÑĮ
ĠÐ¿Ð ¾ÑĤÐ
ĠÐ¼ Ð°ÐºÑģÐ¸Ð¼
ĠÑĤ Ð¾Ð»
Ð¾Ð»ÑĮ Ð½Ð¾
ĠÑĤ Ð¾Ð²Ð°ÑĢ
ÑĢÑı Ð´
owa nia
ÐµÑĢÐ ¸
ĠÑĤÐ°Ðº Ð¾Ðµ
ĠÑĤÑĢÐ°Ð½ ÑģÐ¿
ĠÐ¶Ð¸Ð·Ð ½ÑĮ
ĠÐ¾ÑĤÐ´ ÐµÐ»ÑĮ
ĠÑĢÐ°ÑģÐ¿ ÑĢÐ¾ÑģÑĤ
Ñĩ Ð¸Ð²
Ñı Ñħ
ĠÐ¿ÑĢÐ¾ÑĦÐµÑģ ÑģÐ¸
dz a
ĠÑģÐ¾Ñģ ÑĤÐ¾Ñı
ÑĢÐµÐ´ Ð¸ÑĤ
ĠÐ¼ÐµÐ´ Ð¸ÑĨ
ÑĢ ÑĮ
ÑĢ Ð¾Ð¸Ð
ĠÐ²Ð°ÑĢÐ¸ Ð°Ð½
Ġ ÑĤÐ²
ĠÑģÐ¾Ñģ ÑĤÐ¾ÑıÐ½Ð
Ð°Ð ³Ð
Ð¸Ð½Ð ¸Ð
ĠÐ¿ ÑģÐ¸Ñħ
Ð¼Ð ¾
Ð¾Ñģ ÑĤÐ¾ÑıÑĤÐµÐ»ÑĮ
ĠÐ²Ñĭ Ð´ÐµÐ»
ĠÐ´ Ð°Ð»
Ġ2 5
Ġ [
Ġ1 7
ĠÑĤ ÑıÐ¶
ĠÑģÑĢÐµÐ´ Ð
ĠÐ² ÐµÐ»
Ð¾ÑĤ ÑĢÐµÐ±
ĠÐĲ Ð²
ÑĢÑĥ ÐµÑĤ
ĠÐ¸Ð³ ÑĢÑĭ
l ko
ÐµÐ½ Ñģ
Ñģ ÐµÐ¼
ĠÐ¿ÑĢÐ¸Ð ³Ð¾ÑĤÐ¾Ð²
Ð ¸ÑĢÐ¾Ð²
ĠÑĤ ÑĢÐ¸
ĠÑĤÐ¾ ÑĢÐ³
ĠÐ¼ ÐµÐ½ÑĮ
dz o
k t
ĠÐ´Ð¾Ð¼ Ð°ÑĪ
ĠÑĤÐ º
Ġ Ð°Ð³
ĠÑį Ð½ÐµÑĢÐ
n t
Ð¼Ð¸Ð½Ð ¸ÑģÑĤ
Ð· Ñı
Ð» ÐµÐ½Ð¸ÐµÐ¼
ĠÑĤ ÐµÐº
ĠÐ»ÑİÐ± Ð¾Ð¹
ĠÐ¸Ð· Ð´
Ð¾Ð½ Ñĩ
ÑĢÑĥÐº ÑĤÑĥ
ĠÐĲ Ð»ÐµÐºÑģ
ĠÐµÑ ĳ
ĠÐ± Ð°Ð½Ðº
¸ ÑĤÐ°Ñ
ĠÐ¸Ð½ ÑģÑĤ
ĠÑĥÑģÐ»Ð¾Ð²Ð¸Ñı Ñħ
stÄĻ p
jÄħ c
¾Ñ Ħ
ĠÐ¿ Ð»Ð°Ñģ
Ġ Å
ĠÐºÐ°Ðº Ð¾Ð¹
ÑıÑ İÑī
Ð¾Ð´Ð ½Ð¾Ð¹
Ġ Ð°Ð±
ĠÐ¾Ð± Ð»Ð°Ð´
Ð¿ ÑĤÐ¾Ð¼
Ð»ÑıÑ İÑī
1 9
ĠÐ¿ÑĢÐ¸Ð½ Ñı
ĠÐ¸Ð´ ÐµÐ
ĠÐĶ Ð¶
ĠÐ¼ Ð¸Ð½Ð¸Ð¼
ĠÐºÐ¾Ð¼Ð¿ Ð»ÐµÐº
ĠÐ¿Ð¾Ð´ Ð¿
a t
ĠÐ¾Ð±Ð ¾ÑĢÑĥÐ´
Ð¾Ð¶ Ð½Ð¾
Ð½Ð°Ð ºÐ¾Ð¼
ÑģÐº Ð¸Ð¼
! !
Ġ X
Ñı Ð½Ð
´Ð µ
ĠÐ´ ÐµÐ¹ÑģÑĤÐ²Ð¸Ñı
ĠÐ± ÑĥÐº
ÅĤ Äħ
s o
ÑĤÐ ¸Ñģ
ĠÐ¿Ð¾Ð´ Ð²
ĠÐ´ Ð¾Ð¿
ÑĤÐ µÑĤ
ĠÐ¿Ð¾ÑĤ Ð¾Ð¼
ĠÑģÑĤ Ð°Ð»
Ñĭ Ð»
ÑģÐ» ÑĥÐ¶
ĠÐ± Ð¾ÑĢ
Ð¼ Ð°ÑĤÑĢ
ÑĤÐ½Ð ¾ÑģÑĤÐ¸
Ð¾Ð¶Ð ¸
ĠÐ²Ð¼ÐµÑģ ÑĤÐµ
ĠÑĤÐ µÑģ
Ð¾Ð± ÑĢÐ°Ð¶
ÑĤÐ¸Ð ½
ĠÑģÑĤ ÑĢ
ĠÐ½Ð°Ñģ ÑĤÑĢ
´Ð ¸
ĠÐ²ÐµÐ´ ÑĮ
ĠÐ²Ñĭ ÑĪÐµ
ĠÐ¿ÑĢ Ð¾Ðº
ĠÐ´ ÐµÑģ
ĠÑĩÑĥÐ² ÑģÑĤÐ²
d ow
Ð¸ÑĩÐµÑģÐº Ð¸Ðµ
ĠÐĺ Ñģ
ĠÐ³Ð °
ĠÐ¸Ð³ ÑĢÐ¾Ð²
ĠÑģÐ°Ð¹ Ñ
ĠÐ½Ð°Ñģ Ñ
ĠÑģÐ°Ð¹Ñ Ĥ
ĠÐ½Ð°ÑģÑ Ĥ
Ñİ Ð±
ĠÑĤÐ ¾ÑĤ
Ð°ÑİÑī Ð¸Ð¹
ĠÐ½ÐµÐ´ Ð¾Ñģ
Ð°ÑīÐ µ
ĠÑģÐ² Ð¾Ð±
Ġ Ð¸Ñİ
Ñĭ Ñģ
ĠÑĦ Ð¾ÑĤ
ĠÑģÐ°Ð¼ ÑĭÑħ
owe go
Ðº Ð¾ÑģÑĤÑĮ
ÑĢ Ð¸Ð¸
Ð½Ð¸ ÑĤÐµ
ĠÐ± ÐµÑģ
ĠÐ¿Ð¾Ð¼Ð¾Ñī Ð
ĠÐ¿Ð¾Ð¼Ð¾ÑīÐ ¸
ĠÑĤÐ¸Ð ¿
Ð» ÐµÐ½Ð°
ĠÑĤ ÑĢÐ°Ð²
ĠÐĹ Ð°Ðº
Ġ Ð¸ÑĤ
ĠÑģ ÐµÑĢ
ĠÐ¾Ð± Ñģ
Ðº Ð¾Ð³Ð¾
ĠÐ³Ð¾ÑĢ Ð¾Ð´Ð°
ĠÑģ Ð¾Ñĩ
ĠÑĥÑģÐ» ÑĥÐ³
ĠÐ¿ Ð¾Ð¸Ñģ
ĠÐ± Ð°Ð½Ð
ĠÐ±Ð µÑĢÐµÐ¼
Ġo p
ĠÑģ Ð¾Ð»
Ġ Ð½Ð¾Ð³
¶Ð µ
ĠÐ¸Ð½ÑĤÐµÑĢ Ð½ÐµÑĤ
Ġw szyst
ĠÐ½Ð¸Ðº Ð°Ðº
Ð¾Ð¶ Ð¸Ð´
ĠÐĹ Ð´
Ð¸Ð µÑģÑı
ĠÐ¿ÑĢ Ñı
ĠÑģÐ²ÑıÐ· Ð
ĠÑģÐ²ÑıÐ·Ð ¸
ĠÐº ÑĢÑĭ
ĠÑĢÐµÐ°Ð »
ĠÐ½Ð ¸Ð¼
¸ÑĨ Ñĭ
ĠÐºÑĥÐ»ÑĮ ÑĤÑĥ
Ð¸Ð² Ð¸Ð´Ñĥ
ĠÐ½Ð° ÑĢ
ĠÐ»ÐµÑĩ ÐµÐ½Ð¸Ñı
ĠÐ´ÑĢÑĥÐ³ Ð¾Ð¹
ĠÐ·Ð°Ð±Ð¾Ð»ÐµÐ² Ð°Ð½Ð¸Ñı
Ġt he
ĠÐĵ Ð»Ð°Ð²
Ð¼Ð¾ÑĤ ÑĢÐµÑĤÑĮ
Ð» Ð°ÑĪ
ĠÑģÐ°Ð¼ Ð¾ÑģÑĤÐ¾ÑıÑĤÐµÐ»ÑĮ
Ġcz as
ĠÐľ Ð
ĠÐ»ÐµÐ³ ÐºÐ¾
Ð¾Ð ¸
µÑĢÐ °
ĠÐ² ÐµÑģÑĮ
ÐµÐ² Ð¾Ð¹
ÑıÐ ½
ĠÐ¾ÑĤÐ ¼Ðµ
Ġs y
ĠÐ¿ Ñı
ĠÐ¼ Ð°ÑĤ
Ð Ļ
ĠÑģ ÐºÐ¾ÑĢÐ
ĠÑģ Ð¾Ðº
wi Äħ
ĠÐ·Ð°ÑĤ ÐµÐ¼
ĠÐ½Ð°ÑĪ Ð
Ġpo z
ĠÐ½Ð¸Ð ·
ĠÐ½Ð°Ñĩ Ð¸Ð½Ð°Ð
ĠÑĥÐ² Ð¸Ð´
ĠÐ² Ð´
ĠÐ¿ Ð°ÑĨÐ¸
tt p
Ð¾Ðº Ñģ
Ð¾Ð» Ð¾Ð²
rz a
ĠÐ´Ð² Ð¸Ð³
ĠÐĴÐ ¾
ĠÑģÐ½Ð¸Ð ¶
ĠÐŁ ÐµÑĢÐ²
ni ka
ĠÐ´ Ð¾ÑģÑĤÐ°Ð²
ĠÐ¿Ð¾Ð½ Ñı
ĠÐ²Ð°ÑĪ Ð
ĠÐ½Ð ¾Ñĩ
ĠÐ¾Ð¿ Ð°Ñģ
ÑĢÐµÐ µ
v e
ĠÐ¼Ñĭ ÑĪ
ĠÑĤ Ð¾Ð³Ð´Ð°
Ð½Ð¸Ñ ĩÐµÑģÐº
ĠÐ³ Ð°Ð·
Ð½Ð¾Ñģ ÑĤÐµÐ¹
ĠÐ¾Ð´Ð ½Ð¾Ð³Ð¾
3 0
g u
Ð¼ ÐµÐ½
ĠÐ¿ÑĢÐ¸Ð» Ð¾Ð¶
ĠbÄĻ dzie
ĠÐ¿ÑĢÐ¾Ð¸Ð ·
ĠÐ¾ÑĦ Ð¸ÑĨÐ¸Ð°Ð»ÑĮ
ÑĤÐ¸ÑĤ ÐµÐ»ÑĮ
ĠÐ³Ð» ÑĥÐ±
ĠÐł Ð°Ñģ
ĠÐ½Ð°Ð¸Ð ±Ð¾Ð»ÐµÐµ
ĠÐ¾Ð± Ð»
ĠÐ´ÐµÑıÑĤÐµÐ»ÑĮ Ð½Ð¾ÑģÑĤÐ¸
Ð¾Ñĩ ÐºÐ¸
Ð» ÐµÐ¶
Ð¾Ð´ Ð¾Ð²
ĠÐºÑĢÐ°Ñģ Ð¸Ð²
ÑĢÐµÑģ Ñģ
ĠÐ³ÑĢÐ°Ð¶Ð´ Ð°Ð½
ĠÐ¿ÑĢÐ¾Ð¸Ñģ ÑħÐ¾Ð´Ð¸ÑĤ
- -
Ð½ÐµÐ½Ð ¸Ðµ
ĠÐº ÑĢÐµÐ¿
ĠÐ² Ð»Ð°Ð´
ĠÐ¢ Ð
Ġ Ð¾Ð²
Ð¾Ð»Ð °
ÐµÐºÐ °ÑĢ
/ /
ĠÐ²Ð½ÑĥÑĤÑĢ ÐµÐ½Ð½Ð
ĠÐ¿ ÐµÑģ
ĠÐ¿ÑĢÐµÐ ·
ĠÑįÐ»ÐµÐº Ñ
ĠÑįÐ»ÐµÐºÑ Ĥ
Ð¨ ÐĲ
ĠÐ¾ÑĢÐ³Ð°Ð½Ð¸Ð· Ð°ÑĨÐ¸Ð¸
j s
ĠÐ²ÑĭÐ¿ Ð¾Ð»Ð½ÐµÐ½Ð
Ð¾Ð ºÐ¸
Ġte go
Ð¾Ð´ Ð¸ÑĤÑĮ
ĠÐ´ ÑĥÐ¼
ÐµÐ ³Ð
ĠÑį ÑĤÐ¸Ð¼
ÑĭÐ² Ð°ÐµÐ¼
Ġ Ð»Ð¸Ñģ
ĠM i
ÑĢÐµÐ ½
ĠÐ¿ÑĢÐ ¸ÑĪ
ĠÐ¾Ñ Ī
ÐºÐ ¾ÑĢ
ĠÐ¿ÑĢÐµÐ´Ð¿ ÑĢÐ¸Ñı
ĠÑĩÐ¸Ñģ Ð»Ðµ
ĠÑģ ÐµÑĢÐ²
Ð¸ÑĩÐµÑģÐº Ð¾Ð¹
Ġp e
ĠÐ³Ð» Ð°Ð·
ÅĽ cie
c om
ĠÐ±Ð¾Ð»ÑĮÑĪ Ð¸Ð½
ĠÐ´Ð¾Ð» Ð³
Ð°Ð»ÑĮ Ð½Ð°Ñı
ĠÐ¿ ÐµÑĩ
Ġr Ã³w
ĠÐ´ ÑĥÑĪ
Ð¸ÑĤ ÐµÐ»Ð¸
ÑģÐ ½Ð¾Ð²
Ð± Ð»
ĠÑģ ÑĥÐ¿
ĠÐ¿ÑĢÐ¾Ð² ÐµÐ´
ÑģÑ ĩ
¾Ñģ Ñ
ĠT o
ĠÐ¾ÑģÐ¾Ð± ÐµÐ½Ð½Ð¾
ĠÐ½Ð¸Ñĩ ÐµÐ³Ð¾
ĠÑħ Ð¾Ð·Ñı
ĠÐ¡ Ð¾Ð²
¾ÑģÑ Ĥ
ĠÐ´ ÐµÐº
Ð¾Ð ºÐ¾
jÄħ ce
Ðº Ð¸Ð¼
Ð°ÑĤ Ñĥ
ĠÐ±ÑĥÐ´ ÑĥÑī
ÑĥÐ¹ ÑĤÐµ
ĠÐ¼ Ð¾Ñī
Ġz osta
ĠÐº Ð°Ð±
Ð± Ñĥ
¸Ð ºÐ¸
Ġ Ð¾Ñī
¾Ñ Ĩ
ĠÐ³Ð¾Ð²Ð¾ÑĢÐ ¸ÑĤ
ÑĤÐ¸Ð »ÑĮ
ĠÑį ÑĤÑĥ
Ð¸Ðº Ð°Ð½
ÑĢ Ð¸Ð´
ĠÑģÐ¿ Ð¸Ñģ
ĠÑģÐ² Ð¾Ðµ
m ia
ĠÐº Ð¾Ð¶
ÑĢÐ°Ð· Ð´
ĠÐ¿Ð»Ð¾Ñī Ð°Ð´
ĠM o
ĠÐ´ ÐµÐ¿
Ñĳ Ð¼
Ð¾Ð·Ð °
ĠÑģÐ²Ð¾ÐµÐ ¼
Ð¾Ð» Ð°Ð³
ĠÑĤ Ð°Ð±
ĠÐ¼Ð°Ð» ÐµÐ½ÑĮ
ÑıÑ İÑĤÑģÑı
Ð°Ð½Ð ½Ð°Ñı
ĠÐ½Ð°Ñħ Ð¾Ð´Ð¸ÑĤÑģÑı
ÐµÑģ ÑĤÑĮ
ĠÐ¿ÑĢÐ¾ÑĨ ÐµÐ´Ñĥ
ĨÐ¸ ÐµÐ¹
Ð¸ÑģÑ ĤÑĭ
ĠÐ²Ñĭ ÑģÑĤÑĥÐ¿
ÑĢÐ°Ð± Ð°ÑĤ
ĠÐ¼ ÐµÑħ
ĠÑı ÑĢ
ĠÐ± Ð°Ð»
ĠÑĤ Ð¾Ð½Ð
ĠÐĴ Ð°Ð¼
ĠÐ¾ÑĤÑģ ÑĥÑĤÑģÑĤÐ²
ĠÐ² ÐºÑĥÑģ
Ð°Ð¼Ð µ
g e
Ð¸Ð½Ð°Ð ¼
ĠÑħÐ¾ÑĤ Ñı
: //
no ÅĽÄĩ
ĠÐ½ÐµÐ¼ Ð½Ð¾Ð³Ð¾
ĠÐºÐ°Ðº Ð¸Ðµ
ĠÑį Ð¼
ĠÐ´Ð °
ĠÐ´ Ð¾Ñħ
u b
ĠÑĢ Ð¾Ð´Ð¸ÑĤ
Ġ ÐµÐ¶
Ġsp ra
ti on
ĠÑĢÐ°Ð±Ð ¾ÑĤÐµ
ÐµÐ½ ÑıÑĤÑĮ
ĠÑĥÐ» ÑĥÑĩÑĪ
ĠÑĦÑĥÐ½Ð ºÑ
ĠÐ¾Ð¿ Ð¸Ñģ
ĠW y
ar t
ĠÑįÑĤ Ð°Ð¿
ĠÐ¼ ÐµÐ»
nie m
ÑĢÐ ¸Ñ
ĠÐ¾ÑĤÐ ·ÑĭÐ²
Ð¾ÐµÐ ¼
ĠÐ²Ð°ÑĢÐ¸ Ð°Ð½ÑĤ
¾ ÑĢÑĥ
ĠC h
ĠD o
Ġ2 4
Ġs am
Ð¸Ñ ĨÐ¸Ð¾Ð½Ð
ĠÐ¡ Ð¨ÐĲ
ĠÐºÐ¾Ð¼Ð¿ ÑĮÑİ
ĠÐ² Ð»Ð°Ñģ
Ð µÑĤÐ°
ĠÐ¸Ð½Ð´ Ð¸Ð²Ð¸Ð´Ñĥ
Ð¾Ð² Ð°Ñı
ĠÑģ ÐµÑĢÑĮ
ĠÑĢÐ°Ð ¼
ĠÐ¿Ð¾Ñĩ ÑĤÐ¸
ĠÐ¿Ð¾ÑģÑĤ ÑĥÐ¿
ch a
ĠÑĢÐµÑĪ ÐµÐ½Ð¸Ðµ
ĠÐºÑĢÐ¾Ð² Ð
m e
ÐµÑĢ Ð¾Ð²
ĠÐ½Ð° ÑĥÑĩ
1 1
Ð°Ð»ÑĮ Ð½Ð¾Ðµ
ĠÐ¼ÐµÑģ ÑĤÐµ
g l
Ð¾Ð³Ð µ
Ġs k
ĠÐ² ÐµÑĩ
ÑĦ Ð
Ġ ju
ĠÐ¾Ð±ÑıÐ· Ð°ÑĤÐµÐ»ÑĮÐ½Ð¾
ÑĤÐº Ð¾Ð²
ĠÐ¼ÐµÑģ ÑĤÐ°
ĠÐ¿ÑĢÐ¾Ð±Ð»ÐµÐ¼ Ñĭ
Ġp ow
Ñģ Ñĥ
Ð¾Ð´ Ð°ÑĤÐµÐ»ÑĮ
Ðº Ð°Ð¼
ÑģÐº ÑĥÑİ
ÐµÑĤ Ð¾Ð¼
ĠÐºÐ¾Ð½ ÑĦ
ĠÐ²ÑĭÐ± ÑĢÐ°ÑĤÑĮ
ĠÐ¶ Ð¸Ð»
ĠÐ³ Ð¸Ð¿
Ġw ar
Ð¸Ñ ĨÐ¸Ð¸
ĠÐ¿ÑĢÐ°Ð² Ð¸Ð»ÑĮÐ½Ð¾
ĠÐĴ Ð¾ÑĤ
ĠÑĥÑĩÐ°Ñģ ÑĤÐ½Ð
± ÑĥÑĢÐ
Ġm e
ĠÐ¾Ð±ÑĭÑĩ Ð½Ð¾
° ÑĤÐ¸Ð²
ĠÑıÐ· Ñĭ
ĠÐ¿ ÐµÐ½
ra k
ĠÑĢÐ µÑĨ
ĠÐ· ÑĥÐ±
ÑĢ Ð¾Ð·
ÐµÐ½ Ð¾Ðº
ĠÐ·Ð°Ð²Ð¸Ñģ Ð¸Ð¼Ð¾ÑģÑĤÐ¸
Ð» ÐµÐ½Ð¸Ñİ
Ñĥ Ð³Ð¸
Ñģ ÑĤÐ°
ĠÐ»Ð¸Ñ ĨÐ°
½ Ð¾Ð·
ĠÐ¿Ð¾Ðº ÑĢÑĭ
ĠÑĤÐµÐ¿ ÐµÑĢÑĮ
ĠÐ¾Ð± ÑĥÑĩ
Ð» Ð°Ð¶
ĠÐ´ ÐµÐ»Ð¾
ĠÑģÐ»ÑĥÑĩ Ð°Ñı
ĠÐ² Ð¾ÐµÐ½Ð
ĠÐ²Ñĭ ÑħÐ¾Ð´
ÐµÐ´Ð µ
ĠÐ» ÐµÑģ
ÐµÐ½Ð¸Ñı Ñħ
ÑĥÑİÑī Ð¸Ñħ
cz ne
ĠÐŀ ÑģÐ½Ð¾Ð²
Ð°Ð·ÑĭÐ² Ð°ÐµÑĤ
Ð»Ñı ÐµÐ¼
Ð¾Ð² Ð°ÑĤÐµÐ»ÑĮ
Ð¸Ð½Ð°Ð »ÑĮ
Ġ Å¼y
ĠÑĢÐ°Ð·Ð»Ð¸Ñĩ Ð½ÑĭÑħ
ĠÑģÐ² Ð¾Ð¸Ð¼
ĠÐ²Ð°Ð¶ Ð½Ð¾
ĠÑģÐ¸Ð¼ Ð¿ÑĤÐ¾Ð¼
ĠÐłÐ¾Ñģ ÑģÐ¸Ð¹
ĠÐºÐ¾ÑĤÐ¾ÑĢ Ð¾Ð¼
ÐµÐº Ñ
Ġh ttp
ĠÐ¸Ñģ ÑĤÐ¾ÑĢÐ
Ð¾Ñħ Ð
Ð¸Ð² Ð°Ð½Ð¸Ðµ
t h
Ġw ÅĤa
ÑĥÑİÑī Ð¸Ðµ
Ð°Ð½Ð µÑĤ
ĠÐ·Ð°Ð²Ð¸Ñģ Ð¸ÑĤ
¸ÑĢÐ¾Ð² Ð°Ð½Ð¸Ñı
sz cze
Ð¸Ð² Ð°ÐµÐ¼
ĠÐ¸Ð½ÑģÑĤ ÑĢÑĥÐ¼
Ð¸ÑĩÐµÑģÐº Ð¾Ð³Ð¾
Ð¸Ð¼Ð °
Ġwy ko
ĠP a
ĠÐ½Ð°Ð± Ð»ÑİÐ´
ĠÐĺ ÑģÐ¿
ĠÑĢÐµÐ·ÑĥÐ»ÑĮÑĤÐ° ÑĤÐµ
ÑĤÐ¸ÑĩÐµÑģÐº Ð¸Ñħ
ĠÐ¸Ð½ Ñ
ĠÐ¸Ð½Ñ Ĥ
ĠÐ±Ð¾Ð»ÑĮÑĪ Ð¾Ð¹
2 2
ĠÐ¿Ð¾Ñģ ÐºÐ¾Ð»ÑĮÐºÑĥ
ĠÐ² ÐµÑĢÑħ
ÑĤÐ¾Ñĩ Ð½Ð¸Ðº
ĠÐ¿ÑĢÐ°Ðº ÑĤÐ¸ÑĩÐµÑģÐºÐ¸
Ĥ Ð¾Ðº
Ġb o
ĠÐļ Ð¾Ð½
ÑģÑĤÐ² Ñĥ
ĠÐ¶ÐµÐ» ÐµÐ·
Ġ +
ĠÐ¸Ð· Ð³Ð¾ÑĤÐ¾Ð²
ĠÐ¿ Ð¾Ð»ÑĮÐ·
ĠÐ± ÑĥÐ¼
Ġm u
ĠÐ¼Ð½Ð¾Ð³ Ð¸Ðµ
b u
ĠÑĤÑĭÑģÑı Ñĩ
ĠÐĴ Ð»Ð°Ð´
ĠÑĥ Ð¶
rÃ³ Å¼
ÑĢÐ°Ð ³
ÐµÐ½ÑĮ ÑĪ
ĠÑģ ÑĢÐ°Ð²
ÑĥÐ °
Ġz d
¾Ñ ħ
ĩÐµÑģÑĤÐ²Ð °
te m
Ġc a
ÑĢÐ°Ð½ÐµÐ½Ð ¸Ñı
w w
ĠÐ¿ÑĢ Ð¸Ð³
ÐĿ Ð
ĠÐ·Ð°Ð½ Ñı
ĠÐ¶Ð¸Ð² Ð¾ÑĤÐ
ĠÑĢÐ°Ð±Ð¾ÑĤÐ ½Ð
ĠÑĢÑĥ ÐºÐ°Ð¼Ð¸
ĠÐ¿ Ð°ÑĤ
ĠÐ¾ÑģÐ½Ð¾Ð² Ð
ÑĢÐ° ÑĤÐ°
Ð°ÐºÐ ¸
ĠÑĤ Ð¾Ð¼Ñĥ
ĠÐ´Ð¾Ð»Ð¶ Ð½Ð¾
ĠÑĢÐ°Ð· ÑĢÐµÑĪ
Ġpro du
ĠÐŃ ÑĤÐ¾ÑĤ
ĠÑģÑĢÐµÐ´Ð ¸
ĠÐ¾ÑĤÐ² ÐµÑĤÑģÑĤÐ²
ĠÐ´Ð¾Ð² Ð¾Ð»ÑĮÐ½Ð¾
ĠÐ²Ð¾Ð·Ð¼Ð¾Ð¶ Ð½Ð¾
Ð°Ð½Ð ½Ð¾Ð³Ð¾
k Äħ
ĠÑĢÐ°Ð· Ð´ÐµÐ»
ĠÑĢÐ°Ð· Ð½ÑĭÑħ
Ð°ÑĨ Ð¸Ð¹
ĠÐŁ Ð¾Ð¼
n ÄĻ
d i
Ã³ b
Ġ ÐµÐ²
ĠÐĿ Ð¸Ðº
Ġb u
Ġ Ð¾ÑĢ
Ð¸Ð ºÐµ
Ð¾Ð·Ð¼Ð¾Ð¶ Ð½Ð¾
Ð½Ð¸Ð ¸
Ð¾Ñģ Ð¿
Ð¾Ð´Ð ½Ð¾Ð³Ð¾
Ð» Ñĭ
ĠÐ¿ÐµÑĢ Ñģ
ĠÐ¶ Ð¸Ð´
ĠÐ¾Ð±ÑıÐ· Ð°ÑĤÐµÐ»ÑĮ
Ð°Ð½Ð´ Ð°ÑĢ
Å¼ a
ĠÐºÐ¾ÑĤÐ¾ÑĢ ÑĥÑİ
ĠÐĶÐ °
ÑĤÐ¸Ð »Ð¸
ĠÐ¿Ð¾Ð¿ÑĥÐ»Ñı ÑĢÐ
ĠÐ²ÑĭÐ± Ð¾ÑĢ
ĠÐ· Ð°ÑģÑĤ
ĠÑĢÐ°Ð· Ð³
ĠÐ¿ÐµÑĢÐ² ÑĭÐ¹
ÑĢÑĥ Ð³Ð°
ĠÑįÐºÑģÐ¿ ÐµÑĢ
ĠÐ½Ð°ÑĪ ÐµÐ¹
ĠÐ¼Ð ½Ð¾Ð¶
ÑĥÐ½Ð °ÑĢ
nie Å¼
k ÄĻ
ÑĤÐ¸Ð ºÐµ
Ġs to
Ġ ÑĤÐ°
ĠÐºÐ°ÑĤ ÐµÐ³Ð¾
ĠÑģÑĤ ÑĢÐ°Ð½Ñĭ
Ġw z
Ñħ Ð
Ñı Ð¼Ð¸
ĠÐ¾Ð´ Ð½Ð¾
ĠÐ¸Ð½ÑĦÐ¾ÑĢÐ¼ Ð°ÑĨÐ¸Ð¸
Ð°Ð ¸Ð¼
ĠÑĢÐµÐ³Ð¸ÑģÑĤ ÑĢÐ°ÑĨÐ¸Ð¸
ĠÐ½Ð°Ð¿ Ð¸Ñģ
ĠÐ°Ð´ ÑĢÐµÑģ
Ã³ r
Ĩ Ð¸Ð¹
Ð¾Ð»Ð ½
ĠÐ½ÐµÑģÐº Ð¾Ð»ÑĮ
âĢ ĵ
ĠÐ¿ ÑĥÑĤ
ĠÐ¸Ñģ Ðº
ĠÐ» ÐµÐºÐ°ÑĢ
¸ ÑĤÐ°
»ÑĮ Ð·Ñı
ĠÐµÑī Ñĳ
ĠÐ°Ð² Ñ
ĠÐ·Ð°Ðº Ð°Ð·
ĠÑĤÐ°Ðº Ð¾Ð³Ð¾
ĠÐ¾ÑĪ Ð¸Ð±
ÑĪ Ð¸Ð¼
ĠÑĢÐ°Ñģ Ðº
Ð¸Ñ ĨÐµ
ĠÑĤÐ°Ðº Ð¸Ð¼
ĠÑĥÐ´ Ð¾Ð²
Ð¾Ð¾Ð±Ñī Ð
Ġod p
ĠÐĴ Ð°Ñģ
ĠÐ¼ Ð¼
ĠÑĤ ÑĥÑĤ
Ð¾Ð¾Ð±ÑīÐ µ
Ġ4 0
ĠÑģ ÑģÑĭÐ»
ÑĤÐµÑĢÐ °
Ð¾Ð± Ð¸Ð»ÑĮ
st e
ÑĤÐ¸ÑĩÐµÑģÐº Ð¸Ðµ
ĠÐ½ÐµÐ »ÑĮÐ·Ñı
Ð²Ð °ÑĢÐ
o o
ĠÐ°Ð´ Ð¼Ð¸Ð½Ð¸ÑģÑĤ
ĠÐ¤ ÐµÐ´
ĠR e
ĠÑĩÐ°Ñģ Ð¾Ð²
ĠÑįÐ»ÐµÐºÑĤÑĢ Ð¾Ð½Ð
Ġtak Å¼e
ĠÐ¿ÑĢÐµÐ´ ÑĥÑģ
ĠÑĥÑģÐ» Ð¾Ð²
ĠÑĤÐµÑĢÑĢÐ¸ ÑĤÐ¾ÑĢÐ¸Ð¸
ÐµÐ½Ð ºÐ¸
ĠÐ´Ð°Ð½Ð ½ÑĭÑħ
» Ð¸Ð²
Ð½Ð ¸ÑĤ
ÑĢÐ°Ñ ĤÑĭ
ĠÐ¿ÑĢÐµÐº ÑĢÐ°Ñģ
Ñ İÑĤ
ĠÐ¼ Ð¸Ð½Ð
ĠÐ¿Ð µÑĢÐµÐ¼
Ġty lko
ĠP ro
ĠÑģÐº Ð°Ð·
ĠÐ· Ð°Ñħ
1 5
cj ÄĻ
ĠÑĦÐ¸Ð½Ð°Ð½ ÑģÐ¾Ð²
p is
Ð¾Ðº Ð¾Ð¹
Ð¾Ð» Ñı
ĠÑĢÐ°Ð±Ð¾ÑĤ Ð°ÐµÑĤ
ÑĮÐ ¸
Ð¸Ð ¾
ĠÐ¿ÑĢÐ¾Ð± Ð»
ÑĤÐº Ñĥ
ĠÐ¸Ð½Ð² ÐµÑģ
Ð¸ÑĪ ÐºÐ¾Ð¼
ĠÑĨ ÐµÐ»ÑĮ
Ð°Ð² Ð°ÑĤÑĮ
Ñı Ð±ÑĢÑı
cz Äħ
Ð¼ ÐµÑĤ
ÐµÑĢÐ ±
ĠÐ¼Ð ¾
ĠÐ¶ ÐµÐ½
kie m
ĠÐ¿ÑĢÐ°Ð² Ð¸Ð»ÑĮ
ĠÐ¿ Ð°Ð¼
ĠÐº ÑĢÐµÐ´Ð¸
ĠÐ¼ÐµÐ´Ð¸ÑĨ Ð¸Ð½
ĠÑĢÑĥÐºÐ¾Ð² Ð¾Ð´
ĠÐķ Ð³Ð¾
Ð°Ñģ ÑĤÑĮ
¾ ÑĤÐ¸ÑĤÐµ
ĠÑģ ÑĥÐ±
Ð± Ð¾ÑĢ
ĠÐ¿ ÑĢÐ°Ð·Ð´
ĠÐ¿ ÑĥÐ½Ð
ĠÐºÐ¾Ð¼ Ð°Ð½Ð´
ĠÑģÐº Ð°Ð·Ð°Ð»
ĠÐľ Ð¾Ð¶Ð½Ð¾
Ð¸ÑĨ Ñĭ
ĠÐ½Ð°Ñĩ Ð°Ð»Ð°
Ġ ÐµÐ¹
ĠÑĤ Ð¾Ð¿
ĠÑĩ ÐµÑĢÐ
c t
ĠÑģÐ¾ÑģÑĤÐ°Ð² Ð»ÑıÐµÑĤ
º Ð¾Ð¹
ĠÑģÐ¸ÑģÑĤ ÐµÐ¼Ð°
ÑĤÐ¸Ð½Ð ³
ĠÑģ Ð¾ÐµÐ´
ĠÑģÑĤÐ¾Ð¸Ð¼ Ð¾ÑģÑĤÑĮ
ĠÐ½Ð°Ð· Ð°Ð´
ÑĢ ÑĥÑĩ
· Ð´
ĠÐ¿Ð¾Ð´ ÐºÐ»ÑİÑĩ
½ Ð¾Ð¿
ÑĢ Ð¸Ð½Ð¸Ð¼
ĠÐ¸Ð· ÑĥÑĩ
ĠÐĴ Ñģ
ÑĢÐ °Ñı
ĠÐ½ÐµÐºÐ¾ÑĤÐ¾ÑĢ ÑĭÐµ
Ð»Ð°Ñģ ÑĮ
ĠrÃ³w nieÅ¼
ki ch
ĠÐ²ÑĭÐ³ Ð»ÑıÐ´
ĠÐ²ÑĭÐ¿ Ð¾Ð»Ð½Ñı
Ð°Ð ³Ð¾
ĠÐ¾Ð³ ÑĢÐ¾Ð¼
ĠÑħÐ°ÑĢÐ°Ðº ÑĤÐµÑĢ
Ð» ÐµÐ½Ð¾
ĠÐ¾Ð¿ Ð»
Ð½Ð°Ð ½Ð
ĠÐ¾Ð±Ñī ÐµÑģÑĤÐ²
) ;
ÑĢÐµÑ ī
ĠÐ½Ð°Ð¿ ÑĢÑı
ĠÐ¿ÑĢÐ¸Ð½ ÑĨÐ¸Ð¿
ÑĢ ÐµÐ½Ð¸Ñı
ÑĤÐ½Ð ¾ÑģÑĤÑĮ
ĠÑĢÐµÑĪ ÐµÐ½Ð¸Ñı
ĠÐļ ÑĢÐ°Ñģ
ĨÐ ¾
ÐµÐ²Ð °
Ġmie js
ĠÐ½ÐµÐ µ
ĠÑĤÑĢÐ°Ð½ÑģÐ¿ Ð¾ÑĢ
ĠÐĹ Ð°Ð¿
ĠÑĢÐ°Ð±Ð¾ÑĤÐ°Ñ ĤÑĮ
ĠÑĥÑĢÐ¾Ð² ÐµÐ½ÑĮ
ĠÑģÐ¾Ð² ÐµÑĤ
ĠÐ²Ð¾Ð¿ÑĢÐ¾Ñģ Ñĭ
ĠÐº ÑĢÐµÐ´Ð¸ÑĤ
ĠÐº ÑĢÑĥÐ³
ÑĢÐ¾Ñģ Ð»
ĠÐĲ Ðº
ĠÐ¿ÑĢÐ°Ð² Ð¸Ð»Ð¾
Ð¾Ð² ÑĭÐ¹
ĠÐ¼ÐµÑĢ Ð¾Ð¿ÑĢÐ¸Ñı
ĠÑĦÐ¾ÑĤ Ð¾Ð³ÑĢÐ°ÑĦ
ni k
ĠÑģÐ¼ Ð¾Ð³
i m
ĠÐ´Ð°Ð½Ð ½ÑĭÐµ
Ġo n
ĠÑģÑĤ Ð°Ð»Ð¸
Ð°Ð¶Ð °
ÑĤÐ ½ÑĥÑİ
ÐµÑĢ Ð¾Ð¼
ÑĢÐ°Ð ½Ñı
ĠÑĥÑģ Ð¸Ð»
ĠÐ¿ÑĢÐ¾ÑĦÐµÑģÑģÐ¸ Ð¾Ð½Ð°Ð»ÑĮ
ĠÐĴ Ð°ÑĪ
¸Ð ºÐ°
ĠÑĨÐ²Ð µÑĤÐ°
Ð¾Ð»Ð ³Ð¾
ĠÐ¾Ð¿ Ñĭ
Ġju Å¼
c u
ĠÐºÐ¾Ð¼Ð¿ Ð°Ð½Ð¸Ñı
ĠÑģÐ°Ð¹ ÑĤÐ°
ĠÐ²Ð¾Ñģ ÑģÑĤÐ°Ð½Ð¾Ð²
Ð¿ ÑĢÐ°Ð²
Ġw iÄĻ
ĠÐ¼Ð½Ð¾Ð³ Ð¸Ñħ
Ġby Äĩ
ĠÑģÐ»ÑĥÑĩÐ°Ñı Ñħ
Ð¾Ð´ ÑıÑĤ
ĠÑģÑĤ ÐµÐ¿
ĠÐ²Ñĭ ÑĪ
ÑĥÑħÐ °
ĠÐ¾Ð´ Ð½Ð°
Ð¾Ð½ ÑĥÑģ
ĠÑĦÑĥÐ½Ð º
ĠÐ¿ÑĢÐ°Ð²Ð °
ÑĢÐ¸ ÑĤÐµ
ĠÐ¿ÐµÑĢÐ µÑħ
Ġ ÑĤÐ²Ð¾ÑĢ
ĠÑģÐ¿ Ð¾ÑĢ
ĠÐŁ Ð¾Ñĩ
ĠÐ½Ð°Ñĩ Ð¸Ð½Ð°Ñ
ĠÐ½Ð¾Ð² ÑĭÐµ
ÑĩÐ µ
Ð½Ð ²
Ð½Ð° ÑĢÑĥÐ¶
Ġmo g
ÑĤÐ¸ÑĤÑĮ ÑģÑı
Ġro ku
ĠÐ¿ÑĢÐ¾Ð¸Ð·Ð² Ð¾Ð´Ð¸ÑĤ
ÑĥÐ»Ð¸ ÑĢÐ¾Ð²
Ġw e
ÐµÑĢ Ñĥ
Ð¸Ð´ Ð
ĠÐ¸ÑģÐ¿Ð¾Ð»ÑĮÐ·Ð¾Ð² Ð°Ð½Ð¸Ñı
Ġ2 1
p le
ĠÐ¾ÑĤ Ñ
Ð°ÑĩÐ °
ĠÐ¾Ð½Ð ¾
ĠÐľ Ð°ÑĢ
ĠÐº Ð¸Ñģ
ĠÑĥÐ¿ÑĢÐ°Ð² Ð»ÐµÐ½Ð¸Ñı
ĠÐ¾ÑģÐ½Ð¾Ð²Ð µ
ĠÐ³ ÑĢÐ°Ð½Ð
ÑĢÑĥ ÐµÑĤÑģÑı
ÑĤÐµÑģ ÑĤÐ²
Ð¸Ð °Ñ
ĠÐ² ÑģÑı
ĠÑģ Ð°Ð¼Ð
ĠÐĿÐ°Ð¿ ÑĢÐ¸Ð¼ÐµÑĢ
ĠÐºÐ» ÑĥÐ±
Ð¾Ñ ĤÑĮ
w ar
ĠÐº Ð¾Ð¿
ĠÑĢÐµÐ·ÑĥÐ»ÑĮ ÑĤÐ°Ñ
b le
ĠÐ¢ ÐµÐ¿
Ġ :
ĠÐ³Ð° ÑĢÐ°Ð½
ÐµÑĤ ÑĢÐ¾Ð²
d nie
ĠÐ»ÑİÐ± Ð¸Ð¼
Ð¾Ð¹ ÑĤÐ¸
s ÅĤu
ÑĢÐ ´
cz nie
Ð¸ÑĤ Ð°Ð¼
z u
ĠÐ¼ÐµÐ½ÑĮ ÑĪÐµ
ĠÐ¶ Ð´
Ġw o
ĠÐ¸Ð¼ ÐµÑĤÑĮ
ĠÐ¾Ðº ÑĢÑĥÐ¶
Ġpo t
ĠÐ¿ÑĢÐ°Ð²Ð ¾
Ð°Ð± Ð
ĠÑģÑĤ ÑĢÑĥÐºÑĤÑĥ
ĠÐ¿Ð¾Ð» Ð¾Ð²
ĠÑĢÐµÑĨ ÐµÐ¿
Ð»Ð¸Ñģ ÑĮ
ĠÑģÐµÑĢÑĮ ÐµÐ·
Ð¾Ñĩ ÑĮ
ĠÑģÐ°Ð¼ Ð¾Ð¼
Ð½Ð¾Ð² Ð
ÑĢ Ð¸Ð¹
ĠÐ²Ð¾Ð·Ð¼Ð¾Ð¶ Ð½Ð¾ÑģÑĤÐ¸
ĠÐ½Ð¸Ð ¶Ðµ
Ð¸ÑĩÐµÑģÐº Ð¸Ð¹
ĠÑģ ÑĥÑħ
Ð» ÐµÐ½Ð¸Ð¹
ÐµÐ½Ð ºÐ¾
Ð¸Ð´ ÐµÑĤ
µÑĢ Ð¾Ð²
ĠÑĥÐ¼ ÐµÐ½ÑĮÑĪ
ĠÑģÐ» Ð¸ÑĪÐºÐ¾Ð¼
ĠÐĲÐ»ÐµÐºÑģ Ð°Ð½Ð´
ÑĦ Ð¾ÑĢÐ¼
ĠÐº Ð¾Ð¶Ð¸
szy ch
ĠÑģ Ð¾Ð±Ñĭ
Ġ Ð°Ñģ
ĠÐ¸Ñģ ÐºÑĥÑģ
Ġf or
ĠÑĤ Ñĥ
ĠÐ±Ð» Ð¸Ð·
Ð¡ Ð¢
ĠÑģ Ð´
ĠÐ¿ÑĢÐµÐ ¸Ð¼
Ð°Ðº Ð¾Ð²
ĠÐ°Ð²ÑĤÐ¾Ð¼ Ð
Ġst ro
ĠÐŀÑģ Ð¾Ð±
ĠÑĢÐ°Ñģ ÑħÐ¾Ð´
Ð¾Ð¹Ð´ ÐµÑĤ
ĠÑį ÑĤÐ°
Ġb a
ĠÑĤ ÐµÐ
ĠÐĺ Ð³
ĠÑģ Ð°Ð»
Ġ v
ĠÐ¿Ð¾ÑĤÐ µÑĢ
o u
Ġ 000
ĠÐ°Ð²Ñ Ĥ
ĠÐ·Ð°Ñī Ð
na k
ĠÐĲ ÑĢ
d Äħ
ĠÑģ Ð°Ð´
ĠÐ´ Ð²Ðµ
ĠÐ¿ÐµÑĢÐµÐ º
Ġ2 2
ÑĤÐ¸ÑĩÐµÑģÐº Ð¾Ð¹
ĠÐŁÑĢ Ð¸Ð¼
Ġw a
ĠÐ¾Ð´ Ð½Ð°ÐºÐ¾
ĠÐº ÑĥÑħ
ĠÑĤÐ¸Ð ¿Ð°
ĠÑģÐ ½Ñı
ĠÐ¼ Ð¾Ð½Ð
ci Äħ
ĠÐºÐ¾Ð» Ð»ÐµÐº
ÑĢÐµÐ¼ ÐµÐ½Ð½Ð¾
Ð½Ð¾Ð²Ð °
ĠÐµÐ´ Ð¸Ð½
ĠÐ¿ÑĢÐ ¸Ñı
ĠÐ¾Ñī ÑĥÑī
Ñī Ð
ĠÐ¾ÑĤÐ´ ÑĭÑħ
b ra
ĠÐ²ÑĭÐ¿ Ð»
ĠÐºÐ°Ð¶Ð´ Ð¾Ð³Ð¾
ÐµÐ´Ðµ ÑĢÐ°Ð»ÑĮ
ÑĤÐ¾ÑĢ Ð¾Ð¼
ĠÐŀ Ñĩ
Ġja ko
ĠÑģÑĤ ÐµÐº
ĠÐº ÑĢÐ°Ð¹
le j
ÑĢ Ð¾Ð½Ð
Ð¾Ð³Ð ¸Ñı
ĠÑģÐ¾Ð² ÑģÐµÐ¼
ĠÐ· Ð¸Ð¼
ĠÐ¿Ð¾Ñĩ ÐµÐ¼Ñĥ
ĠÐ¾ÑĤÑ Ĥ
ĠPo l
ĠÑģÐ¾Ð± Ð
Ð°Ð½ Ñģ
Ð½Ð¸Ð »
ĠÐ¾Ð± Ð½Ð°ÑĢÑĥÐ¶
ÑĢÐ°Ð½Ð ¸ÑĤÑĮ
k tu
Ð¼ ÐµÐ½ÑĤÐ°
ĠÐ²Ñģ ÐµÐ¹
ĠÑı Ð²
Ġd u
Ð°Ð ³Ð¸
Ð» ÑĥÐ¶
Ã³ l
ÑĤÐ¸Ñ Ħ
ĠÐ¿Ð¾ ÑıÐ²Ð»Ñı
Ð½Ð°Ð ·
ĠÐ¿Ð¸Ñģ ÑĮ
ĠÐ¼ Ñĥ
ĠÐ´Ð¾ÑĢ Ð¾Ð³
ĠÑĥÑĩ Ð¸ÑĤ
Ð» Ð¸Ð±Ð¾
¾ ÑĢÑĥÐ¶
Ġ lo
ĠÐ· ÐµÐ»
Ġbar dzo
ĠÑĥÐ¿ Ð¾ÑĤÑĢÐµÐ±
Ðº Ð»Ð°Ð´
ĠÐ¸Ð·Ð¼ÐµÐ½ÐµÐ½Ð ¸Ñı
ĠÐ¼Ð¸ ÑĢÐ°
µÑĪ ÑĮ
ĠÐºÐ¾Ð½Ð µÑĩÐ½Ð¾
ĠÐ» Ð¾Ð¶
ĠÐ±ÐµÐ·Ð¾Ð¿Ð°Ñģ Ð½Ð¾ÑģÑĤÐ¸
ĠÑģ Ð½Ð¸Ð¼
ĠÐ½Ð¾Ð² ÑĭÑħ
er s
ĠÑĤ ÑĢÐ°Ð´
ĠÐ¿ÑĢÐµÐ ¶
ĠÐ½Ð°Ð´ ÐµÐ¶
ĠÐ½Ð°Ñģ ÐµÐ»
ĠÑģ ÑĤÐ°Ñ
Ð»Ðµ ÑĤÐ½Ð
Ð¸Ð² Ð°Ñı
ĠÐ²Ñĭ Ð±Ð¸
ÑĪ ÐµÐµ
ro d
Ġp la
ÑĢÐ°ÑĤÑĮ ÑģÑı
ĠÐºÑĢÐ¾Ð²Ð ¸
ĠÐ² ÑħÐ¾Ð´
ĠÐ½ÐµÐºÐ¾ÑĤÐ¾ÑĢ ÑĭÑħ
Ð°Ð´Ð ¸
ĠÐ´ ÐµÑĢÐ¶
ĠÐ¿ÑĢÐ¸ ÐµÐ¼
ĠÐ¿Ð¾Ð´ ÑĢÐ¾Ð±
ĠÑģÐº Ð°ÑĩÐ°ÑĤÑĮ
ĠÐ± Ð°Ð·
ÑĥÑīÐµÑģÑĤÐ²Ð °
ĠÑģÑĤÐ°Ð½Ð¾Ð² Ð¸ÑĤÑģÑı
ĠÐļ Ð¾Ð½Ð
ĠÑĩ ÐµÑĤÑĭ
ĠÐ¸Ð½ÑĦÐ¾ÑĢÐ¼ Ð°ÑĨÐ¸Ñİ
ĠÑģÐ°Ð¼Ð¾ÑģÑĤÐ¾ÑıÑĤÐµÐ»ÑĮ Ð½Ð¾
ĠÑĩ Ð°ÑīÐµ
Ð¸Ð² Ð°ÑİÑĤÑģÑı
ÅĽ my
Ð¾Ð» Ð¾Ð³Ð¸Ñı
µÑĢÐ ¼
Ð ¬
ÑģÐ ¸ÑĢÐ¾Ð²
Ñĭ Ð¿
ĠÐ¿Ð» Ð°Ð½
ĠÐ¿ÑĢ ÑıÐ¼
° ÑĢÐ°
ĠÐ½Ð¾Ð² ÑĭÐ¹
Ð¾Ð² Ð°Ð»
ĠÐ¼ÐµÑĤ Ð°Ð»Ð»
Ð²Ð µÑĤÐ
ĠÐ¾ÑĩÐµÑĢÐµÐ´ ÑĮ
ĠmoÅ¼ na
ĠÐ· Ð°Ð¹
ÑģÑĤÐ² Ð¸Ðµ
ĠÐ· Ð½Ð°Ñ
ĠÑĢÐ µÑĩ
ÐĿ Ðĺ
ĠÐºÐ¾Ð½Ðº ÑĢÐµ
ĠK o
ĠÑĤ ÑĢÐµÑħ
ĠÐ¿Ð¾Ð»ÑĥÑĩ ÐµÐ½Ð¸Ñı
ĠÐ² Ð¾Ð¾Ð±ÑīÐµ
ĠÐºÐ¾ÑĢ Ð¿
ĠÑĢ Ð¾Ð·
Ð°Ð¼ Ð¿
ÐµÐ½Ð¸Ñı Ð¼Ð¸
ĠÑģÐ¾Ð±Ð ¸
ĠÑħÐ°ÑĢÐ°ÐºÑĤÐµÑĢÐ ¸Ñģ
ÐµÑĪ ÑĮ
ĠÐ¸Ð· Ð¾Ð±ÑĢÐ°Ð¶
owy m
ÑĭÑĪ Ð»
ĠÑģÐ¾Ð¾ÑĤÐ²ÐµÑĤÑģÑĤÐ² Ð¸Ð¸
Ġ Ð¾Ð¶Ð¸Ð´
Ð¾Ð´ Ð½Ð¾
ĠÐ¿ÐµÑĢÐµÐ ¿
ÑĢÐ°Ñ ĨÐ¸Ñı
Ð½ÐµÐ½Ð ¸Ñİ
ĠÑģ Ð¾ÑģÑĤ
Ġp re
ĠÐĲ Ð»
Ð½Ð¸Ð ·
ĠÐ¿Ð» Ð°Ð½Ð
ĠÑģÐ¸ÑĤÑĥ Ð°ÑĨÐ¸Ð¸
ĠÐ¿ Ð¸Ñī
ÑĥÐ ½
ĠÐºÐ¾Ð½ÑĤ Ð°Ðº
ĠÐ¿Ð¾Ð¼ Ð¾Ð¶ÐµÑĤ
o ny
ĠÐ½ÐµÐ ¶
ĠÐ¾Ð± Ð¼
ĠÐ¤ Ð
ĠÑģÐº Ð°Ð·Ð°ÑĤÑĮ
ÑĥÑĢ Ñģ
ĠÐ¿ Ð»Ð°
ĠÐ¿ÑĢÐ¾ÑģÑĤ ÑĢÐ°Ð½
Ġ19 9
ĠÑĥÑģÑĤ Ð°Ð½Ð°Ð²Ð»Ð¸Ð²
Ð°Ð»ÑĮ Ð½ÑĭÐ¼
ne t
ĠÐ°Ð²ÑĤÐ¾Ð¼Ð °
ĠÑģÐ µÑĤÐ¸
Ð² Ð°ÑĤ
ĠÐ³ÑĢÑĥÐ¿Ð¿ Ñĭ
Ð°ÑİÑī ÐµÐ¹
ĠÑĥ Ð½Ð¸Ð²
ÐµÐ½Ñ ĤÐ¾Ð¼
ĠÐº Ð°Ð»
ĠÐ»ÐµÑĩ ÐµÐ½Ð¸Ðµ
si Äħ
en t
ĠÐĳ Ð¾Ð»ÑĮÑĪ
ĠÐ¿Ð¾ÑģÑĤÐ¾ÑıÐ½Ð ½Ð¾
ĠÐ¼Ð ¸ÑĢ
Ð¸Ð½Ð ´
ĠÐ±Ð»Ð°Ð³ Ð¾Ð´Ð°ÑĢÑı
Ñĥ ÐºÐ¾Ð²
Ð°Ð½Ð µÐ
Ġo k
owa ne
ĠÐ¾Ð´ Ð½Ð¸Ð¼
ĠâĢ ¢
ÑĪ Ð¸ÑģÑĮ
Ð±Ð µ
ĠÑģÐ² ÐµÑĤ
u t
ÑĤÐ¸Ñ ĤÑĥ
ĠÐ¶ÐµÐ½Ñī Ð¸Ð½
ĠÐ¼ÐµÑģÑıÑĨ ÐµÐ²
ĠÐ¸Ð¼ÐµÑ İÑī
ĠÐ¿Ð¾Ð´ ÑĤÐ²ÐµÑĢÐ¶Ð´
Ð¾Ð» Ñĭ
Ġdz iaÅĤa
µ ÑĤÐ²
Ð¾Ð¸Ð ½
ĠÐ²Ð· ÑĢÐ¾ÑģÐ»
Ð°Ð¶Ð ¸
ĠÑĤÑĢ ÐµÐ½Ð
ĠÐŁ ÑĢÐ¾Ñģ
ĠÐ¼Ð°ÑĤÐµÑĢÐ¸Ð°Ð» Ð¾Ð²
Ġi ch
Ġa by
Ð» Ð¸Ðº
pa d
ĠÑĤÑĢÐµÐ± Ð¾Ð²Ð°Ð½Ð¸Ñı
ĠÐ¿ÑĢÐ¾Ð³ÑĢÐ°Ð¼ Ð¼Ñĭ
ĠÐ²Ð· Ð°Ð¸Ð¼
ĠÑģÑĤ ÑĥÐ´
ĠÐĹÐ´ ÐµÑģÑĮ
ĠÐºÐ¾ÑĤÐ¾ÑĢ ÑĭÐ¼
ĠÑģÐ°Ð¼ ÑĭÐµ
ĠÐ¼Ð¾Ð´ ÐµÐ»Ð¸
4 0
Ġp ier
dz y
ĠÐ½Ð°Ð³ ÑĢÑĥÐ·
ĠÐ·Ð½Ð°Ñĩ Ð¸ÑĤ
ĠÐ¿ÑĢÑı Ð¼Ð¾
i d
Ð¸Ð² Ð°ÑĤÑĮÑģÑı
p y
Ġka Å¼
ĠÐŁ Ð»
ÐµÐº Ð¾Ð¼
ĠÑĤÐµÐ± Ñı
Ð°ÑĢ Ð¾Ð²
ĠJ a
ÑİÑ İ
ÑĤÐ¸Ñ İ
ĠÐ¾Ðº Ð°Ð·Ð°Ð»
Ð°Ð½ ÑĮ
ĠÐķÑģ ÑĤÑĮ
ÑĤÐ¸ÑĢÐ¾Ð² Ð°ÑĤÑĮ
ĠÐ¼Ð°Ñģ Ñģ
Ð¼ Ð¾Ð²
ÐµÐ´ ÐµÐ½Ð¸Ðµ
ĠÐ¾Ð±ÑĬ ÐµÐ¼
ĠÐ´ ÑĢÑĥÐ·
ĠÐ²ÑĤÐ¾ÑĢ Ð¾Ð¹
ĠÐĽ Ð
Ġb i
ĠÐ± Ñĥ
a li
Ð» ÑĥÐ°
ĠÐ·Ð°ÐºÐ¾Ð½ Ð¾Ð´Ð°ÑĤÐµÐ»ÑĮ
Ð¾Ð² Ð¾ÑĢ
ĠÐ± ÑİÐ´
ĠÐ¿ÑĢ Ð¾Ð¶
k ty
Ðº Ð¾ÑģÑĤÐ¸
Ð¾Ð± ÑĢÐ°Ð·
Ð»Ð µÑĢÐ
ĠÐ²Ð°ÑĪ ÐµÐ³Ð¾
ĠÑĢÐµÐ³ ÑĥÐ»Ñı
ĠÐ¡ Ð
ÐµÐ´ ÑĮ
Ð¾Ð¶Ð µÑĤÐµ
ÑĢ Ð¾Ð¶
ĠÐļÐ¾Ð¼ Ð¿
ÐµÐ½ Ñĥ
ĠÐĶ Ð¾Ð±
ĠÑģ ÐµÐ·
ĠÐ¼Ñı Ð³
ĠÐ¶ÐµÐ½Ñī Ð¸Ð½Ñĭ
ÑīÐ µ
Ð´Ð µÑĤÐµ
ĠÑįÑĤÐ¾Ð¼ Ñĥ
ĠÐ²Ð· Ð³
ĠÐ²ÑĭÐ· Ð²
ni ÄĻ
ĠÐ¼Ð¸ ÑĢÐµ
Ð°Ð½Ð ½Ð¾Ðµ
ĠÐ¾ÑĤÐ¼ ÐµÑĩ
Ð¾Ñģ ÐºÐ¾Ð²
ÑĪ Ð°Ñı
Ñģ Ð¾Ð»
ĠÑĢÐ°Ð·Ð¼ ÐµÑī
ĠÐ¿Ð¾Ð´ Ð°ÑĢ
ne r
cz as
ÅĦ st
Ĥ Ð°Ðº
Ð¸ÑĤÐµÐ»ÑĮ Ð½ÑĭÐµ
Ġf ir
ĠÐĺ Ñ
Ð½Ñı Ñı
ĠÐ¸Ð³ ÑĢÐ°ÑĤÑĮ
ĠC o
Ð¾Ð² Ð°Ð½Ð¸Ð¹
ĠÑĦÐ¾ÑĢÐ¼ Ñĭ
½ ÑİÑİ
ĠÐ¡ Ð»ÐµÐ´
Ð¾Ñ Ĩ
Ð¸ÑģÑ ĤÐ¾Ð²
Ðº Ð¸Ð¼Ð¸
ĠÐ¿Ð¾Ð´Ð¿ Ð¸Ñģ
Ð¾Ð½ÐµÐ ½
ĠÐĲ Ð½Ð
ÑĪÐ °
ĠÐ´ÐµÐ½ÐµÐ ³
ĠÐ´ ÐµÐ¼
ĠÐ¿Ð¾ÑĢ Ñ
³ Ð»
ÅĤa t
ĠÐĴ Ð¸Ð´
s e
ĠÑĤÐµÑħ Ð½Ð¸ÑĩÐµÑģÐº
t rzy
ĠÑģÐ² ÐµÐ¶
ĠÑĥÑĢÐ¾Ð² Ð½Ñı
ĠÑģ Ð°Ñħ
Ġa nd
ĠÑģ ÑĢÐ¾Ð
Ð¾Ð¿ Ð
ÑĤÐ ºÐµ
ĠÑĢÐµÐ·ÑĥÐ»ÑĮ ÑĤÐ°ÑĤ
Ġ ar
Ġo g
ĠÑĢÐ°Ð·Ð °
ĠÑĥÐ· Ð½Ð°ÑĤÑĮ
Ð¾Ð °Ð
ĠÐºÐ°ÑĩÐµÑģÑĤÐ²Ð °
ĠÐ¿Ð¾Ð· Ð´
Ð»Ð µÑĢ
ĠÐ±Ð» Ð¸Ð¶
ÑģÐ¸ Ð¾Ð½Ð
ĠÑģÐ¾Ð² Ð¼ÐµÑģ
ĠÐ¸Ð½ ÑģÑĤÑĢÑĥÐº
ĠÐ½Ð°Ð» Ð¾Ð³Ð¾Ð²
Ð¸Ð·Ð °
ÑĤÐ¸Ð½Ð °
ĠÐ¢ÐµÐ¿ ÐµÑĢÑĮ
Ġos ob
ĠÑģÐ°Ð¼ ÑĭÐ¹
ĠÐ¿Ð¾ ÑĢÐ°Ð¶
Ð¼Ð¾ÑĤ ÑĢÑı
Ñĥ Ñı
skie go
ĠÐ¿Ð¾Ð² ÑĢÐµÐ¶Ð´
ĠÐ¼ Ð»
ĠÐ´Ð¸ Ð°Ð³
ĠÐķÐ² ÑĢÐ¾Ð¿
ÑĤÐ° ÑĢ
ĠÑģÐ¿ Ð°Ñģ
ĠÐ±Ð ¸
Ġ no
ĠÐ¿ÑĢÐ¸Ð² Ð»ÐµÐº
ĠÐ´ÐµÐ¹ÑģÑĤÐ² Ð¸ÑĤÐµÐ»ÑĮÐ½Ð¾
Ġ201 8
ĠÑģ Ð¸Ð´
Ġ2 3
ĠÐ¾Ð± ÑĢÐ°Ð±Ð¾ÑĤÐ
ĠÐ½Ð¸Ðº Ð¾Ð³Ð´Ð°
ĠÑħ ÑĥÐ´
ĠÑĥÑģÐ» ÑĥÐ³Ð¸
w Ã³
Ð» ÐµÐ²
ÑĢÑĭ Ð¹
ÑĪÐ ¸ÑĢ
ÑĤÐ¸ ÑĢ
Ð½Ð¸Ð ºÐ
ĠÐ¾Ðº Ð¾Ð½Ñĩ
Ð°Ð² Ð¸Ñģ
ÑĢÐµÐ´ ÐµÐ»Ñı
Ñı Ñĩ
ĠÐ² Ð°Ð»
ĠÑįÐºÑģÐ¿ Ð»ÑĥÐ°
Ġcz ÄĻ
ĠÐłÐ¾ÑģÑģÐ¸Ð¹ ÑģÐºÐ¾Ð¹
ĠÐ· Ð°ÑĢ
Ġte Å¼
ĠÐ¿ÑĢ Ð¸Ð½Ð
ĠÐ¼ ÐµÐ½
ĠÐ¿ Ð¾ÑĪ
½ ÑĢÐ°Ð²
ĠT e
ĠÐ²Ð¾ÑģÐ¿ Ð°Ð»
ĠÑĤ ÐµÐ»Ð°
ÐµÐ¼Ð ¸
ĠÑį Ð¿
ĠÐ½Ð° ÑĢÐ¾Ð´
ĠÐ·Ð°Ðº ÑĢÑĭ
ĠÐº Ð»ÑİÑĩ
Ġs ie
ÑĢÐ ¸ÑĩÐµÑģÐº
ĠÑĤÑĢÐµÐ± ÑĥÐµÑĤÑģÑı
ĠÐ¾Ð¿ ÐµÑĢÐ°
Ñĥ ÑģÐ»
ĠÐº Ð¾ÑĪ
ÑĪ ÐµÐ¼
j i
ĠÐ¤ÐµÐ´ ÐµÑĢÐ°ÑĨÐ¸Ð¸
ĠÐ² Ð¾Ðº
ÑĢÐ¾ ÑĤÐ¸Ð²
Ðº Ð¾Ð³
Ð ½ÑĢÐ°Ð²
ĠÐ´ ÑĥÑħ
ĠÐ°Ðº ÐºÑĥ
ĠÐ½Ð°ÑĪ ÐµÐ¼
ĠÑĢÐ°Ð±Ð ¾ÑĤÐ°
ĠÐ´ ÑĢÐµÐ²
ĠÐ´ ÐµÐ»Ðµ
ĠÐ¿Ð¾ÑĢÑ Ĥ
Ð¹ ÑĤÐµ
Ġko m
ĠÐ´Ð¾ÐºÑĥÐ¼ ÐµÐ½ÑĤÐ¾Ð²
1 8
Ð»Ð °ÑĢ
µ ÑĤÐµÑĢÐ
Ġdo b
Ð¸Ñ ĨÐ°
ĠÐ¿ÐµÑĢÐ µÑĩ
r ÄĻ
Ð½Ð°Ð· Ð½Ð°Ñĩ
sz Äħ
Ġg ra
½ Ð¾Ð¾Ð±ÑĢÐ°Ð·
ĠÑģÐ¼Ð¾ÑĤ ÑĢÐµÑĤÑĮ
ĠÐ¿ÑĢÐ µ
ĠÐ² ÑĢÐµÐ´
ÑĥÐ´ ÑĮ
ĠÐĳ Ð¾Ð»
ÑĭÐ² Ð°Ñı
ÅĤ em
ÑĢÐ¾Ñ Ĩ
ÑĤÐ ½Ð¾Ð¼
ĠÑģÐ² Ð¸Ð´ÐµÑĤ
ĠÐ¿Ð¾Ñģ Ð
ĠÐ¸Ð´ÐµÐ °Ð»ÑĮ
ĠÐ¶ ÑĥÑĢ
ĠÐ¿ÑĢÐ°Ð² Ð¸Ð»
Ġ6 0
¸ÑģÑ ĤÐ¾Ð²
ĠÑħÐ ¾ÑĤÐ¸ÑĤÐµ
Ð°Ð½Ð ½ÑĭÐ¼
ĠÐ¿ÑĢÐµÐ´Ð¿ Ð¾Ñĩ
ĠÐ¿Ð°ÑĢ ÑĤÐ½Ð
Ð» ÐµÐ
Ð¸Ñ ĩÐµÑģÐºÐ°Ñı
ĠÐ²Ñĭ ÑĢÐ°Ð¶
ĠÑģÐ¾Ð± Ð»ÑİÐ´
ĠÑĢÐµÐ ¹
ĠÐ¼ Ð¾Ð±Ð¸Ð»ÑĮ
Ð¾Ð¼ Ð¸Ð½Ð°Ð
Ġ ÑĤÐ¾ÑĢ
for ma
Ð¾Ð³ ÑĢÐ°Ð¼
ĠÐ¿Ð¾ÑģÐ µ
Ð°Ð´Ð °
ÐµÐºÐ ¾ÑĢÐ
o t
ĠÐºÐ¾Ð¼ Ð½Ð°Ñ
Ñĩ ÐµÑĤ
Ġu Å¼y
ĠÑĢÑĥ ÐºÐ¸
ĠÐ»ÑİÐ± Ð¾Ð²
ĠÐ¿Ð¾Ð²ÐµÑĢÑħ Ð½Ð¾ÑģÑĤÐ¸
ĠÑĥÑĩ ÐµÐ±
ki m
ĠD z
Ð½Ð°Ñĩ Ð°Ð»Ð°
ĠÑĦÐ¾ÑĢÐ¼Ð µ
ĠÐŁÑĢÐ ¸Ñĩ
Ñī Ð¸Ðº
ny mi
c Ã³w
ĠÐ¡ ÐµÐ³Ð¾Ð´Ð½Ñı
ĠÑģÐµÐ¼ ÐµÐ¹
ĠÑĪÐ¸ÑĢ Ð¾Ðº
cz ÄĻ
ĠÑģÐ¾ÑģÑĤÐ¾ÑıÐ½Ð ¸Ðµ
Ġ201 7
ĠÐ½ÐµÑģÐºÐ¾Ð»ÑĮ ÐºÐ¸Ñħ
ÑĢÐ°Ð »Ð¸
ÑģÐ¿ ÐµÐº
ÐµÐ´ Ð½ÐµÐ²
Ġ201 9
ÑĢÐ° ÑĤÐ¸ÑĤÑĮ
ĠÑĥ ÑĤÐ²ÐµÑĢÐ¶Ð´
ĠÐĿ Ñĥ
ĠÐ¶ Ð°Ð»
ĠÑĥÑģÐ¿ ÐµÑĪ
6 0
Ð¸ÑĤÐµÐ»ÑĮ Ð½ÑĭÐ¹
Ġs ob
ĠÐ´Ð¸Ð· Ð°Ð¹
ĠÐ¸Ð·Ð± Ð°Ð²
ĠÐº Ð°Ð¶
ĠÐº ÑĥÑģ
ĠÑĢÐ°Ñģ ÑģÑĩ
Ð» Ð¸Ð
ĠÐ¿ÑĢÐµÐ· Ð¸Ð´
ĠÐ²Ñģ Ñİ
Ð¸ÑĦ Ð¸Ðº
ĠÑĢÐ°Ð· ÑĢÐ°Ð±Ð¾ÑĤ
ĠÐ¸ÑģÐ¿Ð¾Ð»ÑĮÐ· ÑĥÐµÑĤÑģÑı
ĠÐºÐ°Ð¿ Ð¸ÑĤ
ĠÐĹ Ð°ÑĤ
ĠÐŃ Ðº
ĠÐ¿Ð¾Ð´ Ñĩ
ÑĢÑĥ Ñģ
Ġ Ð½ÑĢÐ°Ð²
ĠÐ¾Ð±ÑĢÐ°Ð· Ð¾Ð²Ð°Ð½Ð¸Ñı
ĠÐ½Ð°Ð ¶
ĠÑģÐ»ÐµÐ´ÑĥÑİÑī Ð¸Ðµ
Ñĭ ÑģÐº
Ġ ry
Ġs er
Ð¾ÑĢÐ ¾ÑĤ
s po
ĠÐºÐ¾Ð¼ ÑĦ
ĠÑĦÐ¾ÑĢÐ¼ Ñĥ
ĠÑĥÐ´ Ð¸Ð²
ĠÐ·Ð°Ð² ÐµÑĢÑĪ
ĠÐ¾Ð¿ ÐµÑĢÐ°Ñ
ĠÐļ Ð¾Ð»
ĠÐ¿ÑĢÐ¾ÑĦ Ð¸Ð»
Ð½Ð¸Ñ ĨÐ°
ĠÑĤÐµÐº ÑģÑĤ
ĠÐ²Ð¾Ð· Ð½Ð¸ÐºÐ
¸ ÑĤÐ°ÑĤ
ÑĢÐ°Ñ ĤÐ¾Ð²
ĠÐºÐ °ÑĢÐ
ĠÑģÑĤ Ð°Ð½Ð´Ð°ÑĢ
ĠÐ¿ÑĢÐ¸Ð´ ÐµÑĤÑģÑı
Ñı Ð³
Ġp i
ÑĥÑİÑī Ð¸Ð¹
ĠÐŁ Ð¾ÑĤ
ĠÑĢÐµÐ¼ Ð¾Ð½
ĠÐ½Ð°Ð½Ð µÑģ
ĠÐĿ ÐµÑģ
cz nych
o k
ĠÑģÐ¼ Ð¾Ð¶ÐµÑĤÐµ
ĠÐ¿ Ð°Ð»ÑĮ
¸ ÑĤÐµÑģÑĮ
ĠÐ²Ñģ Ð¿
ĠÐ£ÐºÑĢÐ°Ð¸Ð ½Ñĭ
Ð°ÐºÐ °
Ð¸Ð¼ Ð¾ÑģÑĤÑĮ
ĠÑģÐ¾ÑģÑĤ Ð¾Ð¸ÑĤ
ĠÐ¿ÑĢÐ¾Ð¸Ð·Ð²Ð¾Ð´ ÑģÑĤÐ²Ð°
ĠÑģÐ¿Ð¾ÑģÐ¾Ð± ÑģÑĤÐ²
ĠÐ·Ð°ÑīÐ ¸
Ġa u
ÑĤÐ¸ÑĩÐµÑģÐº Ð¾Ð³Ð¾
ĠÑı Ð½Ð²
µÑĤÐµÑĢÐ ±ÑĥÑĢÐ
ĠÐ·Ð½Ð°Ð ½Ð
ĠÐ¿ÑĢÐµÐ ¿
s ia
ĠÑģÑĤ Ð°Ð½ÐµÑĤ
ĠÐľÐ¾ÑģÐº Ð²Ðµ
ĠÐ¿ÐµÑĢ ÐµÐ½Ð
Ġo r
Ñ ĸ
i t
2 5
ĠÐ± Ð¾Ð³
ce j
ĠÑģÐº Ð¾Ð»ÑĮÐºÐ¾
ĠÑħÐ¾Ð» Ð¾Ð´
ĠÐ· Ð°Ð¼Ðµ
2 00
s ie
ĠÐ¿Ð¾Ð¼Ð¾Ñī ÑĮ
n u
ĠÑħÐ¾Ð·Ñı Ð¹
ĠÐ³ ÑĥÐ±
ĠÑĤÐ µÑĢÐ¼
ĠÑģÐ¼ ÐµÑĢ
ÑģÑĤÐ²Ð ¸ÐµÐ¼
Ð¾Ð» Ð½Ðµ
ĠÐ¾Ð±ÑĬ ÑıÐ²
Ð¾ÑĢ Ð¾Ð¶
ĠÐļ Ð°Ð·
pra w
ÑĤÐ ½ÑĭÐ¼Ð¸
ĠÐºÐ¾Ð½Ñ ĨÐµ
ĠÐ³Ð¾Ð» Ð¾Ñģ
ÑĥÐ½Ð ´
ĠÐ°Ð²ÑĤÐ¾Ð¼Ð¾Ð± Ð¸Ð»ÑĮ
ÑĤÐ¸Ð² Ð½ÑĭÑħ
ĠÐ½Ð¸Ð ¶
e c
ĠÑģÑĤ ÑĢÐ°Ð½
ĠÐ´Ð°Ð»ÑĮ Ð½ÐµÐ¹
or t
ĠÐ¿Ð¾Ð¿ Ð°Ð´
ĠÑģ Ð½Ð¾Ð²Ð°
ÑĢ Ð¾ÐµÐ
ÑĢÑı Ñĩ
Ġc ie
cze nia
Ð ¸ÑĢÑĥ
ĠÑĦ Ð°Ð¹
ĠÐľ Ð½Ð¾Ð³
ĠÐ½ÐµÐ¾Ð±ÑħÐ¾Ð´Ð¸Ð¼ Ð¾ÑģÑĤÐ¸
rzy sta
Ġ201 6
Ð½Ð¸ÑĨ Ñĭ
ĠÐ²ÑĭÐ¿ Ð¾Ð»
Ð»Ð ½
ĠÐ¢ ÐµÐ¼
ÑģÑĤÐ² ÐµÐ½Ð½Ð¾
ĠÐ°Ð¿ Ð¿Ð°
ĠÑģ Ð¸Ð»ÑĮÐ½Ð¾
ÐµÑĢÐ ¸ÑĤÑĮ
ĠÑģÐ» Ð¾Ð²Ð°
ĠÐ· Ð½Ð°ÑĤÑĮ
ĠÐ±Ð¸Ð·Ð½ÐµÑģ Ð
Ð¿ Ð¾Ð´
ĠÑĢÑĭ Ð±
ÐŁ Ð
ĠÐŁÐ µÑĢÐµÐ´
ÐµÐ½Ð ¸ÑĤ
ĠÐĽ ÑİÐ±
ÑĤÐ¸ ÐµÐ¼
ĠÐ½Ð°Ñ ĤÑĥ
ĠÐ¾ÑĢÐ³Ð°Ð½Ð¸Ð· Ð¼Ð°
l y
ĠÐĿ ÐµÐ
ĠÑģÐ°Ð¼ Ð¾Ðµ
h o
ĠÐ± Ð¾Ð½ÑĥÑģ
te go
ra l
Ð¸ÑĤÐµÐ»ÑĮ Ð½Ð¾ÑģÑĤÑĮ
ĠÐĲ Ð½Ð´
ĠÑĤÑıÐ¶ ÐµÐ»
Ġ Ð°Ð»ÑĮ
ÑĥÑĪ ÐºÐ¸
Ðº Ð¾Ðµ
ĠÐ½Ð°Ñģ Ð»ÐµÐ´
ĠÑĢÐµÐºÐ¾Ð¼ÐµÐ½Ð´ ÑĥÐµÑĤÑģÑı
ĠÑĢÐ°Ð¼ ÐºÐ°Ñħ
ĠÐ¿ÑĢÐµÐ´ Ð½Ð°Ð·Ð½Ð°Ñĩ
ĠÑĥÑĩÐ°Ñģ ÑĤÐ¸Ðµ
ĠÑģÑ Ĩ
ĠÐºÐ¾ÑĢÐ ¾ÑĤÐ
ĠP rze
¸ÑĢÐ¾Ð² Ð°Ð½Ð¸Ðµ
s iÄĻ
ÑĢ Ð¾ÐµÐ½Ð
ĠÐ¿ÑĢÐ¸Ñģ ÑĥÑĤÑģÑĤÐ²
I I
ĠÐķ ÑīÐµ
ĠÐ´Ð¾ÑģÑĤÐ¸Ð ³
ĠÐ¼ Ð¾Ð·
ĠÐ´Ð¾ÐºÑĥÐ¼ ÐµÐ½ÑĤÑĭ
ĠÐ¸ÑģÐ¿ ÑĭÑĤ
Ġch o
li ne
ĠÐ¸Ð½ Ð¾Ð³Ð´Ð°
ĠÐ¾Ð± ÑģÐ»ÑĥÐ¶
Ġodp owie
ĠÐ¸ÑģÐ¿ Ð¾Ð»
ĠÐ¼ Ð¾Ñĩ
ÅĽ nie
ĠÐ¿ Ñĭ
ĠÐ¼ÐµÐ¶Ð´ ÑĥÐ½Ð°ÑĢ
ĠÐ¼Ð°ÑĤÐµÑĢÐ¸ Ð°Ð»Ð°
ĠÐ¿ÑĢÐ¸Ð¾Ð± ÑĢÐµÑĤ
ÑĤÐ½Ð ¸Ðº
ĠÐ¾ÑĤÐ² ÐµÑĤ
° Ñĥ
ĠÐ³ ÑĢÐ°ÑĦ
Ġ rÃ³Å¼
ĠÐµÑģ ÑĤÐµÑģÑĤÐ²
ĠÐ³ ÑĢÐ°Ð¼
Ð°Ð¸Ð ²
skie j
ĠÑĥÑĩ ÑĢÐµÐ¶Ð´
ĠÐ» ÑĮ
ĠÐ´ ÐµÑĦ
ĠÐŀ Ðº
ĠÐºÐ ½Ð¾Ð¿
ÑĢÐµÐ ³Ð¸ÑģÑĤ
ĠK a
ÑĤÐ¸ÑĩÐµÑģÐº Ð¸Ð¹
ÑĩÐ °
ĠÐ°Ð²ÑĤÐ¾Ð¼Ð¾Ð±Ð¸Ð» Ñı
ĠÐºÐ¾Ð½Ñģ ÑĥÐ»ÑĮ
ĠÑģ Ð¾Ð·
ĠÑģÑĤÐ°ÑĤÑĮÐ ¸
Ñĩ Ð¸ÑĤ
ĠR o
ĠÐ¸Ð´ ÐµÑĤ
°Ñ ĤÑĮ
ĠÐ¸Ñģ ÑĤÐ¾ÑĢÐ¸Ð¸
ĠÑģÐ°Ð¼ ÑĭÐ¼
ĠÐĺÐ½ ÑĤÐµÑĢ
Ð¾Ð½Ð °Ñħ
Ñĩ Ð¸ÐºÐ°
ĠÐ²ÐµÑĢÐ ¾Ñı
ÑĢÑĥ Ð±
Ġje go
Ð¸Ð· Ð¾Ð²
ÐĿ Ðŀ
ĠÐ°Ð² ÑĤÐ¾
ow Äħ
µÐ ³Ð¾
µÑĢ Ñĭ
Ð¡ Ð¡
ĠÅĽ wia
ĠÐ²Ñĭ Ð¸Ð³
ĠÐ¾Ð¿ ÑĤÐ¸Ð¼
ĠÐ¿Ð ¾ÑĢÐ
er y
ar y
°ÑĤÐ »
ĠÐ¿ Ð°Ð¿
ĠÐ¼Ð°Ñģ ÑĤÐµÑĢ
Ð°ÑİÑī Ð¸Ð¼
¸Ñ ĨÐ°
ĠÐ¾Ð± Ð½Ð¾Ð²
ĠÐ´Ð¾Ð³Ð¾Ð² Ð¾ÑĢ
ĠÐ¿Ð¸ÑĤ Ð°Ð½Ð¸Ñı
ĠÐ²ÐµÑī ÐµÑģÑĤÐ²
ĠÑĥ Ð½Ð¸Ðº
ĠÑĢÑıÐ´ Ð¾Ð¼
ĠÑįÐ½ÐµÑĢÐ ³
Ð¸Ð½Ð ºÐ¸
Ð²Ð°ÑĢÐ ¸ÑĤÐµÐ»ÑĮ
ĠÐ¢Ð°Ðº Ð¸Ð¼
ĠÐ¸ÑģÐ¿Ð¾Ð»ÑĮÐ· ÑĥÑİÑĤ
ĠÐ¼ ÐµÐ±
Ġw sp
Ġdo da
ĠÐ³ ÑĢÑĥÐ·
ĠÐ² Ð¸ÑĤÐ°Ð¼
Ð¸Ð °
ĠÑģÑĩÐ ¸ÑĤÐ°Ñ
ÐµÐ¶ Ð
ĠÐ¿Ð°Ð¼ Ñı
ĠÐĺÐ¼ ÐµÐ½Ð½Ð¾
ĠÐ³ Ð¸Ð´
ĠÐ´ Ð°ÐµÑĤ
ĠÐļ Ð°ÑĢ
ĠÑĢÐ°ÑģÐ¿ÑĢÐ¾ÑģÑĤ ÑĢÐ°Ð½ÐµÐ½Ð
ĠÐ² Ð¸Ð·
ĠÐ´Ð°Ð½Ð ½Ð¾Ð¹
ĠÑģ ÐµÐ½ÑĤ
ÑĢÐ°Ð µÑĤ
Ð¸ÑģÐ ¸
Ġof er
ĠÐĿ Ð°Ñģ
Ð» Ð¾ÑģÑĮ
Ġt ra
ĠÑĩ ÐµÑĢ
Ġjed nak
ĠÐ¼Ð ¸ÑĢÐ¾Ð²
ĠÑģÐ»ÑĥÑĩ Ð°Ð¹
f e
ĠÐºÐ °
ĠÐĹÐ°ÑĤ ÐµÐ¼
ĠÐ¼Ð½Ð¾Ð¶ ÐµÑģÑĤÐ²Ð¾
ÐµÐ»Ð ¸Ñı
ĠÐ· Ð°Ñĩ
Ñģ ÐºÐµ
Ġf i
Ð°ÑĤ Ð¾Ð²
t ka
ÐµÑĢ Ð¸ÐºÐ°Ð½
ĠÐ¼Ð¸Ð» Ð»Ð¸
ÅĤ Ã³w
½ Ð¾Ð³Ð
ĠÑĤÐµ ÑĢÐ°Ð¿
Ð» ÐµÐ½Ð½ÑĭÐµ
Ġs u
ÑĤÐ°Ñ ĨÐ¸Ñı
Ġ Ð°ÑĤ
ĠÑİ ÑĢÐ¸Ð´
ĠÑģÐ¾ÑģÑĤÐ°Ð² Ð
ĠÐ¿ÑĢÐ¾Ð² ÐµÐ´ÐµÐ½Ð¸Ñı
sz ka
ĤÑı Ð¶
ĠÑĩ Ð»ÐµÐ½
ĠÐ½ÐµÐ´ Ð²Ð¸Ð¶
ĠÑĨ ÐµÐ½Ñĭ
ĠÐ¿ÑĥÐ½Ð º
Ð¸ÑģÐ °
ĠÐ¼ Ð»Ð½
ÑĤÐ¸Ðº Ñĥ
ĠÐ¾Ð· Ð½Ð°Ñĩ
ĠÑģÐ¿ ÑĢÐ¾Ñģ
ĠÑĤÐµÐ± Ð
ĠÑĤ ÑĥÑĢ
ĠÑĤÐµÐ±Ð µ
Ðł Ðŀ
ĠÐ´Ð¸ ÑĢÐµÐº
Ñģ Ð¼
Ġk u
Ð¾Ñģ ÑĢÐµÐ´
ĠÐ¼ Ð¾Ð¹
ĠÐ½Ð µÑĢ
ĠL i
ĠÐ¿ÑĢÐ¸Ð± Ñĭ
ÑĤÐ¸Ð² Ð½ÑĭÐµ
ĠÐ³ÑĢ Ð¸Ð±
ĠÐ°ÑĢ Ñħ
ĠÐŃ ÑĤÐ¸
ĠÐ±ÐµÑĢÐµÐ¼ ÐµÐ½Ð½Ð¾ÑģÑĤÐ¸
Ġ *
âĢ Ķ
Ð¸ÑĤÐµÐ»ÑĮ Ð½ÑĭÑħ
ie n
ĠÐĲ Ð´
p ro
ĠÐ¾ÑĤÐ½Ð¾ÑĪ ÐµÐ½Ð¸Ñı
¸ÑĨ Ñĥ
Ð» ÐµÐ³
ĠÐ¸Ð¼ Ð¿
ĠÐ´Ð°Ð½Ð ½ÑĭÐ¹
Ġswo je
ĠÑĢÐ°Ð·Ð ½Ð¾Ð¾Ð±ÑĢÐ°Ð·
ĠÑĤ ÑĢÐµÑĤÑĮ
ĠÐĴ Ð°Ð¶
ĠÐ°Ð» ÐºÐ¾Ð³
ĠÐ¿ Ð°Ð»
ĠÐ¸Ð³ ÑĢÐ¾Ðº
¸ÑĤÑĮ ÑģÑı
ĠÐ¾ÑģÑĤ Ð°Ð½Ð¾Ð²
ĠÑģÑĤ Ð°Ð»Ð¾
ĠÐŁ Ð¾Ðº
Ĥ ¬
8 0
ÑĥÐ±Ð» Ð¸Ðº
ĠÑĤÐ¾Ñĩ Ð½Ð¾
Ð¸Ð½ Ñı
Ðº Ð¾Ð»ÑĮÐºÐ¾
Ð¾Ð´ Ð¾Ð¼
Ð¾Ñĩ ÐºÐ°
Ð¸Ð¼Ð µ
Ð¾Ð² Ð°Ð»Ð¸
ĠÐ¿ Ñĥ
Ġzna j
s ko
ĠÐ´ ÐµÐ»Ð°
ĠÐ´Ð¾ÐºÑĥÐ¼ ÐµÐ½ÑĤ
Ð°ÑĨÐ¸ ÐµÐ¹
ĠÐ½Ð°ÑĪ Ð¸Ñħ
ĠÐ¾ÑĢ Ð¸Ð³
Ð¸Ñ ĩÐµÑģÐºÐ¸
__ __
Ġp owie
ĠÐ¿ÑĢÐ¾Ð¸Ð· Ð¾ÑĪ
ĠÑģÑ Ĭ
Ñģ Ð»Ð¸
ÐµÑĤ ÑĢ
°Ð »
ĠÐ¿ÐµÑĢÐ² ÑĥÑİ
rz ÄĻ
ĠÑģÐ¾Ð·Ð´ Ð°ÑĤÑĮ
1 7
ĠÐ²Ð¿ Ð¾Ð»Ð½Ðµ
n s
ĠÐ¿ÑĢÐµÐ´Ð¿ ÑĢÐ¸Ð½Ð¸Ð¼
Ð°Ð µÐ²
ĠÐ´ÐµÐº Ð°Ð±
ĠÐ¿Ð¾Ð¼Ð¾Ð³ Ð°ÐµÑĤ
Ð ¸ÑĤÐ°ÑĤÑĮ
ĠÑĢÐ°Ð·Ð»Ð¸Ñĩ Ð½ÑĭÐµ
ĠÑģÑĥÐ´ ÐµÐ±
ĠÐ´ÑĢÑĥÐ³ Ð¸Ð¼Ð¸
ĠÐŁ Ð¾ÑĢ
dze nia
ÑĩÐ ¸
Ġpier w
Ñĭ Ð´
ÑĤÐ ¼
gra m
ĠÐ¸Ð½ Ñģ
ĠÐ¿ Ð¾ÐµÐ
ÑĢÐµÐ¼ Ñı
ĠÐ½Ð¾Ð² Ð¾Ð³Ð¾
ĠÐ´ ÐµÐºÐ¾ÑĢÐ
ĠÐ² Ð¾Ð²
Ġ Ð»Ð
Ð¸ÑĨÐ¸ ÑĢÐ¾Ð²
ĠÑĦÐ¾ÑĢÐ¼Ð °
ĠÐ·Ð° ÑĢÐ°Ð±Ð¾ÑĤÐ
Ð² Ð¾Ð½Ð
Ġa l
Ġwy da
sze j
z e
szy m
ĠÑģ Ð°Ð¼Ð¸
ĠÐ´ÐµÐ½ÐµÐ ¶
ĠÐ¿ Ð»Ð¾ÑĤÐ
ĠÐ¾ÑĤÐº ÑĢÑĭÐ²
ĠÑģÐ°Ð¼ Ð¾Ð³Ð¾
Ð» ÑģÑı
ĠÐºÐ¾Ð¼ Ð½Ð°
ĠÐ²Ð¾Ð´ Ð¾Ð¹
ĠÑģÐ¾Ð·Ð´ Ð°Ð½Ð¸Ñı
ÑģÐº Ð¾Ð¼Ñĥ
Ð ½Ñİ
1 4
ĠÐ¾ÑĢÐ³ Ð°Ð½Ð¾Ð²
ÐµÐ½Ð½Ð ¸Ðº
1 6
ĠÐ²Ñĭ ÑģÑĤÐ°Ð²
Ġp ie
ÑĨ Ð¾Ð²
ĠÐĳ Ð»Ð°Ð³
Ð» ÐµÑĤ
te k
ĠÑĨ Ð¸ÑĦ
Ĥ Ð°Ð¼Ð¸
li wo
ĠÐ¸Ð½ÑĤÐµÑĢ ÑĮ
ĠÐ´Ð¾Ð» Ð»Ð°ÑĢ
Ð¾Ð¹ ÑĩÐ¸Ð²
ĠÐ¾Ð´Ð ½Ñĥ
ĠÑĤÑĢÑĥ Ð´Ð°
ĠÐ³Ð µÑĢ
ĠÑģÑĥÑīÐµÑģÑĤÐ² ÑĥÐµÑĤ
Ñħ Ð¾Ð´Ð°
ĠÐĵ Ð¾Ñģ
ĠÑģÑĤ Ð°Ð»Ð°
men t
ĠÐ¿ÑĢÐ¸Ð¼ÐµÑĢ Ð½Ð¾
ĠÑĦÐ ¸ÑĢÐ
ĠÐ±Ð¾ÑĢ ÑĮ
ĠÑĤÑĢÐµÐ± ÑĥÐµÑĤ
wiÄħ za
ĠÐ³ Ð¾Ð´Ñĭ
ÑĤÑı Ð¼Ð¸
ĠÐ¼Ð°ÑĤÐµÑĢÐ¸Ð°Ð» Ñĭ
ĠÐļÐ ¸
ĠÐ¾Ðº Ð°Ð·ÑĭÐ²
ĠÐ¶ Ð¸Ð»ÑĮ
gl Äħ
ĠÑĤÑĢÑĥ Ð±
âĢĿ .
ĠÐº Ð»Ðµ
Ð» Ð¾Ð½Ð
ĠÐ³Ð¾ ÑĢÑıÑĩ
ÑĢÐ°Ð½Ð °
ĠÐº Ð¾Ð³Ð¾
ĠÑģÑ İ
Ð¾ÑĤ Ñı
ĠÑĢÐ°Ð½Ð µÐµ
ĠÐŁ ÑĢÐ¾Ð´
c Äħ
ĠÑĨ ÐµÐ½Ð°
ĠÐ¿Ð¾ÑĢÑıÐ´ ÐºÐµ
ÐµÐ½Ñ ĤÑĥ
ÐµÐ¶ Ð°ÑĤÑĮ
ĠÑĢÐµÐº Ð»Ð°Ð¼
ĠÐ¿ÑĢÐµÐ´ÑģÑĤÐ°Ð² Ð»ÑıÐµÑĤ
Ð¿Ð µ
ĠÐ´Ð» Ð¸Ð½Ð
ĠÐ½Ð°ÑĪÐ ¸
Ġ2 7
Ġ Ð°ÑģÑģ
ĠÐ¾Ð¿ ÑĢÐµÐ´ÐµÐ»Ñı
ÑĤÑĮ ÑģÑı
Ð°ÑĢ Ñĭ
Ġ20 20
Ġ Y
ĠÐ¼ÐµÑģ Ñ
dzie j
ĠÑħ Ð»
ĠÐ² Ð½ÐµÐ
Ð¾Ð½Ð°Ð »
ĠÐ¼ Ð°Ð¼
ÑģÐ¾Ð» Ñİ
ÑĢ Ð¾Ð´Ðµ
jÄħcy ch
ĠÑĦ ÑĥÑĤÐ
ĠÑģÐ» Ð°Ð±
f t
ĠÑĢÑĭÐ½Ð ºÐµ
ĠÐ¿ÑĢÐ¾ÐµÐº ÑĤÐ°
ÐµÐ½Ð ºÑĥ
Ð¾Ð½Ð°Ð ´
ĠÐ½Ð°Ð»Ð¸Ñĩ Ð¸Ðµ
Ġ Ð°Ð·
ĠÐ½ÐµÐ ¸Ð
ĠÐ¡ Ð»
ĠÐ± Ð°Ðº
u ro
Ð¾ÑģÑ Ħ
Ĥ ÐµÐº
ÑĤÐ¸Ñ Ĩ
Ð¾ÑĤ Ñĥ
ĠÐ´Ð²Ð¸Ð¶ ÐµÐ½Ð¸Ñı
ĠÑģÐ¾Ð²ÐµÑĢÑĪ ÐµÐ½Ð½Ð¾
Ð°Ð¹ Ð´
ĠÐ¾Ð´Ð ½Ð¾Ð¼
ĠÐº Ð³
ĠÑįÐ¼ Ð¾Ñ
Ġs a
ĠÐ¿ÑĢÐµÐ´ Ñģ
Ð¼Ð¸ ÑĤÐµ
ĠÐ¾ÑĤÐ² ÐµÑĩ
Ð¿ Ð¾ÑģÐ¾Ð±
Ð¸Ð½Ð°Ð ´
Ð¾Ð¿ Ð»
ĠÐ²Ð½ÑĥÑĤ ÑĢÐ¸
ĠÐ²Ð»Ð°Ñģ ÑĤÐ¸
ĠÑģÑĢÐµÐ´ ÑģÑĤÐ²Ð¾
ĠÑģÐ²Ð¸Ð´ÐµÑĤ ÐµÐ»ÑĮ
ÑĪÐ ¸
ĠÐ¾Ðº ÑĤÑı
ĠÐ½Ð°Ð»Ð¸Ñĩ Ð¸Ð¸
ĠÐ¿Ð¾ÑĤ Ð¾Ð»
ĠÐ½Ð°Ð¿ÑĢÑı Ð¶
ga ni
ĠÐº ÑĢÐ¸
ĠÐ¿ÑĢÐ¾ÑĨÐµÑģ ÑģÐµ
ĠW in
ÑıÑĤÑĮ ÑģÑı
ĠS t
Ð°ÑĢ ÑĮ
ĠÑĤÑĭ Ñģ
ĠÑĥÐº ÑĢÐ°Ð¸Ð
± ÑĥÐ´ÑĮ
ĠÑĤ ÑĥÑĢÐ
ĠÐ¢Ð ¾
ĠÐ¸Ð½ÑĦÐ¾ÑĢÐ¼ Ð°ÑĨÐ¸Ñı
ĠÐ²Ð°ÑĪ ÐµÐ¹
Ġd y
p rze
Ð¾Ð³ Ð»Ð°Ñģ
ĠÑģÑĤ ÑĢÐµÐ¼
ĠÐ¸ÑģÑģÐ»ÐµÐ´ Ð¾Ð²Ð°Ð½Ð¸Ñı
r Äħ
ĠÐ¼ Ð¾Ð½ÑĤ
ĠÑĤÐ°Ðº Ð°Ñı
ĠÑģÑĤÐ°ÑĤÑĮÐ µ
ĠÐ´ Ð¾Ð¼Ðµ
ĠÑģÐ¸ÑģÑĤ ÐµÐ¼Ñĥ
Ð°Ð½Ð ¸ÑĩÐµÑģÐº
¸Ñ ĨÐµ
ĠÐ·Ð°Ð´ Ð°Ñĩ
ĠÐ¿ÑĢÐ¾Ð³ÑĢÐ°Ð¼ Ð¼
ĠÑĢÐ°Ñģ ÑĪÐ¸ÑĢ
ĠÐ´ÐµÑģ Ñı
Ġsp e
Ð¾Ð¶ Ð°Ð»
cze nie
¾Ñ ĤÑĭ
Ð°Ð·Ð µ
t ni
Ñ ĤÐ¾Ðº
Ġe le
ĠÐ·Ð´Ð¾ÑĢÐ¾Ð² ÑĮÑı
Ð¸ÑĤÐµÐ»ÑĮ Ð½Ð¾Ð¹
Ð¸ÑĤÐµÐ»ÑĮ ÑģÑĤÐ²Ð°
ÑĤÐ¸Ð »Ð°
ĠÐ²Ð¸Ð´ Ð¾Ð²
g le
ĠÐ² Ð½ÐµÑģ
Ġ2 8
Ñĳ Ð»
ĠÐ¼ÐµÑģÑıÑ ĨÐ°
ÐµÐ² ÑĭÐµ
un k
ĠÐ¾Ð² Ð¾Ñī
ĠÑģÑĤ Ð°Ð½
ĠÐ³Ð» Ð°Ð·Ð°
Ð½Ð °Ñģ
ī Ð
h i
ĠÐ´ ÐµÑĪ
Ñģ ÐºÐ°
ĠÐº ÑĢÐµÑģ
Ðº Ð¾Ð¿
Ð¸ÑĤ Ð°Ð¹
ĠÑĤÐ¾ÑĢÐ³ Ð¾Ð²
Ð» Ð°Ð¶Ð´
ÐµÐ ºÐ¾
ĠÐ²ÑĭÐ¿ ÑĥÑģÐº
ÑĤÐ¾ÑĢÐ ¸Ñı
ĠÐ±Ð¸Ð·Ð½ÐµÑģÐ °
ÐµÐ² Ð¸Ð´
ĠÐ¿Ð¾ÑĤ ÐµÐ½Ñ
Ð¾Ð» ÑıÑ
ĠÐ½ÐµÐ¿ ÑĢÐ¸Ñı
ĠÐ¿Ð¾Ð´ ÑħÐ¾Ð´Ð¸ÑĤ
ĠÐļ Ð°Ð¶Ð´
ĠÑĢÐ°Ð·Ð²Ð¸ ÑĤÐ¸Ðµ
Ġt u
ĠÑĢÐµÐ¶ Ð¸Ð¼
ĠÑģ ÐµÑĤ
ĠÐ½Ð¸Ð ¼Ð¸
ĠÐŀÑĩ ÐµÐ½ÑĮ
ĠÐ²ÐµÐ» Ð¸Ðº
ĠÐ¿Ð¾Ð± ÐµÐ´
ĠÐ» Ð¾Ðº
ÐµÑ İ
ÐµÑħ Ð
Ð°ÑĪÐ °
Ð°ÑĤ ÐµÐ»ÐµÐ¼
ÑĢÐµÐ ³
Ð°ÑĪÐ ¸
ĠÑģÐµÑĢÐ² Ð¸Ñģ
ĠÑĢ Ð¾Ð»ÑĮ
µÑģ ÑĮ
ÑĤÑı Ñħ
Ð¾Ð²Ð µ
ĠÐŀÐ± Ñī
Ġz w
or y
ĠÑģÐº Ð»Ð°Ð´
ĠÐ³Ð¾ÑĢ Ð¾Ð´Ðµ
ÑĢÐ¾Ð² Ð
ĠÐ´ÐµÐ» Ð°ÐµÑĤ
ĠÐ¸Ð½Ð ¾ÑģÑĤ
ĠÐº Ð¸ÑĪ
Ð»Ð°Ñģ Ñģ
Ġk il
1 3
Ð¸Ð· Ð¼
ĠÑĢ Ð¾Ð¼
ÐµÐ µÐ²
te l
ĠÐ¿ÑĢÐ¾Ð´ÑĥÐº ÑĤÐ¾Ð²
ÐºÐ¾ ÑĢÐµÐµ
ĠÐ²Ð·Ð³ Ð»ÑıÐ´
ĠÐº Ð°Ð½Ð°Ð»
ĠÑĢ ÑĥÑĩ
Ġspo s
Ð¾ÑĢÐ ´
³ Ñĥ
kÅĤa d
ĠÐĴ ÐµÐ»
ÑĥÑģ ÐºÐ°
ĠÐ¿ÑĢÐµÑģ ÑĤÑĥÐ¿
Ð¸Ð²Ð ¾
% .
ĠÑĢÐ°Ñģ ÑĤÐ²Ð¾ÑĢ
ĠÐ¿Ð° ÑĢÐ°Ð¼
Ð¾Ð½ ÑģÑĤ
ÑĥÑģ Ð¾Ð²
Ð¾Ð´ Ð½ÑĭÐµ
ĠÐºÐ°Ñ ĩÐµÑģÑĤÐ²Ð¾
dz ia
ĠÑģÐ»Ð¾Ð² Ð°Ð¼
ÑĢÐ°Ñģ Ñ
ar d
ĠÐ¾ÑĤÐ² Ð
Ġ2 6
Ġsam o
ĠÑĢÐ°Ð· Ð½ÑĭÐµ
Ð¢ Ðŀ
ĠÐ±Ð¾Ð»ÐµÐ· Ð½Ð¸
ĠÐ²Ð· ÑıÑĤÑĮ
ĠÐ¢ Ð¾Ð»ÑĮÐºÐ¾
ĠÑģÐ¾Ð¿ ÑĢÐ¾Ð²
ÑıÑī Ð¸Ñħ
ÑĢÐ°ÑģÑ Ĥ
ĠÐ¼Ð°Ñģ Ð»Ð¾
ĠÐŁ ÑĢÐ¾Ð²
ÑĢÐ°Ñ İÑĤ
ĠÐ´ÐµÑĢÐµÐ² Ð
ĠÐŁÐ¾Ñĩ ÐµÐ¼Ñĥ
Ð°Ð»ÑĮ Ð½ÑĥÑİ
Ð² Ð°Ð»
ÑĢ Ð¸Ðº
ĠÐŃ ÑĤÐ°
ĠÐ¿ Ð¸ÑĪ
dow s
ĠL e
Ð¸Ð·Ð ¸
ĠÑģÑĥ ÑģÑĤÐ°Ð²
Ñĩ Ð¸ÐºÐ¾Ð²
ĠÐ½Ð°ÑĪ ÐµÐ³Ð¾
2 4
ÑĬ ÐµÐ¼
ĠÐ² ÐµÐ½
ĠÐ¿ÑĢÐ¾ÑĪ Ð»
ĠÐ°Ð¼ ÐµÑĢÐ¸ÐºÐ°Ð½
ĠÐ´ ÑĢ
ĠÑģÐ¾ÑģÑĤÐ¾Ñı Ð½Ð¸Ð¸
h a
ĠÑģÐµÐ¼ ÑĮÐ¸
ĠÐ½Ð°Ñĩ Ð°Ð»
Ð¾Ð½Ð µÑĨ
ĠÐº Ð¾Ð´
ĠÐ¿ÑĢÐ¸ ÑĢÐ¾Ð´
ĠÐ¿ÑĢÐ¾ ÑıÐ²
ĠÐ°Ðº ÑĤÑĥ
ĠÂ »
Ñĥ ÑģÐ°
ĠÐº ÑĥÐ´Ð°
s s
ĠÐ£ Ð´
ÑĭÐ² Ð°ÑİÑĤÑģÑı
ÑĢÐ°Ð¸Ð ²
Ðł ÐĲ
Ð¾Ñĩ Ð½ÑĭÐµ
ĠÑģÐ¿ÐµÑ Ĩ
ĠÐ½Ð°ÑĤÑĥ ÑĢÐ°Ð»ÑĮ
ĠÐ¿ÑĢÐ¸Ð¼ÐµÐ½ÐµÐ½Ð ¸Ñı
iÄĻ ki
ĠÐ·Ð°Ñī Ð¸Ñī
Ð½ÐµÐ½Ð ¸Ð¹
ĠÑĢÐ°ÑģÑģÑĩ Ð¸ÑĤ
Ð² Ð¸Ð´
ĠÑĥÐ¿ ÑĢÐ°Ð¶
Ġ y
re m
le p
ĠÐ²Ð»Ð°Ð´ ÐµÐ»ÑĮ
ĠÑĥÑĢÐ¾Ð² Ð½Ðµ
ĠÑĢÐ°Ð· ÑĢÐ°Ð±Ð¾ÑĤÐ
ĠÐ¿ Ð°Ð½ÐµÐ
ĠÐºÐ²Ð°ÑĢÑĤÐ¸ ÑĢÑĭ
ĠÐ´Ðµ ÑĤÐ¸
ĠÑĢÐ°ÑģÑģ Ð¼Ð°ÑĤÑĢ
Ð¾Ð±Ñĭ Ñĩ
ma ga
ĠÑģÐ¾Ñĩ ÐµÑĤ
Ð¸ÑĤÐµÐ»ÑĮ Ð½Ð¾Ðµ
ĠÐ¿ÑĢÐµÐ´ Ð²Ð°ÑĢÐ¸ÑĤÐµÐ»ÑĮ
p er
Ð¸ÑĤ Ð¾Ð²
ĠÐ½ÐµÐ º
ĠÐ°Ð²ÑĤÐ¾Ð¼ Ð°ÑĤÑĭ
ÑĢÐ ¾ÑĪ
ĠÑĥÑģÑĤÑĢÐ¾Ð¹ ÑģÑĤÐ²Ð°
Ð¸Ñĩ Ð
ĠÐ³ÑĢÑĥ Ð
ni kÃ³w
b li
ĠÑĤÐ°Ðº Ð¾Ð¼
ĠÐ·Ð°Ð¼ ÐµÑĩ
ĠÐĽ ÑĥÑĩ
Ð»ÑıÑ İÑĤÑģÑı
ĠÐ°Ð½ ÑĤÐ¸Ð
ĠÐºÐ¾Ð¼ Ð°Ð½Ð
ĠÐ¡ ÐµÐ¹ÑĩÐ°Ñģ
Ġw p
Ð½Ð¸Ðº Ð¾Ð¼
ĠÑģÐ°Ð¼ Ð¾Ð¹
Ñ ĨÐ¸Ð¾Ð½Ð
Ð¸Ð ³Ð¸
Ð¾Ð± Ð
Ð¾ÑĤÐ ½Ð
ĠÐ½ÐµÐ¿ Ð¾ÑģÑĢÐµÐ´
ĠÑħ Ð¸Ð¼
ÐµÐ½Ð µÐ¼
. )
ĠÐ¼Ð¾Ð´ ÐµÐ»ÑĮ
ĠÐ§ ÐµÐ¼
ĠÐ» Ð¸Ð¼
ĠÑģÐ»ÑĥÐ¶ Ð±Ñĭ
ĠÐ²Ð¾Ðº ÑĢÑĥÐ³
ĠÑģÑĩÐ¸ÑĤ Ð°ÐµÑĤÑģÑı
w et
ĠÐĳ ÐµÐ·
Ð ½Ð¾Ð¶
ĠÐ¼ Ð°Ñı
Ġje j
dz Äħ
ĠÐ´Ð¾Ð¼Ð°ÑĪ Ð½Ð¸Ñħ
ĠÑģ Ð¸Ð³
ĠÐ²Ð¾Ð»Ð¾Ñģ Ñĭ
ÑĥÑģ ÑĤÑĮ
2 3
½ Ð¾Ð´
ÑĤÐ¸Ð² Ð½Ð¾
ĠÐĺ Ñħ
Ð¸ÑĤÐµÐ»ÑĮ Ð½Ð¾Ð³Ð¾
ÐµÐ² ÐµÑĢÐ
Ð» Ð¸Ð½Ð
st em
ĠÐ·Ð½Ð°Ñĩ Ð¸ÑĤÐµÐ»ÑĮÐ½Ð¾
g ie
ĠÐ¾Ð±ÑĢÐ°Ð· Ð¾Ð²
Ġ ÑĥÑĪ
ÐµÐ´ Ð¾Ð¼
h t
ĠÐ¼ ÐµÑĩ
ĠÐľ Ð¸Ð½Ð
Ġt en
Ġ raz
Ð»ÐµÑĢÐ ³
Ð°Ð¸Ð ½
Ð½Ð¸Ð ±ÑĥÐ´ÑĮ
ĠÐ² ÐµÐ±
ÑĭÐ² Ð°Ð½Ð¸Ñı
Ð» Ñĥ
ĠÐ´ Ð¾Ð»Ð³Ð¾
Ġ rze
ĠÐ¾ÑĤÐº Ð°Ð·
dz iaÅĤ
Ġ20 21
ĠW i
ĠÐº Ð¾ÑĢÐ¼
ĠÑĢÐ°Ð· Ð±
ĠÑģÐ¸Ð» Ñĥ
ĠÐĳ Ñĭ
ĠÐĴ ÐµÐ´ÑĮ
ÐµÐ² ÑĭÑħ
cz o
ĠÐ¼Ð°Ñģ Ð»Ð°
Ġpra c
ĠÑģÐ¾Ð³ Ð»Ð°ÑĪ
ĠÑĥÐº ÑĢÐ°ÑĪ
ĠÑĩÐµÐ»Ð¾Ð² ÐµÑ
ĠÐ»ÑİÐ± Ð¾Ð¼
ĠÐ´Ð°Ð² Ð½Ð¾
ĠÐ´Ð¾Ð³Ð¾Ð² Ð¾ÑĢÐ°
Ð¾Ð´Ð ¸
.. ..
ĠÐ¿ÐµÑĢÐ² Ð¾Ð³Ð¾
ĠÐ¿Ð¾Ð¼ Ð¾ÑĩÑĮ
ĠÐ¿ÐµÑĢÐ² Ð¾Ð¹
ĠÐ¿Ð¾Ð´ Ñģ
ĠÑĥÑģÑĤÐ°Ð½Ð¾Ð² Ð¸ÑĤÑĮ
ĠÐ¾ÑĤÐºÑĢÑĭ Ñ
ĠÐ¾ÑĤÐºÑĢÑĭÑ Ĥ
Ð¾Ð´ Ð½ÑĭÑħ
ĠÑģÑĤÑĢÐ°Ð½Ð µ
Ð¸Ð½ÐµÐ½Ð ¸Ñı
ĠÐ¿ÑĢÐµÐ´Ð¿ÑĢÐ¸Ñı ÑĤÐ¸Ñı
ÐµÐ½Ð¸Ð ²
ĠÑĥÐ· Ð½Ð°Ð
wa Äĩ
Ñ ĨÐµ
ĠÐľ Ð¸Ð½
Ð°Ð² Ð½Ð¾
ĠÑģÐ¼ ÐµÑĪ
ĠÑģÐ°Ð¼Ð ¾
Ñģ Ð¸Ñİ
ĠÐ¼ ÐµÑĢÐµ
ĠÐ¿ÑĢÐ¾ÐµÐ ºÑĤ
Ð¾Ð¹ ÐºÐ¸
ĠktÃ³ ra
ĠÐ»ÐµÐºÐ°ÑĢ ÑģÑĤÐ²
Ñı ÑģÐ
ĠÐº Ð°Ð´
ÐµÐ½Ð ½Ð¾Ð¼Ñĥ
Ð¸Ð²Ð °
ĠÐ² Ð¾Ð´Ñĥ
ĠÐ¼ÐµÑħ Ð°Ð½Ð¸Ð·
ĠÐ¡ Ð¼
ĠÑĢÐ°ÑģÑģÐº Ð°Ð·
ĠÐ°Ð± ÑģÐ¾Ð»Ñİ
le Å¼y
Ð²Ð µÑĢÐµÐ
ÑĢÐµÐ³Ð¸ÑģÑĤ ÑĢÐ¸ÑĢÐ¾Ð²
n ku
ĠÑĪ Ð°Ð³
ĠÑģÐ² ÐµÑĤÐ
v a
v i
Ġpo r
Ð¸Ð·Ð ¸ÑĢÐ¾Ð²
ĠÐ·Ð°Ð´ ÐµÑĢÐ¶
Ð°Ð½Ð ½ÑĥÑİ
Ġin ter
ĠÐ½Ð°Ð» Ð¾Ð³
ĠÐ·Ð°Ñī Ð¸ÑĤÑĭ
â Ĥ¬
Ñĩ Ð°ÑĤ
s k
ĠW ar
ĠÐ¿ÑĢÐ¸Ð¼ ÐµÐ½Ñı
ĠÐ¾ÑĢÐ³Ð°Ð½Ð¸Ð· Ð¼
ÑĢ Ð¸Ð½
ĠÐ·Ð½Ð°Ñĩ ÐµÐ½Ð¸Ðµ
Ġ Å¼
Ð°Ð» ÐµÐµ
ĠÑĢÐ°ÑģÑĤ ÐµÐ½Ð¸Ñı
ĠÑĩ Ñ
ĠÑĤ Ñī
ĠÑĩÑ Ĥ
Ð» ÐµÐ½Ð½ÑĭÑħ
ĠÐ²Ð¸Ð´ Ñĭ
ĠÑĦ ÐµÐ²
ĠÐ¿Ð¾Ñģ Ð°Ð´
ĠÐ¸Ð½Ð²ÐµÑģ ÑĤÐ¸Ñ
Ð°Ð¹ ÑĤÐµÑģÑĮ
Ġ201 5
ĠÑĪ Ð
ĠÐ°Ð² Ð³
ĠÐŀ ÑĤÐº
ĠÐĺ Ð²
Ġ ru
ĠÐ¿Ð¾Ð¿ÑĥÐ»Ñı ÑĢ
ĠÑģ Ð¸Ð½
ĠÑĢ Ð¾Ð¶Ð´ÐµÐ½Ð¸Ñı
Ð°ÑİÑī Ð°Ñı
º Ð°Ð¼Ð¸
ĠÐ»Ð¸Ñ ĨÐ¾
ÑĥÑĤÐ µÑĪ
»Ð ¾
Ġpra w
ĠÐºÐ°Ð¶Ð´ Ð¾Ð¹
ĠÐ·Ð°ÑģÑĤ Ð°Ð²
Ġg dy
Ð°Ñ į
ĠÐºÐ¾Ð¼ Ð¸Ñģ
ĠÐ±Ð°Ð½Ðº Ð¾Ð²
ĠÐľÐ½Ð¾Ð³ Ð¸Ðµ
ĠÐ± ÐµÑĤ
ĠÐ¿ÑĢÐ¾Ð´ÑĥÐº ÑĤÑĭ
st ra
Ð¾Ð½Ð°Ð´ Ð¾Ð±
ĠÐŁÐ¾Ð» ÑĥÑĩ
ĠÑħÑĥÐ´ Ð¾Ð¶
ĠÅ ļ
ĠÐ²Ð¾Ð·Ð² ÑĢÐ°Ñī
ĠÑģÐ¸ÑĤÑĥ Ð°ÑĨÐ¸Ñı
ĠÐ¶ ÐµÑģ
sta w
ĠÐ¼ Ð¾ÐµÐ
ÑĪ ÑĥÑİ
Ð¶Ð ¸
) )
ÑĢÑĥ ÐµÐ¼
ĠÐ²Ð¸Ð´Ð °
ĠÐ¿Ð¾Ñģ ÐµÑī
ona l
l ar
ĠÐ¾Ð±ÑĢÐ° ÑĤÐ¸ÑĤÑĮÑģÑı
wa Å¼
ĠÐ¿ ÐµÐ´
Ġ5 00
czy Äĩ
ĠÑĩ Ð¸ÑģÑĤ
ĠÐ¿ÑĢÐ¾Ð´ÑĥÐº ÑĨÐ¸Ð¸
Ð¾ÑģÑĤ Ð¾Ð²
Ð¾ÑĢÐ¼Ð °
ĠÑģÐ»ÑĥÑĩÐ°Ð µÐ²
ĠÐŁ Ð¾Ð²
d Åº
Ġd ru
Ð½Ð µÑĩ
ĠÐ´Ð¾Ð»Ð»Ð°ÑĢ Ð¾Ð²
Ð´ Ñĭ
ĠÑģÑĤÐ¾ÑĢ Ð¾Ð½Ñĥ
ĠÐĴ Ð¾Ð·
Ġmog Äħ
Ð «
ÑģÑĤ Ð°Ð½
ĠÐºÐ°Ðº Ð¸Ñħ
ĠÑĩÐ°Ñģ Ð
ĠÐ¿ÑĢÐµÐ¶ Ð´Ðµ
ĠÐ¸ÑģÐ¿Ð¾Ð»ÑĮÐ·Ð¾Ð² Ð°Ð½Ð¸Ðµ
¾ÑĤÐ ½Ð
Ġna d
ĠÐ½Ð°Ñģ ÑĤÑĥÐ¿
ĠÐ²Ñĭ ÑıÐ²
ĠÐĲ Ð
Ð¾Ð´ Ð½ÑĭÐ¹
Ð»Ð¸Ð² Ð
ĠÐºÐ¾Ð¼ Ð¼Ñĥ
ĠÐ²ÑĢÐ°Ñĩ Ð
ĠÐ¿ÑĢÐ¸Ð½Ð¸Ð¼ Ð°ÑĤÑĮ
ÑĥÑĪ ÐºÐ°
ÑĢÐµÑģ ÑĤÐ¸
ĠÐ¾Ð´ ÐµÐ¶Ð´
ĠÑĦ Ð¸Ð³
ĠÐļ ÑĥÐ¿
Ġspra w
ĠÐºÐ¾Ð¼ Ð¼ÐµÐ½ÑĤÐ°
ĠÐ¿ÑĢÐ°Ð² Ð¸Ð»Ð°
ĠÐ¼ÐµÑģÑ Ĥ
ĠÑĢÐµÐ ²
Ð¼ ÐµÐºÐ
ĠÐ½Ð¾Ð¼ ÐµÑĢ
Ðº Ð¾Ð½
ÑĢÐ ½ÑĭÑħ
ĠÐ¿ÑĢÐµÑģ Ñģ
ĠÐ¿Ð °ÑĢÐ
ÑĢÐ ½ÑĭÐµ
ĠÑĩÐ°ÑģÐ °
ĠÑĥÐ² ÐµÑĢ
Ġk ie
Ð °ÑĤÐ
ĠÑĨÐµÐ» Ð¾Ð¼
ÑĬ ÐµÐº
ĠÑģÐ¾Ð¾ÑĤÐ²ÐµÑĤÑģÑĤÐ² ÑĥÑİÑī
ÑĤÐ »Ð¸Ð²
ÑĤÐ¸Ð »Ðµ
ĠÐ± Ð¾Ðº
ĠÐ³ ÑĢÐ°Ð´
ĠÐ´ÐµÐ²ÑĥÑĪ ÐºÐ¸
ĠÐ·Ð°Ð¿ ÑĢÐ¾Ñģ
ĠÐ´Ð°Ð½Ð ½Ð¾Ð³Ð¾
ĠÑįÐº ÑģÑĤ
ta l
ĠÐ¿ÑĢÐ¾Ð´ÑĥÐº Ñ
ĠÑģÑĤ ÑĢÐ°ÑĤ
Ġ2 9
ĠÐº ÑĢÐµÐ¼
Ġte j
ĠÑĩÐ µÑĤÐ²
Ð¸Ð½Ð°Ð´ Ð»ÐµÐ¶
ĠÐºÐ¾Ð¼Ð¿ Ð¾Ð½ÐµÐ½
ĠÐºÐ°Ñģ Ð°ÐµÑĤÑģÑı
Ð½Ð µÑĤÐµ
Ġpo mo
ski ch
ĠÐĳ Ð»
ĠÐ¾Ð±ÑĬ ÐµÐ´
ÑĢÐ ¸Ñĩ
ĠÑģÑĤ ÐµÐ½
½ÑĥÑĤÑĮ ÑģÑı
ĠÐ· ÐµÑĢÐº
ĠÐ½ÐµÐ´ ÐµÐ»Ð¸
ĠÐļ Ð¾ÑĢ
ĠÐ¾Ñĩ Ð¸Ñģ
ĠÐ¶ÐµÐ½Ñī Ð¸Ð½Ð°
ĠÑĥÐ³ Ð¾Ð»
cz u
ÑĤÐ ¾Ñģ
ĠÐ¿Ñĥ ÑĤÐ¸
ĠÐ½Ð°Ñ ĨÐ¸Ð¾Ð½Ð°Ð»ÑĮ
ĠÐ¼Ð ½Ð¾Ð³Ð
ÑĤÐ¸Ðº Ð¾Ð²
ĠÐ²Ð ¸ÑĢÑĥ
Ð°Ð½Ð ³
ĠÑģÐ± Ð¾ÑĢ
i no
ĠÐ¿Ð°Ñģ Ð¿
Ðļ Ðŀ
ĠÐ¸ÑģÐ¿ Ð¾Ð»Ð½ÐµÐ½Ð
ĠÐ¿ ÑĢÐµÐ¼
ĠÐ¿Ð¾Ð¶ Ð°Ð»
ÑĥÑĤÐµÑĪ ÐµÑģÑĤÐ²
Ġ Ð¸Ñī
Ð¾Ð½Ð ¸Ð¸
Ġ ...
owa ny
ĠÐ²Ð¾Ð·Ð´ ÐµÐ¹ÑģÑĤÐ²
ĠÐ¶ÑĥÑĢ Ð½Ð°Ð»
trzy ma
ĠÐ¾Ð´Ð ½Ð¾Ð²
ÑĤÐ°ÑĤÑĮ ÑģÑı
ĠÑįÐº Ð·
ĠÐ»ÑİÐ± Ð¾Ð³Ð¾
ĠÐ¾ÑĤÐ²Ð µ
ĠÐ»Ð¸Ñģ ÑĤÑĮ
ĠÐ¿Ð¾Ð¿ ÑĢÐ¾Ð±
ĠÐ¿ÑĢÐ¾Ð¼ ÑĭÑĪÐ»
Ð¸ÑĩÐµÑģÐº Ð¾Ðµ
Ġin forma
ĠÐº ÑĢÐ¾Ð¼Ðµ
ĠÐ¸Ð½ÑĦ ÐµÐº
ĠÐĲ Ð·
Ñĩ Ð¸ÐºÐ¸
ĠÐ¾Ð·Ð½Ð°Ñĩ Ð°ÐµÑĤ
ĠD e
Ġ8 0
ĠÐĿ Ð°Ñĩ
Ð¾Ð½ Ñı
ĠÐŁ Ð¾Ð¿
ĠÑĦ Ð¸Ðº
ĠÐ¿ÑĢÐµÐ´Ð»Ð°Ð³ Ð°ÐµÑĤ
ĠÑĢÐ°Ð ½ÑĮ
ÑĢÐ¸Ñ Ħ
ÑĢÐµÐ» Ñı
Ð½Ð¸Ð ºÐµ
ĠÑĤÐ¾Ñĩ ÐºÐ¸
ĠÑĤ Ð¾Ð²Ð°
µÑģ Ñ
Ġ Ð½Ð¾Ð¶
ÐµÑĩÐ °
ĠÐŀ Ðŀ
Ð¾Ð³ Ð¸Ñĩ
ĠÑģÐ¾ÑģÑĤÐ¾ÑıÐ½Ð ¸Ñı
ĠÑĢÐ°Ð½ÑĮ ÑĪÐµ
Ð°Ð µÑĪÑĮ
ÑĤÐ¸Ð² Ð
ĠÑĢÑĥ Ðº
ĠÐ¿ Ð¾Ð½Ð°Ð´Ð¾Ð±
Ð´Ð °Ñı
ĠÐ¿ÑĢÐµÐ´Ð¿ Ð¾Ð»Ð°Ð³
ĠÐ½ÐµÐ² Ð¾Ð·Ð¼Ð¾Ð¶Ð½Ð¾
ĠÑģÐ¾Ð¿ÑĢÐ¾Ð² Ð¾Ð¶Ð´
ĠÐ½Ð°Ñĩ Ð°ÑĤÑĮ
ÐµÐ½Ñ Ĩ
Ð°ÑĢ Ðº
Ġi m
Ð°Ð½Ð ºÐ°
ĠM ar
rÃ³ d
Ġm ar
ĠÐºÐ¾ÑĢÐ¾ÑĤÐ º
Ñĥ ÐºÐ°
ow ia
ÑĢÐ ¸ÑĨ
ĠÐ¾ÑģÐ¾Ð± ÐµÐ½Ð½Ð¾ÑģÑĤÐ¸
ĠÐ¿ÑĢ Ð¸Ð½Ð°Ð´Ð»ÐµÐ¶
ĠÑģÑĤ Ð°Ð´
wa nia
Ġg ru
Ð¸Ð· Ð°ÑĨÐ¸Ñı
ĠÐ² Ð°Ðº
ÐµÑĩÐ °ÑĤÐ»
ĠS z
Ð ½ÑĮ
ĠÐ´ÐµÐ¹ÑģÑĤÐ² Ð¸Ð¹
µÑģÑ Ĥ
ĠÐ¼Ð°ÑĪ Ð¸Ð½Ñĭ
Ñİ Ñģ
ĠÐ¸Ñģ Ñĩ
ĠÐ² Ð¸Ð½
ĠÐ¿Ð¾Ð·Ð²Ð¾Ð» Ð¸ÑĤ
Ġla t
Ð»Ð° ÑĤÐ°
ĠÐĴÐ»Ð°Ð´ Ð¸Ð¼Ð
ĠÐ½ÐµÐ´ ÐµÐ»Ñİ
ĠÐ¿ÑĢÐ¾ ÑıÐ²Ð»Ñı
ÑĥÑģ ÑĤÐ°
Ð¾Ñĩ Ð½ÑĭÑħ
ÑĢ Ð½Ð¾
ĠÐ²Ð¾Ð·Ð´ ÑĥÑħÐ°
ĠÐ´ÑĥÑĪ Ð
Ð¸Ð ºÐ
ĠÐ¾ÑĤÐ½Ð¾ÑĪ ÐµÐ½Ð¸Ð¸
ĠÑģÑĤÐµÐ¿ ÐµÐ½Ð¸
ĠÐ¿ÑĢÐ¾Ñ ĤÑıÐ¶
kie j
ĠÐ±Ð¾Ð»ÑĮÑĪ Ð¾Ðµ
ĠÑĩ Ð°Ð¹
ĠÑıÐ½Ð² Ð°ÑĢÑı
ĠÐ¿Ð¾Ð´ ÑĢÐ°Ð·
Ð¸Ð· Ð¼Ð°
ÐµÑĢÐµÐ ¶
ÑĥÑ Ħ
ĠÑĨÐµÐ»ÑĮ Ñİ
ĠÐ² ÐºÐ»Ð°Ð´
li ÅĽmy
ĠÐ°ÑĢÐ ¼
°Ñ ĤÑĥ
ĠÑĥÑģÑĤÐ°Ð½Ð¾Ð² ÐºÐ¸
ĠÐ¿ÑĢÐµÐ´ ÐµÐ»
ĠÐ´ÐµÑĢÐµÐ² ÑıÐ½Ð
ĠÐ½Ð°Ñĩ Ð°Ð»Ðµ
Ñĭ Ð±
m Ã³w
ĠÐ¿ÑĢÐ¾Ð² ÐµÑģÑĤÐ¸
³Ð» Ð¸Ð¹
ĠÐ²Ð°ÑĪÐ ¸
ĠÐļÐ¾Ð½Ð µÑĩÐ½Ð¾
ĠÑĤÐ¾Ð²Ð°ÑĢ Ð¾Ð²
7 7
ĠÐ±Ð» Ð¾Ðº
ĠÐ²Ð¾Ð· Ð±
ĠÐ´Ð¾ÑģÑĤÐ¸Ð ¶
¸ ÐµÐ½
Ñĭ ÑģÐ»
ĠÐ¦ ÐµÐ½ÑĤ
Ð°Ð½ Ñĥ
t nie
Ġsob ie
Ð¾Ð¸Ð ·
ĠÐ¿ Ð»Ð¸
ĠÑħÐ¾Ñĩ ÐµÑĤ
ĠÐ¼ Ð°Ð»Ð¾
ĠÐĿÐµÐ ºÐ¾ÑĤÐ¾ÑĢ
Ġ9 0
ĠÑģÑĥÐ¼ Ð¼Ñĥ
ĠÐ¿ÐµÑĢÐµÐ ³
İÑī Ð¸Ñħ
ĠWin dows
ĠÐ²Ð¾Ð·Ð½Ð¸Ðº Ð°ÐµÑĤ
ĠÐ· ÑĢÐµÐ½Ð¸Ñı
ÑĥÑĤ ÑģÑı
ĠÐ¾Ð± Ð²
ĠÑĤ Ð¾Ð¹
Ðļ ÐĲ
ĠÐ¾Ðº Ð°Ð·
Ð² Ð¸Ð³
ÐµÐ½ÑĤ Ð°Ð¼Ð¸
ĠÐľÐ °
i i
ĠÐ²Ð¾Ð·ÑĢÐ°Ñģ ÑĤÐ°
ĠÑģÐ¿Ð¸Ñģ Ð¾Ðº
ĠÑģ ÐµÐ»ÑĮ
ÑģÐº Ð¸Ð¼Ð¸
ÑĢÐµÐ ½ÑĮ
Ð°Ð»ÑĮ Ð½Ð¾Ð¼
ĠÑĥÐ´Ð¾Ð² Ð¾Ð»ÑĮ
ĠÐ±ÑİÐ´ Ð¶Ðµ
ĠT he
ĠÑģÐ¸Ð¼ Ð²Ð¾Ð»
ĠÐ½Ð°ÑģÑĤÐ¾ÑıÑī ÐµÐµ
ĠÐ½ÐµÐ· Ð°Ð²Ð¸Ñģ
ĠÐ¿Ð¾Ð² ÑĤÐ¾ÑĢ
ka ch
ĠÐ¿ÑĢÐ¾Ð±Ð» ÐµÐ¼Ð°
Ð¾Ð»ÑĮ ÑĪÐµ
ĠÐºÐ»Ð¸ ÐµÐ½ÑĤÐ¾Ð²
ÑĢ Ð¾Ð½
ĠÑĢÐµÐ°Ð º
ĠÐ¾ÑĤÐ¼Ðµ ÑĤÐ¸ÑĤÑĮ
ĠÑĦÐ¸ÑĢÐ ¼
ĠÐ¿Ð¾ÐµÐ ·Ð´
½Ð ³
ĠÐ¾ÑĤÐ·ÑĭÐ² Ñĭ
ĠÑĤÐº Ð°Ð½Ð¸
ĠÐºÐ¾Ð½ÑģÑĤÑĢÑĥÐº ÑĨÐ¸Ð¸
ĠÐ´ÐµÐ» Ð°ÑİÑĤ
ĠÐ¿ÑĢÐµÐ² ÑĭÑĪ
ĠÐ¡ Ð¾Ð³Ð»Ð°Ñģ
ĠÑħ Ð¾Ð´
ĠÑģÑĤ Ð°Ð±
ĠÑģ ÑĤÐ¸Ð»ÑĮ
ĠÐ¿ÑĢÐ¸Ð² Ð¾Ð´Ð¸ÑĤ
ĠÑģÐ¿ Ð¾ÑĢÑĤ
ĠÐ¸Ð· Ð²
Ð¾ÑħÐ ¾
Ġ201 4
Ġhttp s
ĠÐ± Ð¾Ð»Ð¸
½Ð µ
ĠÐ´Ð°Ð½Ð ½ÑĭÐ¼
ĠÐ¸Ð·Ð´ ÐµÐ»Ð¸Ñı
d ÄĻ
Ð½Ð¸Ðº Ñĥ
ĠÑĢÐµÐ ¿
ĠÐ¿Ð¾Ð¼ÐµÑī ÐµÐ½Ð¸Ñı
ĠÐ¿Ð¾Ð½ ÑıÑĤÑĮ
om o
ĠÑģÐ¿ Ð¾ÐºÐ¾Ð¹
ĠÐ¼ÑĥÐ· Ñĭ
ĠÐ¾Ð±Ð¾ÑĢÑĥÐ´ Ð¾Ð²Ð°Ð½Ð¸Ñı
ÐµÐ ºÐµ
ĠÐ¿ÑĢÐ¾ÑĨÐµÑģ ÑģÐ°
ĠÐĶ Ð°Ð¶Ðµ
ĠÐ¼Ð¾Ð³ Ñĥ
ĠÐºÐ¾Ð¼Ð¿ Ð»ÐµÐºÑģ
ĠÑĢÐµÐ± ÐµÐ½Ð¾Ðº
ĠÐĿ ÐµÑĤ
ĠÐ¿Ð° ÑĢÑĥ
ĠÑĨ ÐµÐ½
ĠÐ¢ Ñĭ
ĠÐĳ Ð
ĠÐ´ Ð¶
µ Ñı
ĠÐ¿Ð¾Ð½ ÑĢÐ°Ð²
ty w
Ð¾Ð´ Ð°Ð²
ĠÑĤÐ¾Ð½Ð º
Ġz ÅĤ
Ðº ÑĥÑİ
ĠÐ´Ð°Ð½Ð ½Ð¾Ð¼
ĠÐ²ÑģÑĤÑĢÐµÑĩ Ð
ĠÐ´Ð¾Ð±Ð°Ð² Ð¸ÑĤÑĮ
ĠÐ°Ð½Ð°Ð» Ð¸Ð·
ĠÐľ Ð°Ñģ
ĠÑĪ ÑĤÑĥ
ĠÑĢÐ°Ð² Ð½Ð¾
ĠJ ak
ĠÐ¼Ð°ÐºÑģÐ¸Ð¼ Ð°Ð»ÑĮÐ½Ð¾
an d
Ð¾Ð ¸Ñħ
ĠÐ·Ð°Ð±Ð¾Ð»ÐµÐ² Ð°Ð½Ð¸Ð¹
ÑĤÐ°Ñ ĨÐ¸Ñİ
ĠÐŀ ÑĤÐ²
ĠÑĤÑĢÐ°Ð´ Ð¸ÑĨÐ¸Ð¾Ð½Ð
cz nej
ne k
ĠÐ´ ÑĢÑĥÐ³Ð°
f a
Ð°Ð³ Ð°Ð·
ĠÐ´Ð°Ð» ÐµÐµ
Ġs zy
Ð¾Ñ ĳ
ÑĪ Ñ
ĠÐ¾ÑĤÐ ±
ĠÐ¿ÑĢÐµÐ´ Ð¼
ĠÐ¿ÑĢ Ð¾Ð³Ð
ÑıÑī Ð¸Ð¹
ĠÑħÐ¾ÑĤ ÐµÐ»
Ð¸Ñ ĨÐ¸Ñı
ĠÐ¿ÑĢÐ¾ÑĦÐ¸Ð» Ð°Ðº
ĠÐº Ð¾ÑĦ
ĠÐ¾ÑģÐ½Ð¾Ð² Ð½Ð¾Ð¼
ÑĪÑ Ĥ
Ð°Ð» Ñĭ
ÑĤÐ µÑħ
ĠÐ½ÐµÐ ³Ð°
ĠÐ¼ÑĥÐ¶Ñĩ Ð¸Ð½
ĠÐ¾Ð¿ÑĢÐµÐ´ÐµÐ» Ð¸ÑĤÑĮ
Ð¾Ð» Ð¾ÑĤ
ĠÑįÑĦÑĦÐµÐº Ñ
lo gi
ĠÐµÐ´Ð¸Ð½ ÑģÑĤÐ²
ĠÐ¿Ð¾ÑģÑĤ Ð°Ð½Ð¾Ð²
ĠÑĥÐºÑĢÐ°Ð¸Ð ½
ÑĢÐ°Ð· Ð´Ð¾
ĠÐ½Ð¸Ðº ÑĤÐ¾
ÐµÐ² Ð¾Ð³Ð¾
ĠÐ¥ Ð¾ÑĤÑı
t ki
Ð¾Ð¶Ð °
ÑĢÐ° ÑĤÐ½Ð¾
ĠÐ´Ð¸Ð°Ð³ Ð½Ð¾Ñģ
Ð¾Ð² ÑĭÐ¼
ĠÐ¿Ð¾Ð²ÐµÑĢÑħ Ð½Ð¾ÑģÑĤÑĮ
ĠÐ¼ ÑĥÐ»ÑĮ
v er
ĠÐ²Ð¾Ð·Ð½Ð¸ÐºÐ ½Ð¾Ð²
ÑĢÐ ¸ÑģÑĤ
Ġ cze
ĠÐºÐ¾Ð¼ Ð±
ĠÐ³Ð¾Ð²Ð¾ÑĢÐ ¸ÑĤÑĮ
ĠÐºÐ¾Ð»Ð¸Ñ ĩÐµÑģÑĤÐ²Ð°
ÑĤÐ¸Ð² Ð½Ð¾Ð¹
Ð¸ÑīÐ µ
Ñį Ðº
ÑĢÐ°Ð² Ð
ĠÐ¿Ð¾Ñħ ÑĥÐ´
Ġpe w
kie go
ĠÐ³Ð»Ð°Ð² Ð½Ð¾Ðµ
ĠÑģÐ¼ Ð¾Ð¶ÐµÑĤ
Ġ7 0
ĠÐ¶ÐµÐ» ÑĥÐ´
ĠÐ¾ÑĢÐ¸Ð³ Ð¸Ð½Ð°Ð»ÑĮ
Ð°ÑİÑī ÐµÐ³Ð¾
Ð¿ ÑĢ
re n
Ð¸Ð ³Ð
ĠÐ´ÑĢÑĥÐ· ÑĮÑı
ÐµÐ ºÐ¸
ĠÑĥÐº Ð»Ð°Ð´
ĠÑģÐ¸Ð» Ñĭ
ĠÑģÐ»Ð¾Ð¶ Ð½Ð¾
ĠÑĥÐº ÑĢÐµÐ¿
ĠÑģÑĤÐ°Ð² ÐºÐ¸
µÑĤÐ ºÐ¸
Ġna s
ĠÐ´ÑĢÑĥÐ³ Ð¸Ð¼
Ð¾Ñģ Ð
ĠÐĳÐ»Ð°Ð³ Ð¾Ð´Ð°ÑĢÑı
ĠÑģÐ¸ÑģÑĤ ÐµÐ¼Ðµ
Ð¾Ñĩ ÐµÐº
ĠÐºÐ¾Ð¼ÑĦ Ð¾ÑĢ
ĠÐ¿ÑĢÐ¾Ð´ Ð°Ð²
ĠÐ¾Ð¿ ÑĭÑĤ
st u
ĠÐ¡ ÐµÑĢÐ³
ĠÐºÐ¾Ð»Ð¸Ñ ĩÐµÑģÑĤÐ²
Ġ Ð»Ðµ
ÑĥÑĤ Ð¾Ðº
ĠÑĢÐ°Ð¹ Ð¾Ð½Ðµ
Ð ½ÑĥÑĤ
ĠÑĢÐµÑģ ÑĥÑĢ
ÑĢÐ°Ð½ ÑĨ
Ð´ Ñĥ
cz ny
Ġwar to
ĠÐ¿ÑĢÐ¸Ð³Ð¾ÑĤÐ¾Ð² Ð»ÐµÐ½Ð¸Ñı
ĠÐ´ÑĥÑħ Ð¾Ð²
ĠÅĽ wie
ĳ Ñ
ĳÑ Ĥ
ĠB o
ĠÐ¾ÑĤ Ñĩ
ÐºÐ °Ñģ
ÑĥÐ· Ñĭ
ĠÐ½Ð µÑĦ
Ġ Ð¾Ð»
ĠÐ¡ ÑĥÑīÐµÑģÑĤÐ²
ĠÐ» Ð¸Ð´
ĠÐ² Ð°Ð¼Ð¸
ĠÐ½Ð°ÑģÐµÐ» ÐµÐ½Ð¸Ñı
ĠÐ°Ð² ÑĤÐ¾ÑĢ
ĠÑĢÐµÐ¼ Ð¾Ð½ÑĤ
ĠÐ¾ÑĤÐ»Ð¸Ñĩ Ð°ÐµÑĤÑģÑı
ĠÐ¾ÑģÐ½Ð¾Ð² Ð½ÑĭÑħ
ĠÐ² Ð°ÑĢ
´ Ð¶
ĠÐĴ Ð¾Ð»
Ð» ÑĥÑĪ
ĠÐº ÑĥÑĢÐ
ĠÐ±ÑĭÐ² Ð°ÐµÑĤ
ĠÐ¿Ð¾Ñģ Ð²
ĠÑĪÑĤ ÑĢÐ°ÑĦ
Ĥ Ð°Ð»
ĠÑĨÐ²ÐµÑĤ Ð¾Ð²
ĠÐ¸Ð³ÑĢÐ¾Ð² ÑĭÐµ
ĠÐ¸Ñģ ÑĤÐ¾Ñĩ
ĠÑģÑĤÐ¾ÑĢ Ð¾Ð½
ÑĥÑī Ð¸Ñħ
st er
ĠÐ¸Ð½Ð¾ÑģÑĤ ÑĢÐ°Ð½Ð
ĠÐ¾ÑģÑĤ Ð°ÐµÑĤÑģÑı
ĠÐ·Ð° ÑĢÐµÐ³Ð¸ÑģÑĤÑĢÐ¸ÑĢÐ¾Ð²
Ġpot rze
ĠÐ¿ ÑıÑĤÑĮ
ĠÐ¼ ÐµÑĪ
ĠÑĥÑĩÐ°Ñģ ÑĤÐ²
Ġprzy pad
ĠÐĴÐ°Ð¶ Ð½Ð¾
ĠÐ½Ð¾Ð² Ð¾Ð¹
ÑĤÐ¸Ð ¿
°ÑĢÐ ´
ĠÐ¼Ð¾Ð³ Ð»Ð¸
-- --
ĠÐ²ÑĭÑģÐ¾Ðº Ð¾Ð¹
ĠÐ±Ð»Ð¸Ð¶ Ð°Ð¹
ĠÐ¿ÑĢÐ¸Ñĩ Ð¸Ð½Ñĭ
ĠÐ²Ð· Ñı
ÐµÑģÐ °
ÑĥÐ±Ð» Ð¸ÐºÐ¸
¸ÑģÑ ĤÑĭ
ÑĢÐ°Ð½Ð ¸Ð
ĠÑĩÐ°Ñģ ÑĤÐ½Ð¾ÑģÑĤÐ¸
ĠÐ´Ð°Ð»ÑĮ ÑĪÐµ
ĠÑĢÐ °Ñ
ĠÐĶ ÑĢÑĥÐ³
Ñĭ Ð³
ĠO d
ÐµÑĢÐ ½Ð¾Ðµ
ĠÐ· Ð°Ð¶
Ð´Ð ¸ÑĤÐµ
ĠÐ¾Ð±Ð»Ð°Ð´ Ð°ÐµÑĤ
ĠÐ¿ÑĥÑĤ ÐµÐ¼
ĠÐ³ Ð¸Ð±
n ow
Ġm y
ĠÐ² Ð»Ð°Ð¶
Ð°Ñ ĩÐµÑģÑĤÐ²
ĠÐºÐ¾Ð¼Ð¿ÑĮÑİ ÑĤÐµÑĢ
dzi Äĩ
Ð¸ÑĪ ÑĮ
ĠÑģ Ð¾Ð¼
ĠÑģÐ½Ð¸Ð ·
q u
Ð¾Ñģ Ð½Ð¾Ð²
ĠÐ¿ÑĢÐ ¸Ñ
Ð¾Ð´Ð ½Ð¾Ðµ
ĠÐ½ÐµÐ´Ð¾Ñģ ÑĤÐ°
ĠÑģÐ¾Ð¾Ð±Ñī Ð°ÐµÑĤ
ĠÑĢ Ð¾Ð»
l ÄĻ
ĠÐ¸ÑģÐ¿Ð¾Ð»ÑĮÐ· ÑĥÑİÑĤÑģÑı
ĠÑħÐ¾Ñĩ Ñĥ
ÑĥÑģÐ» Ð¾Ð²
ĠÑħ Ð¾Ð´Ðµ
ÑģÑĤÐ° ÑĤÐ¸
ĠÐł Ð°Ð±
ĠÐ²ÑģÑĤ ÑĥÐ¿
ĠÐ¾ÑĤ ÑĢÐ°Ð¶
ĠÐ·Ð°Ðº ÑĢÐµÐ¿
ĠÐ¿ ÑĭÑĤ
ĠÐ¿ÑĢÐ¸Ñģ ÑĤÑĥÐ¿
ĠÐ´ÐµÐºÐ°Ð± ÑĢÑı
âĢ Ļ
ĠÑĢÐ°Ð ´Ð¸
ĠÑįÑĦÑĦÐµÐºÑ Ĥ
µÑĤÐ µÑģÑĮ
Ġsz cze
pe w
ĠÐŁ ÐµÑĢÐµÐ
Ð» ÐµÐ½Ð½ÑĭÐ¹
¾Ñģ Ñı
ĠÑĤÑĢÐµÐ½Ð ¸ÑĢÐ¾Ð²
ĠÐĴÐµÐ» Ð¸Ðº
ÑĢÐ ½ÑĭÐ¹
ĠÐľ Ð½Ðµ
ĠÐºÐ¾Ð½Ð ºÑĥ
ĠÐ°Ð´Ð¼Ð¸Ð½Ð¸ÑģÑĤ ÑĢÐ°
ĠÐ§ Ð°Ñģ
ĠÐĳ ÑĥÐ´
ÑĤÐµÑĢÐ °ÑĤÑĥ
i o
ĠÐ¼Ð°ÑĢ ÑĤÐ°
ĠÑĦÑĥÐ½Ðº ÑĨÐ¸Ð¸
k s
ĠÐ´ÐµÐ¹ÑģÑĤÐ² Ð¸Ðµ
ĠÑĦ Ð»
ÅĤa m
ĠÑģÐµÐ½ÑĤ ÑıÐ±ÑĢÑı
Ð½Ð ¾ÑĨ
ĠÐ·Ð°Ð¿ ÑĢÐµÑī
Ð»Ð ¾ÑĢ
Ð ½ÑĥÐ»
ÐµÑĢÐ ¸ÑĤÐµ
Ġh i
ĠÑĥÐ²Ð¸Ð´ ÐµÑĤÑĮ
ĠÐ¿ÑĢÐ¾ÑĨÐµÐ´Ñĥ ÑĢÑĭ
ĠÐº Ð¼
ÐµÐ¼ Ñĭ
ĠÑĩ ÑĥÑĤÑĮ
ĠÐº Ð¸ÑģÐ»
Ġby ÅĤo
ĠÐ·Ð°Ð¿ Ð°Ñħ
ĠT a
ĠÐ± ÐµÐ´
Ġpra cy
Ð°Ð² Ð»Ð¸Ð²
ĠR a
ĠÑĢÐ µÑĦ
Ġs e
Ð°Ð¶ Ñĥ
ÑĤÐ°Ñ İÑĤÑģÑı
Ð¾Ð¼ ÐµÑĤ
ĠÑĢÑĥÐºÐ¾Ð² Ð¾Ð´Ð¸ÑĤ
ĠÐºÐ°ÑĤÐµÐ³Ð¾ ÑĢÐ¸Ð¸
ÐµÑģ Ñģ
Ð¾Ð²Ð °ÑĢÐ
ĠÐŁ Ðŀ
Ñĥ ÐºÐ¸
ÑĤÐ¸Ð² Ð½Ð¾Ð³Ð¾
ĠPo d
ĠÐ¿ÑĢÐ¸Ð² ÐµÐ´
ĠÐ²Ð¾ÑģÐ¿ Ð¾Ð»ÑĮÐ·Ð¾Ð²
ĠÐ°Ð» Ð»ÐµÑĢÐ³
ĠÐºÐ¾Ð¶ Ñĥ
ĠÑģÑĩ Ð°ÑģÑĤÑĮ
Ñĭ Ñī
ĠÐ¿ÑĢÐµÐ´ Ð¾ÑĤÐ²
ĠbÄĻ dÄħ
ĠÑģÑĤ ÑĢÐ°Ð´
ĠÐ½Ð°ÑĩÐ¸Ð½Ð°Ð µÑĤ
ĠÐ²Ð¾Ð·ÑĢÐ°Ñģ ÑĤÐµ
ĠÐ¡Ðº Ð°ÑĩÐ°ÑĤÑĮ
Ġsz ko
ĠÐ¸Ñģ ÑħÐ¾Ð´
Ð¾ÑģÑĤÑĮ Ñİ
ĠÐĿÐ¸Ðº Ð¾Ð»
ĠÐ¼ Ð°Ðº
ĠÐ·Ð°ÑıÐ² Ð¸Ð»
ĠÐł ÐµÑģÐ¿
ĠÑģÑĤÐ¾Ð¸Ð¼ Ð¾ÑģÑĤÐ¸
9 0
ĠÑĢÐ°Ð· ÑĢÑĥÑĪ
ĠÑģÐ¾Ñģ ÑĥÐ´
ĠÐºÐ°ÑĢ ÑĤÑĭ
ĠÐ²ÐµÑģÑĮ Ð¼Ð°
ĠÐ¿ÐµÑĢÐ µ
Ġna wet
ma l
ĠÐ¿ÑĢÐ¸Ð¼ ÐµÐ½
µÑ ĩÐµÑģÑĤÐ²
ĠÐłÐ¾Ñģ ÑģÐ¸Ñı
ĠÐ·Ð°ÑıÐ² Ð»ÐµÐ½Ð¸Ðµ
ĠÐº Ð¸Ð»
ÑĤÐ¸Ñ ĩÐµÑģÐºÐ°Ñı
īÐ µ
ĠÐ¿ ÑĥÑĤÐµÑĪÐµÑģÑĤÐ²
ĠÐ¡ Ð¾Ð±
Ð°Ð½Ð ºÑĤ
ĠÐ²Ð¾Ð·Ð´ ÑĥÑħ
ÑĢÐ°Ð µÑĤÑģÑı
ÐµÐ¿ Ð
ĠÐºÐ¾ÑĢ Ð¾Ð±
Ñĥ Ð¼Ð°
ĠÐ¾ÐºÑĤÑı Ð±ÑĢÑı
ĠÐ¿Ð¾ÑģÐ»ÐµÐ´ Ð½Ð¸Ðµ
ĠÑĤÐµÐ¼Ð¿ÐµÑĢÐ°ÑĤÑĥ ÑĢÑĭ
ĠÐ³Ð¾ ÑĢÐ°Ð·Ð´Ð¾
ĠÐ³ ÑĢÑĥÐ´
ĠÐ¾ÑĤÐ² ÐµÑĢÑģ
ĠÑģÐºÐ¾ÑĢÐ ¾ÑģÑĤÑĮ
Ð¾Ð¶Ð´ ÐµÐ½Ð¸Ðµ
Ð¸Ð»Ð ¸Ñı
ĠÐ¿ Ð°Ð´
ĠÐ¾ÑģÑĥÑīÐµÑģÑĤÐ² Ð»ÑıÐµÑĤÑģÑı
ÑĤÐ² Ð¾ÑĢÐ
ĠÐº ÑĢÐ°Ñı
Ð°ÑĢÑĤ ÑĦ
g ro
Ġ Ð°Ñį
ĠÐĿÐµÐºÐ¾ÑĤÐ¾ÑĢ ÑĭÐµ
Ð¼Ð¾ÑĤ ÑĢÐ¸Ð¼
ĠÐ¿ÑĢÐ¾Ð²Ð¾Ð´ Ð¸ÑĤÑĮ
ĠÑģÑĤ ÐµÐ½Ñĭ
ÑĢÐ¾Ð² Ð°ÑĤÑĮ
Ġ3 5
Ð¸Ðº Ð»
ĠÐ¿ÑĢÐµÐ¸Ð¼ ÑĥÑīÐµÑģÑĤÐ²
ĠÐºÐ°ÑĢ Ñ
ÑĢÐ¾Ð¸Ð ·Ð²
ĠÐ¾Ð±Ð»Ð°Ñģ ÑĤÑĮ
ĠÐ¿ÑĢÐ¸Ð² Ð»ÐµÑĩ
ĠÑĢÐ¾Ñģ ÑĤÐ°
7 0
ĠÐº Ð¾ÑģÑĤ
Ð» Ð¸Ð¼
Ĥ Ð¾Ð¹
ĠÑĦ ÑĢÑĥÐº
¾ Ñĥ
ĠÑģ ÑĤÐ¸Ð»
ÑĥÑģ ÑĤÐ¸ÑĤÑĮ
Ð°Ð» Ð¾Ð²
Ð¾ÐºÐ °Ñı
ĠÐ¾Ð±ÑıÐ· Ð°Ð½Ð½Ð
ĠÐ³ ÐµÐ½Ðµ
ĠÐ»ÑĥÑĩ ÑĪÐ¸Ñħ
ĠÐ¿ÑĢÐ¸Ð² ÐµÑģÑĤÐ¸
ĠÐŀÐ± ÑĭÑĩ
µÐ º
ĠÑĢÐ°Ð¹ Ð¾Ð½Ð°
ĠÐ¿ÑĢÐ¾Ð¸Ñģ ÑħÐ¾Ð´
ĠÐ¸Ð¼ Ñı
ĠÑģ ÐºÐ¾ÑĢÐµÐµ
ĠÐ² Ð»
ĠÐ¿Ð»Ð°ÑĤ ÐµÐ¶
ĠÐ¸Ð·Ð²ÐµÑģ ÑĤÐ½Ð¾
ĠÐ¸Ñģ ÑĤÐ¾ÑĩÐ½Ð¸Ðº
Ġd ÅĤu
ĠÐľ Ð¾Ð»
Ġm iÄĻ
ĠÐ´Ð² ÑĥÐ¼
ĠÐ½Ð°Ð¹ Ð´
ĠÐļÐ°Ð¶Ð´ ÑĭÐ¹
ĠÐ»Ð¸Ð½Ð ¸Ð¸
ĠÑĥÑģÐ»Ð¾Ð² Ð¸Ð¹
ta ch
ĠC zy
ĠÐļ Ð°Ð»
Ð ½Ð¾Ð´
Ð¾Ð² ÑĥÑİ
ÑĤÐ ¾ÑĦ
ĠÐ¾ÑģÐ² ÐµÑī
go t
ĠÐ¿Ð¾Ñģ Ð¼Ð¾ÑĤÑĢÐµÑĤÑĮ
ÐµÑĩ ÐµÐ½Ð¸Ðµ
ÑĨ Ñĥ
Ð¸Ð½Ð°Ð ¼Ð¸
ĠÐŁÐ¾Ñģ Ð»ÐµÐ´
ÑĢÐ°Ñī ÐµÐ½Ð¸Ñı
ĠÐŁ Ð°ÑĢ
ĠÐ¤Ð ¾ÑĤÐ¾
ĠÑģÐ² ÐµÑĢÑħ
ĠÐ»ÑİÐ´ ÑıÐ¼
ÐµÐ»Ñı Ñħ
ĠÐ¿ÑĢÐµÐ¿Ð° ÑĢÐ°ÑĤ
ĠÐ·Ð½Ð°ÐºÐ¾Ð¼ ÑģÑĤÐ²Ð°
ĠÐ±Ð¾Ð³ Ð°ÑĤ
ĠÐ¿Ð» Ð°Ð½Ð¸
ĠÐł ÐµÐ
Ð °Ñĥ
ĠÐ¡ ÑĢÐµÐ´
Ð°Ð´ Ñĭ
b e
ĠÑģÑĤÐ°Ñ ĤÑĥ
ĠÑģÑĦ ÐµÑĢÐµ
ĠÐ¸Ð½ÑĦÐ¾ÑĢÐ¼ Ð°ÑĨÐ¸Ð¾Ð½Ð
ĠÐ½Ð°Ð·Ð² Ð°Ð½Ð¸Ðµ
Ġf a
ĠÐ¾ÑĤÐ»Ð¸Ñĩ Ð½Ð¾
ÑĢÐ°Ñ ĤÑĥ
Ġd ro
Ġs ko
Ġwy so
ÐµÑĢÐ² ÑĭÐµ
Ð¾Ð¿ ÑĢÐ¾Ð²
ĠÐºÐ ¸ÑĢ
Ð°Ð´ ÑĮ
ĠÐ¸Ð· Ð´ÐµÐ»
owa ÅĤ
ĠÐ¾Ð±Ñģ ÑĤÐ¾ÑıÑĤÐµÐ»ÑĮ
ÐµÐ»Ñı Ð¼Ð¸
ĠÐ¿Ð¾Ð»Ð °
ĠÑįÑĤÐ°Ð¿ Ð
Ð¸Ðº Ñĥ
ĠÐĺÑģ ÑĤÐ¾ÑĩÐ½Ð¸Ðº
d Ã³w
Ð¾Ðº Ð°Ð·
Ġko lej
Ð¾Ð¿Ð °
ÑĤÐ¸Ð ½Ñĭ
ĠÐºÑĥÐ»ÑĮÑĤÑĥ ÑĢÑĭ
Ð½Ð¾Ð² Ð¸Ð´
ĠÐ¿ÑĢÐ¸Ð¼ ÐµÐ½ÑıÑĤÑĮ
Ġje szcze
ĠÐºÑĥÑĢ Ñģ
ĠÐ¿ÑĢÐµÐ¿Ð° ÑĢÐ°ÑĤÑĭ
Ñİ Ð´Ð°
ĠÐ± Ð°Ð±
ĠÐ³Ð¾ÑģÑĥÐ´Ð°ÑĢ ÑģÑĤÐ²Ð°
Ñİ Ðº
Ð ¾ÑĤÐ°
ĠÑĢÐµÐ´ Ð°Ðº
ÐµÐ½ÑĤ Ð°Ð¼
ĠÐ´ Ð½Ð¸
ĠÐ¿ÑĢÐ¾ÑĤÑıÐ¶ ÐµÐ½Ð¸Ð¸
ÐµÐ»Ñı Ð¼
ci u
Ġos Ã³b
ĠÐ² Ð¾Ð´Ð°
ĠÑı Ð¹
ÑĥÐ±Ð» Ð¸ÐºÐ¾Ð²
ĠÐ·Ð°Ð¿ Ð¸Ñģ
ÑĤÐ¸Ð² Ð½ÑĭÐ¹
d en
ĠÐ²Ð¿ ÐµÑĩÐ°ÑĤÐ»
ĠÐ´ÐµÑıÑĤÐµÐ»ÑĮ Ð½Ð¾ÑģÑĤÑĮ
ĠÐ´Ð¾ÑĢ Ð¾Ð¶
ĠÑģ Ð½ÐµÐ
ĠÑĪÐº Ð¾Ð»ÑĮ
Ð¾Ð² Ð¾Ðµ
ĠÐ¢ Ð¾Ð³Ð´Ð°
ĠÑģÐ²Ð¾Ð¹ ÑģÑĤÐ²
Ð· Ð¾ÑĢ
ĠÑģÐ¾Ð³Ð»Ð°Ñģ Ð½Ð¾
ĠÑģÐ¾Ð´ÐµÑĢÐ¶ Ð¸ÑĤ
ĠÐ·Ð°ÐºÐ»ÑİÑĩ Ð°ÐµÑĤÑģÑı
ĠÐ¿ÑĢ Ð¾Ð·
ĠÐ¼ Ð°Ð»ÑĮ
âĢĿ ,
Ð¸Ð½Ð °Ñħ
Ñı Ð±
ĠÐ¥ Ð
ĠÐ¾Ð´Ð½Ð¾Ð² ÑĢÐµÐ¼ÐµÐ½Ð½Ð¾
mi n
Ð°Ñī Ð¸Ñħ
Ð¸ÑĩÐ °
ÑĥÑīÐµÑģÑĤÐ²Ð ¾
ĠÐ±ÑĥÐº Ð¼ÐµÐºÐ
ĠA nd
ĠÐºÑĢÑĭ ÑĪ
ÐµÐ ¸
ĠÐĲÐ»ÐµÐºÑģÐ°Ð½Ð´ ÑĢ
ĠÐ¿Ð°Ñģ Ñģ
ĠÑĦ ÐµÐ´ÐµÑĢÐ°Ð»ÑĮ
°Ñģ Ñ
ĠÐ½ÐµÐ¿ ÑĢÐ°Ð²
Ð¼Ð¾ÑĤ ÑĢÐ¸ÑĤÐµ
ĠÐºÐ½Ð¸Ð ³Ð¸
ĠÐ¿Ñı ÑĤÐ½Ð
Ð¸Ð½Ð °ÑĢÐ
Å¼ Äħ
Ðľ Ðĺ
ĠÑĢÐµÑĩ ÑĮ
ĠÐ¿Ð¾Ð´ ÐµÐ»
ĠÐ¼Ð¸Ð½Ð¸Ð¼ ÑĥÐ¼
Ð°ÐµÐ¼ ÑĭÐµ
ÑĢÐ¾Ð¿ ÐµÐ¹
ĠÐ±Ð» Ð°Ð³Ð¾
ĠÐľ Ð¸Ñħ
Ð¸ÑīÐ °
or d
ĠÐºÐ°ÑĢ ÑĤÐ¸Ð½Ð
ĠÐ² ÐµÐºÐ°
ĠÑģÐµÐº ÑģÐ°
ĠÐ¾ÑĢÐ³Ð°Ð½Ð¸Ð· Ð°ÑĨÐ¸Ñı
ĠÐ¾Ð¿ ÐµÑĢÐ°ÑĨÐ¸Ð¸
ÑĤÐ¸ÑĦ Ð¸Ðº
ÐµÑĢ Ð½Ð¾
Ð¿Ð µÑĢÐµÐ´
Ñı ÐµÑĤÑģÑı
ĠÐ¢ Ð°Ð¼
ĠÐ²ÑģÑĤ ÑĢÐµ
ĠÐ²ÐµÑī ÐµÑģÑĤÐ²Ð°
ĠÐ¿Ð¾Ð¼Ð¾Ð³ ÑĥÑĤ
ĠÐ¿ÐµÑĢÐµÐ ¶
ĠÑĥÑģÑĤ Ð¾Ð¹ÑĩÐ¸Ð²
ĠÐľÐ¾ÑģÐº Ð²Ñĭ
ob a
ĠÐ´ Ð¸Ð²
Ġm ia
Ġpo l
ĠÐ½Ðµ ÑĥÐ´
ĠÐ¿ÑĢÐ¸Ð¾Ð± ÑĢÐµÑģÑĤÐ¸
°ÑģÑ Ĥ
ĠÐ¥ Ð¾ÑĢÐ¾ÑĪ
ÐµÐ³Ð ¾ÑģÑı
Ð¸ÑĩÐµÑģÐº Ð¸Ð¼
ĠÑĢÐ°ÑģÐ¿ Ð¾Ð»Ð°Ð³
ÐµÐ»ÑĮ Ð½Ð¾
ĠÐĶÐ ¾
ĠÐ°Ð¿ ÑĢÐµÐ»Ñı
je m
sze go
ĠÐ· Ð°Ð
Ð¼ Ð¸ÑĤ
¸Ñģ ÑĤÐµÑĢ
ĠÐ¼ ÐµÐ¶
ĠÐļ ÑĤÐ¾
ÐµÑĢ Ð½Ð°
ĠÐ¿ÑĢ Ð¸Ð¿
ĠÐ¾ÑĤÐ´ÑĭÑħ Ð
ĠÑĢÐµÐ·ÑĥÐ»ÑĮÑĤÐ°Ñ ĤÑĭ
ĠÑĤÐµÑħÐ½ Ð¾Ð»Ð¾Ð³Ð¸Ð¸
ĠÐ¿ ÑĥÐ±Ð»Ð¸Ðº
st i
ĠÐ¾Ð· Ð½Ð°ÐºÐ¾Ð¼
ĠÐ¾Ð±Ñģ ÑĥÐ¶Ð´
ÑĢÐ°Ð µÐ¼
ĠÑĩÐµÐ¼ Ð¿Ð¸
ĠÐ» ÐµÐ¶
ĠÑįÐºÑģÐ¿Ð»ÑĥÐ° ÑĤÐ°ÑĨÐ¸Ð¸
ĠÐ²Ð¼ÐµÑģ ÑĤÐ¾
Ð¾Ð½ ÑĮ
Ð¸Ð½Ð ºÐ°
ĠÐ±Ñĥ Ð´ÐµÑĤÐµ
p li
ĠÐ¿Ð¾Ð· Ð²Ð¾Ð½Ð
w iÄĻ
ÑģÑĤ ÑĢÐ¾Ð¹
Ð» ÐµÐ½Ð½Ð¾
ĠÐ²Ð¾Ð¹ Ð½Ñĭ
ĠÑĤÐµÐ»ÐµÑĦ Ð¾Ð½
ÑĢÐ ½Ð¾Ð³Ð¾
ĠÐľ ÐµÐ´
ĠÑĢÐµÐ¶ Ð¸Ð¼Ðµ
ĠÐ¸Ð·Ð± ÐµÐ¶Ð°ÑĤÑĮ
Ð² ÐµÐ´
ÐµÐ½Ð½Ð ¸ÐºÐ¾Ð²
ĠG oo
Ð¾Ð½Ð ¾Ñģ
Ġk ra
4 5
Ð°Ð¹ Ñ
Ġt rze
ĠÐĶÐ ¸
ĠÐ¸Ñİ Ð»Ñı
ĠÑĥ Ð¼ÐµÑĢ
ĠÑĤÐ¾Ð²Ð° ÑĢÐ°
ĠÐ³Ð¾ ÑĢÐ¼
ĠÑģÐ¸Ð¼Ð¿ÑĤÐ¾Ð¼ Ñĭ
ĠÑģ Ð½Ð°ÑĩÐ°Ð»Ð°
ĠÐĿ ÑĥÐ¶
ĠÑĨÐµÐ½ÑĤ ÑĢ
ĠÐ¿Ð» Ð¾Ñħ
ĠÐ½ÑĥÐ¶ Ð´
ÑĨ Ð°Ð¼Ð¸
ĠÐµÐ¶ ÐµÐ´Ð½ÐµÐ²
ĠÐ°ÑĢ ÐµÐ½Ð´
rz u
ĠÐ²ÐµÑī Ð
ta j
ĠÐ½ÐµÑĢ Ð²
ĠÑĥÐ´ Ð°Ð»Ð¾ÑģÑĮ
ĠÐ½Ð°Ð½Ð ¾Ñģ
ĠÐĿ ÐµÐ´
ĠÐ²ÐµÑīÐ ¸
ĠÐļÐ°Ðº Ð¸Ðµ
ĠÐ´ Ð°ÑĤÑĮ
ĠwiÄĻ cej
ĠÐ¾ÑĤÐ½Ð¾Ñģ Ð¸ÑĤÐµÐ»ÑĮÐ½Ð¾
ĠÐºÑĢÑĥÐ³ Ð»
ĠÐ¿ÑĢÐµÐ´ ÑĥÐ¿
t ra
ĠÐ½Ð°ÑħÐ¾Ð´ ÑıÑĤÑģÑı
ĠÐ¾Ñĩ Ð¸Ñī
ÐµÑĢ ÑĤÐ²
ĠÐºÐ¸ÑĢ Ð¿
µÑ ĤÑĮ
Ġu wa
st rze
ÐµÑĢÐµÐ ½
ĠÐĳÐ¾Ð» ÐµÐµ
ĠÑģÐ¸Ð³ Ð½Ð°Ð»
ĠÑģ Ð¾ÑĢ
ĠÐ± ÑĢÐ¾Ñģ
ÑĤÐº Ð¾Ð¹
Ġprodu k
ĠÐºÐ°Ð¶ ÐµÑĤÑģÑı
ĠÐ¸Ð³ ÑĢ
ĠÐ¿ÑĢÐ¾ÑģÑĤ Ð¾Ð¹
Ġ Ð°ÑĤÐ
ĠÐ¿ÐµÑĢÐ² ÑĭÑħ
ĠÐ´ ÑĭÑħ
ĠÐ¸Ñİ Ð½Ñı
ĠÐ¸Ð½Ð ³
Ġ3 00
ĠÑĢÐ¾Ñģ Ñ
ĠÑĢÐ¾ÑģÑ Ĥ
Ð¶ ÐµÑĤ
ĠÐ½ÐµÐ±Ð¾Ð»ÑĮÑĪ Ð¾Ð¹
ĠÑĪ Ð¿
p re
Ð¾Ñĩ Ð½Ð¾Ð¹
ĠÐ´ Ð¸Ð
ĠÑģ Ð°Ð¼Ð°
ĠÐĴÐ»Ð°Ð´Ð¸Ð¼Ð ¸ÑĢ
ĠÐ¸ÑĤ Ð¾Ð³Ðµ
Ġpo da
0 1
ĠÑĥÐ´Ð¾Ð² Ð»Ðµ
ĠÐ²Ð½Ð¸Ð¼ Ð°Ð½Ð¸Ñı
ĠÐ¿ÑĢÐ ¸ÑģÑĤ
Ð² ÐµÑĢ
ĠÑĢÐ°Ð±Ð¾ÑĤÐ°Ñ İÑĤ
Ġni Å¼
ÑĢÐ°Ð½Ð µÐµ
ĠD a
ÐĴ ÐĲ
i g
ĠÐ» Ð°Ðº
ĠÐ°Ð±ÑģÐ¾Ð»Ñİ ÑĤÐ½Ð¾
ÐµÐ½Ð½Ð¾ÑģÑĤÑĮ Ñİ
te n
ĠÐ¿ÑĢÐ¸Ð² ÑĭÑĩ
Ð¾Ñģ Ð¾Ð±Ñĭ
ĠÐ¼Ð¾Ð¼ ÐµÐ½ÑĤÐ°
ĠÐ²Ð¾ÑģÐ¿ Ð¸ÑĤ
ĠÐ¿ÐµÑĢÐ² ÑĭÐµ
ĠÑĦÐ°Ðº Ñ
Ð°Ð¹Ñ Ĥ
Ðº Ð°Ð½
ÑĥÑİÑī Ð¸Ð¼
ĠÑĢÐ¸Ñģ Ðº
Ġmie szka
ÐŁÐ µÑĤÐµÑĢÐ±ÑĥÑĢÐ
ĠÐľ ÐµÐ¶Ð´
ĠÐ¾ÑĤ Ð¾Ð¿
ÑĤÐ² ÐµÑĢÐ´
ĠÐ£ Ñĩ
ĠÐ¿Ð¾ÑģÑĤ ÐµÐ¿
ĠÐ·Ð½Ð°Ñ İ
ĠÐ¡Ð¾Ð³Ð»Ð°Ñģ Ð½Ð¾
¾ÑĢÐ ´
owi Äħ
ÑĢÐ°Ñ ĨÐ¸Ñİ
ĠÑĥÐº Ð°Ð·ÑĭÐ²
ĠÐ³Ð µÑĢÐ
Ð¸Ð½Ð°Ð »
ĠÑħ Ð¾ÑĤÑĮ
ĠÐ¾Ð± Ð¾Ð·
ÐµÐ´Ð °
Ð½Ð¸ÑĨ Ð¸Ð¿
Ð» ÑĥÐ±
ĨÐ °ÑĢ
ĠÐ¾Ð±ÑĬ ÑıÑģ
ĠÑĢÐ¾Ð´Ð¸ÑĤ ÐµÐ»ÐµÐ¹
ĠÐ´ÐµÐ²ÑĥÑĪ ÐºÐ°
Â «
ÑıÑī Ð¸Ðµ
ĠÐºÐ¾Ð¼Ð¿ Ð°Ð½Ð¸Ð¹
ĠÐ´ÑĢÑĥÐ³ Ð¾Ðµ
ĠÐ¿ÑĢÐ¸Ñħ Ð¾Ð´Ð¸ÑĤÑģÑı
Ġg a
ĠÐ¾ÑģÐ½Ð¾Ð² Ð½ÑĭÐµ
ĠÐĴ Ð¿
ÑģÑĤÐ² ÐµÐ½Ð½Ð¾Ð¹
wia d
ÐµÐ½Ð¸Ð »
ĠÐ³Ð¾Ð²Ð¾ÑĢ ÑıÑĤ
p l
ĠÑĨÐµÐ½ÑĤ ÑĢÐµ
ĠÐ½Ð¾ ÑıÐ±ÑĢÑı
ĠÐ°Ð½Ð ³Ð»Ð¸Ð¹
ĠÐ²ÑĢÐµÐ¼ ÐµÐ½ÐµÐ¼
ĠÐº Ð»Ð°Ð´
½Ñı Ñı
ĠÐ¸Ð¼ ÐµÐ½Ð¸
ĠÑģÐ²Ð¾ÐµÐ¼ Ñĥ
ĠÐ¾ÑĤÐ½Ð¾Ñģ Ð¸ÑĤÑģÑı
Ð¾Ð¸Ð ´
ĠÐºÐ¸ÑĪ ÐµÑĩ
Ġdo stÄĻp
ce s
Ð½Ð ¸Ñı
Ð³Ð µ
ÑĢÐ ±
ĠÑģÐ² Ð
ĠÑģÐ¾ÑģÑĤÐ°Ð²Ð µ
ĠÐ·Ð½Ð°Ð ¼
ĠÐ¼ÐµÑĢÐ¾Ð¿ÑĢÐ¸Ñı ÑĤÐ¸Ñı
ĠÐĶ Ð°Ð»ÐµÐµ
lo g
ĠÐ¿ÑĢÐµÐ´ÑĥÑģ Ð¼Ð¾ÑĤÑĢ
ĠÑĢÐ°Ð½Ð ½Ð
ĠÐĵ Ð¾ÑĢ
ĠÐĶÐ¾Ð± Ð°Ð²
Ñı ÑģÑĮ
ĠÐ³Ð µ
Ð¾Ð ¾Ñħ
Ð¾Ð´ ÐµÐ¹ÑģÑĤÐ²
ĠÐ¿Ð¾Ð¿ Ñĭ
ĠÑĢÐµÐ »
Ð½Ð°Ð ±
ÐµÐ»ÑĮ Ð½ÑĭÑħ
µ ÑĢÐ°Ð¼
pe ÅĤ
ÑĢÐ¾Ð½Ð ¸ÑĩÐµÑģÐº
Ð¾Ñĩ Ð½ÑĭÐ¹
ĠÐ¿ÑĢÐµÐ´ ÑĭÐ´
ĠÑģÐ» ÑĥÑĪ
ĠF a
Ð¸ÑĤ Ð°Ð¹ÑĤÐµ
Ð¸Ñģ Ñģ
Ġf il
ĠÐĿ Ð°Ð´
ÑĢÐ°Ð»ÑĮ Ð½Ð¾Ð¹
ĠÐ½Ð°ÑģÑĤÑĢ Ð¾ÐµÐ½Ð
Ð¾Ð»Ðµ ÑĤÐ½Ð
ĠJe ÅĽli
ĠÑģÐ¼ Ð°ÑĢÑĤÑĦ
ĠÐºÐ¾Ð½Ð µÑĩ
Ð°Ð¼ ÐµÐ½ÑĤ
sz u
ĠÑĥÑģÑĤÑĢÐ¾Ð¹ ÑģÑĤÐ²Ð¾
ĠÐ²ÐµÑĩ ÐµÑĢ
ĠÐ´ÑĢÑĥÐ³ Ð¾Ð¼
Ġspos Ã³b
ĠÑģÐ» Ð°Ð´
ĠÐĳ ÐµÐ»
µÑģ ÑĤÐ¸
ĠÐ¿Ð¾Ð´ Ð½Ñı
ĠÐ¼ÑĥÐ¶Ñĩ Ð¸Ð½Ñĭ
Ġpro ble
ĠÐ¡Ð¿ Ð°Ñģ
Ð¶Ð °
ĠÐ½Ðµ Ð¾Ð±ÑĭÑĩ
ĠÑĥÐ½Ð¸Ð² ÐµÑĢ
ĠÐ»Ð¸ ÑĤÐµÑĢÐ°ÑĤÑĥ
ĠÐ³Ð»Ð°Ð² Ð
Ġwie le
ĠÑĤ Ð°Ð»
Ð¾Ð ¸ÑĤÑĮ
ĠÑģÑĤÑĢÐ°ÑĤ ÐµÐ³
Ð¸Ð»Ð µ
ĠÑĢÐ°Ð·Ð¼ ÐµÑĢÐ°
Ġor gani
ka z
ĠÐ¸ÑģÐ¿ ÑĢÐ°Ð²
k e
ĠÑĢÐµÑģ Ð¿
ĠÑģ ÑĤÐ¾
ĠÐ´Ð¾Ð² ÐµÑĢ
Ġt h
Ð¸Ð½Ð ³Ð°
Ð°ÑĩÐ µ
ĠÐºÐ¾Ð½ ÑĨÐ°
ĠÐ±Ð¾Ð»ÑĮÑĪ Ð¸Ð¼
Ġpro je
ĠÐ¿ÑĢÐ¾Ð´ÑĥÐºÑ Ĥ
Ġu sta
ĠÑ ĨÐ¸
°Ñĩ Ð
ĠÑģ ÑĤÐ¸Ð¼
Ð¼ ÐµÑī
ÑĨ ÐµÐ¼
ĠÐ¸Ð³ ÑĢÐ°
ÑĢÐ°Ð» Ñı
¸ÑĢ ÑĥÑİÑĤ
Ð°Ð½Ð ½Ð¾
na d
Ð½ÐµÐ¼ Ñĥ
ĠÑģÐµÐ³Ð¾Ð´Ð½Ñı ÑĪ
Ð¸Ð¼ ÑģÑı
ĠÐ±Ð¾Ð»ÑĮÑĪÐ¸Ð½ ÑģÑĤÐ²Ð¾
ĠÐ¢Ð°Ðº Ð¸Ðµ
ĠÐ¿Ð¾Ð»Ð¾Ð¶ ÐµÐ½Ð¸Ðµ
ĠÑĦÐ°ÐºÑ Ĥ
t ro
ĠÐĵ ÐµÑĢÐ¼
ĠÑģÑĥ Ð´Ð°
°ÑĩÐ µ
½Ð ¾ÑģÑĤÑĮ
ÑĤÐ¾ ÑĢÐ¸
ÑĢÐ¾Ñ ħ
ĠÐ¸Ð½Ð °ÑĩÐµ
ÐµÐ»ÑĮ Ð½ÑĭÐ¹
ĠÐ¿Ð¾ÑģÐ² ÑıÑī
ÑĤÐ µÑĩ
ĠB a
¾ÑĤÐ ¸ÑĩÐµÑģÐº
Ð°Ð± Ð»
ÐµÑĤ Ð¾Ðº
Ð¾Ñĩ ÐºÑĥ
Ð¾Ñİ Ð·
0 4
Ð¸Ð½Ð °Ñı
ĠÐ¿Ð¾Ð»ÑĥÑĩ Ð¸Ð»
ĠÑĦ Ð°Ñģ
ĠÑĤ ÐµÐ¼Ð°
ĠÐ¿Ð¾Ð» Ñĥ
ĠÐ¾ÑĢÐ ¸ÐµÐ½
ĠÑĤ Ð°Ð¹
Ġ Ð½Ñĥ
Ġnie z
ĠÐ¿ÑĢÐ¾Ñħ Ð¾Ð´Ð¸ÑĤ
ĠÐĶ ÐµÐ²
ĠÐ±Ð¾Ð»ÑĮÑĪ Ð¸Ðµ
ĠÑı Ð³
ÐµÐ½Ð ´Ð°
ĠÐ°Ðº Ñ
ĠÐ´Ð¾Ñħ Ð¾Ð´
Ð°ÐµÐ¼ ÑĭÑħ
ĠÐ¶Ð¸Ð²Ð¾ÑĤÐ ½ÑĭÑħ
ĠÐ³ÑĢÐ°Ð¶Ð´ Ð°Ð½Ð¸Ð
o d
Ð¾Ð½Ð ¸
ĠÐº Ð¸Ð¿
ĠÑģ Ð¾Ð¶Ð°Ð»
ÑĢÑĭ Ð¼
ĠÑģÐ¾Ñģ ÐµÐ´
ĠÐ¿Ð¾ÑĤÑĢÐµÐ± ÑĥÐµÑĤÑģÑı
s h
Ð¾Ð· Ñĭ
s er
Ð¸Ñģ Ð°Ð½Ð¸Ðµ
ni Äĩ
ÑĢÐ ¾ÑĤ
g ÄĻ
Ġ =
k re
ĠÐ¾ÑĤÑģÑĥÑĤÑģÑĤÐ² Ð¸Ðµ
Ð» Ð¸Ð·
ÑĢÐ¾Ñ į
Ð°ÑĤÐµÐ»ÑĮ Ð½ÑĭÐ¹
ĠS ta
ĠÐ´Ð°Ð» ÐµÐºÐ¾
Ġma jÄħ
Ð¸ÑĤÐµÐ»ÑĮ Ð½Ð¾ÑģÑĤÐ¸
ĠÐ¾Ð± ÐµÐ·
ĠÑģÑĤ Ð°Ðº
as y
Ð¸Ðº Ð¾Ð¼
Ð°Ð² Ð
ĠÐ·Ð°ÐºÐ¾Ð½ Ñĩ
Ð¾Ð½Ð ¸Ð¼
ĠÑģÐ¿Ð¾ÑģÐ¾Ð± Ð¾Ð¼
ĠÑĢÐµÐ³ ÑĥÐ»Ð¸ÑĢÐ¾Ð²
Ġ201 3
ĠÑĩ ÐµÑĤÐ
ĠÐ¼Ð°ÑĢ ÑĪ
ĠÑģÐµÐºÑģ Ñĥ
ĠÑĤÐµÐº ÑĥÑī
Ð² Ð¾Ð·
ĠÐĿ Ð°ÑĢ
ĠÐ²ÐºÐ»ÑİÑĩ Ð°Ñı
ĠÐ¡ Ð°Ð½ÐºÑĤ
ĠÐ¿ÐµÑĢÐµÐ½Ð ¾Ñģ
ĠÐĿÐµ Ð¾Ð±ÑħÐ¾Ð´
Ġ Ð°Ñĥ
Ð¸ÑĤÐµÐ»ÑĮ Ð½ÑĭÐ¼
ĠÐ¾ÑĤÐ½Ð¾ÑĪ ÐµÐ½Ð¸Ð¹
ĠÐ¾ÑĤÐ´ÑĭÑħÐ °
Ĥ Ð¾Ð¶
Ð¼ ÑĥÐ»Ñı
ĠÐ±ÑĭÑģÑĤ ÑĢÐµÐµ
Ñ ĤÐ¾Ð¶
Ġ ÑĢÐ¾Ð²
ĠÐ¼Ð°Ð» ÑĭÑĪ
ĠÐ¿ÑĢÐ¾Ñħ Ð¾Ð´
ĠP i
ĠÐ½ÐµÐ¼ Ñĥ
Ð¾Ð¼ Ð°ÑĤ
ĠÐ² Ð¾Ð´Ð¸ÑĤ
ĠÐ¾ÑģÐ² Ð¾Ð±
ĠÐ²ÑĭÐ³Ð»ÑıÐ´ Ð¸ÑĤ
ÑĤÐ¸ÑĩÐµÑģÐº Ð¾Ðµ
ĠÐ¿ÑĢÐ¾Ð² Ð¾Ð´Ð¸ÑĤÑģÑı
ÑĢÐµÐ² Ð
ĠÐ¾ÑĤÐ½Ð¾Ñģ ÑıÑĤÑģÑı
ĠÐ±Ð» Ð¾ÐºÐ¸
ĠÑĥÐ´ ÐµÑĢÐ¶
ĠÑĢÐµÐ°Ð» Ð¸Ð·Ð°ÑĨÐ¸Ð¸
Ġp owo
sia da
Ð°Ñı ÑģÑĮ
ĠÐ¼ÐµÑĤ ÑĢÐ¾Ð²
Ġby ÅĤ
ĠÑĤÐµÑħ Ð½Ð¸ÐºÐ¸
ĠÐĸ ÐµÐ»
za cji
Ð°Ð½Ð ½ÑĭÐ¼Ð¸
Ġpo ja
Ġs ku
ski m
ma il
ÐµÑĢÐ ¾Ñı
li z
ĠÑĨ ÐµÐ»Ð¸
ĠÑĨÐ²Ð µÑĤÐ
ĠW ie
ĠA r
ÐµÐ ¸Ð
ĠÐ¼ÐµÐ½ Ñİ
ÑİÑ Ī
ĠÐ½Ð¸ÐºÐ°Ðº Ð¸Ñħ
ĠÐĳ Ð¾Ð³
ÐµÐºÑ Ĥ
ĠGoo gle
ÐµÐ½ Ð¾Ð²
ĠÐ´Ð¾Ðº Ð°Ð·
3 5
ĠÑģÑĥ ÑĤÐºÐ¸
Ð¾Ð»Ð¾Ð³Ð¸ÑĩÐµÑģÐº Ð¸Ñħ
ch ni
ĠÐ¿ÑĢÐ¸Ð½ ÑıÑĤÑĮ
de m
Ġp rowa
ĠÐ·Ð°Ð¿ Ð°Ñģ
ma t
b er
ĠÐº Ð¾ÑĤ
ĠÑĢÐµÐ³Ð¸ Ð¾Ð½Ð°Ð»ÑĮ
ĠÐ²ÑģÐ¿ Ð¾Ð¼
ĠÐ± ÑĢÐ°
ka za
ty ch
ĠÐ¿ÑĢÐ¸Ð¼ÐµÑĢ Ñĥ
ĠÑĦÐ¸Ð»ÑĮ Ð¼
ĠÐ¿ÐµÐ½ ÑģÐ¸Ð¾Ð½Ð
ĠÑĤ ÑĢÐ°Ñħ
ĠÐ²Ñģ ÐµÐ¼Ñĥ
Ðķ Ðł
ĠÐł ÑĥÑģ
ĠÐľ Ð°Ð»
d ar
ĠÐ¿Ð¾Ð» Ð¾Ñģ
Ð¸Ð½ Ð¾Ð¼
ÐµÐ½ ÑĤÐµ
ĠÐĿ Ð°Ð»
Ġwyko na
i ch
ĠÑĩÐ¸Ñģ Ð»Ð¾
ĠÐ±ÑĥÐº Ð²
ĠÐº Ð°ÑĪ
ĠÑģ Ð°Ð½
Ð°Ð ³Ð°
ĠÐĵ Ð´Ðµ
ĠÑĥÐ² Ð°Ð¶
ĠÐ± Ð¸Ð»
Ð ©
ĠÐºÐ°Ð± Ð¸Ð½Ð
ÑĢÐ ½Ð¾Ð¹
ĠÐ³ÑĢÑĥÐ ½
Ð¾Ð³Ð¾Ð² Ð¾ÑĢ
st ar
ĠÑĢÑĭÐ½Ð ºÐ°
ĠÑģÑĤÑĢÐ¾Ð¸ÑĤÐµÐ»ÑĮ ÑģÑĤÐ²Ð°
Ġz ro
ĠÑĤÐµÐ» ÐµÐ²
ĠÐºÐ°ÑĢ ÑĤÑĥ
Ġ #
ĠÐ¿ÐµÑĢÐ² Ð¾Ð¼
ĠÐ¿Ð¾Ð»ÑĮÐ·Ð¾Ð² Ð°ÑĤÐµÐ»ÐµÐ¹
ĠÑĦÐµÐ² ÑĢÐ°Ð»Ñı
ĠÐ¿Ð¾ ÑıÑģ
ĠÑįÐ»ÐµÐ¼ ÐµÐ½ÑĤÐ¾Ð²
ĠÐ¼ÑĥÐ· ÑĭÐº
ÐµÑĩÐ ¸
°ÑĢÐ ¼
Ð¼ ÐµÑĪ
ĠÂ ·
Ã³w i
ĠÐºÐ¾Ð½ÑĤÑĢ Ð¾Ð»ÑĮ
ĠÐ½ÐµÐ¿Ð¾ÑģÑĢÐµÐ´ ÑģÑĤÐ²ÐµÐ½Ð½Ð¾
ĠÐ¿Ð¾Ð» Ð½Ð¾Ð¼
½Ð °Ð
ĠâĢ ¦
Ð°Ð¶Ð ¸ÑĤÐµ
ĠT wo
ĠÐ¾ÑĦÐ¾ÑĢÐ¼ Ð»ÐµÐ½Ð¸Ñı
ĠÐ¸ÑģÐ¿Ð¾Ð»ÑĮÐ·Ð¾Ð² Ð°Ð½Ð¸Ð¸
ĠÐ¶ Ð¸ÑĤÑĮ
ĠÐ½Ð°ÑĢÑĥÑĪ ÐµÐ½Ð¸Ñı
ĩÐµÑģÑĤÐ²Ð µ
Ġ4 5
ĠÐ²ÐºÐ»ÑİÑĩ Ð°ÐµÑĤ
ĠÑĢÐ°Ð· Ð¾Ð±
ÐµÐ»ÑĮ Ð½Ð¾Ð³Ð¾
ÑĤÐ¾ÑĢ Ð¾Ð½Ð½Ð
ÐµÑĤ ÑĢÐ°
ĠÑįÐ»ÐµÐ¼ ÐµÐ½ÑĤÑĭ
ĠÑģÐº Ð¸Ð´
ĠÐºÐ² Ð°Ð»
ĠÐ»ÑİÐ± Ð²Ð¸
ĠÐ°ÑĤÐ ¼
ĠÐľÐ¾ÑģÐº Ð²Ð°
ĠÐ¿Ð¾Ð³ Ð¸Ð±
Ġpod czas
ĠÐ¡Ð¾Ð² ÐµÑĤ
ÑĥÐ² ÑģÑĤÐ²
ĠÑĦÑĥÑĤÐ ±Ð¾Ð»
ÐĲ ÐĹ
ĠÑĩÐµÑĤÑĭ ÑĢÐµ
ĠA u
ĠÑĦÑĥÐ½ÐºÑ ĨÐ¸Ð¾Ð½Ð
E R
ĠÑĥÑĩÐ°ÑģÑĤÐ½Ð ¸ÐºÐ¾Ð²
ĠÑģÐµÐº ÑĥÐ½Ð´
ĠÑĥÐ¿ Ð°ÐºÐ¾Ð²
Ð°ÑİÑī ÐµÐµ
dze nie
ĠÐ·Ð½Ð°Ð µÑĤ
Ð¸ÑĤ ÐµÐº
9 9
ĠÐ¿Ð¾Ð»ÑĮÐ·Ð¾Ð² Ð°ÑĤÐµÐ»Ñı
ĠÑĤÐ°Ðº ÑĥÑİ
ĠÐ²Ñĭ ÑĢÐ°Ñī
ĠÐ¼ Ð½ÐµÐ½Ð¸Ñİ
ĠÑģÐ¾Ñħ ÑĢÐ°Ð½Ñı
ĠÐĿ Ð¸Ð¶
ĠÐŀÐŀ Ðŀ
ĠÐ¿Ð¾Ðº Ð¾Ð»
ĠÐ· Ð»
ĠÐĴÑĭ Ñģ
ĠÑįÐ»ÐµÐºÑĤ ÑĢÐ¸ÑĩÐµÑģÐº
ĠÐ²ÑĭÐ· ÑĭÐ²Ð°ÐµÑĤ
ĠÐ¸Ð ¿
ĠÐ³Ð¾ÑĤÐ¾Ð² Ñĭ
Ð°Ð»ÑĮ Ð½ÑĭÐ¼Ð¸
ĠÐ´ÑĢÑĥÐ³ Ð¾Ð³Ð¾
ĠÐŁÐ¾Ð¼ Ð¸Ð¼Ð¾
mi na
Ġa k
ĠÐĴÑĭ Ð¿
ĠÐ¿ÑĢÐ¸ ÐµÐ¼Ð°
O S
ĠÐŀ ÑģÑĤ
Ĥ Ð°ÐºÐ¸
ĠÑģÐ» ÑĭÑĪ
Ð¾Ð ºÐµ
Ð¾Ñ ĨÐ¸
ĠÑĤÐµÑħÐ½ Ð¾Ð»Ð¾Ð³
ĠÐĵ Ð¾Ð»
l ien
ĠÑģÐµÑĢÐ´ ÐµÑĩ
ĠÐ¾ÑĤÐ»Ð¸Ñĩ Ð¸Ðµ
Ð¾Ð½Ð ½ÑĭÑħ
Ð³ Ð°Ð»
Ð¼ÐµÑĢ ÑĩÐµÑģ
ĠÑĪÐº Ð¾Ð»Ñĭ
ni Äħ
Ġjed no
ĠwiÄĻ c
ub li
ĠÐ¸ÑģÐºÐ»ÑİÑĩ Ð¸ÑĤÐµÐ»ÑĮÐ½Ð¾
ro m
Ð°ÑĤÐµÐ»ÑĮ Ð½ÑĭÐµ
µÑĢ ÑĭÐ²
ĠÐºÐ¾Ð½Ð ´
ÐµÐ °Ð
ĠÐĺÑ ĤÐ°Ðº
Ð°Ñĩ Ñĥ
Ġw iÄĻk
Ñ ĤÐ°ÐºÐ¸
ĠÐ¼ Ð¾Ð½
g Ã³l
ĠÐ¿ÑĢÐ¾Ð³ÑĢÐ°Ð¼ Ð¼Ð°
ĠÐ¸Ð¼ Ð¼Ñĥ
Ð¾Ð²Ð µÑĤÐ°
Ð½Ð°Ð ¿
ĠÐ¼ÑĥÐ¶Ñĩ Ð¸Ð½Ð°
ĠÐ´ÐµÐºÐ¾ÑĢÐ °ÑĤÐ¸Ð²
ĠÑģ ÑĭÐ
ĠÐ½Ð°Ð· ÑĭÐ²Ð°ÐµÐ¼
ĠÐ¿ Ð°Ðº
ĠÐ¾Ð´ Ð¸Ð½Ð°Ð
ĠÐ» Ð¾Ð²
ĠÐºÐ°Ðº Ð¸Ð¼
ĠÐ²Ð¾ÑģÐ¿Ð¾Ð»ÑĮÐ·Ð¾Ð² Ð°ÑĤÑĮÑģÑı
kÅĤa da
ĠP rzy
ĠÐ¼ÐµÑģ ÑĤÐ°Ñħ
ĠU S
ÑĤÐ°Ñ ĤÑĭ
wie r
ÑĤÐ °Ñģ
ĠÐ² Ð½Ð¸Ð·
e j
½ Ð¾Ð³Ð¸
ĠÑģÐº ÑĢÑĭ
ĠÐ²Ñģ ÐµÐ¼Ð¸
ĠÐ¿Ð¾Ð·Ð²Ð¾Ð» ÑıÑİÑĤ
ĠÐ¼Ñĥ Ð½Ð¸ÑĨÐ¸Ð¿
Ð½Ð°Ñ Ĥ
cz nego
ÐµÑĢÐ ¸Ñı
ÑĤÑĭ Ð¼
ĠÐ¡ ÑĢÐµÐ´Ð¸
ĠÑĥÐ» Ð¸ÑĨÐµ
ĠÐºÐ¾Ð½ÑĤÑĢ Ð¾Ð»Ð
ĠÐ½ÑĢÐ°Ð² Ð¸ÑĤÑģÑı
ĠÐ°ÑĤÐ¼ Ð¾ÑģÑĦ
ĠÐ¸Ð ¼Ð¸
ÑĢÐµÐ· Ð¸Ð´
Ð°Ð½ Ð¾Ð¼
Ð¸ÑĨ Ñĥ
ĠÑĩÐµÐ»Ð¾Ð²ÐµÑ ĩÐµÑģÐº
ĠÑĤÑī Ð°ÑĤÐµÐ»ÑĮÐ½Ð¾
Ð ½Ð¾Ð³Ð¸
ĠÐĴ Ð°Ð»
ÑģÑĤÐ² ÐµÐ½Ð½Ð¾Ð³Ð¾
Ð¾Ð½Ð ½ÑĭÐµ
ĠÐ´Ð² ÐµÑĢÐ¸
ĠP la
Ñĳ ÑĢ
ĠÐ¸Ð¼ ÑĥÑīÐµÑģÑĤÐ²Ð°
ry wa
Ð½Ð°Ð ²
ĠÐºÐ¾Ð½Ðº ÑĥÑĢ
ĠÑģÐ½Ñı ÑĤÑĮ
ĠÐ² ÑģÑĤÐ°Ð²
ÐµÑĢÐ µÑĩ
Ġ3 1
ĠÐ¿ÑĢÐ¸Ñĩ Ð¸Ð½
ĠÐľ Ð¾Ð¶ÐµÑĤ
ĠÐµÐ² ÑĢÐ¾Ð¿ÐµÐ¹
ĠÑĥÑĤ ÐµÐ¿
ĠÐľ Ð¾ÑģÐºÐ¾Ð²
ĠÑģÐ¾Ð±Ñĭ ÑĤÐ¸Ñı
ĠÐ¢Ð°Ðº Ð¾Ð¹
Ð¾Ð½Ð ½ÑĭÐ¹
ĠÐ¿ÑĢÐ¾ÑĤÐ¸Ð² Ð¾Ð¿
ĠÐ¿ÑĢÐ¸Ñĩ Ð¸Ð½Ð¾Ð¹
Ðŀ Ð±
ĠÐ¿Ð»Ð°Ñģ ÑĤÐ¸Ðº
Ð¼ Ð°Ð³Ð°Ð·
ÑĥÐ» Ñĭ
ĠÐ¿ÐµÑĢÑģ Ð¾Ð½Ð°Ð
ĠÐŀÐ±ÑĭÑĩ Ð½Ð¾
ĠÐ¾ÑģÐ½Ð¾Ð² Ð°Ð½Ð¸Ð¸
ĠÐ´ Ð¾Ð³
ĠÐ¾Ð±ÐµÑģÐ¿ÐµÑĩ ÐµÐ½Ð¸Ñı
Ġdzie ci
Ġszy b
) :
ĠÐľ ÐµÑĤ
Ġty ch
Ð² Ð°ÑĢ
ÐĿ ÐĲ
ĠÐ°Ð³ ÐµÐ½ÑĤ
Ġ x
ĠÐ´ÐµÐ¿ Ñĥ
Ð³Ð ¾ÑĤ
ĠÑĨ ÐµÐ½Ðµ
ÐµÐ½Ñģ Ð¸Ð²
ĠÐ¿Ð¾Ð´ Ð¾Ð·
ĠÐĺÐ½ Ð¾Ð³Ð´Ð°
ĠÐºÐ¾Ð½ÐºÑĥ ÑĢÐµÐ½
ĠÑĢÐµÐ°Ð» Ð¸Ð·
ĠÐºÐ¾Ð¼ Ñĥ
Ġ Ð½Ð¾Ð³Ð¸
ĠÐ·Ð² ÐµÐ·Ð´
ĠÐĶ Ð¼Ð¸ÑĤ
ÑģÐ ¾
ĠÑģÐ¼ÐµÑĢ ÑĤÐ¸
ĠÐ¸ÑģÐ¿Ð¾Ð»ÑĮÐ·Ð¾Ð² Ð°Ð½Ð¸ÐµÐ¼
Ð½Ð°Ð ´
Ñĳ Ð
Ð¾Ð² Ð°Ð»Ð°
ĠÑĢÐ°ÑģÑģ Ð¼Ð¾ÑĤÑĢ
ĠÐ½ÐµÐ´Ð²Ð¸Ð¶ Ð¸Ð¼Ð¾ÑģÑĤÐ¸
Ġna leÅ¼y
ÑĢÐµÐ »ÑĮ
] .
Ð°ÑĢÐ ¼
ĠÑĦÑĥÐ½Ð ´
ÑĥÑİÑī ÐµÐ³Ð¾
ĠÑģÐ¾Ð±ÑģÑĤÐ² ÐµÐ½Ð½Ð¾ÑģÑĤÐ¸
ÑĢ Ð¸Ð»
ÑĤÐ°Ñ İÑĤ
ĠÐ°Ð²Ð³ ÑĥÑģÑĤÐ°
A N
ĠÐ²ÑĭÐ¿Ð¾Ð»Ð½ÐµÐ½Ð ¸Ñı
ÐµÐ» ÐµÐ½
Ð¾Ðº Ð¾Ð»
!! !
ĠÑĥ ÑĤÐ¾Ñĩ
ĠÐ¿ÑĢÐ¾Ñģ Ð¼Ð¾ÑĤ
ÑĮ ÐµÑĢ
ĠÐ¿Ð¾ÑĢÑıÐ´ Ð¾Ðº
ĠÑħÐ°ÑĢÐ°ÐºÑĤÐµÑĢÐ¸Ñģ ÑĤÐ¸ÐºÐ¸
Ð» Ð°Ð½Ð
ĠÐ¾Ð±ÐµÑģÐ¿ÐµÑĩ Ð¸Ð²Ð°ÐµÑĤ
¼Ð ¾
ĠÐĿÐµÑģ Ð¼Ð¾ÑĤÑĢÑı
ÑĢÐ°Ð »Ð°
ĠÐ¿Ð¾Ð»ÑĥÑĩ Ð°ÑĤÑĮ
Ġb e
ÐµÐ µÐ¼
sz ta
ÑģÑ Ħ
ĠÐ´Ð¾Ð¼ Ð¾Ð²
ĠÑĤÐ¾Ð» Ñī
ĠÐ½Ð¾ÑĢÐ ¼Ð°
2 6
ĠÑģÐ¾ÑĤÑĢÑĥÐ´ Ð½Ð¸ÐºÐ¾Ð²
ĠÑĢÐ¾Ð´ ÑģÑĤÐ²
ĠÐ±ÑĥÐ´ ÐµÐ¼
ĠÐ´Ð¸Ð· Ð°Ð¹Ð½
ÐµÐºÐ¾Ð¼ ÐµÐ½Ð´
pe ra
Ðĵ Ðŀ
glÄħ da
ÐµÐ· Ð¶
Ñ İÑī
Ð¸Ð± Ð¸ÑĢ
ĠÐ´Ð²Ð¸Ð³ Ð°ÑĤÐµÐ»Ñı
ĠÑħ ÑĢÐ¾Ð½Ð¸ÑĩÐµÑģÐº
ĠÐºÐ¾ÑĢ ÑĢÐµÐº
ĠÐ°ÐºÑĤÐ¸Ð² Ð½Ð¾
ĠÐ¸ÑģÐ¿Ð¾Ð»ÑĮÐ· ÑĥÐµÐ¼
Ðļ Ð°Ðº
ĠÐ½Ð°Ð¼ Ð½Ð¾Ð³Ð¾
ĠÐ²Ð°ÑĢÐ¸Ð°Ð½ ÑĤÑĭ
ĠÐ±ÑĭÑģÑĤ ÑĢ
ĠÑĥÑĩ ÐµÑĤÐ¾Ð¼
ÐµÐ½ÑĮ Ñİ
ÐĴ ÐĶ
Ġi P
ĠÐ³Ð»ÑĥÐ± Ð¾Ðº
Ð½Ð¸Ðº Ð°Ð¼Ð¸
ĠÑĢÐ°Ð·Ð¼ ÐµÑĢÐµ
ÑĤÐ »
Ðº Ð°ÑĤ
ka mi
ĠÐ½Ð¾Ñĩ ÑĮ
ĠÑģÐ²ÐµÑĤÐ »
ĠÐ½Ð°Ð¿ Ð
ko na
ĠÐł ÐµÐ·
ĠÐ¿ÑĢÐ¾Ð² ÐµÑĢÐ¸ÑĤÑĮ
ÐµÐ ½ÑĭÐµ
g en
ĠÐºÐ² Ð°Ð´
st ru
Ġs o
ĠÐĿ Ð°Ð¸Ð
Ð½Ð µÑĢ
Ġe k
ĠÐ¿ ÑĥÑĤÑĮ
ĠÐĲ Ð¼ÐµÑĢ
Å¼e j
ĠÐ¿ÑĢÐµÐ¿Ð° ÑĢÐ°ÑĤÐ¾Ð²
ĠÐ¾ÑĤ ÑĢÐ°Ñģ
f ek
ĠÐ²Ñĭ Ð¹
Ð¾Ð·Ð ¸
cja l
Ñģ Ð¾Ð¼
ĠÐ½Ð°Ð² Ñĭ
ĠÐ°Ð² Ð
ĠÐ³Ð¾Ð»Ð¾Ð² Ñĥ
ĠÐ¸Ð·Ð±Ð°Ð² Ð¸ÑĤÑĮÑģÑı
ĠÑģÑĢÐ¾Ð ºÐ¸
Ġ201 2
ÑĢÐ°Ð½ÑĨ ÑĥÐ·
ĠÐ·Ð°Ð½Ð¸Ð¼ Ð°ÑĤÑĮÑģÑı
ĠÐ±Ð¾Ð»ÑĮÑĪ ÑĥÑİ
Ð»ÑıÑĤÑĮ ÑģÑı
ĠÐ£ÐºÑĢÐ°Ð¸Ð ½Ðµ
ĠÐ± ÐµÑĢÐµÐ
ĠÐ¡Ð¿ ÐµÑ
ĠÐĿ ÐĲ
ĠÐ»ÑİÐ±Ð¾Ð² ÑĮ
rze nia
Ð¾Ð¸Ð¼ Ð¾ÑģÑĤÑĮ
ĠÑĢÐµÐº Ð»
ÑĢÐµÑ Ĩ
ÑĥÑ į
ĠÐ´ ÑĢÑĥÐ¶
Ġz ÅĤo
c jÄħ
ĠÑħÐ¾Ñĩ ÐµÑĤÑģÑı
ĠÐĶ Ð¾Ð¼
ĠÐ±Ð¾Ð»ÑĮÑĪ Ð¸Ñħ
ĠÐŁ Ñĥ
ĠÐ½Ð°Ð¿Ð ¸
Ġza pew
ĠÑģÐ²Ð¾Ð¹ ÑģÑĤÐ²Ð°
ĠÐ¾Ð±Ð» ÐµÐ³
ĠÐ³ ÐµÐ¼
ĠÐ´Ð¸ Ð°Ð¼
Ġon line
ÑĭÐ ½Ð¾Ðº
ĠÐ² ÐµÐ»Ð¸Ñĩ
re k
¾ÑĤÐ½Ð ¾ÑĪ
ĠL a
ĠÐ¤ ÐµÐ´ÐµÑĢÐ°Ð»ÑĮ
ĠÐ»Ð¸ÑĨ ÐµÐ½Ð·
ĠÐº Ñĥ
ch u
ÑĤÑĢ Ð¾Ð¹
ĠÐ¾ÑģÐ½Ð¾Ð² Ð½Ð¾Ð¹
ĠÐ¿ Ð¸ÑĤÑĮ
ĠÐºÐ» Ð¸Ð½Ð
ĠÑĢÐ°Ð·Ð´ ÑĢÐ°Ð¶
ĠÐ¿Ð» Ð°Ð²
ĠÐ·Ð° ÑĢÐ°Ð½ÐµÐµ
ĠÐŁ ÑĢÐ¾ÑĨ
ĠÐ¾ÑĤÐº Ð»ÑİÑĩ
ĠÐĴ Ð¾Ð·Ð¼Ð¾Ð¶Ð½Ð¾
Ġ $
ĠÑģÑĩ Ð°Ñģ
ĠÑģÐ» Ð¾Ð¹
ĠmoÅ¼ liwo
ĠC z
ÅĤ ÄĻ
ÑıÑģÐ ½Ñı
ĠÑĢ Ð¾Ð¶Ð´
Ġt wo
ĠÐºÐ¾Ð¼Ð½Ð°Ñ ĤÑĭ
ĠÑĢÐ°Ñģ Ñĩ
ĠÐ´Ð¾Ð¿ ÑĥÑģÐº
ĠÐĴ Ð¸Ðº
Ð¾Ð½ Ñģ
ĠÑģÐ¿ÐµÑĨÐ¸Ð°Ð» Ð¸ÑģÑĤ
ĠÑģ ÑĤÐ¾Ñı
s ÅĤa
r wa
ĠÐ±Ð°Ð½Ð ºÐ°
ĠÐ¿Ð¾Ð¿ ÑĢÐ¾Ñģ
ĠÐ´ÐµÑĤ Ð°Ð»
ĠÐ¿Ð¾Ð»ÑĥÑĩ Ð°ÐµÑĤÑģÑı
ĠÐ§ ÐµÑĢÐµÐ·
ĠÑĤ ÐµÐ»Ð¾
ĠÐ¾Ð±Ð¾ÑĢÑĥÐ´ Ð¾Ð²Ð°Ð½Ð¸Ðµ
ĠÐĴ ÑĤÐ¾ÑĢ
Ð¸ÑĤ Ð°Ð»
ar Ã³w
Ð ½ÑĥÑĤÑĮ
ĠÐ± ÑĥÑĤ
ĠÐ» Ð¸ÑĤ
ÅĽ wiad
je my
Ð½Ð¸Ñĩ ÑĤÐ¾Ð¶
ĠÐ¾ÑģÐ¾Ð± ÐµÐ½Ð½Ð¾Ñģ
ĨÐ¸Ð¾Ð½Ð ½Ð¾Ð¹
Ġpe ÅĤ
go d
Ð¸ÑīÐ ¸
Ġ Ð½Ñĭ
Ñ ĤÐµÐº
Ð¾Ð´ Ð°ÑĢ
Å¼ o
Ġa d
Ñ ĤÐ¾Ð¹
ĠÑĥÑģÑĤÑĢÐ¾Ð¹ ÑģÑĤÐ²
Ñī Ð¸ÐºÐ°
ĠÐ¼ Ð¸Ð½Ðµ
ĠÐ¿ÑĢ Ð¾Ð¹ÑĤÐ¸
ĠÐºÐ¾Ð¼Ð°Ð½Ð´ Ñĭ
ĠÑįÐº ÑģÐº
ĠÑģ ÑĤÐ¸Ð»Ðµ
ĠÐĹ Ð°Ð¼
Ð½Ð°Ð± Ð¶
ĠÐ±Ð¾Ð»ÑĮÑĪ Ð°Ñı
ĠÐ½ÐµÐ¾Ð±ÑħÐ¾Ð´Ð¸Ð¼ ÑĭÐµ
ĠÐ¿Ð¾Ð´Ð´ÐµÑĢÐ¶ ÐºÐ¸
ĠÐ¡ÐµÑĢÐ³ ÐµÐ¹
ĠÐ¿ÑĢÐ µÑĤ
ĠÐ´Ð²ÑĥÐ¼ Ñı
¾Ñ ī
ĠÑħ ÑĢÐ°Ð½ÐµÐ½Ð¸Ñı
ĠNa j
0 5
ĠÐ¿Ð¾Ð´ Ð½Ð¸Ð¼
ĠÑĪÐº Ð¾Ð»
ĠÐ¿Ð¾ÑģÐ»ÐµÐ´ ÑģÑĤÐ²Ð¸Ñı
Ġ ne
Ġ ÅĤa
Ġo sta
ĠÑģÐ¾Ð¶Ð°Ð» ÐµÐ½Ð¸Ñİ
ÐºÐ °ÑĢ
ĠÐ¡ Ð¸Ð¼
Ð ¾ÑĢÑĥ
ĠÐ¾Ð±ÑĥÑĩ ÐµÐ½Ð¸Ñı
ĠÑĪ Ð°ÑĢ
ĠÐºÐ°Ñ Ħ
ĠÑģÐ» Ð¸Ð·
Ð¿Ð ¾
ĠÐĺ Ð½Ð´
Ð°Ð¶ ÐµÐ¼
¸ÑģÑ ĤÑĢ
ĠÐ·Ð°Ñģ ÐµÐ´
Ð¸Ñģ ÑĤÐ°
ĠÐº Ð°Ð½Ð´
ĠA l
ĠÐ¼ ÑĥÑģ
ĠÑĤÐµÐ»ÐµÑĦ Ð¾Ð½Ð°
Ġm Ã³wi
ĠÐ± ÑĢÐ°ÑĤÑĮ
Ġpo sta
ĠÐ½Ð°ÑĩÐ¸Ð½Ð°Ð µÑĤÑģÑı
ĠÐº Ð¾Ð»ÑĮ
Ġsp rze
Ð¾ÑĢ Ð¾Ð¼
ĠÐ¾ÑĤÐ¼Ðµ ÑĤÐ¸Ð»
Ð°ÑĤÐµÐ»ÑĮ ÑģÑĤÐ²Ð°
ĠÐºÐ°ÑĤ Ð°Ð»
ĠÐ²Ð¾Ð¿ÑĢÐ¾Ñģ Ð¾Ð²
Ð°ÑĤÐµÐ»ÑĮ Ð½ÑĭÑħ
ĠÐ¼ Ð°Ð½Ð¸Ð
ÑģÑĤÐ² ÐµÐ½Ð½ÑĭÑħ
Ġpo li
ĠÐ¾Ð±Ñī ÐµÐ³Ð¾
czy wi
e x
ĠÐ·ÐµÐ¼ Ð»Ð¸
ĠktÃ³ry ch
ÑĤÐº Ð°Ñħ
ÑĢÐ¾Ð²Ð °
ĠÐ¿Ð¾ÑģÑĤÐµÐ¿ ÐµÐ½Ð½Ð¾
ĠÐ·Ð´Ð¾ÑĢÐ¾Ð² ÑĮÐµ
Ð½Ð°Ñ ī
Ð¾ÑĤ Ð¾Ð²
ĠÑģÐ¿ÐµÑĨÐ¸Ð°Ð» Ð¸ÑģÑĤÐ¾Ð²
ĠÐ¿ÐµÑĢ ÑģÐ¿ÐµÐº
ĠÑħÐ¾Ð»Ð¾Ð´ Ð¸Ð»ÑĮ
ĠÐķ Ð´
ĠÐł ÐµÐºÐ¾Ð¼ÐµÐ½Ð´
ĠÐ²Ñĭ Ð´ÐµÑĢÐ¶
¸ÑĢÑĥ ÐµÑĤ
ÑĢÐµÐ· Ð°ÑĤÑĮ
ĠÐ²Ð µ
ĠÐ¾Ðº Ð½Ð°
ÐµÐ»ÑĮ Ð½ÑĭÐµ
ĠÐ± Ð¾ÐµÐ²
ĠÐ¼ÐµÑĤ Ð¾Ð´Ñĭ
ĠÐļÑĥÐ¿ Ð¸ÑĤÑĮ
ĠÐ¿ÐµÑĢÐµÑģ Ñ
ĠÐ²ÐµÑĢ ÑģÐ¸Ð¸
ĠÐ½Ð°Ñĩ Ð°Ð»ÑĮ
ĠÑĢÐµÑģ ÑĤÐ¾
ĠÐ¿Ð°Ð¼Ñı ÑĤÐ¸
b ÄĻ
ĠÑģÐ¾Ð» Ð½ÐµÑĩ
on u
h one
Ġk la
ÐµÐ± Ð
ĠÐŁÐ¾Ð´ ÑĢÐ¾Ð±
ĠÑģÐ¿ÐµÑĨÐ¸Ð°Ð» Ð¸ÑģÑĤÑĭ
Ð¢ ÐĲ
ĠÐ·Ð°Ð´ ÑĥÐ¼
ĠÐ±Ð¾Ð»ÑĮÑĪÐ¸Ð½ ÑģÑĤÐ²Ðµ
2 7
ĠÐ¡ ÐµÐ¼
Ð¸Ð» Ð»
Ð°Ð² ÑĪÐ¸Ñħ
ĠÐ¶Ð¸Ð´ ÐºÐ¾ÑģÑĤÐ¸
Ð¾ÑĢÐ ¾ÑĤÐ
0 3
ĠÐ²Ð·ÑĢÐ¾ÑģÐ» ÑĭÑħ
ĠÐºÐ¾Ð½ÑĨ ÐµÐ½ÑĤ
ĠÐ¸Ð¼ÐµÐµÑĤ ÑģÑı
ĠÐ¾Ð±ÐµÑģÐ¿ÐµÑĩ Ð¸ÑĤÑĮ
ĠÑĨÐµÐ½ÑĤ ÑĢÐ°
Ð¾Ð½Ð°Ð ¼Ð¸
Ġna u
ĠÐºÐ°ÑĢÑ Ĥ
t rz
ĠÐºÐ¾Ð½ÑĦ Ð»Ð¸Ðº
Ġf unk
ĠÐ¿Ð» Ð°ÑĤÑĮ
Ġ Q
ĠÐ·Ð°Ð³ ÑĢÑĥÐ·
ĠA p
ĠÑģÑĭ ÑĢ
ĠÐ²Ñĭ ÑıÑģ
Ð¾ÑģÑĤ ÑĥÐ¿
Ñĭ ÑĤÑĮ
ĠÐ½Ð µÑ
ĠÐĺ Ð»Ð¸
ĠÐĺ ÑĢ
ÅĤo ÅĽci
ºÑ ĨÐ¸Ñı
ĠÑĢÐ°ÑģÑĤ ÐµÐ½Ð¸Ð¹
ĠÐŀÐ´ Ð¸Ð½
Ð»Ñı Ñı
ĠÐ¿Ð¾Ð¶Ð°Ð» ÑĥÐ¹
ĠÐ°ÐºÑ Ĥ
ĠÐ£ Ð·
ĠÐ»ÑİÐ± ÑĭÐµ
ĠÑĦÐ¾ÑĤÐ¾Ð³ÑĢÐ°ÑĦ Ð¸Ð¸
ĠÑĢÐ°Ñģ ÑĤÐ¸ÑĤÐµÐ»ÑĮ
Ġin nych
Ġ ÐµÐ¼
ĠÐ´ Ð¾Ð¶Ð´
ĠÑģÑĥÐ¼ Ð¼Ñĭ
ĠÐ² ÐºÑĥ
ĠÐ¿Ð¾Ð´ ÑĥÐ¼
ĠÐ¿Ð¾ÑıÐ²Ð»Ñı ÐµÑĤÑģÑı
ĠÑģÐ¾Ð± ÑĢÐ°Ð½Ð
Ġza ch
de j
ĠÑĥÑĩÐ¸ÑĤ ÑĭÐ²Ð°ÑĤÑĮ
ni i
ĠÑĥÑģÐ¿ ÐµÑħ
ĠÐ²Ð°ÑĪ Ð¸Ñħ
ĠÐ½Ð°Ð· ÑĭÐ²Ð°ÑİÑĤ
ĠÐ¿Ð¾Ñģ ÐµÐ»
f o
ch e
ĠD la
Ġu sÅĤu
ÑĢÐ°Ð»ÑĮ Ð½ÑĭÐ¹
ÑĪ ÐµÑģÑĤÐ²
ĠÑģ Ð½Ð°
ĠÐ°Ñĥ Ð´Ð¸
ĠÑı Ð±Ð»
Ð¾Ð» ÐµÑĤ
ĠÐ´Ð°Ð² Ð»ÐµÐ½Ð¸Ñı
ĠÑģÐ¾ÑĤÑĢÑĥÐ´ Ð½Ð¸Ñ
ĠÐºÐ°Ð¶Ð´ Ð¾Ð¼
ĠÑĥÐ½Ð¸Ð² ÐµÑĢÑģ
ĠÐ¿Ð¾Ð»ÑĮÐ·Ð¾Ð² Ð°ÑĤÑĮÑģÑı
ĠI I
ĠÑĩÐ ¸ÑĤÐ°ÑĤ
ĠÐ¼ ÐµÑĢÑĭ
ĠÐ¾Ð±Ð¾Ð· Ð½Ð°Ñĩ
Ð¾ÑĢ Ð¾Ð³
ce n
Ġza le
ÑĥÑģÑĤ Ñı
ĠÐ¸ÑģÑĩ ÐµÐ·
ÐĽ Ð¬
Ġk re
ĠÐ¿ÑĢÐµÐ¿Ð° ÑĢÐ°ÑĤÐ°
ĠÐ½Ð°Ð¿ÑĢÐ°Ð² Ð»ÐµÐ½Ð¸Ñı
ĠÐ½Ð°Ð ¼Ð¸
Ð°ÑĤ ÐµÐ»Ñİ
ĠÑģÐ µÑĢÐµÐ´
cz ki
ĠÐ³Ð¾ÑģÑĥÐ´Ð°ÑĢÑģÑĤÐ² ÐµÐ½Ð½Ð¾Ð¹
Ð ½ÑİÑİ
ĠÑĤÐ² ÐµÑĢÐ´
ĠÐ½ÐµÐ´ ÐµÐ»ÑĮ
ĠÐ´Ð°Ð² Ð»ÐµÐ½Ð¸Ðµ
wÃ³ j
2 8
ĨÐ¸Ð¾Ð½Ð ½ÑĭÑħ
½ÑĥÐ» ÑģÑı
or u
ĠÐ± ÑĥÑħ
ĠÐ¾Ñģ Ð»Ð¾Ð¶
ĠÐ²Ð¿ ÐµÑĢÐ²ÑĭÐµ
ĠÑĤÐ²Ð¾ÑĢ ÑĩÐµÑģ
ĠÐ»ÑĥÑĩ ÑĪÐ¸Ðµ
owa nych
Ġni ch
ĠÐ¸Ð· Ð¼ÐµÑĢ
ĠÐ¿Ð¾Ðº Ð°Ð·ÑĭÐ²
ĠÐŀ ÑĢ
ro id
Ġko bie
ĠÐ´ Ð°ÑĤ
ĠÐł Ð°ÑģÑģ
ĠÐºÐ¾ÑĤÐ¾ÑĢ Ð¾Ð¼Ñĥ
ĠÑįÐ½ÐµÑĢÐ³ Ð¸Ð¸
A R
ĠÐ¿Ð¾Ñģ ÑĢÐµÐ´
Ġs i
ÑĤÑı Ð¼
ĠÐ¿ Ð¸ÑīÐ¸
ĠÐ³ÑĢÐ°Ð´ ÑĥÑģÐ¾Ð²
ĠÐ¾Ð±Ñī ÐµÐ¼
ĠÑĤÐµÐ¼Ð¿ÐµÑĢÐ°ÑĤÑĥ ÑĢÐ°
ĠÐ¼Ð°Ð» Ñĭ
ÑĮ Ð¼Ð¸
ĠC a
Ð¸Ð² Ð°Ð»
ÑĤÐ¾ÑĢ Ð¾Ð¶
ĠÐ¸Ð³ ÑĢÑĥÑĪ
Ð¸Ð½ÐµÐ½Ð ¸Ðµ
Ð» ÐµÐ½Ð½Ð¾Ð¹
Ġg dzie
Ġkil ka
Ġ >
ĠÐ´ÐµÑĤ Ð°Ð»Ð¸
ĠÑĦ Ð¾Ð½Ð´
Ð¾ÑĢÐ °Ñĩ
Ð°ÑİÑī Ð¸Ð¼Ð¸
cz na
ÐµÑĢÐ°Ñ ħ
ĠÐ¾Ð±Ñī ÐµÑģÑĤÐ²Ð°
Ġau to
ĠÑģÐµÑĢÐ´ ÑĨÐ°
ĠÐĵ Ð
ĠÐ¿Ð¾Ñħ Ð¾Ð¶
ĠÐ°Ð½Ð°Ð» Ð¾Ð³Ð¸Ñĩ
ĠÑĩ ÐµÑģ
ĠÐĺ Ð½Ð
Ġa t
ÑĢÐ¾Ð ºÐ¸
ĠÑĤ Ð¾Ð²Ð°ÑĢÐ
ĠÐ½ÑĥÐ¶ ÐµÐ½
Ðº Ð¸Ð½
ĠÐ²ÑĭÐ¿Ð¾Ð»Ð½Ñı ÑĤÑĮ
ĠÐ²Ð¾Ð·Ð´ ÑĥÑĪ
ĠÐ²ÐµÐ½ ÑĤÐ¸Ð»
ĠJ ed
ĠÐĴ Ð¼ÐµÑģ
Ġ20 22
ÑĤÐµÑĢ Ð½Ð°
ĠÐ¸Ð· Ð»
ĠÐ¿ÑĢÐ¾Ñģ ÑĤÐ¸ÑĤÑĥ
ĠÐĺÐ½ÑĤÐµÑĢ Ð½ÐµÑĤ
ĠÑĤ ÐµÐ¼Ñĥ
ĠÑģÐ» Ð¸Ð²
¸ ÑĢÐ°
ĠÐºÐ°Ðº Ð¾Ðµ
Ð¾Ð¼ Ð¿
ĠÑģÐ¾Ðº ÑĢÐ°Ñī
Ð¸Ð´Ð °
Ð¾ÑĢ ÑĤÐ¸Ð¼
ĠÑĢ Ñı
ĠÐ´ Ð¸Ð½Ð°Ð¼
ĠÐ½Ð µÑĩ
ĠÐĳ ÐµÑģÐ¿
dz in
ÑĢ Ð¸Ð¿
ĠÑĢÐ°ÑģÑģÐº Ð°Ð·ÑĭÐ²
ĠÐ¼ Ð»Ð°Ð´
am iÄĻ
ĠÑĢÐ¸Ñģ ÑĥÐ½Ð
ĠÑıÐ· ÑĭÐº
ĠÑģÑĥÐ¼ Ð¼Ð°
ĠÐ¿Ð»Ð¾Ñī Ð°Ð´Ð¸
ĠÑĪÐº Ð°ÑĦ
ĠÐŁÑĢ Ð¸Ð²
Ġinter net
ĠÐ² ÑħÐ¾Ð´Ð¸ÑĤ
ĠÐ¾Ð¿Ð» Ð°ÑĤÑĭ
ĠÐ¼Ð° ÑĤÐµÑĢ
ĠÑĢÐµÑĪ Ð¸ÑĤÑĮ
Ð¾Ð½Ð °Ñĩ
Ġzd r
ĠÑĤÐ°Ð± Ð»
ĠÐ¿ÑĢÐ°Ð² Ð¸ÑĤÐµÐ»ÑĮ
* *
w sze
ĠÐº Ð¾Ð²
ĠÑģÐ¿Ð¾ÑģÐ¾Ð±ÑģÑĤÐ² ÑĥÐµÑĤ
ÐµÐ½Ð°Ð ¼Ð¸
ĠÐ²ÐµÑģ Ð
Ġna m
Ð¸Ð± Ð»Ð¸Ð
Ð½Ð¸ÑĨ Ñĥ
ĠÐ¿ Ð¾Ð
¸Ñ Ħ
ĠÐ¿Ð¾Ð· Ð½Ð°ÐºÐ¾Ð¼
Ð°Ð¸Ð½ ÑĤÐµÑĢÐµÑģ
% ,
ĠÑģÐ² ÐµÐ´ÐµÐ½Ð¸Ñı
ĠÐ·Ð°ÑıÐ² Ð»ÐµÐ½Ð¸Ñı
ĠÐ£ Ð²
ez pie
Ġk ar
ĠÑĩ ÐµÐ¼Ñĥ
ĠÐ¿Ð°ÑĢÐ°Ð¼ ÐµÑĤ
ĠÐ¼Ñĭ ÑģÐ»
owa na
Ġsz e
st Äħ
ĠÑģ ÑĤÐ¸Ñħ
Ð¾Ð² Ð°ÑĤÑĮÑģÑı
ĠÐ°Ð²Ð ¸
Ð»Ð° ÑĤÐ¸ÑĤÑĮ
ĠÑĢÐ°ÑģÐ¿ ÑĢÐµÐ´ÐµÐ»
ĠÑģÑĤ ÑĢÐ°ÑĪ
ĠÐ¾ÑĦÐ¾ÑĢÐ¼ Ð¸ÑĤÑĮ
ĠÐ¿ÑĢÐ ¾ÑĤÐ
ĠÐ¿Ð» Ð¾ÑħÐ¾
ĠÐ¼ Ð°Ð¹
Ġ15 0
ĠÐ¿Ð¾Ñģ Ð¾Ð±
ĠÐ²Ð°ÑĢÐ¸Ð°Ð½ ÑĤÐ¾Ð²
ĠÑĩÐµÐ»Ð¾Ð²ÐµÐº Ñĥ
Ð°Ð» Ð¸Ð´
ĠÐ½Ð° ÑĢÑĥÐ¶
³Ð¾ ÑĢÐ¾Ð´
ĨÐ¸Ð¾Ð½Ð ½Ð¾Ð³Ð¾
ĠÐ¾ÑĢÐ³Ð°Ð½Ð¸Ð· Ð°ÑĨÐ¸Ð¹
ĠÐ´ Ð°ÑİÑĤ
ĠÐ¾ÑĤÐ²ÐµÑĤÑģÑĤÐ² ÐµÐ½Ð½Ð¾ÑģÑĤÐ¸
ĠÑģÐ¼Ð¾Ð³ ÑĥÑĤ
ĠÐ¶ Ð¸ÑĤÐµÐ»ÐµÐ¹
ÐµÐ¶Ð ¸
ĠÐ¿Ð ¸
Ð± Ð¾Ð»
Ð°Ð½Ð ºÐ¸
ĠÐ¿ÐµÑĢÐµÐ² Ð¾Ð·
ĠÐ±ÑĢÐ° ÑĥÐ·
ÐµÐ½Ð µÑĢÐ
tu a
ĠÐ¼Ð°Ð³Ð°Ð· Ð¸Ð½
ĠÑĥ Ð½Ð¸ÑĩÑĤÐ¾Ð¶
ĠÐ»ÑİÐ± Ð¾Ðµ
ĠÐĿÑĥÐ¶ Ð½Ð¾
ĠÑģÑĢÐ°Ð² Ð½ÐµÐ½Ð¸Ñİ
ĠÐ¿ÑĢÐ¾Ð¿ Ð¸Ñģ
ĠÐ¿Ð¾Ð»Ð µ
ĠÐ¸ÑģÑĤÐ¾ÑĢÐ ¸Ñı
Ð½Ð¾Ð² ÑĮ
ĠÐ½ÑĥÐ¶ Ð½Ñĭ
ĠÐ¾Ð¿ ÑĥÐ±Ð»Ð¸ÐºÐ¾Ð²
ĠÐ¿Ð¾ÑģÑĤÐ°Ð² Ð¸ÑĤÑĮ
Ġprzypad ku
ĠÐ´ÐµÑĤ ÑıÐ¼
ÐµÑĢ ÐºÐ
ÑĢÐ°Ð½ÐµÐ½Ð ¸Ðµ
Ġm nie
ĠÐ±ÑĥÐºÐ¼ÐµÐºÐ µÑĢ
t ku
v o
ĠÑĤ ÑĢÐµ
ĠÑĥÐ± ÐµÐ´
ĠÐºÐ²Ð°ÑĢÑĤÐ¸ ÑĢÐµ
ĠÐ¾ÑĢÐ³Ð°Ð½Ð¸Ð· Ð¼Ðµ
Ð½Ð°Ð »ÑĮ
ĠÐ¾Ð±ÑĬÐµÐº ÑĤÐ¾Ð²
ĠÐĲ Ð»ÑĮ
cz ni
ÐµÐ² Ð°Ñı
ĠÐºÐ¾ÑĤÐ¾ÑĢ ÑĭÐ¼Ð¸
ĠÐ´ÐµÑĢÐµÐ²Ð °
Ñī Ð¸ÐºÐ¾Ð²
ĠÐ°ÑĢÑħ Ð¸ÑĤÐµÐº
ĠÐ² Ð¿ÐµÑĢÐµÐ´
ÑħÐ ¸
ĠÐ½Ð°Ñģ ÐºÐ¾Ð»ÑĮÐºÐ¾
ÑĨ Ð°ÑĤÑĮ
ĠÐĶ ÐµÐ½ÑĮ
ĠÐ·Ð´ Ð°Ð½Ð¸Ñı
± Ð
ĠÐ¡ Ð¾Ð´ÐµÑĢÐ¶
ĠÐ¾ÑĦ Ð¸Ñģ
ĠÐ¸Ð½ÑĤ ÐµÐ½ÑģÐ¸Ð²
ĠÐ¸Ð³ ÑĢÑĥ
ĠÐ¦ ÐµÐ½Ð°
Ð¾Ð» Ð¾Ð³Ð¸
ĠÐ¾Ñģ Ð½Ð°Ñī
ĠÐ¾Ð±Ñī ÐµÐ¹
ĠÐ² Ð¾Ð´Ðµ
ĠÐº Ð°Ð»ÑĮ
ÑĪ Ð¸Ð¼Ð¸
ĠÐ°Ð²ÑĤÐ¾Ð¼Ð¾Ð±Ð¸Ð» ÐµÐ¹
Ð² Ð¸Ð½
ĠÐĺÑģÐ¿ Ð¾Ð»ÑĮÐ·
Ġmu si
Ñİ Ð¼
ĠÑı Ð´
Ð¿ Ð¾Ð½
ÑĤÐ² Ð
ĠÑħ Ð²
Ð¸ÑĨ ÐµÐ¹
Ð¾Ð½ÑĤ Ð°Ðº
ww w
ĠktÃ³ rzy
ÑĤÐ¾ÑıÐ½Ð ¸Ðµ
ÑĨ ÐµÐ½ÑĤ
Ġp ar
ĠÐ² ÑıÐ·
ĠÑĤÐ¾Ð¿ Ð»Ð¸Ð²Ð
ĠÐ·Ð½Ð°Ð½Ð ¸Ñı
ru d
ĠÑĦÑĥÐ½ÐºÑ ĨÐ¸Ð¾Ð½Ð°Ð»ÑĮ
ĠÐ½ÐµÑģ Ð¼Ð¾ÑĤÑĢÑı
Ð¾Ð»Ð¾Ð³Ð¸ÑĩÐµÑģÐº Ð¸Ðµ
ĠÐ½ÐµÐ ¸Ñģ
ÑĦÐ °
Ñ ĨÐ¸
ĠkaÅ¼ dy
ma ch
ĠÑĢÐµÑĪ Ð¸Ð»Ð¸
ro n
Ġdz i
ÑĢ Ð¸Ð
ĠÐĶ Ð°Ð²
ÑĥÐ» ÐºÐ°Ð½
Ġo ko
Ġt re
Ð½Ð¸Ð ¼Ð¸
ĠÐ¼Ð¾Ð¶ ÐµÐ¼
Ġ cy
ÑĢ ÑĥÑĤ
Ð¾Ð½Ð ½Ð¾Ð¹
ÑĤÐ¸Ð» ÑģÑı
Ð¼Ð ½Ð¾Ð¶
la n
ĠÑĢÐ°Ð±Ð¾ÑĤÐ½Ð ¸Ðº
ĠÐ²Ð¸Ð´ Ñĥ
ĠÐ¿Ð¾Ð» Ð½Ð¾Ð¹
pis a
b ar
Ð² Ñĥ
ĠÐ¿ÑĢÐ¾Ð³Ð ½Ð¾Ð·
ĠÐºÑĢÐ°Ð¹ Ð½Ðµ
Ð°Ð·Ð°Ð» Ð¾ÑģÑĮ
ĠÐ¿ Ð¾Ñį
Ġje ÅĽli
ĠÐ¼ Ð¸Ñģ
ĠÐ´Ð¾Ð¿Ð¾Ð»Ð½Ð¸ÑĤÐµÐ»ÑĮ Ð½ÑĭÐµ
Ðº Ð°Ð·
ĠÑģ Ð»Ð¾
Ġsy stem
ĠÐ¿ Ð»Ñı
ĠÐ³ÑĢ ÑıÐ·
ĠÐº Ð¸ÑĤÐ°Ð¹
ĠÑģÑĩÐ¸ÑĤÐ°Ñ İÑĤ
ĠÐ¸Ð ´Ðµ
ĠÐ¸Ð½ ÑĤÐ¸Ð¼
ĠÐ¾Ð± ÑģÐ»ÐµÐ´
ĠÐ°ÐºÐºÑĥ Ð¼ÑĥÐ»Ñı
ĠW e
bie ra
ĠwÅĤa s
Ð¾Ñĩ Ð½Ð¾Ð³Ð¾
ÑĭÐ² Ð°ÑĤÑĮÑģÑı
ĠÐ¿ÑĢÐ¸Ð¼ÐµÐ½ÐµÐ½Ð ¸Ðµ
z d
ĠS p
ĠÐ¿ÑĢÐµÐ´ÑĭÐ´ ÑĥÑī
ĠÑħ Ð²Ð°ÑĤ
Ð¾Ð¹Ð´ ÑĥÑĤ
ĠÐ²ÑĢÐ°ÑĩÐ °
ÑĢÐµÐ ·Ð²
ÐµÐ· Ð
ĠÑĥÑĩÐ°Ñģ ÑĤÐºÐ°
ð Ł
Ġpow in
ĠÐ¿ÑĢÐ¾Ñ īÐµ
ÑĢ Ð¸Ð²
ÑĥÑİÑī ÐµÐ¹
ÑĢ ÑıÐ·
Ġko ÅĦ
na l
ĠÑģÐ² ÐµÑĤÐ°
Ñĥ ÑĤÐ¾Ñĩ
ĠÑĤ ÐµÐºÑģ
ĠÐ¾ÑģÐ½Ð¾Ð² Ð°Ð½Ð¸Ñı
Ġ Ð¹
ĠÐ²Ð¸Ð· Ñĥ
° ÑĢÐ°Ð±
ĠÐ½ÑĥÐ¶ Ð½Ð°
ĠÐ·Ð² Ð¾Ð½Ð
Ð¾Ð¸Ð ·Ð²
Ð¾Ð ¾ÑĢÑĥÐ¶
. |
ÑĮ ÐµÐ²
ĠÑĦ Ð¾Ð½Ðµ
ĠÐļÐ ¾
ĠÐºÐ²Ð°ÑĢÑĤÐ¸ ÑĢÑĥ
ĠÑģÐ¼ ÑĭÑģÐ»
µÑĤ Ñĭ
Ð¿ Ð¾Ð»
Ġpo siada
ĠÐĹ ÐµÐ¼
ta mi
Ġb ra
Ðł Ðĺ
ĠÐ¿Ð¾Ð´ Ð¾Ð¹Ð´ÐµÑĤ
¸ÑĤ ÑģÑı
ĠÐŀ Ð³
ĠÑģ Ð¸Ñħ
ĠC i
ĠÑĤ ÑĥÐ´Ð°
ÑĤÐº Ð°Ð¼Ð¸
Ġ Ð°Ð½Ð°Ð
ÑĥÑģÑĤ ÑĢÐ¾Ð¹
ÑĪ Ð¸ÐµÑģÑı
º Ð°Ñħ
ĠÑģÐ¿ Ð¾ÑģÐ¾Ð±Ñĭ
ch i
ĠÐ¿ÑĢÐ¸Ð½ÑĨÐ¸Ð¿ Ð
ĠÐ¼ÐµÐ½ÐµÐ ´Ð¶
ĠÐ¿ÑĢÐµÐ´Ð»Ð¾Ð¶ ÐµÐ½Ð¸Ñı
ÑĢ ÐµÐ½Ð¸Ðµ
ĠÐ¶ÐµÑģ ÑĤÐº
ĠÐºÐ¾Ð¼Ð¿ÑĮÑİ ÑĤÐµÑĢÐ
ĠÑĥ Ð²ÐµÑĢÐµÐ
¸ ÐµÐ¹
ĠÐ½Ð¾Ð² ÑĥÑİ
Ð¾ÑĤÐ µÑĩ
Ð°ÑİÑīÐ¸Ñħ ÑģÑı
ĠÐľ ÑĥÐ¶
ÑĤÐ¸Ð²Ð °
ĠÑģÐ¾Ð¾Ð±Ñī Ð¸Ð»
ĠÐ² ÐµÐº
ĠÑģ ÐºÐ¾ÑĢ
ÐĽ ÐĲ
Ð°Ð½ ÑĤÑĭ
k ar
d er
Ð°ÑĤÐµÐ»ÑĮ Ð½Ð¾Ð¹
ĠÐ¼Ð¾ÐµÐ ¹
ÐºÐ° ÑĤÐµÑĢ
ĠÑģ Ð¾Ð»ÑĮ
ĠÑģÐ¿Ð¾ÑģÐ¾Ð± Ð¾Ð²
ÑĤÐ¸Ñģ ÑĮ
ĠÑħÐ ¸ÑĢÑĥ
ĠÑģÐ»ÐµÐ´ÑĥÑİÑī Ð¸Ð¹
ĠÐ¿Ð°ÑĢÑĤÐ½Ð µÑĢ
ĠÐ¿ÑĢÐµÐ´Ñģ ÐµÐ´
ĠÐ¿Ð¾Ð»ÑĥÑĩ Ð¸Ð»Ð¸
ÐµÑģ ÑĤÐ¸Ð²
ĠÐ¿ÐµÑĢÐµÐ ¹
ĠÑģÐ¿ÐµÑĨÐ¸Ð°Ð»ÑĮ Ð½ÑĭÐµ
ĠÐ· Ð°Ð¸Ð½ÑĤÐµÑĢÐµÑģ
ĠA d
ĠÐ°Ðº ÑĨÐ¸Ð¸
ĠE uro
ĠÐ¿Ð¾Ð² Ð¾Ð´Ñĥ
ĠÑĢÐµÐ´ ÐºÐ¾
ÑĢÑı Ñģ
ĠÐ¾ÑĤ ÑĢÐ¸ÑĨ
ĠÐ¿Ð¾ÑģÑĤ ÑĢÐ°Ð´
ÑĢÐ¾Ð ¸ÑĤÑĮ
ĠÐ¿ÑĢÐ¸Ð»Ð¾Ð¶ ÐµÐ½Ð¸Ðµ
ĠÐ¿ÑĢÐ¸Ð³Ð¾ÑĤÐ¾Ð² Ð¸ÑĤÑĮ
0 2
Ð°Ñ ĳÑĤ
ĠÐ´ Ð¸ÑģÑĤ
ĠÐ¿ÑĢÐ¾Ð´ Ð°Ð¶
ĠÐ±Ð °ÑĤÐ°
ow ni
ĠÑģÐ¾Ð± Ð°Ðº
ĠÐ¿Ð¾Ð»ÑĮÐ· Ñĥ
ĠÐ¢ ÑĥÑĢ
ĠÐĿ Ð°Ðº
Ġte le
ÑĤÐ¸Ð² Ñĭ
ĠÐ¸Ð·Ð¼ ÐµÐ½Ð¸ÑĤÑĮ
ÐĿÐ «
ĠÐ½Ð°Ð¿ Ð¾Ð¼
ĠÐ¾ÑĢÐ³ Ð°Ð½Ñĭ
ĠÑģÐ¼ ÐµÑģÑĮ
Ġspo tka
ĠÐ¿Ð¾ÑıÐ² Ð»ÐµÐ½Ð¸Ñı
ĠÑģÑĥÐ± ÑĬÐµÐº
0 7
ĠÑįÑĤÐ°Ð¿Ð µ
p rowa
5 5
ĠÑģÐ¾Ñ Ĩ
ÑĤÐ¸Ñĩ Ð½Ð¾
Ð¸ÑĨ Ð¸Ñİ
ĠÐ² Ð½Ð¾Ð²ÑĮ
ĠÐ¿ÑĢÐ¸Ñĩ Ð¸Ð½Ðµ
ĠÐ²Ð½ÐµÐ ´
ma n
ĠÑģÑĢÐ¾Ð ºÐ°
ĠÐ· ÑĢÐµÐ»
ĠÑģÐ¿ Ð¸ÑĢ
ĠÐ½Ð°ÑĩÐ¸Ð½Ð°Ñ İÑĤ
ĠÑģ Ð³
Ð¾ÑĢÐ ¼Ð¸
I E
ĠÐ¿ÑĢÐ¾Ð²ÐµÑĢ ÐºÐ¸
ĠÐ´ÐµÐ²ÑĥÑĪ ÐµÐº
Ð¾Ð² Ð°Ð½Ð¸Ð¸
Ġ19 8
Ġ ciÄħ
ĠÑĢÐ°ÑģÑĤ ÐµÐ½Ð¸Ðµ
ÐĲ Ðŀ
ÑĩÐ µÑĤÐ°
Ġprzy got
ĠT y
ĠÐ» Ð°Ð¼Ð¿
Ð¸ÑĦ Ð¸ÑĨÐ¸ÑĢÐ¾Ð²
sz cza
ĠÐļÐ¾Ð¼Ð¿ Ð°Ð½Ð¸Ñı
ĠÐ¿ÑĢÐ¸Ð±Ñĭ Ð»ÑĮ
ĠÑĤÑĢÑĥÐ´ Ð½Ð¾
ĠÑģÑĩÐ°Ñģ ÑĤÐ»Ð¸Ð²
ĠÐ¾Ð±ÑĢÐ°Ð· Ð¾Ð²Ð°ÑĤÐµÐ»ÑĮ
ĠÑģÑĥÐ´ ÑĮ
s ku
ĠÐ±ÑĢ ÐµÐ½Ð´
ĠÑģÐ¾Ð´ÐµÑĢÐ¶ Ð°Ð½Ð¸Ðµ
Ġz mia
Ġwsp Ã³ÅĤ
ĠÑĦÐ°Ðº ÑĤÐ¾ÑĢÐ¾Ð²
ĠÐŀ ÑĢÐ³
ĠÐĹ Ð°Ð´
wa nie
1 00
ĠÐ³ Ð»Ð°Ð´
ĠÐŀÑĤÐ ´
Ġnaj lep
ĠÐ²ÑĭÐ² Ð¾Ð´
ĠN e
Ġ201 1
ÅĦst wa
3 3
ĠÐ¿ÑĢÐ¾ÑģÑĤÑĢÐ°Ð½ ÑģÑĤÐ²Ð¾
ĠÐĹ Ð°Ð²
ĠÐ¿Ð¾ÐºÑĥÐ¿ ÐºÐ¸
ĠÑģÐ¾Ñħ ÑĢÐ°Ð½Ð¸ÑĤÑĮ
ĠÐ¿ÑĢÐ¾Ð±Ð» ÐµÐ¼Ñĥ
ÑĤÐ¸Ð² Ð½Ð¾Ðµ
gl ÄĻ
ĠÐ²Ð¾Ð·ÑĢÐ°Ñģ Ñ
ĠÐ¼Ð» ÑĢÐ´
ĠÑģÐº Ð°Ñĩ
ĠÐ¿ÑĢÐ¾ÑĨ ÐµÐ½ÑĤÐ¾Ð²
I N
ĠÐ¿Ð¸ÑģÑĮ Ð¼
ĠÐºÐ¾Ð½ÑĤ ÑĢÐ°Ðº
ĠÐŀÑĤÐ »Ð¸Ñĩ
ĠÐ³ ÑĢÐ¾Ð¼
ĠÐ¿ÑĢÐ¸Ð½Ð ¾Ñģ
Ð°ÑĢÐ ´
ĠÐµÐ´ Ð¸Ð½Ð
ĠÐ¡ÑĤ Ð¾Ð¸ÑĤ
Ñĥ Ð³Ð°
ĠÑģÑĤÑĢÐ°Ð½Ð ¸ÑĨÐµ
ĠÐ¿Ð°ÑĨÐ¸ ÐµÐ½ÑĤÐ¾Ð²
ĠÐĲ Ð±
du je
Ġz mie
ÑĥÑģ Ñĭ
ĠÐ¿Ð¾Ð»ÑĥÑĩ Ð¸ÑĤÑģÑı
Ð»Ðµ ÑĤÐºÐ¸
Ð¸Ð±Ð»Ð¸Ð ¾ÑĤ
ĠÐ¿Ð¾Ð» Ð½Ð¾ÑĨ
ĠÐ²Ð¾Ð·ÑĢÐ°ÑģÑ Ĥ
ĠÑģÑĤÐ°Ð½Ð¾Ð² ÑıÑĤÑģÑı
ĠÐ½Ð¾Ð² Ð¾ÑģÑĤÐ¸
t ÄĻ
ÑĤÐ¸ ÑĢÑĥÐµÑĤ
ĠÐ¿ ÑĥÑģÑĤ
ĠÑĢÐµÐ³Ð¸ Ð¾Ð½Ð°
Ġ Ð»ÐµÑĤÐ½Ð
Ġwa Å¼
ĠÐ¿ÐµÐ´ Ð°Ð³
ĠÐºÐ¾Ñģ Ð¼Ðµ
ĠÐ¾Ð±Ð»ÐµÐ³ Ñĩ
ĠÑĥ Ð´ÐµÐ»
Ð¾Ð¿ Ñĭ
ĠÐ¼Ð°Ð³Ð°Ð· Ð¸Ð½Ðµ
Ð°Ð½Ð°Ð ¼Ð¸
Ġst ra
ĠS a
s ce
Ð¸Ð °ÑĤÐ¸Ð²
ĠÐĿ Ð°Ð·
ĠÑĥÑĩÐ°ÑģÑĤÐ½Ð ¸Ðº
Ġdz iÄĻki
ĠÐ¸ÑģÑĤÐ¾ÑĢÐ ¸ÑĩÐµÑģÐº
ÑĭÐ² Ð°Ð»Ð¸
ĠÐ² Ð»Ð¾Ð¶
2 9
ÐµÐ²Ð ¾
ĠÐ¿Ð¾ÑģÐµ ÑĤÐ¸ÑĤ
ĠÐ½Ð¾Ð² Ð¾Ðµ
ÐµÐ½Ñ ĨÐ¸Ð¸
ĠÑģÐ¾ÑĨÐ¸Ð°Ð»ÑĮ Ð½ÑĭÑħ
ĠÐŁÐµÑĢÐ² ÑĭÐ¹
ĠÐ²Ñĭ ÑģÐº
ĠÐ¼Ð°Ñģ ÑģÐ¾Ð²
ÑĢÐ ½
ÐµÑĢÐ ½ÑĭÐ¹
ĠÐ±Ñĭ ÑĤÐ¾Ð²
ĠÐºÐ»Ð°Ñģ ÑģÐ°
as ino
Ðķ ÐĿ
ĠÐ¸Ð½Ð ¶
ĠÑĤÐº Ð°Ð½Ð
ĠÐ½Ð°ÑģÑĤ Ð¾Ð»ÑĮÐºÐ¾
ĠÑįÐºÑģÐ¿ÐµÑĢ Ð¸Ð¼
Ð°Ð¶ ÐµÑĤ
ĠÐ²Ð¾Ð·Ð´ ÐµÐ¹ÑģÑĤÐ²Ð¸Ñı
ĠÐ²Ð»Ð¸Ñı Ð½Ð¸Ðµ
ĠÐ¿ÑĢÐ¸Ð³ Ð»Ð°ÑĪ
l d
ĠÑħÐ¾ÑĤ ÑıÑĤ
ĠÑģÑĩÐ¸ÑĤ Ð°ÐµÑĤ
Ð¾ÑĢÐ ½Ð¾Ð¹
ĠÐĲÐ ½
Ġta kie
Ð¸ÑĤÐµÐ»ÑĮ Ð½Ð°Ñı
ÑĥÐ³ Ð¾Ð»ÑĮ
ĠÐ¿ÑĢÐµÐºÑĢÐ°Ñģ Ð½Ð¾
l Äħ
nÄħ Äĩ
ĠÑģÐ» Ð¾Ð²Ð¾
ÐµÐ½Ð ½
ĠÐ¿ÑĢÐ¾ÑĦÐµÑģÑģÐ¸ Ð¾Ð½Ð°Ð»
w u
ĠÐ°Ð½ÑĤÐ¸Ð ±
ĠÐĶ Ð²
ĠÑĢÐ°ÑģÑģÐº Ð°Ð·Ð°Ð»
ĠÐ·Ð°Ð² Ñ
½Ñĥ Ð²
ĠÐĲÐ² ÑĤÐ¾ÑĢ
Ġwie lu
ĠÐ·Ð°Ð²Ñ Ĥ
ÑĢ ÐµÐ½Ð½Ð
ÐµÐ»ÑĮ Ð½Ð¾Ð¹
ĠÐ¿ÑĢÐµÐ´ÑģÑĤÐ°Ð² Ð»ÐµÐ½Ñĭ
ĠÐ²ÑĭÐ¿Ð¾Ð» Ð½Ð¸ÑĤÑĮ
da w
Ġbar dziej
Ð¾Ð± Ð¾ÑĢÐ¾ÑĤ
ĠÑģÐµÐ¼ ÑĮÑı
Ð°ÑĢÑĤ Ð°Ð¼
ÑĢÐ¾Ð² Ð¾Ð¹
ĠÑģÑĩÐ ¸ÑĤÐ°ÑĤÑĮ
ĠÐŁÑĢÐµÐ´ ÑģÑĤÐ°Ð²
Ð½Ð°Ð ¶
ÑģÑĤÐ² ÐµÐ½Ð½ÑĭÐ¹
Ġk lien
Ì ģ
0 6
Ð¸ÑĩÐµÑģÐº ÑĥÑİ
ĠÐ±ÑĥÐ¼ Ð°Ð³Ð¸
Ġmiejs ce
ĠÐº ÑĢÑĥ
ĠÐ¾Ð±ÑĢÐ°Ð±Ð¾ÑĤÐ ºÐ¸
ÑĢÐ°Ð½Ð µ
wy k
ĠÑģÑĤÐ° ÑĤÐ¸Ñģ
Ðº Ð°Ðº
ĠÐ½Ð°Ðº Ð°Ð·
ĠÐķ Ð
ĠÐ²Ð² ÐµÐ´
ĠÐ³ÑĢÑĥÐ¿ Ð¿Ð°
ĠÐ¾ÑģÑĤÐ°Ð² Ð¸ÑĤÑĮ
Ð¾Ñį ÑĦÑĦ
ÐµÐ½Ð°Ð ¼
ĠÐ·Ð°Ðº Ð¾Ð½Ð°
ĠÐ¼Ð°ÑĢ ÐºÐ¸
ĠÑģÐ¾ÑĨÐ¸Ð°Ð»ÑĮ Ð½Ð¾Ð¹
Ð¾Ñĩ Ð½Ð¾
Ġkie dy
ĠÐ¼ÐµÑĤ Ð°Ð»
Ð °ÑĢÐ°
ĠS o
Ġp y
³Ð ¸Ñı
ĠÐļ Ð°ÑĤ
ĠÐ¸Ð½ÑĤÐµÑĢ Ð½ÐµÑĤÐµ
ĠÐ¾Ð±ÑĢÐ°Ð· Ð¾Ð²Ð°Ð½Ð¸Ðµ
Ġroz po
Ð¾Ñģ Ð¸Ð¿
ÑĢÐµÑģÑģ Ð¸Ð²
ÑıÑī ÐµÐ¹
ĠÐĽ ÐµÑĩÐµÐ½Ð¸Ðµ
ĠÐ±Ð¾Ð»ÑĮÑĪ Ð¾Ð³Ð¾
ÐµÐº ÑģÐ°
Ð» ÐµÐ½Ð½Ð¾Ð³Ð¾
Ġd nia
ĠÑģ ÑĥÑĤÐ¾Ðº
ĠÐ¿Ð¾Ð´ ÑĢÐ¾Ñģ
bi or
Ð ¸ÑĤÐµÑģÑĮ
ĠÑĦ Ð¾Ð½Ð
ĨÐ¸Ð¾Ð½Ð ½ÑĭÐµ
Ð¾ÑįÑĦÑĦ Ð¸ÑĨÐ¸
ĠÐ²ÑĭÐ± Ð¾ÑĢÐµ
ĠÑĦÐ¸Ð³ Ñĥ
ĠÑĢ ÑĭÐ½Ð¾Ðº
Ð¾ÐºÐ °ÑĢ
ÑĢÐ°Ð»ÑĮ Ð½Ð¾Ð³Ð¾
ĠÑĥÑĩÐ°Ñģ ÑĤÐ¾Ðº
ÐµÐ½ Ð¾Ð¼
ĠÐ½Ð°ÑĢÑĥÑĪ ÐµÐ½Ð¸Ðµ
ĠÑĦÐ ¸
ĠÑĤÐ¾Ð» ÑģÑĤ
ĠÐ¡ÑĤ Ð¾Ð¸Ð¼Ð¾ÑģÑĤÑĮ
ÑĤÐ¾ ÑĢÐ°Ð¼Ð¸
ĠÐ²Ð°ÑĪ ÐµÐ¼
Ð°Ð± Ð¾ÑĢÐ°
Ð¾Ð± Ð»
ĠÐ¿Ð¾Ð´ÑĢÐ°Ð· Ð´ÐµÐ»
ĠÐ¡Ð¿Ð°Ñģ Ð¸Ð±Ð¾
ĠÐ³Ð¾Ñģ Ð¿
ĠÑħÐ¾ÑĢÐ¾ÑĪ Ð¸Ð¹
ĠÑĢ Ð¾Ð´Ð°
ÑģÐ ¸ÑĤÐµ
ÅĤy m
Ð°Ð µ
Ð°ÑģÑĤ ÑĥÑİ
ĠM e
ÑĤÐ ½Ñĭ
ĠÑģÐ¼ ÑĭÑģ
Ġbez pie
ĠÑħÐ°ÑĢÐ°ÐºÑĤÐµÑĢÐ¸Ñģ ÑĤÐ¸Ðº
ĠÑĢÐµÐ³ÑĥÐ»Ñı ÑĢÐ½Ð¾
m niej
ĠÐ·Ð½Ð°Ñĩ ÐµÐ½Ð¸Ñı
ĠmiÄĻ dzy
ĠÐ½Ð°Ðº Ð¾Ð¿
Å¼e nia
ĠÐ·Ð°Ð½Ð¸Ð¼ Ð°ÐµÑĤ
ĠÐ¿ ÑĤÐ¸ÑĨ
¾Ñĩ Ð¸ÑģÐ»
Ð¾Ð¼ Ð½Ð¸Ð¼
Ð°Ð½ ÑģÐºÐ¾Ð¹
ĠÐ¤ ÑĢÐ°Ð½
ĠÐ´ÐµÑĪ ÐµÐ²
Ð± Ð¾Ð¹
ĠÐ¿ÑĢÐ¾Ð¸Ð·Ð² Ð¾Ð´Ð¸ÑĤÑģÑı
Ñĳ Ð·
Ð¾Ð½Ð ½Ð¾Ð³Ð¾
ĠÐ¡ ÑĥÐ´
ÑĢÐµÐ »Ð¸
ĠÐ°ÑģÑģ Ð¾ÑĢÑĤÐ¸Ð¼
ĠÑĤÐ¾ ÑĢÐ¼
ĠÐ²ÐµÑĢ ÑģÐ¸Ñı
ĠÐ±Ð ¾
ĠÐķÐ µ
ĠÐłÐ°Ð· Ð¼ÐµÑĢ
ĠÐ»ÑİÐ± ÑĭÑħ
ĠÑĩ ÑĥÐ´
ĠÐ¾ÑĤÐ²ÐµÑĤÑģÑĤÐ² ÐµÐ½Ð½Ð¾ÑģÑĤÑĮ
Ð¾Ð·Ð µ
ĠÐ¡ Ð¾Ð·Ð´
ĠÑĥÐ´Ð¾Ð± Ð½Ð¾
ĠB e
ĠÐł ÐµÑĪ
ĠÐ¶ÐµÐ» Ð°Ð½Ð¸Ðµ
jÄĻ cia
ĠÐ¸Ð·Ð³Ð¾ÑĤÐ¾Ð² Ð»ÐµÐ½Ð¸Ñı
ÐµÑģ ÑģÑĥ
ĠÑĤÐ¾Ð²Ð°ÑĢ Ñĭ
ĠÐ¿Ð¾Ð´Ð¾Ð± ÑĢÐ°ÑĤÑĮ
ĠÐĴ ÐµÑģ
Ġza p
ÑĢ ÑĥÑİÑĤ
Ġpo zy
ĠÐ¿ÐµÑĢÐµÑģÑ Ĥ
ĠÐ³Ð¾Ð»Ð¾Ð² Ñĭ
Ġ ÑĥÑī
Ð»Ð° ÑĤÐµ
ĠÑĢÐµÑĪ Ð¸Ð»
ĠÑĤ ÑĢÐ°Ðº
ĠÐŀÑģÐ¾Ð± ÐµÐ½Ð½Ð¾
ÑĭÐ² Ð°Ð½Ð¸Ðµ
ĠÐ¾ÑĤÐ »
Ð¿ ÐµÑĢÐ²
ĠÐ² ÑĢÑĥÑĩ
n owi
ĠÐ¿ÑĢÐ¾Ð¸Ð·Ð¾ÑĪ Ð»Ð¾
ĠÑģÑĤÐ°Ð´ Ð¸Ð¸
ĠÐ¶Ð¸Ð· Ð½ÐµÐ½Ð
ĠÑģÐ²Ð¸Ð´ÐµÑĤÐµÐ»ÑĮ ÑģÑĤÐ²
ĠÐ²Ð°ÑĪÐ µ
Ġko sz
ÑĤÐ¸ÑĩÐµÑģÐº Ð¸Ð¼
ÑĢÐ°Ñ İÑĤÑģÑı
b ezpie
ĠÐ¼ Ð³
ĠÐ½ÐµÐ¼ ÐµÑĨ
ĠÐ¾ÑĤÐºÑĢÑĭ ÑĤÑĮ
ĠW a
te d
Ġz da
ÅĤy ch
ĠÐ¿Ð¾Ð»ÑĥÑĩ Ð°ÐµÑĤ
ĠÐ²Ð»Ð¸Ñı ÐµÑĤ
Ġ201 0
ĠÐ²ÑĭÐ¿Ð» Ð°ÑĤÑĭ
Ġa n
ĠÐŁ Ð¾ÑģÑĤ
ĠG a
ĠÐ²Ð¾Ð² ÑģÐµ
ĠÐ´Ð¾ÑģÑĤ Ð¾Ð¸Ð½
ĠÑģÑĤÑĢÐ°Ð½Ð °Ñħ
ÑĢÐµÐ²Ð °
ĠÑģÑĤ ÑĥÐ¿
ĠN o
ĠÐ² Ð¾ÑģÑĤ
ĠÐºÐ¾Ð½ÑĤÑĢ Ð¾Ð»Ñı
ÐĴ Ðŀ
ĠÐ» Ð¸Ðº
ĠÐ¿Ð¾Ð´Ð³Ð¾ÑĤÐ¾Ð² ÐºÐ¸
ĠP ra
ĠÐ¾ÑĤÐ»Ð¸Ñĩ Ð°ÑİÑĤÑģÑı
st os
ĠÐ¿Ð¾ÑĤÐµÑĢ Ñı
ĠÐ¸Ð·Ð¼ÐµÐ½ÐµÐ½Ð ¸Ð¹
ĠÐº ÑĥÐ±
Ð¸ÑĤ ÐµÐ»ÐµÐ¼
ĠÐĵÐ¾Ñģ ÑĥÐ´Ð°ÑĢ
ĠÐ·Ð°Ð±Ð¾Ð»ÐµÐ² Ð°Ð½Ð¸Ðµ
ÑĤÐ¾ ÑĢÑĥ
ĠÐ¿Ð¾Ð½Ð°Ð´Ð¾Ð± Ð¸ÑĤÑģÑı
ci w
Ñģ Ð²
7 5
ĠÐ¿Ð¾ÑıÐ²Ð»Ñı ÑİÑĤÑģÑı
ĠÑĢÐ¾ÑģÑģÐ¸Ð¹ ÑģÐºÐ¸Ñħ
ĠktÃ³ry m
le r
ĠÑģÐ²ÑıÐ· Ð°Ð½Ð¾
ĠÐŁ Ð¾Ð·
ĠÐ¼Ð°Ð»Ñĭ ÑĪÐ°
ÑĢÑĭ ÑĪ
ĠÑģÐ¾Ð²ÑĢÐµÐ¼ ÐµÐ½Ð½ÑĭÑħ
ÑĤÐ¸ÑĢÐ¾Ð² Ð°Ð½Ð¸Ñı
ĠÐĴ Ð·
ÐµÐ· Ð´Ð°
0 9
Ð¡Ð¡ Ðł
ĠÑģÑĢÐµÐ´ÑģÑĤÐ² Ð°Ð¼Ð¸
ĠÐ·Ð°Ð¼ ÐµÑģ
ĠÑĩÐ°ÑģÑĤÑĮ Ñİ
¶Ð °
ĠÐ¿Ð¾Ðº Ð°Ð·ÑĭÐ²Ð°ÐµÑĤ
Ġpo nie
ĠÑĥ ÑĢÐ¾Ð¶
A T
Ð°ÐµÐ¼ ÑĭÐ¹
ĠÐº Ð¾Ðº
ĠÐ¸ÑģÐ¿Ð¾Ð» Ð½Ð¸ÑĤÐµÐ»ÑĮ
Ð¾Ð´Ð ¸ÑĤÐµ
ĠÐľ Ð°Ð¹
ĠÐ·Ð°Ð¿ Ð¸ÑģÐ¸
ĠÐ¿Ð¾Ð»ÑĥÑĩ ÐµÐ½Ð¸Ðµ
ĠÐĴÐ¸Ð´ ÐµÐ¾
ĠÐ¿ÑĢÐ¸Ð¼ÐµÐ½Ñı ÐµÑĤÑģÑı
ĠÑĦ Ð¸Ð»
ĠÑģÐ¸ÑĤÑĥ Ð°ÑĨÐ¸Ñİ
ĠÐºÐ°Ðº Ð°Ñı
ĠÐĿ Ð°Ð²
st or
ĠÐ¸Ð½Ð ¸ÑĨ
ĠÐŁ Ð°Ð²
¾ÑĢÐ ³
ĠÑĢÐµÑĨÐµÐ¿ Ñ
Ð¸ÑģÑĤ Ð¾Ð¹
ĠÅ ģ
ĠÐ·Ð½Ð°Ð µÑĤÐµ
Ġi s
ĠÐ¿Ð°ÑĨÐ¸ ÐµÐ½ÑĤÐ°
ĠÐĶ ÐµÑĤ
Ð°Ð» ÐºÐ¸
ÐµÐ ½ÑĭÐ¹
ĠÑĤÐµÐ °ÑĤ
ĠÐ±ÑĥÐ´ ÑĤÐ¾
ĠÐŁÑĢ Ð¾Ð¸Ð·Ð²
Ð°Ð¸Ð »
Ð¾ÑģÐ °
ĠÐ¼ÐµÐ± ÐµÐ»ÑĮ
Â °
ĠÐ´Ð¾ÐºÑĥÐ¼ ÐµÐ½ÑĤÐ°
ĠÐĽ Ñİ
ĠÐ²ÐµÑĢÐ¾Ñı ÑĤÐ½Ð¾ÑģÑĤÑĮ
ĠÐ½Ð°Ñĩ Ð°Ð»Ð¸
ĠÐ¸Ð º
ĠÑģÐµÑĢ Ð¸Ð¸
ÅĽ cia
ĠÐº ÑĢÐ°
ÐµÑĢÐ ½Ð¾Ð¹
ĠÑĢÐ¾Ð´Ð¸ÑĤ ÐµÐ»Ð¸
ĠÐŁÐ °
ĠÐ·Ð°Ð´ Ð°ÑĩÐ¸
ĠÐ¼Ð¸Ð»Ð»Ð¸ Ð¾Ð½Ð¾Ð²
ĠÐ¡ Ð´ÐµÐ»
ĠÑĢÐ°Ñģ ÑģÐ»
ĠÐ² ÐµÑģÑĤÐ¸
ÐµÑģÐ ¸
į Ðº
ob y
ci Äĩ
Ġwy maga
ĠÑĢÐ°ÑģÐ¿ Ð¾ÑĢ
ĠÑĪ Ð»
ĠÑĢÐ°Ð±Ð¾ÑĤ Ð¾Ð´
ĠÑģÑĢÐµÐ´ Ð½ÐµÐ¼
ĠÐ¿Ð¾Ð» Ñı
ĠÐ¼Ð ¾Ñı
ĠÐ¼ÑĭÑĪ ÑĨ
ĠÐ¾Ð± Ð¾ÑĢ
ĠÐ¿Ð¾Ð´Ñĩ ÐµÑĢÐºÐ
Ġ ci
Ð½Ð°Ð ¼
ĠÐºÐ½Ð¾Ð¿ ÐºÑĥ
ar e
Ã³ j
ro ni
ĠÑģÐµÐ¼ ÑĮÐµ
ĠÐ²Ð² ÐµÑĢÑħ
ĠÐ¿Ð¸Ñī ÐµÐ²
ĠÐľÐ° ÑĤÐµÑĢÐ¸
201 8
ĠÐļ Ð°Ð¼
ĠÐ¿ÑĢÐµÐ´ Ð¼ÐµÑĤ
ÑĥÑĢÐ ³
Ġ Ð¾Ð¼
ÑģÐ ½Ð¾Ð¹
ĠÐºÐ¾Ñģ Ð¼
ĠÐ± Ð¾Ð¹
Ð² ÐµÑĤÑĭ
ĠÑģÐ¾Ð¾ÑĤÐ²ÐµÑĤÑģÑĤÐ² ÐµÐ½Ð½Ð¾
Ð¢ Ðķ
9 5
ĠÑĨ ÐµÐ»ÐµÐ¹
ĠÐ²Ð¾Ð·Ð± ÑĥÐ¶Ð´
Ġb ie
Ġs ÅĤu
ĠÐ¼ÐµÑģ ÑĤÑĥ
ĠÐŁ ÑĢÐ¾ÑĦ
Ġma ter
ĠÐ½ÐµÐ´ Ð°Ð²Ð½Ð¾
Ġroz wiÄħza
ĠÐ°Ðº Ñģ
Ð¸ÑĦÐ¸Ðº Ð°ÑĨÐ¸Ð¸
ĠÑĤ Ñİ
ĠÐ½Ð°Ñģ ÑĭÑī
ÐµÑĢ ÐºÐ¾Ð²
ĠÑģ Ð¶
ĠÑĢÐ°Ð·Ð´ ÐµÐ»Ðµ
ĠÑģÐ¿ÐµÑĨÐ¸Ð°Ð»ÑĮ Ð½Ð¾
Ġh a
ĠÐĵÐ»Ð°Ð² Ð½Ð¾Ðµ
ĠÐ´Ð¾ÐºÑĥÐ¼ ÐµÐ½
ĠÐ·Ð½Ð°Ñ İÑĤ
ĠÑĨ ÐµÐ»ÑıÑħ
ĠÐ»ÑİÐ´ ÑĮÐ¼Ð¸
Ð°ÑİÑī ÑĥÑİ
ĠÐ¼Ð°Ñģ ÑĪÑĤ
ĠÐ¿ÑĢÐµÐ¿ ÑıÑĤ
ĠÐŁ Ð¾Ð±
ĠÐ¿ÑĢÐ¾Ñ Ĥ
ÐµÑĢÐ ½Ð¾Ð³Ð¾
ĠÑİ Ð±
Ðļ Ðĺ
ĠÐ±ÑĥÐ´ Ñĥ
Ð¾Ð½Ð ¸Ñı
ĠÐ²Ð· ÑĭÑģÐº
. :
ĠÐ¡ÑĥÑīÐµÑģÑĤÐ² ÑĥÐµÑĤ
Ð¾Ð¿Ð¾Ð» Ð¾Ð¶
k ro
ĠÐ°Ð´ Ð°Ð¿
ĠÐ¾Ñĩ ÐµÐ²Ð¸Ð´
ĠÑį Ñģ
ĠÐ°Ð²ÑĤ Ð¾Ð±
ĠÐ¾Ñģ Ð»
. ).
ĠÑģÑĩÐ µÑĤÐ°
Ġs ty
ÑĤÑı Ð¶
ĠÐ§Ð°Ñģ ÑĤÐ¾
ĠÐłÐ°Ñģ Ð¿
cze s
Ð¾ÑĢÐ ¾ÑĤÐ°
Ġro dzi
Ð¾Ð» ÑİÑ
ĠÐ± ÐµÐ³
ĠÑĢÐ°Ð±Ð¾Ñĩ Ð¸Ñħ
noÅĽci Äħ
Ð¾Ð´ Ð½Ð°Ñı
ĠÑĢÑĥ ÐºÐ°Ñħ
ĠÑħÐ°ÑĢÐ°ÐºÑĤÐµÑĢÐ °
Ð¼ ÑĥÐ½Ð
ĠÅĽ rod
ĠÑĤ ÐµÐ½Ð´
ĠÐ¾Ð± Ð¾Ð»
ĠÐ¿ÑĢÐ¾Ð¸Ð·Ð²Ð¾Ð´ ÑģÑĤÐ²Ð¾
ĠÐ¾Ð´ÐµÐ¶Ð´ Ñĭ
ĠÑĤÐµÑĢÐ°Ð¿ Ð¸Ð¸
le m
ĠÐ¾Ð± ÐµÑī
ĠwÅĤa ÅĽci
Ð¾Ð³ ÑĢÐ°Ð´
cy ch
ĠÐ·Ð´ ÑĢÐ°Ð²
Ñģ ÐºÐ¾
ĠÑĦ ÑĢÐ°Ð½ÑĨÑĥÐ·
ĠÐ¿ÑĢÐ¾Ð³ÑĢÐ°Ð¼ Ð¼Ñĥ
ĠÑĥÐ´ Ð¾ÑģÑĤÐ¾Ð²
ĠÐĲ Ð¼
Ð½Ð º
ÑĪ ÐµÐ¼Ñĥ
ĠÑģÐ² Ð¾Ñĳ
ĠÐ¿ Ð¾Ð¶Ð
w s
ĠÑģÐµÑĢÐ´ ÑĨÐµ
·Ð² ÐµÑģ
ĠÑģÐ»ÐµÐ´ÑĥÑİÑī Ð¸Ñħ
Ġch ce
Ð½Ð¾Ñģ ÑĤÑıÐ¼Ð¸
ĠÐľ Ð°Ðº
ĠÐ·Ð°Ð¿ Ð¾Ð»
ĠÐºÑĢÑĥÐ¿ Ð½ÑĭÑħ
ĠÐ²ÐµÐ´ ÑĥÑī
ĠÐ¼ Ð½ÐµÐ½Ð¸Ðµ
ĠÑıÐ·Ñĭ ÐºÐ°
ĠÐ²ÐµÑĢ ÑĤÐ¸Ðº
le nia
ĠÐ´ÑĢÐµÐ² ÐµÑģ
ĠÑĢÐ°Ð±Ð¾ÑĤÐ½Ð ¸ÐºÐ¾Ð²
ĠÐ¸Ð½ÑĤÐµÑĢÐµÑģ Ð½Ð¾
Ġpre z
ĠÐ¿ Ð¸Ð»
ĠÐ¿Ð¾Ð¼Ð¾Ð³ Ð°ÑİÑĤ
½Ð ¾ÑģÑĤÐ¸
Ġdzie c
ĠÐ²ÐµÑĢÐ ½ÑĥÑĤÑĮ
d owa
Ġja kie
ĠÑĤÐµÐ»ÐµÑĦ Ð¾Ð½Ñĥ
ĠÑģÐ°Ð¼Ð °Ñı
ÑĢ Ð¸Ð·
ĠS u
ĠÐŀÐ± ÑĢÐ°
ĠÐĿÐ°Ð¸Ð ±Ð¾Ð»ÐµÐµ
ĠÐ±ÑĭÐ² Ð°ÑİÑĤ
ĠÐ¿ÐµÑĩ ÐµÐ½Ð¸
ĠÐ¿Ð¾Ð´ Ð´
ĠA le
Ġm in
Ġwszyst kich
ĠÑĥÐ´Ð¾Ð²Ð»Ðµ ÑĤÐ²Ð¾ÑĢ
ĠÑĥÐ² ÐµÐ´Ð¾Ð¼
ÐµÐ½Ð¸Ñı Ð¼
na ch
ĠÐŀÑģÐ½Ð¾Ð² Ð½ÑĭÐµ
ÐºÐ ½Ð¾Ð²
3 6
ĠÑĢÐ¾Ð¼ Ð°Ð½
ĠÑģÐ¾Ð·Ð´ Ð°Ð½Ð¸Ðµ
Ñģ ÐºÐ¸
Ð¾ÑĢÐ ¸
ĠÑĤÐ°Ðº Ð¸Ð¼Ð¸
ÐµÐ½Ð½Ð ¸ÐºÐ¸
sz o
ĠÑĥÑħ Ð¾Ð´
ĠÐ³Ð¾ÑĢ Ð¸Ð·
Ð¸ÑĤÐµÐ»Ñı Ð¼Ð¸
Ð°Ð½ ÑĤÐ¾Ð²
ĠÑĥÐ´Ð°Ð» Ð¸ÑĤÑĮ
ĠÐ¿Ð¾Ð´ Ð°Ð²
ĠÐ»ÑİÐ± Ð¸ÑĤ
Ð¸Ð½Ð°Ñ ĨÐ¸Ð¸
ĠÐ± Ð°ÑĢ
ĠÐŁÑĢÐ¾Ñģ ÑĤÐ¾
ĠÐ´ÐµÐ¼ Ð¾Ð½ÑģÑĤ
d ra
ĠÐ¾Ð¿ ÑıÑĤÑĮ
ÑĤÐµÑĢ Ð¸Ð¸
Ð¾Ð½Ð°Ð ²
ĠÑģ ÑĢÐ¾Ñĩ
ĠÐ²ÑĭÐ± Ð¾ÑĢÐ°
ÑĢÐ°Ð½Ð ´
ĠÑĢÐµÐ·ÑĥÐ»ÑĮÑĤÐ°Ñ ĤÐ¾Ð²
ĠÐ¼Ð°ÑĤ Ñĩ
Ĥ Ð¾Ð³Ð¾
ĠÐ¾ÑģÐ¾Ð± Ð
ĠÐ²ÑĭÐ±Ð¸ ÑĢÐ°ÑĤÑĮ
ĠÐ½Ð°Ð· ÑĭÐ²Ð°ÐµÑĤÑģÑı
t Äħ
ĠÐ¿Ð¾Ð·Ð´ ÑĢÐ°Ð²
Ð¾ÑģÑĤ ÐµÐ¹
ĠÐĵ Ð¾ÑģÐ¿
Ð¸Ð² Ð°Ð»Ð¸
ÑĭÐ² Ð°Ð»
Ð°Ð½Ð ½Ð¾Ð¼
ĠÐ´ ÐµÑĤÑĮ
ĠJe st
stÄĻ pu
ĠÑĦÐ ¾
Ð¾ÑĢÐ¼Ð ¸ÑĢÐ¾Ð²
ĠÐĿÐ°Ð¿ Ð¾Ð¼Ð½Ð¸Ð¼
ĨÐ¸Ð¾Ð½Ð ½ÑĭÐ¹
ĠÑģÑĤ ÑĢÐµÐ»
ĠÐ²ÑĭÐ·Ð² Ð°ÑĤÑĮ
Ñİ Ð¹
sz ko
ĠÐºÐ¾Ð¼ Ð¼ÐµÑĢÑĩÐµÑģ
mia st
Ð½Ð°Ð¿ ÑĢÐ¸Ð¼ÐµÑĢ
ĠÐºÐ¾ÑĦ Ð
z i
ĠÐ·Ð°Ðº Ð¾Ð½Ð¾Ð¼
ĠÐ¸Ð½ÑĤ ÐµÐ»
ĠÐºÐ¾ÑĦÐ µ
ĠÑģÑĤ Ð¾Ð¹
ĠÐ¸Ð½Ð³ ÑĢÐµÐ´Ð¸
Ð ¾ÑĤÐµ
Ð¼ Ð°Ð½
ĠÐ¸Ð³ÑĢÐ¾Ðº Ð¾Ð²
ĠÑĥÐ¿ÑĢÐ°Ð¶ Ð½ÐµÐ½Ð¸Ñı
ĠÐĿ ÐµÐ¿
ÑĢÐ°Ñ İ
O N
ĠÑĤ ÐµÐ¼Ðµ
Ġpotrze b
ĠÐ·Ð½Ð°ÐºÐ¾Ð¼ ÑģÑĤÐ²
ÐµÐ»ÑĮ Ñĩ
ĠÐ´ÑĥÐ¼ Ð°Ñİ
st wa
Ð¾Ð½Ð°Ð ¼
ĠÐ´Ð¸ÑĢÐµÐº ÑĤÐ¾ÑĢ
Ð¾ÑĢÐ ¸ÑĤÑĮ
ĠÐ± ÑĢÐ°Ð
ĠÐ½Ð° Ð¾Ð±Ð¾ÑĢÐ¾ÑĤ
ĠÐ¿ÑĢÐ¸Ð½Ð µÑģ
0 8
ĠÐ·Ð°Ð² Ð¾Ð´
ĠÐ»ÐµÑĩ ÐµÐ±
Ð³Ð ¾Ñģ
Ġwp ÅĤy
ĠÑģ ÑĤÐ¸
µÑĢÐµÐ ±
Ġsy tua
ĠÐ¼Ð°ÑģÑģ Ð°Ð¶
c ro
ĠÑıÐ·Ñĭ ÐºÐµ
ĠÐ² Ð¼ÐµÑĪ
ĠÑĢÐµÐ¼Ð¾Ð½ ÑĤÐ°
ĠÐ³Ð °ÑĢÐ¼
ĠÐºÐ°Ð¶Ð´ Ð¾Ð¼Ñĥ
ĠÐ½ÐµÐ »
ĠÐ¼ Ð¸Ð³
Ġ3 6
re dni
ĠÐķ ÐºÐ°ÑĤÐµÑĢ
ĠÐ£ ÑģÐ»
ĠÐ´Ð¾Ñģ ÑĤÐ°ÑĤÐ¾Ñĩ
ĠÐ²Ñĭ ÐºÐ»ÑİÑĩ
ĠÐ¿ÑĢÐ¸Ð·Ð½Ð°Ð ½Ð
k ry
ÑĪÐ¸Ð¹ ÑģÑı
ĠÐ²Ñĭ Ñħ
ĠÐ¡ ÐµÐºÑģ
wa la
ĠÐ» Ð¾Ð³
ÑĢÐ°Ð½Ð¸Ð »
ĠÑĥÐ³ Ð¾Ð»Ð¾Ð²
ÑģÑĤÐ² ÐµÐ½Ð½ÑĭÐµ
ĠÑĪ ÑĥÐ¼
ĠÐ¡ Ð¡Ð¡Ðł
Ð¸Ð¼ ÑĭÑħ
wie t
ĠE x
ĠÐ·Ð°Ð½Ñı ÑĤÐ¸Ñı
ÑıÑī ÐµÐ³Ð¾
ÑĢÐµÐ¶ Ð´Ðµ
ĠÐ¿ÑĢÐ¸ ÑĢ
ÐµÐ· Ð´Ðµ
ĠÐ¿Ð¾Ðº ÑĢÐ°Ñģ
gra ni
ĠÐ²Ð°ÑĪÐ °
sz cz
ĠÐ¿Ð¸ÑĤ Ð°Ð½Ð¸Ðµ
Ð½ÐµÐ ¿
Ð¾ÑĤÐ »
Ġar ty
ĠÐľ Ð°ÐºÑģÐ¸Ð¼
ĠÑĤÐµÑĢ Ð¿
4 4
ĠÐ±ÐµÑģ Ñģ
ÐµÐ½Ð µÑĢÐ°
ĠÑĢÐ°Ð º
ÑĢÐ¾Ñĩ ÐµÐ¼
ĠÐ¿Ð¾ÑĤÐµÐ½Ñ ĨÐ¸Ð°Ð»ÑĮ
ĠÐĿ Ð°ÑĪ
r Ã³w
Ð¾Ð¸Ð· Ð¾Ð»ÑıÑ
ĠÑĥÑģÐ¿ÐµÑĪ Ð½Ð¾
ÐµÐ¹ Ñģ
ĠÐļ ÑģÑĤÐ°ÑĤÐ¸
ÑĢÐ°Ð±Ð°ÑĤ ÑĭÐ²Ð°ÑĤÑĮ
sty tu
Ð°ÑĤ ÑģÑı
ĠÐ¾Ñģ Ð¾Ð·
Ð¾ÑĢÐ ¾Ñ
Ġt ran
ĠÐ¸Ð³ ÑĢÐµ
ĠÐ»Ð ¸ÑģÑĤ
ĠÑģÑĤ Ð¾Ð»ÑĮÐºÐ¾
Ð¸Ð½ Ð¾Ðº
ĠÑĢÐµÑĨÐµÐ¿Ñ Ĥ
ĠÐ¿ÑĢÐ¸Ñĩ ÐµÐ¼
ĠÐ¿ÑĢÐ¾Ð¸Ð·Ð² ÐµÐ´
ĠÐ¼Ð¾Ð´ ÐµÐ»ÐµÐ¹
ÐµÐ¹ ÑģÑĤÐ²Ð¸ÐµÐ¼
ĠÑģÐµÐ³Ð¾Ð´Ð½ÑıÑĪ Ð½Ð¸Ð¹
ĠÐŁ ÑĢÐµÐ·Ð¸Ð´
ĠÐ¿ÑĢÐµÐ´ÑĥÑģ Ð¼Ð°ÑĤÑĢ
ĠÐĴ Ð¾Ñģ
ĠÑĤ Ð¾ÐºÑģ
ĠÐ¸Ð½Ð² Ð°Ð»Ð¸Ð´
ĠÐ³Ð¾Ð²Ð¾ÑĢ Ñı
ÐºÑĥ Ð¿
ĠÐĶ Ð¾Ðº
ĠÐ¿ÑĢÐµÐ´ÑĥÐ¿ ÑĢÐµÐ¶Ð´
ÐµÐ»Ð° ÑĢÑĥ
ĠÐ¿ÑĢÐ¾ÑĪ Ð»Ð¾Ð¼
ĠÐ¼Ð°ÑĪ Ð¸Ð½Ñĥ
ĠK on
ĠÐ¿Ð» ÑİÑģ
ĠÐ¶ ÐµÑĢÑĤÐ²
ĠÑĨ ÐµÐ¿
ĠÑģÐ»ÐµÐ´ Ð¾Ð²
Ð½Ð¸Ðº Ð°Ð¼
ĠÐ¿ÑĢÐ¾Ð´ÑĥÐº ÑĤÐ°
Ĥ ÑĭÐµ
ĠÐ¼ÐµÐ± ÐµÐ»Ð¸
ĠÑģ ÐµÐ»
ĠÐ½ÐµÐ´Ð¾Ñģ ÑĤÐ°ÑĤÐ¾Ñĩ
ĠÑįÐ½ÐµÑĢÐ ³Ðµ
Ð»ÑĮ Ñ
ĠÑģÑĤÑĢÐ¾Ð¸ÑĤÐµÐ»ÑĮ ÑģÑĤÐ²Ð¾
ĠÐĲ ÑĦ
ĠÐ¾ÑĤÐ´ÐµÐ»ÑĮ Ð½ÑĭÑħ
ĠÐ¶Ð¸Ð»ÑĮ Ñı
ĠÐ²Ð¸Ð´ ÐµÑĤÑĮ
I D
ĠÐŁÐ¾Ñģ ÐºÐ¾Ð»ÑĮÐºÑĥ
ĠÐĴÑĭ Ð±
ĠÐºÐ°Ð½Ð´ Ð¸Ð´
ĠÐ¿ÑĢÐµÐ·Ð¸Ð´ ÐµÐ½ÑĤ
ĠÐ¿ÑĢÐ¸ÑĪ Ð»Ð¾ÑģÑĮ
ĠÐ¿ÑĢÐ¾Ð´ Ð°Ð¶Ð¸
ĠÐ¿Ð¾ÑĢ ÑĥÑĩ
ĠÑĢÑĥ ÐºÑĥ
ĠÑĢÐµÐºÐ¾Ð¼ÐµÐ½Ð´ Ð°ÑĨÐ¸Ð¸
ĠÐºÐ°ÑĢ ÑĤÐ¾ÑĦ
ĠÑĤÐ° ÑĢÐ¸ÑĦ
ĠÐ´ Ð°ÑĢ
ĠÐ² Ð»Ð°Ð³
· Ð
ÑĢÐµÐ² Ð½Ð¾Ð²
Ð¡ ÐŁ
Ġfi na
ÑĤÐ¸Ð ½Ñĥ
ĠÑģÑĤÐ°Ð± Ð¸Ð»ÑĮ
ĠÐļÐ¾Ð½ Ñģ
ĠÐ²Ð´ ÑĢÑĥÐ³
ĠÐ¿ÑĢÐ¸Ð»Ð¾Ð¶ ÐµÐ½Ð¸Ñı
n ki
ĠS e
Ġok re
ĠÐ½ÐµÐ¸Ð ·
ÐµÐ½ÑĮ Ð
Ġg ÅĤÃ³w
ÑĤÐ¾Ñĩ ÐºÐ¸
ĠÐ±ÑĥÐ´ÑĥÑī ÐµÐ¼
ÐµÐ½ ÑģÑĤÐ²
Ð¾Ñģ ÑĤÐ°
ĠÑģÑĢÐµÐ´ Ñĭ
o ur
ĠÐ·Ð°Ðº ÑĥÐ¿
Ġby ÅĤa
Å¼e nie
ĠÐĺÑģÐ¿ Ð¾Ð»ÑĮÐ·Ð¾Ð²
ĠÐ¼ Ð¾Ð¸
ĠÐ¸ÑģÑĤÐ¾ÑĢÐ ¸Ñİ
ĠÐĿÐµÐ¾Ð±ÑħÐ¾Ð´ Ð¸Ð¼Ð¾
Ð°ÑİÑī Ð¸ÐµÑģÑı
ĠÐ¿ÑĢÐ¸Ñħ Ð¾Ð´
Ð» Ð¾Ð½Ð½Ð
Ġ %
ĠÐ´ÐµÑĤÑĮ Ð¼Ð¸
ĠÐ²Ð ¸ÑĢ
ĠÐ¼ ÐµÐ½ÑıÑĤÑĮ
ĠÐ¿ÑĢÐµÐ´ÑģÑĤÐ°Ð² Ð¸ÑĤÐµÐ»ÑĮ
Ð³Ð¾ÑĤ Ð°Ð²Ð»Ð¸Ð²
ĠÐłÐµÑģÐ¿ ÑĥÐ±Ð»Ð¸ÐºÐ¸
ĠÐ¿ÐµÑĢÐ² ÑĭÐ¼
ĠÐ¼Ð¾Ð· Ð³Ð°
ĠÐ¿ÑĢÐµÐ ±
ĠB u
Ð¾ÑĤ Ð¾Ð¹
ĠÐ£ Ð¿
ĠÐ´ Ð¸Ð¿
ĠÐĳÐµÑģÐ¿ Ð»Ð°
ĠÐ´Ð¾Ð± Ð¸ÑĤÑĮÑģÑı
cze j
ĠÑĥÑĩ ÐµÑĤÐ°
Ð¾ÑĢÐ ³
Ð¾Ð· Ð¸ÑĤ
3 8
ĠÐ¸Ð´ÐµÐ ¸
ĠÐ¿Ð¾ÐºÑĢÑĭ ÑĤÐ¸Ñı
Ð¾Ð´ Ð¸ÑĤÐµÐ»ÑĮ
ĠÐĴ ÐµÑĢÑħ
ĠÐŀ Ð´Ð
Ð¸Ð½ ÑģÑĤÐ²Ð¾
ĠÑĢÐ°Ð· Ð±Ð¸
ĠÐ¸ÑģÐ¿Ð¾Ð»ÑĮÐ· ÑĥÑı
Ñ ĤÑĭÐµ
ĠÐ¿Ð¾Ð¶ ÐµÐ»
ĠÐº Ð°Ð½Ð°Ð
ĠÐĽÑĥÑĩ ÑĪÐµ
âĢ¦ âĢ¦
Ð» Ð¸Ð½
ĠÐ¿ÑĢÐ°Ð² Ð´Ð°
wie ra
ĠÐ·Ð°Ðº Ð°Ð·Ð°ÑĤÑĮ
ĠÐ²Ð½ÑĥÑĤÑĢÐµÐ½Ð½Ð ¸Ñħ
ĠÐ²Ð¾Ð·Ð½Ð¸ÐºÐ½Ð¾Ð² ÐµÐ½Ð¸Ñı
ĠÐ²Ð¾Ñģ Ðº
ĠÐ· Ð¾Ð»Ð¾ÑĤ
ÑĤÐ¸ÑĤ ÑĥÑ
ÑĤÐ¾ ÑĢÐµ
ÑĥÑĤÐ ±
ĠÑħÐ¸ÑĢÑĥ ÑĢÐ³
Ð¾Ð» Ð¾Ð³Ð°
ÑĭÐ² Ð°Ð¹ÑĤÐµ
ĠÐ± Ð¸Ð±Ð»Ð¸Ð¾ÑĤ
ter y
ĠÐ¿Ð¾Ð»ÑĥÑĩ Ð¸ÑĤÐµ
ÑĢÐ¾Ñ ī
ĠÐ¿Ð»Ð¾ÑīÐ°Ð´ ÑĮ
ĠÐ± ÐµÐ½Ð·
ĠÐ¿Ð¾ÑĢÑıÐ´ ÐºÐ°
ĠuÅ¼y tk
ÐºÐ¾Ð² Ð¾Ð¹
ĠÑĥÐ» ÑĭÐ±
Ð°ÐµÐ¼ Ð¾Ð³Ð¾
Ġza wo
ĠÑĩ ÑĥÐ¶
ĠÐ£ ÑģÑĤÐ°Ð½Ð¾Ð²
ĠÐ½Ð°Ð± Ð¾ÑĢ
ĠÑģÑĤÑĢÐ°Ñħ Ð¾Ð²
¸Ñĩ Ð½ÐµÐ²
cyj ne
ÅĤ owie
ĠÐ§ Ð°ÑīÐµ
ĠAnd roid
Ð¸ÑĩÐµÑģÐº Ð¸Ð¼Ð¸
ĠÐ¶ Ð°ÑĢ
ÐºÑĥ Ð»ÑĮ
Ġ ?
ĠÐĶ ÐµÐ»
ĠÐ¿Ð¾Ð·Ð²Ð¾Ð» ÑıÑİÑī
ĠÐ¿ÑĢÐµÐ´ ÑĬ
ĠÑĤÐµÑħÐ½Ð¾Ð»Ð¾Ð³ Ð¸Ð¹
¿ ÑĢÐ°Ð²
Ñİ ÑĢ
cz nym
te ra
ĠÐ¿Ð» Ð¾ÑģÐº
Ġsprze da
ĠÐ¿Ð¾Ð¿ÑĢÐ¾Ð± Ð¾Ð²Ð°ÑĤÑĮ
ĠÐ¿ÐµÑĢÐ¸ Ð¾Ð´Ð°
Ð¸Ð °ÑĤ
ÑĤÐ¸Ð² Ð½Ð°Ñı
ÐµÑĢÐ ·
Ð°Ð´ ÐºÐ¸
ĠÐ¼Ð¾Ð½ÑĤ Ð°Ð¶
ÑĢÐ ¸Ñħ
Ġm ÅĤo
ĠÐ¿ÑĢ Ð¾Ð½Ð
ĠÐ´ÐµÐ¹ÑģÑĤÐ² ÑĥÐµÑĤ
ĠÐ¾Ð¿Ð» Ð°Ñĩ
ÑĤÑĮ Ñİ
ĠÐ½ÐµÐ¾Ð±ÑħÐ¾Ð´Ð¸Ð¼ Ð¾ÑģÑĤÑĮ
ÑĢÐµÐ ¸
Ð¾Ð¶Ð ¸ÑĤÐµ
ĠÐ·Ð°Ð¼ ÐµÐ½Ð¸ÑĤÑĮ
ĠÑĩÐµÑĤÑĭ ÑĢÐµÑħ
ĠÐ¿Ð¾Ð² ÑĤÐ¾ÑĢÐ
ÅĤe go
ĠÐ·Ð°Ð¿ Ð¾Ð»Ð½ÐµÐ½Ð
ĠÐºÐ»ÑĥÐ± Ð
ĠÐ½Ðµ Ð¾Ð±
Ġ1 000
ĠÐ¿ÐµÑĢÐµÐ »
ĠÐ¿Ð¾Ñģ ÑĤÐ°
Ġo t
ĠS am
ĠÑĥÐ´ Ð°ÑĢ
Ð¾Ð¾Ð ¿
Ġu rzÄħ
ĠÐ²Ñĭ ÑģÐ
ĠÐ¿ ÑĥÐ·Ñĭ
ĠÑĢÐ°ÑģÑħÐ¾Ð´ Ñĭ
ar m
ĠÐ°Ð´Ð¼Ð¸Ð½Ð¸ÑģÑĤ ÑĢÐ°ÑĨÐ¸Ð¸
ĠÑĢÐ°Ð·Ð²Ð¸ ÑĤÐ¸Ñİ
Ð°Ð´ ÐµÐ¼
ĠÐ¢ ÐµÐ»
ĠÐĽ ÐµÐ½Ð¸Ð
ÑĤÐ ½Ð¾Ð¼Ñĥ
ĠÑģÐ¾Ð ¾ÑĢÑĥÐ¶
ĠÑĥÐ¶ Ð°Ñģ
ĠÐ¸Ð½ÑģÑĤÑĢÑĥÐº ÑĨÐ¸Ñı
ĠÑĪ ÐµÐ»
Ĥ ÑĭÐ¹
ĠÐ³Ð¾Ð´ Ð¾Ð²
as a
ĠÐ²ÑĭÐ± ÑĢÐ°Ð½Ð
ĠÐ¸ÑĤ Ð¾Ð³
ĠÐ¿Ð¾Ð´ Ð»ÐµÐ¶
ĠÐ¿Ð¾Ð· Ð¶Ðµ
ÅĽci Äħ
cze go
ÑĢÐ¾Ð² ÑĭÐµ
ĠÐ¼ÐµÑĢÐ¾Ð¿ÑĢÐ¸Ñı ÑĤÐ¸Ð¹
ÑĢÐ¾ Ñı
ĠÐ¸ÑģÐº Ð°ÑĤÑĮ
ÑĢÐ°Ñī ÐµÐ½Ð¸Ðµ
ĠÐ¿Ð¾Ð¼ Ð½Ð¸ÑĤÑĮ
ĠÑģ ÐµÑĤÑĮ
ĠÐ´Ð¾Ð¿Ð¾Ð»Ð½Ð¸ÑĤÐµÐ»ÑĮ Ð½ÑĭÑħ
ĠÐ± Ð°Ð·Ðµ
ĠF i
ĠÐ¿ÑĢÐµÐ´Ð¿Ð¾Ñĩ Ñ
ĠÐ¿ÑĢÐµÐ´Ð¿Ð¾ÑĩÑ Ĥ
º Ð°Ð¼
ĠÐł Ð°Ð½Ð
Ġstro ny
Ð¾Ð» ÐµÐ¿
ĠÐ´Ð²Ð¸Ð¶ ÐµÐ½Ð¸Ðµ
ĠÑĥÐ²ÐµÐ»Ð¸Ñĩ Ð¸ÑĤÑĮ
ĠÐ¿ÑĢÐ¾Ð· ÑĢÐ°Ñĩ
ĠÐļÐ°Ð· Ð°Ñħ
ĠÐ¿ÑĢÐ¾ÑĨÐµÑģ ÑģÑĭ
Ð¾ÑĤÐ ½Ð¾
ĠÑĦ ÐµÑĢÐ¼
ĠÐ¾ÑĤÐ¿ ÑĥÑģÐº
ĠÐ¾ÑĨ ÐµÐ½ÐºÐ¸
ĠÐ±ÑĥÑħ Ð³Ð°Ð»
Ð¾Ð¿Ð¾Ð» Ð½Ð¸ÑĤÐµÐ»ÑĮ
Ð¸ÑĤÐµÐ»Ñı Ð¼
ĠÐºÐ½Ð¸Ð ³
ĠÑģÐ²ÐµÑĢÑħ Ñĥ
Ð°ÑĤÐµÐ»ÑĮ Ð½Ð¾Ð³Ð¾
ĠÐ¼Ð½Ð¾Ð³Ð ¾ÑĩÐ¸ÑģÐ»
ĠÐ¢Ð°Ðº Ð°Ñı
Ã³ d
ĠÐ¡Ð¾Ð´ÐµÑĢÐ¶ Ð°Ð½Ð¸Ðµ
ĠÐ· Ð°Ð¼Ð
ÐĽ Ðĺ
ĠÐ²ÐµÐ» Ð¾ÑģÐ¸Ð¿
c er
Ð°Ð½ ÑģÑĭ
Ð¾Ð»Ð¾Ð³Ð¸ÑĩÐµÑģÐº Ð¾Ð³Ð¾
ĠÑĢÐ°Ð·Ð¼ÐµÑĢ Ñĭ
Ð¾Ñİ Ð·Ð°
ÐµÐ¹ Ñ
ĠÐ¿ Ð¾ÐºÐ
ne s
ĠÐºÐ¸ÑĢÐ¿ Ð¸Ñĩ
O R
ĠÐº Ð¾ÑįÑĦÑĦÐ¸ÑĨÐ¸
ĠÐ¾ÑĨ ÐµÐ½Ð¸Ð²
bi Äĩ
ĠÐºÐ¾Ð½Ð ²
ĠÐ´Ð¾Ð¿ ÑĥÑģ
ĠÐ¿ÑĢÐ¸Ð·Ð½Ð°Ð ºÐ¸
ÐµÐ½ÑĮÐ µ
ĠÐŁÑĢ Ð¾Ð³ÑĢÐ°Ð¼
ĠÐ¸Ð½ÑĦÐµÐº ÑĨÐ¸Ð¸
Ġt am
ĠPol sce
ÑĢÐ ¸ÑĤÐµÐ»ÑĮ
ÐºÐ¾ÑģÑĤÑĮ Ñİ
¸ÑĢÐ °Ñı
Ð°Ð´Ð ¾
ĠÑģÐ¾Ð±Ñĭ ÑĤÐ¸Ð¹
Ñģ Ñģ
ĠÑĤÑĢÐµÐ± Ð¾Ð²Ð°Ð½Ð¸Ð¹
ÐµÐµÑĤ ÑģÑı
ĠÐ¿Ð¾Ð´ ÑĤÐ²ÐµÑĢÐ´
ĠÐ½ÐµÐ ½Ð°Ð
f er
ÑĢÐµ ÑĤÐ°
ĠÐ¼ÐµÐ´ Ð¸Ðº
Ġpo le
ĠÐĴ Ð¾Ð¿ÑĢÐ¾Ñģ
ĠÐŀÑĤÐ ·ÑĭÐ²
ĠÐ¾ÑĢÐ³Ð°Ð½Ð¸Ð· Ð¾Ð²
ĠÐ¸Ð´ÐµÐ°Ð»ÑĮ Ð½Ð¾
ĠÑĤ Ð°Ð½
ÑĤÐ¸Ñ Ī
ĠÐ¿ÐµÑģ Ð½Ð¸
ĠÐ²Ð¾Ð´ Ð¸ÑĤÐµÐ»ÑĮ
de k
4 8
ĠÐ¿Ð¾Ð´ Ð±Ð¾ÑĢ
ĠÐ¿Ð¾Ð· Ð
ÑĥÐ´ ÑĪ
Ð¾Ð´Ð ½ÑĥÑİ
Ð¾Ð´Ð ½Ð¾Ð¼
ĠÐ¾Ð¿ ÑĥÑħ
ĠÐŁ ÑĢÐµÐ¶Ð´Ðµ
Ġin te
ÑĢÐ ¶
ĠÐ¿ÑĢÐ¾Ð³ÑĢÐ°Ð¼ Ð¼Ðµ
ÑĤÐ½Ð ¸ÐºÐ¾Ð²
ĠÐ¼ Ð¾ÑģÐº
Ġob ec
ĠÐ¼ Ð°Ð¼Ð°
ĠÐºÐ°ÑĢ ÐºÐ°Ñģ
Ġko nie
Ġdo mu
tu ral
ĠÐ·Ð°Ð´ Ð°ÑĩÐ°
ĠÑĦÐ¸Ð»ÑĮ Ñ
ĠÑĦÐ¸Ð»ÑĮÑ Ĥ
Ġza k
ĠÑģÐ´ÐµÐ» Ð°Ð»
ĠÑģÐ» Ð°Ð²
ĠÐ»Ð¸Ñĩ Ð½Ð¾ÑģÑĤÐ¸
ĠÑĢÐ°Ñģ ÑĤÐ²
ĠÐ¿ÑĢÐ¾ÑĤÐ¸Ð²Ð¾Ð¿ Ð¾ÐºÐ°Ð·
ĠÐºÐ¾Ð¼Ð½Ð° ÑĤÐµ
Ð¾Ñģ Ð»ÐµÐ´
ĠÐ¿Ð» Ð¾Ð´
ĠÐ¿Ð°Ð½ÐµÐ »Ð¸
Ð²ÐµÑĤÐ »
ĠÐ¿ÑĢÐ°Ðº ÑĤÐ¸ÐºÐµ
ÑĢÐ°Ð¹ ÑĤÐµ
ĠÐ´ÑĢÑĥÐ· ÐµÐ¹
ĠÐ·Ð°Ð³ ÑĢÑıÐ·
ĠÐ½ÐµÐ¿ Ð»
ĠÑģÐ¿Ð¾ÑģÐ¾Ð± Ð½Ñĭ
ÐµÐ´ Ñĭ
ne m
ĠÐ¿ÑĢÐ¾ÐµÐº ÑĤÐ¾Ð²
ĠÐ¿Ð¾Ð´ÑħÐ¾Ð´ ÑıÑĤ
ĠÐ²Ð¾Ð¿ÑĢÐ¾Ñģ Ð
y a
ĠÐ¼ÐµÑħ Ð°Ð½Ð¸ÑĩÐµÑģÐº
ĠÐ´Ð¾ÑģÑĤÑĥÐ¿ Ð
ÐµÐº Ñĥ
ÑĳÐ ½
ĠÐºÑĥÑħ Ð½Ð¸
Ð¸Ð½Ð ºÑĥ
ĠÐ± ÐµÐ»ÑĮ
Ñ ĤÑĭÐ¹
ÑģÐº Ð°Ð·
ĠÐ³Ð»Ð°Ð²Ð °
ĠÑģÐ¾Ð· Ð½Ð°Ð½Ð
ĠÐµÐ² ÑĢÐ¾
ĠÐ°Ð· Ð°ÑĢ
st nie
m l
ĠÐ²ÐµÑģÐ °
ĠÐ¿Ð¾Ð» Ð½ÑĭÐ¹
Ġ4 00
ĠÑģÐ¾Ð´ÐµÑĢÐ¶ Ð°Ñī
ĠÐ½Ð°Ðº Ð¾Ð½ÐµÑĨ
ĠÐŁ Ð¾ÐºÐ°
ĠÐ¸Ð½ÑģÑĤÑĢÑĥÐ¼ ÐµÐ½ÑĤ
ĠÐ¡ ÑĤÑĢ
ĠÐºÐ°Ðº ÑĥÑİ
ĠÐ¾ÑĤÐ µÑĩÐµÑģÑĤÐ²
ĠÐ¿Ð¾Ð´Ð² ÐµÑĢÐ³
ĠÐ¼Ð¾ ÑĤÐ¸Ð²
ÑĨ Ð°Ð¼
ĠÑĩÑĥÐ² ÑģÑĤÐ²Ð¾
an k
ĠÑĢÐ°Ð· ÑĥÐ¼
ĠÐ¿Ð¾Ð»Ð¾Ð¶ ÐµÐ½Ð¸Ñı
ĠÐļÐ °
ĠÐ¿Ð¾ÑģÐ»ÐµÐ´ Ð½Ð¸Ð¹
ĠÐ¿Ð¸ÑĪ ÐµÑĤ
ĠÐ¿Ð¾ÑģÐ»ÐµÐ´ Ð½ÐµÐµ
Ġpoz osta
ĠÐ²Ð¾Ð¿ÑĢÐ¾Ñģ Ð°Ð¼
cz nÄħ
ĠÐ¿Ð¾Ð¸Ñģ Ðº
Ġczas u
ĠÐºÐ¾ ÑĢÐ°Ð±
ĠÑģ Ð¾ÑĢÑĤÐ°
ÐµÑħÐ °
ĠÐ¿Ð¾Ð½Ð¸Ð¼ Ð°ÑĤÑĮ
ĠÑį Ð½Ð´
ĠÐĴ Ð¾Ð·Ð¼Ð¾Ð¶
ÑĢÐ°Ð ¼Ð°
ĠÐ· Ð¾Ð½Ñĭ
ĠÐ¿ÐµÑĢÑģ Ð¾Ð½Ð°Ð»ÑĮ
Ð¸Ð½Ð ¸ÑĢÐ¾Ð²
ĠÐ¿ÑĢÐµÐ·Ð¸Ð´ ÐµÐ½ÑĤÐ°
ĠÐŁÐ¾ÑĤ Ð¾Ð¼Ñĥ
ĠÑģÑĤÐ¾ÑĢ Ð¾Ð½Ðµ
Ð¾Ð´Ð ³Ð¾ÑĤÐ¾Ð²
ĠÐ¾Ð±ÑĢÐ° ÑĤÐ¸ÑĤÑĮ
ĠÐ°Ð½Ð°Ð» Ð¸Ð·Ð°
ĠÐ·Ð°Ðº ÑĢÑĭÐ²
i om
ĠÑħÐ°ÑĢÐ°ÐºÑĤÐµÑĢ Ð¸Ð·
Ġpo nad
Ð¾Ð² Ñĭ
Ġte mu
ĠÑĢÐ°Ð·Ð¼ÐµÑĢ Ð¾Ð²
ĠÐ¿Ð¾Ð¼ÐµÑī ÐµÐ½Ð¸Ðµ
ĠÐ¸Ð·Ð´ÐµÐ» Ð¸Ð¹
ĠÐ¾Ñħ Ð»Ð°Ð¶Ð´
ÐµÐ½ÐµÐ½Ð ¸Ðµ
ĠÐ´Ð² ÐµÑĢÑĮ
ĠÐ¿Ð¾Ð¼ÐµÑī ÐµÐ½Ð¸Ð¸
Ð¾Ð½Ð ºÐ¸
ĠÑĢÐ°Ð· Ð½Ð¾Ð²Ð¸Ð´
ĠÑįÐ»ÐµÐºÑĤÑĢÐ¾Ð½Ð ½Ð¾Ð¹
ĠÐ°Ð² Ð°ÑĢ
ÑĥÐ¶ Ð
ÑĥÑİÑī Ð°Ñı
ÑĢÑĥ Ð³Ð
ĠH D
ĠÐ» Ð°Ð´
ĠÐ¿Ð¾Ð´Ð°ÑĢ Ð¾Ðº
Ð°ÑģÑģ ÐµÐ¹
ĠÐ±ÑĥÐ¼ Ð°Ð³
ĠÐľÐ¸Ð½Ð ¸ÑģÑĤÐµÑĢ
ĠÐ¾Ð¿Ð¸Ñģ Ð°Ð½Ð¸Ðµ
ĠÐ³Ð¾Ð²Ð¾ÑĢÐ¸ÑĤ ÑģÑı
Ðł Ðķ
Ð»ÑĮÑ Ĥ
Ġza po
Ð¾Ñģ Ð¾ÑĦ
Ð¸Ð·Ð ¸ÑĢÐ¾Ð²Ð°ÑĤÑĮ
ĠÐ¡ ÐľÐĺ
ĠÐ°Ð»ÑĮ ÑĤÐµÑĢÐ½Ð°
ĠÐ°Ñį ÑĢÐ¾Ð¿
ĠÐ´Ð¾Ð»Ð³ Ð¾Ð²
Ð¾ÑĤÐ ¾Ñĩ
ĠÑĤ Ð¾Ðº
wiÄħ z
Ġwy bra
ĠÐ¿ Ð¾Ð¹
ĠÐ¿ÑĢÐ¾ÑĨ ÐµÐ´
ĠÐĹ Ð°Ð±
b et
Ġ Ð½Ñİ
ĠÐ³Ð¾Ñģ ÑĤÐµÐ¹
Ġko rzysta
ĠÐºÐ¾Ð¼Ð¿ ÐµÐ½Ñģ
ch y
Ðľ ÐĲ
ĠÑĥÐ´Ð¾ÑģÑĤÐ¾Ð² ÐµÑĢ
ĠÐ¾Ð±ÑĬÐµÐº ÑĤÐ°
Ð¾Ðº ÑĢÐ°
Ð»ÐµÐº ÑĤÑĢ
Ġ Ð¾Ð¶
Ð» Ð¸Ð¶
Ġ Ð¾ÑĢÑĥ
ĠÐ·Ð°Ð¿ ÑĥÑģÐº
Ð°Ð¶ ÐµÑĤÑģÑı
ĠÐ´ Ð¸Ðº
Ġza ku
ÐµÐ´Ð ¸
Ð¸Ð² ÐºÐ¸
ĠÑĤÐºÐ°Ð½Ð µÐ¹
Ġba da
ĠÐ·Ð°Ðº Ð»Ð°Ð´
Ð¸Ð¼ ÑĭÐµ
Ġd ni
ĠÐ¿ ÑĥÑģÑĤÑĮ
ĠÐ¿Ð¾Ð²ÑĭÑĪ ÐµÐ½Ð¸Ñı
ĠÐºÐ½Ð¸Ð ¶
ĠÐ±ÑĥÑĤ ÑĭÐ»
ĠÑģÐ¾ÑģÑĤÐ°Ð² Ð»ÑıÑİÑī
ĠÑĢÐµÐ³ ÑĥÐ»Ð¸
Ġm ÄĻ
ĠÐ¿ÐµÑĢÐµÑħ Ð¾Ð´
ĠÐ¸Ð´ ÑĤÐ¸
ĠÐ¿ÐµÑĢÐµÐ´ Ð°ÑĩÐ¸
ĠÑģÐ¾Ð¿ ÑĢÐ¾ÑĤÐ¸Ð²
ÐµÑĩ ÑĮ
ĠÐ±ÐµÐ· Ð´
ĠÐ£ Ð¶Ðµ
ĠÐ·Ð°Ð² ÐµÐ´
ÐµÐ¹ ÑĤÐµ
ĠÐ¿ÑĢÐ¸Ð´ ÑĥÐ¼
ĠÐ±Ð¾Ð»ÐµÐ· Ð½ÑĮ
ĠÐ´ Ð½ÐµÐ¼
ĠÐ¿ÐµÑĢÐµÐ¼ ÐµÑī
st ro
ĠÐ²Ñģ Ð»ÐµÐ´
ĠÐ¸Ð½Ð¸ÑĨ Ð¸Ð°ÑĤÐ¸Ð²
ĠÐ¢ Ð²
Ġprze ciw
ĠÐ¾Ð±ÑĬÐµÐº Ñ
Ġre ali
ĠÑĤÑĭÑģÑı ÑĩÐ¸
Ġwszyst kie
ĠÐĶ Ð¾Ñģ
Ð¾Ð»Ð¾Ð³Ð¸ÑĩÐµÑģÐº Ð¾Ð¹
Ġ200 0
ĠP re
ĠÑĤ ÑĢÐµÐ²
ĠÐ»Ð¸Ñĩ Ð½Ð¾
ÑĢÐ¾ÐµÐ º
ĠÐ½ÐµÑģ Ð¾Ð²
ĠÑĩÑĤ Ð¾Ð±
ĠÐ¼Ñĭ ÑģÐ»Ð¸
ÐĽ Ðŀ
ĠÐ» Ð¾Ð´
ĠÑģÑĤ Ð¾Ð»ÑĮ
ĠÐ´Ð¾Ð¼ Ð¾Ð¹
ĠÐ²Ð¾Ð·Ð½Ð¸Ðº Ð°ÑİÑĤ
ia l
ĠÑģ Ð¸Ð½Ð´
Ġwy b
ĠÐ²Ð¸ÑĢ ÑĤÑĥ
ÑģÑĤ Ð°Ð½Ð°Ð²Ð»Ð¸Ð²
Ñ ĤÐ°Ð»
ĠÑģÐ¾ÑĤÑĢÑĥÐ´ Ð½Ð¸ÐºÐ¸
Ð» Ð°Ð·
Ð¾Ð·Ð ¸ÑĢÐ¾Ð²
ĠÐ´ Ð¾Ñĩ
ĠÐ¡ ÐŁ
ÑĢÐ°Ð¶ Ð
ĠÑģÐºÐ°Ð· Ð°Ð»Ð°
¸ ÑģÑı
ÑĥÑĩ Ð
ĠÐ·Ð°Ðº Ð°Ð½
ĠÐŁ ÐµÑĢÐ
Ð¾Ð³ Ð¾Ð´
ÑĤÐ ºÐ¾Ð¼
ĠÑĤÑĥÑĢ Ð½Ð¸
ĠÑĩÐ ¸ÑĤÐ°ÑĤÑĮ
ÐµÐ³ ÐºÐ°
ĠÐ´Ð°Ð»ÑĮÐ½ÐµÐ¹ ÑĪÐµÐ¼
Ġspo ÅĤe
le t
ĠczÄĻ sto
ÑĤÐ¾ÑĢÐ ¸Ñİ
ĠÐ²ÐµÐ´ Ð¾Ð¼
ĠÐ¿Ð¾ÑģÑĤ ÑĢÐ¾ÐµÐ½Ð
ĠÑĪÐº Ð¾Ð»Ðµ
ĠÑģÐ¿ Ð¾ÑĢÑĤÐ°
ĠÐ¿Ð¾Ð»ÑĥÑĩ Ð°ÑİÑĤ
tu ry
3 2
ĠÐºÐ°Ðº Ð¾Ð³Ð¾
ĠÐ¿Ð¾Ð» Ð½Ð¾Ð³Ð¾
ĠÑģÐ¼ ÐµÑģÐ¸
3 4
Ġwszyst ko
ĠÐ²Ñĭ Ð¶
ĠÐ²ÑģÑĤÑĢÐµÑĩÐ ¸
Ġpo prze
3 7
ĠÐ½Ð°Ð³ÑĢÑĥÐ· ÐºÐ¸
ĠÐ¿Ñı ÑĤÐ¸
ĠÑĤÐ²Ð¾ÑĢ Ñĩ
ĠÑĥÑĩ ÐµÐ½Ð¸Ð
Ð¢ Ðĺ
ÐµÑĢÐµÐ ²
Ð¶ ÐµÐ»
ÑĩÐ µÑĤÐ
ĠÐ¾ÑģÑĤ ÑĢ
ĠÑĩÐµÐ»Ð¾Ð²ÐµÐº Ð¾Ð¼
ĠÐ¾Ð±Ð»Ð°Ð´ Ð°ÑİÑĤ
owa niu
ĠÐĸ Ðļ
Ð½Ð¸Ð »Ð¸
ĠÐ´Ð¸ Ð°Ð³Ð
ÑģÐ¸ ÐµÐ¹
ĠÐ²ÑĢÐ°Ñĩ Ñĥ
Ð¿ ÐµÐº
ĠÐ²ÑħÐ¾Ð´ ÑıÑĤ
ĠÐĿÐ¾Ð² Ð¾ÑģÑĤÐ¸
ĠÐºÑĢ Ð¸Ð·
Ġw ww
ĠÐĺÐ½ ÑĦÐ¾ÑĢÐ¼
Ġw ska
ĠÐ¾Ðº ÑĢÐ°ÑĪ
ĠÐ¾Ð± Ð¾Ð³
ĠÑģÑĥÑīÐµÑģÑĤÐ² ÐµÐ½Ð½Ð¾
ĠÐ² Ð¾ÑĪ
ĠÐ¾ÑĤÐ½Ð¾ÑĪ ÐµÐ½Ð¸Ðµ
ĠÐ½Ð°Ñĩ Ð°Ð»Ð¾
ĠÐºÐ°ÑĢ ÑĮ
ĠÐ¶ÐµÐ» Ð°ÑĤÐµÐ»ÑĮÐ½Ð¾
Ġch wi
ĠÑħÐ» Ð¾Ð¿
ĠÑĩÐ¸Ñģ Ð»Ð°
s Ã³w
ĠÐ» ÑĥÐº
ĠÐ¿ÑĢÐ¸Ð½Ñı ÑĤÐ¾
Ð¿ÐµÑĢÐ² ÑĭÑħ
ĠÐ´Ð¸ Ð°Ð±
ÑĤÐ° ÑĢÐ¸
to ra
ÑĥÑħÐ µ
ĠÐ¼Ð½Ð¾Ð³ Ð¾Ðµ
ĠÐ½Ð°ÑĪÐ °
ĠÐķÐ²ÑĢÐ¾Ð¿ Ñĭ
Ñİ Ð¼Ð¸Ð½Ð
ĠÐ·Ð° ÑĢÐ°Ð¶
İÑī Ð¸Ðµ
ĠÐŀÐ± ÑıÐ·
uje my
Ġp ubli
ĠÐ¡ ÐµÐ²ÐµÑĢÐ
ĠÑĥÑħ ÑĥÐ´ÑĪ
ĠÑĤÑĢÐµÐ± ÑĥÑİÑĤ
ĠÐĿÐ¾Ð² ÑĭÐ¹
ĠÐ¼ÑĭÑĪ ÑĨÑĭ
ÐµÑģ ÑĤÐµÑĢ
ĠÑģÐ» ÐµÐ³ÐºÐ°
° ÑĤÐ¸
ĠiP hone
Ðķ ÑģÐ»Ð¸
ĠÐº Ð¸Ð½Ð
ĠÐ²ÑĤÐ¾ÑĢ Ð¾Ð³Ð¾
ĠÐ¿ÑĥÐ½Ð ºÑĤ
ĠÐŁÐ¾ÑĢ Ð½Ð¾
ĠÑĥÐ´ Ð°Ñĩ
ĠÐ¿Ð¾Ð¼ÐµÑī ÐµÐ½Ð¸Ð¹
ĠÐ¿ÑĢÐµÐ´Ð»Ð°Ð³ Ð°ÑİÑĤ
ĠÑĨ Ð²Ðµ
ĠÐ°Ð»ÐºÐ¾Ð³ Ð¾Ð»ÑĮ
ĠÐĽÐ µ
ĠÐ´Ð¸Ñģ Ðº
ch no
ĠÑģ ÐµÑĢÐ¸
bo ok
Ġs ek
u p
ĠÐ» Ð°Ð±Ð¾ÑĢÐ°
ni c
Ġro dza
ĠÑģÑĭ Ð³
ÅĽ rÃ³d
Ð¾ÑĢÐ ¸Ñģ
ĠÐ´Ð¾ÑģÑĤÐ¸Ð¶ ÐµÐ½Ð¸Ñı
ĠÐ¿Ð¾Ð² ÑĭÑģ
ĠÐ½Ð°Ð¶ Ð¼Ð¸ÑĤÐµ
____ ____
mu je
ĠÐ¾ÑĤÑĤ ÐµÐ½Ð
ĠÐ¿ÑĢÐµÐ´ÑģÑĤÐ°Ð² Ð¸ÑĤÐµÐ»Ð¸
ĠÐ² Ð°Ð½Ð½Ð¾Ð¹
ĠÑģÐ¾ ÑĢÐµÐ²Ð½Ð¾Ð²
ĠÐ¼ Ð¾ÑĢÐµ
Ð¾Ð¼Ð¸Ð½Ð°Ð ½Ð
Ð¾Ð² ÑĭÐ¼Ð¸
ÐµÐ¹ ÐºÐ¸
ĠÐľ ÐµÑģ
wi Äĩ
Ġpoz iom
ĠÐ´ÑĢÑĥÐ³ ÑĥÑİ
ĠÐ¡Ðº Ð¾Ð»ÑĮÐºÐ¾
ĠÐ·Ð² ÑĥÐº
ĠÐ¾Ð¿ÑĢÐµÐ´ÐµÐ»Ñı ÐµÑĤÑģÑı
ĠÐ¾Ð±ÑģÑĤÐ¾ÑıÑĤÐµÐ»ÑĮ ÑģÑĤÐ²
ĠÐ² ÑĢÐ¾Ð´Ðµ
ĠÐ´ Ð¾Ð·
ÅĤe j
ĠÐĳ ÐµÐ»Ð°ÑĢÑĥ
ĠÐ¼ Ð¾ÑĪ
Ð¾ÑĢ Ð¾Ð·
Ġu mie
ĠÐ³ÑĢÑĥ Ð´Ð¸
owia da
Ð°Ð½Ð°Ð ¼
ĠÐ¾ÑĤÐºÐ°Ð· Ð°ÑĤÑĮÑģÑı
ĠÑģÐ²ÑıÐ· ÑĮ
ĠÐ¡ ÑĤÐ°
Ð¸Ð½Ð °ÑĢ
ĠÑįÐ¼Ð¾Ñ ĨÐ¸Ð¾Ð½Ð°Ð»ÑĮ
Ġwszyst kim
ĠÐ¾Ð± Ð¼ÐµÐ½
ÑĢ Ð¸Ð±
ĳ Ð¼
ĠÐ¸ÑģÑģÐ»ÐµÐ´ Ð¾Ð²Ð°Ð½Ð¸Ð¹
ĠktÃ³re j
ÑĢÐ¸Ñģ ÑĤÐ¸
ÑģÑĤÐ² ÐµÐ½Ð½Ð¾Ðµ
ĠÐĲÐ½Ð´ ÑĢÐµÐ¹
ĠÐ»ÑĥÑĩ ÑĪÐ¸Ð¹
ĠÐ¿ÑĢÐµÐ´Ð¿ÑĢÐ¸Ñı ÑĤÐ¸Ð¹
ĠÐ²Ð¸Ð´ Ð½Ð¾
ÐµÑĢ Ð²Ð°
ĠÐ²Ð¿ ÑĢÐ°Ð²Ð
ĠÐķÐ²ÑĢÐ¾Ð¿ Ð
Ð°Ð µÑĤÐµÑģÑĮ
ĠÐ¡ Ð½Ð°ÑĩÐ°Ð»Ð°
n k
ĠÑĢÐ°ÑģÑģÐ» Ð°Ð±
ĠÐ¿Ð¾Ð»Ð¸ ÑĤÐ¸ÐºÐ¸
ĠÐłÐ°Ð½Ð µÐµ
Ġ3 2
Ġ 00
r ow
Ð»Ñİ Ð·
lu b
ÑĭÑĩ Ð°Ð¹
ĠÑĤÐµÐ»ÐµÐ² Ð¸Ð·
ĠÐ²Ñĭ Ðº
ca ch
ĠÑĢÐµÐ± ÐµÐ½ÐºÑĥ
ĠÅ »
ĠÐ½ÐµÐ² ÐµÑĢÐ¾Ñı
po zy
ĠÐ» Ð°Ð·
ĠÐ½Ðµ Ð¾Ð¶Ð¸Ð´
Ġfir my
ĠÑģÐ°Ñħ Ð°ÑĢ
ĠÐ´ Ð¸Ðµ
ĠÐ¿ÑĢÐ¸Ñģ Ð¾ÐµÐ´
Ð»Ð°Ð² Ð
Ð»ÐµÐº Ñ
ĠÑĥÐ¿ÑĢÐ°Ð² Ð»ÐµÐ½Ð¸Ðµ
ÑĢÐµÐ·Ð² ÑĭÑĩÐ°Ð¹
ĠÐ¿Ð¾ÑĤÐ µÑĢÐ
ĠÐ²Ð°Ðº ÑĨ
ÑĤÐ¸Ð² Ð½ÑĭÐ¼
ĠÐ¿ÑĢÐ¾ÑĨÐµÐ´Ñĥ ÑĢÐ°
ĠÑģÑĢÐµÐ´ Ð½ÐµÐ¹
ĠÐ¿ÑĢÐ¾Ð²Ð¾Ð´ ÑıÑĤ
ĠÐĲ Ð½Ð°Ð»
ĠÐĿ Ð°ÑĤ
ĠÑģÑĥÑīÐµÑģÑĤÐ² ÑĥÑİÑĤ
Ð»ÐµÐºÑ Ĥ
ĠÐ½Ð¾ÑĢÐ¼ Ñĭ
ĠmoÅ¼e sz
ÑĤÐ¸Ðº Ð¾Ð¹
Å¼e li
ĠÐ¢Ð°Ðº Ð¾Ðµ
ĠÐĿ Ð°ÑĪÐ¸
ĠÐ¿Ð¾Ð²ÑĭÑĪ ÐµÐ½Ð¸Ðµ
ĠÑģ Ð¸Ð½Ð
ĠÑįÐºÐ¾Ð½Ð¾Ð¼ Ð¸ÐºÐ¸
ĠÐ¿Ð¾Ð· Ð¸ÑĨÐ¸Ð¸
ĠÐ°Ðº ÐºÐ°
ĠÐ´Ð¾ÑģÑĤ Ð¾Ð¹
ÑĥÑİÑī ÐµÐµ
ÐµÐ µÑģÑı
Ð´ ÐµÑĤ
ĠÐŀÑĢÐ³ Ð°Ð½Ð¸Ð·
Ġ ÑıÑī
ÅĽ la
ÐµÑģÑĤÐ²Ð µ
ĠÑģÑĥÐ¿ ÑĢÑĥÐ³
ĠÐ¼Ð¾Ð½Ð ¸
ĠÐ¡Ð¾Ð² ÑĢÐµÐ¼
ĠÑĥÐ± Ð¸Ð¹
ĠÑĦ Ð°ÑĢ
Å¼ li
ÑĢÑĭ ÑĤÑĮ
ĠÐºÐ» Ð°Ð²
Ð°ÑĤ Ð¾Ð¼
ĠÐ¾Ð¿ÑĢÐµÐ´ÐµÐ» ÐµÐ½Ð¸Ñı
Ðº Ð¾ÑĪ
ĠÐ¸Ñģ Ñ
ĠÐ¿ÑĢÐ ¸ÑĤ
ĠÐ¸ÑģÑ Ĥ
ĠÐ³ÑĢÑĥÐ¿ Ð¿Ðµ
ĠW o
ĠÑĤÑĢÑĥ Ð±Ñĭ
Ġg ry
ĠÐºÐ» Ð°Ð¿
ĠÑģÐºÐ¾ÑĢÐ ¾ÑģÑĤÐ¸
ĠÑĢÐµÑĪ ÐµÐ½Ð¸Ð¹
ĠÑı Ñģ
ĠÑģÐ²Ð µ
ÐĶ ÐĶ
Ð» Ð°Ñĩ
Ġsto s
Ġy ou
ĠÑĨ Ð¸Ðº
ĠÐ»ÐµÑģ ÑĤÐ½Ð
ĠÐ¸Ð´ ÐµÐ½
ĠÐ¡Ð ¾
ĠÑģÐ²Ð¾ÐµÐ ²
kty w
ĠÐŀÑģÐ¾Ð± ÐµÐ½Ð½Ð¾ÑģÑĤÐ¸
ĠÐŁÐ¾ÑĤ Ð¾Ð¼
Ð³Ð ½Ð¾Ð²
k ra
ĠÐ·Ð°ÑĢ ÑıÐ´
ĠÑģÐµÐ· Ð¾Ð½
Ġczy li
ĠÑģÑĢÐµÐ´ Ð½ÐµÐ³Ð¾
ka cji
Ð¾Ð² Ð¾Ð»ÑĮ
ĠÑĥÑī ÐµÑĢÐ±
ĠÐĺÐ½ ÑĤÐµÑĢÐµÑģ
Ðº Ð¾Ð»
ĠÐ²Ñĭ Ð½ÑĥÐ¶
ĠÐ¿ÐµÑĢÐ² Ð¾Ðµ
ĠÐ± Ð°ÑģÑģÐµÐ¹
Ð¾ÑĢ Ð¸Ð¹
ĠÐ°ÑĢÑħÐ¸ÑĤÐµÐº ÑĤÑĥ
ĠÐ³ Ð°Ð·Ð°
ĠÐ» Ð°Ð¼
cho dzi
Ġza wsze
ĠÑįÑĦÑĦÐµÐºÑĤÐ¸Ð² Ð½Ð¾
Ð½Ð °ÑĢ
ĠB y
Ð¾Ðº Ñĥ
¾Ñĩ Ð½Ð¾Ð¹
ĠÐ½Ð°Ð³ ÑĢÐµÐ²
w czy
m p
ĠÐ¼Ð¾Ð»Ð¾Ð´ ÑĭÑħ
ĠÐ¾ÑĤÐ´ ÐµÐ»Ð°
ĠÑģÐ¿Ð¾ÑģÐ¾Ð± ÐµÐ½
ĠÐ² Ð½Ðµ
ĠÑģÐ¾Ð·Ð´ Ð°Ð²
ĠÑħÐ²Ð°ÑĤ Ð°ÐµÑĤ
ĠD u
ĠÐ¿ÐµÑĢÐµÑĩ Ð¸ÑģÐ»
ĠÑĢ Ð¾Ð»Ð¸
Ð¾Ð´ Ð¾Ð»
ÐĴ Ðĺ
¸ ÑĤÐµÑĤ
201 7
ĠÐ¡ Ð±
ĠÐºÑĢÐµÐ´Ð¸ ÑĤÐ°
pu lar
ÑĢÐ¾Ð¸Ð ´
ĠÐ¿Ð¾Ð´ÑĢÐ¾Ð± Ð½Ð¾
ĠÑģÐµÐ¼ ÑĮ
t wa
ĠÑĤÐµÐ ¾ÑĢÐ
Ġ200 9
ĠÑģÐµÑĢ ÑĤÐ¸ÑĦÐ¸Ðº
Ġz wiÄħza
ĠÑģÐ¾Ð·Ð´ Ð°Ð²Ð°ÑĤÑĮ
ĠÑģÐ¿ÐµÑĨÐ¸Ð°Ð»ÑĮ Ð½ÑĭÑħ
Å¼ u
le nie
ĠÐ·Ð°Ð´ Ð¾Ð»Ð¶
ÑĤÐ¸Ð» Ð¸ÑģÑĮ
Ð ¸ÑĤÐ°Ñ
ĠÑĥÑĤ ÑĢÐ°
ĠÐ²ÑĭÐ¿ Ð¸Ñģ
Ġe fek
Ġ2 50
ĠÐ¿ÑĢÐ¾Ð´ Ð°Ð¶Ðµ
ĠL o
ce nt
ĠÐ»ÑİÐ± ÑıÑĤ
ĠÐ»ÐµÐ³ ÑĩÐµ
Å¼y Äĩ
ĠÐ¿ÑĢÐµÐ´ÐµÐ» Ð°Ñħ
ĠÐŀ ÑĦ
ĠÐ¼Ð°ÑĪ Ð¸Ð½Ð°
Ð°Ð±Ð ¾ÑĤÐ°
t ar
ĠÐ¾ÑĤÐº Ð°Ð·ÑĭÐ²
ĠÐŁ ÑĥÑģÑĤÑĮ
ĠÑĢÐµÑģ ÑĥÑĢÑģ
ÑħÐ °
ĠÐº ÑĢÐ°Ð
Ġdoda tk
ĠÐľ Ð°ÑĢÐ
in te
ĠÐµÐ¶ ÐµÐ³
ĠÐ¿ÑĢÐ¸Ð´ ÐµÑĢÐ¶
ĠÐ²ÑĭÐ½ÑĥÐ¶ Ð´
ĠÑģÑĬ ÐµÐ¼
ÑĢÐµÐ ½Ñĭ
ĠÐ²Ð½ÐµÑĪ Ð½Ð¸Ð¹
Ð°Ð» Ñı
ĠÐ·Ð½Ð°Ð º
Ð°ÑīÐ ¸
ÑĨ Ð¾Ð¼
ĠÐ²Ð°ÑĪ Ñĥ
ĠÐ¼ Ð°Ð½Ð
Ð² ÑĤÐ¾ÑĢ
3 9
! Â»
Ġ ÐµÐ·Ð´
is a
Ġta kich
mie r
ĠÑģÐ»Ð¾Ð² Ð°Ð¼Ð¸
ĠÅ¼y cia
ÐĽ Ðķ
ĠÐ¶Ð ¸ÑĢÐ
ĠÐ¿ÑĢÐµÐ´Ð²Ð°ÑĢÐ¸ÑĤÐµÐ»ÑĮ Ð½Ð¾
ĠÑģÐ¾Ð±Ð»ÑİÐ´ Ð°ÑĤÑĮ
ĠÐ¿ ÐµÑĩÐ°
Ð°Ð½Ð¸ ÐµÐ¹
ĠÐ¶ÐµÐ»ÐµÐ· Ñĭ
ĠÐ²ÑĭÐ¿ Ð¾Ð»Ð½
ĠÐºÐ²Ð°Ð´ ÑĢÐ°
ĠÐ²ÐµÑī ÐµÐ¹
ĠÐ¿Ð ¸ÑĢ
ĠÐ°Ð²ÑĤÐ¾Ð¼Ð° ÑĤÐ¸ÑĩÐµÑģÐºÐ¸
ĠÐ¼ Ð½Ð¾Ð¹
ĠÐºÐ¾Ð¼Ð°Ð½Ð ´Ð°
ĠÐ½ÐµÐ· Ð°Ðº
ĠÐľ Ð¾Ð´
ĠV i
½ ÑĳÐ¼
ĠÐ¿ ÑĥÐ»ÑĮ
ĠÐ¾Ð±ÑĢÐ°Ñī ÐµÐ½Ð¸Ñı
ĠÐ³Ð»Ð°Ð² Ð½ÑĭÐ¹
Ġg e
Ð¸Ð°Ñ ĨÐ¸Ð¸
go dnie
ÐµÑĤ Ñĥ
ĠIn ter
A S
ĠÐºÐ µÑĢÐ°Ð¼
? ?
ĠÐ¿ÑĢÐ¾Ð¸Ñģ Ñħ
Ġce lu
ĠÐ¸Ð· Ð¾Ð±
ni o
ĠÐºÐ¾Ð»Ð¸ÑĩÐµÑģÑĤÐ² Ð¾Ð¼
ĠÐºÑĢÑĥÐ¿ Ð½ÐµÐ¹
ÐŃ ÑĤÐ¾
ĠÐ¾ÑĤÑģÑĥÑĤÑģÑĤÐ² Ð¸Ð¸
Ð» Ð°Ð½Ð´
ĠÐ·Ð°Ðº Ð°Ð·Ð°
ĠÑģÑĤÑĢÐ°Ð½Ð ¸ÑĨÑĭ
ĠÐ´Ð² Ð¾Ð¹
le g
ĠÐ¿Ð¾Ð¿ÑĥÐ»ÑıÑĢÐ ½ÑĭÑħ
ĠÐĶ Ð°Ð½Ð½ÑĭÐ¹
ĠÑĥÐ³ ÑĢÐ¾Ð·
ĠÐ½Ðµ ÑĢÐµÐ´
ĠÑģÑħ ÐµÐ¼Ð°
Ð¾ÐµÐ½Ð ¸Ñı
ĠÐ¿Ð¾Ð» Ð°Ð³
ĠÑģ Ð½Ðµ
Ġde cy
ĠÐ±Ð¾ÑĢÑĮ Ð±Ñĭ
ĠÐ³ Ð°Ð»
ĠÑģÐ°Ñħ Ð°ÑĢÐ°
Ñı ÑĢ
Ĥ Ð°Ð¶
Ñ ĤÐ°Ð¶
ĠÐ¿ÑĢÐ¸Ð½ ÑıÑĤ
ĠÐł Ð¸Ñģ
Ġ jÄħ
ĠÐº ÑĥÐ»
ĠÐĹ Ð°Ñĩ
Ð¢ ÐŁ
ĠÐ¸Ð½ÑĤÐµÑĢ Ð²
Ġt er
Ġp ÅĤy
my s
niej sze
ĠÑĥÑģ ÐºÐ¾ÑĢ
ÑĥÐ ½Ð¾Ðº
ĠÐ£ Ð¿ÑĢÐ°Ð²
ĠÑĢÑı Ð´Ð°
ÑĢÐµÐ »Ð°
ĠÐ¿ÑĢÐ¾Ð³ ÑĥÐ»
Ð¼ Ð¸Ð½
ĠÐĵÐµÑĢÐ¼ Ð°Ð½Ð¸Ð¸
ĠÐ¿Ð¾Ð´ Ð°ÑĩÐ¸
Ġch a
ĠÐŀÐ¿ Ð¸ÑģÐ°Ð½Ð¸Ðµ
ĠÐ¿ÑĢÐµÐ´Ð»Ð¾Ð¶ ÐµÐ½Ð¸Ðµ
ĠÐ²Ñĭ ÑĢÐ°Ð·
ĠÐ¿Ð¾Ð´ ÑĬ
Ð°Ð»Ð ¸Ñı
¸Ñ ī
Ġn owo
ĠÐ½Ð¾Ð¼ ÐµÑĢÐ°
ĠÑħÑĥÐ´Ð¾Ð¶ ÐµÑģÑĤÐ²
ĠÐ¾ÑģÐ¾Ð±Ð ¾
ĠÐ¼Ð°Ñģ ÑģÑĥ
ÐºÑĥ Ð»Ñı
ĠÐ¸Ð¼ ÑĥÑīÐµÑģÑĤÐ²Ð¾
ĠÐ»ÐµÑĩ ÐµÐ½Ð¸Ð¸
ĠÑģÐ²ÑıÐ· Ð°Ð½Ð½ÑĭÐµ
ĠÑģÐ»ÐµÐ´ÑĥÑİÑī Ð¸Ð¼
ĠÐ¼Ð°ÑĢ ÐºÐµ
ĠÐ¡ÑĤ Ð°Ð²
Ñı ÑĤÐ°
t s
ÑĢ Ð¾Ð³
t ne
Ġ ÅĤat
ĠÐ¿Ð¾Ð½Ð ¸Ð
ĠÐ¿Ð¾Ð·Ð²Ð¾Ð½Ð ¾Ñĩ
ĠÐ² Ð½Ð¾Ñģ
ÑĤÐ¾Ñĩ Ð½Ð¾Ð¹
ÑĤÑĮ Ñı
ĠÐ½ÐµÐ¸Ð ·Ð²ÐµÑģ
ĠÑĢÐ¾Ñģ ÑģÐ¸Ñı
ni ki
E N
Ð¿ Ñĭ
ĠÐ¾ÑĦÐ¸ÑĨÐ¸Ð°Ð»ÑĮ Ð½ÑĭÐ¹
ĠÐ¿Ð¾Ð¸Ñģ ÐºÐ°
ĠÐ¡ Ð¸ÑģÑĤ
ÑĪÐ¸Ñħ ÑģÑı
°Ð ´
½Ñĥ Ð»Ð°
ĠÐĴÑĤÐ¾ÑĢ Ð¾Ð¹
ĠÐĶ Ð¾Ð¿Ð¾Ð»Ð½Ð¸ÑĤÐµÐ»ÑĮ
ÑĥÐ¶Ð µ
pie j
ĠÐ¿ÑĢÐ¸Ñĩ Ð¸Ð½Ð°
ĠÐ¸Ð·Ð¾Ð±ÑĢÐ°Ð¶ ÐµÐ½Ð¸Ñı
Ð¸Ñĩ Ð½ÑĭÐ¹
ĠÐ½Ð°ÑģÑĤÑĢ Ð¾Ð¹
ĠS y
ĠÐ¾Ð± ÑĥÑģÐ»Ð¾Ð²
ĠÐºÐ¾Ð»Ð¸Ñ ĩÐµÑģÑĤÐ²Ðµ
ĠÐ¿ÑĢÐ¾ÑĪÐ» Ð¾Ð³Ð¾
Ġ ðŁ
ĠÐ»Ð¸ÑģÑĤÑĮ Ñı
Ġprzed sta
Ġko l
u ka
Ġs tu
Ġr ÄĻ
ÑĤÐ¸Ð· Ð
ÑĢÑĥÐ± ÐµÐ¶
Ġ7 5
ÐĶ Ð
ĠÑģÑĤÐ°Ð² Ð¾Ðº
ÑĢÐ°Ð» Ð¸ÑģÑĮ
ÑĳÑĤ ÑģÑı
ĠÑģ ÐµÑģÑĤ
Ġ200 8
ĠÐ¿ÑĢÐ°Ð·Ð´ Ð½Ð¸Ðº
ĠÐºÐ°Ðº Ð¾Ð¼
wa ne
ĠÐ½Ð°Ð¹ Ð´ÐµÑĤÐµ
Ð¾Ð·Ñı Ð¹
4 6
Ð½Ð°Ð ¹
Ð°Ð½ ÑĤÐ°
Ð°Ð½Ð½Ð ¾ÑģÑĤÑĮ
Ġdo ÅĽwiad
Ð¾ÑĢÐ °Ñħ
Ð°Ñİ ÑģÑĮ
ÐºÐ¾Ð² ÑĭÑħ
l ne
Ġdob rze
ĠÑĢÐµÐºÐ¾Ð¼ÐµÐ½Ð´ ÑĥÑİÑĤ
ĠÐ²Ñĭ ÑħÐ¾Ð´Ð°
ĠÐ½Ð¾Ð² ÑĭÐ¼
ÐµÐ»Ð¾ ÑĢÑĥÑģ
ĠÐ¿ÑĢÐµÐ¸Ð¼ ÑĥÑīÐµÑģÑĤÐ²Ð°
ĠÑ ĨÐ°ÑĢ
nie nia
ĠÐ¿ÑĢÐ¸Ð µÑħ
ĠÐ¿ÑĢÐ¾ÑĨÐµÑģ ÑģÐ¾Ð²
ĠÐ±Ð¾Ð»ÑĮÑĪ ÐµÐ¹
ĠÐ¨ Ð°Ð³
ĠÑĦ ÐµÑģÑĤÐ¸Ð²
k la
ĠÐ·Ð°Ð¿ Ð°Ð´
ÐĶ Ðķ
ĠÐ¿Ð°ÑģÑģ Ð°Ð¶Ð
Ð¸Ñ ĩÐµÑģÑĤÐ²Ð¾
bar dziej
ĠÐļ ÑĢÑĭ
ĠÐ¢ ÐµÑħ
ĠÑĥÑĤ ÑĢÐ¾Ð¼
ĠÐ± ÐµÑĢ
p s
ĠÐ¼ÐµÑħÐ°Ð½Ð¸Ð· Ð¼
Ġpy ta
ĠÐ¼Ð°Ñģ ÑģÑĭ
ĠÐ¿Ð¾Ð¶Ð°Ð»ÑĥÐ¹ ÑģÑĤÐ°
ĠÐ¿Ð¾ÐºÑĢÑĭ ÑĤÐ¸Ðµ
ĠÐ¾Ð±ÑĥÑĩ ÐµÐ½Ð¸Ðµ
ĠÐ¡Ð»ÐµÐ´ ÑĥÐµÑĤ
Ġpo czÄħ
ĠÐ½Ð°ÑĪ Ð¸Ð¼
Ġkon ta
ĠÑģÐ¾Ð² ÐµÑĤÑĭ
ĠÐŁÑĢÐ¾Ð´ Ð¾Ð»Ð¶
ĠÐ» Ð¾Ð¼
Ð¾Ð² Ð¾Ð¼
ÐµÐ½ Ð¾Ð¹
ĠÐ²Ð· Ð½Ð¾Ñģ
ĠÑģÐ¾Ð¾Ð±Ñī Ð¸Ð»Ð¸
Ð°Ð¿ Ð°Ð·
ĠÐĺ ÑģÐº
ĠÐ½Ð°Ð¿ÑĢÐ°Ð² Ð»ÐµÐ½Ð¸Ð¸
ĠÐ·ÐµÐ¼ Ð»Ñı
ĠÐŁ Ð¾Ñħ
ÑĤÐ¸ÑĢÐ¾Ð² Ð°Ð½Ð¸Ðµ
tycz Äħ
µÐ ´
ĠÐĴ ÑĢÐµÐ¼Ñı
ĠB ar
ĠÑĤÐ¾Ð¿Ð»Ð¸Ð²Ð °
ĠÐĳÐ¾Ð»ÑĮÑĪ Ð¸Ð½ÑģÑĤÐ²Ð¾
Ð°ÐµÐ¼ Ð¾Ð¹
ĠÑĤÑĢÐ°Ð½ ÑģÑĦ
ĠÐ³Ð¾Ð» ÑĥÐ±
ĠÐºÐ½Ð¸Ð ³Ñĥ
ĠÐ³Ð¾Ñģ ÑĤÐ¸Ð½Ð
ĠÑģÐ´ÐµÐ» ÐºÐ¸
ĠÐ·ÐµÐ¼ Ð»Ñİ
ĠÐ·Ð°Ð¸Ð½ÑĤÐµÑĢÐµÑģ Ð¾Ð²
Ð½Ð »Ð°Ð¹Ð½
ĠÐ¿ÑĢÐ¸Ð¼ÐµÐ½ ÑıÑİÑĤ
ĠÐºÐ°ÑĢÐ ¼
ĠÑı Ð¿Ð¾Ð½
Ġc om
Ðº Ð¾Ð½Ð
Ð¾Ð½ Ð¾Ðº
m ar
ĠÑĥÐ½Ð¸Ð²ÐµÑĢ ÑģÐ¸ÑĤÐµ
ĠÐ¿Ð°ÑĢ ÑĤÐ¸Ð¸
ĠÐ²Ñĭ Ñĩ
ĠÐ»ÑİÐ± ÑĥÑİ
Ð¾Ð² Ð°Ð½Ð¸Ñİ
szta ÅĤ
ĠÐ½Ð°Ð·Ð² Ð°ÑĤÑĮ
ĠÑĥÑħ Ð¾Ð´Ð°
ÐºÐ°ÑĤ ÑĥÑĢ
ÑĤÐ°Ñ ĤÑĥ
Ð¸Ð¼ Ð¾Ð¹
Ġf o
ÑĪÐ ¸ÑĢÐ
ÐµÑĢÐ ½ÑĭÐµ
¸ÑĢÑĥ ÐµÑĤÑģÑı
Ð» Ð¸Ð½Ð°
Ð°Ð» Ð¸Ð·
ĠÐ¿Ð¾ÑħÑĥÐ´ ÐµÐ½Ð¸Ñı
Ġda nych
Ġw ol
ĠÐ¿ÑĢÐ¾Ð¸Ð·Ð²Ð¾Ð´Ð¸ÑĤ ÐµÐ»ÐµÐ¹
Ñ ĤÐ¾Ð³Ð¾
ĠÐ°Ð» Ð¸Ð¼
ĠÐ¾Ð± Ð¶
ĠÐ½Ñĭ Ð½ÐµÑĪ
Ġ3 8
ĠÐ´ Ñĭ
ĠÑĪ Ð²
ĠÑĩ ÐµÑģÐ
ÐµÑĤÐ ºÐ¸
ĠÐŃÐº ÑģÐ¿
ĠÐ²Ñĭ ÑĢÐ¾Ñģ
Ġ )
Ġja ki
Ð½Ð ¾ÑĪ
ĠÐ²Ð°ÑĪ ÐµÐ¼Ñĥ
ĠÐļ ÑĥÑĢ
Ð½ÐµÑĤ ÑģÑı
ĠÐ¿Ð¾ÑıÐ² Ð»ÐµÐ½Ð¸Ðµ
Ð°ÑĤÐµÐ»Ñı Ð¼
ÑĤÑı Ð³
ĠÐ¸Ð »
ĠÐ¿Ð¾ÑĤ Ð¾Ðº
Ġh o
ĠÐ¼Ð¾Ð³ Ð»Ð°
Ġdo tyczÄħ
Ñ ĨÐ¾
Ð°Ð½ ÑģÐºÐ¾Ð³Ð¾
ÑĤÐ°ÑĤ Ð¾Ðº
ĠÐ½Ð°Ð·Ð½Ð°Ñĩ ÐµÐ½Ð¸Ñı
ĠH o
ÑĢÐµÐ± Ð¾Ð²
Ð°Ð½ ÑĨÐ¸Ð¸
ĠÐ½Ð°ÑĪÐ µ
ĠÑģÐ² ÑıÑĤ
ĠÐ¾Ð´Ð¸Ð½Ð°Ð º
ĠÐ¿ÑĢÐ¸Ðº Ð°Ð·
ĠÐ¿ÑĢÐ¾Ð¼ ÐµÐ¶
ĠÑĦÐ¸ÑĢÐ¼ Ñĭ
Ġlo ka
ĠÐ¸Ð³ ÑĢÐ°ÐµÑĤ
ÐµÑĢÐµÐ ¿
ĠÐ¿ÑĢÐµÐ´ÑģÑĤÐ°Ð² Ð¸ÑĤÑĮ
ĠÑĪ ÑĤÐ°
ĠÐ¿Ð¾Ð´ Ð¾ÑĪ
Ð¼ ÑĥÑİ
z ie
ĠÐ¿ÑĢÐ¾Ð¸Ð·Ð²Ð¾Ð´Ð¸ÑĤ ÐµÐ»Ñı
ĠÑĩ ÐµÑĢÑĤ
ĠÐ¿Ð¾ÐºÐ°Ð· Ð°ÑĤÐµÐ»Ð¸
w iÄĻk
ĠÐ¢ ÑĥÑĤ
ĠÐ¿ÑĢÐ¾Ð¸Ð ³
ĠÐ¿ÐµÑĢÐµÐ² Ð¾Ð´
Ġk asy
ĠÐŀ Ð¡
ÑĢÐ°Ð» Ð»
ĠÑģÐ¿ Ð°Ð»ÑĮ
ĠÐŀ Ð»ÑĮ
ĠÐ² Ð°Ð³
ĠÐ³Ð¾ÑĢÐ¸Ð· Ð¾Ð½ÑĤ
ĠÐ¿ÐµÑĢÐµÐ¼ ÐµÑĪ
ĠÐľÐµÐ¶Ð´ ÑĥÐ½Ð°ÑĢ
ĠÐ¿ÑĢÐµÐ´ÑģÑĤÐ°Ð² Ð¸ÑĤÐµÐ»ÐµÐ¹
ĠÐº ÑĢÑĥÐ¶
ĠÑĢÐµÐ°Ðº ÑĨÐ¸Ð¸
Ðľ Ñĭ
Ġw ÅĤo
ĠÐ½Ð¾ ÑĥÑĤÐ±
ĠÐ¿ÑĢÐµÐ¿ Ð¾Ð´Ð°Ð²
ĠÐ¾ÑīÑĥÑī ÐµÐ½Ð¸Ñı
ĠÐ²Ð¾ÑģÑģÑĤÐ°Ð½Ð¾Ð² Ð»ÐµÐ½Ð¸Ñı
ĠÐ±Ð» ÑİÐ´
ĠÐ¿ ÑıÑĤ
k tÃ³
ĠÑĢÐµÐ¹ ÑĤÐ¸Ð½Ð³
ia d
ĠÐ² Ð¸Ð½Ð¾Ð²
ĠÐºÐ¾Ð¼Ð¸Ñģ ÑģÐ¸Ð¸
ÑģÑĤÑĢÑĥÐº ÑĨÐ¸Ñı
ÐµÐ ³Ð¸
ĠÑĥÐ² Ð»ÐµÐº
Ġczas ie
ĠÐ°Ð½Ð ³
ĠÐºÐ¾Ð½ Ñĩ
ĠÑįÑĦÑĦÐµÐºÑĤÐ¸Ð² Ð½Ð¾ÑģÑĤÑĮ
Ð» Ð¸ÑĤÑĮ
ĠÐ·Ð°ÑĢ Ð¿Ð»
ÐµÐ½Ð ´Ð
ĠÐ¿Ð¾ÑıÐ² Ð¸Ð»Ð¸ÑģÑĮ
ĠÑģÐ² Ð°Ð´ÑĮ
Ð¸ÑĩÐµÑģÐº Ð¾Ð¼
ĠÐ¿Ð¾Ð»Ð¾Ð¶ ÐµÐ½Ð¸Ð¸
ĠÐ¶Ð´ Ð°ÑĤÑĮ
ĠÐºÑĢÐ¾Ð² ÑĮ
ĠÑģÐ¿ ÑĥÑģÑĤÑı
ÑĤÐ¸ÑĢÐ¾Ð² Ð°ÑĤÑĮÑģÑı
rzÄħ d
ĠÐ¾Ð± ÑģÑĤÐ°Ð½Ð¾Ð²
ĠÐ²Ð °
Ñį Ð¹
Ð¾Ñģ Ð»Ð°Ð²
Ð¹ ÑĤÐµÑģÑĮ
ĠÑģÑĤ ÐµÐ½Ð
ĠO b
Ġo ne
ĠÑĥÐ² Ð¾Ð»ÑĮ
ĠÑĨ Ð²ÐµÑĤÑĭ
Ð» ÐµÐ½Ð½ÑĭÐ¼
ĠO p
Ġu zy
ĠÐ¿Ð¾Ð´Ð¾Ð± Ð½ÑĭÑħ
Ð² ÑĥÑĩ
ĠJ u
ia n
ĠÅ¼e by
ĠÐ² Ð¾Ð¾ÑĢÑĥÐ¶
ĠÐĺ Ð´
ĠÐ¾Ð¿Ñĭ ÑĤÐ°
w em
Ġwz glÄĻ
ĠÐ·Ð½Ð°Ð½Ð ¸Ð¹
ko ÅĦ
Ðĺ Ð
Ð½Ð´ ÐµÐºÑģ
Ð¸Ð² Ð°Ð½Ð¸Ð¸
Ð°ÑĤÐµÐ»ÑĮ Ð½ÑĭÐ¼
½ ÑıÑĤ
ĠÐ³Ð¾ÑĤÐ¾Ð² Ð
ĠÐĶ ÑĥÐ¼
ĠÐ¼Ñı ÑģÐ¾
Ð¸Ð½Ð ¸ÑĤÑĮ
Ð°Ñħ Ð
A C
ĠÐ¾Ð±ÑĬ ÑıÑģÐ½Ñı
ĠÑģÐ¿ÐµÑĨÐ¸Ð°Ð» Ð¸Ð·Ð¸ÑĢÐ¾Ð²
ĠÐ¸Ð½ÑģÑĤÑĢÑĥÐº ÑĨÐ¸Ð¸
ĠÐ¡ ÐµÐ²
ĠÑģÐ µÑĢÐµÐ±
ĠÐºÐ» ÐµÑĤÐ¾Ðº
Ð½Ð¸Ñ ĨÐµ
Ġk to
ĠÐ·ÐµÑĢÐº Ð°Ð»Ð¾
Ð½Ð°Ð »Ð°
Ġi de
ĠÐ¿Ð¾ÐºÑĥÐ¿ ÐºÐµ
st Ã³w
ĠÐ¾Ð³ÑĢÐ¾Ð¼ Ð½Ð¾Ðµ
Ġele kt
ĠÐ¾ÑĤÑģ ÑĥÑĤ
ÑĢÐ°Ð½Ð ¸Ñı
ĠÑĢÐ°Ð·Ð² Ð»ÐµÑĩ
ĠÐŁÑĢÐ°Ð² Ð´Ð°
ĠÐ²ÑĭÑģÐ¾Ðº Ð¸Ð¹
ĠÑĪ Ñĥ
ĠÐ¼ Ð³Ð½Ð¾Ð²
ÑĤÐ½Ð ¸ÐºÐ¸
ĠÐ¸Ð³ÑĢÐ¾Ð² Ð¾Ð¹
res ie
Ð°ÑĦ Ð¸Ðº
cyj nych
Ġsie bie
ĠÐķÐ² Ð³
ĠÐ¿Ð¾Ð² Ñģ
Ġz de
ĠÑĥÑģÐ¿ Ð¾Ðº
ĠS er
Ð¡ Ñ
ĠÐ¿ÑĢÐ°Ð² Ð¸ÑĤÐµÐ»ÑĮÑģÑĤÐ²Ð°
d ÅĤ
ĠÐ² Ð¾ÑĢ
z o
ÑĢÐ°ÑģÑĤ ÑĢÑĥÐºÑĤÑĥ
ĠÐ±Ð°Ð½Ð ºÐ¸
ĠÐµÐ¶ÐµÐ´Ð½ÐµÐ² Ð½Ð¾
p t
Ñĩ ÐµÑĢÐ°
ĠÐ¿Ð»Ð° ÑĤÐ¸ÑĤÑĮ
ĠÐ¿Ð¾Ð´Ð´ÐµÑĢÐ¶ ÐºÑĥ
ĠÑģÐ½Ð¸Ð¶ ÐµÐ½Ð¸Ðµ
ĠÑģÐ¾Ð¾ÑĤÐ²ÐµÑĤÑģÑĤÐ² ÑĥÐµÑĤ
ĠÐ´ÐµÐ» Ñĥ
Ð°Ð´Ð µ
li za
ĠÑıÐ¹ ÑĨÐ°
ĠÐ² Ð°Ð½Ð
Ñĩ ÑĤÐ¾
ĠÐ» ÐµÐ²
ĠÐº Ð¸Ð½Ð¾
6 5
ĠÐ¾ÑĢÐ µÑħ
ĠÐ¾Ð¿ ÑĢÐ°Ð²
ĠÑĤÐµÐ¿ Ð»Ð¾
ĠÐ¿Ð» ÐµÑĩ
ĠÐ¸Ð½ÑĦ ÐµÐºÑ
Ð¾Ñĩ Ð½Ð°Ñı
ĠÐ¿ÑĢÐµÐ´Ð¾ÑģÑĤÐ°Ð² Ð¸ÑĤÑĮ
ĠÑģÑĤ ÑĢÐ¾Ð¹
ĠDz iÄĻki
no si
ÑĤÐ ¾ÑģÑĤÐ¸
ĠÑģÐ´ÐµÐ» Ð°Ð»Ð¸
ĠÐ¸Ð ½Ð¾Ð¹
ÑĢÐµÐ ¸Ð¼
Ð¸Ð½Ð¸Ð »
ĠÐ½Ð°ÑĪ Ñĥ
ĠÑĢÐµÐ± ÑĳÐ½Ð
ĠÑıÐ³ Ð¾Ð´
ĠÐ°ÐºÐºÑĥ ÑĢÐ°ÑĤÐ½Ð¾
ÑĢ Ð¾Ð»
ÐµÐ½Ð ¾Ñģ
ĠÐ´ÐµÑĤÐ°Ð» ÐµÐ¹
Ð¸Ð» Ð¸Ð½Ð´
ÐµÑģ ÑıÑĩ
ĠÐºÐ¾Ð¼Ð¿ Ð¾Ð·
ĠÐ¾ÑģÑĤ Ð°Ð»ÑĮÐ½ÑĭÐµ
Ð¡Ñ Ĥ
ĠM u
ĠÑĩ ÑĢÐµÐ·Ð²ÑĭÑĩÐ°Ð¹
ĠFa ce
ÑĢÐ¸ÑĢÐ¾Ð² Ð°ÑĤÑĮ
ĠÐ½Ð°Ñģ Ð»Ð°Ð¶Ð´
p la
ÑĤÐ½Ð °
ÅĤo ÅĽÄĩ
res s
ĠÐ¾ÑĪÐ¸Ð± ÐºÐ¸
ĠÐ·ÑĥÐ± Ð¾Ð²
ĠÐºÐ¾Ð¼Ð¿Ð»ÐµÐº Ñ
ĠÐ¿ÑĢÐ¾Ñģ ÑĮ
ĠÑĥÑĩÐ°Ñģ ÑĤÐºÐµ
cz ka
ĠÐ»ÐµÑĤ Ð¾Ð¼
ÐµÑĢÐ ½ÑĭÑħ
sze nia
ĠÐ¿Ð°Ð¼ ÑıÑĤÑĮ
Ġpo m
ĠÑģÑĥ ÑĤÐ¸
ĠÐº ÐµÐ¼
ĠÑĢÐ°Ñģ ÑģÑĤÑĢÐ¾Ð¹
ĠÐ¿ÑĢÐ¾Ñ ĤÐµÐº
ĠÐ¿Ð¾Ð» Ð¸ÑĨÐ¸Ð¸
ĠÐ´Ð¾ÑģÑĤÐ°Ð² ÐºÐ¸
Ġpoz wala
ĠÑĦÑĥÐ½ÐºÑ ĨÐ¸Ñı
Ġp as
ĠÐ¿Ð»Ð°Ð½Ð ¸ÑĢÐ¾Ð²
Ðº Ð°Ð»
Ġza sa
Ġw s
ĠÑĤÐ¾ ÑĢÐ¶
ĠÐ·Ð°Ñģ Ð»ÑĥÐ¶
ĠÐ¼ Ð°ÑĤÑĮ
Ġmo de
ĠÐ¿ÑĢÐ¾ÑģÑĤÑĢÐ°Ð½ ÑģÑĤÐ²Ð°
ĠÐ¼Ð°ÑĪ Ð¸Ð½
Ġw al
. ||
ĠÐ½Ð° ÑĢÑıÐ´
wa ÅĤ
ĠÐ¿Ð» Ð°Ð½Ðµ
ĠÐ·Ð² ÑĥÑĩ
ĠwÅĤa ÅĽnie
ĠÐ½Ð°ÑĢ ÐºÐ¾
l l
ĠÐ¾Ð´ ÐµÐ¶
ĠÐł Ð¾Ð¼
Ð¼ Ð¾Ð¹
ĠÐŁÑĢÐ¸Ñĩ ÐµÐ¼
Ð» ÐµÐ½Ð½Ð°Ñı
Ġt rud
ĠÐ¿Ð¾ÐºÑĥÐ¿ Ð°ÑĤÑĮ
ĠÐĶ ÐµÐ¹ÑģÑĤÐ²
Ð¾Ð³ÑĢÐ°ÑĦ Ð¸Ñı
ÐµÑĢÐº Ð²Ð¸
ĠÐ¿ÑĢÐ°Ð·Ð´ Ð½Ð¸Ñĩ
ie s
ĠÑĢÐµÐºÐ»Ð°Ð¼ Ñĭ
ĠÐ²Ð¾Ð·Ð´ÐµÐ¹ÑģÑĤÐ² Ð¸Ðµ
ĠÐ°ÐºÑģ ÐµÑģÑģÑĥ
Ð¾ÑģÐ¿ Ð°Ð»
ĠÐŀ Ð½Ð¾
ĠÐ½Ð°Ð·Ð² Ð°Ð½Ð¸ÐµÐ¼
Ð² Ð¾Ðº
ĠÑħ Ð²Ð°
ĠÐ²Ðµ ÑĤÐµÑĢ
Ð¾Ð± Ñī
ĠÑĢÐ°Ð·Ð¾Ð± ÑĢÐ°ÑĤÑĮÑģÑı
Ð°ÐºÐ µ
ĠÑģ ÑĥÑĪ
ĠÐ½ÐµÐ¿ÑĢÐ°Ð² Ð¸Ð»ÑĮ
ĠÐ´Ð¾ÑĢ Ð¾Ð³Ð¸
ĠÐ¾Ð´ Ð¸Ð½Ð
ĠÐ¡ Ñħ
ĠÑģÐ¿ÐµÑĨ Ð¸ÑĦ
ĠÑģÑĤ ÑĢÐ°Ñģ
Ð¿ Ð°Ð´
Ð»Ð°Ð²Ð °
ÑĤÐµÑĢ Ð¾Ð²
Ð½ÐµÐ½Ð ¸Ð¸
ĠÐ¸Ð ½ÑĭÑħ
ĠÐŀÐ± ÑĢÐ°Ð·
ÐµÐ½Ð°Ð ¶
ĠÐ»ÐµÐºÐ°ÑĢ ÑģÑĤÐ²Ð°
ÐµÐ½Ð½ Ð¾Ð»ÐµÑĤÐ½Ð
Ð»ÑĮ Ñı
ĠÑĢÐµÐ³Ð¸ Ð¾Ð½Ðµ
Ð¾Ð´ Ð½ÑĭÐ¼
ĠÑģÐµÐº ÑĢÐµÑĤ
ĠÑģÐ¿Ð¾ÑģÐ¾Ð± Ð
ĠÐĲ ÑĢÐ¼
ĠÑģÐ¿Ð¾ÑģÐ¾Ð± Ð½Ð¾ÑģÑĤÑĮ
ĠÐºÐ¾Ð¼Ð¿Ð»ÐµÐºÑ Ĥ
ĠÑģÑĤÑĢ Ð¸Ð¶
Ġz es
ĠÐ±Ð» ÑİÐ´Ð°
ĠÐºÐ°Ð¿Ð¸ÑĤ Ð°Ð»
ĠÐ¿Ð¾Ð´ÐºÐ»ÑİÑĩ ÐµÐ½Ð¸Ñı
ĠÐ´Ð¸Ñģ Ð¿
ĠÐ¿Ð°ÑĢÐ ½Ñı
ĠÐºÐ¾Ð½ÑĨ ÐµÐ¿
ni os
Ð°Ð»ÑĮ ÑıÐ½
ĠÐ¸Ð½Ð ½Ð¾Ð²
ĠÐ· ÑĢÐ¸ÑĤ
ÑĥÑħÐ ¸
ĠÐ½ÐµÑĢÐµÐ´ ÐºÐ¾
Ġwar un
ĠÐ¿ÑĢÐ¸ÑģÑĤ Ð°Ð²
ĠÐ½Ð¾Ð² Ð°Ñı
ĠG ra
ĠY ou
ÐºÐ¾ÑĢÐ µ
ÐĿÐ °
ĠÐº Ð¾Ð¶Ðµ
Ð°ÑĤÐµÐ»ÑĮ ÑģÑĤÐ²Ð¾
jÄħ ca
ĠWar sza
Ð¡ Ð¿
ĠÐ²Ð´ Ð¾Ñħ
ĠÐ¿Ð¾ÑĢÐ ¾ÑĪ
ĠÐºÐ¾Ð½ÑĦ ÐµÑĢÐµÐ½
ĠÐĽÐ ¸
ĠÐ´ ÐµÐ»Ð¾Ð²
ĠÐ²ÑĭÑģÐ¾Ðº Ð¸Ð¼
Ð¢ Ð¡
ĠÐ¡ Ð¾ÑģÑĤÐ°Ð²
ĠÐ¾Ðº Ð°Ð·ÑĭÐ²Ð°ÐµÑĤ
ĠÐ¾ÑĤÐ´ÐµÐ»ÑĮ Ð½Ð¾
½ ÑĮÑİ
ĠÐºÐ»Ðµ ÑĤÐºÐ¸
· Ð°Ð¿
ĠÐ»Ð¸Ð½Ð µÐ¹
ĠÐ¾Ñģ Ð¼Ð¾ÑĤ
ĠÐ½ÐµÐ ³
Ð»Ð°Ð½Ð ¸ÑĢÐ¾Ð²
ĠÐµÐ´ Ñĭ
Ð°ÑĪ ÐºÐ¸
ĠÐ½ÐµÐ±Ð¾Ð»ÑĮÑĪ Ð¸Ðµ
st wo
ºÐ °Ñı
Ð¾ÑĢÐ¾Ñ ĤÑĮ
Ð½ÐµÐ ½
Ð¾Ðº Ð°ÑĩÐµÑģÑĤÐ²
ĠÐ¿Ð ¸ÑĤÐ°ÑĤ
ĠÐ·Ð°Ð± Ð»
ĠÐ´Ð¾ÑģÑĤÑĥÐ¿Ð °
ĠÐ½Ð°Ð±Ð»ÑİÐ´ Ð°ÐµÑĤÑģÑı
Ġpro f
¾Ñģ ÑĤÐµÐ¹
ĠÐ²Ð½Ð¸Ð¼ Ð°ÑĤÐµÐ»ÑĮÐ½Ð¾
ĠÐ¾ÑĢÑĥ Ð¶Ð
Ð»Ð¾ ÑĤÐ°
or g
ĠÐ¿Ð¾Ðº Ð°Ð·Ð°ÑĤÑĮ
ĠÐ¸Ð· Ð±Ð¸
Ġu cze
ÑģÑĤÐ² ÑĥÐ¹ÑĤÐµ
ĠÐ»ÐµÑĩ Ð¸ÑĤÑĮ
ĠÐ´ÐµÐ²ÑĥÑĪ ÐºÑĥ
Ð¿ ÑĢÐ¸
ĠÐŁÑĢ Ð¸Ð½
ĠÐºÐ»Ð¸ ÐµÐ½ÑĤÐ°
ĠÐ±Ð¾Ð»ÑĮÑĪÐ¸Ð½ ÑģÑĤÐ²Ð°
ĠÅĽwia t
ĠÐ¼ÑĥÐ¶ Ð
ĠÐ²Ñĭ ÑģÑĤ
ĠÐ²ÑĭÐ¿Ð» Ð°ÑĤ
ĠÐĺ Ð³Ð¾
ĠÐ¾Ð±ÑĢÐ° ÑĤÐ½Ð¾
Ġna szej
Ð°Ð²Ð °
ĠÑģÑħ ÐµÐ¼Ñĭ
ĠÑĩÐ°Ñģ Ñĭ
ĠÐ»Ð¸Ñ ĨÐµ
ÑĢÐµÐ¿ Ð
Ġpow sta
il l
w en
ĠÑĥÐ± ÑĢÐ°ÑĤÑĮ
ĠÐĶÐ¼Ð¸ÑĤ ÑĢÐ¸Ð¹
ĠÐĴÑģ ÐµÐ³Ð¾
ĠÐ²Ð½ÑĥÑĤÑĢ ÑĮ
ĠÐ½Ð°Ð¿Ð¸Ñģ Ð°ÑĤÑĮ
ĠÐ²ÑĭÐ¿ ÑĥÑģ
ĠÐ¡Ð¿ÐµÑ ĨÐ¸Ð°Ð»
ĠÐ¼ÐµÐ´ Ð
Ð¸Ð¼ Ð¾Ðµ
ĠÐ¼Ð°ÑģÑĪÑĤ Ð°Ð±
ĠÐ´Ð² Ð¾ÑĢ
tycz ne
Ð¾Ð¿Ð¾Ð» ÑĥÑĩ
ĠÐ¿ÑĢÐ¾Ñ ĤÐ¾Ðº
ĠÑģÑĤÑĢÐ°Ð½Ð ¸ÑĨ
ĠÑģÐ¾Ð± ÑĢÐ°ÑĤÑĮ
ĠÐ´ Ð¾ÑĪ
Ð¾Ð½Ð¸Ð ·
Ð»Ñı Ð½Ð
c ki
Ð¸Ð½ ÑģÐºÐ¸Ð¹
ĠÑĥÐ´Ð°Ð» ÐµÐ½Ð¸Ñı
ĠÐĶ ÐµÐ»Ð¾
Ġob ie
ÑĢÐ°Ð±Ð¾ÑĤÐ ºÐ°
Ġzosta ÅĤ
ĠÑĨÐ¸ ÑĢ
ÑĥÐ· Ð
ĠÐ¾Ð¿ÑĢÐµÐ´ÐµÐ» ÐµÐ½Ð½ÑĭÐµ
Ġosob y
Ð¸Ð² Ð°Ð¹ÑĤÐµ
ĠÑĦÑĥÐ½Ðº ÑĨÐ¸Ð¹
ĠÐ½Ð°Ðº Ð»Ð°Ð´
u a
ĠÑĪÐ¸ÑĢ Ð¾ÐºÐ¾
ĠÑģÑĤÐ°ÑĤÑĮ Ñı
ÅĦst wo
Ð»Ð¾Ð½Ð µÐ½Ð
ĠÑĢÐµÐ¶ Ð¸Ð¼Ð°
ÐµÐ¶Ð °
Ðº Ð¾Ð²Ð°
Ð°Ñ ĨÐ¸Ð¾Ð½Ð°Ð»ÑĮ
ĠÐ¿ ÐµÑĪ
Â» :
ĠÐ²Ð¾Ð· Ð»Ðµ
ĠÑĢÐ°Ð·Ð² Ð¸Ð²Ð°ÐµÑĤÑģÑı
ĠÑĢÐ°Ð· Ð¼ÐµÑģ
Ð¸ÑĤ Ð¾Ðº
Ð½Ð°Ñĩ Ð°Ð»ÑĮÐ½Ð¾
ĠÐ½Ð°ÑĪ Ð»Ð¸
ĠÐ¿ÑĢÐµ Ð¾Ð±ÑĢÐ°Ð·
Ð¾Ð² Ð°Ð½Ð¸ÐµÐ¼
ĠÐ·Ð½Ð°Ð¼ ÐµÐ½Ð¸ÑĤ
ÑĥÐ¼ ÐµÐ²
ĠÐĲ Ð¿
Ð¸Ðº Ð°Ð¼Ð¸
ĠÐ½ÐµÐ¸Ñģ Ð¿ÑĢÐ°Ð²
ĠÐ½ÐµÐ· Ð°Ð¼
¾Ñ ĤÑĥ
ĠÐ¡ ÑĤÐ°ÑĤÑĮ
ĠÐ¿ÑĢÐ¸Ð² ÑĭÐº
Ð°Ð· Ð¼
ÑĮ ÐµÐ¼
Ã³ Åº
ĠÐĿ ÐµÐ¼
le s
ĠÐĸ ÐµÐ½Ñī
ĠÐŁÐ¾Ð´ Ð¾Ð±
Ð²Ð°ÑĢ ÑĤÐ¸
ĠMo Å¼e
ĠÐ¾Ð±ÑĬÐµÐºÑ Ĥ
ĠÐ£ ÑĩÐ°Ñģ
ĠÐ¼Ð° ÑĤÐºÐ¸
Ġ5 5
re e
arÃ³w no
Ġszcze gÃ³l
ĠÐĶÑĢÑĥÐ³ Ð¸Ðµ
ĠÐ¿Ð° ÑĢÐ°
ĠÐ³ Ð°Ð´
ĠÐ°Ð²ÑĤÐ¾Ð¼ Ð°ÑĤ
ĠÑĢÐµÐºÐ¾Ð¼ÐµÐ½Ð´ ÑĥÐµÐ¼
ĠÐł Ð°Ð±Ð¾ÑĤÐ°
ÑĤÐ¸ÑĤ ÑĥÑĤ
ĠÐ³Ð¾ÑģÑĥÐ´Ð°ÑĢÑģÑĤÐ² ÐµÐ½Ð½Ð¾Ð³Ð¾
ĠÑĩÐ»ÐµÐ½ Ð¾Ð²
ĠÑĢÑĥ ÐºÐ¾Ð¹
ĠAp ple
ĠÐ¾ÑĤ ÑħÐ¾Ð´
ĠÐ½Ð¾ ÑĤÐ°ÑĢÐ¸
Ñģ ÐµÑĢ
m on
ÑĤÐ½Ð ¸ÐºÐ°
Ġte mat
ĠÐ·Ð°Ð¿ Ð¸ÑģÑĮ
Ġby ÅĤy
ĠÐ²ÐµÑĢÑħ Ð½ÐµÐ¹
p or
U S
ĠÐ¿Ð¸ÑĤ Ð¾Ð¼
ĠÐ§ ÐµÐ»Ð¾Ð²
ed ia
°Ñ ĨÐ¸Ð¸
ÑĢÐµÐ¹ Ð´
ĠÑĩÑĥÐ² ÑģÑĤÐ²Ð°
ĠÑĥ Ð¹
ĠÐł Ð¾Ð´
ĠÑģÐ°Ð¹ ÑĤÐ¾Ð²
Ð¾Ð¼Ð ¾
ĠÑģÐ¾Ð´ÐµÑĢÐ¶ Ð°Ð½Ð¸Ñı
ĠÑģÐ¾ÐµÐ´ Ð¸Ð½ÐµÐ½Ð¸Ñı
Ð¾Ð°Ð ½Ð
ÐµÑĢÐ ½Ñı
ma ty
ÑĤÐ¸ÑĩÐµÑģÐº ÑĥÑİ
ĠÐ¾Ð±ÑģÐ»ÑĥÐ¶ Ð¸Ð²Ð°Ð½Ð¸Ñı
ÑĢÐ°Ð»ÑĮ Ð½ÑĭÑħ
ÅĤ on
ĠÐºÐ¾ÑĢÐ¿ ÑĥÑģ
ÑĢÐ¾Ð ºÐ°
ÑĤÐ¸ÑĤ ÑģÑı
įÐº Ð¾Ð½Ð¾Ð¼
ĠÑģ ÑħÐ¾Ð´
ĠÐ»Ð¸Ðº Ð²Ð¸Ð´
Ð¾Ð ¾ÑĤÐ²ÐµÑĤÑģÑĤÐ²
ĠÐĹÐ°Ðº Ð¾Ð½
Ġ ÑĤÐ¸Ñħ
la nd
Ġo trzyma
Ñĭ Ð¶
Ð½Ð¸ ÐµÐ¼
ĠÐ´ Ð°Ð¼
ĠÐ²ÑĭÑģ Ð¾ÐºÐ°Ñı
ĠÑģÐ»Ð¾Ð¶ Ð½Ð¾ÑģÑĤÐ¸
ĠÐºÐ¾Ð¼Ð¼Ñĥ Ð½Ð¸Ðº
ĠÐ¿Ð¾Ð» Ð¾ÑģÑĤÐ¸
Ð¾Ð»ÑĮ Ð½ÑĭÐµ
ĠÐ½Ð°Ð¿ÑĢÑı Ð¼ÑĥÑİ
ĠÐ¸ÑģÐºÑĥÑģ ÑģÑĤÐ²Ð°
ĠÐ¿ÑĢÐµÐ² ÑĢÐ°Ñī
ĠF or
ĠÐ¿Ð¾ÑıÐ² Ð¸Ð»Ð°ÑģÑĮ
ĠÐ¿ÑĢÐµÐ´Ð¼ ÐµÑĤÑĭ
ĠÐ½ÐµÑ ĳ
ĠÐ¼Ð¾Ð»Ð¾Ð´ Ð¾Ð¹
Ñī Ð¸ÐºÐ¸
ĠÐ¾ÐºÐ¾Ð½Ñĩ Ð°Ð½Ð¸Ñı
ĠÐ´ÑĢÑĥÐ³ Ñĥ
ĠÐº Ð¾Ð¶Ð°
ĠÐ¸Ð¼ÐµÑ İÑĤÑģÑı
Ġk li
ĠÐ¿Ð¾Ð½Ñı ÑĤÐ½Ð¾
Ð¸Ð² ÑĪÐ¸ÑģÑĮ
ĠÑģÑĤÐ°Ð» Ðº
ĠÐ·Ð°Ð½Ð¸Ð¼ Ð°ÐµÑĤÑģÑı
ĠÐ¿ÑĢÐ¾Ð´ Ð²Ð¸Ð¶
ĠÐ±ÑĢ Ð¾Ð½Ð
Ð³Ð °ÑĢ
Ġ Ð©
ĠÐ·Ð¸Ð¼ Ð¾Ð¹
ĠÑģÐ¾ÑģÑĤÐ°Ð²Ð °
ĠÑģ ÑĤÐµÑĢ
ÑģÑĤÐ² Ð¸Ð¹
ĠÑĥÑģÐ» ÑĭÑĪ
ĠÐ¿ÐµÑĢÐµÐº Ð»ÑİÑĩ
ĠÐ·Ð° ÑĢÑĥÐ±ÐµÐ¶
om e
ĠÐ¾ÑĤÐ²ÐµÑĢÑģ ÑĤÐ¸Ñı
ĠÐ½ÐµÐ¾Ð±ÑħÐ¾Ð´Ð¸Ð¼ ÑĭÑħ
ĠÐ±Ð¾Ð»ÐµÐ· Ð½ÐµÐ½Ð
Ð¾Ð± Ð¾Ð¹
ĠÑħÐ¾ÑĤÐµÐ» Ð¾ÑģÑĮ
ĠÑĦÐ°Ðº ÑĤÑĥ
Ð¾Ð³ÑĢÐ°ÑĦ Ð¸Ð¸
ÑĩÐ¸Ðº Ð¾Ð¼
ĠP e
ĠÐ¿Ð¾ÑģÐ»ÐµÐ´ Ð½Ð¸Ñħ
ĠÐ½ÐµÐºÐ¾ÑĤÐ¾ÑĢ Ð¾Ðµ
ĠÐ±Ð ¾Ñı
p h
ĠÑĩÐ°Ñģ ÑĤÐµÐ¹
ĠL u
t rze
Ġob owiÄħ
ĠÑĢÐ°Ð· ÑĬ
ĠÐ¡Ð°Ð¼ ÑĭÐ¹
ĠÑĥÑģÑĤÐ°Ð½Ð¾Ð² ÐºÐ°
k owa
ĠÐ²ÑĭÐ³Ð»ÑıÐ´ ÐµÑĤÑĮ
ĠÑĦÐ¸Ð» Ð¾ÑģÐ¾ÑĦ
ĠÑĤ ÑĢÐµÑī
ĠÐ¼ Ð°Ð·
Ġni m
ĠÐ¿Ð¾ÐºÐ°Ð· Ð°ÑĤÐµÐ»ÑĮ
ra ch
ĠG e
ĠÐ¸Ð¿ Ð¾ÑĤ
ĠÐºÑĥÑĢ ÑģÐ°
Ġin ne
ĠÐ¿ÑĢÐ¾ÑĨÐµÐ´Ñĥ ÑĢÑĥ
ĠÐ²ÐµÑĩ ÐµÑĢÐ¾Ð¼
3 1
ĠN i
ĠrÃ³Å¼ nych
ĠÐ·Ð°ÑĢÐ°Ð±Ð¾ÑĤÐ °ÑĤÑĮ
ĠÐ´ÐµÐ½ÐµÐ¶ Ð½ÑĭÑħ
ÐĺÐ ½
Ð°Ðº Ñĥ
ĠÐĿ ÐµÐ²
ĠÐ½Ð¾Ð² Ð¸Ñĩ
Ġko le
Ð¢ Ð¬
ĠÐ¼Ð¾Ð· Ð³
ĠÐ³Ð¾ÑģÑĥÐ´Ð°ÑĢÑģÑĤÐ² ÐµÐ½Ð½ÑĭÑħ
ĠÐ¿Ð¾Ð»ÑĮÐ·Ð¾Ð² Ð°ÑĤÐµÐ»ÑĮ
ĠÐ´ ÑĭÐ¼
ÑģÐ ¸ÑĢÐ¾Ð²Ð°ÑĤÑĮ
ĠÐĹ Ð½Ð°Ñĩ
ĠÐ³Ð»Ð°Ð² Ñĭ
ĠÑģÐ¾Ð¾Ð±Ñī ÐµÐ½Ð¸Ðµ
Ġa s
ÐºÐ¾Ð² ÑĭÐµ
ĠÑģÐ¸ÑģÑĤÐµÐ¼ Ð¾Ð¹
Ð°Ð½Ð¸Ñı Ñħ
ĠÐ¢ Ðŀ
ĠÑģÐ°Ð¼ Ð¾Ð»
ĠÑĢÐ°Ð·Ð³ Ð¾Ð²
Ðĺ Ðĳ
ĠÑĤÑĢÐµÐ±Ð¾Ð²Ð°Ð½Ð¸Ñı Ð¼
ĠÑĤÐµÑħÐ½ Ð¾Ð»Ð¾Ð³Ð¸Ñı
ĠÐ´Ð²Ð¸Ð³ Ð°ÑĤÐµÐ»ÑĮ
owa rzy
Ġmi ni
ĠÑĢÐ ¾ÑĤ
Ġsamo cho
ĠÐ²ÐµÐ½ÑĤÐ¸Ð» ÑıÑ
İÑī Ð¸Ð¹
¾Ñ İ
Ð°Ð¼ Ð±
ĠC on
ĠÐ¾Ð²Ð¾Ñī Ð
ĠÐ¼Ð¾ÑĢ Ñı
ĠÐ» Ð°Ð²
ĠÑģÐ»ÑĥÑĩÐ°Ð ¸
ĠkaÅ¼ de
ĠÑĥÑĩÐ°Ñģ ÑĤÐ¸Ñı
ĠÑģÐºÐ¾ÑĢÐ ¾
Ð¸Ð¼ ÑĭÐ¹
ĠÐ½ÐµÑģÐ¾Ð² ÐµÑĢÑĪ
ÑĥÑģ ÑĮ
ĠÐ¾Ð±ÑĢÐ°Ð· Ð
Ġ( Â«
Ð¸Ð½Ð µÐ
ĠÐ²ÑĤÐ¾ÑĢ Ð¾Ð¼
Ð¾Ñĩ Ð
ti c
ĠÐ´ Ð½ÐµÐ²
ĠÐ¿ÐµÑĢÐ² Ð¾Ð½Ð°Ñĩ
ĠÐ°Ð´ÑĢÐµÑģ Ñĥ
ĠÐºÑĢ Ð¸Ð¿
ĠÐ¿ÑĢ Ð¸Ð¶
ĠÐ¾Ð±Ñī ÐµÐ½Ð¸Ñı
Ġtrze ba
ĠÐŁ ÑĢÐµÐ¸Ð¼
Ð¾Ñģ Ð¸Ð±Ð¸ÑĢ
ĠÐ¼Ð°Ð³Ð°Ð· Ð¸Ð½Ð°
ÑĥÑī Ð¸Ðµ
ĠÐ¾Ð·Ð½Ð°ÐºÐ¾Ð¼ Ð¸ÑĤÑĮÑģÑı
4 1
ĠÐĿ ÐĶ
ĠÐ²Ð· ÑĢÑĭÐ²
ĠÐ²Ð¾Ð·Ð¼Ð¾Ð¶ Ð½Ð¾ÑģÑĤÐµÐ¹
ĠÐ¿ÑĢÐ¸Ð¾Ð± ÑĢÐµ
ÑĤÐµÑĢ Ñĭ
ĠÐ¸Ð½ ÑģÐ¿ÐµÐº
Ñĳ Ð¶
ĠÐ¾Ð±ÐµÑģÐ¿ÐµÑĩ ÐµÐ½Ð¸Ðµ
ĠÐŀ Ð½Ð»Ð°Ð¹Ð½
ĠÅĽwia d
czywi ÅĽcie
I A
cz noÅĽci
Ġza da
ĠÑĢÐ¾ÑģÑģÐ¸Ð¹ ÑģÐºÐ¾Ð³Ð¾
Ð»Ð¾Ð¶ Ð¸ÑĤÑĮ
Ġ ÑĥÑİ
Ð»Ð °Ñı
ĠÐºÑĢÑĥÐ¿ Ð½ÑĭÐµ
ÐµÑ İÑĤ
ĠÐ¾Ð´Ð ½Ð¾Ð¼Ñĥ
Ð¸Ð´ Ñĭ
ĠÐ¾Ð± Ð·
ĠÑģÐ»Ð¾ Ñı
Ð¸Ðº Ñģ
ÐµÑģ Ð»Ð¸
de o
Ð¾Ð² ÐµÐ´
Ġz ie
ĠÐ¾ÑĤÐ µÑĨ
Ġt rzy
ĠÐ¿Ð¾Ð´ Ð°ÑĤÑĮ
ĠÐ¿Ð¾ÑģÑĢÐµÐ´ ÑģÑĤÐ²Ð¾Ð¼
ÑĢÐ°Ð½Ð ¸ÑĤ
ĠÅ¼ ad
ĠÐ¸ÑģÑģÐ»ÐµÐ´ Ð¾Ð²Ð°Ð½Ð¸Ðµ
ĠÐ¿ÐµÑĢÐµÐ³ Ð¾Ð²
ĠÐº ÑĥÐ·
ĠÐ¾ÐºÐ°Ð·Ð°Ð» ÑģÑı
ĠÐ¿Ð¾Ñĩ ÑĥÐ²ÑģÑĤÐ²
ĠÐ¼Ð ¸ÑĢÑĥ
ĠÑģÑĤÐ°ÑĤÑĥ Ñģ
ĠÐ¾Ðº ÑĢÐ°Ñģ
ĠÐ¾ÑĤ Ð¾Ð±ÑĢÐ°Ð¶
ĠÐ· Ð°ÑĦÐ¸Ðº
Ð¸Ð½ ÑģÐºÐ¾Ð³Ð¾
ÑĦÐ ¸
Ġe ner
Ñ ĨÐ¸ÐµÐ¹
ĠÐ¿ÑĢÐ¾ÑģÑĤÐ¸ÑĤÑĥ ÑĤÐºÐ¸
ÐµÐ½Ð½Ð ¸ÐºÐ°
Ð¾Ð½Ð½Ð ¸Ðº
ĠÐ·Ð° ÑĢÐ°Ð±Ð¾ÑĤ
Ġponie waÅ¼
ĠÐ¼ÐµÑĤÐ¾Ð´ Ð¾Ð²
ÑĤÐ¾ÑĢÐ ¶
ÑģÑĤÐ² Ð¸Ð¸
ĠÐ²ÑĭÐ¿ Ð°Ð´
g na
ĠÐ¸Ð· Ð³Ð¾ÑĤÐ°Ð²Ð»Ð¸Ð²
ÐĿ Ð¡
Ġna da
ĠÐ²ÑĭÑģÐ¾Ðº Ð¾Ð³Ð¾
ĠÐ¼ ÑĥÑĩ
Ðľ Ðŀ
ĠÑĤÐµÐ¼ Ñĭ
ĠÑģÐ¾Ð¾Ð±Ñī ÐµÐ½Ð¸Ñı
ĠÑĢÐµÐ³Ð¸ÑģÑĤ ÑĢÐ°ÑĨÐ¸Ñİ
4 7
Ġfir m
ĠRo z
ĠÐ²ÐµÐ»Ð¸Ðº Ð¾Ð»ÐµÐ¿
dzie Äĩ
Ñĥ ÐµÑĤÐµ
Ð¸Ð² Ð°ÑİÑīÐ¸Ðµ
Ġco ÅĽ
Ġnaj bardziej
ca l
tor y
Ð°Ð»ÑĮ Ð½Ð¾ÑģÑĤÑĮ
ÑĤÐ¸Ð· Ð°ÑĨÐ¸Ð¸
ĠÐ¿ÑĢÐ¸Ñĩ Ð¸Ð½Ð°Ð¼
ĠÐºÐ¾Ð½ÑģÑĤÑĢÑĥÐº ÑĨÐ¸Ñı
ĠÑĥ Ð»ÑĮÑĤ
ĠÑĥÐ´Ð¾Ð²Ð¾Ð»ÑĮ ÑģÑĤÐ²Ð¸Ðµ
ÑĢÐµÐ´ Ð¸ÑĤÑĮ
ĠÐļÐ°Ðº Ð¾Ð¹
ĠÑĦÐ ¾ÑĢÑĥ
ĠÐºÐ¾Ð¼Ð¿Ð¾Ð½ÐµÐ½ ÑĤÐ¾Ð²
ĠÐ¿ÑĢÐµÐ´Ð¿Ð¾Ð»Ð°Ð³ Ð°ÐµÑĤ
Ð¾Ð½Ð ¸Ñĩ
ni cy
ĠÐ¿Ð¾Ð´ ÑĢÑıÐ´
ĠÐľ Ð¸Ð»
Ġin we
ĠÑģÑİ Ð´Ð°
ĠÐ¿ÑĢÐ¾Ð²ÐµÐ´ ÐµÐ½Ð¸Ðµ
ĠH e
ĠÐ» ÐµÐ¿
Ĥ Ð¾Ð½
F i
ĠÑĦÐ¸Ð»ÑĮ Ð¼Ñĭ
ĠÑģÐ²ÑıÐ· Ð°Ð½Ð½ÑĭÑħ
ĠÑĢÐµÐ± ÐµÐ½Ð
Ġ Ð°ÑĦ
ÑģÐ¿ Ð¾ÑĢ
Ð¾Ð¼Ð¸Ð½Ð°Ð µÑĤ
Ð°ÑĪÐ µ
ĠÐ±Ð»Ð°Ð³ Ð¾Ð´Ð°ÑĢ
ĠÐ¿Ð¾Ð¼ Ð¸Ð¼Ð¾
ĠÐ¿Ð¾Ð´Ð¾Ð± Ð½ÑĭÐµ
ĠÐĴ ÑģÑĳ
ĠÐ½Ð°Ð ¸Ð¼
ĠÐ¸Ð½ÑĦ ÑĢÐ°ÑģÑĤÑĢÑĥÐºÑĤÑĥ
pre z
4 9
ĠÐ· Ð°Ð·
ĠÐ¿ÑĢÐµÐ´Ð»Ð°Ð³ Ð°ÐµÐ¼
t ry
Ġ &
ĠÐ¿Ð» Ð°ÑĤÑĭ
ĠÑįÑĦÑĦÐµÐºÑĤÐ¸Ð² Ð½Ð¾ÑģÑĤÐ¸
Ĥ Ð°Ð¿
Ġk siÄħ
ĠÐ· Ð°ÐµÐ¼
ĠÐ³ ÑĢÐ½
Ð°ÐµÐ¼ ÑģÑı
ĠÐºÐ¾Ð½ÑĤÑĢ Ð¾Ð»
ĠÐ¿Ð¾Ðº ÑĢÑĭÐ²
ĠÐ¾Ð±ÑĢÐ°Ñī Ð°ÑĤÑĮÑģÑı
Ñ ĤÐ°Ð¿
ow nikÃ³w
ĠÐ²Ð·Ð°Ð¸Ð¼ Ð¾Ð´ÐµÐ¹ÑģÑĤÐ²
ĠÐĹ ÐĲ
ĠÐ·Ð°Ñĩ Ð°ÑģÑĤÑĥÑİ
ĠÐ´Ð¸Ð·Ð°Ð¹ Ð½Ð°
ni j
ĠÐļ Ð°Ð¿
men ta
ĠÐ¿Ð¾Ñģ ÑĥÐ´
ÑĢÐ ¾ÑĤÐ¸ÑĩÐµÑģÐº
ĠÐŁÑĢ Ð¸Ð
ĠÑģÐ¸Ð¼Ð¿ÑĤÐ¾Ð¼ Ð¾Ð²
Ñĥ Ð»Ð°
ĠÑģ Ð¾Ð»Ð½
ĠÑĩÐµÑĤÐ² ÐµÑĢ
ĠÐ¿ÑĢÐ¸Ð½Ñı Ð»Ð¸
Ġk rÃ³
ĠÑĤÐµÐ¼Ð¿ÐµÑĢÐ°ÑĤÑĥ ÑĢÐµ
ĠÐ¼ÑĥÐ¶Ð °
ĠÐ· Ð¾Ð½Ðµ
Ġdo m
cze ÅĽ
ĠÐ¿ÑĢÐ¾ÑĦ Ð¸Ð»ÑĮ
Ġwie l
ĠÐĵÐ»Ð°Ð² Ð
ĠÑĦÐ°Ð¹ Ð»
ĠA n
ĠÑĪ ÐµÑģÑĤÑĮ
Ġ1 20
ĠÑĢÑĭ Ð±Ñĭ
Ġc on
ch ro
½Ñ ĨÐµ
ĠÐ²Ð¾ÑģÐ¿ ÑĢÐ¸Ð½Ð¸Ð¼
ÐĿÐĺ Ðķ
ce nia
201 6
ÑĢÑĥÐ³Ð °Ñı
wa li
ĠÐ¿ÑĢÐµÐ´ ÑģÑĤ
µ ÑĢÐ°Ð¼Ð¸
ÑĥÑī Ð¸Ð¹
ĠÑģ Ð¾Ð»Ð¸
ĠÑĥÐ²ÐµÐ»Ð¸Ñĩ ÐµÐ½Ð¸Ðµ
ĠÑģÐµÐ· Ð¾Ð½Ð°
Ð¾ÐµÐ¼ Ñĥ
ĠÐ´Ð¾Ð¿Ð¾Ð»Ð½Ð¸ÑĤÐµÐ»ÑĮ Ð½Ð¾
ĠÐ¼Ð¾Ñĩ Ð
Ġ200 7
Ð¾ÑĢÐ µÑĩ
ĠÑĥÑģÑĤ ÑĢÐ°Ð¸Ð²
ĠÐ´ÐµÑĢÐµÐ²Ð ¾
ĠÐ¶Ð¸Ð´ ÐºÐ¾ÑģÑĤÑĮ
ĠÐļÐ¸ ÐµÐ²
ĠÐ°ÑĢ Ð¾Ð¼Ð°
ĠÐ¥ Ð¾Ñĩ
Ġu ro
ĠÑĥÑģÑĤ ÑĥÐ¿
½Ð¾Ð· Ð½Ð°Ñĩ
ĠÐĴÑĭ Ð±Ð¾ÑĢ
ĠÐŀÑĤÐ·ÑĭÐ² Ñĭ
ÑĢÐ°Ð² Ð½Ð¸Ð²
Ð°ÑĢÐ µ
ÑĤÐ¸Ð½Ð ³Ð°
ĠÐ²Ð¿ÑĢÐ°Ð²Ð µ
ĠÑĥÐ¿ÑĢÐ°Ð² Ð»ÑıÑİÑī
ĠÐ¸ÑģÐ¿Ð¾Ð»Ð½ÐµÐ½Ð ¸Ñı
Ð°Ð· Ñĭ
ĠÐ·Ð°Ð¹ Ð¼
Ġlu dzi
Ð¸Ð ºÐ¾
ĠÐ±ÑĥÐºÐ² Ð°Ð»ÑĮÐ½Ð¾
ĠÐ¿Ð¾Ð¶Ð °ÑĢÐ
4 2
ĠÐ°Ð½ÑĤÐ¸Ð± Ð¸Ð¾
ĠÐ·Ð°ÐºÐ¾Ð½Ð¾Ð´Ð°ÑĤÐµÐ»ÑĮ ÑģÑĤÐ²Ð°
Ġmie Äĩ
Ð½Ð µÑĨ
ĠÐļ Ð»Ð°ÑģÑģ
ĠÐ£ Ð³
Ð¾ÐºÐ ¸Ñģ
ÐĶ ÐĲ
le n
Ġgo spo
ĠÐ¸Ð½ÑĤÐµÑĢÑĮ ÐµÑĢÐ°
ĠÐºÐ¾Ð» Ð»ÐµÐ³
ĠÐ¾Ð¿ÑĢÐµÐ´ÐµÐ» ÐµÐ½Ð½ÑĭÑħ
ĠÐ½Ð°ÑħÐ¾Ð´ Ð¸ÑĤÑĮÑģÑı
Ġo kaz
ĠÑĢÐ°ÑģÐ¿Ð¾ÑĢ ÑıÐ¶
ÑĪÐµÐ¹ ÑģÑı
Ġzna le
ĠÐ¿ÑĢÐ¸ÑĢÐ¾Ð´ Ñĭ
ĠÐ· Ð»Ð¾
Ġkil ku
ÐµÑĢÐ² Ð¸Ñģ
ĠÐ¸Ð½ÑĤÐµÐ» Ð»ÐµÐº
tu je
Ġkre dy
ĠÐ¿Ð¾Ð² ÐµÐ´ÐµÐ½Ð¸Ñı
ĠÐ¿Ð¸ÑģÑĮ Ð¼Ð¾
ÑĢÐµÐ ½ÑĤ
ĠÐ· Ð°Ð³Ð¾
Ġodpowie dni
ĠÑħÐ» ÐµÐ±
ru m
ĠÐ²Ð½ÑĥÑĤÑĢÐµÐ½Ð½Ð µÐ¹
ÑĥÐ± Ð»Ð¸Ñĩ
ĠÐ´ÐµÐ» Ð°ÐµÑĤÑģÑı
Ð¾ÑĢÐ ¾Ñĩ
ĠÐ¸Ð½ÑĤÐµÑĢ ÑĦ
ĠÐĲÐ»ÐµÐºÑģ ÐµÐ¹
ĠÐĵ Ðŀ
ĠÐ¾Ð±ÑıÐ·Ð°Ð½Ð½Ð ¾ÑģÑĤÐ¸
Ð¿ Ð¾Ð·
Ñĥ ÑĢÐ°ÑĤÑĥ
ĠÐĳ ÑĢ
Ð» Ð¾Ð¹
R O
ĠÐĺÐ· Ð¼
nÄĻ trz
Ġser wi
ĠÑģ Ð¾Ð½
Ġhi stor
ĠÐ¾Ð± Ð¾ÑģÐ½Ð¾Ð²
ÐµÐ ³Ð°
ĠÐ¾ÑģÑĤ ÑĢÐ¾Ð²
ĠÐ´Ð¸ Ð°Ð¿Ð°Ð·
ĠÐ¾Ñģ ÑĤÐ°
Ġc iÄĻ
± Ð¾Ð»ÑĮÑĪ
Ð¾ÐµÐ º
sta wie
ĠÐºÐ¸ÑĪÐµÑĩ Ð½Ð¸ÐºÐ°
Ġwy po
ĠÑĪ Ð°Ð¼Ð¿
ĠÑĦÐ¾ÑĢÐ¼Ð ¸ÑĢÐ¾Ð²Ð°Ð½Ð¸Ñı
ĠÐºÐ¸ÑģÐ» Ð¾ÑĤÑĭ
A M
Ð»ÐµÐ ¸Ð
ĠÐĶ Ð°Ð»ÑĮ
Ñ ĤÐ¾Ð½
ÑĢÑĥ Ñı
ÐµÐ¼ Ð¿
ÑĤÐ¾ÑĢ Ð¸Ð¹
ĠÐºÐ»Ð¸ ÐµÐ½ÑĤ
Ġp u
Ð¸Ð½Ð ¸
ĠÐ³Ð»Ð°Ð² Ð½ÑĭÐ¼
ĠÑģÑĤÑĢ Ð¾Ð³
Ġstro nie
ÑĢÐ°Ð ½Ð¾Ð²
Ġp amiÄĻ
ĠÐ½ÐµÐ² Ð¾Ð·Ð¼Ð¾Ð¶
ĠÐĵÐ»Ð°Ð² Ð½Ð°Ñı
ÑĢÐ¾Ð ºÐ
ĠÑĢÐ¸Ñģ ÐºÐ°
ĠÐķÐ´ Ð¸Ð½
ĠÐĹ Ð°Ð³
ĠÐ¿ÑĢÐµÐº ÑĢÐ°Ñī
ĠÑĢÐ°ÑģÑħÐ¾Ð´ Ð¾Ð²
ĠÐķÐ²ÑĢÐ¾Ð¿Ð µ
ÐµÑģ ÐµÐ´
Ġswo ich
pra c
Ġte raz
Ġ3 7
sze nie
ĠÐºÑĢ ÑİÑĩ
ĠÑĢÐµÑģÑĥÑĢ ÑģÐ¾Ð²
ĠÐ¾ÑģÑĤ Ð°Ð»ÑĮÐ½ÑĭÑħ
¸Ñı Ð¼Ð¸
ĠÐ´Ð¸Ñģ ÐºÐ¾Ð¼
ĠÑĤÑĢÐ°Ð½ÑģÐ¿ Ð¾ÑĢÑĤÐ°
ĠÐ±ÑĥÐ¼ Ð°Ð¶
ĠÐĲÐ² ÑĤÐ¾Ð¼
Ġje dy
ĠÐ¶ ÐµÐ½Ð°
ĠÐ½ÐµÐ· Ð½Ð°Ñĩ
Ñĳ Ð²
ĠÑģÐ½Ð¸Ð· Ð¸ÑĤÑĮ
by wa
Ðĺ ÐĲ
ĠÐ¿Ð¾Ð¿ Ð°ÑģÑĤÑĮ
ĠÐ¿Ð¾ÑıÐ² Ð¸ÑĤÑģÑı
Ð¸Ð³ Ñĥ
Ġsk Ã³
Ð¾Ð»Ð¾Ð³Ð¸ÑĩÐµÑģÐº Ð¸Ð¹
· Ð´Ð°
ĠÑĥÐ± Ð¾ÑĢ
ĠÐ¼ Ð¾Ð»Ð¸
ĠÑģ ÐµÐ²ÐµÑĢÐ
ĠÐ¿ÐµÐ´Ð°Ð³ Ð¾Ð³
Ð¾Ð»Ð ½ÑĨÐµ
Ð¾ÑĢÐ ¾Ñģ
Ðľ Ð¡
ÑĢÐµÐ´Ð °
ĠÐ¾Ñģ ÑĤÐ¾ÑĢÐ¾Ð¶
---- ----
ĠÐ¾ÑĤÐ¾Ð¿ Ð»ÐµÐ½Ð¸Ñı
ĠÐłÐµÐ· ÑĥÐ»ÑĮ
ĠÑģÑĤÐ°Ð½ ÑĥÑĤ
ĠÐ½Ð°Ñĩ Ð¸Ð½Ð°Ñı
Ñı Ð½Ð°
ĠÐºÐ°Ð¶Ð´ ÑĥÑİ
ĠÐ¿ÑĢÐ¾Ñģ ÑĤÐ°
ĠÐ¡Ð¿ Ð¾ÑģÐ¾Ð±
Ð¸Ð¼ Ð¾Ð³Ð¾
ÐµÐ½Ð ³
Ðł Ð¾Ñģ
ĠÐ¿Ð°ÑĤ Ð¾Ð»Ð¾Ð³Ð¸Ð¸
ÑĤÐ¸Ð» Ð°ÑģÑĮ
Ġcz er
ĠÑģÐ¿Ð¾ÑģÐ¾Ð± Ð°Ð¼Ð¸
Ð¾Ð ¾ÑĢÐ´
ĠÐŁ ÑĢÐ¸Ñģ
ĠÐ²Ð¸ÑĢÑĥ Ñģ
ÑĢÐ ¸ÑĤÑĮ
ĠÑĦÐ¸Ð· Ð¸ÑĩÐµÑģÐºÐ¸Ñħ
ĠÐ½Ð°Ð» Ð¾Ð³Ð°
ÐµÑĢÑĮ ÑĤÐµ
k ow
ĠÑĢÐ°Ð·Ð»Ð¸Ñĩ Ð½ÑĭÐ¼Ð¸
ĠÐ²Ð°ÑĪ Ð¸Ð¼
ĠÐ²ÑĢÐµÐ¼ ÐµÐ½Ð°
Ġu m
ĠÐĳ Ð°Ð»
Î ¿
ĠÐ¶ Ð¸ÑĤÐµÐ»Ð¸
Ð³ Ð»Ð°Ð²
Ġi t
ĠÐºÐ°Ð¶Ð´ ÑĭÐ¼
ĠÐ¿ ÐµÑĤ
ĠÐ¢ Ð¸Ð¿
ĠÐ·Ð°Ð ³Ð¾ÑĤÐ¾Ð²
ĠÑģÐ¾Ð±ÑģÑĤÐ² ÐµÐ½Ð½Ð¾Ð¹
ĠÐº ÑĢÐµÐ´
ĠÑĢÐµÐ· ÐºÐ¾
ht ml
ĠÐ°ÑĢÐ ±
ĠÑģÑĤÑĢ Ð¾Ð³Ð¾
rÃ³ b
ÐµÐ½Ð¸Ð ¼
ĠÐ½Ð°ÑģÑĤÐ¾ÑıÑī Ð¸Ð¹
ĠB i
Ð¾Ð½Ð°Ð² Ð¸ÑĢÑĥ
ÑĢÐ°Ð»ÑĮ Ð½ÑĭÐµ
ĠÐĹÐ´ ÑĢÐ°Ð²
ĠÑĢÐ°ÑģÐ¿ÑĢÐ¾ÑģÑĤ ÑĢÐ°Ð½Ñı
ÑĢ Ð¾Ð´ÑĥÐº
z ji
°Ð ¼Ð¸
ĠÐ»Ð¾Ð¶ ÐºÐ¸
Ĥ ÐµÐ¿
Ñ ĤÐµÐ¿
ĠÑĦ Ð°Ð¼
Ġz wiÄħz
ÑģÐ¸ ÑĤÐµÑĤ
ĠÐ¼Ð°ÑĢÑĪ ÑĢÑĥÑĤ
ĠÐ·Ð°Ð² Ð
ĠÐ¼Ð¾Ñī Ð½Ð¾ÑģÑĤÐ¸
ĠÐ½Ð¾Ñĩ ÑĮÑİ
ĠÐ¥Ð¾ÑĢÐ¾ÑĪ Ð
Ġuwa gÄĻ
ĠÐ¿ÑĢÑıÐ¼ Ð¾Ð¹
ĠÑĩ Ð¸ÑĤ
ĠÐĴ Ð¾ÑĢ
Ð¾ÐµÐ½Ð ¸Ðµ
ÑıÐ± ÑĢÐµ
ĠÐ´Ð°Ð² Ð°ÑĤÑĮ
ĠÐĴÐ¿ ÑĢÐ¾ÑĩÐµÐ¼
ĠÐ» Ð¸Ð¿
ĠÐ½ÐµÐ·Ð°Ð²Ð¸Ñģ Ð¸Ð¼Ð¾
ĠÐ¡Ð°Ð¼ ÑĭÐµ
ĠÐ½Ð°ÑģÑĤÑĢ Ð¾Ð¹ÐºÐ¸
Ġf ak
ĠÐ¾ÑĦÐ¾ÑĢÐ¼ Ð»ÐµÐ½Ð¸Ðµ
Ð°Ð¹ Ð¼
ni ng
ĠÐ¿Ð»Ð°ÑĤ ÑĦÐ¾ÑĢÐ¼
sta n
ĠÐ¿ÑĢÐ¸Ñı ÑĤÐ½Ð¾
ĠÐ±ÑİÐ´Ð¶Ðµ ÑĤÐ°
g ht
ĠÑĢÐ°Ð±Ð¾Ñĩ ÐµÐ³Ð¾
ĠÑĢÐµÐ· ÐµÑĢÐ²
ĠÐ¸Ñģ ÑĤÐ¸Ð½Ð
ĠÑĢÐ°Ñģ ÑģÐ»ÐµÐ´
Ġu da
ĠÑģÑĤÐµÐ¿ ÐµÐ½ÑĮ
Ð°ÑĤÐµÐ»Ñı Ð¼Ð¸
ĠM ie
ÑĪ ÐµÐ±
Ð¸ÑĤÐµÐ»ÑĮ Ð½ÑĥÑİ
Ð¾Ðº ÑĥÐ¿
ĠÐ¿ Ð°ÑĤÑĢ
Ð±Ð ¾
ĠÑĥÑĩÐ°Ñģ ÑĤÐºÐ¸
g Äħ
Ð» Ð¾Ð¿
ĠÐ¾Ð±ÑĬ ÐµÐ¼Ð°
Ġn p
Ð¸Ð¶ Ñĥ
ĠÐ¿ÑĢÐ¾Ð¶ Ð¸Ð²Ð°Ð½Ð¸Ñı
ĠÑĦÐ¸Ð»ÑĮ Ð¼Ð°
ĠÐ¢ Ð¾Ð»
po d
k owi
Ġosta tni
ĠÐĽÑİ Ð´Ð¸
ĠÐł ÐµÐ±
ÐµÐ² Ð¸Ñĩ
ĠÐŀ ÑģÑĤÐ°Ð²
Ñ ĤÐ°Ðº
Ġsta nie
ĠÐ¡Ð °
Ð°Ð² ÑĪÐ¸Ð¹
ĠÐ¼ÐµÐ´ Ð»ÐµÐ½Ð½Ð¾
ÑĢÐ°Ð ´Ð°
ĠÐ¿Ð¾Ð»ÑĥÑĩ Ð¸Ð»Ð°
ĠÐĿÐ ¸
ĠÐ¾Ð±Ð °
Ġk ry
ĠÐŁÐ¾Ð´ÑĢÐ¾Ð± Ð½ÐµÐµ
mi s
ÅĦ ski
lu s
ĠÑĦ Ð¾ÑĤÐ
ĠczÄĻ ÅĽci
ĠÐ¾ÑĨ ÐµÐ½Ð¸ÑĤÑĮ
ĠÐºÐ»Ð¸Ð½Ð ¸ÑĩÐµÑģÐº
ĠÐ±ÐµÐ» ÑĭÐ¹
Ġo zna
ÐŁ ÐŁ
Ð¸Ð½Ð ±ÑĥÑĢÐ
ĠÐ¼Ð¾Ð½ÑĤ Ð°Ð¶Ð°
µÑĤÐ ºÑĥ
ĠÐ¼Ð¸Ð½ÑĥÑĤ Ñĭ
ĠÐ¿Ð°ÑĢ Ñĭ
ĠÐ¿ÐµÑĢÐµÑĩ ÐµÐ½ÑĮ
ĠÐ±Ð»Ð°Ð³ Ð¾Ð¿ÑĢÐ¸Ñı
ĠÑħÐ¾ÑĢÐ¾ÑĪ ÐµÐ¼
Ġuzy ska
ĠÐ³Ð» Ð¾Ð±
ÐµÐ´ Ð»Ð¸Ð²
Ð½Ðµ ÑĤÐ°
ĠÐ´Ð¾ÑĢ Ð¾Ð³Ðµ
ĠÐ»Ð¸ÑĨ Ð¾Ð¼
ĠÐ¸Ð·Ð¼ÐµÐ½ÐµÐ½Ð ¸Ðµ
ĠÑģÑĤÑĥÐ´ ÐµÐ½ÑĤÐ¾Ð²
ĠÐºÐ¾Ð¼Ð½Ð°Ñ ĤÑĥ
ĠÐ±ÐµÐ·Ð¾Ð¿Ð°Ñģ Ð½Ð¾ÑģÑĤÑĮ
Ġkon ku
ĠÑĪ Ð¾ÐºÐ¾Ð»
Ð¸Ñ į
ĠÑĢÑĥÐºÐ¾Ð²Ð¾Ð´ Ð¸ÑĤÐµÐ»ÑĮ
ĠÑģÐ°Ñħ Ð°ÑĢÐ
jÄħce go
ĠÐŀÑĤ Ñģ
Ð°Ð´ ÐµÐ±
Ð¸Ñħ Ð
ĠÐ¼Ð¾ÐµÐ ³Ð¾
Ð°Ð½Ñ ĨÐ¸Ñı
ĠÑģÐ¼Ð¾ÑĤ ÑĢÐ¸ÑĤ
ÑĢÐ°Ð±Ð¾ÑĤÐ ºÐ¸
ĠÐºÐ¾Ð¼Ð¿Ð¾Ð½ÐµÐ½ ÑĤÑĭ
Ð¿ Ð¸Ð¹
ĠÑĤÐº Ð°Ð½ÑĮ
Ġz arÃ³wno
ĠÐº Ð°Ð¼Ð
ĠÐ¸Ð½ÑģÑĤÑĢÑĥÐ¼ ÐµÐ½ÑĤÑĭ
ĠÐ¾Ð´ Ð¾Ð±
Ġ6 5
Ð¾Ð½ÐµÐ ½ÑĤ
¸Ñ ĩÐµÑģÐºÐ°Ñı
Ġcha rak
ĠÐ¿ÑĢÐµÐ´ÑģÑĤÐ°Ð² Ð»ÑıÑİÑĤ
ÐµÑĢÐ ¾
ĠÐľ ÐĴÐĶ
Ð¸Ð ³Ð°
ĠÑĨ ÐµÐ½Ñĥ
ĠÐ¶Ð¸Ð» Ð¸Ñī
Ð°ÑĤÐµÐ»ÑĮ Ð½Ð¾Ðµ
ĠÑĥÑĩÐ°Ñģ ÑĤÐºÐ¾Ð²
ÑĥÑĪ ÐºÑĥ
ĠÑģÐº ÑĢÑĭÐ²
ĠÐ¿ÑĢÐ¾Ñħ Ð¾Ð´ÑıÑĤ
Ñ ĤÐ°Ð¼Ð¸
ĠÑĥÐ¿Ð¾ÑĤÑĢÐµÐ± Ð»ÑıÑĤÑĮ
ÐµÑĢÐ½Ñı ÐºÐ°
ĠÐ½Ð°ÑĩÐ¸Ð½Ð°Ñ ĤÑĮ
4 3
ĠÐ²Ð¸Ð´ ÐµÐ
ĠÐ´Ð¾ÑģÑĤÑĥÐ¿ Ð½Ñĭ
ĠÐ³Ð»Ð°Ð· Ð°Ð¼Ð¸
ĠÐ¾ÐºÐ°Ð·Ð°Ð» Ð¾ÑģÑĮ
ĠÐºÐ°ÑĢ ÑĤÐ¾Ñĩ
ĠÐ¶Ð ¸ÑĢÐ¾Ð²
ĠÐ½ÐµÐ´Ð¾ÑģÑĤÐ° ÑĤÐºÐ¸
ĠÐ¿ÑĢÐ¸Ñģ Ð¿Ð¾ÑģÐ¾Ð±
ĠÐ²Ð¸Ð´ Ð¾Ð¼
ĠÑģÑĭÐ ½
Ġdo sko
ĠÐ¾Ð± ÑĥÐ²
ÐµÐ°Ð ½
ĠÑĢÐ°Ð· Ð½ÑĭÐ¼Ð¸
Ġc u
ĠÐ²Ð¾ÑģÑĤ ÑĢÐµÐ±Ð¾Ð²
Ġczy n
Ð¾Ð½Ð °ÑĢ
ĠÐ» ÐµÐ´
ĠÐ·Ð°ÑĤ ÑĢÐ°ÑĤ
ĠÐ¼ÐµÑģ ÑĤÐ½Ð¾Ð³Ð¾
Ġli cz
ÑĢÐµÐ¿Ð °
ĠÐł ÐµÐ¹
ĠÑħ ÑĢ
ĠÐ¿Ð¾Ð·Ð ¸
ĠÐĵÐ»Ð°Ð²Ð °
ĠÑģÐ²Ð¾Ð± Ð¾Ð´Ñĭ
Ġg ÅĤo
Ð»Ñİ Ð±Ð»
ĠÐ¸Ð½Ð¾ÑģÑĤÑĢÐ°Ð½Ð ½ÑĭÑħ
Ð¾Ð³Ð ¾Ñģ
ĠÑħ ÑĢÐ°Ð½Ð¸ÑĤÑĮ
ĠÑįÐ»ÐµÐ¼ ÐµÐ½ÑĤ
Ð¾Ð´ ÐµÐ¹ÑģÑĤÐ²Ð¸Ñı
Ġ Ð»Ð°Ñģ
ĠÐ²ÑģÑĤ ÑĢÐ¾ÐµÐ½Ð
ĠÐ¿ÑĢ Ð¾Ð»
ĠÐ½ÐµÐ± Ð
ĠÑģÐ»ÐµÐ´ Ð¸ÑĤÑĮ
ĠÐ¿ÑĢÐµÐ² Ð¾Ñģ
ĠÐŀÐ± ÑĬ
ĠÐ³ÑĢÐ°Ð½Ð ¸ÑĨ
ÐµÐ½Ð ¸Ñģ
Ġk ur
ĠÑģÐ»Ð¾Ð² Ð½Ð¾
Ð°Ð½Ð °Ñħ
Ð°Ð¿ Ð»Ð¸Ð²
ĠÐºÑĢÐ°Ñģ ÐºÐ¸
ĠÑģÐ¾Ð²ÑĢÐµÐ¼ ÐµÐ½Ð½Ð¾Ð¹
ĠÑģÐ¾ÑģÑĥÐ´ Ð¾Ð²
ÑĤÐµÑĢ Ð¸Ð¹
ĠÐ¸Ð½ÑģÑĤÑĢÑĥÐ¼ ÐµÐ½ÑĤÐ¾Ð²
ĠÑģÐ¿Ð¾ÐºÐ¾Ð¹ Ð½Ð¾
ÑĥÐ± Ð
ĠÐ²Ð¾ÑģÑģÑĤÐ°Ð½Ð¾Ð² Ð¸ÑĤÑĮ
ĠÐ¢ Ð¾Ð¼
ÑģÑĤ ÑĢÑĥ
ĠÐ¾ÑĨ ÐµÐ½Ð
s cy
ĠÑĢÐ°Ð±Ð¾ÑĤÐ½Ð ¸ÐºÐ°
ĠÐķ Ð¶
ĠÐ¿ÑĢÐµÐ´Ð¾ÑģÑĤÐ°Ð² Ð»ÑıÐµÑĤ
Ð¸ÑģÐ µ
ĠÐ²ÑĭÐ¹ ÑĤÐ¸
n owa
ĠÑĢÐ°Ñģ ÑĩÐµÑĤ
ĠÐºÐ» Ð¸Ð½Ð¸Ð
ĠÐ±Ð» Ñİ
ĠÐ³ÐµÑĢÐ ¼Ðµ
ÑĤÑĭ Ð¼Ð¸
ĠÑģÑĤÐ¾ ÑıÑĤ
ĠÐ²ÐµÐ´ ÐµÑĤ
ĠÐºÑĢÐ°ÑģÐ¸Ð² ÑĭÐµ
ĠÐ´ ÑİÐ¹
ĠC om
ÐµÐ ½ÑĭÑħ
ĠÐ¿Ð¾Ð´ Ð±Ð¸
ĠÐ¿ÑĢÐ¾ÑĨÐµÐ´ ÑĥÑĢ
omo ÅĽci
ĠÐ½Ð¾Ð² Ð¾Ð¼
w ki
ĠÑĦÑĢÑĥÐº ÑĤÐ¾Ð²
ĠTwo je
Ð½Ð¸Ð ¶
ĠÐ¥Ð¾ÑĢÐ¾ÑĪÐ ¾
ĠÐ´ÐµÑĢÐ¶ Ð°ÑĤÑĮ
ĠÐ¿Ð°ÑĢ Ð»Ð°Ð¼
E S
ĠÐ¿Ð°ÑģÐ¿ Ð¾ÑĢÑĤ
ÑĤÐ¾Ð² Ð°Ð»
ĠÐ±Ð»Ð¾ÐºÐ¸ ÑĢÐ¾Ð²
ĠÑģÐ¿Ð°Ñģ Ð¸Ð±Ð¾
Ð¾ÑĢ Ð¾Ð¶Ð´
ĠÑĦÑĥÐ½Ð´ Ð°Ð¼
ĠÐ¿ÑĢ Ð¾Ð½Ð¸Ð
ĠÐºÐ½Ð¸Ð ³Ð°
³Ð¾ ÑĢÐ¸
ÐµÐ» ÐµÑĨ
201 9
ĠÐ¿ Ñģ
ĠÐºÐ¸Ñģ Ð»Ð¾ÑĢ
ĠÐ·Ð°Ñĩ ÐµÐ¼
Ġp iÄĻk
Ð¸Ð½ ÑĮ
ĠÐŁ Ð¾Ð´Ð³Ð¾ÑĤÐ¾Ð²
ĠÐ¿Ð¾Ð¶ Ð¸Ð»
Ġ0 1
ĠÐ°Ð» ÑİÐ¼Ð¸Ð½Ð
ĠÐĲÐ ½ÑĤ
ÑģÑĤÐ² ÐµÐ½Ð½Ð°Ñı
ĠÐ½Ð°Ð¿ Ð°Ð´
ĠÐŁÑĢÐµÐ´ Ð¿
na j
Ġfina ns
ĠÐĵ Ðļ
ĠÐ¿Ð¾ÑıÐ² Ð¸Ð»ÑģÑı
ĠÐĿ Ð°Ð¼
Ð» Ð¾Ð½
ÐµÐ³ Ð°ÑĤÑĮ
ĠÐ¸Ð´ ÑĥÑĤ
Ġele men
ĠÑĢÐµÐ² Ð¾Ð»ÑİÑ
Ġdosko na
Ġswo jÄħ
Ġsp a
ĠÐ¾ÑģÑĤ Ð°Ð½Ð
ĠÐ¸Ð½ÑĤÐµÑĢÐ² ÑĮÑİ
ĠÐ¼Ð¸ÑĢÐ¾Ð² Ð¾Ð¹
ĠÐ¿ÑĢÐ¾ÑıÐ² Ð»ÐµÐ½Ð¸Ñı
ÑĤÐ¸Ð ½Ð¾Ð¹
Ñĳ Ñģ
ĠÐ°ÑĢ Ð¾Ð¼Ð°ÑĤ
ĠÐ´ÐµÑĦ ÐµÐº
ĠÑģÐ¾Ñĩ Ð
ĠÐ¾Ðº Ð½Ð¾
ĠÐ¿ÑĢÐµÐ² ÑĢÐ°
ĠÐ¾Ð¿ÐµÑĢÐ°Ñ ĨÐ¸Ð¹
on Äħ
ĠÐ½Ð¾ÑĢÐ¼ Ð°Ð»ÑĮÐ½Ð¾
Ð ¾ÑĢÑĥÐ¶
ĠÐ·Ð´ÑĢÐ°Ð² Ð¾Ð¾Ñħ
ĠÐ±Ð ¸ÑĢÐ
ĠÐ½Ð¾Ñģ Ð¸ÑĤÑĮ
ĠÑģÐ¼Ð¾ÑĤ ÑĢ
ĠÐ³ÑĥÐ± ÐµÑĢÐ½Ð°
: .
ĠÐ¿Ð¾Ð½Ð¸Ð ¶
Ð¿ ÑĢÐ¾Ð´
Ð¸ÑĤ ÑĢÐ°Ð¶
Ġs za
ĠÑįÑģ ÑĤÐµ
ĠÐ·ÐµÐ¼ Ð»Ðµ
ĠÐľ Ðŀ
g an
Ġwi th
ĠÐ® Ð¶
ĠÐ³Ð¾ÑĢ ÑĪ
ĠÐºÐ¾Ð¼Ð¿ÑĮÑİ ÑĤÐµÑĢÐ°
ĠÑģÐ¾Ð²ÑĢÐµÐ¼ ÐµÐ½Ð½ÑĭÐµ
ÑĢÐ ½Ð¾Ðµ
mi o
ĠÐ´ÑĥÑĪÐ ¸
Ð» Ð¸ÑĤ
ĠÐ¿ÑĢÐ¸Ð±Ñĭ Ð»Ð¸
ĠÑĥÑĩÑĢÐµÐ¶Ð´ ÐµÐ½Ð¸Ñı
Ġk ro
ĠÐĲ Ð³
ĠÐ¸Ð·Ð¼ ÐµÐ»ÑĮÑĩ
ĠÐ°Ð½Ð°Ð »Ð¸
ĠÑĤ Ñı
: ||
Ð½Ð¸Ñ İ
ÐĲ Ð¡
ĠÐ¡ ÑĤÐ°ÑĢ
ĠÐ°Ð»ÐºÐ¾Ð³ Ð¾Ð»
ĠÐ±ÑĥÐ´ÑĥÑī ÐµÐ³Ð¾
ĠÐ¾ÑīÑĥÑī ÐµÐ½Ð¸Ðµ
ĠÐ½Ð° ÑĥÐº
Ġ Ð¾Ð³Ð¾
ĠÐŁÑĢÐ¸Ñĩ Ð¸Ð½Ñĭ
ĠÐ·Ð°Ð» Ð¾Ð¶
Ġi lo
Ġry nku
ĠÐ½Ð°ÑģÑĤÑĢÐ¾ÐµÐ½Ð ¸Ðµ
k et
A L
ĠÐ¼ Ð¾ÑģÐºÐ¾Ð²
ĠÑģÐ°Ð¼ Ð¾Ð¼Ñĥ
ĠÐ¸Ð·Ð¼ ÐµÐ½Ð¸Ð»
Ð°Ð² ÑĪÐ¸ÑģÑĮ
ĠÑģ Ð°Ð¶
ĠÐ¿ÑĢÐ¸Ð½Ð¸Ð¼ Ð°ÐµÑĤ
ĠÐºÐ°Ð¶ Ð´Ð°Ñı
ĠÐ½Ð µÑĢÐ
ĠÐ²Ð°Ð» ÑİÑĤ
ĠÑģÐ¼ ÐµÑģ
ĠÐ¿Ð°Ðº ÐµÑĤ
ĠÐ¾Ð²Ð¾ÑīÐ ¸
ÑĢÐ°Ð² Ð»ÐµÐ½Ð¸Ñı
ko m
ĠÐ³Ð¾Ñģ ÑĤÐ¸
ĠC e
ĠÑģ ÐµÐ²
ÐµÐ½Ð´Ð °ÑĢÐ
ĠÐ·Ð°ÑıÐ² ÐºÑĥ
ĠÑģÐ¾Ð²Ð¼ÐµÑģ ÑĤÐ½Ð¾
ĠÐ²Ð°Ð¶ Ð½ÑĭÑħ
Ð² Ð°ÑĤÑĮ
Ð¼Ñĭ ÑģÐ»
ĠÐ²ÐµÑĢÐ¾Ñı ÑĤÐ½Ð¾
ÐµÑĢ Ð½Ð°Ñı
ĠÐ¾Ð³ÑĢÐ°Ð½Ð¸Ñĩ ÐµÐ½Ð¸Ñı
ĠÑģÐ¾Ð ¾ÑĤÐ½Ð¾ÑĪ
ĠÐ½Ð°Ð¼ ÐµÑĢ
ĠÑĢÐµÐ°Ð»ÑĮ Ð½ÑĭÐµ
Ð´ Ð»Ñı
ĠÐ¾ÑĤ ÑģÑĤ
ĠÐ¼Ð¾Ð» Ð¾ÐºÐ¾
ĠÐ¡ Ðŀ
Ð°ÑĢ ÐºÐ¸
Ġza pa
ĠÐ¸ÑģÐºÐ»ÑİÑĩ ÐµÐ½Ð¸ÐµÐ¼
ĠÐ¸Ð½ÑĤ ÐµÐ³
ĠÑĦÐ¾ÑĢÐ¼Ð° ÑĤÐµ
Ð²ÑĤÐ¾ÑĢ ÑĭÑħ
ĠÐ³Ð¾Ð²Ð¾ÑĢ Ð¸Ð»
ĠÐ¿ÑĢÐµÐ´Ð¿ Ð¾Ð»Ð¾Ð¶
ĠÐ¾Ð¿ÑĢÐ°Ð² Ð´
I S
ĠÐ¾Ð±Ñī Ð¸Ð¹
ĠÑĥÐ± ÐµÐ¶Ð´
ĠC O
ĠÐ²ÑģÐ»ÐµÐ´ ÑģÑĤÐ²Ð¸Ðµ
ĠÑģÐ°Ð½ ÑĤÐ¸Ð¼
Ð°ÑĢÐ ¸ÑĤÑĮ
ĠÐ¿ÐµÑĢÐ² Ð°Ñı
Ġt ÅĤu
Ð¼ Ð¾ÑĢ
ĠÐ¦ ÐµÐ»ÑĮ
ĠMi cro
ĠÐ¿Ð¾Ð´ Ðº
ĠÐ¿Ð° ÑĢÐµÐ½ÑĮ
ĠÐ¾Ñģ ÑĤÐ°ÑİÑĤÑģÑı
ÐµÐ½Ñ ĨÐ¸Ñı
ĠÐŀ Ð¼
ĠÐ½Ð°Ð¿ÑĢÑıÐ¶ ÐµÐ½Ð¸Ñı
Ð¾Ð²Ð ½Ð¾Ðµ
Ð°Ð½ ÑģÐºÐ¸Ð¹
ĠÑģÐ¿ÑĢÐ°Ð² Ð¸ÑĤÑĮÑģÑı
¾ÑĢÐ³ Ð°Ð½Ð¸Ð·
ĠI P
ĠÑģÑ įÐºÐ¾Ð½Ð¾Ð¼
ĠÐ£ Ðļ
ĠÑĨ ÐµÑĢÐºÐ¾Ð²
wy Å¼
¾Ñ į
Ĥ ÐµÐ½
ĠÑĨ ÐµÐ¼
ĠÑģÐ¾Ð·Ð´ Ð°ÐµÑĤ
ĠÑĤÐ¾ÑĢÐ³Ð¾Ð² Ð»Ð¸
ĠÑģÐ¿Ð¾ÑģÐ¾Ð± Ð½Ð¾ÑģÑĤÐ¸
ĠÑĢÐ°Ð² Ð½Ð¾Ð¼
Ġm niej
ĠÑĢÐµÐ·ÑĥÐ»ÑĮÑĤÐ° ÑĤÐ°
ĠÐ± ÑĢÐ°Ðº
Ġwz ro
ĠT ak
ĠmoÅ¼e my
ÑĢÐ°Ð» ÑģÑı
Ð°ÑĤÐµÐ»ÑĮ Ð½Ð°Ñı
p p
Ġd wa
Ġwy p
Ñ ĤÐµÐ½
ÑģÐ ¸ÑĢ
ĠÐ¾ÑģÐ¾Ð±ÐµÐ½Ð½Ð¾Ñģ ÑĤÐµÐ¹
ĠÐ³Ð¾Ð» Ð¾Ð²Ðµ
ĠÐº ÑĥÐº
ĠÐ¾ÑĤÐ»Ð¸Ñĩ Ð½ÑĭÐ¹
ĠÐ¿ÑĢÐµÑģÑĤÑĥÐ¿ Ð»ÐµÐ½Ð¸Ñı
Ġek sp
ĠÐ²Ð°Ð» Ñİ
8 8
Ġwp rowa
ĠÐ¿Ð°ÑĢÐ°Ð¼ÐµÑĤ ÑĢÑĭ
Ð¾Ð½ÑĤ Ð°Ð¶
Ñģ Ð¸Ð´
Ð¾Ð» Ð¾Ð¼
ĠÐ¿Ð¾Ð´ Ð²ÐµÑģ
Ġt ro
na mi
ĠÐ¿ÑĢÐ¾Ð´Ð¾Ð»Ð¶ Ð°ÐµÑĤ
ĠÐĺÐ² Ð°Ð½
ĠÐ±Ð¾Ð»ÑĮ Ð½ÑĭÑħ
ĠÐŀÐ´ Ð½Ð¸Ð¼
ĠIn sta
ÐµÑĢ Ð¿
Ġd ie
ĠÐºÐ¾Ð½Ð µÑĨ
ĠÐ¼Ð¾Ð» Ð¾ÐºÐ°
ĠÐ¾ÑģÐ» Ð°Ð±
Ġna szych
Ð¼ Ð°Ñħ
ĠÐĶ Ð¢ÐŁ
ĠÐļ Ð»
ĠÐºÐ¾ÑĢ Ð¾Ð½Ð°Ð²Ð¸ÑĢÑĥ
ĠÐºÐ¾Ð¼Ð¿Ð»ÐµÐº ÑģÐ°
ĠÐŁÐ¾Ðº ÑĥÐ¿
ĠO r
ĠÑģÐ¿ÐµÑĨÐ¸Ð°Ð»ÑĮ Ð½Ð¾Ð¹
½Ñĥ Ð»Ð°ÑģÑĮ
ĠÐľÐ¸Ñħ Ð°Ð¸Ð»
ĠÐĴ ÐµÑĢ
Ð¸ÑĤÐµÐ»ÑĮ Ð½ÑĭÐ¼Ð¸
na me
Ġk lu
ÐµÐ²Ð µ
Ġbu d
Ð¾ÑĢ Ð¾Ð´
ĠÐ²ÑĢÐ°ÑĩÐ ¸
ĠÑĤÐ°Ð± Ð»ÐµÑĤÐºÐ¸
Ġ l
ÐŁ Ð¾Ð´
ĠÐ» Ð°Ð¿
ĠÐł Ð°Ð´
ÐµÐ¼Ð ¾
ĠÑĢÑĥÐºÐ¾Ð²Ð¾Ð´ ÑģÑĤÐ²Ð¾
mi ni
ĠÐĿ Ð°Ð±
ĠÑĦÐ°Ðº ÑĤÐ¾ÑĢÑĭ
ĠÐ¼ÐµÑĤ ÑĢÐ¾
ÐµÐ¼ ÐµÑģÑıÑĩ
ĠÐ¶ÐµÐ»ÐµÐ· Ð
ĠÐ³ÑĢÑĥ Ð´Ð
ĠÐ¡ Ð°Ð¼Ð
ĠÐ¿Ð¾Ð´ Ð±
ĠÐ²ÑĭÐ¿Ð» Ð°Ñĩ
ĠPol ski
Ð»Ð¾Ð¶ ÐµÐ½Ð¸Ñı
ĠÑĢÐ°Ñģ ÑĤÐµÑĤ
Ð°Ð´ ÐºÐ°
ĠÑĢÐ°Ñģ ÑĨ
ĠktÃ³re go
? Â»
Ð· Ð°Ðº
ĠÐ¿ÑĢÐ¸Ð² ÑıÐ·
ĠÐ½ÐµÐ¿ Ð¾Ð´
ĠÑĢÐ°Ð·Ð² ÐµÐ´
ĠÑĢÐ°Ð·Ð²Ð¸ ÑĤÐ¸Ð¸
Ñĳ Ñħ
ĠÐºÐ°Ð±Ð¸Ð½Ð µÑĤ
ĠÐºÑĢÐ°Ñģ Ð¾ÑĤÑĭ
Ð°ÑĢ ÐºÐµ
Ðº Ð¸Ð½Ð°
ĠÐ½ÐµÐ¹ Ñ
ĠÐ½ÐµÐ¹Ñ Ĥ
ĠÐ· Ð°ÑĪ
ĠÐŁ Ðļ
ĠÐ´Ð² Ð°Ð´
Ð ¾Ñı
ĠÑģÐ¾Ð±ÑģÑĤÐ² ÐµÐ½Ð½Ð¾Ð³Ð¾
gi i
ĠÐ¾ÑĤÐ²ÐµÑĩ Ð°ÐµÑĤ
g ÅĤo
ĠÐºÑĥÑħ Ð½Ðµ
Ð¾Ð´ ÑģÑĤÐ²Ð¾
ĠÐ¿ÑĢ Ð¾Ð¹Ð´ÐµÑĤ
Ð°Ð½Ð¸Ñı Ð¼Ð¸
ÐµÑĢÐ ¾Ñģ
ÑĢÐ°Ð»ÑĮ Ð½Ð°Ñı
Ð°Ð² ÑĪÐ¸Ðµ
ĠÑģÑĤ ÐµÐ½Ðµ
ĠÐºÐ°Ð¼Ð ½Ñı
ĠG o
d nia
ĠC ie
ĠÑĥÐ»ÑĥÑĩÑĪ Ð¸ÑĤÑĮ
ĠÑĪÐ ¾Ñĥ
ĠÐ¼ÐµÑĤÐ°Ð» Ð»Ð°
ĠÑĥÐº Ð°Ð·Ð°ÑĤÑĮ
ĠU ni
ĠÑģÐ¾ÑģÑĤÐ°Ð² Ð¸ÑĤ
ĠÐļ Ðŀ
ĠÐ·Ð°Ð¿ Ð¾Ð¼
Ð¾Ð±Ð °
ĠÐĿ Ð°ÑĨÐ¸Ð¾Ð½Ð°Ð»ÑĮ
ĠÐ²Ð¾Ð·Ð± ÑĥÐ´
ĠÐ¼Ð¾ÑĢ Ð¾Ð·
ĠP ar
ĠÑĩÐµÐ¼Ð¿Ð¸ Ð¾Ð½Ð°
Ñı ÐµÐ¼
ĠÐ¿Ð¾ÐºÐ¾Ð» ÐµÐ½Ð¸Ñı
ĠÑĢÐ°Ð·ÑĢÐµÑĪ ÐµÐ½Ð¸Ñı
ĠÐ·Ð°Ñī Ð¸ÑĤÑĥ
ĠÐ¿ÑĢÐµÑĤ ÐµÐ½Ð·
ÑĢÑĭ Ð·
½Ñĥ Ð»Ð¸
ĠÐ¿Ð¾ÑģÐ»ÐµÐ´ Ð¾Ð²Ð°ÑĤÐµÐ»ÑĮ
rze nie
ĠÑĢÐ°Ñģ ÑĩÐµÑĤÐ°
Ð¸ÑĦ ÑĦ
Ð·Ð ¸
ÐĿÐ µ
ĠÑĥ Ð´Ð°
Ð¾Ð½Ð ½Ð°Ñı
Ġ3 3
ĠÑģÑĤÐ°Ð½ ÑĨÐ¸Ð¸
ÐµÑģ ÑģÐ¸
ĠÑĢÐ¾Ñģ ÐºÐ¾ÑĪ
ĠÐ¸ÑģÐ¿Ð¾Ð»ÑĮÐ· ÑĥÐ¹ÑĤÐµ
ĠÑĪÐ¸ÑĢÐ¾Ðº Ð¸Ð¹
6 6
ĠÐ²ÑĭÐ´ÐµÐ» Ð¸ÑĤÑĮ
Ġk am
cze niu
owy mi
ĠÐ¼ÑĭÑĪ ÐµÑĩ
b ia
ĠÐ¾ÑģÐ½Ð¾Ð² Ð½ÑĭÐ¼
w or
ko l
ĠÐ¿Ð¾Ñģ Ð»
ĠÐĺÑģÐ¿Ð¾Ð»ÑĮÐ·Ð¾Ð² Ð°Ð½Ð¸Ðµ
ĠÐºÐ¾Ð» ÐµÐ±
ĠÐ´ÐµÐ¹ÑģÑĤÐ² Ð¾Ð²Ð°ÑĤÑĮ
ĠÐ²Ñĭ Ð½Ð¾Ñģ
ĠÐ±Ð» ÐµÑģ
ĠÐ´Ð¸Ñģ ÑĨÐ¸Ð¿
ĠÐ¿Ð¾Ð´Ð´ÐµÑĢÐ¶ Ð¸Ð²Ð°ÑĤÑĮ
Ġt rwa
ĠÐ¡ ÐĿ
Ð½Ð¸Ð» Ð¾ÑģÑĮ
Ð¼Ð¸ ÑĢÐ¾Ð²
ĠÐ²Ð¾Ð» Ð¾Ðº
ĠÐ¿Ð¾ÑĤ ÑĢÑıÑģ
ĠÑĥÐ²ÐµÐ»Ð¸Ñĩ Ð¸Ð²Ð°ÐµÑĤÑģÑı
ĠÐ³Ð»Ð°Ð² Ð½ÑĭÑħ
ĠÐļÐ¾Ð» Ð¸ÑĩÐµÑģÑĤÐ²Ð¾
czeÅĽ niej
ĠÐ¾ÑĢÐ³ Ð°Ð½Ð°
Ð½Ð¸ÑĤ ÑģÑı
ĠÐ²Ð¸Ð´ ÐµÐ»
ĠÑģÐ¿ÐµÑĨÐ¸Ð°Ð»ÑĮ Ð½ÑĭÐ¹
ĠÐ¸Ð¼ ÑĥÑīÐµÑģÑĤÐ²
ĠÑĥÐ³ Ð»ÐµÐ²
mo Å¼li
ĠÐ± ÐµÐ¶
c iÄĻ
Ñį Ð
ĠÐ²Ð» Ð°Ð³Ð¸
ĠÑĦÐ¸Ð½Ð°Ð½ÑģÐ¾Ð² ÑĭÑħ
ĠÐ³ Ð¸Ð¼
ĠÑħ ÑĥÐ¶Ðµ
ÅĤ Ã³
ow er
ÑĢÐ°Ð· Ð²
Ð¸Ñĩ Ð½ÑĭÐµ
ĠÐ½Ð°Ñģ Ð¾Ñģ
ĠÐĳ Ð°ÑĢ
ÑģÑĤ ÑĢÐµÑĩ
ĠÐ²ÐµÑģ ÐµÐ»
Ð¸Ð½ ÑģÐºÐ¾Ð¹
ĠÐ½ÐµÐ±Ð¾Ð»ÑĮÑĪ Ð¸Ñħ
ĠÐ¿Ð¾ÐºÑĥÐ¿ Ð°ÑĤÐµÐ»ÐµÐ¹
Ð´ Ð¾ÑĢÐ¾Ð²
ĠÐ¶Ð¸Ð² Ð¾ÑĤÐ°
ĠÐ´Ð¾Ð³ Ð¾Ð²Ð¾
ĠÐºÑĢÐµÐ¿ Ð»ÐµÐ½Ð¸Ñı
ĠÑĢÐ°ÑģÑģ Ð¼Ð¾ÑĤÑĢÐ¸Ð¼
ĠÐ²Ñĭ Ð½ÐµÑģ
ĠÐ³Ð¸Ð¿ ÐµÑĢÑĤ
ĠÐ¸Ð´Ðµ Ñı
ĠÑģÐ¼Ð¾Ð³ Ð»Ð¸
al ne
Ð½Ð°Ð¶ Ð´Ñĭ
Ð¸Ñģ Ðº
ÑĢÐ ¾ÑĢÐ
le Å¼
Ġm iaÅĤ
ĠÐ¼Ð¾Ñī Ð½Ð¾ÑģÑĤÑĮ
Ġinforma cji
ĠÑĦÐ¾ ÑĢÑĥÐ¼
ĠH a
ĠÐ´ Ð°ÑģÑĤ
Ð¾ÑĢÐ¾ÑĤÑĮ ÑģÑı
ĠÐ´ Ð¾Ð»ÑĮÑĪÐµ
ĠÐ°ÐºÑĤÐ¸Ð² Ð½Ð¾ÑģÑĤÐ¸
ĠÐ¸Ð·Ð²ÐµÑģ ÑĤÐ½ÑĭÑħ
ko n
ĠÐ¿Ð° ÑĢÐ°Ð·
Ġza wiera
ĠÑģÑĤÐµÐº Ð»Ð°
ĠÐĺ ÐŁ
ĠÑĢÐ°Ð· ÑĢÑĭÐ²
ÑĤÐ¸ÑĩÐµÑģÐº Ð¾Ð¼
ĠÐ¿Ð¾Ð»ÐµÐ· Ð½ÑĭÑħ
ĠÐ±Ð¾Ð»ÑĮ Ð½Ð¾Ð³Ð¾
ĠÑĪ Ð»Ñİ
ÑĤÐ¸Ð ¼Ð¸
ÑĤÐ ¾ÑĪ
Ġ jÄĻ
k owe
ĠÐ¼Ð¾Ð¼ ÐµÐ½ÑĤÑĭ
ĠÐ¶Ð ¸ÑĢ
ĠÐ³Ð¾ÑĢÐ¾Ð´ Ð¾Ð²
ĠÐ¿ÑĢÐ¸Ð¼ÐµÐ½ ÑıÑİÑĤÑģÑı
g er
ĠÐ¥ Ð¾Ð»
ĠÐ¿ÑĢÐµÐ²ÑĭÑĪ Ð°ÐµÑĤ
ĠÑĩÐµÑĢÐ ½ÑĭÐ¹
ki ng
ĠÑĢÐ ¸
ĠÐ¿Ð¾Ð² Ð»Ð¸Ñı
ĠÐ±Ð¾ÑĢÑĮ Ð±Ðµ
ĠÐ¥Ð °ÑĢÐ°Ðº
ĠÑĦÑĥÑĤÐ ±
ĠÐ¼Ð¸Ð» Ð»Ð¸Ð
ĠÐºÐ»ÑĥÐ±Ð °
Ġna tural
ĠÑĦ Ð¾ÑĢ
ĠÐºÐ°Ð¼ ÐµÑĢÑĭ
ĠÐ²Ð´ Ð¾Ð»ÑĮ
di o
°Ñģ ÑĤÑĭ
Ð»Ð ¾ÑĢÐ
ĠÐ²ÑĭÑģÐ¾Ðº Ð¸Ðµ
ĠÑĩ Ð¸Ð½Ð¾Ð²
ĠÑģÐ²ÑıÐ· Ð°Ð½Ñĭ
ĠÐ¿Ð¾Ð´Ð¾Ð· ÑĢÐµÐ²
ĠÑĥÑģ Ð¸Ð»Ð¸Ñı
Ð ¸ÐµÐ¼
Ð¾ÑģÑĤ Ð¾Ð¹
Ġcie ka
ĠÑĪÑĤÑĥ ÐºÐ°ÑĤÑĥÑĢ
ĠÐ¿ÑĢÐ¸Ð¼ÐµÐ½ÐµÐ½Ð ¸Ñİ
Ð¿ Ð¾ÑĢ
ÐºÐ¾Ð² Ð¾Ð³Ð¾
ĠÐ½Ð¸Ð¶ Ð½ÐµÐ¹
ĠÐ¾ÑĤÐºÑĢÑĭ ÑĤÐ¸Ñı
ĠÐºÐ°Ð¼ Ð¿
ÑıÑī Ð¸Ð¼
ĠÐºÐ¾Ð¼Ð¿ Ð°Ð½Ð¸ÐµÐ¹
ĠÐ¼Ð°ÑĪ Ð¸Ð½Ðµ
sz ÄĻ
ĠÐ²Ñĭ ÑħÐ¾Ð´Ð¸ÑĤ
ĠÐ¿Ð¾Ð´ÑĢÐ°Ð· ÑĥÐ¼ÐµÐ²
ĠÐ¿ÑĢÐ¾ÑĦÐ¸Ð»Ð°Ðº ÑĤÐ¸ÐºÐ¸
ĠÐ´Ð¸ÑģÐºÐ¾Ð¼ ÑĦ
ĠÐ¿ÑĢÐ°Ð² Ð¾Ð¼
Ġna z
Ġdo sta
ĠÑĦÐ¾ÑĢÐ¼Ð ¸ÑĢÐ¾Ð²
Ġspe cjal
ĠÑģÑĨ ÐµÐ½Ð
ĠÐĴÐ¼ÐµÑģ ÑĤÐµ
ĠÐ§ Ð¸ÑĤÐ°Ð¹ÑĤÐµ
ĠÐºÐ¾Ð½ ÑĤÑĥ
ĠÐºÐ¾Ð½Ð´ Ð¸ÑĨÐ¸Ð¾Ð½Ð
cze ÅĦ
ĠÐĳÑĭ ÑģÑĤ
ĠÐºÑĥÑĢÐ ¾ÑĢ
ĠÐ²Ð¾Ð² ÑĢÐµÐ¼Ñı
ĠÐ°ÑĢÐ¼ Ð¸Ð¸
ÑĢÐ¾Ð¹ ÑĤÐµ
Ð¾Ñģ Ð½Ð°Ð±Ð¶
ĠÑģÑĤ ÑĢÐµÑģ
ĠÐ¾ÑĢÐ³ Ð°Ð½
ĠÑĢÑĥÑģ ÑģÐºÐ¸Ð¹
ĠÐ¢ ÑĢÐµÐ±
ĠÑĥÐ³ Ð»
ĠÑĥÐ²ÐµÐ»Ð¸Ñĩ ÐµÐ½Ð¸Ñı
Ġna praw
ĠÐ½Ð°Ñĩ Ð¸Ñģ
ĠÐ¿ÑĢÐµÐ´Ð¼ ÐµÑĤÐ¾Ð²
ĠÐ¼Ð°ÑĤ ÐµÐ¼Ð°
ĠÐºÐ¾Ð¼Ð¿ Ð°Ð½Ð¸Ñİ
ĠD i
ĠÐ¿ÑĢÐ¾Ð½Ð ¸Ðº
Ġ6 00
ĠÐ»ÑİÐ± Ð»Ñİ
Ð¸Ð½Ð º
½Ð³ ÑĢÐ°Ð´
Ġg ro
Ġs ÅĤo
Ġ Ð¾ÑĢÑĥÐ¶
Ð°ÑĤ Ð¾Ð¹
ĠÑį Ð
ĠÐ½ÐµÐ¼ ÐµÐ´
ÑĢÐµÐ¶ Ð½ÐµÐ¼Ñĥ
ĠÐ¿ÑĢÐ¸ ÑĢÐ¾Ð´Ðµ
ĠÐ´ÑĢÑĥÐ·ÑĮÑı Ð¼Ð¸
ĠÑĨÐµÐ» ÑĭÐ¹
ĠÐ½Ð¸ÐºÐ°Ðº Ð¾Ð³Ð¾
Ð½ÐµÑĢÐ ³
Ð°Ð½Ð½Ð ¾ÑģÑĤÐ¸
ÐµÑĩ ÐºÐ¸
pi Äĩ
Ð»Ñı Ð»
ĠÐŁÑĢ Ð¸Ðº
ĠÐ» Ð¾ÑĪ
ĠÐ¿ÑĢÐ¸Ð½Ñı ÑĤÐ¸Ñı
ĠÐ¾ÐºÑĢÑĥÐ¶ Ð°ÑİÑīÐµÐ¹
ĠÐºÑĢÐ°Ñģ Ð¸Ð²Ð¾
ĠÐŁ ÑĢÐ¾ÑĤÐ¸Ð²
ĠÐ¸Ð¼ÐµÑİÑī Ð¸Ñħ
ĠÐ¼Ð°Ñģ ÑģÐ°
ĠÑģÐ¿ Ñĥ
ĠÐ²Ð¾Ñģ ÑģÑĤÐ°Ð½Ð°Ð²Ð»Ð¸Ð²
ĠÐĵ Ð°Ð»
ĠÑįÑĦÑĦÐµÐº ÑĤÐ°
as e
Ġsk le
ĠÐ¼Ð¸Ðº ÑĢÐ¾ÑĦ
ĠÐŃ ÑĦÑĦÐµÐº
so ft
Ġorgani z
ĠÐľÐ¾Ð» Ð¾Ð´
Ġal bo
ĠÐŁ Ð»Ñİ
± Ð¸Ð»Ð¸
ĠÐ¾ÑĤ ÑĨÐ°
ĠÐĲÐ»ÐµÐºÑģÐ°Ð½Ð´ ÑĢÐ°
ĠÐ½Ð°Ð¿ÑĢÐ°Ð² Ð»ÐµÐ½Ð¸Ðµ
ĠÑĤ Ð¾ÐºÐ°
ĠÐ¿Ð¸Ñģ Ð°ÑĤÑĮ
ĠÐĴÐ ½ÑĥÑĤ
Ð°Ð½Ð¸ ÑĤÐ°
ĠÐ³ÑĢÑĥÐ¿Ð¿ Ñĥ
ĠÑĢÐµÐ°Ð»ÑĮ Ð½Ð¾
ÑĤÐ ³
ÐµÑħ Ð°ÑĤÑĮ
ĠÐ½Ð° ÑĢÐµÐ·
Ġfunk cj
ĠÐ¼ÐµÐ´Ð¸ÑĨÐ¸Ð½ ÑģÐºÐ¾Ð¹
ĠÐ¿Ð¾Ð» Ð½Ð¾Ðµ
Ġ4 8
ĠÐ±ÑİÐ´ Ð¶ÐµÑĤ
ĠÐ¦ Ð²ÐµÑĤ
ĠÑĤÐ¸Ð¿ Ð¾Ð²
ĠÐ¸ÑģÑĤÐ¾Ñĩ Ð½Ð¸ÐºÐ¾Ð²
ĠÐ³Ð¾ÑĢÐ¾Ð´ ÑģÐºÐ¾Ð¹
ĠÐ½Ð¾Ð² Ð¾ÑĢÐ¾Ð¶Ð´
ĠÑħÐ¾ÑĢÐ¾ÑĪ Ð¸Ðµ
ÑĢÐ°Ð¹ ÑĤÐµÑģÑĮ
wa ran
ÅĤ owa
ĠÐ°ÐºÑĤÐ¸Ð² Ð½Ð¾ÑģÑĤÑĮ
ĠÐ± ÐµÑĢÐ
Ġpo Å¼y
ĠÑħ ÑĢÐ¸ÑģÑĤÐ¸
O W
Ð¾Ñģ ÑĥÐ´
ĠÐ¾Ð±ÑıÐ· Ð°Ð½
for m
Ðº ÑĥÑĤ
ĠÑģÐ¾ÑĩÐ µ
Ġdla tego
rzy Äĩ
Ġs kÅĤa
ĠÐºÐ°ÑĦ Ð
Ġm am
Ġ Ð»Ð°
ĠÑģÑĤÑĢÑĥÐºÑĤÑĥ ÑĢÑĭ
Ð¿ ÑĢÐµÐ¶Ð½ÐµÐ¼Ñĥ
ĠÐ½Ð°Ñģ ÐµÐºÐ¾Ð¼
ĠÑģÐ»ÐµÐ´ÑĥÑİÑī ÐµÐ¼
Ġzw iÄĻk
ĠÑĩ ÑĢÐµÐ·
Ð¿ Ð¸Ñģ
ĠÐ¡ Ð°Ð»
ĠX X
Ġjako ÅĽci
ĠÐ¿Ð µÑĤÐ
Ġwyko rzysta
jÄħcy m
wyk le
ĠÐŁ ÑĢÐ°Ðº
ĠÐ¿Ð¾Ð»ÑĥÑĩ Ð¸Ð²
Ġko mu
Ñģ ÐµÐ³Ð´Ð°
ĠÐ¼Ð½Ð¾Ð³ Ð¾Ð¼
ĠÐ²ÑĭÐ· Ð¾Ð²
ĠÑĩÐµÑĤÐ ºÐ¾
Ð¾Ð» Ð¾ÑĤÐ
ĠÐ¿ÑĢÐ¾Ð¸Ð·Ð²Ð¾Ð´ ÑģÑĤÐ²Ðµ
ĠCh o
Ġp owi
ĠÑģ Ð¾ÑİÐ·
°ÑĢ Ñħ
ĠÐ²ÑĢÐ°Ñĩ Ð¾Ð¼
Ðĳ Ðŀ
ĠÐ¼ÐµÐ´Ð¸ÑĨÐ¸Ð½ ÑģÐºÐ¸Ñħ
ĠÐ¿Ð¾Ð» Ð¾Ð¼
ĠÐºÐ¾Ð¼Ð¼Ñĥ Ð½Ð°Ð»ÑĮ
cho dzÄħ
ĠÐ· Ð°ÑĢÑı
ĠÐ¾Ðº ÑĢÑĥÐ³
ĠÑĩ Ñĳ
ĠÑĦ Ð°Ð½ÑĤ
ĠÐ¼ÐµÑĤÐ¾Ð´ Ð¾Ð¼
ĠÐºÐ» ÐµÐ¹
ĠÐ²Ð´Ð¾Ñħ Ð½Ð¾Ð²
ĠÐĽ ÐµÐ³
ÐĴ Ñĭ
ÑĢÐ¾Ñģ ÐºÐ¾Ð¿
ÑĤÐ¾ ÑıÑĤÑĮ
ĠÐ¿Ð¾Ð²ÑĢÐµÐ¶Ð´ ÐµÐ½Ð¸Ñı
ĠPla y
ĠÐ¸Ð·Ð» Ð¸ÑĪ
f f
Ġma my
ĠÑĢÐµÐ±ÐµÐ½Ð ºÐ¾Ð¼
ĠÐºÐ°ÑĦÐ µ
ĠÐ¿ÑĢÐ¾ÑģÑĤ ÑĭÑħ
ĠÐ·Ð°Ð² ÐµÐ´ÐµÐ½Ð¸Ñı
Ġ19 7
ĠÑģÑĤÑĢÐ°Ð½Ð ¸ÑĨÑĥ
ĠÑģÑĥÑģÑĤÐ°Ð² Ð
ÑĢÐ¾Ñģ ÑĤÐ¸
ĠÐ¿ ÑĥÐ±Ð»Ð¸Ñĩ
Ġza ba
ĠÐł ÐµÐ³
Ġznaj dzie
ĠÑģÐ¿Ð¾ÑģÐ¾Ð±Ð °
ĠÐ¿ÑĢÐµÐ· ÐµÐ½
ĠÐ¼ÐµÑģ ÑĤÐ½ÑĭÑħ
ĠÑĥÑģÐ»Ð¾Ð² Ð¸Ð¸
ĠÐ³ Ð¸Ð³Ð¸
ĠÐ¿ÐµÑĢÐµÐ¹ ÑĤÐ¸
ÑıÑī Ð°Ñı
ÐĲ ÐĿ
ÐµÐ½Ð µÑĢ
ĠÑįÐºÐ· Ð°Ð¼
ĠÐ»Ð ¸ÑģÑĤÐ¾Ð²
Ġza mie
ĠÐ¾Ð± ÑĢÐµÐ·
ĠÑĨ Ð¸Ð»Ð¸Ð½Ð´
ÑĤÐ¸Ñĩ ÑĮ
ĠÐ¿Ð¾Ð²Ñģ ÐµÐ´Ð½ÐµÐ²
ĠÐ¾Ð´ÐµÐ¶Ð´ Ñĥ
ĠÐ´ÐµÑĤ ÑģÐºÐ¸Ñħ
ĠÐ¾ÐºÐ°Ð·ÑĭÐ² Ð°ÐµÑĤÑģÑı
¶ Ð°Ð²
Ð¸ÑĪ Ð
ĠÑĢÐ°Ð¹ Ð¾Ð½
ĠÐºÐ¾Ð¼Ð¿ Ð°Ðº
ÑĥÐ¹ ÑĤÐµÑģÑĮ
am ple
ÑĥÐ»Ñı ÑĨÐ¸Ð¸
ĠÐ¿ÑĢÐ¾Ðº ÑĥÑĢÐ°ÑĤÑĥ
ĠÐ¿ÑĢÐ¸Ðº ÑĢÐµÐ¿
ĠÐ¸Ð¼ ÐµÐ»
ĠÑĤÑĢÐ°Ð½ Ñģ
ĠDz ie
ĠÐ¿ÑĢÐ¾Ð½Ð¸Ð ºÐ
Å¼ czy
ĠÐ½Ð°Ð² ÐµÑĢÐ½Ð¾Ðµ
Ġsku te
ĠÐ²ÑģÑĤÑĢÐµÑĩ Ð°ÑİÑĤÑģÑı
Ð¸ÑĦ ÑĢÐ¾Ð²
ĠÐ´ÐµÐº Ð»Ð°
w Ã³r
ĠÐ½Ð°Ð¿ÑĢÑıÐ¶ ÐµÐ½Ð¸Ðµ
ra ca
ĠÐ²ÐµÑģ Ð½Ð¾Ð¹
ĠÐĹÐ´ÑĢÐ°Ð² ÑģÑĤÐ²ÑĥÐ¹ÑĤÐµ
ÐµÐ² ÑĭÐ¼
ĠÅ¼y cie
ĠÑįÐ ½
ĠÑĤÑĥÑĢÐ ¸Ñģ
Ñĥ ÑģÐµ
ĠÑĢÐ¾ÑģÑģÐ¸Ð¹ ÑģÐºÐ¾Ð¹
ÑĳÐ½Ð ½ÑĭÑħ
ĠÐ°ÑĢ Ñ
ĠÐ°ÑĢÑ Ĥ
en ta
ĠÐ³Ð¾ ÑĢÐ´
ĠÐĺÐ² Ð°Ð½Ð¾Ð²
ĠÐ½Ð°Ð³ ÑĢÐ°Ð´
Ġarty ku
Ġm Ã³
ĠÐ½Ð°ÑĢ Ð¾Ð´Ð°
Ġpro ce
ĠÐ¿ÑĢÐ¾ÑĤÐ¸Ð² Ð¾Ð¿Ð¾Ð»Ð¾Ð¶
Ð»ÑİÑĩ ÐµÐ½Ð¸Ðµ
ĠÐºÐ¸Ð» Ð¾Ð³ÑĢÐ°Ð¼
Ġpo dej
ĠÐ¿Ð¾Ð»ÑĮÐ· ÑĥÑİÑĤÑģÑı
ĠÐ¾ÑĤÐ½Ð¾ÑĪ ÐµÐ½Ð¸ÑıÑħ
ÑĢÐ°Ñ Ĩ
ĠÑģÑĢÐµÐ´ÑģÑĤÐ² Ð¾Ð¼
ĠÑĤ ÑĢÐ°Ð½Ð
ĠÐ¾Ð±ÑıÐ·Ð°ÑĤÐµÐ»ÑĮ ÑģÑĤÐ²
ch ÄĻ
ĠÑģÐµÑĢÐµÐ´ Ð¸Ð½Ðµ
ĠÑĩ ÐµÑģÑĤÑĮ
ĠÐ¾ÑģÑĤ Ð°Ð»Ð¾ÑģÑĮ
ĠT h
ĠÐ¸ÑģÑħÐ¾Ð´ Ñı
ĠÐ·Ð°Ð½Ñı ÑĤÐ¸Ð¹
ĠÐ½Ð¾Ð³ ÑĤÐµÐ¹
Ġmo c
ĠÑģÑĥÑħ Ð¾Ð¹
ĠÐ¿Ð¾Ð²ÑĭÑĪ ÐµÐ½Ð½Ð¾Ð¹
ĠÑĤÐ¾ÑĢÐ¼ Ð¾Ð·
ĠÐ¶ÐµÐ» Ð°Ð½Ð¸Ñı
Ġ ÐĻ
Ġjest e
n Ã³w
ĠÐ¼Ð°Ñģ Ð»Ð¾Ð¼
ĠÑĪ Ð°Ð½Ñģ
Ð»ÐµÑĤÐ½Ð ¸Ð¹
ĠÐł Ñĥ
ĠÐ¾ÑĤÐ² ÐµÑĤÑĭ
Ġwy jÄħ
ĠÐ¿Ð¾ÑĤÐµÑĢÐ ¸
ĠÑĢÐ°Ñģ ÑģÑĤ
czy na
ĠÐ¾Ð±Ð¼ ÐµÐ½Ð°
ĠÑģÐ½ÐµÐ ³
la cji
ĠÐ¿ÐµÑĢÐµÐ ±
Ð¾Ð» Ð³
ĠÐ²ÑģÑĤÑĢÐµÑĩ Ð°ÐµÑĤÑģÑı
ĠÐľÑĥÐ¶ Ñĩ
Ġza j
ĠÐ² ÑĢÑıÐ´
ĠÐ¿ÑĢÐ¸Ñħ Ð¾Ð´Ð¸ÑĤ
Ð»ÐµÐ¸Ð ²
ĠÑģ ÐµÐ³
¾ÑĤÐµ ÑĢÐ°Ð¿
Ð¾Ð± ÑĢÐ¸ÑĤ
ĠÐ³Ð ³
ĠÐ¸ÑĤ Ð°Ð»ÑĮÑıÐ½
Ð¿ ÑĢÐµÐ´
ĠÐ¸Ð³ÑĢÐ¾Ð² ÑĭÑħ
ÑĢÑı Ð¼
ĠÐĳ Ð¾ÑĢÐ¸Ñģ
ĠÐ¿Ð¾Ð³ Ð°ÑĪ
ĠÐ´Ð¾Ð± ÑĢÐ¾Ð²
ÑĢÐ¸ ÐµÐ²
ÐĹ Ðĺ
Ġle k
ĠÐ½ÐµÑģÐ¾Ð²ÐµÑĢÑĪ ÐµÐ½Ð½Ð¾Ð»ÐµÑĤÐ½Ð
ĠÐ¸ÑģÐ¿Ð¾Ð»ÑĮÐ·Ð¾Ð² Ð°ÑĤÑĮÑģÑı
ĠÑı Ð¸Ñĩ
ĠÐ¾Ð³ Ð¾Ð½ÑĮ
Ð¾ÑħÐ ½ÑĥÑĤÑĮ
ĠÐ¿Ð¸Ñī Ñĥ
ĠÑĢÐ°ÑģÑĤÐ² Ð¾ÑĢÐ°
ĠÑģÐ¾Ð·Ð´ Ð°Ð½Ð¸Ð¸
Ð¸Ð½ ÑĦ
Ġa ni
ĠÑĦ Ð¾ÑĢÐ¼Ð¸
ĠÑĥÑģÑĤÐ°Ð½Ð°Ð²Ð»Ð¸Ð² Ð°ÐµÑĤÑģÑı
Ð¾Ð¿ Ð¸Ñģ
Ð¾Ñĩ Ð½Ð¾Ðµ
Ġprzy sz
ĠÐĴ Ð½Ð¸Ð¼
Ð°Ð» Ð¸Ð·Ð°ÑĨÐ¸Ð¸
Ġpo ÅĤÄħ
ĠÐ¯ Ð¿
ĠÑģÐº Ð²Ð¾Ð·
ĠÑģÐ¿ ÑĢÐ°ÑĪ
c ÄĻ
ĠÐ²Ð¾ÑģÐº ÑĢÐµÑģ
Ġst ar
°ÑĢÐ ¸ÑĤÑĮ
ĠÐ´Ð¾Ð»Ð¶ Ð½Ð¾Ñģ
Ġjed en
Ð½Ð¸Ð »Ð°
ĠÐ¡ ÑĢÐ¾Ðº
ĠÐ½ÐµÐ´Ð¾Ñģ ÑĤÐ°ÑĤÐ¾ÑĩÐ½Ð¾
ĠÐ½ÐµÐ´Ð²Ð¸Ð¶ Ð¸Ð¼Ð¾ÑģÑĤÑĮ
ÐµÑĤ Ð°Ð¼
ÑĢÐ°Ð½Ð ¸ÑĤÐµÐ»ÑĮ
ĠÐ¾Ðº Ð¾Ð½
ĠÐ¿Ð»Ð°Ð½ ÑĪ
Ñĳ Ð³
ĠÐ±Ð¾Ð»ÐµÐ· Ð½ÐµÐ¹
ĠÐ¾ÑĤÐ½Ð¾ÑĪ ÐµÐ½Ð¸Ñİ
´Ð ¸Ñı
Ġp an
ĠÐ¿Ð¾Ð² ÐµÐ´ÐµÐ½Ð¸Ðµ
ĠÑħÐ¾Ð·ÑıÐ¹ ÑģÑĤÐ²Ð°
Ġpo ko
ĠÐ»Ð¸ÑģÑĤÑĮ ÐµÐ²
ĠÐ¾Ð±ÑĬÑıÐ² Ð»ÐµÐ½Ð¸Ñı
ĠÑħÐ¾ÑĢÐ¾ÑĪ ÐµÐ³Ð¾
Ð¸ÑĤ Ð¾Ð¹
ĠÐ±Ð»Ð¸Ð¶ Ð
ĠÐ¾Ð±ÑģÐ»ÑĥÐ¶ Ð¸Ð²Ð°Ð½Ð¸Ðµ
Ð¤ ÐĹ
ĠÑĢÐ°Ð· Ð¼Ð½Ð¾Ð¶
ĠÐ±Ð»Ð¸Ð¶Ð µ
ĠÐ¿ÑĢÐ¸Ð² Ð¾Ð´
Ð¾Ð½ÑĤÐ°Ðº ÑĤÐµ
ĠÐĶÐ°Ð² Ð°Ð¹ÑĤÐµ
ĠÐ´ÐµÑĪÐµÐ² Ð»Ðµ
ĠÐ´ÐµÑģ ÑıÑĤÑĮ
Ð¾Ð» Ñĩ
ĠÐĴ ÑĥÐ»ÐºÐ°Ð½
j o
ĠÑįÐ»ÐµÐ¼ ÐµÐ½ÑĤÐ°
ĠÑĦÐ°Ðº ÑĤÐ¸ÑĩÐµÑģÐºÐ¸
ÑĥÑģÐ»Ð¾Ð² Ð½Ð¾
Ġna stÄĻp
Ð»Ñİ Ð±
ĠÑĥ ÑĢÐ¾Ðº
ĠÐ´Ð¸Ð°Ð¼ ÐµÑĤ
ĠÐ°Ð½Ð °Ð»ÑĮ
ĠÑĤ ÑĢÐ°Ñģ
ru ch
ĠÐ¿ÑĢÐ¸Ð ¾ÑĢÐ
ĠÐ¾ÑĤÐ´ÐµÐ» ÐºÐ¸
ra ft
m er
ĠÐ¿ÑĢÐµÐ´Ð»Ð¾Ð¶ Ð¸ÑĤÑĮ
ĠÐ½Ð° ÑĥÐºÐ¸
nie nie
8 5
ĠÐ¿Ð° ÑĢÐ°Ð»Ð»
ĠÐ¾ÑĤÐº Ð°Ð·Ð°Ð»
Ð°Ð½ Ñı
ĠÐ½Ð°Ð± Ð
ĠÐ¿Ð¾Ð» Ð¾ÑĤ
ÑĤÐ² Ñĭ
li a
ÑĤÐ ¾ÑĤÑĭ
ĠÐ¿ÑĢÐ¾ÑĤÐ¸Ð² Ð¾ÑĢÐµÑĩ
ÑĪ ÐµÐ³Ð¾ÑģÑı
ĠÑįÑĤ Ð°Ð¶
ĠÑĢÐ°Ð´ Ð¸Ð°
Ġ Ð°Ð½Ð´
Ġw spo
ĠÐ¿Ð¾Ð² ÐµÐ´
ĠÐł ÐµÑĨ
ĠÐ½ÐµÐ¼ Ð°Ð»Ð¾
ĠÐļ Ð¾Ñģ
ĠÐ¿ÑĢÐ¾Ð²ÐµÐ´ ÐµÐ½Ð¸Ð¸
Ĥ ÑĭÑħ
ĠÐ±Ð°Ð» Ð°Ð½
ĠÐ°Ð² ÑĤÐ¾ÑĢÐ°
ĠÐ³ ÐµÐ¹
ĠÑģÐ¾ÑģÑĤÐ°Ð² Ð¸ÑĤÑĮ
ĠÐ¾ÑĤÐ» Ð¾Ð¶
ĠS to
ĠÑĤÐµÐ¿ Ð»Ð°
Ġgo dzi
ĠÐ±Ð»Ñİ Ð´Ð¾
su ng
ĠÑĢÐ°ÑģÐ¿ Ð¸Ñģ
Ð¸Ð² Ð°ÑİÑīÐ¸Ñħ
ÐµÑĢÐ ½ÑĥÑĤÑĮ
ĠÐ² ÐµÑĤ
ĠÐ´ÐµÑĤ ÑģÐºÐ¾Ð¹
ĠÑį ÑĤÐ¸Ð¼Ð¸
» Ñı
ĠÐ¼Ð°Ñģ ÑĤÐµÑĢÐ°
mi ar
Ġ Ã
ĠÐºÐ¾Ð½Ðº ÑĥÑĢÑģ
ĠÐŀÐ±ÑĢÐ° ÑĤÐ¸ÑĤÐµ
re a
c tion
ĠÐ¿Ð¾Ñģ Ð¼Ð¾ÑĤ
ĠmoÅ¼liwo ÅĽÄĩ
ĠS Äħ
Ġ ÐµÐ±
al l
ĠÐ¼Ð°Ð» Ð¾Ð³Ð¾
E D
Ġ0 9
ĠÐ¿Ð¾Ð¿ ÑĭÑĤ
d ne
ĠÐ¼Ð °ÑĢÐ
Ð¸Ð¼ ÑĭÐ¼
ĠÐºÐ¾ÑĢÐ ¸ÑĩÐ½ÐµÐ²
Ġw sze
ĠÑģÑĤÐ¾Ð» ÐºÐ
Ð½ÐµÐ½Ð ¸ÐµÐ¼
Ð¾Ð¾Ð± ÑĢÐ°Ð¶
ĠÐ¸ÑģÐ¿Ð¾Ð»ÑĮÐ· ÑĥÐµÑĤ
ĠÐļ ÑĢÐµÐ¼
Ð¾Ð¼ ÐµÑĤÑĢÐ¾Ð²
re w
Ġdo ku
ĠÑģÐ¾Ð¿ ÐµÑĢ
Ð°Ð´ ÑĥÑĤ
ĠÐ¶ÐµÐ»ÑĥÐ´ ÐºÐ°
ĠÐ¿Ð¾Ðº ÑĢÐ¾Ð²
ĠÐļ Ð¸ÑĢ
ĠÐ¡ Ð¼Ð¾ÑĤÑĢÐµÑĤÑĮ
ĠÐ³ÑĢÐ°Ð½Ð ¸ÑĨÑĭ
ĠÐ· Ð¾Ð»Ð
ĠÑģÐ¾Ñģ ÑĢÐµÐ´
ĠÐŀÐ¿ ÑĢÐµÐ´ÐµÐ»
ĠÑĢÐµÑĩ Ð
ĠÐ¼ Ð¾Ðº
owa ÅĤa
Ġst wo
Ġk ier
ĠÐ¸Ð·Ð±Ð¸ ÑĢÐ°ÑĤ
ĠW szyst
ĠÑįÐ»ÐµÐºÑĤ ÑĢÐ¾Ñį
ĠÑį Ð»Ð°Ñģ
ĠÑģÑĤÑĢÐ°Ñħ Ð
T A
ĠÐ¿Ð¾Ñĩ Ð²Ñĭ
Ð¸ÑĨ Ð¸Ð¹
Ġdru gie
. ),
ÑĨÐ° ÑĤÐ¸
Ġucze st
Ġ en
Ð°Ð¶Ð ½ÑĥÑİ
ĠÐ¾ÑĤ ÑģÐ»
ĠÑī ÐµÐ»
ĠÑĢÑĥÑģ ÑģÐºÐ¾Ð¼
6 7
ĠÑĦ Ð°Ð½Ð
Ġwsp Ã³l
cz one
ĠÑĥÐ²ÐµÑĢÐµÐ ½Ñĭ
ĠÐºÐ¾Ð» ÐµÑģ
ĠÑĥÑĩÐ°ÑģÑĤÐ½Ð ¸ÐºÐ¸
Ð»Ñı Ð»Ð¸
Ġczy m
ĠÐ³ÑĢÐ°Ð¼ Ð¼
ĠÐ¿Ð¾ÑģÐµ ÑĤÐ¸ÑĤÑĮ
Ð¸Ð³Ð¸ Ð¾Ð·
ĠÐ¿ÑĢÐ¸Ð½Ð¸Ð¼ Ð°ÑİÑĤ
ĠÐ¿ÑĢÐ¾Ð±Ð»ÐµÐ¼ Ð¾Ð¹
ÑĥÑģ Ð¾Ð¼
ĠÐ²Ð¾ÑģÐ¿Ð°Ð» ÐµÐ½Ð¸Ðµ
ĠÐ°Ð³ ÑĢÐµÑģÑģÐ¸Ð²
ĠÐ³Ð¾Ð» Ð¾Ð²Ð¾Ð¹
ĠÐ²Ð µÑĤÐµ
Ġ/ /
Ġzapew nia
ĠÐºÑĢÐ°Ð¹ Ð½ÐµÐ¹
ĠÑģÑĭ Ð½Ð°
ĠÐ¼Ð½Ð¾Ð³ Ð¾Ðº
ÐŁ Ðļ
°Ð ¼
Ð¾ÑĢÐ ±
ĠÑĥÐº ÑĢÐ°Ñģ
ĠÐ¿Ð°ÑĢ ÐºÐ¾Ð²
ĠÐ²Ð¾Ð·Ð´ ÑĥÑħÐµ
ĠI II
ĠÐ¸Ð½ÑĤÐµÑĢÐµÑģ Ð¾Ð²
ÐµÐ³Ð ¸Ñı
Ġa Å¼
ĠÐĿ Ð°ÑĪÐ°
ĠÐ¿ÑĢÐ¾ÑģÐ¼Ð¾ÑĤ ÑĢÐ°
ĠÐ»ÐµÐ³ ÐºÐ¸Ñħ
Ġb li
ĠÑģÐ°Ð¹ ÑĤÑĭ
Ġi stnie
Ġ3 9
ĠÐºÐ¾ÑĢÐ¿ ÑĥÑģÐ°
Ð°Ð» Ð¾Ð³
ĠÐºÐ°Ð» Ð¾ÑĢÐ¸Ð¹
ĠÐ¿ÑĢÐ¸ÑĪ Ð»Ð¸
ĠÑģÐ² ÐµÐ´
to m
ĠÑĥÐ¼ÐµÐ½ÑĮÑĪ Ð¸ÑĤÑĮ
Ð¸Ð½Ð µÐº
ĠÐ±ÑĢ Ð¾Ð½
pi ta
ĠÐĽ ÑĮ
ĠÐ¿ÑĢÐ¾Ð² Ð¾ÑĨÐ¸
Ġz wie
ÅĽ redni
20 20
Ġa ktyw
ĠÐ´ Ð°ÑĤÑĭ
Ġ200 6
ĠÐ½Ð¾Ñģ Ð¸ÑĤ
Ñı Ñı
ĠÐ³ÑĢÑĥÐ· Ð¾Ð²
ĠÐ² Ð¸Ñģ
ĠÑĢÐµÑĪ Ð¸Ð»Ð°
ĠÑĢÐ°Ð·ÑĢÐ°Ð±Ð¾ÑĤÐ ºÐ¸
ĠÐ§ Ð¸ÑĤÐ°ÑĤÑĮ
ĠDo da
Ġpod ob
ĠÐ¿ÐµÐ½ ÑģÐ¸Ð¸
ĠÐ±ÑĥÐ´ÑĥÑī ÐµÐµ
ĠÐ±ÑĥÑħÐ³Ð°Ð» ÑĤÐµÑĢ
Ġgospo dar
ÐµÐ½ Ð¾Ð³Ð¾
ĠM y
ku je
ÑĢÐ ½ÑĭÐ¼
Ð»Ñı Ñħ
ĠÐ¼Ð°Ð¼ Ñĭ
ĠÐ¸Ð· Ð½Ð¾Ñģ
Ñ ĤÑĭÑħ
ĠÐ±Ð°Ð· Ñĭ
ÐµÐº Ð²Ð°
ĠÐ¸ÑĤÐ¾Ð³ Ð°Ð¼
ĠÐ¼Ð°Ñģ ÐºÐ¸
Ð¸Ð´ Ð¶
ĠÐ» Ð°Ð¹
ĠÑģÐ¾Ð´ÐµÑĢÐ¶ Ð°ÑĤ
ÑĤÐ¾Ñĩ Ð½Ð¾Ð³Ð¾
ĠÑĤÐµÐ¼ Ð½Ð¾
ĠÑĩ ÐµÑħ
ÑģÐ ½Ð¾Ð³Ð¾
ĠÐ²ÑĭÑģÐ¾Ðº ÑĥÑİ
ĠÐ´Ð¸Ð°Ð³Ð½Ð¾Ñģ ÑĤÐ¸ÐºÐ¸
ĠÐ²ÐµÑģ Ð¾Ð¼
ĠÑģÑĤÐ°ÑĢ ÑĪÐµ
ÑĤÐ¸ÑĩÐµÑģÐº Ð¸Ð¼Ð¸
Ð²ÐµÑĢÐµÐ ¹
ÑıÐ´ Ð¾Ðº
ĠÐ¼ ÑĥÐ´
ĠÐºÑĢ ÑĥÑĤ
Ð¸ÑĦÐ¸Ðº Ð°ÑĨÐ¸Ñı
ĠÐ¿ÑĢÐ¸Ð¼ÐµÐ½ÐµÐ½Ð ¸ÐµÐ¼
Ġ ;
Ġ ÅĤÄħ
ĠÐ²ÐºÑĥÑģ Ñĥ
ĠÐ´Ð¸ÑĢÐµÐº ÑĤÐ¾ÑĢÐ°
Ð¾ÑĢÐ ½ÑĭÑħ
Ġmiejs cu
ĠÑĦÐ¾Ð½Ð ´Ð°
ĠÐ¿ÑĢÐ¾ÐµÐº ÑĤÑĭ
ĠÑħ ÑĢÐ°Ð¼
ĠÑĢÐ°ÑģÑģ ÑĤÐ¾Ñı
ĠÑĢÐµÑĩÐ ¸
ĠÐĿ Ðķ
ĠÑıÐ² Ð½Ð¾
ĠÑģÐ»ÑĥÐ¶ Ð¸ÑĤ
ĠJ o
ĠÐ± Ð¸Ð½Ð°ÑĢÐ
ĠÐ½Ð°Ð½ÐµÑģ ÑĤÐ¸
ĠÐŁ Ð¾Ð»ÑĮÐ·Ð¾Ð²
ĠÐºÐ°ÑĢ ÑĤÐ°
ĠÐ³Ð¾ÑĢÐ¼ Ð¾Ð½Ð°Ð»ÑĮ
ĠÐŁÑĢÐµÐ´ Ð»Ð°Ð³
ÑĤÐ ±
Ð¸ÑĤ Ð¾Ð¼
ĠÐ´Ð¾Ð»Ð³Ð¾Ð² ÐµÑĩ
Ð¾Ð» Ð¾Ñģ
ĠÐ¸Ð· Ð±Ñĭ
P S
ĠÑĥÑģÑĤÐ°Ð½Ð¾Ð² ÐºÐµ
ĠÐ²Ð¾Ð· ÑĮ
ĠÐ¼Ð°Ð½Ð¸Ð º
ÑĤÐ¸Ð·Ð °
ĠÐ¿Ð»Ð°Ð½Ð¸ ÑĢÑĥÐµÑĤÑģÑı
Ð» ÐµÐ½Ð½Ð¾Ðµ
ĠÐ¾ÑĤÐ´ÐµÐ»ÑĮ Ð½ÑĭÐµ
Ġob sÅĤu
ĠÐ´ Ð¾ÑĩÑĮ
Ġdob re
ĠÐ¿Ð¾Ð¿ ÑĢÐ°Ð²
ĠÐ¿ÑĢÐ¸Ð± Ð»Ð¸Ð¶
ĠÑĤÐµÑħ Ð½Ð¸ÐºÐ°
ĠÐł ÐµÐ¼
ĠÐ¿ÑĢÐ¾Ð³ÑĢÐ°Ð¼ Ð¼Ð
ĠÐľ Ð¾Ð³
ĠÐ¿Ð¾Ð´Ñĩ ÐµÑĢÐº
Ġzde cy
ÑĢÐ¸Ñģ ÑĤÐ°
w nÄĻtrz
ĠÐķ Ð¡
Ð¸Ð² Ð°Ð½Ð¸Ñİ
ĠÐ¿Ð¾Ð´ Ð²Ð¸Ð¶
u ra
ĠÐ¿Ð¾Ð»ÑĮÐ·Ð¾Ð² Ð°ÑĤÐµÐ»Ð¸
Ġswoje j
ĠÐ¿Ð¾Ñĩ ÐµÐº
ĠS h
Ġpod staw
ĠÐ²Ð¾Ð¿ÑĢÐ¾ÑģÐ °
ĠÐ¾ÑĤÑģÑĥÑĤÑģÑĤÐ² ÑĥÐµÑĤ
pa da
ÑĥÑİÑī Ð¸Ð¼Ð¸
ĠÐ°Ðº Ð°Ð´ÐµÐ¼
Ġ Ð»Ð¾
Ðł Ð£
ĠÐ¼Ð¸Ð½Ð ¸
ĠÐ¤ÑĢÐ°Ð½ ÑĨÐ¸Ð¸
ÐĺÐĳ ÐĶÐĶ
ĠÐ¿ÑĢÐ¸Ð± Ð»Ð¸Ð·
ĠÐ² Ð¾ÑģÑĮ
ĠÐŁÐ µÑĤÐµÑĢÐ±ÑĥÑĢÐ
Ñĭ ÑĪÐµ
Ġte chno
ÑĢÐ¾Ñģ Ð¾Ð²
ĠUS B
ĠÑģÐ ¸ÑĢ
ĠÐ´ Ð¾Ð¼Ñĥ
ĠÐ¤ Ð¸Ð»
ĠÐºÐ ½Ñı
ĠÐ´Ð¾Ñħ Ð¾Ð´Ð°
ÑĤÐ¾Ñĩ Ð½ÑĭÐ¹
ĠÐ´ ÑĢÐ°Ð
Ð¾Ð»Ð µÑĤÐ°
Ð»Ð¾ÑĤÐ ½Ð
ĠÐ·Ð½Ð°Ð »
ĠÐ¿Ð¾ÑĤÑĢÐµÐ± Ð¸ÑĤÐµÐ»ÐµÐ¹
Ð¾ÑĩÐ ¸
Ġpo pular
ĠÐľÐµÐ¶Ð´ Ñĥ
ÑĢÐ¾Ñģ Ð
ĠÐ¿ÑĢÐ¾ÑıÐ²Ð»Ñı ÐµÑĤÑģÑı
Ð°Ð½Ð ½Ð¾Ð¼Ñĥ
Ġo pi
ĠÑĥÐ¿ ÑĢÐ¾Ñī
Ð¸ÑĪ Ð¸ÑĤÐµ
ĠÐ¾Ð±Ñī ÐµÐµ
ĠÐ¿ÑĢÐ¸ÑĪ ÐµÐ»
ĠÐº Ð°Ð½
ĠÐ¼Ð°Ð½Ð¸Ð ¿
ex ample
Ð¾ÑĢÐ ½ÑĭÐµ
ĠÐ¾Ð± ÑĢÐ°Ð±Ð°ÑĤ
Ð¾Ð»Ð½ÐµÐ½Ð ¸Ðµ
Ð¸Ñĩ Ð½Ð¾
Ð¾Ð´ Ð¾Ð±
ĠÑĢÐ°ÑģÐ¿Ð¾Ð»Ð¾Ð¶ ÐµÐ½
ĠÑħÐ¾ÑĢÐ¾ÑĪ ÐµÐ¹
ĠÐºÐ°Ð¿ ÐµÐ»ÑĮ
ĠÑĪ Ð°Ð±Ð»
nia ch
ĠÐļ Ð½Ð¸Ð
ĠÐļÐ°Ð· Ð¸Ð½Ð¾
Ð¿ Ð¸ÑģÑĮ
ĠÐ¼Ð°Ð»ÐµÐ½ÑĮ ÐºÐ¸Ñħ
ÑĢ Ð¸ÐºÐ¸
Ð°ÑĤ ÑĭÐ¹
ĠÐ¾ÑģÑĤÐ°Ð½Ð µÑĤÑģÑı
ÑĤÐ¾ÑĢÐ ¸Ñĩ
ĠÐ² ÑģÐº
ĠÑģ Ð°Ð½Ðº
ĠÐ°ÑĢÐ µÑģ
ĠÐ¿ÑĢÐµÐ´ÑģÑĤ Ð¾Ð¸ÑĤ
ĠÐ±ÑĢ Ñİ
ĠÑģÑĤÐ°Ð² Ð¸ÑĤÑĮ
ĠÐºÐ²Ð°ÑĢÑĤÐ¸ ÑĢ
Ð¾Ð»Ð ½Ð¾Ð¼
ĠÐ¢ Ð°ÑĤÑĮ
ĠÑģÑĤÐ°ÑĤÑĮ Ñİ
Ñı Ð½Ð¾Ð¹
ÑĤÐ²Ð °
ĠÐ³ÑĢÐ°Ð¶Ð´Ð°Ð½Ð¸Ð ½Ð°
ĠÑĢÐµÐ³Ð¸ Ð¾Ð½Ð¾Ð²
ÐµÐ»Ñı Ð±
Ð¾Ð ¸ÑĤÐµÐ»ÑĮ
ĠÑģÐ»ÑĥÐ¶ Ð±Ñĥ
Ġszyb ko
czÄĻ ÅĽcie
st name
ÑıÑī ÐµÐµ
ma wia
ĠÐ± ÑĢÐ¸ÑĤ
ĠÐĿ Ð°Ð´Ð¾
ĠÐ·Ð°ÐºÐ¾Ð½Ð¾Ð´Ð°ÑĤÐµÐ»ÑĮ ÑģÑĤÐ²Ð¾Ð¼
cja li
ĠÐ¿ÑĢÐ¾Ð¼ÑĭÑĪÐ» ÐµÐ½Ð½Ð¾ÑģÑĤÐ¸
Ð°Ð·ÑĭÐ² Ð°ÐµÑĤÑģÑı
Ð¾Ð¶ Ð¸Ðµ
ĠÐĹ Ð²
ĠjÄĻ zy
ĠÑĨÐ¸ÑĦ ÑĢÐ¾Ð²
ĠÑĢ Ð²
ĠÑģÐ¼ÑĭÑģ Ð»Ðµ
ĠÐĵ ÑĢÑĥÐ·
ĠFace book
Ð» ÐµÐ½Ð½ÑĥÑİ
ÐĿ Ðķ
ĠÑĢÐ°ÑģÑģÐº Ð°Ð·ÑĭÐ²Ð°ÐµÑĤ
pra sza
ne ra
6 8
ÐŁÐµÑĤÐµÑĢÐ±ÑĥÑĢÐ ³
ĠÑģÐ¾Ð´ÐµÑĢÐ¶ Ð¸ÑĤÑģÑı
ĠÐļ Ð¸ÑĤÐ°Ð¹
ÑıÐ³ Ñĩ
Ð½Ð°Ð ¼Ð¸
ĠÐ¿ÑĢÐµÐ´ÑĥÑģ Ð¼Ð¾ÑĤ
Ġna szym
Ð¸Ð» Ð¸Ð¸
ĠÐ¿ÑĢÐ¾ÑĪ ÐµÐ»
Ð°Ñģ Ð
ĠÐ¸Ð·Ð¾Ð±ÑĢÐ°Ð¶ ÐµÐ½Ð¸Ðµ
Ġâ Ĩ
Ġp Ã³ÅĤ
Ġu l
ÑĢÑĭ ÑĤÐ¸Ðµ
ĠÐ°Ð¿Ð¿Ð° ÑĢÐ°ÑĤ
ĠÐĵ ÑĢÐ°Ð¶Ð´
ĠÐ²ÑĭÑģÑĤÑĥÐ¿ Ð°ÐµÑĤ
Ð· ÐµÐ¼
ĠÐ½Ð µÑħ
ĠÐĿ ÐµÐ·
ĠusÅĤu g
Ð¾Ð½Ð °ÑĤ
ĠÐĿÐ°Ð» Ð¸Ñĩ
Ġu dziaÅĤ
ĠÐ¾Ð± Ð·Ð¾ÑĢ
ĠÐ¸Ð´ ÐµÐ¹
ĠÐŁ ÑĢÐ¾
ĠÐ´ÑĥÐ¼ Ð°ÑĤÑĮ
Ġo grani
ĠÑĢÐ°Ð·Ð¼ÐµÑī ÐµÐ½Ð¸Ñı
ĠÐ»Ð¸Ð½Ð ¸Ñı
ĠÑĤ ÐµÐ»Ðµ
ĠÐ¶ ÐµÐ½Ñĭ
te dy
ĠÐ¿Ð» Ñİ
ĠÐĲÐ´ Ð¼Ð¸Ð½Ð¸ÑģÑĤ
Ð´ Ð¶
ĠÐ¾Ð± Ð¾Ð¸
ĠÑĥÑĩ ÐµÑĤ
Ġa na
ĠÐºÐ¾Ð½ÑĤÑĢÐ¾Ð»Ð ¸ÑĢÐ¾Ð²Ð°ÑĤÑĮ
ĠÐĲÑĢ Ñħ
ĠÐĴÐµÐ»Ð¸Ðº Ð¾Ð±ÑĢÐ¸ÑĤ
ĠÐ¿Ð¾ÑĤÑĢÐµÐ± Ð¸ÑĤÐµÐ»ÑĮ
Ð¾Ð»ÑĮ Ð½ÑĭÐ¹
ÑĤÐ¸ ÑĤÐ°
ÑĢÐ ¾ÑĤÐ
ĠÐ£ Ñģ
Ð½ÐµÐ ½Ñĭ
Ð°Ð´ Ñĥ
ÐµÐ¿ Ñ
ĠÐ²ÑĭÐ· ÑĭÐ²Ð°ÑİÑĤ
ĠÐĵ Ð»
ÐµÐ¿Ñ Ĥ
ĠÐ»ÑĥÑĩ ÑĪÐµÐµ
Ð¾ÑĤÐ½Ð ¸
ĠÐ½ÐµÐ¾Ð±ÑħÐ¾Ð´ Ð¸Ð¼Ð°
Ġs il
ÅĽ wiet
ĠÐ¡ ÑĥÐ¼
ĠÐ¿ ÐµÐ²
tu r
ĠÐºÐ¾ÑĢÐ ·
Ð¾Ð¹ ÑĤÐ¸ÑģÑĮ
ĠÐ¿Ð»Ð°ÑĤÑĮ Ð
ĠÐ¿Ð»Ð°ÑĤÑĮÐ µ
ĠÑĩ Ð°ÑĪ
ĠÑĩÐ¸Ñģ Ð»
ĠÑĢÐ¾Ð´ Ð¾Ð²
ĠÐ³Ð¾ÑģÑĥÐ´Ð°ÑĢ ÑģÑĤÐ²Ð¾
Ġra mach
ĠÐ±ÐµÑģÐ¿ Ð¾Ðº
ĠÐºÐ¾Ð½ÐºÑĥÑĢ ÑģÐ°
ĠÐ¼Ð°Ð³Ð°Ð· Ð¸Ð½Ð°Ñħ
ĠÐ²ÑĭÑģÐ¾Ðº Ð¸Ñħ
ÑıÑīÐ¸Ñħ ÑģÑı
ĠÐ¼ Ñį
ÑĤÐ²Ð¾ÑĢÐ ¸ÑĤÐµÐ»ÑĮ
ĠÑĢÐ°Ñģ ÑĤÐ¸
ĠÐ½Ð°Ð¿ Ð¾Ð»
ĠÐ¾Ð¿ÐµÑĢÐ°Ñ ĨÐ¸Ñı
Ð°ÑĤÐµÐ»ÑĮ ÑģÑĤÐ²
ĠÐ¶ Ð°Ð½
Ð°Ð¹ Ð»
Ð² Ð¾Ð¹
ĠÐ·Ð´ÑĢÐ°Ð²Ð¾Ð¾Ñħ ÑĢÐ°Ð½ÐµÐ½Ð¸Ñı
ĠÑģÑĤÑĢÐ°ÑĤÐµÐ³ Ð¸Ð¸
ĠÐ´Ð¸Ð°Ð³Ð ½Ð¾Ð·
Åº Äĩ
µÑĤÐ ºÐ°
Ð»Ñı Ñİ
ĠÐ¼Ñı ÑģÐ°
ÑĢÑı Ð¶
Ġswo im
Ð¦ Ðĺ
ÑĢÐ ¸Ñİ
ĠÐ¿Ð¾ÐºÑĥÐ¿ ÐºÑĥ
ĠÐ±Ð¾ÑĢ Ð¾Ð´Ð°Ð²
ĠÐŀÐ´ Ð½Ð°
un da
ĠÐ²ÑĭÐ± ÐµÑĢÐ¸ÑĤÐµ
ĠÑĥ Ð±Ð¸
to miast
ĠÐ´ÑĥÑĪÐ µ
ĠÐ³Ð¾ÑĢÐ¾Ð´ Ð°Ñħ
wa l
Ð¾Ñħ Ð¾Ð·ÑıÐ¹
ĠX V
ĠÐ¾ÑģÐ½Ð¾Ð² Ñĥ
ĠÐ¾ÑģÐ½Ð¾Ð² Ð½Ð¾Ð³Ð¾
Ð¸Ð» Ð»Ð¾Ð¼
t ru
ĠÑĢÑĥ Ð»Ðµ
ĠÐ¿ÐµÑĢÐ µÑĨ
ÑĢÐµÑģ Ð¿
ĠÐ¿Ð¾Ð»Ð½Ð¾Ð¼ Ð¾Ñĩ
ĠÐº ÑĥÑģÑĤ
Ġkla sy
Ð°Ð¶ Ð¸Ð²Ð°ÑĤÑĮ
jÄħce j
ĠÐ²ÑĭÐ¿Ð¾Ð»Ð½ÐµÐ½Ð ¸Ðµ
ĠÐ² Ð¸Ð±
ĠÐ·Ð°Ð¶ Ð¸Ð³
ĠÑģÐ¾Ð±ÑģÑĤÐ² ÐµÐ½Ð½ÑĭÑħ
Ġwy glÄħda
ĠÐ± Ð°Ð³
ĠÑıÑĢ ÐºÐ¾
ÑĥÑĪ ÐµÐº
Ð´ ÑĥÐ¼
ĠÐ· Ð°Ñı
Ġe x
ĠÑĥÑģÐ¿ ÐµÑħÐ°
ĠÑģÐ °
ÐµÑĢ ÐºÑĥ
ĠÐ³Ð»Ð°Ð² Ð½Ð¾Ð¹
ĠÑĢÐµÐ³ Ð»Ð°Ð¼
w Äħ
ĠÐłÐ¾Ñģ ÑģÐ¸Ñİ
ĠÐĶ ÐµÐ¿
ĠÐ¾Ñģ ÐµÐ½ÑĮÑİ
ĠÐ¶Ð¸Ð² ÑĥÑĤ
wi t
by t
ĠÑĢÐ¸Ñģ ÐºÐ¾Ð²
ĠÐ½Ð¾Ñģ Ð
ĠÑģÐ½Ð¸Ð¶ ÐµÐ½Ð¸Ñı
ÑĥÑĩÐ ¸
ĠÐ²ÑĭÐ¿Ð¾Ð»Ð½Ñı ÐµÑĤÑģÑı
ĠÐ¿Ð¾ÑģÑĤ ÑĢÐ¾Ð¹
ĠÐ¿ÐµÑĢÐµÐ´ Ð°ÐµÑĤ
ÐµÐ»ÑĮ Ð½Ð¸Ðº
Ġdzie ÅĦ
ĠÐ¾Ð¿ÑĢÐµÐ´ÐµÐ»Ñı ÐµÑĤ
Ġza m
cja ch
ĠÐ½Ð¸Ð· ÐºÐ¾Ð¹
ĠÑħÐ¾ÑĢÐ¾ÑĪ ÐµÐµ
ĠÐ¶ ÐµÑģÑĤ
ÐµÐ»ÑĮ Ñģ
ĠÐ·Ð°Ð± Ð
Ġmiejs ca
ĠÑģÐ¿ ÐµÑĪ
Ð½Ð°Ñ ħ
Ñį ÑĤÐ¾
ĠÐļ ÑĥÐ±
Ð¾Ðº Ðº
ĠÐµÐ¶ ÐµÐ¼ÐµÑģÑıÑĩ
ce p
ĠÑĥÑĩ ÐµÑģÑĤÑĮ
ĠÐ´ÐµÑĤ ÑģÐºÐ¾Ð³Ð¾
ĠÑģÑĩÐ°ÑģÑĤÑĮ Ð
ĠÐ¾ÐºÐ°Ð·Ð°Ð» Ð¸ÑģÑĮ
I C
ĠÐĿ Ð°Ð¶
ĠÑĥÐ»ÑĥÑĩÑĪ ÐµÐ½Ð¸Ñı
ĠÐ¿ ÑĥÐ³
ĠÑģÑĩÐ°ÑģÑĤÑĮÐ µ
Ð¾Ð½Ð ½ÑĭÐ¼
ĠÐ¾ÑĤÑĢÐ°Ñģ Ð»Ð¸
ĠÐ¿ ÑĭÐ»
Ð¿ ÐµÑĢ
ĠÐ±Ð°Ð½Ð ºÐµ
ĠÐ± Ð¾ÑĢÐ¾ÑĤÑĮÑģÑı
ĠÐ½Ð°Ð¿Ð¸Ñģ Ð°Ð»
Ð¾Ð»Ð¾Ð³ Ð¸ÑĩÐµÑģÐºÐ¸
ĠÐ²Ð² ÐµÑģÑĤÐ¸
Ñį Ð¼
ĠÐ¿Ð¾Ð½Ñı Ð»
ĠÐĲÐ² ÑģÑĤ
ĠÐ¿Ð¾Ð¼ Ð¸Ð´
Ð°Ð½Ð ´Ð°
ĠÐ·Ð°Ð¼ ÐµÐ½Ñĭ
Ð°Ð»ÑĮ Ð½Ð¾Ð¼Ñĥ
ĠÐ¿ÑĢÐ¸ÑģÑĥÑĤÑģÑĤÐ² ÑĥÐµÑĤ
Ð°Ð·Ð ¸
ĠÐ¿Ð¾Ð¿ Ð¾Ð»
ÑĤÐ¸Ð ´
ĠÐ±ÐµÑģÐ¿Ð»Ð° ÑĤÐ½ÑĭÐµ
ĠÑģÐ²Ð¾Ð¹ÑģÑĤÐ² Ð°Ð¼Ð¸
ĠÐ¿Ð¾Ð²ÑĭÑģ Ð¸ÑĤÑĮ
ĠÐ¾ÑĪÐ¸Ð± Ð¾Ðº
t r
Ð¸Ñı Ñħ
ĠÐĴÐ»Ð°Ð´ Ð¸Ð¼Ð¸
w er
ÑĭÐ ½
ĠÐ¿Ð¾Ð¿ÑĥÐ»ÑıÑĢÐ ½ÑĭÐµ
ĠÐ·Ð°Ð» Ð¾Ð³
Ð¾Ð¼ ÑıÐ
ka n
ĠÐ³Ð¾ÑĤÐ¾Ð² Ð¸ÑĤÑĮ
ÑĤÐ¾Ð² Ð¾Ð¹
ĠÑĢÐµÐ³Ð¸ Ð¾Ð½Ð°Ñħ
ĠF o
ĠÐ¾ÑĦÐ¸ÑĨÐ¸Ð°Ð»ÑĮ Ð½Ð¾Ð¼
cyj ny
ÐµÐ½ÑĮ Ñı
Ð»ÐµÐ¶ Ð°Ñī
ĠÐ¶Ð¸Ð»ÑĮ Ð
Ġsz uka
m ery
ĠÐĺÐ· Ð²ÐµÑģ
ĠÐ± Ñİ
ĠÐ¶Ð¸Ð»ÑĮÐ µ
ĠPo li
Ġk i
ÑĤÐ°Ñ ĤÐ¾Ð²
ĠÐ½ÐµÐ¶ ÐµÐ»
ĠÐ¢Ð µ
ĠÐ¯ Ð½Ð´ÐµÐºÑģ
ĠÐĽÑĥÑĩ ÑĪÐ¸Ðµ
ĠÐ¾ÑĢÑĥÐ¶Ð ¸Ñı
Ð§ Ðķ
rz o
ĠÑģÐ¾ÑĨÐ¸Ð°Ð»ÑĮ Ð½Ð¾
Ð¾Ð¿ ÐµÐ´
ĠÐºÐ°ÑĢ ÑĤÐ¸Ð½Ñĭ
ĠÑģÐ¾Ð± Ð°ÐºÐ¸
u sz
ĠÐĶ Ð¾ÑģÑĤÐ°Ð²
ĠK ie
Ġpro gra
ÑĤÐ¾Ñĩ Ð½ÑĭÑħ
Ĥ Ð¾Ð±
Ġ Åº
ĠÐ±Ð¾Ð½ÑĥÑģ Ñĭ
ĠÑĥÐ½Ð¸Ð²ÐµÑĢÑģÐ¸ÑĤÐµ ÑĤÐ°
ĠÐ¨ Ð²
Ñ ĤÐ¾Ð±
Ġbezpie cze
ĠÐĿÐ°ÑĤ Ð°Ð»ÑĮ
Ð°Ð ¸
ÑĢÑĥ Ð¹ÑĤÐµ
m art
ĠÑĤÑĢÑĥÐ´ Ð¾Ð²Ð¾Ð¹
ĠÐ¡ Ð°Ð¹ÑĤ
Ñĩ ÐµÐ½ÐºÐ¾
ĠÑĢÐ°ÑģÑģ ÑĤÐ¾ÑıÐ½Ð¸Ðµ
ĠÑĥÑģÑĤ ÑĢÐ°Ð½Ð¸ÑĤÑĮ
ĠÐĺÐ½ÑĦÐ¾ÑĢÐ¼ Ð°ÑĨÐ¸Ñı
ĠÐ¿ ÑĮ
ĠÑĢÑĥÑģ ÑģÐºÐ¾Ð³Ð¾
Ð» ÐµÐ½Ð½Ð¾Ð¼
ĠÑģÐ¾Ð² Ð¿Ð°Ð´
Ġmie siÄħ
ĠÐĴ Ð¡
Ġ !
Ð°ÑĢÐ ¸ÑĤ
Ð¿ Ð°ÑĢ
ĠÑįÐºÑģÐº ÑĥÑĢ
ĠÑģÐ»ÑĥÑĩÐ°Ð¹ Ð½Ð¾
ĠÐ¿ÐµÑĢÐ² Ð¸Ñĩ
ĠÐĿ Ð°Ð¹
ĠÐ¼Ð°ÐºÑģÐ¸Ð¼ ÑĥÐ¼
ĠÐ²ÑĭÑĪ ÐµÐ»
ĠÑĥÑĩ Ñĳ
ĠÐĺÑģ ÑĤÐ¾ÑĢÐ¸Ñı
ĠÐ²ÑĭÐ¿ ÑĥÑģÐºÐ°
ĠÐ±Ð°Ð» Ðº
ĠÑĦÑĥÐ½Ðº ÑĨÐ¸Ñİ
ĠÐ¸Ð½ÑĤÐµÑĢÐµÑģ Ð½ÑĭÐµ
ĠÑĥÐ» Ð¸ÑĨ
dzie n
ĠÐ¸Ð½Ñģ ÑĤÐ¸ÑĤÑĥÑĤ
tycz nie
ĠÐ¿Ð¾Ð»ÐµÐ· Ð½ÑĭÐµ
ĠÐ½Ð¾ÑģÐ °
Ġo siÄħ
ĠÐ¿Ð¾Ð» Ð½ÑĥÑİ
ĠÑĤÐ°Ð¼ Ð¾Ð¶
ĠÐ´Ð¾ÑģÑĤÐ¸Ð ³Ð
201 5
ĠÐ¿Ð» Ð°Ð½ÐµÑĤ
Ð¾Ð»ÑĮ Ð½Ð¾Ð¹
ĠÐºÐ¾Ð´ ÐµÐºÑģÐ°
ÑĤÐ¸ ÑĢÑĥÐµÐ¼
ĠÐ¾Ð± ÑħÐ¾Ð´
ĠÐ´Ð¾ÑģÑĤÐ°Ð² ÐºÐ°
ĠÐ½Ð°Ñ Ĥ
ĠÑĤ ÑĥÑĪ
ĠÐºÐ°ÑĢÑĤÐ¸Ð½Ð ºÐ¸
ĠÐ²Ð°ÑĢÐ¸Ð°Ð½ ÑĤÐ°
ĠÑģÐ¾Ð± ÐµÑģÐµÐ´
ĠÐ¾ÑģÑĤ Ð°Ð½Ð°Ð²Ð»Ð¸Ð²
ĠÐ¼Ð¾Ð»Ð¾Ð´ ÑĭÐµ
Ġn owe
ĠÐ½Ð°Ð±Ð ¸
ÐµÑĢ ÑĤÑĭ
Ð¾Ð¿ÑĢÐ¾Ð² Ð¾Ð´
ĠÐ±Ð» Ð°Ð³Ð
ĠÐ¡ Ð¾Ð»
Ð» Ð¸Ð½Ñĭ
ĠÐ¾Ð± Ð¾ÑģÑĤ
ĠÐ½Ð°Ð» Ð¾Ð¶
ĠÐ¾ÑģÑĤ Ð°Ð»Ð¸ÑģÑĮ
ĠÑģÑĩÐ¸ÑĤÐ°Ñ İÑĤÑģÑı
ĠÐķ Ð»ÐµÐ½Ð°
ĠÐ³ÑĢÑĥÐ ½ÑĤ
Ġo pie
ĠÐ± ÑĥÑĢ
Ġprze strze
ĠÐ½Ð°Ð»Ð¸Ñĩ Ð¸Ñı
ĠÐ² Ñħ
dzie l
ĠÐ» Ð¾Ð±
ĠÐ¼ Ð¾Ð¸Ñħ
µÑĤÐ ¸Ñı
ĠÐĹ Ð°ÑıÐ²
ĠÐŁÑĢÐ¾ÑĨ ÐµÑģÑģ
ĠS po
ÐµÑģ Ð¾Ð¾Ð±ÑĢÐ°Ð·
ĠÐ¿ÑĢÐµÐ´Ð¾ÑĤÐ² ÑĢÐ°ÑĤÐ¸ÑĤÑĮ
cze ÅĽnie
ĠÐºÐ°ÑĢÐ ´
ĠÐ¡ Ð¼Ð¾ÑĤÑĢÐ¸ÑĤÐµ
ĠÑĤÑĢÐµ ÑĤÐ¸Ð¹
ĠÐ²Ð½ÐµÐ ·Ð°Ð¿
ĠÐ²Ð¾Ð·Ð½Ð¸ÐºÐ ½ÑĥÑĤÑĮ
ĠÐ·Ð°Ñħ Ð²Ð°ÑĤ
ĠÐ¿Ð¾Ð´Ð³Ð¾ÑĤÐ¾Ð² Ð¸ÑĤÑĮ
ĠÐ³Ð»Ð°Ð· Ð°Ñħ
ĠÑĩÐµÑĤÐ º
ĠÐ¾Ð¿Ñĭ ÑĤÐ¾Ð¼
Ġ- -
Ġraz em
Ġ8 00
ĠÐ¶Ð´ ÐµÑĤ
ĠÐ½Ðµ Ð¾Ð´Ð
ĠÐ»ÐµÐ¶ Ð¸ÑĤ
ĠÐ²ÐºÐ»ÑİÑĩ Ð°ÑİÑĤ
ĠÑĢÐµÐ±ÑĳÐ½Ð ºÐ°
Ð¸Ð² ÐºÐ°
ĠÑģÑĤÐ°Ðº Ð°Ð½
Ð¾Ñĩ ÐºÐµ
ĠÐ¿Ð°ÑĢ Ðº
ĠÐ²ÐµÑĢÐ ½ÑĥÑĤÑĮÑģÑı
ĠÐ» Ð°Ð³Ð
ĠÐ¿ÐµÑĢÐµÐ½Ð µÑģ
Ð¾ÑģÐ»ÐµÐ´ ÑģÑĤÐ²Ð¸Ð¸
ĠÐºÐ°ÑĢ ÑĤÐµ
Ġpo zna
Ð¾ÑĤ ÑĢÑĥÐ´
ĠÑģÐ» ÐµÐ·
ĠÐ¿ÑĢÐ¾ÑģÑĤ ÑĭÐµ
ĠÐ°ÑģÑģÐ¾ÑĢÑĤÐ¸Ð¼ ÐµÐ½ÑĤ
ĠÐĽ Ñĥ
ÐµÑİ ÑģÑĮ
ĠÐ¸Ð ½ÑĭÐµ
ĠÐºÐ°Ð´ ÑĢÐ¾Ð²
ĠÑĥÑģ Ð²
ĠÑģ Ð¾Ð²ÐµÑĤÐ°
ĠÐ¿Ð¾Ð» Ð¸ÑĨÐµÐ¹
ĠÐ§ ÐµÑħ
ĠÑģÐ¾Ð±ÑģÑĤÐ² ÐµÐ½Ð½ÑĭÐ¹
ĠÐºÐ¾ÑĢ Ð¾Ð»ÐµÐ²
ĠÐ³ ÑĥÑģÑĤ
ĠÑĢÐ°Ð±Ð¾ÑĤ Ð¾Ð¹
ĠÐĲ Ð¹
ĠÐŀÑĤÐ² ÐµÑĤ
ÑģÐ ½Ð¾Ðµ
ÑĳÐ½Ð ½ÑĭÐµ
ĠÐĵ ÑĢÑĥÐ¿
ĠÐ³Ð¾ÑĤÐ¾Ð²Ð °
ĠÐ¾Ð¿ ÑĨÐ¸
ĠÐĴ ÑģÐµÐ¼
ĠÐŁÑĥ ÑĤÐ¸Ð½
ĠÐ¸Ð½ÑĤÐµÑĢÑĮ ÐµÑĢ
ĠÐ±Ð °ÑĢÐ°Ð±
ĠÐ¾Ð± Ð¾Ð¸Ñħ
ÐµÐ½ÐµÐ ²
ĠÅĽwie cie
ÐµÐ»Ð¸ ÑĤÐµ
¸ÑĢÑĥ ÐµÐ¼
ĠÑģÑĤ Ð¾Ð»Ð°
ĠÐ²Ð»Ð°Ñģ ÑĤÑĮ
ĠS i
ĠÐ´ ÑĢÑĥÐ³Ð°Ñı
ĠÐ¼Ð°Ð»ÐµÐ½ÑĮ ÐºÐ¸Ðµ
ĠÐ¾Ð±ÑĥÐ² ÑĮ
ĠÑģÑĤÑĢÐ°Ð½ Ñĥ
stru k
Ġar e
ĠÑĢÑĥÑģ ÑģÐºÐ¸Ñħ
ĠÐ°Ðº ÑĨ
ĠÐ±ÐµÐ» Ð¾Ð³Ð¾
ĠÑģ ÑĤÐ²
Ġ <
Ð¾Ñĩ ÐµÑĤ
ÐµÑĩ ÐµÐ½Ð¸Ñı
ĠÐĴ ÑĢÐ°Ñĩ
Ð» Ð°ÑĤ
ĠÐ¼Ð¾Ð½Ð °ÑģÑĤÑĭ
ĠÐ¿Ð¾Ðº Ð»Ð¾Ð½Ð½Ð
ĠÐ¿ÑĢÐ¾Ð¿ ÑĥÑģÐº
ĠÐ± Ð¸Ð
ub e
ĠÐ¶ Ð¸ÑĤÐµÐ»ÑĮ
Ð¾Ðº Ð¾Ð¼
Ġprzed siÄĻ
ĠÐº Ð¾Ð¾ÑĢÐ´
20 21
Ð¾Ð ¾ÑĤÐ½Ð¾ÑĪ
Ġnapraw dÄĻ
ĠÐ¿ÑĥÐ±Ð»Ð¸Ðº Ð°ÑĨÐ¸Ð¸
ĠÐ¡ Ð¾Ð¾Ð±Ñī
Ġ3 4
ĠÐºÐ½Ð¸Ð ³Ðµ
ĠÑģÐ¾Ð±ÑģÑĤÐ² ÐµÐ½Ð½ÑĭÐµ
ĠÐŁ ÑĢÐµÐ¿Ð°
Ð¾Ð½Ð ±
Ð½Ð¾Ñģ ÑĤÑıÑħ
wÃ³ ch
ĠÐ²Ð·Ð³ Ð»Ñı
ĠS k
ĠÐ¡ Ð²ÐµÑĤÐ»
ĠÐºÐ»Ð¸ ÐµÐ½ÑĤÐ°Ð¼
¸ ÐµÐ²
Ð¾ÐºÐ¸ ÑĢÐ¾Ð²
ĠÑģÑĤ Ð¾Ð¿
ĠÑģÐ¾ÑģÑĢÐµÐ´ Ð¾ÑĤÐ¾Ñĩ
ĠÑģÐ¿ÐµÑĨÐ¸Ð°Ð» Ð¸ÑģÑĤÐ°
ĠÐ¿Ð¾ÑĢ Ð¾Ð¹
Ð°Ð±Ð °
ĠÑģÐ²ÐµÑĤ Ð¾Ð´Ð¸
Ġa pli
ĠÐ¿ÑĢÐµÐ´Ð¾ÑģÑĤÐ°Ð² Ð»ÐµÐ½Ð¸Ñı
ĠÐ·Ð°Ð² Ð¾ÐµÐ²
Ð°Ð» Ñĥ
ĠÑģÑħ ÐµÐ¼Ðµ
ĠÐ¾Ð±ÑĭÑĩ Ð½Ð¾Ð¹
ĠÐ¡Ð¸ÑģÑĤ ÐµÐ¼Ð°
ĠÐ¿Ð¾Ðº Ð°Ð·Ð°Ð»
6 4
te j
Ðĺ Ð·
ĠÐ¿ÑĢÐ¾ÑĪ ÐµÐ´
Ġme to
ĠÐ°Ð»ÐºÐ¾Ð³ Ð¾Ð»Ñı
ÑĦ Ð¸Ð»ÑĮ
ĠÐ¿Ð¾Ð»ÑĥÑĩ Ð¸Ð»Ð¾ÑģÑĮ
Ġta ki
ĠÐ²ÐµÑī ÑĮ
ĠÑİÑĢÐ¸Ð´ Ð¸ÑĩÐµÑģÐºÐ¸Ñħ
ĠÐ¿ÑĢÐµÐ´Ð¿Ð¾Ñĩ Ð¸ÑĤÐ°Ñ
Ð¾Ð¿ ÑĢÐ¸Ð¼
ĠÐ¿ÑĢÐ¾ÑĤÐ¸Ð² Ð¾Ð²
ĠdÅĤu go
ĠÐ¾Ð±ÑĢÐ°Ð·Ð °
ĠÐ¾ÑģÑĤÐ°Ð² Ð°ÑĤÑĮÑģÑı
al nie
ĠÐ¡ Ð¾Ð¾ÑĤÐ²ÐµÑĤÑģÑĤÐ²
Ð¾Ð»ÑĮ Ð½Ð¾Ð³Ð¾
Ġk ul
ĠÑĢÐµÐ°Ð» Ð¸Ð·Ð¾Ð²
ĠÑģÑĤÐ°Ñ ĨÐ¸Ð¾Ð½Ð
Ð¸Ð½Ð ½Ð
ĠÑĢÐ°ÑģÑģÐº Ð°Ð·Ð°ÑĤÑĮ
Ġinforma cje
Ð² ÐµÑī
ĠÑĢÐ°Ð±Ð¾Ñĩ ÐµÐ¹
Ðĳ Ð£
ĠÐ¡Ð± ÐµÑĢÐ±
ĠÑĥÐ½Ð¸Ð²ÐµÑĢ ÑģÐ¸ÑĤÐµÑĤ
ĠÑģÑĤ Ð¾Ð¼Ð°ÑĤ
ĠÑĢÐ°Ð±Ð¾ÑĤ Ð°Ð»
O L
ĠÐ¡Ð°Ð¼ Ð¾Ðµ
ÑĢÐ°Ð±Ð¾ÑĤÐ °ÑĤÑĮ
ĠÑĢÐµÑĪ ÐµÐ½Ð¸ÐµÐ¼
³Ð¾ÑĢÐ¸ ÑĤÐ¼
ĠÐ²Ð¾Ð» ÑĪÐµÐ±
ĠÐ¿Ð¾Ð´ ÑģÐº
ĠÐŁÑĢ Ð¾Ð±
±Ð ¾
m et
ÑģÐ¾Ð² ÑĭÐµ
ĠÐºÐ°Ð¿ ÑĥÑģÑĤ
Ð¾Ð¿ Ð»Ð°Ñģ
ĠÐ¿ÑĢÐ¾Ð´ÑĥÐº ÑĨÐ¸Ñİ
ĠÐ¼Ð¸Ð½Ð ¸ÑģÑĤ
Ġu s
ÑĤÐ¸ÑĢ ÑĥÑİÑĤ
Ð°Ð ¾
ĠÐ³Ð»Ð°Ð² Ð½Ð¾Ð³Ð¾
z er
ĠÐ·Ð°Ð¼ÐµÑģ ÑĤÐ¸ÑĤÐµÐ»ÑĮ
µÑĢ Ð¾Ð¼
ĠÐĵ ÐĺÐĳÐĶÐĶ
Ð±Ð ¾ÑĢÑĥ
ĠÑģÑģÑĭÐ» ÐºÐµ
ĠÑĦÐ°Ð½ÑĤ Ð°Ð·
Ġdu Å¼y
ĠÑģÑĤ Ð¾Ð»Ðµ
ĠÐ±Ð°Ð» Ð°Ð½Ñģ
R A
ĠÐ±ÑĢÐ°Ð ºÐ°
ĠÑĪ ÐµÑĢÑģ
ĠÐ¿ÑĢÐ¸Ð· Ð²
ni ct
ĠÐ»ÑİÐ± ÑĭÐ¼
ĠÐ³Ð¾ÑĢÑıÑĩ ÐµÐ¹
ĠÐĺÑ Ĥ
ĠÐ·Ð°Ð¼ ÐµÐ´
ĠÐĳ ÑĥÐº
Ġwyso ko
Ð¾Ð² Ð°ÑĤÐµÐ»ÑĮÐ½Ð¾
ĠÐ·Ð°ÐºÐ»ÑİÑĩ ÐµÐ½Ð¸Ñı
y dra
ĠÑģÑĢÐµÐ´ Ñĥ
ÐµÐ ¾ÑĢÐ
ĠÐŁ ÐµÑĢ
ĠÐº Ð¾ÑĤÐ»
ĠÐºÐ¾Ð»Ð»ÐµÐº ÑĤÐ¸Ð²
Ð½ÐµÐ½Ð ½Ð¾
ĠÑĢÐµÑĪ Ð°ÑĤÑĮ
¾ÑĤÐ² Ð¾ÑĢ
ĠÐ½Ð°Ð¿Ð¾Ð¼ Ð¸Ð½Ð°Ñ
ĠÐ¾ÑĦÐ¸ÑĨÐ¸Ð°Ð»ÑĮ Ð½Ð¾
ĠÐ¾ÑĩÐµÑĢÐµÐ´ Ð½Ð¾Ð¹
ĠÐ¿ÐµÑĢÐ µÑĢÑĭÐ²
ĠÐºÐ¾ÑĢÐ¿ Ð¾ÑĢÐ°
ĠÐ¾ÑĤÑĤ ÐµÐ½Ð¾Ðº
ĠÐ²Ñĭ ÑĢÐ°Ñģ
ĠÐ´ ÐµÐ¹ÑģÑĤÐ²Ð¸ÐµÐ¼
ÑĤÐ¾ÑĢÐ¸ ÐµÐ¹
Â» )
ĠÐ¿Ð¸ÑģÑĮ Ð¼Ð°
twa rza
z ja
Ġpa ra
ĠÑģÐµÐ¼ ÐµÐ½Ð°
po l
ĠÑħ Ð¾Ð´Ð¸ÑĤÑĮ
ĠÐºÐ¾Ð½ ÑĤÐµÐ¹
ĠÐ¿ÑĢÐ¸Ð½ÑĨÐ¸Ð¿Ð µ
ĠTe le
Ñģ Ð¾ÑĢ
ĠÐ¾ÑĤÐ²Ðµ ÑĤÐ¸Ð»
ĠÐ¼ ÑıÑģ
I T
ĠÐ¾ÑĤÐ²Ðµ ÑĤÐ¸ÑĤÑĮ
Ġca ÅĤ
ÑĥÐ»ÑĮ Ñ
Ġcz ÅĤowie
Ð¾Ð² Ð°Ð»Ð¾
ĠÑģÑĦ Ð¾ÑĢÐ¼Ð¸ÑĢÐ¾Ð²
ÑĥÐ»ÑĮÑ Ĥ
ÐµÐ¼Ð¿ Ð»Ñı
ĠÑģÐ± Ð¾ÑĢÐ°
Ġprze prowa
ĠÑĢÐ°Ð±Ð¾Ñĩ Ð¸Ð¹
Ð¾Ð½Ð°ÑĢ ÑĥÑĪ
Ð½Ð ¸Ñģ
Ð¾Ð¿ ÑĥÑģ
Ð¸Ð ½Ð¾Ð³Ð¾
ĠÐŀ ÑĦÐ¾ÑĢÐ¼
ĠkaÅ¼de go
ĠÑģÑĤÐ°Ð² ÐºÐ°
ÑĥÐ ½ÑĤ
ĠÐ¿ÑĢÐµÐ´Ð¿ÑĢÐ¸Ð½Ð¸Ð¼ Ð°ÑĤÐµÐ»ÑĮ
ĠÐ½ÐµÐ´ ÐµÐ»Ðµ
ĠÑģÐ¾ÐµÐ´ Ð¸Ð½ÐµÐ½Ð
ty ka
dow is
ĠÑģÑĤÐ°Ð± Ð¸Ð»
ĠÐ¾ÑĤÑģÑĥÑĤ ÑģÑĤÐ²Ð¸Ñı
ÑĢÐ µÑĢÑĭÐ²
ĠÐ¾Ð¿ÑĢÐµÐ´ÐµÐ» ÐµÐ½Ð¸Ðµ
l noÅĽci
ĠÐł ÑĥÐºÐ¾Ð²
ĠÑģÐµÐ¼ ÑıÐ½
Ġob ej
ĠÐļ Ð¾Ð´
ĠÐĳ Ð¾Ð¶
Ð°Ð» Ð°Ð½
Ġ19 5
ĠÐ²ÑĭÐ² ÐµÑģÑĤÐ¸
ÑĥÑĩ ÐµÐ½Ð¸Ðµ
ĠÐ¿Ð¾Ð´ Ð¾Ð¹Ð´ÑĥÑĤ
ĠÐ²Ð½ÑĥÑĤÑĢÐµÐ½Ð½Ð µÐ³Ð¾
ĠÑģÑĥÐ¿ ÐµÑĢ
Ð¾Ð»ÑĮ Ð½ÑĭÑħ
ĠÐ°Ð´ Ð²Ð¾Ðº
ĠÐ°Ð¿Ð¿Ð° ÑĢÐ°ÑĤÐ°
ĠÑĥÐ´Ð¾Ð²Ð¾Ð»ÑĮ ÑģÑĤÐ²Ð¸ÐµÐ¼
ĠÑĤÐµÑģ Ñ
ĠÑĤÐµÑģÑ Ĥ
ĠÑĥÐºÑĢÐ°ÑĪ ÐµÐ½Ð¸Ñı
czy ÅĤ
ĠÐ¿ÑĢÐµÐ´ÑģÑĤÐ°Ð² Ð»ÐµÐ½Ð¸Ðµ
ÑĤÐ¾ ÑĢÐ°Ð¼
Ġcho ro
Ð¾Ð²Ð ¸ÑĤÐµ
Ġz oba
ĠÐ·Ð°Ñī Ð¸ÑĤÐµ
Ġsz tu
ĠÐ¿ÑĢÐ¾Ñħ Ð¾Ð´Ð¸ÑĤÑĮ
ĠÐ°Ð»ÑĮ Ð±
ĠÑĥÑģÑĤÐ°Ð½Ð¾Ð² Ð»ÐµÐ½
Ð· Ð°Ð¿
ĠÐ´Ð¾Ð»Ð¶ Ð½Ð¾ÑģÑĤÐ¸
ĠÐ½Ð°Ð² ÑģÐµÐ³Ð´Ð°
ĠÑģÑĤÐ¸Ð¼ ÑĥÐ»Ð¸
ĠÑģÑģÑĭÐ» ÐºÐ¸
ĠÑģÐµÑĤ ÑıÑħ
ĠÑħÐ¾ÑĤ ÐµÐ»Ð¸
ĠÐ¿Ð¾ÑĢÐ°Ð¶ ÐµÐ½Ð¸Ñı
ĠÐ½Ð°Ñ Ĩ
ĠÐ²Ð¸ÑĤÐ°Ð¼ Ð¸Ð½Ð¾Ð²
ĠÑĪ Ð°Ñħ
ĠÐ¼ Ð¸Ð½Ñĥ
ÑĤÐ¸ÑĤÑĥ ÑĤÐ°
ĠÐ·Ð°Ð¿ ÑĥÑģ
ĠÐŁÑĢÐ°Ð² Ð¸Ð»Ð°
ĠÐ¿Ð°Ð½ÐµÐ »ÑĮ
ĠX I
ĠÐ¾Ð± ÐµÐ´
ĠÐ¾Ð±Ñģ ÑĥÐ´
? !
ĠÐ¿ÑĢÐµ Ð¾Ð´Ð¾Ð»
ĠÐ¸Ð·Ð± ÑĢÐ°Ð½Ð
ÑĢÐµ Ñı
ĠÐ´ÐµÐ² Ð¾ÑĩÐºÐ¸
ĠÐ¶Ð¸Ð² ÐµÑĤ
ĠÐºÐ°ÑĤÐµÐ³Ð¾ ÑĢÐ¸Ñı
ĠÐ¾ÑĤÐº ÑĥÐ´Ð°
ÑĤÐ¸Ð² Ð½Ð¾ÑģÑĤÑĮ
ĠÐ± ÑĥÐ»ÑĮ
ĠÐ½Ð°Ð²Ñĭ ÐºÐ¸
Ġu p
ÐµÐ² Ð°ÑĤÑĮ
ĠÐ¿Ð»Ñı Ð¶
ĠÑģÐµÐºÑģ Ð¾Ð¼
Ð² Ð¾Ð·Ð´
ĠÐ½Ð°Ð² ÐµÑĢÐ½ÑıÐºÐ°
ĠÑı Ðº
ÐµÑĩ Ð°ÑĤ
ĠÐ´Ð¾Ñħ Ð¾Ð´Ð¾Ð²
ĠÐ¿ÑĢÐ¾Ñĩ Ð¸Ñħ
ÑĢÐ¾Ð¼ Ð±
ĠÑģÐº Ð°Ð½Ð´
Ġmiejs c
Ġty pu
Ð² Ð¸Ð·
ĠÐ¾Ð³ ÑĥÑĢ
ĠÐ¶Ð°Ð» Ð¾Ð±
ĠÑĢÐ°Ð·ÑĢÐµÑĪ ÐµÐ½Ð¸Ðµ
Ġ ÑĤÐ¸
ĠÑģÐ¾Ñģ ÑĤÐ¾ÑıÑī
Ð°ÑīÐ¸Ñħ ÑģÑı
ĠÐĿÐ¸ÐºÐ¾Ð» Ð°Ð¹
ĠÑĦÐ°Ð¹ Ð»Ñĭ
ĠÐ¿Ð¾ÑģÐ°Ð´ ÐºÐ¸
ĠÐ¾ÑģÐ²Ð¾Ð± Ð¾Ð¶Ð´
ĠÑģÐº Ð²
Ð°ÑģÑĤ ÑģÑı
Ð¾Ð² ÐºÐ¸
Ð½Ð¸Ñ ĤÑĥ
ĠÐ±Ð»Ð°Ð³ Ð¾Ð¿Ð¾Ð»ÑĥÑĩ
d ro
ÐµÐ½ÑĨ ÐµÐ²
Ð¸ÑĤÐµÐ»ÑĮ Ð½Ð¾Ð¼
Ġco raz
ÐŁ Ðŀ
pe j
Ġza d
ĠksiÄħ Å¼
ĠÐ¡Ð² ÑıÑĤ
Ð²Ð ¾
ĠÐĿ ÐµÐ±
ÐµÐº ÑģÑĤ
ĠÐ´ ÑĢÐ°Ð¹
ĠÐ³Ð °ÑĢ
Ð¸Ð¼ Ð°Ñı
ĠÐĿÐ°Ð»Ð¸Ñĩ Ð¸Ðµ
Ġdob ry
ĠÐĴ ÑģÑı
Ġd wÃ³ch
ÑıÑī ÑĥÑİ
ÐµÑĢÐ¾Ñģ ÑģÐ¸Ð¹
fe ren
ĠÑģÐ¿ ÐµÐº
ĠÑĢÑĥÑģ ÑģÐºÐ¾Ð¹
i ne
ĠÐ² Ðº
ĠÐ² ÑĢÐµÐ´Ð°
Ð¾Ð¼ Ñĭ
ĠÐ£ Ð¼
ĠK u
Ġjed nym
ĠÐ°Ñģ Ð¿ÐµÐº
ĠÐ¿Ð°ÑĢ Ð¾Ð»ÑĮ
cie m
ÑĢ ÐµÐ½Ð
Ð¼ Ð°ÑĤ
ĠÑĦ ÑĢÐ°Ð·
ĠÑģÐ¾Ð³Ð»Ð°ÑĪ ÐµÐ½Ð¸Ñı
ĠJed nak
jÄħc Äħ
ĠÑĢÑĥÐºÐ¾Ð²Ð¾Ð´Ð¸ÑĤ ÐµÐ»Ñı
ĠÐ¿Ð¾ÐºÐ°Ð· Ð°ÑĤÐµÐ»ÐµÐ¹
. ;
ÑĤÐ ºÐ¾
ĠÐŃ Ð»ÐµÐºÑĤÑĢ
ĠÐ¡ ÐµÑĢÐ
ĠÑĢÐµÐ°Ð ºÑĨÐ¸Ñı
ÑģÑĭ Ð¿
ÑĥÐ½Ð ºÑ
ĠÑģÑĩ ÑĳÑĤ
ĠT ra
ĠÑĤÑĢÐ°Ð² Ð¼Ñĭ
Ġsto p
ÐµÐ»ÑĮ Ð½Ð°Ñı
ĠÑĢÐ°ÑģÐ¿Ð¾Ð»Ð¾Ð¶ ÐµÐ½Ñĭ
ĠÑģÐ² ÑıÑī
ĠÐ± ÑĢÐ¾ÐºÐ
ĠÐ¿ ÑĥÑģ
ĠÐ¾ÑĤÐ² ÐµÑĤÐ°
ĠÑĤÐ¾ÑĢÐ¶ ÐµÑģÑĤÐ²
Ġprof es
ĠÐ½Ð°ÑĩÐ°Ð» Ð¾Ð¼
Ð¾Ð» ÑİÐ±
ta Äĩ
ĠÐºÐ°Ð¼ ÐµÐ½ÑĮ
ÑģÑĤ Ð°Ð½Ð°
ĠÐ£ Ð±
in t
ĠÑĦÑĥÐ½Ð´ Ð°Ð¼ÐµÐ½ÑĤ
ĠÐ¿ÐµÑĢÑģ Ð¾Ð½Ð°Ð»
ĠÑĢ ÑĤÐ°
ĠÐºÑĢÐ¾Ð² Ð¾ÑĤÐµÑĩ
dzi ÅĤ
Ð¸Ð½Ð°Ñ Ĥ
ĠÐľÐ¾ÑģÐºÐ¾Ð² ÑģÐºÐ¾Ð¹
ĠÑįÐºÐ· ÐµÐ¼Ð¿Ð»Ñı
Ð¾ÑĤ Ð¾Ðº
ÑĢÐ°Ð· Ð´Ð
ĠÐ¿ÑĢÐ¾ÑĨ ÐµÐ½
am e
ÐµÐ¹ Ðº
ÐµÑĢÐµÐ ³
Ðļ Ð¡
Ġ0 8
ĠÐ·Ð°ÐºÐ¾Ð½ Ñĥ
g ar
ĠÐ³ Ð°Ð¼
ĠÐ´ ÐµÐ·
ĠÐĽ ÐµÐ²
ĠÑĢÐµÐ°Ð ±Ð¸Ð»Ð¸
ĠÑĤÐµÐ ¾ÑĢ
ĠÐ°ÐºÑĤ ÑĢÐ¸Ñģ
ĠÑĢÐµÐ» Ð¸Ð³Ð¸Ð¾Ð·
ĠÑĢÐ°Ñ ĨÐ¸
ÑĤÐ ¾ÑģÑĤÑĮ
ĠÐ½Ð°ÑĢÑĥÑĪ ÐµÐ½Ð¸Ð¹
ĠÐ¨ Ð¸ÑĢ
v en
ĠÐµÑģÑĤÐµÑģÑĤÐ² ÐµÐ½Ð½Ð¾
ĠÐĿÐ¾Ð² Ð¾ÑģÐ¸Ð±Ð¸ÑĢ
Ð¼ Ð¼
ĠÐ¿ÑĢÐ¾ÑĪ Ð»Ð¸
ĠÑĥÐ¿ÑĢÐ°Ð¶ Ð½ÐµÐ½Ð¸Ð¹
Ð½Ð¾Ð´ Ð¾ÑĢÐ¾Ð¶
ĠÐ²ÐºÐ»ÑİÑĩ Ð¸ÑĤÑĮ
ĠÐ²Ð¾Ð¹ ÑģÐº
ĠÐ¾Ð´ Ð½Ð¸
Ġnaj wiÄĻk
Ñĥ Ð¼Ð
Ġza u
si ÅĤ
ĠÑģÐ¸ÑĤÑĥÐ°ÑĨÐ¸Ñı Ñħ
ĠÅĽ ro
ĠÑĥÐ³ Ð¾Ð´Ð½Ð¾
ĠÑģÐº ÑĥÑĩ
ĠÐ¡Ð¸Ð¼ Ð¿ÑĤÐ¾Ð¼
ĠÐ´Ð¾Ðº ÑĤÐ¾ÑĢ
Ġw Äħ
ĠÐĺÐ· ÑĢÐ°Ð¸Ð
ĠÐ¿Ð°ÑģÐ¿ Ð¾ÑĢÑĤÐ°
ÑįÐº Ð¾Ð½Ð¾Ð¼
ĠÑģÐº Ð¾Ð²Ð¾ÑĢ
ĠÐ¿ÑĢÐ°Ð² Ð¾Ð½Ð°ÑĢÑĥÑĪ
Ð¿Ð ¸ÑĢÐ¾Ð²
ĠÑĢÐµÑĨÐµÐ¿ ÑĤÑĭ
ĠÐ¾Ð´Ð ½Ð¾Ðº
ĠÑģÐ¾Ð²ÑĢÐµÐ¼ ÐµÐ½Ð½Ð¾Ð³Ð¾
Ð°Ð½Ñĥ Ð½Ðµ
Ġzosta ÅĤa
E T
ĠÑģÑĩÐ°ÑģÑĤÑĮ Ñı
ĠSam sung
ĠÐ´ ÑĢÐ¾Ð¶
ĠÐ² ÑĢÐ°Ñī
ĠÑĢÐ°Ð·Ð² Ð¸Ð²
M S
ĠÑįÐ¼Ð¾Ñ ĨÐ¸Ð¸
ĠÐĶÐ¾Ðº ÑĥÐ¼
ºÐ ¾ÑĢ
Ġsa my
ĠÐ¿ÑĢÐ¾Ð² Ð¾Ð´Ð¸ÑĤ
ĠÐ²Ð¾Ð¿ÑĢÐ¾Ñģ Ð¾Ð¼
ĠÐ¾ÑĤÐº Ð°Ð·Ð°
Ġw czeÅĽniej
Ġnie za
ÑıÑİÑī Ð¸Ð¹
Ð¸Ð½Ð°Ñ ĨÐ¸Ñı
Ð¾Ð»Ð½Ð¾Ð¼ Ð¾Ñĩ
ĠÐ¾Ð±ÑĬÐµÐº ÑĤÑĭ
ĠÐ²ÑĢÐ°Ñĩ ÐµÐ¹
wy cza
Ġcze go
ĠÐ¿ÑĢÐ¾Ðº Ð»Ð°Ð´
ĠÐºÐ¾Ð½ÑĨ Ð¾Ð²
ĠÑĥÑģÑĤ Ð°Ð»
ÑĢÐ ½Ð¾Ð¼
Ġnie go
ĠÐ¿ÑĢÐ¾ÑĪ Ð»Ð¾
ĠÐ´ÐµÑĤ ÑģÐºÐ¸Ð¹
Ð¿ Ð¾ÑĢÑĤ
Ġmieszka ÅĦ
ĠÐ¾ÑĤÐº ÑĢÐ¾Ð²
ĠÐ¿Ð¾Ð¿ÑĥÐ»ÑıÑĢ Ð½Ð¾ÑģÑĤÑĮ
ÑĢÐµÑģÐ¿ Ð¾Ð½Ð´
ĠÑĥ Ð±Ñĭ
ĠÐ±Ð» Ð¾ÐºÐ°
ĠÐ³ Ð¸Ð³
Ġdu Å¼o
ĠÐ»ÑĥÑĩ ÑĪÐ¸Ð¼
ĠÑģÐ¾Ð¾ÑĤÐ²ÐµÑĤÑģÑĤÐ² ÑĥÑİÑīÐ¸Ðµ
ĠÐ¼ÑĥÐ·Ñĭ ÐºÑĥ
ĠÑĤÐµÐ¼Ð¿ÐµÑĢÐ°ÑĤÑĥ ÑĢÑĥ
ĠÐ¿ÑĢÐµÐ´ÑģÑĤÐ°Ð² Ð»ÐµÐ½Ð¸Ñı
ĠÐ¿ÑĢÐµÐ´ÑĬ ÑıÐ²
ro s
ĠÐ¼Ð¾ÑĢ ÐºÐ¾Ð²
ĠÑģÐ¸Ð»ÑĮ Ð½ÐµÐµ
o kie
ĠÐ¾Ð±ÑĢÐ°Ð· ÐµÑĨ
Ġt ÄĻ
ĠÐº ÑĢÐ¾Ñģ
ĠÑĥÑĢÐ¾Ð² Ð½ÐµÐ¼
Ġ> >
ĠÐ½ÐµÑĥÐ´ Ð¾Ð±
ĠÐ¿ÑĢÐ¾Ð¸Ð·Ð² ÐµÐ´ÐµÐ½Ð¸Ñı
ĠÑģÐ¸Ð½Ð´ ÑĢÐ¾Ð¼
Ñĳ Ð´
ÑĤÐ¸Ñĩ Ð½Ð¾ÑģÑĤÑĮ
ĠÐ¿ÑĢÐµÑĤ ÐµÐ½Ð´
ÑĤÐ¾ÑĢÐ ³
ĠÐ£ÐºÑĢÐ°Ð¸Ð ½Ð°
ĠÐ²Ð¾ÑģÐ¿ ÑĢÐ¾Ð¸Ð·Ð²
Ð°Ð ³Ðµ
ĠÐ¢ ÑĢÑĥÐ´
ĠÐ¡ Ð¾Ð²ÐµÑĤÐ°
ÐµÐ»ÑĮ Ð½Ð¾Ðµ
ĠÐ± ÑĢÐ°ÑĤ
¾ ÑĤÐ¸Ð¼
a ch
ĠÐ¤ Ð¾ÑĢÐ¼
ĠÐºÐ¾Ð¼ Ð¸ÑĤÐµ
ĠÐ¿Ð¾ÑģÑĤ ÑĢÐ¾Ð¸ÑĤÑĮ
Ġmo je
ÑĤÐ°Ñ İÑī
ĠÑģ ÐµÑģ
ĠÐ·Ð°Ð¼Ð µÑĤÐ
ĠÐ°Ð½ ÑĤÐ¸
ĠÐ¸Ð½ÑĤÐµÐ»Ð»ÐµÐº ÑĤÑĥ
ĠÑĢÐµÑģÐ¿ ÑĥÐ±Ð»Ð¸ÐºÐ¸
ÑĢÐ°Ð½Ð ¶
ĠÐ²Ð ½
ÑĥÐ±Ð» Ð¸ÐºÐµ
ĠÐ²ÑĭÐ³Ð»ÑıÐ´ ÑıÑĤ
ĠÑģÐ¾ÑģÑĤÐ°Ð² Ð»ÑıÑİÑĤ
ĠÐłÐµÐ ³Ð¸ÑģÑĤ
Ġre kla
ĠÐ²Ð°ÑĢÐ¸Ð°Ð½ ÑĤÐ¾Ð¼
ĠÐºÐ¾Ð¼Ð¿ ÐµÑĤ
Ġp Ã³Åº
ĠÐ´Ð¸Ð µÑĤÑĭ
ĠÑĥÑĢÐ¾Ð¶ Ð°Ð¹
Ð½Ð°Ð½Ð ¸Ðµ
ĠÐĴ Ðŀ
Ġz u
ĠÐ¾ÑĩÐ¸Ñģ ÑĤÐºÐ¸
ÑĤÐ°Ñ ī
ĠÐŀÑĦ Ð¸ÑĨÐ¸Ð°Ð»ÑĮ
Ñı Ð»
ĠÐ¿ÑĢÐ¾Ñħ Ð»Ð°Ð´
ĠÐ¿ÑĢÐ°Ð²Ð¸Ð» Ð°Ð¼
ĠÑģÐ¼ Ð°Ð·
ÐµÑĢ Ð½Ð¸Ð·
ĠÐ¼Ð¾Ð½Ð¸ ÑĤÐ¾ÑĢ
ĠÐ½ÐµÑģ Ñ
ĠÐ½ÐµÑģÑ Ĥ
ĠÑģ Ð¾Ð»Ð½ÑĨÐµ
ĠÑį Ð²
ĠÐ¿ÑĢÐ°Ð² Ð¾Ð¹
ĠÐ´Ð¸Ð µÑĤ
ĠÐ¾Ðº ÑĢÑĥÐ³Ð°
ĠÐĶ Ð¸Ð·
ĠPrze d
ĠÑĦÐ¸Ð»ÑĮ ÑĤÑĢ
ĠÐ´ Ð°Ñĩ
Ð²Ð°ÑĢÐ ´
ĠÑĤÑıÐ¶ ÐµÐ»Ð¾
ĠÐºÐ°Ð¿Ð¸ÑĤ Ð°Ð»Ð°
ĠÐ¸Ð¼ Ð¼ÑĥÐ½Ð
szy Äĩ
ĠÐ¸Ð½Ð½Ð¾Ð² Ð°ÑĨÐ¸Ð¾Ð½Ð
ĠÐ²Ð¿ÐµÑĩÐ°ÑĤÐ» ÐµÐ½Ð¸Ðµ
ĠÐ²Ð¾Ð· Ð¼ÐµÑī
ĠÐ¿ÑĢÐ¾Ð¸ÑģÑħ Ð¾Ð¶Ð´ÐµÐ½Ð¸Ñı
ĠÐ½Ð¸ÐºÐ°Ðº Ð¾Ð¹
Ġnie j
ĠÐĴÐ¸Ð´ Ñĭ
ĠÑģÐ²Ðµ ÑĤÐ¸Ð»ÑĮ
ĠÐŁÐ ¸
ĠÑĢÐµÐ³Ð¸ÑģÑĤ ÑĢÐ°ÑĨÐ¸Ñı
ĠÐ¿Ð¸Ñģ Ð°Ð»
ĠÐ´Ð² ÐµÑĢ
Ð°ÑİÑīÐ¸Ð¹ ÑģÑı
ĠÑģÐ¾ÑĨÐ¸Ð°Ð»ÑĮ Ð½Ð¾Ð³Ð¾
ÐµÑĩ Ð°ÑĤÐµÐ»ÑĮ
Ð°Ð» ÐºÐ°
Ð¾Ð¶Ð°Ð» ÑĥÐ¹
ĠÐ¿Ð¾ÑģÐµÑĤÐ¸ÑĤ ÐµÐ»ÐµÐ¹
ĠÐ³ÑĢÑĥÐ½ ÑĤÐ¾Ð²
ÑĤÐ¸Ð· Ð¸ÑĢÐ¾Ð²
ĠÐ» ÑĥÐºÐ¾Ð²
ĠÐ½ÐµÑģ Ð»Ð¾Ð¶
ĠÐ¸Ð· ÑĬ
ĠÐłÐ°ÑģÑģ Ð¼Ð¾ÑĤÑĢÐ¸Ð¼
ĠÐºÐ¾Ð½ÑģÑĥÐ»ÑĮ ÑĤÐ°ÑĨÐ¸Ð¸
ĠÐ³ ÑĢÐ°Ð½
ĠÑģÑĤÐµÐº Ð»ÑıÐ½Ð
ĠdziaÅĤa nia
Ð¸Ñģ Ð¾Ðº
logi i
ĠÐ¾Ð³ÑĢÐ°Ð½Ð¸Ñĩ ÐµÐ½Ð¸Ð¹
Ġna szego
ĠÐĶ Ð°Ð½Ð½Ð°Ñı
Ġnie ktÃ³
ĠÑģÑįÐºÐ¾Ð½Ð¾Ð¼ Ð¸ÑĤÑĮ
te s
ĠÐ¾Ð± Ñĥ
ĠmÄĻ Å¼czy
ĠÐ½Ð° ÑĢÐ¸Ñģ
ĠÐ½Ð°ÑĥÑĩ Ð½Ð¾
ĠÐ¿Ð»Ð¸ ÑĤÐºÐ¸
ĠÑģ Ð´ÐµÑĢÐ¶
Ġoko li
ĠÐ¸Ð½Ð²ÐµÑģÑĤÐ¸Ñ ĨÐ¸Ð¹
an s
Ð¾Ð² ÐµÑĢ
Ġmu zy
ĠÐŁÐ¾Ð¿ ÑĥÐ»Ñı
ĠÐ¾ÑĩÐµÑĢÐµÐ´ Ð
¾ÑĢÐ ¼
ĠÐ¾ÐºÐ°Ð· Ð°ÑĤÑĮÑģÑı
ĠÑı Ñĩ
ĠÐ¿Ð¾Ð´ ÑģÑĤÐ°Ð²
ĠÐ½ÐµÐ¿ Ð¾Ð»
bu d
ĠÐ±Ð»Ð¸Ð¶Ð°Ð¹ ÑĪÐµÐµ
ĠmoÅ¼liwo ÅĽci
Ġpor no
ĠÐ¿ ÑĮÑı
ĠÐĺÐ½Ð ³
ĠÐ¿Ð¾Ð»ÑĥÑĩ ÐµÐ½Ð¸Ð¸
ÑĦÐ ¸ÑĢÐ
ĠÐŁÑĢ Ð¸Ð·
ĠÐ¾ÑĩÐµÑĢÐµÐ´Ð ¸
ĠÐ³Ð¾Ð´ Ð°Ñħ
ĠÐĶÐ¾Ñģ ÑĤÐ°ÑĤÐ¾ÑĩÐ½Ð¾
ĠÐ·Ð°ÑīÐ¸ ÑĤÐ¸ÑĤÑĮ
ĠÐ¸Ð½ÑĦÐ¾ÑĢÐ¼ Ð°ÑĨÐ¸ÐµÐ¹
Ð°Ð¶Ð´ Ñĭ
Ġo chro
Ð¾Ñģ ÑĥÑĤÐ¾Ñĩ
ĠÐ³Ð¸Ð¿ Ñģ
ĠÐº Ð°Ð·Ð°Ð»Ð¾ÑģÑĮ
ĠÐ²ÐµÐ»Ð¾ÑģÐ¸Ð¿ ÐµÐ´
Ð¸Ð» Ð»Ð¸
ĠÐ¾ÑĢÐ¸ÐµÐ½ ÑĤÐ¸ÑĢÐ¾Ð²
ĠÐ¼Ð¸Ðº ÑĢÐ¾Ð
ĠÑĤÐ¾Ð½Ð ½
ĠÑĪ ÐµÑģ
ĠÐ¿Ð¾Ð¼ ÐµÑĪ
Ð½Ñĥ Ð²
ĠÐ± Ð°Ð»Ð»
Ġ200 5
ÅĤu g
ĠÐľ Ð¾Ð¹
ÐĶ Ðŀ
ĠÑģÐ¾ÑģÑĤÐ¾Ð¸ÑĤ ÑģÑı
ĠÐ¿Ð¾Ð¹ Ð¼
w ÄĻ
ĠÐ¿Ð¾ÑĢ Ð¾Ð´
Ġkon tro
ĠÐľ Ð°Ð³
ĠÐ²Ð°Ðº Ð°Ð½
ÑĢ ÑĭÐµ
Ġ Ð°Ð½Ðº
ĠÐ§ÐµÐ»Ð¾Ð² ÐµÐº
ĠÐŀ ÑĨ
ĠÐºÐ²Ð°Ð» Ð¸ÑĦÐ¸ÑĨÐ¸ÑĢÐ¾Ð²
ĠÑģÑĤ Ð°Ð½Ð´
Ġpo ra
ĠÑģÐ¿ÐµÑĨÐ¸Ð°Ð» Ð¸Ñģ
ĠÐ¡Ñħ ÐµÐ¼Ð°
ĠÐ·Ð°Ð¼Ðµ ÑĤÐ¸ÑĤÑĮ
ĠÑĥÐ±ÐµÐ´ Ð¸ÑĤÑĮÑģÑı
ĠÐºÐ¾Ð» Ð¾Ð´
ĠÐ½ÐµÑģÐºÐ¾Ð»ÑĮ ÐºÐ¸Ð¼Ð¸
ÑĤÐµÑħ Ð½Ð¸ÑĩÐµÑģÐº
Ð¾ÑĢ Ð²
Ð¼ ÐµÐ½ÑĤ
ĠÐĿÐ¸ÐºÐ¾Ð» Ð°ÐµÐ²
ĠÐ´ Ð¾Ð·Ð¸ÑĢÐ¾Ð²
ÑĤÑĢ Ñİ
ĠÐļ ÐĲ
ĠÐº ÑģÑĤÐ°ÑĤÐ¸
Ġprze de
ÐŃ Ð¡
Ġza stos
ĠÐ¿Ð¾ÑģÐ»ÐµÐ´ Ð½ÐµÐ³Ð¾
ĠÐ¿ÑĢÐ¸ ÐµÐ·Ð¶
Ð¾Ð´Ð¸ÑĤ ÐµÐ»Ð¸
Ġna sze
ĠÐ·Ð°Ð± ÑĭÐ²Ð°ÑĤÑĮ
ĠÑĦÐ¸Ð· Ð¸ÑĩÐµÑģÐºÐ¾Ð¹
ĠÐŁ ÐµÑĤ
ĠÐ¼Ð°Ð»ÐµÐ½ÑĮ ÐºÐ¸Ð¹
ĠÐ¼ÐµÐ» ÐºÐ¸Ðµ
ĠÐ· Ð¾Ð½
ĠÐ·Ð´ Ð°Ð½Ð¸Ð¹
ĠÐ¿ÑĢÐ¸Ð·Ð½Ð°Ð ºÐ¾Ð²
Ñħ Ð¾Ð·
ĠÐ°Ð²ÑĤ Ð¾Ð½Ð¾Ð¼
ÐµÐ·Ð °
Ġte m
ĠÐĴ Ð¾ÑģÑĤ
ĠÐŁÑĢÐµÐ¸Ð¼ ÑĥÑīÐµÑģÑĤÐ²Ð°
ĠÐ¿ÑĢÐ°Ð² Ð¾ÑģÐ»Ð°Ð²
ĠÑģÐ¾ÑĤÑĢÑĥÐ´ Ð½Ð¸ÐºÐ°
ĠÐ¿Ð¾Ð´ Ð¼
fi ka
ĠÐ¿ÑĢÐ°Ðº ÑĤÐ¸ÐºÐ°
ĠÐ¿Ð¾Ð½Ñı ÑĤÐ¸Ñı
ĠÑĤÐµÐºÑģ ÑĤÐ°
bie g
ÐµÑĢÐ ¼Ð°
Ð°Ð» Ð¾Ð¼
ÐµÐ»ÑĮ Ð½ÑĭÐ¼
ĠÐ¿Ð¾ÑĤÐ¾Ð» ÐºÐ°
ĠÐ¾ÑĤÐ¼ÐµÑĩ Ð°ÑİÑĤ
ĠÐºÐ°Ð¶Ð´ ÑĭÐµ
ĠÐ¾ÑĤÐ´ÐµÐ» ÐµÐ½Ð¸Ñı
ĠÐ»Ð¸Ñĩ Ð½ÑĭÐ¹
ÑĩÐ° ÑĤÐºÐ¸
Ð¾Ð¶ Ñĥ
ĠÐĹÐ°Ð¿ Ð°Ð´
ĠÐ¾Ð±ÑīÐµÑģÑĤÐ² ÐµÐ½Ð½Ð¾Ð³Ð¾
Ð°Ð¹Ð´ Ð¶
ĠÐ¿Ð°ÑģÐ¿ Ð¾ÑĢ
ÐµÐ½Ñ ĨÐ¸Ð°Ð»ÑĮ
ÑĢÑĥ Ð³Ð¸
ĠÐŁÐ¾Ð» ÐµÐ·
g n
ĠÑįÐº ÑĢÐ°Ð½Ð°
ĠÐ½ÐµÐ¾Ð±ÑħÐ¾Ð´Ð¸Ð¼ Ð¾Ðµ
ĠÐ¸ÑģÐ¿Ð¾Ð» Ð½Ð¸ÑĤ
ĠÐ¿ÑĢÐ¾ÑĤÐ¸Ð² Ð½Ð¾Ð¼
Ð°Ð½Ð ºÐµ
ĠÑģÐ¾Ð» Ð´
ĠZ e
ĠÑĥÑģÐ¸Ð» Ð¸Ð¹
ĠÑģ ÐµÐ¹
ĠÐ¼Ð ¸ÑĢÐ
M a
Ġza koÅĦ
ĠÐ¾Ð³ÑĢÐ¾Ð¼ Ð½ÑĭÐ¹
Ġte re
ĠÐŀÐ»ÑĮ Ð³Ð°
g ul
ÐµÑģÑĤÐ² Ð¾Ð¼
ĠÐ¸Ð·ÑĥÑĩ Ð¸ÑĤÑĮ
ĠÐ¿ÑĢÐ¾Ð¸Ñģ ÑĪÐµÑģÑĤÐ²
ĠÐºÐ¾Ð½ÑģÑĤÑĢÑĥÐº ÑĨÐ¸Ð¹
ĠÐ¼Ð°ÑĢÑĪ ÑĢÑĥ
ÑģÑĤÐ² ÐµÐ½Ð½ÑĭÐ¼
Ð½Ð ¾ÑĤ
Ð¾Ð¸Ñģ Ðº
Ð½Ð¸ ÑĤÐµÑĤ
Ġ Ð°Ð»Ð
ĠÐ´Ð» Ð¸Ð½Ñĭ
ĠÐ¼ ÐµÐ¼
Ð°Ð½Ð¸Ð º
ĠÐºÐ¸Ð¿ Ñı
ĠK om
ĠÐ¼ÑĥÐ¶Ñĩ Ð¸Ð½Ñĥ
ĠÐŁ Ð¾Ð·Ð´
ÐºÐ¾Ð¼ Ð¿
ĠÐ³Ð¾ÑĢÐ¾Ð´ ÑģÐºÐ¾Ð³Ð¾
Ġwie ku
ĠÐĿ ÑĮÑİ
ĠÐ¾ÑĨ ÐµÐ½ÐºÐ°
ĠÐ¾ÑĢÐ³Ð°Ð½Ð¸Ð· Ð
ĠÐ¼Ð°Ð³Ð°Ð· Ð¸Ð½Ð¾Ð²
ĠÐ³ ÑĢÑıÐ´
ĠÐ²Ð°Ð¶ Ð½ÑĭÐ¼
ĠÐľ Ðĺ
ÑĤÐ¸ ÑĢÑĥÐµÑĤÑģÑı
Ð»ÑİÐ· Ð¸Ð²
°Ñ ĤÑĢ
ĠÐľ Ð¾ÑĢ
ĠÐ°Ð½ ÑĤÐ¸Ñģ
siÄĻ cy
ĠÐ¾ÑĢÐ³Ð°Ð½Ð¸Ð·Ð °
inte res
ĠÑģÑĤ ÐµÐ½Ñĥ
ĠÐ¾ÑĢÑĥÐ¶ Ð¸Ðµ
ÑģÐ»ÑĥÐ¶ Ð±Ð°
ÑĥÑĢÐ ¼
ĠÐ²Ð¾ÑģÐ¿ ÑĢÐ¸Ñı
ĠÑĥÑĩÑĢÐµÐ¶Ð´ ÐµÐ½Ð¸Ð¹
Ġoko ÅĤo
ĠÑĤÑĥÑĢÐ ¸ÑģÑĤÐ¾Ð²
ĠÐ¼Ð°Ð³ Ð½Ð¸
Å ģ
Ð½Ñı ÑĤÑĮ
Ð¾ÑĤ Ð¾Ð¼
ĠÐ´Ð¾Ñģ ÑĤÐ¸ÑĩÑĮ
ĠÐ´Ð¾Ð»Ð¶ Ð½Ð¾ÑģÑĤÑĮ
ĠÐ´ÐµÑĢÐµÐ² ÑĮÐµÐ²
Ð¾ÐºÑģ Ð¸Ð´
ĠÑģÐ¾Ð² Ð¾ÐºÑĥÐ¿
ĠÑģÐ¼Ð¾ÑĤ ÑĢÐ¸ÑĤÐµ
ĠWar to
ĠÐºÐ¾Ð¼Ð¼ÐµÐ½ÑĤÐ° ÑĢÐ¸Ð¸
ĠÑģÐ°Ð´ Ð¾Ð²
ĠÑģÐ»ÐµÐ´ÑĥÑİÑī ÐµÐµ
Ã ©
ĠÐĳ Ð¾Ð»ÑĮÑĪÐµ
Ġb lo
Ġwy ÅĤÄħ
ĠÑĢÐ°Ð·Ð¼ÐµÑĢ Ð¾Ð¼
Ð½Ð¾ ÑıÑĢ
µÑħ Ð°ÑĤÑĮ
Ðº ÑĢÐ°Ñģ
Ġbu dy
ĠÐºÐ¾Ð¼Ð°Ð½Ð ´Ð
ĠÑģÑĤÐ¸Ð» Ñı
Ð¾Ð» ÐµÐ½
Ġs ma
ĠÑģÑĢÐ¾Ñĩ Ð½Ð¾
¶Ð ¸
9 8
ĠÐĴÐµÑĢÑħ Ð¾Ð²
ĠÐ¿ÑĢÐµÐ¿ÑıÑĤ ÑģÑĤÐ²
ĠÐ¾ÑĤÐ½Ð µÑģÑĤÐ¸
ĠÐ°Ð²Ð°ÑĢ Ð¸Ð¹
ĠÑĦ Ð¸Ð·Ð¸
Ġproduk tÃ³w
Ð°Ð¹ Ð·
ÑĢ Ð¾Ð¼Ð°
Ġpot ra
ĠÑģÐ¾ÑĩÐµÑĤ Ð°Ð½Ð¸Ð¸
ĠÐ·Ð°Ð² ÐµÑĢ
ĠÐ²Ð¾ÑģÐ¿Ð°Ð» ÐµÐ½Ð¸Ñı
ĠÐ£ Ð½Ð¸Ð²
ĠÐ½Ð°Ð¿ Ð¾Ð¼Ð¸Ð½Ð°ÐµÑĤ
ĠÐ¼Ð¾Ð»Ð¾Ð´ ÐµÐ¶
ĠmoÅ¼ li
i c
Ð¾ÑĢ Ð½Ð¾
ĠÐ²ÐµÑī ÐµÑģÑĤÐ²Ð¾
ÑĤÐµÑĢÐ ¸Ñı
ĠÑħÐ¾ÑĢÐ¾ÑĪ Ð¸Ð¼
ĠÐ²Ð»Ð°Ð³ Ð°Ð»
ĠÐļ Ð°Ñģ
ĠÐ´Ð¾Ðº Ð»Ð°Ð´
ĠÐ²Ñĭ ÑĢÐµÐ·
ĠÐ¸Ð· Ð½Ð°ÑĩÐ°Ð»ÑĮÐ½Ð¾
ni on
ĠÐŁÑĢÐ¾Ð³ÑĢÐ°Ð¼ Ð¼Ð°
re d
ĠÐ·Ð´ Ð°Ð½Ð¸Ðµ
ĠÐŁÑĢÐµÐ·Ð¸Ð´ ÐµÐ½ÑĤ
ĠÐĳ Ð¸Ð·Ð½ÐµÑģ
ĠÐ¶ÐµÐ½Ñī Ð¸Ð½Ðµ
Ġpomo cÄħ
ĠÑģÑĤ ÐµÐ±
ĠÐ´ÐµÐ» Ð¾Ð¼
ĠÐ¸Ñī ÐµÑĤ
ĠÑĢÐµÐ·ÑĥÐ»ÑĮÑĤÐ°ÑĤ Ð°Ð¼
E G
ĠÑģÐ¾Ð±ÑģÑĤÐ² ÐµÐ½Ð½Ð¸Ðº
ÐĴ Ð¡
ĠÐ´Ð¾ÑĢ Ð¾Ð¶Ðµ
ĠÐ² ÑĢÐ°Ð³
ĠÐ¿ÐµÑĢÐ µÑĪ
ĠÐ²Ñģ ÐºÐ¾ÑĢÐµ
ĠÐ½ÐµÑģ ÑĩÐ°Ñģ
ĠÐ¿ÑĢÐ°Ð²Ð¸ÑĤÐµÐ»ÑĮ ÑģÑĤÐ²Ð¾
x y
ĠO n
ĠÑģÑĤÑĢÐ°Ð½Ð °
ÐµÐ»ÑĮ Ð·Ñı
Â» ;
¼Ð ¸Ñı
ĠÐĺÑģ ÑģÐ»ÐµÐ´
Ðĵ Ð£
ĠÐ·Ð°Ð¿ ÑĢÐ°Ð²
Ġni c
V ID
ĠÐ¿ÑĢÐµÐ´ÑĥÑģÐ¼Ð°ÑĤÑĢ Ð¸Ð²Ð°ÐµÑĤ
ĠÑĢÑĥÑģ ÑģÐºÐ¸Ðµ
ÐµÐ¼ Ð¾Ð½ÑģÑĤ
Ġw iad
ĠÐ¸Ð· Ð¾Ð»ÑıÑ
Ġpa cje
½Ñĥ Ð»Ð¸ÑģÑĮ
ĠÐ¾ÑĤÐ ¼Ð
ĠF e
ĠÐ·Ð°Ð¿ ÑĢÐµÑĤ
ĠÐ²Ð½ÐµÑĪ Ð½ÐµÐ¹
ĠÐ¼Ð°Ðº Ð¸Ñı
ĠÐ½ÐµÐ ¼Ð
ĠÐľ ÐµÐ½Ñı
ĠÐ¸Ð½Ð´ ÑĥÑģÑĤ
ĠÑĢÐ°ÑģÑģÑĤÐ¾Ñı Ð½Ð¸Ð¸
ĠÐ¼ Ð°Ð½
ĠÐ¿ÑĢÐ¾Ñĩ Ð¸Ðµ
ĠÐ²Ð¾Ñģ ÐµÐ¼
ĠÑĢÐ°Ð· Ð²Ðµ
ĠÐ°ÑĢÐ ³
Ġd arm
ĠÑĦÐ°Ð¹ Ð»Ð¾Ð²
Ð¸Ð³Ð °ÑĢÐ
ĠÐ´Ð °ÑĤÐ°
ĠÐ·Ð°Ð²Ð ¸ÑģÑı
ĠÐĶÐ °ÑĤÐ°
ĠÐ¿Ð¾ÑģÐ»ÐµÐ´ ÑģÑĤÐ²Ð¸Ð¹
ĠÐ¼Ð¸Ð½ÑĥÑĤ Ñĥ
ĠÐ² ÑĤÐ¾ÑĢÐ¸Ñĩ
ĠÐ¿Ð¾Ð´Ð´ÐµÑĢÐ¶ Ð¸Ð²Ð°ÐµÑĤ
Ð¿ Ð¾Ñģ
ĠÐ¿ÑĢÐ¸Ð² Ð
ĠÐ¿Ð»Ð¾ÑīÐ°Ð´ ÐºÐ¸
ĠÐ´ Ð²ÐµÑĢÐµÐ¹
ĠÐ¿ÑĢÐ¸Ð½Ñı Ð»
ĠÐ³ÑĢÐ°Ð¶Ð´ Ð°Ð½Ðµ
Ġprze wo
ĠÑĩÐ¸Ñģ ÑĤÐ¾
lu e
Ð°Ð½Ð¸Ñı Ð¼
Ð»Ð µÑĢÐ°
ÑĤÐ¸Ðº Ð°Ð¼Ð¸
Ġmia sta
ĠÑĩÐ°Ñģ ÑĤÐ½ÑĭÑħ
II I
Ð± ÐµÐ»
Ġzd oby
s kÄħ
ÅĽ nia
ĠÐ²ÐµÑĢ ÑģÐ¸Ñİ
ĠÐ¿ÑıÑĤÐ½Ð °
ĠÑĥÑģÑĤÐ°Ð½Ð¾Ð² Ð»ÐµÐ½Ñĭ
ĠobowiÄħ z
ĠÐ´Ð¸Ð·Ð°Ð¹ Ð½ÐµÑĢ
ĠÐ´ÐµÑĢÐµÐ² ÑĮÑı
ĠÐ³ Ð¾Ð½Ð
ĠÐ¿ÐµÑĢÐ¸Ð¾Ð´ Ð¸ÑĩÐµÑģÐºÐ¸
ĠÐ¿ÑĢÐ¾ÑĪ Ð»Ð°
ĠÐ´Ð°Ð½Ð ½Ð¾Ðµ
ĠÐ¾ÑĩÐ¸Ñģ ÑĤÐ¸ÑĤÑĮ
Ð¾ÑĤÐ »Ð¸Ð²
Ġw ers
ĠÐ¿ÑĢÐµÐ´Ð¾ÑģÑĤÐ°Ð² Ð»ÑıÐµÑĤÑģÑı
ĠÐŀ Ð²
ÑĤÐ¸Ð ¶
ĠÐ³ÑĢÑĥÐ´ ÑĮ
Ñİ ÑĢÐ°
ĠÐŀÐ±ÑıÐ· Ð°ÑĤÐµÐ»ÑĮÐ½Ð¾
Ð»Ðµ ÑĤÐ
ĠÐ±ÑĢ ÐµÐ½Ð´Ð°
ĠÐ½ÐµÐ´ Ð¾ÑĢÐ¾Ð³
Ð¾Ð¸Ð ³
ĠÐ¶Ð´ ÑĥÑĤ
ĠÐ½Ð°ÑģÑĤÐ¾ÑıÑī ÐµÐ³Ð¾
ĠÐ±ÐµÑģ ÐºÐ¾Ð½Ð
Ġzro biÄĩ
ĠÑĥÐº Ð°Ð·ÑĭÐ²Ð°ÐµÑĤ
ÑĤÐ¸Ð² Ð½ÑĥÑİ
ĠÐ¤ Ð°Ðº
ĠÑĥÑĤÐµÐ¿ Ð»
Ġsp ort
ĠÐ¿ÑĢÐ ¾ÑĢÐ
owanie m
ĠÑĪÐºÐ¾Ð» Ñĥ
c raft
ĠÐ¼Ð¸Ð½ ÑĥÑģ
ĠÑģÐ¾ÑĤÑĢÑĥÐ´ Ð½Ð¸Ðº
ĠÐ²Ð¾Ð·Ð¼Ð¾Ð¶ Ð½ÑĭÑħ
ĠÐ°ÑĢÑħ Ð¸Ð²
ĠÐ¡ Ð¾ÐµÐ´
ĠÐ´ ÑĥÐ±
ĠÐ±Ð»Ð¸Ð· ÐºÐ¸Ñħ
ĠÑģÐ»Ð¾Ð¶ Ð½ÑĭÑħ
ĠÐºÐ°Ð´ Ð°ÑģÑĤ
ĠÐļÐ¾Ð½ ÑģÑĤÐ°Ð½
ĠÂ ©
ÐµÑħÐ ½
p on
ĠÐł ÐµÐ´
ĠÐ¼ÐµÐ½Ñı ÐµÑĤÑģÑı
Ġza mÃ³w
ĠÐºÑĢÐ¸Ð¿ ÑĤÐ¾Ð²Ð°Ð»
ĠÐ½ÐµÑģ ÐµÑĤ
ĠÐ· Ð°Ð»Ðµ
ÑĤÐ½Ð ¾Ñģ
ĠÐ¾Ð±Ñĥ Ð²Ð¸
ĠÐ´ Ð°ÑĤÑĥ
ĠÑģÐ°Ð¼ ÑĭÐ¼Ð¸
ĠÐ² ÑĬ
ĠÐ¿ÑĢÐµÐ´Ð¾ÑĤÐ² ÑĢÐ°Ñī
ĠÑĨ ÐµÑĢÐºÐ²Ð¸
I P
ĠÑĤÐµÑģ ÑĤÐ°
y s
ĠÑģÑģÑĭÐ» ÐºÐ¾Ð¹
Ġroz wo
ĠÑģÐ² ÑĭÑĪÐµ
ĠÐ¿ÐµÑĢÐµÐ´ Ð°Ñĩ
ĠÑĦÐ» ÐµÑĪ
ÑįÐ ½
ĠÐ·Ð½Ð°Ð µÐ¼
ĠÐ¿ Ð¾ÐµÐ´
Ñģ Ð¼ÐµÐ½
wie k
ĠÑģÑĥÑģÑĤÐ°Ð²Ð °
d li
ĠÐ¾Ñģ ÑĥÐ¶Ð´
Ð» Ð¾Ñī
ĠÐ¸Ð·Ð´ÐµÐ» Ð¸Ðµ
Ð°Ð² ÑĪÐµÐ³Ð¾
Ġpla n
ĠÐ´Ð¾Ð³Ð¾Ð²Ð¾ ÑĢÑĥ
p ar
ĠÐ³ ÐµÐ»ÑĮ
ĠÑģÑĤÑĢÐ¾Ð¸ÑĤÐµÐ»ÑĮ ÑģÑĤÐ²Ðµ
ĠÑģÐ¾Ð³Ð»Ð°ÑĪ ÐµÐ½Ð¸Ðµ
ĠÑħÐ¾Ð» ÐµÑģÑĤÐµÑĢ
ĠÑģÐ¾Ñħ ÑĢÐ°Ð½Ð
ĠÐ½ÐµÐ½Ð°Ð ²
Ð¿ ÐµÐ²
ĠÐ°Ðº ÑĨÐ¸Ð¹
ĠÑģÐ¾ÑĤÑĢÑĥÐ´Ð½Ð¸Ñ ĩÐµÑģÑĤÐ²Ð°
ĠÐĿ Ð¾Ð²Ð
ĠÐŁÑĢÐ¾Ð² ÐµÑĢ
ĠÐ±ÐµÑģÐ¿Ð»Ð° ÑĤÐ½ÑĭÐ¹
ĠÑĢÐ°Ñ ĨÐ¸Ð¾Ð½Ð
ĠÐ¿ÑĢÐµÐ´ÑģÑĤÐ°Ð² Ð»ÐµÐ½
ĠÐ¿Ð» Ð°Ð½Ð¾Ð²
ĠÐĳ ÐµÑĢ
ĠÑĢÐ°Ð ½Ð¾
c ka
Ġ @
ĠÐ´Ð» Ð¸Ð½Ð°
ĠÐ¿Ð¾Ð·Ð²Ð¾Ð½Ð¾Ñĩ Ð½Ð¸ÐºÐ°
ÑĢÑĭ ÑĤÐ¸Ñı
ĠÐ¸Ð· Ð³
ĠG dy
ĠÐºÐ° ÑĢÐ°Ð½Ð´
ĠÑģÑĤÐ¾Ð» Ð±
ĠÐµÐ´ Ð²Ð°
Ġs ez
ĠÐ£ÑģÑĤÐ°Ð½Ð¾Ð² ÐºÐ°
ĠÑģÐ¿ÐµÑĨÐ¸Ð°Ð»ÑĮ Ð½Ð¾Ð³Ð¾
ĠÑįÐ»ÐµÐºÑĤÑĢÐ¾Ñį Ð½ÐµÑĢÐ³
Ð´Ð ¸Ñı
Ġle ka
ĠÐ½Ð°Ð½ÐµÑģ ÐµÐ½Ð¸Ñı
ĠÐ¿ÑĢÐ¾Ð¸Ð·Ð²Ð¾Ð´ Ð¸ÑĤÐµÐ»ÑĮ
ĠÐ·Ð² ÑĥÐºÐ¾Ð²
ĠÐ¿Ð¾ ÑĢÐ°Ð´
ĠÐ°ÑĢ ÑĤÐµÑĢÐ¸
9 6
ĠÐ·Ð°Ð¼ ÐµÐ½Ð°
ĠÐ¾Ð²Ð¾Ñī ÐµÐ¹
ĠÑĤÑĢÐµÐ½Ð¸ÑĢÐ¾Ð² ÐºÐ¸
ĠÑĢÐµÐºÐ» Ð°Ð¼Ð°
ĠÐ¿ÑĢÐ°Ð² Ð¾Ð¾Ñħ
Ð¾Ð± Ð½Ð¾Ð²
wia jÄħ
ÑĤÐ¸Ð »Ð¾
ĠÐ½Ð°ÑĥÑĩ Ð¸ÑĤÑĮÑģÑı
ĠÑĩÑĥÐ²ÑģÑĤÐ² Ð¾Ð²Ð°ÑĤÑĮ
ĠÐºÑĢÐ°ÑģÐ¸Ð² ÑĭÐ¹
Ð¸Ðº Ð¾Ð¹
Ð¾Ð² Ð¸Ñĩ
Ġtran s
ĠÐ´Ð¸Ð¿ Ð»Ð¾Ð¼
ÅĤ ka
ÐµÐºÑ ĤÐ°Ðº
ĠÐ²Ð°Ð¶ Ð½ÑĭÐ¹
ĠÑįÐº ÑĢÐ°Ð½
la ch
ĠÐ·Ð°Ð¼Ðµ ÑĤÐ½Ð¾
ĠÐĴ ÑĭÐ²
ĠÐ¾ÑĦÐ¾ÑĢÐ¼ Ð»ÐµÐ½Ð¸Ð¸
ĠÐ½ÐµÐ¾Ð±ÑħÐ¾Ð´Ð¸Ð¼ Ñĭ
ĠÑģÑĤÐ¾ÑĢ Ð¾Ð½Ð°
ĠÑĤÐµÑĩ ÐµÐ½Ð¸Ð¸
ĠÐŁÐµÑĢÐ² Ð°Ñı
ĠÐ¿Ð¾ÐµÐ·Ð´ ÐºÐ¸
ĠÑĨ Ð¸ÐºÐ»
ĠÐ»Ð¸Ñĩ Ð½Ð¾Ð¹
ĠÑģÐ´ÐµÐ» Ð°ÐµÑĤ
ĠÐ¿ÐµÑĢÑģÐ¾Ð½Ð°Ð ¶
ĠÐ¿ÑĢÐ¸Ñĩ Ð¸Ð½Ñĥ
ĠÐ¿Ð¾Ð²ÑĭÑĪ Ð°ÐµÑĤ
Ð³ Ñĥ
Ð¾Ð½Ñģ ÑĥÐ»ÑĮ
ĠwyjÄħ tk
ĠÐĵÐ¾ÑĢ Ð¾Ð´
ÑıÑī Ð¸ÐµÑģÑı
l nych
ĠÐ¾Ð±Ð½Ð¾Ð² Ð»ÐµÐ½Ð¸Ñı
ĠÑįÐ¿ Ð¸Ð´
ĠÐ¾ÐºÐ°Ð·Ð°Ð» Ð°ÑģÑĮ
ĠÐ¿ÑĢÐ¸Ð»Ð¾Ð¶ ÐµÐ½Ð¸Ð¹
ĠÐ¸Ð½Ð´ Ð¸ÐºÐ°
ĠÐ¾Ð±ÑĭÑĩ Ð½ÑĭÐ¹
ĠKa Å¼
ĠÑģÐ» Ð¾ÐµÐ¼
A D
Ð¾ÑĤ ÐµÐ»
ĠÐ²Ð°Ð¶ Ð½ÑĭÐµ
ĠÑĤÐµÑģ ÑĤÐ¾
ĠÑģÐ¸Ð¼ Ð¿Ð°
ĠÐ²Ð·Ð°Ð¸Ð¼ Ð¾Ð´ÐµÐ¹ÑģÑĤÐ²Ð¸Ñı
Ġsze ro
ĠÑĢÐ°ÑģÑģ Ð¼Ð¾ÑĤÑĢÐµÑĤÑĮ
Ð µÑı
ĠÐŀ Ð»ÐµÐ³
ĠÑģ Ð¾ÑĤÐ½Ð¸
Ð½Ð°Ð ³
ra mi
ĠÐ¼ Ð¾ÑģÑĤ
Ġprzy ja
ĠÐ±ÐµÑĢÐµÐ ³
Ð°Ð ³Ð¸ÑģÑĤ
Ðł Ð°Ð·
ra t
ĠÑĩÐ°Ñģ ÑĤÐ¸ÑĩÐ½Ð¾
Ð¸Ð½ Ñ
ĠÐĴ Ðĺ
Ð¿Ð¸ ÑĤÐ°ÑĤ
ĠÐĳÐ ¸
ĠÐ¾Ð¿ÑĢÐµÐ´ÐµÐ» ÐµÐ½Ð½Ð¾Ð¹
Ð½Ð°Ð º
Ġo ce
ĠÐ·Ð°ÑĤ ÑĢÐ°ÑĤÑĭ
Ġtu taj
ĠÑĤ ÑĢÐ°ÑĦ
Ñģ Ð°Ð¹
ĠÐ¿Ð¾Ð½Ð¸Ð¼ Ð°Ñİ
ÑĢÐµÑģ ÑģÐ¸Ð¸
Ð°Ð½ Ð¾Ð²Ð°
Ñī Ñĳ
ÑĢÐ¾Ð² Ð¾ÑĨÐ¸
Ð°Ðº ÑĤÐµÑĢÐ¸
Ð°Ð¶ ÑĥÑĤ
Ġco okie
Ġwyko rzy
ta n
ÑĢÐ¾Ð¸Ð ·
Ġwy ja
ĠÐ´Ð¾Ð¿Ð¾Ð»Ð½Ð¸ÑĤÐµÐ»ÑĮ Ð½Ð¾Ð³Ð¾
ed ÅĤug
Ġpoprze z
ĠÑģ ÐµÐ´
ĠÑĥÑģÑĤ ÑĢÐ°Ð½ÐµÐ½Ð¸Ñı
201 4
ÑĢÐµÐ ºÐ¾Ð¼ÐµÐ½Ð´
ĠÑĤÐ ¾ÑĪ
ĠÐ¿ÑĢÐ¸Ñģ Ð²
ĠÐ¿Ð¾Ð² ÐµÑģ
ĠÐ¾ÑģÐ½Ð¾Ð² Ñĭ
ĠÐ¸Ð·Ð²ÐµÑģ ÑĤÐ½ÑĭÐ¹
Ð¾Ð¿ÑĢÐ¸Ð¼ ÐµÑĩÐ°ÑĤÐµÐ»ÑĮ
ĠÐ² Ð¾Ð¿
Ġu su
ĠÐ²Ð°Ð¶ Ð½ÐµÐ¹
ĠÐ·Ð°ÑĤ ÑĢÑĥÐ´
ĠÐ²Ð¸Ð´ Ð¸Ð¼
ĠÐ»Ð¸ÑĨ Ð°Ð¼
ĠÐ·Ð°ÑĢÐ°Ð±Ð¾ÑĤÐ ºÐ°
ĠÐ¿ÑĢÐµÑģ Ð»ÐµÐ´
ĠÐ¾Ð¿Ð» Ð°ÑĤÑĥ
Ðº Ð¾Ð¼Ñĥ
ĠÐ¿ÑĢÐ¸Ð± Ð¾ÑĢÐ¾Ð²
ĠÐ³ÐµÐ¼ Ð¾ÑĢ
la ck
k owy
ĠÑĦ Ð°Ð½
ĠÑģÑĥ Ð´Ðµ
Ġn owych
ĠÐºÐ°Ñģ ÑĤÑĢÑİ
ĠR u
Ġsto su
Ðº Ð»Ð°Ñģ
ĠÐķÐºÐ°ÑĤÐµÑĢ Ð¸Ð½Ð±ÑĥÑĢÐ
ĠÐ¾Ð±ÐµÑģÐ¿ÐµÑĩ Ð¸Ð²Ð°ÑİÑĤ
ĠÐ¾Ð¿Ð°Ñģ Ð½Ð¾ÑģÑĤÐ¸
ĠÐ·Ð°Ð± ÑĥÐ´
Ð³Ð¾Ñģ ÑĢÐ¾Ñĩ
Ġte chni
ĠÐ·ÑĥÐ± Ñĭ
ĠÐ¿Ð¾Ð´Ð´ÐµÑĢÐ¶ ÐºÐ°
ĠÐ¿Ð¾Ð·Ð´ Ð½ÐµÐµ
Ġa ktu
ĠÑĩÑĢÐµÐ·Ð²ÑĭÑĩÐ°Ð¹ Ð½Ð¾
ĠÐĴÐ °ÑĢÐ¸
½Ð ¾Ñģ
ĠÐ¿Ð°Ð¿ Ð¸Ð»Ð»Ð¾Ð¼
ĠÐ¿Ñĭ Ð»ÑĮ
ste ty
ĠÐ¼ÐµÑĤ Ð¾Ð´Ð°
ÑģÐ ¸ÑĢÐ¾Ð²Ð°Ð½Ð¸Ñı
ĠÐ·Ð°Ð½Ð¸Ð¼ Ð°ÑİÑĤÑģÑı
ĨÐ¸Ð¾Ð½Ð ½Ð°Ñı
ĠÐ´Ð¾Ð² Ð¾Ð»ÑĮ
ĠÑĥÐ» Ð¸ÑĨÑĭ
ĠÑģÐ» Ð¾Ð¼
ĠÐ³Ð °ÑĢÐ´
ĠÐ´Ð¾Ð¿ÑĥÑģ ÑĤÐ¸Ð¼
ĠA ir
ĠÐ¡ ÑĥÐ¿
ÑĤÐ¸Ð² Ð½ÑĭÐ¼Ð¸
ĠÐļ Ð°Ð±
ĠÐ»Ð¸Ñģ ÑĤÐ°
ĠÐ¾ÑĢÐ ´
ĠÑĥÐ´ Ð°ÑģÑĤÑģÑı
ĠÐ¿Ð¾Ð² Ð¾Ð´
t wo
ĠÑĩ Ñĥ
ĠÑĤ Ð¾Ð±Ð¾Ð¹
ĠÑģÐ¾Ð·Ð´ Ð°ÑİÑĤ
Ġp er
ĠÑģÐ¾Ð¿ÑĢÐ¾Ð²Ð¾Ð¶Ð´ Ð°ÐµÑĤÑģÑı
ĠÐĶ Ðŀ
ĠÐ¾Ð½Ð º
ĠÐ¸Ð¼Ð¼Ñĥ Ð½Ð¸ÑĤÐµÑĤ
ÑĢ Ð½Ð°Ñı
ĠÐĴÑĭ Ð±Ð¸
E C
ĠÐºÑĢÐ¸Ð· Ð¸Ñģ
ĠÑĩ ÐµÐ»
ĠÐº ÑĢÐ¸ÑģÑĤ
ĠÐļ Ð¸ÑĤ
ĠÐŁ Ð¾Ð»Ð¾Ð¶
ĠÐ½Ð°Ð¸Ð ±Ð¾Ð»ÑĮÑĪ
ĠÐ¿ÑĢÐµÐ´ÑģÐµÐ´ Ð°ÑĤÐµÐ»ÑĮ
ĠÐ¼Ð½Ð¾Ð³ Ð¸Ð¼
ÑĥÑ Ĩ
ĠÑģÐ¸Ð»ÑĮ Ð½ÑĭÐ¹
ĠÐ±Ð¾Ð»ÑĮÑĪ Ð¸Ð¼Ð¸
ÐĲ Ð²
ĠH i
ĠÐ¿ÑĢÐ¸Ð²Ð»ÐµÑĩ ÑĮ
Ð»Ð¸Ð²Ð ¾
ĠÐ¶Ð ¸ÑĢÐ°
ĠpoczÄħ tku
ĠÐ¿ÑĥÐ½Ðº ÑĤÐ°
ÑĤÐ ½
Ġp li
Ġm l
kol wiek
ĠÐ·Ð¸Ð¼ Ñĥ
ĠÐ¼ Ð¸ÑĦ
ĠÐŁ ÐłÐŀ
ĠÑģÐ¾ÑĩÐµÑĤ Ð°Ð½Ð¸Ðµ
ĠÂ °
ĠÑĤ ÑĢÐµÐ¹Ð´
Ġzes po
Ð°Ð·ÑĭÐ² Ð°ÑĤÑĮ
ĠÐĶÐ µÑĤÐ¸
re su
Ð· Ð°Ð¼
Ġ Ð¾Ð³Ð
ĠktÃ³ rÄħ
Ġprzy kÅĤad
ĠÑįÐ»ÐµÐºÑĤ ÑĢÐ¸Ñ
ĠÑĥÐ´ Ð°ÐµÑĤÑģÑı
Ð³Ð ¾ÑĤÑĭ
ĠÑģÑĤÑĢÑĥÐºÑĤÑĥ ÑĢÑĥ
Ġprze pis
ĠÑģÑĤ Ñĭ
ĠÐ²Ð¾ÐµÐ½Ð ½ÑĭÑħ
ĠÐ¾Ñī Ñĥ
ĠÑĪÐ¾ÐºÐ¾Ð» Ð°Ð´
ĠÐ½Ð°Ð´ ÐµÐ¶Ð´
ĠÐ¸Ð· ÑĭÑģÐº
ĠÐł Ð¾ÑģÑĤ
Ġpierw szy
Ð ¸ÑĢÐ¾Ð²Ð°ÑĤÑĮ
czy ch
ĠÑģÐ»ÑĥÑĪ Ð°ÑĤÑĮ
Ð»Ñı ÑĨÐ¸Ð¸
ĠÐ³Ð¾Ð²Ð¾ÑĢ Ð¸Ð»Ð¸
Ð¾Ð»Ð½Ñı ÑĤÑĮ
Ð¾Ð´ Ð¸Ð¼
ĠÐ³Ð¾Ñģ Ð¿Ð¾Ð´
ĠÐ¾ÑĢÐ³ Ð°Ð½Ð¸ÑĩÐµÑģÐº
Ð» Ð°ÑĤÑĭ
ĠÐ°Ðº Ð²Ð°
ĠÐŁÑĢ Ð¸Ð»
ĠÑģÑĤÐ°ÑĢ ÑĭÑħ
ĠÐ¿ÑĢÐ¾Ñ ī
ĠÐ¾ÑĤÐ¿ÑĢÐ°Ð² Ð¸ÑĤÑĮ
ĠÐ½Ð°Ð¿ ÑĢÐ¾ÑĤÐ¸Ð²
ĠÐ¿Ð¾Ð»ÐµÐ· Ð½Ð¾
ĠÑģ Ð¸Ð»Ð°
ĠÑģÐ¸Ð½ Ñ
Ġproble m
Ð¾Ñĩ ÐºÐ¾Ð¹
ĠÐŁÑĢÐ¸Ð¼ ÐµÐ½ÐµÐ½Ð¸Ðµ
ĠÑģÐ¸Ð½Ñ Ĥ
ĠÑģÑĤÐ°ÑĢ ÑĭÐµ
Ð¸Ð² Ð¸Ð»
ĠÐ°ÑĢÐµÐ½Ð´ Ñĭ
szu ki
Ġra nd
O D
ĠÑĥÐ²ÐµÑĢÐµÐ ½
ĠÑĥÑģÑĤÐ°Ð½Ð°Ð²Ð»Ð¸Ð² Ð°ÑĤÑĮ
ĠÐ¿ÑĢÐ¸Ð· ÑĭÐ²
ĠÐĳÐ¾Ð»ÑĮÑĪ Ð¾Ð¹
Ġpowie rz
ĠÐ²ÑĭÐ´ÐµÐ» ÐµÐ½Ð¸Ñı
ÑĩÐ°Ñģ ÑĤÐ¸
ĠÑģÑĢÐµÐ´Ð µ
ĠÐ²Ð¸Ð´ Ð¸ÑĤÐµ
Ġkie ru
ÑĢÐ¸ ÑĤÐ°
Ġ ÑĤÐ°ÑĤÑĥ
ĠÐĺÑ ĤÐ°Ð»
ĠÐĿÐµÑģ ÐºÐ¾Ð»ÑĮÐºÐ¾
wi du
Ð¸Ð½Ð ºÐµ
ÐµÐ °Ð»ÑĮ
ĠÐ¸Ð½ÑĤÐµÑĢÐµÑģ Ñĭ
ĠÐ¸ÑģÐ¿ Ð¾ÑĢ
Ġmater iaÅĤ
ĠÑĩÐ°Ñģ ÑĤÐ¸Ñĩ
ĠÑģÐ¾Ð²ÐµÑĢÑĪ ÐµÐ½ÑģÑĤÐ²
ĠÐ²ÑģÑĤÑĢÐµ ÑĤÐ¸ÑĤÑĮ
ĠInsta gram
ĠÐ¿Ð¾Ð»ÑĥÑĩ Ð¸ÑĤ
ĠÐĿ ÐµÐ»ÑĮÐ·Ñı
ĠÑģÑĤ ÑĢÐ¾Ñı
rzÄħ dza
Ð¿Ð µÑĤÐ¸
ÐºÐ¾ÑĢÐ ±
ĠÑĥÐ¿ Ð»Ð¾ÑĤÐ½Ð
ĠÑĥÐ²Ð¸Ð´ ÐµÐ»
ĠÐŀ Ð»Ð¸Ð¼
Ġ '
Ġokre ÅĽ
ĠÐ¿ÑĭÑĤ Ð°ÐµÑĤÑģÑı
ĠÐ²ÑĢÑĥÑĩ Ð½ÑĥÑİ
ĠÐĿ Ð°ÑģÑĤ
ĠÐ¿ÑĢÐ¸Ð¼ÐµÐ½ÐµÐ½Ð ¸Ð¸
Ġozna cza
ĠÐ»Ð¸Ñĩ Ð½Ð¾Ð³Ð¾
ĠÑĤ ÑĢÐ°Ð³
ĠÐ¡Ð¿ÐµÑĨÐ¸Ð°Ð» Ð¸ÑģÑĤÑĭ
Ð»Ñİ ÑģÑĤ
Ġw raz
ĠÑĥÑĩÐ°Ñģ ÑĤÐ¸ÐµÐ¼
ÐµÐ½ ÑĩÐµÑģ
ĠÐ¼ Ð¾Ðµ
E L
ĠÐĿ Ð¾Ð²ÑĭÐµ
ĠÑĤÐº Ð°Ð½
ĠÐĲÑĢ Ñ
ĠÐĲÑĢÑ Ĥ
Ð¾Ð»Ð¾Ð³Ð¸ÑĩÐµÑģÐº Ð¾Ðµ
ĠÐ¿Ð¾Ð´Ð² ÐµÑĢÐ¶
Â» ).
ĠÐ·Ð° ÑĤÐ¾
ĠÑĥÐ¿ÑĢÐ°Ð² Ð»ÑıÑĤÑĮ
ĠÐ²Ð»Ð¸Ñı Ð½Ð¸Ñı
ĠÐ¿ÑĢÐ°Ðº ÑĤÐ¸ÐºÐ¸
ĠÑĢÐ°ÑģÑģÐºÐ°Ð· Ð°Ð»Ð°
ĠÐ¼Ð¸Ð½Ð ¸ÑģÑĤÐµÑĢ
ĠÑħÐ¾ÑĢÐ¾ÑĪ Ð°Ñı
ĠÐ³Ð¾Ð´ Ð¾Ð¼
ĠÑĢÐµÐ ¶Ðµ
ĠÐ½ÑĥÐ¶Ð´ Ð°ÐµÑĤÑģÑı
ĠÐ¿Ð» Ð¾Ð´Ð°
ĠÐ´ Ð¸Ð»
ĠÐ¼ÐµÑģ ÑıÑĩ
ĠÑģÐ²ÑıÐ· Ð°Ð½Ð°
ĠÑĦ Ð¸Ð»Ð¸
Ð ½ÑĳÐ¼
ĠÐ¿Ð¾ÑĤÑĢÐµÐ± Ð½Ð¾ÑģÑĤÐ¸
ob ie
ÑĢÐ¾Ð² ÑĭÐ¹
ĠÐ½Ð°Ð·Ð² Ð°Ð½Ð¸Ñı
ĠÐ²Ñģ ÐµÐ²
ĠÑĤÐ µÑĤ
Ġp art
Ð¸Ð² ÑĭÐµ
ÑĢ Ð¸ÐºÐ°
Ġspe cjali
Ð°Ð¼ÐµÐ½ÑĤ Ð¾Ð·
ĠÐ·Ð°ÑīÐ ¸ÑĤÐ°
ĠÑĤÐµÐ¿Ð» Ð¾Ð¹
ĠÑģÐ² ÐµÑĢ
ĠS P
ÑĢÐ°Ñ ĤÐ¾Ð¼
Ĥ Ð°Ð²
ĠÐ² ÐµÑĢÑĪ
Ġp sy
Ñ ĤÐ°Ð²
ĠÑĤÐ¾Ð²Ð°ÑĢÐ ¸Ñī
wy ch
9 7
ĠÐ»ÑİÐ± Ð¸ÑĤÐµÐ»ÐµÐ¹
Ġc m
ĠÑģÑĤÐµÐº Ð»Ð¾
Ġo na
Ð¾Ð¿Ð» Ð¾Ñī
d s
ĠÐ¸ÑģÐºÐ»ÑİÑĩ Ð¸ÑĤÑĮ
Ġza pro
ĠÑįÐºÑģÐ¿ÐµÑĢ ÑĤÐ¸Ð·
¸ÑĢ ÑĥÑİÑĤÑģÑı
Ġsta n
ĠÑģÐµÑĢÐ² Ð¸ÑģÐ°
ĠÐºÐ¾Ð¼Ð°Ð½Ð´ Ñĥ
Ð½Ð°Ð½Ð ¸Ñı
ĠÐºÑĢÐ°Ñģ Ð½ÑĭÐ¹
ĠÐ¿ÑĥÑĤ ÐµÐ¹
ĠÐ¿Ð» Ð°Ð½Ñĭ
ĠÐ´ Ð¾Ð±Ñĭ
Ġspra wie
Ð°ÐµÐ¼ Ð¾ÑģÑĤÐ¸
ĠÐ¿Ð»Ð¾ÑĤÐ ½Ð¾
ĠÐ¾ÑģÐ»Ð¾Ð¶ Ð½ÐµÐ½Ð¸Ð¹
Ð¢ Ð°Ðº
Ġzosta nie
d ia
ĠÐŁÐ¾Ðº Ð°Ð·
Ġ200 4
ĠÑĤÐµÑħ Ð½Ð¸ÐºÑĥ
ĠÐ²ÑĭÑģÐ ¾ÑĤÐµ
Ġro bi
Ð½Ð¾Ð´ Ð°ÑĢ
Ġznale ÅºÄĩ
ĠÐ§ Ð
ĠÐ¼Ð¸Ð½Ð ¸ÑģÑĤÑĢ
ĠÑģÐ¿Ð¾ÑģÐ¾Ð± Ð½Ð°
ĠÐ¿ÑĢÐ¾Ð´ Ð°ÑĤÑĮ
Ð¾Ð½Ð ³
ĠÐ¿ÑĢÐ¾Ð¸Ð·Ð²Ð¾Ð´Ð¸ÑĤ ÐµÐ»Ð¸
Ġ Ð¸ÑĢ
ĠÑĩ Ð¸ÑĤÐ°Ð¹ÑĤÐµ
ÐµÑĢÐ± Ð°Ð¹Ð´Ð¶
ĠÐ¿Ð¾ÑĢ Ð¾Ð´Ñĭ
Ġre gu
ĠÐ¿Ð¾ÑĪ Ð°Ð³
ĠÐ´Ð» Ð¸Ð½Ñĥ
ĠÐ½Ð¾Ð² Ð¾Ð³Ð¾Ð´
Ðº Ð»
le k
ÑĤÐ°Ñ ĨÐ¸ÐµÐ¹
ra j
Ð°Ð± Ð¸Ð»
ĠÑĢÐ°ÑĨÐ¸ Ð¾Ð½
Ð² ÑıÐ·
ĠÐºÐ¾Ð» Ð¾Ð½Ð
ÑĤÐ½Ð µÐµ
Ð¡ Ðļ
Ġh e
ĠÐ¢ ÑĢÐ°Ð½
ĠÑĢÐµÐ ºÐ¸
men tu
ĠÐ» ÑĳÐ³
ĠÐµÐ¼ ÐºÐ¾ÑģÑĤÑĮ
ĠÐ¿ÑĢÐ¾Ð¸Ð·Ð² ÐµÑģÑĤÐ¸
ĠÑģÑģÑĭÐ» ÐºÐ°
Ð¿Ð» Ð°Ð½
ĠÐŁÑĢÐ¸Ð ³Ð¾ÑĤÐ¾Ð²
ĠÐ½Ð¾Ñĩ Ð
ĠÐºÐ¾Ð½ÑĤÐ°Ðº Ñ
ĠÐºÐ¾Ð½ÑĤÐ°ÐºÑ Ĥ
ÑıÑİÑī Ð¸Ñħ
ĠÐ½ÐµÐ± Ð»Ð°Ð³
ĠÑĢÐµÐ± ÑıÑĤÐ°
ĠÐ¶ÐµÐ½Ñī Ð¸Ð½Ð°Ð¼
ĠÐ¿ÑĢÐ¾Ð´ ÑĥÐ¼
ĠÐ¾ÑĤÐº Ð»Ð¾Ð½ÐµÐ½Ð
Ġpro gram
ĠÐļ ÑĥÐ·
ĠÐºÑĢÐ¾Ð²Ð °ÑĤÐ¸
ĠÐ¾Ð¿ Ð
ĠÐ¿Ð» Ð°Ð½Ð°
ÑĢ Ð¾Ðµ
ĠÑĤÐ¾Ð¿ Ð»Ð¸Ð²
ĠÐ¿ÑĢÐµÐ´Ð»Ð¾Ð¶ ÐµÐ½Ð¸Ð¹
Ġ Ð°Ð½ÑĤ
Ġprze j
ĠÐºÐ°Ð½Ð°Ð »Ð°
ĠÑģ ÐµÑĢÐ¸Ñı
ĠF ran
ĠÑĩ Ð»
Ð°Ð± Ð¾Ð»
mys ÅĤ
ĠÐ½Ð°Ð·Ð½Ð°Ñĩ Ð°ÑİÑĤ
ĠÑ ĨÐ°
ĠÐ¾Ð´Ð¸Ð½Ð°Ð ºÐ¾Ð²
Ġdzie wczy
ĠÐ¶ Ð¸ÑĤÐµÐ»ÑĮÑģÑĤÐ²Ð°
ĠÑģÐ¿ Ð»
Ġznaj duje
ĠÑĤ Ñĳ
ĠÑģÐ¾ÑģÑĤÐ°Ð² Ð»ÑıÑĤÑĮ
ĠÑĤ ÑĢÐ¾Ð¿
ÐºÐ¾ÑĢÐ ¼
ĠÑģÐ»Ð¸Ð· Ð¸ÑģÑĤÐ¾Ð¹
ĠJe Å¼eli
ÐµÐ¿Ð ¸
ĠÐĳÐµÐ»Ð°ÑĢÑĥ ÑģÐ¸
ĠÑģÐµÑĤ ÐµÐ¹
ĠÑģÐ½Ð¸Ð¶ Ð°ÐµÑĤ
ĠÐ¼ Ð¾Ñİ
ĠÐ¿ÑĢÐ¸Ð² ÐµÑĤÑģÑĤÐ²
Ð¾Ð½Ð ½ÑĥÑİ
si on
ĠÐ¾Ð±ÑĢÐ°Ñī ÐµÐ½Ð¸Ðµ
ÑĮ ÑĤÐµÑģÑĮ
ĠMicro soft
ĠÐ¿ÑĢÐ¾Ð¸Ð·Ð²Ð¾Ð´ Ð¸ÑĤÑĮ
ĠE n
ĠÐ°Ð²ÑĤÐ¾Ð¼Ð¾Ð± Ð¸Ð»Ð¸
ĠÑĩÐµÑģÐ ½Ð¾Ðº
ĠÐºÑĢÐ° ÑĤÐº
ĠÐ·Ð°Ð¼ ÑĥÐ¶
ÑĤÐ¾ÑıÐ½Ð ¸Ñı
ĠÑĤÐµÑĢÑĢÐ¸ ÑĤÐ¾ÑĢÐ¸Ñİ
ĠÐ¿Ð¾ÐºÐ°Ð· Ð°Ð»Ð¸
ĠÐ± Ð¾Ð¼
Ġf e
ĠÑģÐ¿Ð¸Ñģ ÐºÐµ
ĠÐĶÐ¾ÑģÑĤÐ°Ð² ÐºÐ°
ĠÐĵ Ð¸Ð´
ĠÐ´ÑĢÑĥÐ³ Ð¾Ð¼Ñĥ
Ð¾Ð¶ ÐµÐ¼
ĠÑĤÐµÐ¾ÑĢ Ð¸Ð¸
ĠÐ¾Ð±ÑĬ ÐµÐ¼Ðµ
t ny
ĠciÄĻ Å¼
ĠÐ»Ð¸Ñĩ Ð½Ð¾ÑģÑĤÑĮ
ÐµÐ½Ñı ÐµÑĤÑģÑı
Ð»Ñı Ð¹ÑĤÐµ
Ġsp rzÄĻ
t noÅĽci
Ġdz is
ĠÐ²ÐºÐ»ÑİÑĩ Ð°ÑĤÑĮ
ĠÑĦ Ð°ÑĢÐ¼
ĠÑģÑĤ ÐµÐ½ÐºÐ¸
ĠÐ¡ Ð¾ÑĤÑĢÑĥÐ´
b il
or Ã³w
Ð± ÐµÐ¶
ĠÐ¾ÑĤ ÑĢÐµÐ·
ĠÐ² Ð¸Ð»
Ġ0 3
Ð¾Ð½ ÑģÑĤÑĢÑĥÐº
Ġzd jÄĻ
ĠÑį ÑĢÐ¾ÑĤÐ¸ÑĩÐµÑģÐº
° ÑĢÐ°Ð½
ĠÐ°ÐºÐºÐ° ÑĥÐ½
µÐ ½
ĠÐ¾Ð´ Ð½Ð¾Ñģ
ĠÐĺÐ³Ð¾ ÑĢÑĮ
Ð¾Ñĩ ÐºÐ°Ð¼Ð¸
ĠÐ¿Ð¾ÑĢÑĤ Ð°Ð»
ĠÐº Ð¾ÑģÑĤÐ¸
ĠÑĢÐ°Ð· ÑĢÐµÐ·
Ñĥ ÑĢÐ°
Ġsie ci
Ġ4 2
ĠÐ¾Ð± Ð¾Ð¹ÑĤÐ¸ÑģÑĮ
ĠÑĤ ÑĥÐ¼
ĠÐ¾ÑĤÐ²ÐµÑĢÑģ ÑĤÐ¸Ðµ
ĠÐ·Ð°ÐºÐ»ÑİÑĩ ÐµÐ½Ð¸Ðµ
Ġpra wa
ĠÐ½Ð°ÑģÑĤ Ð°Ð¸Ð²
Ġgo t
ÅĦ skiego
ÑĥÑī Ð°Ñı
ĠÑģÐ»ÐµÐ´ÑĥÑİÑī ÐµÐ³Ð¾
ĠÐ³ ÐµÐ½ÐµÑĢÐ°
ĠÑĤÑĢÐ°Ð² Ñĭ
ti ve
ĠÐ¼Ð¾ÑĢ Ñī
ĠÐ¿ÑĢÐµÐ²Ð¾Ñģ ÑħÐ¾Ð´
ĠÐºÐ¾Ð» Ð»ÐµÐ
ĠÐ¿Ð¾Ñģ Ð¾Ð²
³Ð ¾Ñģ
ĠÐ¿ÑĢÐ¸Ð³ Ð»Ð°Ñģ
ÐµÐ´Ð ¸ÑĤÐµÑģÑĮ
ĠÐº Ð¸Ð½
ĠÐ¿Ð¾Ð´ÑĢÐ¾Ñģ ÑĤÐºÐ¾Ð²
ĠA by
ĠÐ¶ÐµÐ½Ñī Ð¸Ð½Ñĥ
Ð¾Ð² Ð°Ð½
ĠÐµÐ´Ð¸Ð½ÑģÑĤÐ² ÐµÐ½Ð½ÑĭÐ¹
ÑĤÐ¸Ð ºÐ¾Ð¼
ĠÐ¼ÐµÐ¶Ð´ÑĥÐ½Ð°ÑĢ Ð¾Ð´Ð½ÑĭÑħ
Ġi Å¼
Ġklien tÃ³w
ĠÑģÐ¿ Ð
ĠÐ½Ð¾ÑĩÐ ¸
ĠÐĴÐ¼ÐµÑģ ÑĤÐ¾
ĠÑģÑĥÐ± Ð±
ĠÐ¿ ÑĥÑģÐº
ĠÑĥÑĩ Ð°Ñī
ĠÐ³ÐµÑĢÐ ¾Ñı
ĠÐ¿ Ð¾Ð³Ð¾Ð²Ð¾ÑĢ
Ġinwe sty
ĠÐ§ ÐµÑĢÐ
ĠÐ¿Ð¾Ð»Ð¾Ð¶ Ð¸ÑĤÑĮ
ĠÐ¶ÐµÐ» Ð°Ð½Ð¸Ñİ
ĠÐ´Ð» Ð¸Ð½Ð¾Ð¹
Ġ4 4
ĠÐ¶Ð¸Ð²Ð¾ÑĤÐ ½Ð¾Ð³Ð¾
ĠÐŀ Ðĳ
tycz nych
ĠÐ¿ Ð¸Ð·
ĠÐ´Ð¾Ð±Ð°Ð² Ð¸Ð»
ĠÐ²Ñĭ ÐºÐ»Ð°Ð´
ĠÐŁ Ð¾Ð¶Ð°Ð»ÑĥÐ¹
ĠÐ¼Ð¸Ð»Ð»Ð¸ Ð¾Ð½Ð°
Ð°ÑĢ ÐºÐ°
ĠÐºÐ» Ð¸Ð¼
°ÑģÑĤ ÑĢÐ¾ÑĦ
ÑĢÐ¼ Ð»Ð¸Ð²
Ġsytua cji
ĠÐ¿ÑĢÐ¾Ð² ÐµÐ»Ð¸
ĠÐŁÐ¾Ð¿ ÑĢÐ¾Ð±
ĠÐ²Ð¾Ð¿ÑĢÐ¾Ñģ Ñĥ
ĠÑģÐ»Ð¾Ð¶ Ð½ÐµÐµ
ÅĤ ow
ĠÐ¿Ð¾Ð» Ð¸Ð¼
ÐµÐ² ÑĥÑİ
ĠÐł Ð¾Ð±
ĠÑĩÐ°Ñģ ÑĤÐ¸ÑĨ
ÑĥÐ» Ð¾Ð²
ĠÐĹÐ°Ñĩ ÐµÐ¼
ÑĢÐ¾Ñģ Ð»Ð°Ð²
ĠÐ¼Ð¸Ð½Ðµ ÑĢÐ°Ð»
ĠÐ³ÑĢÐ°Ð¶Ð´Ð°Ð½Ð¸Ð ½
ĠÑĢÐµÐ°Ð ³Ð
ĠÐŁÐµÑĢÐ² ÑĭÐµ
ĠÑĤÐµÑĢÑĢÐ¸ ÑĤÐ¾ÑĢÐ¸
ĠÑĥÑĩ ÐµÑĤÐ
ÐµÐ» ÐµÐº
ĠÑģÐ¿ Ð°ÑĤÑĮ
ĠÑģÑĤ ÑĢÐµÑģÑģ
ĠÐķ ÑīÑĳ
Ð¾Ð½Ð¸Ð »
Ġsta nowi
ĠÑıÑģ Ð½Ð¾
ĠÑĥÐ¿Ð¾ÑĤÑĢÐµÐ± Ð»ÐµÐ½Ð¸Ðµ
Ð³ Ð¸Ð¿
ĠÐľ Ð¸Ðº
li n
ĠÑĦÑĢÑĥÐº ÑĤÑĭ
Ð¾Ð»Ð¾Ð³ Ð¾Ð²
ĠÐ½ÐµÐ±Ð¾Ð»ÑĮÑĪ Ð¾Ðµ
Ð» Ð°Ð¶Ð
ĠÐ²Ð¸Ð´ Ð¸ÑĤ
Ð¤ Ðŀ
Ġ Ð»Ñı
¸ÑĩÐµÑģÐº Ð¸Ðµ
ĠÐĽ ÑİÐ´
Ġd owo
ĠÐ´ÐµÐ¼ Ð¾ÐºÑĢÐ°
ĠÐļ ÑĢÑĭÐ¼
ĠÐ¾Ð±ÑĭÑĩ Ð½ÑĭÑħ
ĠÐ·Ð°ÑıÐ² ÐºÐ¸
ÐµÐ½ÐµÐ ¹
ĠÑģÑĥÑģÑĤÐ°Ð² Ð¾Ð²
ĠÑĢÐµÐ¿ Ñĥ
ĠÐ¾ÑĤÐ´ÐµÐ» ÐµÐ½Ð¸Ðµ
Ġswoje go
ĠÐ²ÑĭÐ¿Ð¾Ð»Ð½Ñı ÐµÑĤ
ĠÐ³ÑĢÑĥ Ð±
ĠÐ¾ÑĢÐ³Ð°Ð½Ð¸Ð· Ð¾Ð²Ð°ÑĤÑĮ
ĠT u
Ð½Ð¸Ðº Ð°Ñħ
ĠÑĢÐ ¸Ñ
ĠÐ´ Ð¸ÑĦÑĦ
ĠÐ¸Ð½ÑģÑĤÑĢÑĥÐ¼ ÐµÐ½ÑĤÐ°
ĠÐºÐ¾Ð¼Ð¸ÑĤÐµ ÑĤÐ°
ĠÐ·Ð´Ð¾ÑĢÐ¾Ð² ÑĮÑİ
Ġpowi nie
ĠÐ¶Ð¸Ð» ÑĭÑħ
ĠÐ²Ð»Ð°Ð´ÐµÐ»ÑĮ ÑĨÐ°
Ñģ Ð¾Ð½
ĠÐ¿ÑĢÐ¸ÑĪ Ð»Ð°
Ð½Ð¸Ð ½
Ð¤ ÐĽ
Ð°Ð½Ðº Ð¾Ð²
Ð¾Ñĩ Ð½ÑĭÐ¼
ĠÐ¿ÑĢÐ¾Ð²Ð¾Ð´ ÑıÑĤÑģÑı
Ð»ÐµÐ³ Ð°Ð½
Ġprzy czy
ĠÐ¿Ð¾ÑĤÐµÐ½Ñ ĨÐ¸Ð°Ð»
ĠÐ¾ÑģÐ¾Ð± ÑĭÑħ
ĠÐ½Ð°Ð²Ñĭ ÐºÐ¾Ð²
ĠÐ¿Ð¾Ð´Ð°ÑĢ ÐºÐ¸
ĠÐ²Ð»Ð¸Ñı ÑİÑĤ
°Ñ ĨÐ¸Ñı
ĠÐ¿ÑĢÐ¾ÑĤÐ¸Ð²Ð¾Ð² Ð¾ÑģÐ¿Ð°Ð»
ĠÑĨ ÐµÐ½Ð°Ð¼
ĠÐ·Ð°Ð³ ÑĢÑĥÐ¶
ĠÐ¾Ð±ÑīÐµÑģÑĤÐ² ÐµÐ½Ð½ÑĭÑħ
ĠÐ·Ð°ÑĦÐ¸Ðº ÑģÐ¸ÑĢÐ¾Ð²
ĠÐĽÐ °
ĠÐ³ Ð°Ð·Ð
ÑĥÐ½Ð º
Ð¾Ð± ÐµÑĤ
ÅĽ ni
ĠÑĪ ÐµÐ¹
P o
ĠÑĢÐµÐ ½
ĠÑģ Ð³Ð¾
ĠÑģÐ¿ÑĢÐ¾Ñģ Ð¸Ð»
ĠÐ·Ð°Ñı Ð²Ð»Ñı
ĠÐ¾ÑģÐ¾Ð± Ð¾Ðµ
ĠÐ¿Ð¾Ð·Ð´ Ð½Ð¾
ĠÑģÐ²Ð¾ÐµÐ² ÑĢÐµÐ¼
ĠÐľÐ°ÑĤÐµÑĢÐ¸ Ð°Ð»
ĠÐ¿Ð¾Ð»Ð¾Ð² Ð¸Ð½Ñĭ
Ġp iÄĻ
ĠÑĤÐµÐ¾ÑĢÐ µ
ĠÐĴ Ð²
Ð¾Ð² ÐºÐ°
ÐµÐ¿Ð °
Ð¾Ð³ ÑĢÐµÐ²
Ġe mail
ĠÐĴÑĭÑģ Ð¾Ðº
ĠÐ²Ð¾ÑģÑģÑĤÐ°Ð½Ð¾Ð² Ð»ÐµÐ½Ð¸Ðµ
ĠÑĦÐ¾ÑĢÐ¼Ð ¸ÑĢÐ¾Ð²Ð°Ð½Ð¸Ðµ
ĠÐ¿ÑĢÐµÐ´Ð¿Ð¾ÑĩÑĤ ÐµÐ½Ð¸Ðµ
ĠÐ»ÐµÐºÐ°ÑĢÑģÑĤÐ² ÐµÐ½Ð½ÑĭÑħ
ĠÑģÐ¼ ÐµÑĤ
ÐµÑĢ Ð¾Ð¹
ĠÐ»Ð¸ÑĨ Ñĥ
ĠÐ¾ÑģÑĥÑīÐµÑģÑĤÐ² Ð»ÑıÑĤÑĮ
ĠÐ»Ð¸Ð½Ð ¸Ñİ
Ġpowo du
ĠÐłÐ°Ð· Ð²
ĠÐŁÑĢ Ð¸Ð±
ĠÑĢÐµÐ± ÑıÑĤ
ĠÐ· ÑĥÐ´
Ð¸Ð» Ð°Ðº
ĠÐ¿ÑĢÐ¸Ð½Ð°Ð´Ð»ÐµÐ¶ Ð¸ÑĤ
ĠÐŀÑĤÐ ¿ÑĢÐ°Ð²
Ġw ÄĻ
Ñı ÑĤÐ¸
ĠÐŁ ÐµÑĤÑĢÐ¾Ð²
ÑĩÐ¸Ðº Ð°Ð¼Ð¸
ĠÐ±Ð» Ð¾Ð½Ð´
ĠÑģÐ¿ ÑĢÐ¾Ð²Ð¾ÑĨÐ¸
ÐĿ Ðł
ĠÐ·Ð°ÐºÐ¾Ð½ Ð¾Ð¿
ĠÐł ÐµÐº
ĠÐ¿ÑĥÐ½Ðº ÑĤÐ¾Ð²
ĠÐ¿ÑĢÐ¾ÑĨ ÐµÐ½ÑĤ
Ġpo za
ĠÑĩÑĥÐ´ ÐµÑģ
ÐµÐµ ÑĤÐµ
ÑĢ ÑĥÑİÑĤÑģÑı
ĠÐ¸Ñģ ÑĤÐµÑĩ
Ĥ Ð°Ð¹
Ġla ta
ĠÐ¿ Ð¸Ðº
Ġza interes
Ġc asino
ĠÐ±ÐµÑĢÐµÐ¼ ÐµÐ½Ð½Ð¾ÑģÑĤÑĮ
ĠÐ¾ÑģÐ²ÐµÑī ÐµÐ½Ð¸Ñı
ĠÑģÐ² Ð°Ð´ÐµÐ±
Ġat rak
Ġp ÅĤa
ĠÑĥÐ·Ð½Ð°Ð µÑĤÐµ
ÐĶ Ðĺ
ĠÐºÐ¾Ð½ÑģÑĤÑĢÑĥÐº ÑĨÐ¸Ñİ
ĠÑĤÑĢÐ°Ð½ÑģÐ¿Ð¾ÑĢ ÑĤÐ½Ð¾Ð³Ð¾
Ð¸Ñı Ð¼Ð¸
ÑĢ Ð¾Ð·Ð°
ĠÑģÐ°Ð» Ð°ÑĤ
ÐµÐ½Ð¸Ð »Ð¸
Ð¸Ð ½ÑĭÐ¹
Ð°Ð» ÐµÐ½
ĠÑĤÐµÑĢÐ°Ð¿ Ð¸Ñı
ĠÑħÐ¾Ð» Ð¾Ð´Ð½Ð¾Ð¹
ĠÐ¼Ð¾Ð´ ÐµÑĢÐ½Ð¸Ð·
Ð°Ð½ ÑģÐ¾Ð²
ĠÐ¿ÑĢÐµÐ´ ÑĪÐµÑģÑĤÐ²
ĠÐ¸Ð ±Ð¾
ĠÐ¼ÑĥÐ· ÐµÐ¹
cz ony
ĠÑģÑĤÑĢÐ¾Ð¸ÑĤÐµÐ»ÑĮ Ð½ÑĭÑħ
ĠÐ¿ÐµÑĩÐ° ÑĤÐ¸
ÑĢÐµÐ³ ÑĥÐ»Ð¸ÑĢÐ¾Ð²
ÐµÐ½Ð¸ ÑĤÐµ
Ð¸ÑģÑĤ ÑĭÑħ
ĠÑĢÑĥÐºÐ¾Ð²Ð¾Ð´ ÑģÑĤÐ²Ð¾Ð¼
ĠÐ²ÑĭÐ¸Ð³ ÑĢÑĭ
Ð»Ñı Ð
ĠÑĢÐ°Ð· Ð¼Ðµ
Ġu moÅ¼li
ĠÐ¾ÑģÑĥÑīÐµÑģÑĤÐ² Ð»ÐµÐ½Ð¸Ñı
ĠÐ¾ÐºÑĤÑı Ð±
ĠÑĢÐ°ÑģÐº ÑĢÑĭÐ²
ĠÐ¾Ð¿ ÑĥÑģ
ĠÐ²Ð¾Ð· Ð³Ð»Ð°Ð²
ĠÐŁ Ð°Ñģ
ÐµÐ¼ ÑģÑı
ĠÐºÐ¾ÑĢÐ¾ÑĤÐº Ð¸Ðµ
Ð¸Ð² Ð°Ð»Ð°
Ġcze ka
ĠÐ¾Ð¿ÑĢÐµÐ´ÐµÐ» ÐµÐ½Ð½ÑĭÐ¹
ĠÐ°ÑĢ ÑĤÐ
ĠÐ¸Ð³ÑĢÑĥÑĪ ÐºÐ¸
ĠÑĤÑĢÐ°Ð´ Ð¸ÑĨÐ¸Ð¸
Ġcho dzi
ĠprzedsiÄĻ bior
Ġwy gra
Ġin dy
ĠÐ¿ Ð¸Ð³
Ð¸Ð² Ð°Ñİ
ĠÑģÐ¾ÑĢ ÑĤÐ¾Ð²
ĠÐ¿Ð»Ð°Ñģ ÑĤÐ¸ÐºÐ°
ĠÑģÐ¼ ÐµÐ»Ð¾
Ġce nt
ĠÐ¿ÑĢÐ¾Ð² Ð¾Ð»
Ġp rywa
ĠÐ¾ÑĤ ÑĩÐµ
ĠÑģÐµÐ¼ ÑĮÑİ
ĠÐ¾Ð±ÑĬÐµÐ´ Ð¸Ð½
ĠÐ´ ÐµÐ±
ÑĤÐ¾Ñĩ Ð½ÑĭÐµ
ĠÑĪ Ð°Ð¿
ĠÐ´ÐµÐ» Ð°Ð¼
ĠÐºÑĢÑĥÐ³Ð» Ð¾ÑģÑĥÑĤÐ¾Ñĩ
ĠÐ¿Ð¾Ð´ÑĩÐµÑĢÐºÐ ½ÑĥÐ»
ĠÐ´ÐµÐ½ÑĮ Ð³
ĠÐºÐ¾Ð½ÑĤ ÐµÐºÑģ
ĠÐŁ ÑĢÐ¾Ñĩ
ĠÑģÐµÑĢÑĮÐµÐ· Ð½ÑĭÑħ
ÐµÐ½ ÑģÐ°
ĠÐ¾Ð± ÐµÐ
ĠÑĢÐ¸Ñģ ÑĥÐ½Ð¾Ðº
ĠÐ±Ð» ÐµÑģÑĤ
ĠMi ni
ĠÐ¿Ð¾Ð· Ð²
· Ð¶
ĠÐ·Ð°Ð´Ð¾Ð»Ð¶ ÐµÐ½Ð½Ð¾ÑģÑĤÐ¸
ĠwzglÄĻ du
ĠÐºÑĢÑĭ ÑĪÐ¸
ĠÐ½Ð°Ð³ÑĢÑĥÐ· ÐºÑĥ
ĠÐ²Ð¾ÐµÐ½Ð ½Ð¾Ð¹
ĠÐ±ÑĭÑģÑĤÑĢ Ð¾Ð³Ð¾
ĠÐ£Ð² Ð°Ð¶
ĠÐŀÑĤÐ ¼
ĠÐķÐ²ÑĢÐ¾Ð¿ ÐµÐ¹
ĠÐ¿Ð» Ð¾Ð´Ñĭ
Ð´ ÑĢÑĥÐ³
Ñ ĤÐ°Ð¹
ĠÐºÐ°ÑĩÐµÑģÑĤÐ² ÐµÐ½Ð½Ð¾
ĠÑĩ Ð»ÐµÐ½Ñĭ
ĠÐ³Ð»ÑĥÐ± Ð¾ÐºÐ¾
Ð¾Ð»Ð¾Ð³ Ð¸ÑĩÐµÑģÐºÐ°Ñı
ĠÐ¿Ð¾Ð´ÑĢÐ¾Ð± Ð½ÐµÐµ
ĠÐĺÐ· Ð´
ĠÐ½Ð°Ð»Ð¾Ð³ Ð¾Ð¾Ð±
ÑĤÐ¾ÑĢ Ð¾Ð¶Ð½Ð¾
ĠÐ´Ð¸Ð°Ð³ Ð½Ð¾ÑģÑĤÐ¸
ri i
Ġs kÅĤada
ĠÑĤÐ¾ÑĢ ÑĢÐµÐ½ÑĤ
ĠÐ²ÑĭÐ¸Ð³ ÑĢÑĭÑĪ
5 7
ÐµÐ½ÐµÐ½Ð ¸Ñı
ĠÐ²ÑĭÑģ Ð¾ÑĤÑĥ
ĠÐ´Ð¾Ð¿Ð¾Ð»Ð½Ð¸ÑĤÐµÐ»ÑĮ Ð½Ð¾Ð¹
ĠÐ¾ÑģÐ»Ð¾Ð¶ Ð½ÐµÐ½Ð¸Ñı
Ð½Ð¸ÑĨ ÐµÐ¹
ĠÐŁÑĢÐ¸Ð½ ÑĨÐ¸Ð¿
ĠÐŁ Ð¾Ð½Ñı
Ð¾Ð² Ð°Ð½Ñĭ
.... ....
ÑĤÑĥ ÑĢÐ°
ĠÑĤÐµÐ» ÐµÐº
ĠÑĨÐ¸Ðº Ð»Ð°
ĠÑĪ ÐµÑģÑĤÐ¸
ĠÐºÐ¾Ð¶ ÐµÐ¹
ĠÑ ĨÐµ
ĠwiÄĻk szo
ĠÐºÐ¾ÑĢ Ð½ÐµÐ²
ºÐ ¾ÑĢÐ´
ĠÐ¿ÑĢÐ¾Ñĩ Ð¸ÑĤÐ°ÑĤÑĮ
ĠÐ¾Ð±Ñī ÐµÑģÑĤÐ²Ð¾
ĠÑģÐµÑĢÑĮÐµÐ· Ð½ÑĭÐµ
Ð¾Ñĩ Ð½ÑĥÑİ
we st
Ġpraw dzi
ĠÐ¾ÑĤÐ¼ÐµÑĩ Ð°ÐµÑĤÑģÑı
ĠÐ·Ð°Ð´ Ð°Ð½Ð¸Ñı
ĠÐ¶ÐµÐ» Ð°Ð½Ð¸Ð¸
ÑĥÑĪ Ð°ÑĤÑĮ
ĠÐ¼Ð°ÑĢÐºÐµ ÑĤÐ¸Ð½Ð³
ĠÐ£ ÑĩÐ¸ÑĤ
ĠÐ¼ÐµÐ½ ÑģÑĤÑĢÑĥ
Ð¾Ð± Ð¸Ð»
ĠÐ¾Ð±Ð» Ð¸ÑĨ
ĠÐĲ Ðļ
ĠÐ²Ð¾Ð´Ð¸ÑĤ ÐµÐ»Ñı
ĠÐºÐ °ÑĤÐ
ĠÐ¿Ð¾ÑģÑĤÐ¾ÑıÐ½Ð ½Ð¾Ð³Ð¾
Ġbi z
liwo ÅĽci
ÐµÐ½Ñ ĨÐ°
ob i
ĠÐ¿ÑĢÐ¸Ð²Ð °
ĠÑĥÐ´Ð¾Ð± Ð½ÑĭÐ¹
ĠÐ°Ð¿ Ð¿ÐµÑĤÐ¸
ĠÐ¾Ð¿Ð°Ñģ Ð½Ð¾ÑģÑĤÑĮ
Ð¾Ð² ÑĮ
½Ð¾Ñģ Ð»ÑĥÐ¶
ĠskÃ³ ry
ĠÑĥÐ¿Ð¾ÑĤÑĢÐµÐ± Ð»ÐµÐ½Ð¸Ñı
ĠÐ¿Ð¾Ð» Ð¸Ñį
Ġi sto
ĠÐ²ÑģÐµÐ² Ð¾Ð·Ð¼Ð¾Ð¶
ĠÐ½ÐµÐ¿ ÑĢÐµÑĢÑĭÐ²
de s
ĠÐ´Ð¾ÑģÑĤÐ¸Ð³ Ð°ÐµÑĤ
ĠÑģÑĤÐ¾ÑĢ Ð¾Ð½Ð½Ð
ĠÑģÐ¾Ð´ÐµÑĢÐ¶ Ð°Ð½Ð¸ÐµÐ¼
Ð°ÑĢÐ ±
ĠÐŁ ÐµÐ½
bie ga
ĠÐ·Ð°Ð¿Ð°Ñħ Ð
ĠÐĴ ÐĲÐĹ
ĠÐ² ÑĥÐ»ÐºÐ°Ð½
ĠÑģÐ¾Ð²ÑĢÐµÐ¼ ÐµÐ½Ð½Ð¾Ð¼
ĠÑģÐ½Ñı ÑĤÐ¸Ñı
ĠÐľ Ð°ÑĤ
Ðĵ Ðĺ
ĠÐ¿Ð¾Ð´Ð³Ð¾ÑĤÐ¾Ð² ÐºÐµ
ĠÐ´Ð°Ð² Ð°Ð¹ÑĤÐµ
Ġkra ju
ĠÑģÐ¾Ð´ÐµÑĢÐ¶ Ð°ÑĤÑĮ
Ġpomo c
Ġro k
ĠÑĢÐ°Ð· Ð½Ð¸ÑĨÐ°
Ð¸Ð±Ð ¸
Ġo pera
ĠÐŀ Ð·
ĠÑĢÐ°Ð·Ð³ Ð¾Ð²Ð¾ÑĢ
ĠÐºÐ²Ð°ÑĢÑĤÐ¸ ÑĢÐ°
Ġpro mo
ĠÐ¿ Ð¾Ð¹ÑĤÐ¸
Ġpro ces
Ġk sztaÅĤ
Ðľ Ðķ
ĠÐł Ð
Ġw tedy
ĠÐ´Ð¾Ð» Ð³Ð°
Ð¼Ð°Ð³Ð°Ð· Ð¸Ð½Ðµ
ĠÐ·Ð°Ð½ ÑıÑĤÑĮÑģÑı
ĠÐ¼ÑĭÑģÐ» ÑĮ
ĠÐ´Ð¾Ð¼Ð°ÑĪ Ð½ÐµÐ³Ð¾
ĠÐľÐµÑĤ Ð¾Ð´
ĠÑĢ Ð¾Ð·Ð
ĠÐ´Ð¾Ð» Ð³Ð¾ÑģÑĢÐ¾Ñĩ
ĠÐ´Ð¾ÑĢÐ¾Ð³ Ñĥ
¾ ÑĢÐ°Ð½Ð¶
ĠÐ¿ÑĢÐ°Ð²Ð¸Ð»ÑĮ Ð½ÑĭÐ¹
Ġcho Äĩ
sz czÄĻ
ĠÐļÐ¾Ð½Ñģ ÑĤÐ¸ÑĤÑĥÑ
ĠÐ¸Ð½ ÑĨ
Ġ Ð½ÑĳÐ¼
ĠÐ¤ Ð¸Ð»ÑĮ
ĠÐ¾Ð¿ ÑĥÑģÐº
Ð½Ñĥ Ð»Ð°
Ġwie lo
ĠÑħ Ð¸ÑĤ
Ñģ ÐµÐ´
Ġin nymi
ĠÐ³Ð» ÑİÐº
Ð°Ð² Ð¸ÑĤÑĮ
ÑĤÐ¸Ñĩ Ð½ÑĭÐ¹
ĠÐ¿ÑĢÐ¾Ñģ ÑĤÑĭÐ¼
Ð¾Ð¹Ð´ ÑĳÑĤ
ĠÑģÑĤÐ°Ð² ÐºÑĥ
ĠÐ¢ Ð¸Ð¼
ĠkaÅ¼dy m
ĠÐ¼ Ð½ÐµÐ½Ð¸Ñı
ĠÐ±Ð¾Ð»ÑĮÑĪ Ð¾Ð¼
Ð ¾ÑĢÐ°Ð½Ð¶
ĠÑİ Ð¶
ĠÑģ Ñģ
ĠÑģÐ¾Ð² ÐµÑĤÐ¾Ð²
6 9
ĠÐ¿ÑĢÐ¾ÑĤÐ µÑģ
cie l
Ġm as
ĠÑĦÐ¾ÑĤÐ¾Ð³ÑĢÐ°ÑĦ Ð¸Ð¹
ĠÐ¿ÑĢÐ¸Ð²Ð»ÐµÐº Ð°ÑĤÐµÐ»ÑĮ
Ð¸Ð»ÑĮ Ð½ÑĭÐ¹
ÑĤÐµÑĢÐ µ
Ġog rom
ĠÑģÑĤÑĢÐ°Ñħ Ð¾Ð²Ð°Ð½Ð¸Ñı
ĠÐ¼Ð¾ ÑĤÐ¾ÑĢ
en s
Ġco dzien
ĠÑĥÐ½Ð¸Ðº Ð°Ð»ÑĮÐ½ÑĭÐ¹
li ng
Ġch cia
ĠÐ²Ð½ÐµÑģ ÑĤÐ¸
ĠÐ¿ÑĢÐ¾ÑĨÐµÑģÑģ Ñĥ
Ġzak resie
Ð½Ð ºÐ¸
Ġle p
ĠÐ² Ð¸Ð½Ð°
Ð¾Ð´ Ñı
ÑĢÐ¾Ñģ Ð¸ÑĤÑĮ
ĠÑģÐ¸Ð½ ÑĤÐµ
ÑıÑİÑī Ð¸Ðµ
ĠÐ¿ÑĢÐ¸Ðº Ð»Ð°Ð´
ĠÐ¥Ð¾Ñĩ Ñĥ
Ð¾Ð²Ð ¸
ÐĶ Ð»Ñı
Ġpoz wo
ĠÐŁÐ¾Ð¼ Ð½Ð¸ÑĤÐµ
ĠÑĦÐ°Ñģ Ð°Ð´
Ð¾Ñ ĨÐ¸Ð°Ð»ÑĮ
Ð± ÐµÐ·
ĠÐ½ÐµÐ² ÐµÑģ
ĠÐ¿Ð¾Ð½Ð µÐ´
ĠC asino
ĠÑģÐ¾Ð¾ÑĤÐ²ÐµÑĤÑģÑĤÐ² Ð¾Ð²Ð°ÑĤÑĮ
ĠÐ¿ÑĢÐµÐ¸Ð¼ ÑĥÑīÐµÑģÑĤÐ²Ð¾
ĠÐ± Ð°Ñģ
g nie
ĠÑĥÑģÑĤÐ°Ð½Ð¾Ð² Ð»ÐµÐ½Ð¾
ĠÐ¿ÑĢÐ¾Ð½Ð¸ÐºÐ ½Ð¾Ð²
ĠÑģÐ»ÑĥÑĩ Ð¸Ð»Ð¾ÑģÑĮ
ĠÑĥÐ´Ð°Ð» ÐµÐ½Ð¸Ðµ
ĠÐ½Ð°ÑģÑĤ Ð¾Ð¹
ĠÑĢÐ¾Ð´ Ð¸ÑĤÐµÐ»ÑĮ
ĠÐ¸Ð½Ð´ ÐµÐºÑģ
Ġda ne
ĠÐ¿Ð¾Ð»ÑĮÐ· ÑĥÐµÑĤÑģÑı
ĠÑģÐ» Ð¾ÑĤÑĭ
ĠÐ¼ÐµÑĤ ÑĢÐ°
ĠÐ²ÑĭÐ±Ð¾ÑĢ Ð¾Ð¼
Ñģ ÐµÑĤ
Ġce n
Ġs ub
ĠÐ»ÑĮ Ð³Ð¾
ĠÐ°Ð´ÑĢÐµÑģ Ð
ĠÑıÐ² Ð»ÐµÐ½Ð¸Ñı
ÑĥÑĪ ÐµÐ½Ð¸Ðµ
Ñĩ ÐµÐ»
3 00
Ġpro stu
ĠÐ´ ÑĢÐ¾Ð±
ĠÐ²ÑĭÐ· ÑĭÐ²
ĠÑĢÐµÐ »ÑĮ
ĠÐ¸Ð³ ÑĢÐ¾ÐºÐ¸
ĠÐ³Ð¸Ð¿Ñģ Ð¾ÐºÐ°ÑĢ
Ġbu dow
ĠÐ¾Ð» Ð¸Ð²
ĠG ro
ÑĳÐ½Ð ½ÑĭÐ¹
cze k
Ġch ÅĤo
ÑĪÑĥÑİ ÑģÑı
Ð¸Ð¿ Ð¿
ĠDla tego
ÐµÑ İÑī
ĠÑĥÐ´Ð¾Ð± ÑģÑĤÐ²Ð°
ĠÐ²ÐµÐ´ ÑĥÑīÐ¸Ñħ
ÐĹ Ð
ÑĥÑħ Ð¾Ð²
ĠÑģ Ð¾ÑĢÑĤ
ĠÑĩ ÐµÑĢÐµÐ¿
ĠÐ´ÐµÑĤ ÑģÐºÐ¸Ðµ
Ġza war
ĠÐ¿ÑĢÐ¸Ð²ÐµÐ´ ÐµÑĤ
Ġ18 0
ĠÐ²ÑĭÑģ Ð¾ÑĤÑĭ
Ġe uro
ĠÐ´ Ð¾Ð½Ð
ĠÐ¿ÑĢÐµÐ± ÑĭÐ²Ð°Ð½Ð¸Ñı
ĠÐ¿Ð¾ÐºÐ°Ð·ÑĭÐ² Ð°ÑİÑĤ
ĠÐĲ ÑģÑģ
ĠÐ¸Ð½ÑĤÐµÑĢÐµÑģ Ð½ÑĭÑħ
ĠÐ¼Ñı Ñĩ
ĠÑĦÐ¸Ð½Ð°Ð½ÑģÐ¾Ð² Ð¾Ð¹
Ġwypo sa
Ġwy nika
ĠÐ¾ÑĤÑģÐ» ÐµÐ¶
ÑĤÐ¸ÑĢÐ¾Ð² Ð°Ð»
ĠÐ¼ÐµÑģ ÑĤÐ½ÑĭÐµ
ĠÑģÑĦ ÐµÑĢÑĭ
i um
ĠÐ¾Ð´Ð ½
ĠÑĥÐ¿ Ð¾Ð¼ÑıÐ
ĠÑĤÐ¾ÑĢÐ³ Ð¾Ð²ÑĭÑħ
ĠÐ¿Ð°ÑĢÐ°Ð¼ ÐµÑĤÑĢÐ¾Ð²
Ð°Ð± Ñĭ
ÐµÐ¹Ñ Ĥ
ĠÐŁ ÑĢÐ¾ÑģÑĤ
ĠÑįÐºÑģÑĤ ÑĢÐ°Ðº
Ð´ Ð¾Ð¼
ĠÑģÑĨ ÐµÐ¿
t nych
ĠÐºÐ¾Ð½ ÑĤÐ¾ÑĢÐ°
ĠÑĪ Ð¸Ð¿
Ġy our
Ð°Ð³ Ð½Ð¾Ñģ
iÄĻ dzy
5 2
ĠÐ² Ð¾Ð»Ð½
ĠÑĢÐ°ÑģÑģÐ¼Ð¾ÑĤÑĢ ÐµÐ½Ð¸Ñı
ĠÐ±ÐµÑĢÐµÐ ³Ñĥ
ĠÑĢÐ°ÑģÐ¿Ð¾Ð»Ð¾Ð¶ ÐµÐ½Ð¸Ðµ
Ð¼ Ð°ÑĢ
ĠÐľ Ñį
ĠÐ´ÐµÐ¼Ð¾Ð½ÑģÑĤ ÑĢÐ¸
ĠÐºÐ°Ð¶Ð´ Ð¾Ðµ
ĠÐ¾ÑĤÐ¿ ÑĥÑģÐºÐ°
ĠÐ²Ð·Ñı Ð»
Ð½ÐµÐ ¶
ĠÐ¿ÑĢÐµÐ´ÑģÑĤÐ°Ð² Ð»ÐµÐ½Ð°
ĠÑĤÐµÑħÐ½Ð¸ÑĩÐµÑģÐº Ð¸Ñħ
ÐºÐ¾Ð² Ð¾Ðµ
ĠÑģ ÐµÑĢÐ
ÑĤÐ¸Ð ½Ð¾Ð²
¸Ñģ Ð
ÑĥÐ½ÐºÑ ĨÐ¸Ð¾Ð½Ð°Ð»ÑĮ
ĠÐ´ Ð¾Ð»Ð¸
ĠÑĪÐº Ð¾Ð»Ð°
Ġma sz
ĠÑģ ÑĥÐ²
âĢ ľ
ĠÐ¿Ð» ÐµÐ¼
ĠÐ½Ð¾Ð² ÑĭÐ¼Ð¸
ĠÐļ Ð°Ð½Ð°Ð
ĠÐ½ÐµÐ¼ÐµÐ´ Ð»ÐµÐ½Ð½Ð¾
ĠÐĲÐ½Ð ½Ð°
ĠÑģÐ¼ÐµÑĢ ÑĤÑĮ
ĠÑĥÑĩ Ð°ÑīÐ¸ÑħÑģÑı
ĠÐ¿Ð¾Ð½Ñı ÑĤÐ¸Ðµ
ĠÐ±ÐµÑĤ Ð¾Ð½Ð°
Ð¸Ð°Ñ ĤÑĥ
ĠÐ·Ð²ÐµÐ·Ð´ Ñĭ
ÑıÑĤ Ñĭ
owie m
ĠÐ·Ð°ÑģÐµÐ´ Ð°Ð½Ð¸Ð¸
³Ð µÑĢ
Ð°ÐµÐ² Ð
ĠÐĶ Ð°Ð½Ð½ÑĭÐµ
ĠÐļÐ¾Ð¼ Ð¼ÐµÐ½ÑĤÐ°
ĠÐ´ÐµÐ¹ÑģÑĤÐ² ÑĥÑİÑĤ
ÐµÐ½Ð µÑĨ
ĠÐ¡Ð¿ ÑĢÐ°Ð²
ĠÐ·Ð°Ð¿Ð¾Ð» Ð½Ð¸ÑĤÑĮ
ĠÐ³ ÑĥÑģ
Ġz re
ÐµÑģÑģÐ¸ Ð¾Ð½Ð°Ð»ÑĮ
ĠÐºÐ¸Ð» Ð¾Ð¼ÐµÑĤÑĢÐ¾Ð²
ĠÐ¿Ð¾Ð´ÐºÐ»ÑİÑĩ Ð¸ÑĤÑĮ
ĠÐ¡ÑĤÐ°ÑĤÑĮ Ñı
ĠÐĺÐ½ Ñģ
ĠÑıÐ² Ð»ÐµÐ½Ð¸Ðµ
ÐµÐ½Ð½Ð¾Ñģ ÑĤÐµÐ¹
ĠÐ¾Ð±Ð¾ÑĢ Ð¾Ð½Ñĭ
ĠÐĴÐ½Ð¸Ð¼ Ð°Ð½Ð¸Ðµ
tu ra
ĠÐ´Ð¾ÑģÑĤ Ð¾Ð¿ÑĢÐ¸Ð¼ÐµÑĩÐ°ÑĤÐµÐ»ÑĮ
k owych
ÐĴ Ðķ
ĠÐ¿ÑĢÐµÐ´Ð¿Ð¾ÑĩÐ¸ÑĤÐ°Ñ İÑĤ
Ġwy ra
ĠÐ¾ÑĤÐ¼ÐµÑĩ Ð°ÐµÑĤ
ĠÐ£Ð´ Ð¾Ð±
ĠÐ¿Ð¾Ñģ ÑĭÐ»
dz iaÅĤa
Ð±Ð ¸ÑĢÐ°Ñı
ĠÐ¿Ð¾Ð³ ÑĢÑĥÐ¶
le ga
ÑĤÐ¾ ÑıÑĤ
ĠÑģÐ°Ð½ÑĤÐ¸Ð¼ ÐµÑĤÑĢÐ¾Ð²
ĠÑĥÑģÑĤ Ð°Ð²
ÑĢÑı Ð´Ð°
ÑĢÐ¾Ñģ ÑĤÐ¾
ĠÑĤÐµÑĢÐ°Ð¿ ÐµÐ²
ĠÐ¿Ð¾ÑĤÐ¾Ð» Ð¾Ðº
ĠÐ¿ÑĢÐ¾Ð´Ð¾Ð»Ð¶ Ð°ÑĤÑĮ
us e
ĠÑģÐ¾Ð ºÐ°
ĠÑģ ÑĢÐµÐ·
ĠÑĨÐµÐ» Ð¾Ñģ
tu re
ĠÐ¿Ð»Ð°ÑĤÐµÐ¶ ÐµÐ¹
ĠÐľ Ð¸ÑĢ
Ġk r
ĠÑįÐºÑģÐ¿ÐµÑĢ ÑĤÐ¾Ð²
ĠÐĹ Ð°Ñħ
ĠÐ¸ÑģÑĤÐ¾Ñĩ Ð½Ð¸ÐºÐ¸
Ġdzi ÅĽ
ĠÐºÐ¾Ð½ÑĨ Ñĥ
ÑĦ Ð¾ÑĢÐ¼Ð°
ĠÐ¾Ñħ ÑĢÐ°Ð½Ñĭ
ĠÑģÐ»ÐµÐ´ÑĥÑİÑī ÐµÐ¹
Ġrodza ju
5 6
ĠÐľ ÐµÐ»
ĠÐ²Ð· Ð´
ĠÑģÐ°Ð¼ ÑĥÑİ
Ġmy ÅĽ
Ġprzy j
ĠÑıÑĢ ÐºÐ¸Ðµ
ÑĤÐµÑĢ Ð¿
ĠÐ°ÑģÑģ Ð¾ÑĨ
ÑĨ Ð°Ñħ
ĠÑģÑĤÐ¾Ð» Ð¸ÑĨÑĭ
ÑĢÐ¾ÐµÐ ºÑĤ
ĠÐ´Ð¾Ð¿ÑĥÑģÐº Ð°ÐµÑĤÑģÑı
ĠÑģÐ²Ð¾Ðµ Ð¾Ð±ÑĢÐ°Ð·
Ð¸Ð´ Ð½Ð¾Ð¹
ĠÑĢÐ°ÑģÑģÑĩÐ¸ÑĤ ÑĭÐ²Ð°ÑĤÑĮ
Ð¸ÑĪ ÐºÐ¸
ĠÑģÐ»ÑĥÐ¶ Ð¸ÑĤÑĮ
ĠÐ¶ÐµÐ»ÐµÐ· Ð½Ð¾Ð´Ð¾ÑĢÐ¾Ð¶
g ÅĤ
ĠÐ² ÐµÐºÐµ
Ġn um
ĠÐ´Ð°Ð½Ð ½Ð°Ñı
ĠÐ´Ð¾ÑĪ ÐºÐ¾Ð»ÑĮ
¾Ñĩ Ð½ÑĭÑħ
ĠÐ²Ð°Ð¶ Ð½Ð¾Ðµ
Ð¡ Ðŀ
ĠÐŁÐµÑĢÐµÐ ²
ÐµÐº ÑĨÐ¸Ð¸
ĠÐ°ÑĤÐ¼Ð¾ÑģÑĦ ÐµÑĢÑĥ
ĠÐºÐ°Ð¿ Ð»Ð¸
ĠÐºÐ¾ÑĢ Ð½Ð¸
ĠÐĴ Ðļ
ĠÐ² ÐµÐ·Ð´Ðµ
ĠÑĢÐ°ÑģÑģ Ð¼Ð¾ÑĤ
ĠÐ¼ÐµÐ´Ð¸Ðº Ð°Ð¼
ĠÐ½ÐµÐ´Ð¾Ñģ ÑĤÐ°ÑĤÐ¾Ðº
D F
ĠÐºÑĢÐ¾Ð² Ð¾Ð¾Ð±
ĠP ier
° ÑĥÑĤ
owa li
ĠÐ°Ðº ÑĨÐ¸Ñı
Ð°Ñī Ð¸Ðµ
Ġh and
ĠÑħ Ð¸Ñī
tor Ã³w
ie l
Ð¸Ð· Ð°ÑĨÐ¸Ñİ
ĠÐķÑģ ÑĤÐµÑģÑĤÐ²
ĠÐ¿Ð¾ÑģÑĤ ÑĢÐ¾ÐµÐ
Ġznaj du
d ent
ĠÐ¿ÑĢÐ¸Ð± Ð¾ÑĢ
ĠÐĹ Ð½Ð°ÐºÐ¾Ð¼
ĠÐºÐ¾Ð¼Ð¿ Ð¾Ð½ÐµÐ½ÑĤ
mu la
ĠÑģÐ¸Ð»ÑĮ Ð½ÑĭÐµ
Ġw nios
ĠÑģÐµÑĢÑĮÐµÐ· Ð½Ð¾
Ð°Ð¶ Ð´Ð°Ñı
ĠÐ´ ÐµÐ´
ĠÑĦ Ð¾Ð»ÑĮ
ĠÐĵ Ð¾ÑĤ
ĠÐ¡Ð¿ÐµÑ ĨÐ¸Ð°Ð»ÑĮ
el l
ĠÑģÐµÑĢÑĮ ÑĳÐ·
z dy
ĠÐºÐ°Ð» ÐµÐ½Ð´
ru s
ĠÐ¸Ð¼ÐµÑİÑī Ð¸Ðµ
ĠÐ¸Ð·ÑĥÑĩ ÐµÐ½Ð¸Ñı
ĠÐ£ÑģÐ» Ð¾Ð²Ð¸Ñı
M A
ĠÐ² ÑĤÐ¾ÑĢÐ°Ñı
Ġ: )
ĠÐ¡Ð¿ Ð¸ÑģÐ¾Ðº
ĠÐŁ ÐµÑģ
ĠÐ² ÑħÐ¾Ð´Ð°
ĠÑĢÐ°ÑģÑĤÐ²Ð¾ÑĢ Ð¾Ð¼
Ġ200 3
ĠciÄħ gu
Ġs wÃ³j
ĠÐ²Ð¿ Ð¸Ñģ
ĠÐ´ÐµÐ¿Ñĥ ÑĤÐ°ÑĤ
ĠÐ·Ð°Ñģ ÑĤÑĢÐ¾Ð¹
ĠÐ·Ð°Ð¹ ÑĤÐ¸
ÑĢÐ°Ñģ Ð¿
201 3
ĠÑĢ Ð¾Ð±
Ġdzie n
ĠÑĢÐ°Ð· Ð½ÑĭÐ¼
ĠR os
ĠÐ±ÑĭÑģÑĤ ÑĢÑĭÐ¹
ĠÐ¿ÑĢÐ¾Ð³ ÑĢÐµÑģ
ĠÐ½Ð°Ð»Ð¾Ð³Ð¾Ð² Ð¾Ð¹
ty m
Ð¼Ðµ Ñı
ĠÐ¼ÑĥÐ·Ñĭ ÐºÐ¸
ĠÐŁÐ¾ÑĢ ÑıÐ´Ð¾Ðº
ĠÑĩÐ¸ÑģÑĤ Ð¾Ð¹
Ġd i
ĠÐ´ÑĥÑĪÐ °
ĠÐŃ Ð¼
ĠÐ¾ÑĤÑĤÐµÐ½Ð ºÐ¾Ð²
Ð°Ð½ ÑģÐºÐ°Ñı
ĠÑģÐ¿Ð¾ÑģÐ¾Ð±ÑģÑĤÐ² ÑĥÑİÑĤ
li Äĩ
ĠÑįÐºÐ¾Ð½Ð¾Ð¼ Ð¸ÑĩÐµÑģÐºÐ¾Ð¹
Ð¸Ð² Ð°Ð½Ð¸ÐµÐ¼
an ce
Å¼ one
Ġ0 7
ĠÑģÐ² ÐµÑĩ
ĠÐ²Ð¸ÑĤÐ°Ð¼ Ð¸Ð½Ñĭ
ĠÐ¸ÑģÑģÐ»ÐµÐ´ Ð¾Ð²
ĠÑĥÐ²Ð¸Ð´ Ð¸ÑĤÐµ
ĠÑįÐºÑģÐ¿ ÐµÑĢÑĤ
Ð°Ð» ÐµÐºÐ¾
ta cji
zu mie
ĠÑĢÑĭ Ð±Ð°
ĠzwiÄħz ku
ĠÐ·Ð°ÑĢÐ°Ð±Ð¾ÑĤÐ ½Ð¾Ð¹
ĠÑĤÐ¾Ñĩ ÐºÑĥ
ÑĢ Ð¸Ð³
Ġwo dy
ĠÐºÐ¾Ð½ÑĤ ÑĢÐ°Ñģ
T ube
ĠÐ¿Ð¾Ð¿ÑĥÐ»ÑıÑĢ Ð½Ð¾ÑģÑĤÑĮÑİ
ĠÐ¥Ð°ÑĢÐ°Ðº ÑĤÐµÑĢÐ
c on
ĠÑģÑħ ÐµÐ¼
Ġod by
ĠÐ°Ð´ ÐµÐºÐ²Ð°
ĠÐ°Ð³ ÑĢÐµÐ³
ÑĢÐ¾Ð¸Ð »
Ðº Ð»Ð°ÑģÑģ
ĠÐ³ Ð¸Ð½ÐµÐº
ÐĿ Ðļ
·Ð °
ĠÐŁÐµÑĢÐ² Ð¾Ðµ
Ð°Ð¹ ÑĦ
ĠÑĢÐ°Ð´ Ð¾ÑģÑĤÑĮ
ĠÑĥÑħ Ð¾Ð´Ð¸ÑĤ
ĠÑģÐ¿ÑĢÐ°Ð² ÐµÐ´Ð»Ð¸Ð²
ĠÐ¶Ð¸Ð·Ð ½ÑĮÑİ
5 8
wie l
ĠÐķ Ð¼Ñĥ
5 00
Ġprzedsta wi
ĠÐºÐ¾Ð½ÑĨ ÐµÑĢ
Ġot war
ĠÐ¸ÑģÐº ÑĢÐµÐ½Ð½Ð
ĠÑĥÐºÐ°Ð· Ð°Ð½Ð½ÑĭÑħ
Ñĥ ÑĢÐ¾Ð²
ĠÐ¾Ð´ÐµÐ¶ Ð´Ð°
p as
ĠÐ¿Ð¾Ð´Ð¾Ð± Ð½Ð¾Ð³Ð¾
ĠÐ¿Ð¾ÑģÐ¾Ð± Ð¸Ñı
Ð ¸ÐµÐ¹
ÑĢÑĥ Ð¶Ð¸
Ð¾ÑĢ Ð¾Ð³Ð¾
ĠÐ²ÑĭÐ±Ð¸ ÑĢÐ°ÑİÑĤ
ĠÐºÐ°ÑĤÐ°Ð» Ð¾Ð³
Ñĭ ÐºÐ½Ð¾Ð²
Ġm us
ĠÐ¾Ð±Ð µ
ĠÐ¿ÑĢÐµÐ¸Ð¼ÑĥÑīÐµÑģÑĤÐ² ÐµÐ½Ð½Ð¾
ĠÐ·Ð°Ñģ ÑĭÐ¿
ĠÐºÐ°Ð¿ Ñģ
ĠÐ¿ Ð½ÐµÐ²
ĠÐ¿ÑĢÐ ¾ÑĢ
ĠÐ¿ÑĢÐ¾Ñĩ Ð½Ð¾ÑģÑĤÑĮ
ĠÐ± Ð¾Ð´
ĠÐ´Ð¾ÑĢÐ¾Ð³ Ð¾Ð¹
ĠÑĢÐµÐ¶ Ð¸ÑģÑģ
ĠÐļÐ¸ ÑĤÐ°Ñı
Ġme dy
¸ÑĩÐµÑģÐº Ð¸Ñħ
Ð¸ÑģÑĤ ÑĭÐµ
ĠÐ¢ ÐµÑħÐ½
ĠÐ½ÐµÑĢÐ² Ð½Ð¾Ð¹
ÐµÐ¼Ð ¸ÑĢÐ
ĠSz cze
ĠÐ·Ð°Ð¿ÑĢÐµÑī ÐµÐ½Ð¾
Ð¾Ð» ÐµÑĤÐ¾Ð²
Ð·Ð µ
ĠÐ¿Ð¾ÑĢÐ °
¸ÑĨ ÐµÐ¹
ĠÑĦÐ¸Ð³ ÑĥÑĢ
ĠÐ´ÐµÐ½ÐµÐ¶ Ð½ÑĭÐµ
wycza j
°Ñ ĤÐ¾Ð¼
Ð¾ÑĢ ÑıÐ´
ĠÑĢÐ°Ð ºÐ°
ĠÐ¾Ð´Ð ½Ð¾Ð·Ð½Ð°Ñĩ
ĠÐ²Ð»Ð°Ð´ÐµÐ»ÑĮ ÑĨÐµÐ²
ĠÑģ Ð°Ð¿
ĠÐ¿ÑĢÐ¸Ðº Ð»ÑİÑĩ
ĠÑĢÐµÑģÑĥÑĢ ÑģÑĭ
ĠÐºÑĢÐ°Ñģ Ð°Ð²
Ð» Ð¾Ð±
ÑĤÐ ¾ÑĤÑĥ
ĠÐ¿Ð¾Ð· Ð¸ÑĨÐ¸Ñİ
Ð¾ÑĤÐ ¸ÑĤÑĮÑģÑı
ĠÐ±ÑĥÐ´ ÑĮ
ĠÐ¼ Ð¾ÑĤÐ
ĠÐ·Ð°Ð¿ Ð»Ð°Ð½Ð¸ÑĢÐ¾Ð²
ĠÑģÐ¿ ÐµÐºÑĤÐ°Ðº
Ð°Ñĩ ÐºÐ¸
niej szych
³Ð ¾ÑĨ
ĠÐ¿ÑĢÐ¾ÑĦÐµÑģÑģÐ¸Ð¾Ð½Ð°Ð»ÑĮ Ð½Ð¾Ð³Ð¾
ĠÐĿ Ðļ
Ð¼ Ñı
ĠÐ¿ Ð°Ñħ
ĠÐŀÑģÐ½Ð¾Ð² Ð½Ð°Ñı
ÑĢÑĥ ÑģÑĤ
ĠÐ³ ÑĥÐ¼
ĠÐ´Ð¾Ð±Ð°Ð² ÑĮÑĤÐµ
ĠÐ§ Ð°ÑģÑĤÑĮ
ĠÑģÐ¼ Ñģ
ÐµÐ½Ð °Ñı
Ġpra wo
ĠÐ¾ÑĤ ÑģÑĤÐ°Ð²
ĠÐ²ÑĭÑıÑģ Ð½Ð¸ÑĤÑĮ
ĠÐŁÑĢÐ¾ÑĨ ÐµÐ´Ñĥ
ĠÐ²Ñĭ ÑĢÐ°Ð²Ð½Ð¸Ð²
ĠÐĳ Ð¾Ð³Ð°
ĠÑĩ Ð»ÐµÐ½Ð°
ĠÐ´Ð¾Ð±Ð°Ð² Ð»ÑıÑİÑĤ
ĠÐ»Ð¸Ð´ ÐµÑĢ
Ġp ÅĤat
Ð°ÑĤ ÑĭÐµ
ĠÐ¿ÑĢÐ¾Ð¿ ÑĥÑģ
ĠÑģÐ¾Ð±Ð¸ ÑĢÐ°ÐµÑĤÑģÑı
ĠÐ·Ð° ÑĢÐ°Ð±Ð°ÑĤÑĭÐ²Ð°ÑĤÑĮ
ĠÐ¿ÐµÑĢÐµÐ ³Ð¾ÑĢÐ¾Ð´
ĠÑģÐ¼ÑĭÑģ Ð»Ð°
7 8
ĠÐºÐ¾ÑĪ ÐµÐº
ĠÑıÐº Ð¾Ð±Ñĭ
ĠÐ± Ð°ÑĤ
Ð¾Ð»Ð¾Ð³ Ñĥ
Ð¾Ð³Ð °Ñı
Ġza ÅĤo
ÑĥÑī ÐµÐ¹
ĠÐ³Ð» ÑĥÐ¿
ĠÅĽwia ta
ĠÑģÐ»ÐµÐ´ ÑģÑĤÐ²Ð¸Ðµ
Ġca ÅĤy
Ð°Ð´ Ð¶
ĠÐ´ÐµÐ²ÑĥÑĪ ÐºÐ¾Ð¹
ĠÐ¼Ð¾ÑĩÐ ¸
ĠwaÅ¼ ne
ĠÐŁÐ¾ÑģÑĤ Ð°Ð½Ð¾Ð²
ĠÐ²Ñĭ Ð»ÐµÑĩ
ĠÐ¿ ÐµÑĩÐ¸
ĠÐ¿ÐµÑĢÐµÐ´ Ð°ÑĤÑĮ
ĠÐ¾Ð±Ñī ÐµÑģÑĤÐ²Ðµ
Ġpo pra
ĠÑĥÐ·Ð½Ð°Ð ²
Ð¾Ð¸Ð »
ĠT or
ĠÐ¿Ð¾Ð·Ð½Ð°ÐºÐ¾Ð¼ Ð¸ÑĤÑĮÑģÑı
l ny
ÑĢ Ð¾Ð¶Ð´
Ðº Ñģ
ĠÑĨÐµÐ» ÐµÑģÐ¾Ð¾Ð±ÑĢÐ°Ð·
ĠS te
ĠÑģÐ»ÑĥÐ¶ Ð±Ð°
ĠÑĢÐ°Ð·Ð´ÐµÐ» Ð¸ÑĤÑĮ
ĠÐ¡ Ðļ
ĠÐ´ Ð°Ð»Ð¸
Ĥ ÐµÐ´
ĠÑģ ÑĢÐ°Ð¶
ĠÐ±Ð»Ð°Ð³Ð ¾Ñģ
Ñ ĤÐµÐ´
ĠÐ´Ð¾Ð¼ Ð°Ñħ
ĠÐº ÑĢÐµÐ
ĠÐ¸Ð ½Ð¾Ð³Ð¾
ĠÐ¸Ð¼ ÐµÐ»Ð¸
ĠÐŁ Ð¾Ð»Ð¸
ĠÐ¿ÑĢÐ¾ÑĦÐµÑģÑģÐ¸Ð¾Ð½Ð°Ð»ÑĮ Ð½ÑĭÑħ
Ð¾ÑĢÐ ½ÑĭÐ¹
ÐĴ ÐŁ
ĠÑģÐ¿ÑĢÐ°Ð² Ð
ĠÐ¿ÐµÑĢÑģÐ¾Ð½Ð°Ð »Ð°
ĠÐ¿ÑĢÐ¾Ðº Ð¾Ð½ÑģÑĥÐ»ÑĮ
ĠÐ·Ð°Ð³ Ð°Ð´
Ð¿ Ñĥ
ĠT i
ĠÐ¾ÑĤÑĤ ÐµÐ½ÐºÐ¸
ÑĢÐ°ÑĦ Ñ
ÑĢÐ°ÑĦÑ Ĥ
ĠÐ¿Ð¾Ð» Ð¸Ð²
ĠÐļÐ¸ ÐµÐ²Ðµ
ĠP R
ĠÐ¸Ð½Ð³ÑĢÐµÐ´Ð¸ ÐµÐ½ÑĤÑĭ
ĠÐ¿ÑĢÐ¸Ð´ÐµÑĢÐ¶ Ð¸Ð²Ð°ÑĤÑĮÑģÑı
Ġg waran
ĠÑģÐº Ð»
ĠÐ²ÑĭÑģ ÑĭÑħ
ĠÐ¿Ð¾Ð¼ÐµÑī ÐµÐ½Ð¸ÑıÑħ
ĠÑģÐ¿ ÐµÑĢÐ¼
ÑĢÐµÐº Ñģ
ĠÑģÐ¼ ÐµÐ»
Ġ ÐµÐ»
ĠÐ¿Ð¾Ð´ Ð³
ĠÑĤÑĢ ÑĳÑħ
ĠÑģÐ¾Ñħ ÑĢÐ°Ð½ÐµÐ½Ð¸Ñı
ĠÐ´Ð¾ÐºÑĥÐ¼ÐµÐ½ ÑĤÐ°ÑĨÐ¸Ð¸
da ch
ĠÐ²ÑĭÐ³ Ð¾Ð´Ð½Ð¾
ĠÑĢÑĭ Ð±Ñĥ
° ÑĥÐ´
ĠÑģÐ¾Ð¾ÑĤÐ²ÐµÑĤÑģÑĤÐ² ÑĥÑİÑīÐ¸Ñħ
ĠÑģ ÑĥÑĤÑĮ
ĠÐ¸Ð¼Ð¿ ÑĥÐ»ÑĮ
Ð¸Ð½Ð ºÐ¾Ð¹
ĠÐŀ ÐĲÐŀ
ĠÐ¿Ð¾Ð´Ð´ÐµÑĢÐ¶ ÐºÐµ
ĠÐ´Ð² Ð°Ð¶Ð´Ñĭ
ĠÐ¿ÑĢÐ¾Ð´ ÐµÐ¼Ð¾Ð½ÑģÑĤ
ĠÐ´Ð¾ÑģÑĤÑĥÐ¿ Ð½Ð°
Ð³ Ð¾Ð´Ð°
j cie
Ġt rak
ĠÐĴÐ»Ð°Ð´Ð¸Ð¼Ð¸ ÑĢÐ°
ÑĤÐ¾ÑĢÐ ½ÑĭÑħ
Ġv i
ĠÐ¶ÑĥÑĢÐ½Ð°Ð» Ð¸ÑģÑĤ
Ð½Ð µÑĢÑĭ
Ġtra dy
ĠÐµÐ¶ÐµÐ³ Ð¾Ð´Ð½Ð¾
ÑĤÐº Ð°Ð¼
ĠÐ¸Ð½ÑĦÐµÐº ÑĨÐ¸Ñı
ĠÐ¼ÐµÐ´Ð¸ÑĨ Ð¸Ð½Ñĭ
ĠÐŀÑĤÐ µÑĩÐµÑģÑĤÐ²
ĠÐŁ Ð¾Ð³
ĠÑĢÐ°Ð· ÑĢÐ°Ð±Ð°ÑĤ
ĠÐ¿ÑĢÐ¾ÑĦÐµÑģÑģÐ¸Ð¾Ð½Ð°Ð»ÑĮ Ð½Ð¾Ð¹
m nia
ĠÐºÐ¸Ñģ Ð»Ð¾ÑĤÐ°
u jÄħ
ĠÐ¿Ð¾Ð± ÐµÐ´Ñĥ
ĠÑģÐ¿ÑĢÐ°Ð²Ð °
Ġin sta
ĠÑĦ ÑĢÐ°Ð³
ĠQ u
Ð°ÑħÐ °
ĠÐ½ÐµÐ¿ Ð¾Ð²
Ġkra j
Ġwsze l
ĠÐ´Ð»Ð¸Ð½Ð ½ÑĭÐµ
ĠÐ²Ð¿ Ð»
ĠÐ²Ð½ÐµÑĪ Ð½ÐµÐ³Ð¾
ĠÐºÐ¸ÑĢÐ¿ Ð¸ÑĩÐ°
ĠÑĤÑĢÑĥÐ´ Ð½Ð¾ÑģÑĤÐ¸
ĠÐŁ ÑģÐ¸Ñħ
201 2
ĠÑĩ Ð°Ñı
Ð»ÑıÐ ½
ÑĤÐ¸ ÑĤÐµÑģÑĮ
Ð´Ð ½Ð¾Ð¹
ĠÐŁÑĢÐ ¾ÑĪ
ĠÐ²Ð¾ÑģÐ¿ Ð¾Ð¼Ð¸Ð½Ð°Ð½Ð
ĠÐ¿Ð°ÑĨÐ¸ ÐµÐ½ÑĤ
ÑĤÐ°Ñ Ħ
Ġro dzin
ĠÑĥÑĩÐ¸ÑĤ ÑĭÐ²Ð°Ñı
ĠÐ¼Ð¸Ð»Ð»Ð¸Ð °ÑĢÐ´
ÐºÐ¾Ð² ÑĭÐ¹
ĠÑģÐ² ÐµÑĤÐµ
ĠÐºÐ¾ÑĢ ÑĢÐµÑģÐ¿Ð¾Ð½Ð´
ĠÐĺ ÐĿ
ĠÐ½Ð°Ñĩ Ð½ÐµÑĤ
ĠÐĵ Ð¾ÑĤÐ¾Ð²
ĠÑĢÐµÐ ºÐ¾ÑĢÐ´
ĠÐ¿Ð¾Ð»ÑĮÐ·Ð¾Ð² Ð°Ð½Ð¸Ñı
Ġproje kt
ĠÑĢÐ°ÑģÑģÐ¼Ð°ÑĤÑĢ Ð¸Ð²Ð°ÑĤÑĮ
Ġprzez na
ĠÐ¿ ÑĪ
ĠÐ¸Ð³ ÑĢÐ°ÑİÑĤ
Ġth at
ĠÑģÐ¸ÑĤÑĥ Ð°ÑĨÐ¸Ð¹
ĠÐ·Ð°ÐºÐ°Ð½ ÑĩÐ¸Ð²
ĠÐ³ ÑĢÐµÑħ
ÑĤÐ¸Ð²Ð µ
ĠÐ¿Ð¾ÑģÐ»ÐµÐ´ Ð½ÐµÐ¹
ĠÐ¿Ð¾Ð»Ð¾Ð² Ð¸Ð½Ðµ
Ġo cze
ĠÐ² Ð¾ÑĢÐ¾ÑĤ
ĠÑĤ ÑĢÐ¾Ð¼Ð±
ĠÑįÐºÑģÐ¿ÐµÑĢ ÑĤÑĭ
ÑĢÐµÐ¶ ÑĮÑĤÐµ
ĠÐ¡Ð¸Ð¼Ð¿ÑĤÐ¾Ð¼ Ñĭ
ÑģÐº Ð¾ÑħÐ¾Ð·ÑıÐ¹
Ġzd jÄĻcia
ĠÐ¿Ð¾ÑģÐ¾Ð± Ð¸Ðµ
ĠÐĴ Ð°ÑĪÐ¸
ĠÐ»Ð¸ÑĤÐµÑĢÐ°ÑĤÑĥ ÑĢÑĭ
Ġkonku r
¾Ñĩ ÐºÐ¸
Ð»ÐµÑĩ ÑĮ
ĠÐĴ Ð°ÑĢ
Ġda w
ĠczÄĻ ÅĽÄĩ
ĠÐ¾Ð± Ð¾ÑĢÐ
Ġw in
ĠÐ²ÑĭÑĪ Ð»Ð°
ÑĥÐ¶Ð´ ÐµÐ½Ð¸Ðµ
ĠÐ²ÑĢÐµÐ¼ ÐµÐ½
ĠÑģÐ¸Ð» Ð¾Ð¹
ĠÐ¾Ð±Ñī ÐµÐ½Ð¸Ðµ
Ð¾Ð°Ð½Ð °Ð»
ĠÑĥÑħ Ð¾Ð´Ñĥ
Ġb ran
Ġsko rzysta
Ð°Ð¹ Ð»Ð¾Ð²
ĠÐĴÐ¸Ðº ÑĤÐ¾ÑĢ
ĠÑĦÑĥÐ½Ð´Ð°Ð¼ ÐµÐ½ÑĤÐ°
ĠÐ´Ð¾ÑģÑĤÑĥÐ¿ ÐµÐ½
ÐºÐ°Ð· Ð¸Ð½Ð¾
ÐµÑĢÐ° ÑĤÐ¾ÑĢ
ĠÐ±Ð¸Ð» ÐµÑĤÑĭ
ĠÐ·Ð°ÐºÐ°Ð½ Ñĩ
ĠÑģÐ°Ð¼ Ð¸Ð¼
ĠÑģÐ°Ð¼ Ð¾Ñĩ
Ð¸Ð·Ð ¸ÑĢÑĥÐµÑĤ
ĠAu to
ĠÐ¡ Ð¸Ð»
Ġzosta ÅĤy
ĠÐ½ÐµÐ¿Ð» Ð¾Ñħ
ÑıÑī Ð¸Ð¼Ð¸
ĠÐ¿Ð» ÐµÐ½Ð
ÑĤÐ¸Ð² Ð½Ð¾Ð¼
ĠÐ´Ð¾Ð»Ð³ Ð¾Ðµ
ÐºÐ° ÑĢÐ¼Ð»Ð¸Ð²
Ð °ÑĥÑĤ
ÐĿÐĺ Ð¯
ĠÐ¿Ð¾Ð´Ð³Ð¾ÑĤÐ¾Ð² ÐºÐ°
ÑĥÑģÑĤÑĢÐ¾Ð¹ ÑģÑĤÐ²Ð°
Ð¾Ð»Ð½Ñı ÐµÑĤÑģÑı
ĠÐ¿Ð¾ÑħÑĥÐ´ ÐµÑĤÑĮ
Å¼ na
ĠÐĵ Ð°ÑĢ
lo ne
Ð°ÐµÐ¼ Ð°Ñı
ĠÐ¼ÐµÑģ ÑĤÐ¾Ð¼
ĠÐĺÐ³ ÑĢÐ°
ĠÐ·Ð°Ð±Ð¾Ð»ÐµÐ²Ð°Ð½Ð¸Ñı Ñħ
tion s
ĠÑģÐ½Ð¸Ð¶ Ð°ÐµÑĤÑģÑı
ĠÑĤÑĢÐ°Ð½Ð ·
Ð°ÑĨÐ¸Ð¾Ð½Ð ½ÑĭÐµ
ĠÐºÐ¾Ð¼Ð¼ÐµÐ½ÑĤÐ° ÑĢÐ¸Ñı
da Äĩ
ĠÑģÐ¾Ð² Ð¼ÐµÑī
ĠÐ¾Ñģ ÑĤÐ°ÑĤÑĮÑģÑı
Ġwyko ny
ĠÐ¾Ñħ Ð¾ÑĤÐ½Ð
ĠÐ¶ÐµÐ» Ñĩ
Ð½Ð¸ÑĤÐµÐ»ÑĮ Ð½Ð¾
ĠÐ²Ð¾Ð·Ð¼Ð¾Ð¶ Ð½Ð¾ÑģÑĤÑĮÑİ
ĠÑģÐº Ð¾Ð¿
ĠÐ¿ÑĢÐ¾Ð´ Ð°Ð¶Ñĥ
ĠÐ²Ð»Ð°Ð´ ÐµÐ»ÐµÑĨ
ĠÐºÐ¾Ð½ÑĦÐµÑĢÐµÐ½ ÑĨÐ¸Ð¸
ĠÐĿÐ°Ð· Ð²
ĠÑįÐº ÑĢÐ°Ð½Ðµ
ĠÐ¿ÑĢÐ¾Ð² Ð¾Ð´Ð°
Ġkom ple
ÑĤÐ¸Ð ¼Ð¾
ÐĽ Ð¯
¾Ñģ Ð¿Ð¾ÑģÐ¾Ð±
ĠPo la
Ð¾Ð¿ Ð¾Ð»ÑĮ
ĠÐ´ÐµÑĤ ÑģÑĤÐ²Ð°
Ġ0 2
Ġpro c
ÑģÑ Ĩ
ĠÑĢÐ°Ð ºÐ¾Ð²
Ġwarto ÅĽci
ĠÐ¾ÑģÐ½Ð¾Ð² Ð°Ð½Ð¸Ðµ
ĠÐ´Ð» Ð¸ÑĤÐµÐ»ÑĮÐ½Ð¾Ð³Ð¾
ĠÑģÐ²Ð¸Ð´ÐµÑĤÐµÐ»ÑĮÑģÑĤÐ² ÑĥÐµÑĤ
ĠÐ¿Ð°ÑĢÑĤÐ½Ð µÑĢÐ¾Ð²
ĠÑĢÐ°Ð¹ Ð¾Ð½Ð°Ñħ
stÄħ pi
Ð»ÐµÑĤ Ð¾Ðº
ĠÐ¾Ð¿ Ð»Ð°ÑĤÐµ
ĠÐ²ÑĭÐ· ÑĭÐ²Ð°ÑĤÑĮ
ĠÐ³ ÑĥÐ»Ñı
ĠÐ¢Ð°ÑĤÑĮ ÑıÐ½Ð°
ĠÐ£ ÑģÐ¿
Ġn or
ĠT en
ĠÑģ Ð¸Ð³Ð°ÑĢÐ
ĠÐ²ÑĭÑģÐ ¾ÑĤÐ°
ĠÑĤÐ° ÑĢÐµÐ»
Ð°Ð±Ð ¾
ĠÐ½Ð°ÑĨÐ¸Ð¾Ð½Ð°Ð»ÑĮ Ð½Ð¾Ð¹
g no
ĠÐ¿Ð°Ð½ÐµÐ »
pa nia
ĠÐºÐ°Ð¼ ÐµÑĢÑĥ
ĠÐ°ÑĢÐµÐ½Ð´ Ñĥ
ĠÑĢÐ°ÑģÑģÐºÐ°Ð· Ð°Ð»Ð¸
ĠÐ±ÐµÑģÐ¿ Ð¾ÐºÐ¾Ð¹
Ġprofes j
ÑĤÐ¸Ð ³
ĠÐ¿ÑĢÐ¸Ð· Ð½Ð°Ð»
ĠÐ¾ÑģÑĤ Ð°Ð»ÑģÑı
Ġ20 23
¾ ÑĤÐ¾ÑĢ
ĠÐ¾Ð±ÑıÐ· Ð°Ð½Ñĭ
ÑĢÐ¾Ð µÑĤÑģÑı
k er
ĠÑģÐ²Ð¸Ð´ÐµÑĤÐµÐ»ÑĮ ÑģÑĤÐ²Ð¾
U R
ÑĢÐ°Ð´ Ð¸ÑĨÐ¸Ð¾Ð½Ð
ĠÑģÐ¾ÐµÐ´ Ð¸Ð½
Ð· Ð¾ÑĢÐ°
f on
ĠÐŁÐ¾Ð² ÑĭÑĪ
6 3
ĠÐ³Ð°ÑĢÐ´ ÐµÑĢ
ĠÑĢÐ°Ñģ ÑģÑĤÐ°Ð²
ĠÐĴÑĭÐ± ÐµÑĢÐ¸ÑĤÐµ
Ġt owarzy
ĠÐĵ ÐµÐ½Ðµ
ĠÐ½Ð°ÑĪ ÐµÐ»
ĠÐ¢ Ðļ
ĠÐĺÐ½ÑĤÐµÑĢ Ð½ÐµÑĤÐµ
Ð¾Ð¶ ÐµÐ½Ð¸Ðµ
ĠÐ²Ð¿ Ð¾ÑģÐ»ÐµÐ´ÑģÑĤÐ²Ð¸Ð¸
Ð±Ð µÑĢÐµÐ¼
ĠÐ´Ð¾Ð±Ð°Ð² Ð»ÑıÑĤÑĮ
ĠÐ²Ð¾ÐµÐ½Ð ½Ð¾ÑģÐ»ÑĥÐ¶
Ġu zna
star czy
ĠÐ³Ð¸Ð¼ Ð½Ð°Ñģ
ĠÐ¾Ð¿ Ð»Ð°ÑĤÐ¸ÑĤÑĮ
Ġwi do
Ð¸Ð² Ð°Ð»Ð¸ÑģÑĮ
ĠÐ¼Ð¾Ð±Ð¸Ð»ÑĮ Ð½Ð¾Ð³Ð¾
ĠÐ¡ ÑĢÐ°Ð·Ñĥ
ĠÐ³Ð°ÑĢÐ¼ Ð¾Ð½Ð¸Ñĩ
ĠÐ²Ð½ÐµÑĪ Ð½Ð¸Ñħ
ĠÑħÐ ¾ÑĤÐ¸Ð¼
ĠÑģÐ± Ð¾ÑĢÐ½Ð¾Ð¹
ĠR y
ĠÐĿÐĶ Ð¡
Åº dzie
ĠÐĽ ÑĥÐº
Ġspe ÅĤ
Ð» ÐµÑģ
ĠÑĦÐ¸Ðº Ñģ
ĠÑģÐºÐ°Ð· Ð°Ð»Ð¸
ĠÐŁÑĢ Ð¸Ð½Ð¸Ð¼
ĠÐ»Ð¸Ñĩ Ð½ÑĭÑħ
or ld
ĠÑĥÐ»ÑĥÑĩÑĪ Ð°ÐµÑĤ
ĠÐ·Ð°Ð² Ð¾Ð´Ð°
ĠÑĤÐµÑĢÑĢÐ¸ ÑĤÐ¾ÑĢÐ¸Ñı
ĠÐ²Ð· Ð±
ĠÑĥÐ² Ð»Ð°Ð¶
ĠÑįÑĦÑĦÐµÐº ÑĤÑĭ
Ġkom pu
³Ð¾ ÑĢ
dz one
Ð¸ÑĤ ÐµÐ»Ñİ
Ġnowo czes
ĠÐ¶Ð¸Ð» Ð¾Ð³Ð¾
ÑĤÑĥ ÑĢÑĭ
ĠÐ°Ð¿ Ñ
ĠÐ°Ð¿Ñ Ĥ
ĠÐ¾ÑĤÐ² Ð°ÑĢ
ĠÐ°Ð½Ð°Ð» Ð¾Ð³
ĠÐ§ ÐµÐ»ÑıÐ±
ĠÑįÐº Ñģ
ÑĢÐµÐ °Ð
ĠÐ¢ Ñĥ
Ð¸ÑĤ ÑĢ
ĠÐĺÑģÐ¿Ð¾Ð»ÑĮÐ· ÑĥÐ¹ÑĤÐµ
ĠÐ± Ð°ÑĪ
g h
ĠÐĶ Ð¾ÑģÑĤ
Ð¾ÑĢÐ ¸ÑĤ
ÑĥÑĪ ÐºÐµ
Ñģ Ð¾ÑģÑĥÐ´
ĠÐ°Ð»Ð ³Ð¾ÑĢÐ¸ÑĤÐ¼
ĠÐ» Ð¸ÑĦ
ĠT V
ĠÑĤÐµÐ»ÐµÑĦ Ð¾Ð½Ð¾Ð²
ĠÐ²ÐµÐ´ ÐµÐ½Ð¸Ñı
Ð¾Ð¿ ÑĢÐ¾Ð¸Ð·Ð²
p ia
6 2
ĠÐ¿ ÐµÑģÐ
Ġcie p
ĠÐ²Ð¿Ð» Ð¾ÑĤÑĮ
Ġna rzÄĻ
ĠÑģÐ¾Ð¾Ð±Ñī Ð¸Ð»Ð°
ÐµÐ¿ Ð¾Ð·Ð¸
Ðº Ð¾Ñģ
ĠÐ²Ð¾Ð· Ð¾Ð±Ð½Ð¾Ð²
ĠÐ¿ÑĢÐ¾Ð²ÐµÑĢ ÐºÐ°
ĠÑĤÑĢÑĥÐ´ Ð¾Ð²Ð¾Ð³Ð¾
ĠÐºÐ¾Ð¼ÑĦ Ð¾ÑĢÑĤ
ĠÐ¾ÑģÐ¾Ð± Ð¾Ð³Ð¾
ĠÐ³Ð»Ð°Ð²Ð µ
ÑĢÐ¾Ð¸Ð· Ð¾Ð»ÑıÑ
ĠÐĿÐ°ÑĤÐ°Ð»ÑĮ Ñı
ĠÐ¿Ñĭ ÑĤÐ°ÑİÑĤÑģÑı
ĠÑĦ Ð°Ð±
ĠÐ¾Ð±ÑģÑĤÐ¾ÑıÑĤÐµÐ»ÑĮ ÑģÑĤÐ²Ð°
ro c
ĠÐ¿ÑĢÐ¾ÑĤÐ¸Ð² Ð¾Ñģ
k Ã³ÅĤ
ĠÐ¾ÑĦÐ¸ÑĨÐ¸Ð°Ð»ÑĮ Ð½Ð¾Ð³Ð¾
ĠÐ´Ð¾ÑģÑĤÐ°Ð² ÐºÐ¾Ð¹
ĠÐ¿Ð¾Ð´ÑħÐ¾Ð´ ÑıÑīÐ¸Ð¹
ĠÐ³Ð¾Ñģ ÑĤÐ¸Ð½Ð¾Ð¹
Ð °ÑĥÐ´
ĠÐķ Ðĵ
ĠÐ½Ð°Ð¸Ð »
ĠÐ²ÑĭÐ¿Ð¾Ð»Ð½ ÑıÑİÑĤ
ĠÐ¼ Ð¾Ð´Ñĥ
ĠÑģÐ°Ð´ Ñĥ
ĠÐ¼Ð°ÑĤÐµÑĢÐ¸Ð°Ð» Ð¾Ð¼
star cza
ĠÐĺ Ñī
ĠÐ³Ð°ÑĢÐ°Ð½ ÑĤÐ¸ÑĢÑĥÐµÑĤ
ĠÑĢÐ¾ÑģÑģÐ¸Ð¹ ÑģÐºÐ¸Ðµ
ĠÑģÐ²Ð¾Ð± Ð¾Ð´Ð½Ð¾
ĠÐ¾ÑĤ ÐµÐº
Ð°ÑģÐ °
Ð½Ð°Ð³ ÑĢÐ°Ð¶Ð´
li ka
ĠÐ½Ð°ÑģÑĤÑĢ Ð¾Ð¸ÑĤÑĮ
Ð¡ Ðº
ĠÐŁ ÐĴ
ĠÐ²ÑĭÑģÐ¾Ðº Ð¾Ð¼
ĠÐ¸Ð·Ð± ÐµÐ³Ð°ÑĤÑĮ
ĠÐ³Ðµ Ð¾Ð¼ÐµÑĤ
ĠÐ¾ÑĤÐ¿ ÑĥÑģ
no mi
ĠÐ¼Ð¸ÐºÑĢÐ¾Ð ¾ÑĢÐ³Ð°Ð½Ð¸Ð·
ÑĥÐ ½ÑĮ
ÑĥÑĤÑģÑĤÐ² Ð¸Ðµ
ĠÐĶ Ð²Ð°
ĠÑģÐ¾Ð±ÑģÑĤÐ² ÐµÐ½Ð½Ð¾ÑģÑĤÑĮ
Ġ4 7
ĠÐĺÑĤÐ°Ð» Ð¸Ð¸
ĠÐ·Ð°Ð²ÐµÑĢÑĪ ÐµÐ½Ð¸Ñı
ĠÐºÐ¾ÑĢÐ¾Ð± ÐºÐ¸
Ð¸Ð² Ð°ÐµÑĤÐµ
ĠÐ·Ð°ÑĢÐ¿Ð» Ð°ÑĤÑĭ
Ġwsp ar
ro na
ĠÑĤÑıÐ¶ÐµÐ» ÑĭÑħ
ĠÐºÐ¾Ð¼Ð¿ ÑĢÐµÑģÑģ
ÑĥÐ½Ð ³
ĠÑĥ Ð¼Ð¸
Ð¸Ð¼ Ñĭ
ĠÐľ Ð¸Ð½Ð¸Ð¼
dz ÄĻ
ĠÐ²Ð¾Ð·Ð¼Ð¾Ð¶ Ð½ÑĭÐµ
Ð¾ÐµÐ ¹
ĠÐłÐ°Ð± Ð¾ÑĤ
ĠP an
ÑģÐ¾Ð² ÑĭÑħ
ĠÑģÐ¾Ð¼ Ð½ÐµÐ²
ÑĤÐ¸ÑĢÐ¾Ð² ÐºÐ¸
ĠÐ¿Ð¾Ñħ Ð¾Ð¶Ðµ
ĠÐ¿ÑĢÐ°Ðº ÑĤÐ¸Ðº
Ð§ Ð¡
ĠÑĤÑĢÐ°Ð½ÑģÐ¿Ð¾ÑĢ ÑĤÐ½ÑĭÑħ
ĠÐŁÐ°ÑĢ Ð¸Ð¶
ĠÐ¿ÑĢÐµÐ´ÑĥÑģÐ¼Ð¾ÑĤÑĢ ÐµÐ½Ð¾
ĠÐĲ Ð½Ð°ÑĤ
ĠÐ½Ð ¸ÑĤ
ĠÐ¢ Ð¾ÑĤ
ĠÐŁ ÑĥÑĪ
ĠÑģÐ½Ð¸Ð¼ Ð°ÑĤÑĮ
ĠÐļ Ð°Ð¶Ð´Ð°Ñı
Ð¸Ð¿ Ð
ÐµÐ½ ÑģÐºÐ¸Ð¹
ĠÐ¿ÐµÑĪ ÐµÑħ
ĠÐ¿Ñĭ Ð»Ð¸
Ġofer ty
ĠÐºÐ¾Ð½ ÑĤÐ¾ÑĢÑĭ
ĠÐĺÑĢ Ð¸Ð½Ð°
ĠÐºÑĥÑħ Ð½Ñı
ĠÐ¿ÑĢÐ¸Ð¾Ð±ÑĢÐµÑĤ ÐµÐ½Ð¸Ðµ
Ġindy widu
ĠÐ´Ð¸ÑģÑĤ Ð°Ð½Ñ
ĠÐ· Ð¾Ð½Ñĥ
ĠÐ°Ð³ÐµÐ½ÑĤ ÑģÑĤÐ²Ð°
ÅĤe ÅĽ
ĠÐ¿ÑĢ Ð¸Ð¹
ĠÐ²Ñĭ Ð¼
ĠÐ·Ð°Ð²ÑĤ ÑĢÐ°
ĠÐ¡ÑĥÑīÐµÑģÑĤÐ² ÑĥÑİÑĤ
ĠÑħÐ°ÑĢÐ°ÐºÑĤÐµÑĢÐ¸Ð· ÑĥÐµÑĤÑģÑı
ÑĤÐ¾Ð² ÑĭÐ¹
Ġsp Ã³ÅĤ
ĠÐ±ÐµÐ» ÐºÐ°
Ġz go
ĠÐ¡ÑĤ Ð°Ð»
ĠÑĢÐ°Ð· Ð½Ð¾Ð³Ð¾
ĠÐ²Ð½Ð¸Ð· Ñĥ
ĠÐ¼ÐµÐ´Ð¸ÑĨÐ¸Ð½ ÑģÐºÐ¾Ð³Ð¾
ĠÑģÐµÑĢÐ´ÐµÑĩ Ð½Ð¾
ĠÑģÑĤÐ° ÑĢÑĭÐ¹
ĠÐ´Ð¶ Ð¸Ð½
ĠÐ£ Ð»
ar mo
ĠÑģÐº ÑĢÐ¾Ð¼
ne craft
ĠÑĦÐµÐ´ÐµÑĢÐ°Ð»ÑĮ Ð½Ð¾Ð³Ð¾
ĠÐĴ Ð½ÐµÑĪ
ĠÐ¸Ð½ÑĤÐµÑĢ Ð½ÐµÑĤÐ°
Ġu li
ĠÐ¿ÑĢÐµÐ´Ñģ ÑĤÐ¾ÑıÑī
ĠÑĢÐ°Ð±Ð¾ÑĤÐ¾Ð´ Ð°ÑĤÐµÐ»Ñı
ĠÐ°ÐºÐºÑĥ ÑĢÐ°
a u
ĠÑĤÐµÑħÐ½Ð¸ÑĩÐµÑģÐº Ð¸Ðµ
ĠÐŁÑĢÐ°Ð² Ð¸ÑĤÐµÐ»ÑĮÑģÑĤÐ²Ð°
ĠÐ½ÐµÑĥÐ´ Ð°Ñĩ
ĠÐ¿Ð¾Ð¿Ð°Ð´ Ð°ÐµÑĤ
ĠÑĥÑħ Ð
w in
ĠÐ¼ÐµÐ» ÐºÐ¸Ñħ
pie ro
ĠÐ¥Ð ¾ÑĤÐ¸ÑĤÐµ
Ñĳ ÑĤÐµ
ĠÑĨ Ð¸Ð²Ð¸Ð»
Ð¾Ð» Ð¾Ð´
ĠÐºÐ¾Ð»Ð»ÐµÐº ÑĨÐ¸Ð¸
ĠÅĽro dowis
ĠÑį ÑģÑĤ
Ð¸Ð² Ð°ÑİÑīÐ¸Ð¹
ĠÐ² ÑĩÐµÑĢÐ°
Ð¾Ð½Ð ½Ð¾
ĠÐº ÑĢÐ¾ÑĪ
ĠÐºÐ»Ð¸ ÐµÐ½ÑĤÑĭ
ĠÐ² Ð¾Ð¿Ð»Ð¾Ñī
ĠÐ® ÑĢÐ¸Ð¹
ÑĢÐµÐ µÐ²
ĠÑĤÑıÐ¶ ÐµÑģÑĤÐ¸
Ð°Ð½Ð µÑĨ
ĠÐ¡Ð ¸
Ġm on
ĠÐ²Ð¾Ð·Ð² ÑĢÐ°ÑĤÐ°
ĠÐºÐ¾Ð¼ Ð
ÑıÐ± ÑĢÑĮ
ni ku
°ÑĢÐ µ
ĠÐ½Ð°Ð ¼Ð
ĠÐ³Ð°ÑĢÐ°Ð½ ÑĤÐ¸ÑĢÐ¾Ð²
ĠÐ½ÐµÐ¸Ð· Ð¼
prasza my
ĠP or
ĠÐĽ Ð¾Ð½Ð´
ĠÐ» ÐµÐ·
ĠÑįÐ½ÐµÑĢÐ³ Ð¸Ñİ
Ð°Ðº Ð¾Ð¼Ð¿
ĠÐ¿ÑĢÐ¾Ñħ Ð¾Ð¶Ð´ÐµÐ½Ð¸Ñı
ĠÐ½Ð°Ð¸Ð¼ ÐµÐ½
5 4
ĠÑĢÐ°Ð·Ð² Ð¸Ð²Ð°ÑĤÑĮÑģÑı
ĠÐ»Ð¸Ð½Ð ¸Ð¹
ĠÑĦ Ð¸Ð½Ð
ĠÑĦÐ¸Ð½Ð°Ð½ÑģÐ¾Ð² ÑĭÐµ
ĠÑģÐµÐº ÑĢÐµ
ĠÐ¿Ð¾Ñģ ÑĤÐ¾ÑĢÐ¾Ð½Ð½Ð
Ġty tu
la z
ĠYou Tube
ĠÐĴÐµÐ»Ð¸ÐºÐ¾Ð±ÑĢÐ¸ÑĤ Ð°Ð½Ð¸Ð¸
ĠC ent
ĠÐ¿ ÑĢÐ°Ð·Ð´Ð
ĠÐ¿ÑĢÐ¸ ÐµÐ¼Ðµ
ĠÐ·Ð°Ð²Ð¸ÑģÑı Ñ
ĠÐ·Ð°Ð²Ð¸ÑģÑıÑ Ĥ
Ð°Ð½Ð ¾Ñģ
Ġrze cz
ĠÐĿ Ð¸Ñĩ
ÐµÐ½ÑĨ Ñĭ
ĠÐ¶Ð°Ð» Ð¾Ð±Ñĭ
ce nie
ĠÑģ ÑĥÑī
ĠÐĵ Ð¾Ð²Ð¾ÑĢ
ĠÐ¢ ÐĴ
ÐµÐ¼ ÑĭÑħ
ĠÐŁÑĢ Ð¾Ð´ÑĥÐº
Ġnaj waÅ¼
ÑĢÐ°Ñ ĨÐ¸ÐµÐ¹
ĠÐľÐ¸Ð½Ð¸ÑģÑĤÐµÑĢ ÑģÑĤÐ²Ð°
ĠÐ¢ Ð°Ð¹
ĠÐ¿Ð¾Ð´ ÑĪ
ĠÑĢÐ°ÑģÐ¿ÑĢÐ¾ÑģÑĤ ÑĢÐ°Ð½
ĠÑģÑģÑĭÐ» ÐºÑĥ
ĠÐ¶Ð °
ĠÐ¿Ð» Ð¸ÑĤÑĭ
Ð»ÑıÑİÑī Ð¸Ðµ
Ð¸Ð´Ð ¸
ĠÐłÐµÑĪ ÐµÐ½Ð¸Ðµ
ĠÐ¾ÑĤÐºÑĢÑĭ ÑĤÐ¾Ð¼
ĠÑĥÐ² Ð»Ð°Ð¶Ð
ĠÐ¾ÑĢÐ³ Ð°Ð½Ð°Ð¼Ð¸
su l
ĠÐ¿Ð¾Ñĩ ÑĤÐµ
ĠÑģÐºÐ°Ð· Ð°Ð½Ð¾
Ð± Ð°Ñģ
ĠÐ¼ÑĥÐ·Ñĭ ÐºÐ°
ĠÑĤ ÑĢÐ°ÑĤÐ¸ÑĤÑĮ
ĠÐ¾Ð±Ð½Ð°ÑĢÑĥÐ¶ Ð¸Ð»Ð¸
Ð» Ð¾Ð¼Ð°
ÐĹ Ðŀ
ĠÐĿÐ¸Ðº Ð°Ðº
Ġko s
ĠÐ»ÑİÐ± Ð°Ñı
ĠÐ¿ÑĢÐ¾Ð²ÐµÑĢ ÐºÑĥ
ĠÐ¼Ð¾Ð±Ð¸Ð»ÑĮ Ð½ÑĭÑħ
ĠÑĥÑĩ ÐµÐ½ÑĭÐµ
ĠÐ¿ÑĢÐµÐ´Ð¿ÑĢÐ¸Ñı ÑĤÐ¸Ðµ
d owanie
ĠÐķÐ²Ð³ ÐµÐ½Ð¸Ð¹
ĠÐ³ÑĢÐ°Ð¼ Ð¾ÑĤÐ
ĠÐ²ÑĭÑıÐ² Ð¸ÑĤÑĮ
ĠÐ²Ð¿ Ð¸ÑĤ
ĠÑģÐ»ÑĥÐ¶ ÐµÐ±
ĠÑģÐ¾Ð²ÑĢÐµÐ¼ ÐµÐ½Ð½ÑĭÐ¹
ĠÑĢÐ°Ð·Ð¼ÐµÑģ ÑĤÐ¸ÑĤÑĮ
Ġw ra
ĠÑģÐ¸Ð¼Ð¿ÑĤÐ¾Ð¼ Ð
ÑĤÐ½Ð µÑģ
ĠÑģÐ¾Ñħ ÑĢÐ°Ð½
¸ ÑĤÐ°Ñı
ow nika
ÑĤÐµ ÑĢÐ°Ð¿
ĠÐºÐ°Ðº Ð¸Ð¼Ð¸
ÑĥÑİÑī ÑĥÑİ
cie li
ĠÑģÐ¾Ð³Ð»Ð°Ñģ Ð¸Ñı
ĠÐ¾Ð±ÑıÐ·Ð°ÑĤÐµÐ»ÑĮ ÑģÑĤÐ²Ð°
Ġroz wi
ĠÐ±ÑĢ Ð¸Ð³
ĠÐ¿ÑĢÐµÐ´Ð½Ð°Ð·Ð½Ð°Ñĩ ÐµÐ½
ĠÐ´ÐµÐ² Ð¾ÑĩÐµÐº
ĠÐ²Ð¾Ñģ Ñħ
ĠÐ´Ð¾Ð± ÑĢÐ°ÑĤÑĮÑģÑı
ĠÐ¾ÑĤÐºÑĢÑĭ ÑĤÐ¸Ðµ
ĠÐ¾ÑģÐ¾Ð± Ð¾Ð¹
ĠÑį Ð»ÐµÐ³Ð°Ð½
ĠÐ½Ð°Ñ ĤÑıÐ¶
ĠÐ³ÑĢÐ¸Ð± Ñĭ
ĠÐ·Ð°Ð´Ð°Ñĩ ÐµÐ¹
Ġmi li
ĠÐĵ Ð£
ĠÐ¾Ð±ÐµÐ ¸Ñħ
ĠÐ½Ð¸Ðº Ð¾Ð³Ð¾
ĠÑģÐ¾Ð²Ð¼ÐµÑģ ÑĤÐ¸Ð¼
ĠÐºÐ²Ð°Ð» Ð¸ÑĦÐ¸ÐºÐ°ÑĨÐ¸Ð¸
wÃ³ dz
ĠÐ¿Ð»Ð°Ð½ ÑĪÐµ
ĠÐ¿Ð¾Ð³ ÑĢÑĥÐ·
ĠÐ»Ð°Ðº Ð¾Ð¼
ĠÐ¾Ð¿ÑĢÐµÐ´ÐµÐ» ÐµÐ½Ð½Ð¾Ð³Ð¾
ĠÐ¿Ð°ÑģÑģÐ°Ð¶Ð ¸ÑĢÐ¾Ð²
Ð¸Ð²Ð°Ñı ÑģÑĮ
ĠÐ½ÐµÐ¾Ð´Ð ½Ð¾Ðº
ĠÐ¾Ð±ÑĬÑıÑģ Ð½Ð¸ÑĤÑĮ
ĠÑĥÐºÐ»Ð°Ð´ ÐºÐ¸
Ġproje k
ĠÐĺÐ· Ð±
ĠÑģÑĢÐ°Ð² Ð½Ð¸Ð²
ĠÐºÐ¾Ð½ÐºÑĢÐµ ÑĤÐ½Ð¾Ð³Ð¾
ĠÐ²Ð µÑĤÐ²
ĠÐ¼ÐµÑģ ÑĤÐ½Ð¾ÑģÑĤÐ¸
ĠÐ¿Ð¾Ñĩ ÑĤÑĭ
Ġ0 5
ÑĤÐ¾Ð² ÑĭÐµ
ĠÐ±Ð¸Ð» ÐµÑĤ
ĠÐºÐ»ÑİÑĩ Ð
ĠÐ¾Ð³Ð ½Ñı
k sy
ĠÑĦÐ¸Ð»ÑĮ Ð¼Ð¾Ð²
ĠÑĢÐ¾ÑģÑģÐ¸Ð¹ ÑģÐºÐ¸Ð¹
ĠÑĤÐ°Ðº ÑģÐ¸
ÑĮ ÐµÑĢÐ°
ĠÐºÐ°ÑĩÐµÑģÑĤÐ² ÐµÐ½Ð½ÑĭÐµ
ÑĭÐ² Ð°Ð»Ð°
ĠÐ·Ð½Ð°ÐºÐ¾Ð¼ ÑģÑĤÐ²Ð¾
ĠÐļÐ°ÑĤ ÐµÐ³Ð¾
ĠÑĢÐ°Ð±Ð¾Ñĩ Ð¸Ðµ
ĠC ar
ĠÐºÐ¾Ð¼Ð¼ÐµÐ½ÑĤÐ° ÑĢÐ¸Ð¹
ĠÑģÐ¾Ð±ÑģÑĤÐ² ÐµÐ½Ð½Ð¾
Ġzmia ny
ĠÑĢÐ°Ð´ Ð¸Ðº
ĠÑģÐ°Ð» ÑĦ
ĠPro du
ĠÐ½Ð¾Ð³ Ð°Ñħ
ĠÐ´ÐµÐ» Ð°ÐµÐ¼
ĠÐĸ Ð¸Ð²
Ġ0 6
g niÄĻ
ĠÑĥÑģÐ»Ð¾Ð²Ð¸Ñı Ð¼
ĠÐ¾ÑĤ ÑģÑĤÑĥÐ¿
wa ny
ĠÐ¼Ð°ÑģÑģ Ð¸Ð²
ĠÐĺÐ³ ÑĢÐ¾Ð²ÑĭÐµ
ĠÐ·ÐµÐ» ÐµÐ½ÑĭÐ¹
ĠÐºÐ»Ð°Ñģ ÑģÐ¾Ð²
w z
Ñĥ Ð½Ð°
ĠÑģÐ¼Ð¾ÑĤÑĢÐ¸ÑĤ ÑģÑı
ĠÑģÐ¾Ð·Ð´ Ð°Ð½
ĠÑģ Ð¸ÑģÑĮ
ĠÐ¿Ð¾Ð´ÑĤÐ²ÐµÑĢÐ¶Ð´ ÐµÐ½Ð¸Ñı
Ð¾Ðº Ð¾Ð²
ĠÐŀÑģÐ½Ð¾Ð² Ð½Ð¾Ð¹
ĠÐ¿ ÑĭÑĪ
ÑĪÐ°Ñı ÑģÑı
Ð¸Ð» Ð¸Ð¹
ĠÐ¿ÐµÑĢÐµÐ µÐ
wie nia
ĠÑĦÐ°Ðº ÑĤÐ¾ÑĢ
ĠÐ± ÑĥÑĢÐ
ÐĹÐ °
ĠÐ·Ð°Ð´ ÐµÐ¹ÑģÑĤÐ²
ĠÐ¿ÑĢÐµÐ´Ð»Ð¾Ð¶ Ð¸Ð»
ĠÑĩÐµÑĤÐ² ÐµÑĢÑĤ
ĠÐ¿ÑĢÐ¸Ð ¾ÑģÑĤ
ĠÐĿÐ¸Ð¶ Ð
ĠÐ¾Ð±Ñī Ð¸Ðµ
ĠÑĥÐºÐ°Ð· Ð°Ð½Ð¾
ĠÐ¿Ð¾Ð¼ ÐµÐ½ÑıÑĤÑĮ
ÑĢÐ¾Ñģ ÑĤÑĮ
ĠÐ¿ÑĢÑıÐ¼Ð¾ ÑĥÐ³Ð¾Ð»ÑĮ
ĠÑĥÐ¿ Ð¾Ð»Ð½Ð¾Ð¼Ð¾Ñĩ
Ð¾Ð½Ð ½Ð¾Ðµ
ÐºÐ¾Ð² Ð°Ñı
ti onal
ĠÐĿÐ¸Ð¶Ð µ
ĠÑģÐ²ÐµÐ´ ÐµÐ½Ð¸Ð¹
ĠÐ°Ð»Ð»ÐµÑĢÐ³ Ð¸Ð¸
ĠÐ´Ð¾Ð¿Ð¾Ð»Ð½Ð¸ÑĤÐµÐ»ÑĮ Ð½ÑĭÐ¹
ĠÑģÑĩÐ¸ÑĤÐ°Ñ İ
ĠÑģÐ´ÐµÐ» Ð¾Ðº
ĠÑģ ÐµÐ½Ñģ
½Ð ¸Ðº
ĠÑĦ Ð¾Ð½
Ġpacje n
Ĥ Ð°Ð¼
ĠÐ¾Ð± ÑĭÐºÐ½Ð¾Ð²
ĠÐŃ Ð»
x bet
ĠÐ´ÐµÑĤ Ð°Ð»ÑĮ
ĠÐºÐ¾ÑĢ Ð¸Ð´
Ð°Ð½Ð µÑģ
ĠÑģÐµÐ»ÑĮ ÑģÐºÐ¾ÑħÐ¾Ð·ÑıÐ¹
ĠÐ¸Ð¿ Ð¾ÑĤÐµÑĩ
ĠÑģÐ¸Ð¼Ð¿ÑĤÐ¾Ð¼Ð °
Ġ9 5
Ġsam e
ĠÐ²Ð² ÐµÐ´ÐµÐ½Ð¸Ñı
ÑĢÑĥ ÐµÑĤÐµ
ĠÐ±Ð°ÑĤÐ° ÑĢÐµÐ¸
Ð½Ð°Ñ Ī
qu e
ĠÐ¿ÑĢÐ¾ÑģÑĤÑĢÐ°Ð½ ÑģÑĤÐ²Ðµ
Ð¾Ð½Ð ºÐ°
ĠÐł ÐµÐ¶
Ð¸Ð½ ÑĥÑĤÑĮ
Ð¸Ñģ Ð»ÐµÐ½Ð¸Ñı
Ð¸ÑĢÐ¾Ð² Ð°Ð½Ð¸Ñı
ĠÐ¾ÑĤÐ´ Ð°Ð»
ĠÐ¿ÑĢÐ¾Ð´ Ð°Ð¶Ð°
ĠÐ¾ÐºÐ°Ð·ÑĭÐ² Ð°ÑİÑĤ
¾Ñĩ ÐºÐ°
ĠÑģÐ¾Ð³Ð»Ð°Ñģ Ð¸Ðµ
ĠKie dy
ĠÐ»ÑĥÑĩ ÑĪÐµÐ³Ð¾
ĠÐ·Ð°Ð¼Ðµ ÑĤÐ¸Ð»
ĠÐ¾ÑģÐ½Ð¾Ð² Ð½Ð°Ñı
ĠÐ²ÑĭÑħÐ¾Ð´ Ð½ÑĭÐµ
ĠÐ·Ð°Ð± ÑĭÐ²Ð°Ð¹ÑĤÐµ
ĠÐ¿ÑĢÐ°Ð·Ð´ Ð½Ð¸ÐºÐ°
ĠÐºÑĢÐ°Ð µÐ²
ĠÐ¿ Ð¾Ð¹Ð´ÐµÑĤ
Ð» ÑĭÐ¹
ĠÐĲ Ñħ
ĠskÅĤa dni
Ñģ ÐµÐ»
ĠÐ·Ð°ÑīÐ¸Ñī Ð°ÐµÑĤ
ĠÑĥ ÑĤÐ¸Ð»
ĠÐ¸Ð· Ð»Ð¾Ð¶
ĠÐ¼ Ð°Ð³Ð¸ÑģÑĤ
ĠÐĳÑĭ Ð»Ð¾
ĠÐ¢Ð °
Ġna tomiast
ĠÑĢÐ°ÑģÑģÑĩ Ð¸ÑĤÐ°ÑĤÑĮ
ĠÐ²Ð»Ð°Ð¶ Ð½Ð¾ÑģÑĤÐ¸
ĠÐ¿ÑĢÐ¸Ð½Ð¾Ñģ Ð¸ÑĤ
ĠÐºÑĥÑĢ ÑģÐµ
cz noÅĽÄĩ
ĠÐ¿Ð¾Ð´ ÑĬÐµÐ¼
ĠS pe
ca mi
ĠÐ½Ð¾Ð² Ð¾ÑģÑĤ
Ð¸ÑĢÑĥ ÐµÑĤ
sz czy
ĠÐ½ÐµÐ±Ð¾Ð»ÑĮÑĪ Ð¸Ð¼
s am
Ġ6 4
ĠÐ¢ ÐĲ
ĠÐ¿ÑĢÐ°Ð²Ð¸Ð»ÑĮ Ð½Ð¾Ð³Ð¾
ĠÐ´Ð¾Ñģ ÐºÐ¸
ĠÐ±ÐµÐ» ÑĭÐµ
ÑĪ ÑĤÐµÐ¹
Ð ¸ÑĤÐ°
Ġsamy m
ĠÐ» ÐµÐ²Ð¾Ð¹
ĠÐ·Ð°Ð¿ ÑĥÑī
Ġc ia
µÑ İ
ĠÐ¡ ÐµÑĢ
ĠÐ¡Ð´ÐµÐ» Ð°ÑĤÑĮ
ĠÐĿÐ°Ðº Ð¾Ð½ÐµÑĨ
ĠÐ¾Ð±Ñī ÑĥÑİ
ÐŁÐµÑĤÐµÑĢÐ±ÑĥÑĢÐ ³Ðµ
ĠÐļ ÐŁ
st ry
Ġko rzy
ĠpÃ³Åº niej
ĠÐ½ÐµÐ¿ Ð¾Ð½Ñı
Ġrze czy
ĠÐ¿Ð¾Ñĩ ÑĤÑĥ
ĠCO VID
ĠÐ¿Ð»Ð¾ÑīÐ°Ð´ ÑĮÑİ
ĠÐĵ Ð¾Ð´
ĠPol ska
ĠÐ¼Ð¾Ð³ Ð»Ð¾
ĠÐ°Ð½ Ð¾Ð½Ð¸Ð¼
Ð¾Ñģ Ñĭ
ĠÑĤÑĢÐ°Ð² Ð¼
nie sie
ĠÑĢÐ¾Ð» Ð¸ÐºÐ¸
ĠÑĤÐ²Ð¾ÑĢÑĩ ÐµÑģÑĤÐ²Ð°
ÐµÑĢÑħ Ñĥ
ĠÑĥÐ²ÐµÐ»Ð¸Ñĩ Ð¸Ð²Ð°ÐµÑĤ
ĠÐ£ ÐĹÐĺ
ĠÐ´Ð¸Ðµ ÑĤÐ°
ĠÐºÐ°ÑĩÐµÑģÑĤÐ² ÐµÐ½Ð½ÑĭÐ¹
Ð¾ÑĢÐ µÑĨ
Ð¸Ð½ ÑģÐº
Ñģ Ð°Ð¼
Ġ7 00
ty ki
Ġry zy
ĠÐĴÐ°Ð» ÐµÐ½
ĠÐ¿Ð¾Ð» Ð¾ÑĤÐ
owo ÅĽci
Ĥ ÐµÐ»
Ġe ko
ĠÐ²ÑģÑĤÑĢÐµÑĩÐ µ
ĠÐ¿Ð¾ÑĢÑĤ Ð°Ð»Ðµ
ĠÑģÐ¿ÐµÐº ÑĤÑĢ
ĠÑĨÐµ ÑĢÐµÐ¼
z on
ĠÐ¾Ð±ÑıÐ·Ð°Ð½Ð½Ð ¾ÑģÑĤÐµÐ¹
ĠÐ¼ÐµÑĤ Ð°Ð±Ð¾Ð»
ĠÑģÐ¾Ð»Ð½ ÑĨÐ°
ĠÑģÐ¿Ð¾ÑĢÑĤ ÑģÐ¼ÐµÐ½
ĠÐ·Ð°Ñħ Ð²Ð°
Ð´ ÐµÑģ
ĠÑģÐ² ÐµÑĩÐ¸
Ġpomo cy
E O
ĠÐ½Ð°ÑĩÐ°Ð»ÑĮ Ð½Ð¸Ðº
ĠÑģÐ¾Ð· ÑĢÐµÐ²
ĠÑģ Ð°Ð´Ð°
Ð» Ð¸ÑĨ
ĠÐ¯Ð¿ Ð¾Ð½Ð¸Ð¸
ĠÐĴÐµÐ»Ð¸Ðº Ð¾Ð¹
Ġla tach
ĠÐ¾Ð¿ Ð»Ð°ÑĤÐ°
ÐµÐ ¸Ñģ
wi l
ĠÑĥ ÑĢ
Ġpo maga
Ð¸Ñĩ Ð½ÑĭÑħ
ÑĥÑĪ Ð
ĠÐ¿Ð¾Ð¼ ÐµÑģ
ĠÐ§ Ð¸Ñģ
Ġo fi
ĠÑĪ Ð°Ð½ÑģÑĭ
Ġprodu kty
ĠÑĤÑĭ Ðº
Ġjedy nie
ĠÐ½Ð¾Ð² ÐµÐ¹
Ð¸Ð½Ð ½ÑĭÐµ
ĠÐ´ÐµÑĦ Ð¾ÑĢÐ¼
Ġcz ar
ĠÑģÑĥÐ± ÑģÐ¸Ð´
ĠÐ· ÑĢÐ¸ÑĤÐµÐ»ÑĮ
ĠÐ¸ÑģÑĤÐ¾Ñĩ Ð½Ð¸ÐºÐ°
ĠÐĴÐ°ÑĪ ÐµÐ³Ð¾
Ġfil m
ĠÐ´Ð² Ð¾Ðµ
ĠÐ¿ÐµÑĢÐ µÑĢÐ
ĠÐºÐ½Ð¾Ð¿ ÐºÐ¸
ĠÑĤÐ¾Ð»Ñī Ð¸Ð½Ð¾Ð¹
ce go
ĠÐ»ÐµÐºÐ°ÑĢ ÑģÑĤÐ²Ð¾
ÐµÐ»Ð¸ ÑĤÐµÑģÑĮ
men ty
ĠÐ¾Ð±Ñī Ð°Ñı
ĠÐ½Ð°Ð¿ Ð¸ÑĤÐ¾Ðº
ĠÑģÑĤÐ°Ðº Ð°Ð½Ð°
Ð°ÑĨÐ¸Ð¾Ð½Ð ½ÑĭÑħ
ÐµÐ½ ÑĤÐ°Ñħ
ĠÐĴ Ð¾Ð¾Ð±ÑīÐµ
ĠÐ¿Ð°ÑĢ ÐºÐµ
ĠÐ´Ð¾Ñħ Ð¾Ð´Ñĭ
ĠÐĴÑģ ÐµÐ³Ð´Ð°
ĠÑĢÐ¾Ð´ Ð¸Ð»ÑģÑı
Ĥ ÑĢÐ°Ð½
ĠÑĤ ÑĥÐ¿
ĠÐ¡ Ð¾Ñģ
on us
Ð½Ð¾Ñģ ÑĤÑıÐ¼
ĠÑģÑĤÐ°Ñ ĤÐµÐ¹
ĠÐ¿ÐµÑĢÐµÑħ Ð¾Ð´Ð°
ĠÐ¤Ð ¾
th er
Ð» ÐµÐ·
ĠÐ½ÐµÐ ¾Ñģ
Ð¾Ð¸ÑĤ ÑģÑı
ĠÑĦ ÑĢÐ¾Ð½
ĠÐ¼Ð°Ð»ÑĮ ÑĩÐ¸Ðº
ĠÐ´ Ñĥ
¸ÑĢÐ¾Ð² Ð°Ð½Ð½ÑĭÐµ
ĠÐºÐ¾Ð¼Ð¿ÑĮÑİÑĤÐµÑĢÐ µ
ĠÐ¾Ð¿ÑĢÐµÐ´ÐµÐ» Ð¸ÑĤÑĮÑģÑı
ĠÐ¿ÑĢÐµÐ´ Ð¼Ð
Ġ Ð°ÑĥÐ´
Ñ ĤÑĢÐ°Ð½
Ð¸ÑĤ ÑĭÑħ
ĠcaÅĤ kowi
ÑĤÑĥ ÑĢ
ĠÐ¿Ð¾Ð»Ð¾Ð² Ð¸Ð½Ñĥ
Ð» ÐµÐ½Ð½ÑĭÐ¼Ð¸
ĠÐ¿Ð¾ÑıÐ² Ð¸ÑĤÑĮÑģÑı
ĠÐ·Ð°Ð² ÑıÐ·
ĠÐ± Ð°Ð·Ð°
ĠÐ¾ÑĤÐ½Ð µÑģ
ĠÐ²Ð¸Ð´ ÐµÐ»Ð¸
ÐµÐ» ÐµÐ½Ð¸Ðµ
Ñģ ÐµÐº
Ġm iaÅĤa
ĠÐ½Ð°ÐºÐ°Ð· Ð°Ð½Ð¸Ðµ
l ni
ĠÐ¿Ð¾Ñģ Ð»ÑĥÐ¶
ĠÐ¸ÑģÐ¿ÑĢÐ°Ð² Ð¸ÑĤÑĮ
ĠÐŁÑĢÐ¸Ð¼ ÐµÑĢ
ĠÐŁÑĢ Ð¾ÐµÐ
ĠÑģÐ¾Ð·Ð´ Ð°Ð½Ð¸Ñİ
ĠÐ´Ð°Ð½Ð ½ÑĥÑİ
ĠÑĤÑĢÐµÐ² Ð¾Ð¶
Ð¾Ð¿Ð» Ð°ÑĤÐµÐ»ÑĮ
ÑĢÐµÑ ĩÐµÑģÐº
ĠÐ± ÑĢÑĥ
ĠÑģÑħ ÐµÐ¼Ñĥ
r ia
ĠÐ¾Ð±ÑģÐ»ÐµÐ´ Ð¾Ð²Ð°Ð½Ð¸Ñı
Ġmin ut
Ñİ ÑĢÐµ
ĠÐ¾ÑĤ ÑĢÐ°Ð²
¾Ñĩ Ð½ÑĭÐµ
Ġa b
ĠÑĢÐµÐ°Ð»ÑĮ Ð½Ð¾ÑģÑĤÐ¸
ĠÐ¿ÑĢÐ¸Ð½ÑĨÐ¸Ð¿Ð ¸
ĠÐ¿Ð¾Ð²ÑĢÐµÐ¶Ð´ ÐµÐ½Ð¸Ð¹
ĠÐ²ÑĭÐ´ Ð°ÑĩÐ¸
u d
Ðĵ ÐĲ
Ð¾Ð½Ð º
ĠÐ¡ÑĤ ÐµÐ¿
Ġp un
ĠusÅĤu gi
ÑĢÐ¾Ñ ĤÑĥ
ĠÑģÐ¾Ñħ ÑĢÐ°Ð½ÐµÐ½Ð
lo t
Ġk wo
ĠÐ°Ð² ÑĤÐ¾Ñģ
ÐºÑĥ ÑĢÑĥÐ·
ÐµÐ¹ Ð¼
ĠÑģ Ð°Ð»Ð°
ÐµÐ±Ð °
ĠÐ¸ÑģÑĤÐ¾ÑĩÐ½Ð¸Ðº Ð¾Ð¼
ĠÐ¾Ðº Ð°Ð¶ÐµÑĤÑģÑı
Ð¸Ð´ ÐµÐ½ÑĨÐ¸Ð°Ð»ÑĮ
6 1
ĠÐ´ÐµÐ¿ Ð¾Ð·Ð¸ÑĤ
ĠÑĦÐ°Ðº ÑĤÑĭ
ĠÐ²ÑĭÐ³ Ð¾Ð´
ĠÐ°Ðº ÑĤÐ°
je wÃ³dz
ĠÑĤÐ°Ðº Ð¾Ð¼Ñĥ
ĠÑģÐ»Ð¾Ð¶ Ð½ÑĭÐµ
ĠÑĢÐ°Ð· Ð½Ð¾Ð¹
ĠÑģÐ¿Ð¸Ñģ ÐºÐ°
Ġpod kre
ĠÑĢÐ°Ð· Ð¾Ñĩ
ĠÐľ Ð°ÑĪ
ĠÑĢÐ¾Ð´Ð¸ÑĤ ÐµÐ»ÑıÐ¼
Ð¸ÑĢÐ¾Ð² Ð°Ð½Ð¸Ðµ
ĠÐľ ÐĲ
ĠÐĴ ÐµÐ´
ĠÐ½Ð°ÑĩÐ¸Ð½Ð°Ñ İÑīÐ¸Ñħ
ĠÐ¿Ð°Ð»ÑĮ ÑĨÐµÐ²
Ĥ Ð¾Ð½Ð°
ĠÐĲ ÑģÑĤ
Ġte k
ĠÑģÐ¸Ð» Ð°Ð¼Ð¸
Ġsu k
Ð¾Ð» ÐµÐ·
ĠÐ¿Ð¾Ð»Ð¸ ÑĤÐ¸ÐºÐ°
ĠÐ¡ Ð¾ÑİÐ·Ð°
ĠÐ¸ÑģÐ¿ Ñĭ
5 9
ĠÐłÐµÐ¼ Ð¾Ð½ÑĤ
ĠÑģÐ¿Ð¾ÑĢÑĤ ÑģÐ¼
ÐµÐ¹ Ð
ĠÐ¼ÐµÑĩ Ñ
. -
ĠÑģÑĤÑĢÐ°Ð½Ð ¸ÑĨÐ°
ĠÑģÑĥÐ´ÐµÐ± Ð½Ð¾Ð³Ð¾
Ġ200 2
ĠÐ¾Ñģ Ð°Ð´
Ġfi zy
ĠÐ¿Ð°ÑĢÑĤÐ½Ð µÑĢÐ°
ĠÑĢÐ¾Ð² Ð½Ð¾
i na
Ġre je
cie Å¼
ĠÐ²Ð¾Ð· Ð½Ð°Ð³ÑĢÐ°Ð¶Ð´
Ð¾ÑģÐ¿ Ð¾ÑģÐ¾Ð±
ĠÐ¿Ð¾Ð´ÐµÐ» Ð¸ÑĤÑĮÑģÑı
ĠÑģÐ² ÐµÐº
Ġcz u
ĠÐ¿ÑĢÐ¾Ð´ ÐµÐ»
ĠÐ´ÑĢÐµÐ²ÐµÑģ Ð¸Ð½Ñĭ
ĠÐ¤ Ð¾ÑĤ
ĠÐ¿Ð¾Ð´Ð¾Ð± Ð½Ð¾Ðµ
ĠÐºÐ¾Ð¼Ð°Ð½Ð ´Ðµ
t ing
ĠÑģÐ ¸
ĠÑģÐ°Ð¼ Ð¸Ñħ
ĠÐ±ÐµÐ»ÑĮ Ð
ĠÐ¾Ñģ ÐµÐ½Ð½Ð
ĠÐ·Ð°Ð¿Ð¾Ð»Ð½ÐµÐ½Ð ¸Ñı
ĠÐŁÑĢ Ð¾Ðº
ĠÐ½Ð°Ð¶ Ð°ÑĤÑĮ
ĠÐ¸Ð´ ÑĳÑĤ
ĠÑģÐ¾Ð¿ ÑĥÑĤÑģÑĤÐ²
ÐµÐ½ ÑģÑĤÐ²Ð°
ĠÑĢÐ°Ð±Ð¾ÑĤÐ ¾ÑģÐ¿Ð¾ÑģÐ¾Ð±
ĠÐ±ÐµÐ»ÑĮÐ µ
ÑĢÑĭÐ² Ð°ÑĤÑĮ
ĠÐ´ÐµÑģÑı ÑĤÐ¸
ÑĤÑĮ Ð
ĠÐ¿ÑĢÐµÐ´Ð»Ð°Ð³ Ð°ÐµÑĤÑģÑı
ol d
ĠÐ¢ Ð¡
ÐµÑĢÐ ½ÑĭÐ¼
Ġe g
Ġro ÅĽli
ĠÐºÐ¾ÑģÑĤ Ñİ
ĠÐĴÐ¾Ð» Ð³
Ġodpowie dzia
ĠÐ¾Ð±ÑĭÑĩ Ð½Ð¾Ð³Ð¾
ĠÑģÑİ ÑĢ
ĠÐ¾ÑĤÐ»Ð¸Ñĩ Ð°ÑĤÑĮÑģÑı
ĠÑįÐºÑģÑĤ ÑĢÐµÐ¼
ĠÐºÐ¾Ð» ÐµÑģÐ°
c kiego
Ð¾ÑĤÐ º
ĠÐ¼ Ð¸Ð¼Ð¾
ĠÐ·Ð°Ð¹ Ð¼Ð°
Ð¸Ð½Ð ¸ÑĤÐµÐ»ÑĮ
ĠÐ¿Ð¾Ð·Ð²Ð¾Ð» Ð¸ÑĤÑĮ
ĠÐ³ÑĢÑĥÐ½ ÑĤÐ°
Ñ ĤÐ¾Ð½Ð°
ĠÑĢÐ°Ð·Ð³ Ð¾Ð²Ð°ÑĢ
ĠÑĢÑĥÐ± ÐµÐ¶
ĠÐºÑĢÐ°Ñģ Ð½Ð¾Ð³Ð¾
men tÃ³w
ĠÐ¿ÑĢÐ¾ÑĦÐ¸Ð» Ñı
ĠÐ¿ÑĢÐ¾Ð´Ð¾Ð»Ð¶ Ð°ÐµÑĤÑģÑı
ĠÐ³Ð °ÑģÑĤ
ĠÑįÑĤÐ°Ð¿Ð °
mini stra
ĠÐ³ÑĢ Ð¸Ð²
ĠÐ¾Ð³ Ð½Ðµ
as h
ĠÐłÐµÐºÐ¾Ð¼ÐµÐ½Ð´ ÑĥÐµÐ¼
ĠÐºÐ¾ÑĪ ÐºÐ¸
ĠÐ°Ð´ÑĢÐµÑģÐ °
ÑĤÐ¸Ð½Ð µ
ĠÑĥ Ð¼Ð°
ĠÑĢÐ°ÑģÐ¿ÑĢÐ¾ÑģÑĤÑĢÐ°Ð½Ñı ÐµÑĤÑģÑı
pie ra
ĠÐ¼ÐµÑĢ ÑĤÐ²
Ð¾ÐºÑģ Ð¸Ðº
ÐĴ Ñ
ĠÐ²ÐµÑĩ ÐµÑĢÐ°
Ð°ÑĳÑĤ ÑģÑı
ĠÑĩÑĢÐµÐ· Ð¼
Ð°ÑĢÑĤÐ°Ð¼ ÐµÐ½ÑĤÐ°
ĠÐ¾Ð±ÑģÐ»ÐµÐ´ Ð¾Ð²Ð°Ð½Ð¸Ðµ
ĠÐ³Ð ½Ð¾Ð¹
Ĥ Ð¾Ð»
czo nych
ÐĴÑ Ĥ
ĠÐ¿ÑĢÐ¾ÑĦÐµÑģ ÑģÐ¸Ð¸
ÐµÐ½Ð°Ð ´
ĠÐ´Ð» Ð¸ÑĤÑģÑı
ĠÐ¿Ð¾Ð´ÑĥÐ¼ Ð°ÑĤÑĮ
ĠÐ¼ÐµÐ´Ð ¸
ĠÑħÐ¾Ð»Ð¾Ð´Ð¸Ð»ÑĮ Ð½Ð¸Ðº
°ÑĤÐ° ÑĢ
ĠÐ¾ÑĪÐ¸Ð± ÐºÑĥ
Ġod wie
âĢĶ âĢĶ
ĠÐ´ÐµÐ² Ð¾ÑĩÐºÐ°
ĠÐ¶Ð¸Ð² Ð¾ÑĤ
ÐµÐ½Ð½Ð °
Ð¸Ð· Ñĭ
ĠÐ´Ð¾Ð» Ñİ
Ð¾Ð¼Ð ¸
ĠÐ´Ð» Ð¸ÑĤÐµÐ»ÑĮÐ½Ð¾Ðµ
ĠÐ¢ ÑĢÐ°Ð¼
Ġ Ð½ÑĥÐ»
ĠÑģÐ¿ Ð¸Ð½Ðµ
ĠÐ¿ÑĢÐ¸Ñħ Ð¾Ð´ÑıÑĤ
Ð¾Ð´Ð °Ñı
ĠÐĴ Ð¾ÑģÐ¿
ĠÐ¿ÑĢÐ¸Ð» Ð°Ð³
ĠD y
ĠÐ¼ Ð°Ñħ
ĠÐ¿ÑĢÐ¾Ð´ÑĥÐº ÑĨÐ¸Ñı
ĠÑģÐ¿ÑĢÐ°Ð² ÐºÐ¸
ÐĻ Ð¾ÑĢ
ĠÐ¦ ÐµÐ½Ñĭ
ĠÐ¾ÑĤÐ´ Ð°ÑĤÑĮ
ĠÑħÐ¾ÑĤ ÐµÐ»Ð°
ÑħÐ µ
ĠÐĶ Ñį
ÑģÑĭÐ» ÐºÐ°
ĠÐĹ ÐµÐ»
ĠÑįÐ»ÐµÐ¼ ÐµÐ½ÑĤÐ°Ð¼Ð¸
n ka
ĠÐºÑĥÐ¿ Ð»Ð¸
Ð¾Ð· Ð°Ð¿
ĠÑĤ Ð°Ð·
ĠÐºÐ°ÑĤÐµÐ³Ð¾ ÑĢÐ¸Ð¹
ĠÑĩÐµÑĢÐ ½Ð¾Ð³Ð¾
ĠÐ¶Ð ¸
Äħ dÅº
Ġe ta
ĠÑĤÐµÐ» ÐµÐ²Ð¸Ð´
ĠÐ½ÐµÑĩ ÑĤÐ¾
ĠÐĴÐ°Ñģ Ð¸Ð»ÑĮ
ĠÐ´Ð¸Ñģ ÐºÐ°
szy scy
ĠÐ½Ð°ÑģÑĤÑĥÐ¿ Ð°ÐµÑĤ
ĠÐ¿Ð¾Ñĩ Ð²Ñĥ
ĠÐ»Ð¸ÑĤ ÑĢÐ¾Ð²
ĠÐºÐ°ÑĤÐ °ÑģÑĤÑĢÐ¾ÑĦ
Ð°ÐµÐ¼ Ð¾ÑģÑĤÑĮ
ĠÑĤÐµÑĢ ÑĢÐ¾ÑĢÐ
g dy
ĠÐ³Ð¾Ð»Ð¾Ð² Ð½Ð¾Ð³Ð¾
Ð»ÐµÑĤÐ½Ð µÐ³Ð¾
ĠÐ· Ð¾Ð²
ÑĢÐ°Ð »Ðµ
ĠÐ¸ÑģÐºÑĥÑģ ÑģÑĤÐ²
ĠÑģÑĢÐµÐ´ Ð½Ð¸Ð¹
ĠÐ¼ÐµÑĤ ÑĢ
ĠÐ¸Ð·Ð» ÑĥÑĩ
Ġi le
ĠÑĢÐ°ÑģÑĤ ÑĥÑĤ
Ð»Ñı Ð¼Ð¸
ĠÐ²ÐµÐ½ÑĤÐ¸Ð» Ñı
ĠÐ²Ð¾ÑģÐµÐ¼ ÑĮ
ĠÐ°Ð²ÑĤÐ¾Ð¼Ð¾Ð± Ð¸Ð»Ðµ
ĠÑįÐºÐ¾Ð½Ð¾Ð¼ Ð¸ÑĩÐµÑģÐºÐ¾Ð³Ð¾
ĠÐ²Ð½ÑĥÑĤÑĢÐµÐ½Ð½Ð ¸Ðµ
ĠÐºÐ¾Ð¼Ð¿ÐµÐ½Ñģ Ð°ÑĨÐ¸Ð¸
ĠÑģÐµÐ· Ð¾Ð½Ðµ
ĠÐ¿Ð»Ð¾Ñħ Ð¾Ð¹
Ġwy mie
Ġniez bÄĻ
Ñ ĤÐ¾Ð»
ĠÐ»ÐµÐ³ ÐºÐ¸Ð¹
ĠÐ¢ÑĥÑĢ ÑĨÐ¸Ð¸
ÑĤÐ¸ÑĦ Ð¸ÑĨÐ¸ÑĢÐ¾Ð²
ĠÐ²ÑĢÐµÐ´ Ð½ÑĭÑħ
c ri
Ġorgani za
ĠÐ¶ÐµÐ»ÐµÐ·Ð °
ĠÐ¾Ð±Ð ¾
ĠB ra
ĠÐ¿ÑĢÐ¸Ð± Ð°Ð²
ÐµÐ½Ð´ Ñĭ
p ÅĤat
ĠÐ¿Ð¾Ð» Ð¸Ñģ
Ġkomu nika
ĠÐ½ÐµÐ¿ ÑĢÐµÐ´
ĠÐ¿ÑĢÐµÐ¼ ÑĮÐµÑĢ
ĠÐ¿Ð¾Ð» Ð¾Ð²ÑĭÑħ
ĠÑįÐ¿ Ð¸Ð·
ĠÑģÑĥÐ´ Ð¾Ð¼
ÅĦ ska
ĠÑĩ ÐµÑĪ
ĠÐ¾ÑģÑĥÑīÐµÑģÑĤÐ² Ð¸ÑĤÑĮ
Äħ d
ĠÐ·Ð°Ð² ÐµÑī
ĠÐĵÐ»Ð°Ð² Ð½ÑĭÐ¹
ĠPo zna
ÑĢÑĥ Ð³Ðµ
ĠÐł ÐĺÐĲ
Ġkredy t
ow n
Ð¸ÑĩÐµÑģÐº Ð¾Ð¼Ñĥ
Ð» ÑĭÐµ
ĠÐ½ÐµÐ¾Ð±ÑħÐ¾Ð´Ð¸Ð¼ ÑĥÑİ
ĠÑĢÐµÐ½ ÑĤÐ³
µÑĢÐ µ
ĠÐ£ ÑģÑĤ
ĠÐ½Ð°ÑĢÐ¾Ð´ Ð¾Ð²
ĠÑĢÐµÑĪ ÐµÐ½Ð¸Ñİ
Ð¾Ð»Ð½ÐµÐ½Ð ¸Ñı
ÐµÐ½Ð º
Ð¸Ð½ ÑģÐºÐ°Ñı
ĠÐ²Ð½ÑĥÑĤÑĢ ÐµÐ½Ð
ia ÅĤy
Ð§ ÑĤÐ¾
Ð°Ð± ÐµÐ»ÑĮ
ĠÐ½Ð°Ð½Ð¾Ñģ Ð¸ÑĤÑĮ
ĠÐ¾Ð±Ñī Ð°ÑĤÑĮÑģÑı
ĠÐ»Ð¸Ñĩ Ð½ÑĭÐµ
ĠÐ½ÐµÐ» ÐµÐ³
ĠÑħ Ð¾Ð´Ñĥ
ĠÐ¾ÑĢÐ³Ð°Ð½Ð¸Ð· Ð°ÑĨÐ¸Ñİ
ÅĤa ty
Ġdziec ka
ÐµÑĦ Ð
ĠÐºÐ¾Ð¼Ð½Ð° ÑĤÐ°
Ð½Ð°Ñģ ÑĤÐ¾ÑıÑī
ĠÐ¿ÑĢÐ¾Ð´Ð¾Ð»Ð¶ Ð°ÑİÑĤ
cyj nego
ĠÐ¢ Ð¾Ð¿
ĠÐ·Ð°ÐºÑĢÑĭ ÑĤÑĮ
ĠÐ¿ÑĢÐ¸Ð½ÑĨÐ¸Ð¿ Ñĭ
ĠÐ½ÐµÐ´ Ð¾ÑĢÐ¾Ð³Ð¾
ĠÑĥÑĩ Ð¸ÑĤÐµÐ»Ñı
I M
Ġt wa
Ð¾Ð·Ð´ Ð¾ÑĢÐ¾Ð²
ĠÑįÐ»ÐµÐºÑĤÑĢ Ð¾Ð¼
Ġd rew
ĠÐ²ÑĤÐ¾ÑĢ ÑĥÑİ
ĠÑģÐ¾ÑĨÐ¸Ð°Ð»ÑĮ Ð½ÑĭÐµ
ĠÑĤÐµÐ¿Ð» Ð¾Ð¸Ð·Ð¾Ð»ÑıÑ
ĠÐ¿Ð» Ð¾Ð´Ð¾Ð²
20 22
ĠÑģÑĤ ÑĢÑĥ
ĠÐºÐ¾Ð½ÑĤÐ°Ðº ÑĤÑĭ
ĠÑĢÐ°Ð·Ð² Ð¾Ð´
ÐµÐ °ÑĤ
Ð°Ð ½ÑĭÐµ
ÑĥÑĩ Ð¸ÑĤÑĮ
ÑīÐ¸Ðº Ð¾Ð¼
ĠÑĢÐ°Ð±Ð¾ÑĤÐ°Ñ İÑī
Ð¸Ð´Ð µ
ÑĢÐ ¾ÑĢ
ĠÐ¿Ð¾ÑģÐµÑī ÐµÐ½Ð¸Ñı
ĠÑĤÑĢÑĥ Ð´Ð¾
ĠÐ¡ÐĿ Ðĵ
Ð´ ÐµÐ²
ĠÐ¸Ð³ ÑĢÐ¾ÐºÐ°
Ð¾Ð±Ð ¸
ÑĤÑĢ Ð¾Ð¹ÐºÐ¸
A P
ĠÐ°Ñģ ÑĤÑĢ
Ġpot wier
ĠÐ°Ðº ÑĨÐ¸Ð¾Ð½Ð
ÐµÐ¹ Ð·
Ð¾Ð½ÐµÐ ¶
ĠÑĦÐ°Ð½ ÑĤÐ°Ñģ
ĠÐ¤ÐµÐ´ÐµÑĢÐ°Ð»ÑĮ Ð½Ð¾Ð³Ð¾
ĠÐ¿Ð¾ÑģÑĤÐ°Ð² ÐºÐ¸
5 3
Ð¾Ð´ ÑģÑĤÐ²Ð°
Ġ Ð°ÑĥÑĤ
Ġbez po
ĠÐ¡ Ð¸ÑĢ
ĠÑĥÑīÐµÑĢÐ± Ð
ĠÐĶ Ð¾Ð²
ĠÐ¿Ð°Ð¿ Ð
ĠÐ¿Ð» ÐµÑģ
Ñģ ÑĤÑĮ
ĠÐ½Ð¾ÑĢÐ¼ Ð°Ð»Ð¸Ð·
ĠÐºÑĢÐ°ÑģÐ¸Ð² Ð¾Ð¹
ĠÐ¿ÑĢÐ¸Ð¹ ÑĤÐ¸
Ġce l
= =
ĠÐ¿Ð¾Ð´ ÑģÑĩ
p lo
ĠÐ¿Ð¾Ð»ÑĮÐ·Ð¾Ð²Ð°ÑĤÐµÐ»Ñı Ð¼
ÐµÑī ÐµÐ½Ð¸Ðµ
ĠÑģÐ¾Ð·Ð½Ð°Ð½Ð ¸Ñı
ĠÐ½Ð°ÑĢ Ðº
ĠR ad
ĠÐ½ÐµÐ¿ÑĢÐ°Ð² Ð¸Ð»ÑĮÐ½Ð¾
ĠÐ·Ð°Ð± Ð°Ð²
Ð¸Ð ¾Ñģ
ĠÐ·Ð°Ð²Ð¸Ñģ ÐµÑĤÑĮ
ĠÐ½ÑĥÐ¶ Ð½ÑĭÐ¹
ĠÐºÐ°ÑĢ ÑĤÐ¸Ð½Ñĥ
an g
ĠÑģÐ» ÑĥÑħ
ĠÐ¿ Ð°Ð»Ð°
ÐµÑĢÐµÐ ±
ĠÑĨÐ¸ÑĦ ÑĢÑĭ
ĠÐ¾Ð±Ð¾Ð» Ð¾ÑĩÐºÐ¸
ĠÐĶ ÐµÑĢÐµÐ²
ĠÐ²Ñĭ ÐµÐ·Ð´
ĠÐ½Ð¸Ð· ÐºÐ¸Ð¼
tycz ny
Ð´ Ð¸Ð½Ð³
ĠÐ´ ÐµÐ³
ĠzamÃ³w ie
âĢ¦âĢ¦ âĢ¦âĢ¦
h at
ĠÑĢÐ¾Ð´ÑģÑĤÐ² ÐµÐ½Ð½Ð¸Ðº
Ð¾Ñģ Ñģ
d r
ĠÑĢÐ°Ð´ Ñĭ
ĠÐ¾Ð±ÑĭÑĩ Ð½ÑĭÐµ
ĠÐ²ÐµÐ´ ÑĥÑĤ
ĠÑģÐ´ÐµÐ» Ð°Ð»Ð°
ĠÑģÑĤÑĢÐ¾Ð ¸ÑĤÑĮ
Ġre la
Ġz godnie
ĠÐ¸ÑģÐ¿Ð¾Ð»ÑĮÐ·Ð¾Ð² Ð°Ð»Ð¸
ĠÐ² Ð¸Ð¶Ñĥ
ĠÐľÐ°ÑĢÐ ¸Ñı
ĠÐ¿ÑĢÐ¸Ð² Ð¾Ð´ÑıÑĤ
ĠÐ¾Ð» Ð¸Ð¼
ĠÑģÐ¾Ñ Ħ
y ba
ĠÐ½Ð°Ðº Ð»
ĠÐ»Ð¸ÑĨÐµÐ½Ð· Ð¸Ð¸
Ð°Ð´ Ð¸ÑĤÑĮ
ĠÐ¸Ð½Ð´Ð¸Ð²Ð¸Ð´Ñĥ Ð°Ð»ÑĮÐ½Ð¾
ĠÑģÑĤ ÑıÐ¶
ĠÐ¸Ð·Ð¼ÐµÑĢ ÐµÐ½Ð¸Ñı
ĠÑģÑĥÐ¼ Ð¼Ðµ
ĠÐ¡ Ð°Ð½
Ġda lej
dze ÅĦ
ĠÑĢÐ °
ĠÐŁÑĢ Ð¾Ð¼
ĠÐ¾Ð± Ð¸Ð´
Ġpro stytu
Ġle piej
ĠÑĢÐ°Ñģ ÑĪÐ¸ÑĢÐ
Ð°ÑĤ Ð¾Ð³Ð¾
ĠÐ½ÐµÐ²ÐµÑĢÐ¾Ñı ÑĤÐ½Ð¾
ĠÐºÑĥÑĢ ÑģÐ¾Ð²
ĠÐ·Ð°Ð¼ÐµÑģ ÑĤÐ¸ÑĤ
Ð½Ð°Ñĩ Ð°Ð»Ðµ
ĠÑĥÑĩ Ð¸ÑĤÐµÐ»ÑĮ
ĠÐ´Ð¾ÑĢÐ¾Ð³ Ð¸Ðµ
Ð°Ð² ÐºÐ°Ð·
ĠÑģÑħ Ð²Ð°
Ð±Ð ¸Ñı
Ð°Ð»ÑĮ Ð½Ð¾ÑģÑĤÐ¸
ĠÑģÐ¿Ð¾ÑĢ ÑĤÐ¸Ð²Ð½ÑĭÑħ
mi ng
ĠÑĥÑģÑĤÐ°Ð½Ð°Ð²Ð»Ð¸Ð² Ð°ÑİÑĤ
¸ÑĪ ÑĮ
ĠÑģ Ð½Ð°Ð±Ð¶
ĠÑģÐ°Ð¼ Ð¾Ð»ÐµÑĤ
ĠÐºÐ°ÑĢÐ°Ð½Ð´ Ð°ÑĪ
ĠÐ´Ð¾ÑĢÐ¾Ð¶ Ð½Ð¾Ð³Ð¾
wi dÅĤ
ĠÑħÐ² Ð¾ÑģÑĤ
Ġwybra Äĩ
ĠÑģÐ½Ð° ÑĢÑĥÐ¶Ð¸
ĠÑĤÑĥ Ð°Ð»Ð
ĠÐ¿ÐµÑĢÐµÐ¿ Ð¸Ñģ
ÐĴ ÑģÐµ
ĠÑģÐºÐ¸Ð´ ÐºÐ¸
ĠÐ½ÐµÐ· Ð½Ð°ÐºÐ¾Ð¼
Ð¸Ð½Ð µÐ¹
ĠÑģÑĤÐ¾Ð» Ð¸ÑĨÐµ
ĠS praw
ĠÐ± ÑĢÑĥÑģ
ĠÐ¿Ð¾Ð´Ð¿ Ð¸ÑģÑĮ
Ġ4 3
Ġw ÅĽrÃ³d
Ðł Ð¢
ĠÐ´ÑĢÐ°Ð ³Ð¾ÑĨ
Ġwo j
ĠÐ·Ð°Ð²ÑĤ ÑĢÐ°Ðº
Ð¾Ð» Ð¾Ðº
ĠÐĽ ÑĥÑĩÑĪ
ĠÐ¿Ð¾Ð»Ð¾Ð¶ Ð¸ÑĤÐµÐ»ÑĮÐ½ÑĭÐµ
ĠÑģÐ¾ÑģÑĤÐ¾Ñı Ð½Ð¸Ñİ
ĠÐ¼ÐµÑĩÑ Ĥ
p ÄĻ
Ġob ro
Ð°Ð»Ð°Ð½ ÑģÐ¸ÑĢÐ¾Ð²
ĠÐ±ÑĭÐ² ÑĪÐµÐ³Ð¾
ĠÐ³ÑĢÐ°ÑĦ Ð¸Ðº
ĠÐ±ÐµÑģ ÐµÐ´
ĠÐ¿ Ð°Ð·
ĠÐºÑĢÐµÐ´ Ð¸ÑĤÑĭ
ĠÐ½Ðµ Ð¾Ð¿
Ð»Ñı Ð»Ð°
ĠÐ´Ð¾Ð» Ð»Ð°
ĠÐ²ÑĭÑģÐ¾Ðº Ð¾ÐºÐ°ÑĩÐµÑģÑĤÐ²
ĠÐ½Ð°Ñĩ Ð½ÑĥÑĤ
ĠÐ§ ÐµÑĢ
ĠS tu
ĠÐ¿ÑĤÐ¸ÑĨ Ñĭ
ĠÅĽ wiÄĻ
ĠÑĢÐµÑĪ ÐµÐ½Ð¸Ð¸
ĠÐºÑĢÐ¾Ð² Ð°ÑĤÑĮ
ĠÑģÑĤÐ°ÑĢ Ð¾Ð³Ð¾
Ġprzy zna
ÑĢÐµÐ »Ðµ
Ð¾Ð°Ð º
ĠÐ¿ÑĢÐ¾Ð³Ð ½
for t
ĠÐ¼Ð½Ð¾Ð¶ ÐµÑģÑĤÐ²Ð°
Ġd ia
Ð¸Ð¼ ÐµÑĤ
ĠÑģÐ´ÐµÐ» Ð°Ð½Ð¾
Ġty s
ĠÐºÐ°ÑĩÐµÑģÑĤÐ² Ð¾Ð¼
ĠÐ°Ð½Ð´ ÑĢÐ¾Ð¸Ð´
ĠÐŁÐ¾ÑģÐ»ÐµÐ´ Ð½Ð¸Ðµ
g ry
ÐµÑĢ Ð¸Ð¹
ĠwspÃ³ÅĤ pra
ĠÐŀÐ´ ÐµÑģ
Ð½ÐµÐ ´
Ġp ers
ĠÑĦ Ð¾ÑģÑĦ
p ort
ĠÑģÐ¸Ð» Ð¸Ðº
O M
ĠÑĥÐ³Ð¾Ð»Ð¾Ð² Ð½Ð¾Ð³Ð¾
ÑĤÑĥ Ð´Ð°
ĠÐ²Ñĭ ÑĢÑĥÑĩ
ar u
ĠÐ¼Ð°ÑĤ ÑĩÐ°
ĠÐ·ÐµÐ¼ ÐµÐ»ÑĮÐ½Ð¾Ð³Ð¾
ĠÐ¿Ð¾Ð¿ Ð°Ð»
ĠÐ²Ñĭ Ð±Ð¾ÑĢÑĥ
ĠÐ´Ð¾Ð» Ñı
ĠÐ¿Ð¾Ð» Ð½Ð°Ñı
ĠszczegÃ³l nie
ĠÐºÐ°Ð¼ ÐµÑĢÐ°
ĠÐ»ÑİÐ± Ð¾Ð¼Ñĥ
ĠÑįÐ¼Ð¾Ñ ĨÐ¸Ð¹
ÑĢÐ¾Ñį Ð»ÐµÐ¼
ĠÐ±Ð°Ð· Ñĥ
ĠÐĲÐ· Ð¸Ð¸
ÑĥÑģ ÑĤÐµ
ĠÑħÐ¾ÑĢÐ¾ÑĪ ÑĥÑİ
ĠÑģÐ¼Ð°ÑĢÑĤÑĦ Ð¾Ð½
ĠÐ½Ð°Ð»Ð¸Ñĩ Ð½ÑĭÐ¼Ð¸
Ġ8 5
Ġpew no
ĠÑĥÑĩÐ°ÑģÑĤÐ² Ð¾Ð²Ð°ÑĤÑĮ
Ġgo dzin
ĠÐ¿ÑĢÐ¸Ð¼ ÐµÑĢÐµ
ĠÐ· Ð¾Ð»Ð¾ÑĤÐ
ĠÐ½Ð°Ð¿Ð¸Ñģ Ð°Ð½Ð¾
ĠÐ¿ÑĢÐ¾Ð² ÐµÐ»
ĠÐ´ ÑĭÑĪ
ÑĢÐ°ÐµÐ¼ ÑģÑı
Ġob raz
ĠÐºÐ°Ð¼ Ð½Ð¸
ĠÑģÐ¾Ð¼ Ð½ÐµÐ½Ð¸Ñı
ĠÑĢÐ¸Ñ ĤÑĥ
ĠÑĢÐ¾Ð· Ð½Ð¸Ñĩ
ÐµÐ² Ð¾Ðµ
ĠÐ³Ð° ÑĢÐ°Ð¶
ÑĪ Ð°ÑĦ
Ñį ÑĪ
ÑĤÑĮÐ µ
ĠÐĳ ÐµÐ»Ð¾ÑĢÑĥÑģ
niÄħ dze
ÐµÑĢ Ð²Ð
ĠÐ»Ð¸ÑĨ Ð°Ð¼Ð¸
ĠÑİÐ± Ð¸Ð»
ĠÐ¿ÑĢÐµÐ²ÑĭÑĪ Ð°ÑĤÑĮ
ÑĥÑĤ Ð¾Ð²
ĠÑĥÑĩ Ð¸ÑĤÑĮÑģÑı
ĠÐ¾ÑĨ ÐµÐ½ÐºÑĥ
ĠÐ³Ð¾Ð»Ð¾Ñģ Ð
Ðĺ Ð¡
ĠÐ£Ð´ Ð°Ð»
ĠÐ¿ÑĢÐ¾Ð¸ÑģÑħÐ¾Ð´ ÑıÑĤ
ÑĢÐ°Ð» Ð°ÑģÑĮ
Ð°ÐµÐ²Ð °
zu jÄħ
ÐµÐ¼ Ð¸Ð¸
ĠÑĥÑīÐµÑĢÐ±Ð °
ĠÐ³Ð¾ÑĢ Ð¾Ð´Ñĥ
ĠÑĤÑĢÐµÑĤÑĮ ÐµÐ³Ð¾
ĠÐłÐµÐ³Ð¸ÑģÑĤ ÑĢÐ°ÑĨÐ¸Ñı
ĠÐŀÐ¿ ÑĤÐ¸Ð¼
Ð¸Ð» ÐºÐ¸
Ð¾ÑģÐ µ
Å ļ
ĠÐ²Ð°ÑĢ ÑĮÐ
we j
ĠÑĤÑĢÐµÐ± ÑĥÐµÐ¼
ĠÐĴ Ð°Ð¼Ð¸
Ð½ÐµÐ ·
ĠSt ar
ĠÐ¿Ð»Ð°Ð½Ð¸ ÑĢÑĥÐµÑĤ
Ġ4 9
ĠÐľÐ¾ÑģÐº Ð²Ñĥ
ÑĢÐ¾Ð²Ð µ
ĠÐºÑĢÐµÐ´Ð¸ ÑĤÐ½Ð¾Ð¹
ĠÐ¼Ð¾Ð»Ð¾Ð´ ÐµÐ¶Ð¸
ĠÑģÑĥÐ±ÑĬÐµÐº ÑĤÐ¾Ð²
ĠÐ²ÑĭÑĢÐ°Ñī Ð¸Ð²Ð°Ð½Ð¸Ñı
Ð¾Ð» ÐµÐ¹
ĠÐ²ÑĭÐ¸Ð³ ÑĢÐ°ÑĤÑĮ
ĠÐ¡ Ð±Ð¾ÑĢ
ĠÑĢÐ¸Ñģ ÐºÐ¸
ĠÑĤÐ°Ð» Ð°Ð½
Ð¸ÑĤ Ð°ÐµÑĤ
ĠÐĺÐ½ ÑģÑĤ
lo ny
ĠÐĳ Ð°Ð½Ðº
ĠÐĲÐ´ ÑĢÐµÑģ
Ġzro bi
ĠÑĢÐ°ÑģÐ¿ÑĢÐ¾ÑģÑĤÑĢÐ°Ð½ÐµÐ½Ð ¸Ðµ
Ð°Ñ ĩÐµÑģÑĤÐ²Ð¾
ĠÐ¿Ð¾Ð¿Ñĭ ÑĤÐºÐ¸
ĠÑĤÐµÐ°ÑĤ ÑĢÐ°
ĠÐ¾ÑĤÐ»Ð¸Ñĩ Ð½ÑĭÐ¼
ĠÑģÑĭÑĢ ÑĮÑı
Ġtem pera
w ca
ĠÐ½Ð° ÑĢÐ°Ñī
ĠÐ¿ÐµÑģ Ð¾Ðº
ĠÐ¼Ð°Ð³Ð°Ð· Ð¸Ð½Ñĭ
ĠÐ±Ð»Ð¾Ðº Ð¾Ð²
ÐµÐ¹Ð ½
to gra
ĠÐ¼ÑĥÐ»ÑĮ Ñ
ĠÐ¿ÑĢÐ¸Ð´ ÑĳÑĤÑģÑı
ĠÑįÐºÑģÐº Ð»ÑİÐ·Ð¸Ð²
ĠÐ¼ÑĥÐ»ÑĮÑ Ĥ
ĠÑĥÐ³Ð¾Ð» Ð¾Ð²Ð½Ð¾Ðµ
ÑĢ Ð¾Ð½ÑĤ
ÐµÑĢÐ ³Ð
ĠÐ» Ð¾Ð³Ð¾
ĠÐ·Ð°Ð± ÑĭÑĤÑĮ
Ġu trzyma
ÑĤÐ¾Ð² ÑĭÑħ
ĠÐ³Ð»Ð°Ð² Ð½Ð°Ñı
ĠÐ¿Ð¾ÑģÑĤÐ¾ÑıÐ½Ð ½Ð¾Ð¹
ĠÐ½Ñİ Ð°Ð½ÑģÑĭ
cja mi
n ce
ĠÐŁÐĴ Ð¥
ĠÑĥÑģÐ»Ð¾Ð²Ð¸Ñı Ð¼Ð¸
ĠÑģÐ¾Ð±Ñĭ ÑĤÐ¸Ðµ
ĠÐĴ ÐµÑģÑĮ
ĠÐŁÐ¾ ÑıÐ²
ĠÑİ Ð½Ð¾ÑĪ
ĠÑģÐ» Ð¾ÑĤ
R U
ĠÐ¿Ð¾ÑıÐ² Ð¸Ð»Ð¾ÑģÑĮ
ĠÐĶÐµÐ² ÑĥÑĪÐºÐ°
Ġm p
ĠÐ¢ ÑĢÐ¸
Ð°ÑĨÐ¸Ð¾Ð½Ð ½Ð¾Ð¹
ĠÐº Ð¾ÐµÐ¼
ĠÐ»Ð°Ð³Ð µÑĢ
ÑĥÐ±Ð» Ð¸ÐºÐ°
ĠÐ» ÑĥÐ½Ð
ĠÐ°Ðº ÑĢÐ¸Ð»
ĠÐ½ÐµÐ±Ð¾Ð»ÑĮÑĪ Ð¾Ð³Ð¾
ĠÑĥÑĩÐ°Ñģ ÑĤÐºÐ°Ñħ
ĠÑĢÐµÐ¼Ð¾Ð½ ÑĤÑĥ
ĠÑĢÐ°ÑģÐ¿ Ð¾Ð·
Ġre gi
ĠÐ²ÑĭÐ¿Ð¾Ð»Ð½ÐµÐ½Ð ¸Ð¸
ĠÑĤÑĢ Ð¸Ð´
ÑĢÐµÐ¼ Ð¾Ð½
ĠÐ¿ÑĢÐ¸Ð· Ð½Ð°ÑĤÑĮ
8 00
ĠrÃ³Å¼ ne
Ġz y
Ġprac ÄĻ
ÅĤ owy
ĠÐ¾Ð± ÑĢÐ°Ð±Ð¾ÑĤ
ĠÐ·Ð°Ð» Ð¸ÑĤÑĮ
Ð¾ÑĢÐ¼Ð ¸ÑĢÐ¾Ð²Ð°ÑĤÑĮ
ÅĤa w
ĠÐ¡ Ð»Ð¾Ð²
ĠÑĥÐ³ Ð»Ñĥ
ĠÑĤÐ°Ð± Ð»Ðµ
ĠÐ½Ð¾Ð³ Ñĥ
ĠÐ¾ÑĢÐ³ Ð°Ð½Ð°Ñħ
ÑĤÐ¸Ð½Ð ³Ðµ
ĠÐ³Ð¾ÑģÑĥÐ´Ð°ÑĢÑģÑĤÐ² ÐµÐ½Ð½ÑĭÐ¹
ĠÐ½ÐµÐ±Ð¾Ð»ÑĮÑĪ Ð°Ñı
ĠÑıÐ³ Ð¾Ð´Ñĭ
ĠÑģÐµÐº ÑĢÐµÑĤÐ°
Ġzdr owia
ĠÐ½Ð°ÑģÑĤÐ¾ÑıÑī Ð¸Ð¼
ÑģÐ¸ÑĢÐ¾Ð² Ð°Ð½Ð¸Ðµ
ĠV e
ĠÐ¿Ð¾ÐºÐ°Ð· Ð°Ð½Ð¾
Ð¿ Ð¾Ð²
le piej
ĠÐ°Ð²ÑĤÐ¾Ð¼ Ð°ÑĤÐ¾Ð²
ĠÐ² Ð¾Ð»ÑĮ
ĠÑĩ ÑĥÐ»
ĠÐ¿Ð¾ÐºÑĥÐ¿ Ð°ÑĤÐµÐ»Ñı
ĠÐ¿Ð¾Ð´ÑĢÐ°Ð·ÑĥÐ¼ÐµÐ² Ð°ÐµÑĤ
¸ÑĢÐ¾Ð² ÐºÐ¸
ĠÐĶÐ¾Ð±Ð°Ð² Ð¸ÑĤÑĮ
ĠÐ´ Ð½Ð¾
ĠÑĤÐ¸Ð¿ Ñĭ
ĠÐ»Ð°Ð¼Ð¿ Ñĭ
ĠÐ¿ÑĢÐ¸ÑģÑĥÑĤÑģÑĤÐ² ÑĥÑİÑĤ
Â» ?
ĠÐ¾ÐºÑĢÑĥÐ¶ Ð°ÑİÑīÐ¸Ñħ
ĠÐŁÐ¾Ð´Ð³Ð¾ÑĤÐ¾Ð² ÐºÐ°
ĠÑĦ ÑĢÐ°Ðº
li zacji
ĠÐ¿ÐµÑģ ÐºÐ°
Ñ ĤÐµÐ»
ĠÑģÐ»ÐµÐ´ Ð¾Ð²Ð°ÑĤÑĮ
ĠÐ¾Ð±Ñī Ð¸Ñħ
ĠÐ² Ð¾ÑĢÐ¾ÑĤÐ°
ĠÐ± Ð°Ð½Ð´
ĠÑģÑĤÑĢÑĥÐºÑĤÑĥ ÑĢÐ°
ĠÐ´ÑĭÑħ Ð°Ð½Ð¸Ðµ
ĠÑĤÐ¾Ñĩ ÐµÐº
ĠÑĤÐµÐºÑĥÑī ÐµÐ³Ð¾
ĠÐ¿ÑĢ ÑĥÐ¶
ĠÐ´Ð²Ð¸Ð¶ ÐµÐ½Ð¸Ð¹
Ð¿ ÐµÑĪ
ĠÐ» Ð°Ð½Ð´
ce m
Ġza bezpie
ÑĤÐ¸Ð½Ð ºÐ¸
ĠÐ½Ð°Ð ¶Ð°
ĠÐ¾Ð±Ð¼ Ð°Ð½
ĠÐĵÐŀ Ð¡Ð¢
ĠÐ¿ÑĢÐµÐ´ÑĬ ÑıÐ²Ð»Ñı
ĠÐ½ÐµÐ² ÑĭÑģ
ĠÐ» ÐµÐ½ÑĤÑĭ
c s
ĠÐºÐ¾Ð¼ÑĦÐ¾ÑĢ ÑĤÐ½Ð¾
ĠÑĤÐµÑĢ ÑıÐµÑĤ
ĠÑģÐ²ÑıÐ· Ð°Ð½
ĠÐļ Ð¾ÑģÑĤ
Ġu czni
ĠÐ¿ÑĢÐ¸Ð± Ð¾ÑĢÐ°
ĠÑĢÐ°Ð·Ð² Ð»ÐµÐº
ĠÐ½Ð¾Ð² Ð¾ÑģÑĤÐµÐ¹
ĠÑģÐ² Ñı
ĠÑĨÐµÐ½ÑĤ ÑĢÐ°Ð»ÑĮÐ½Ð¾Ð¹
Ġs ka
ĠÐ³Ð°ÑĢÐ°Ð½ ÑĤÐ¸Ð¸
ĠÐĶ Ð¾ÑģÑĤÑĥÐ¿
ĠÐ¡Ð¾Ð²ÑĢÐµÐ¼ ÐµÐ½Ð½ÑĭÐµ
ĠÐ¿ÐµÑĢÑģÐ¾Ð½Ð°Ð»ÑĮ Ð½ÑĭÑħ
ĠÐ²ÑĭÑģÐº Ð°Ð·ÑĭÐ²
de mi
ĠÐ±Ð°Ðº ÑĤÐµÑĢÐ¸Ð¹
ĠÐ´ÐµÐ²ÑĥÑĪ ÐºÐµ
ĠÐºÐ°ÑĦ ÐµÐ´
ĠÐ½ÐµÐ±Ð¾Ð»ÑĮÑĪ ÑĥÑİ
ĠÑģÐ²ÐµÐ¶ Ð¸Ðµ
ĠÐ²Ð¾Ð¹ Ð½Ð°
ĠP C
ĠXI X
ĠÑĤÑĢ ÐµÐ½Ð°Ð¶
ĠÐ½Ð°Ð² ÐµÑģ
ĠÐĺ Ð»ÑĮ
ĠÑĤÐµÐ» ÐµÑģ
ĠÑĦÐ¸Ð· Ð¸ÑĩÐµÑģÐºÐ¸Ðµ
we go
ÐµÐ ¾Ñħ
ÑĤÐ¾ÑĢÐ ½ÑĭÐµ
ĠÐ²Ð¾Ð¹ ÑĤÐ¸
ĠÑĢÐ°ÑģÑģÐº Ð°Ð¶ÐµÐ¼
Ġszcze g
ĠÐ¾Ðº ÐµÐ°Ð
ĠÐºÐ¾Ð½Ð² ÐµÑĢ
ĠÐŀÐ± Ð·Ð¾ÑĢ
ĠÐł Ð°ÑģÑĤ
ĠÐ¾Ð¿ÐµÑĢÐ° ÑĤÐ¸Ð²Ð½Ð¾
cyj nej
li k
ĠÑĤÑĢÐµÐ½Ð µÑĢ
ĠÑĥ Ð»Ð¸Ñĩ
ĠÐ» Ð¸Ð·
ĠÑģÐ»ÐµÐ´Ð¾Ð² Ð°ÑĤÐµÐ»ÑĮÐ½Ð¾
Ġpowinie n
ĠÐ²ÑĤÐ¾ÑĢ Ð¾Ðµ
ĠÐ·Ð°Ð´Ð°Ñĩ Ñĥ
Ġb an
ĠÐŁÑĢÐ¸Ð¼ ÐµÑĩ
c am
ĠÐ¾ÑģÑĤ ÑĢÐ¾Ð²Ð°
ĠÐ¾ÑĤÐ ³
ĠÐ¿Ð¾Ð»ÑĥÑĩ Ð°ÐµÑĤÐµ
ĠÐºÐ°ÑĢÑĤÐ¾ÑĦ ÐµÐ»ÑĮ
ĠÐ½ÐµÑĦ ÑĤÐ¸
ĠÐµÐ´Ð¸Ð½Ð ¸ÑĨ
ĠÑĨÐ²ÐµÑĤ Ð°Ð¼Ð¸
ĠÐ²Ñĭ ÑģÐ»
ĠÐ¿Ð¾Ð´ Ð
al ny
ĠÑĥÐ² Ð»ÐµÑĩ
ĠÑĥÑĤÐ²ÐµÑĢÐ¶Ð´ Ð°ÑİÑĤ
ĠÑįÑĦÑĦÐµÐº ÑĤÐ¾Ð¼
ĠÐ·Ð´Ð¾ÑĢÐ¾Ð² ÑĮÐµÐ¼
ĠÑģÐ°Ð¼Ð¾ ÑĥÐ¿
ÑĥÐ¿ Ð¾ÑĤÑĢÐµÐ±
ĠÐĺÐ½ ÑģÑĤÑĢÑĥÐºÑĨÐ¸Ñı
ĠÐ¾Ð´ Ð½Ð°Ð¶Ð´Ñĭ
ĠÐ°Ð»Ð¸Ð¼ ÐµÐ½ÑĤÐ¾Ð²
ĠÑģÐ¾Ð»Ð´ Ð°ÑĤ
ĠÐ½Ð°Ð±Ð»ÑİÐ´ Ð°ÑĤÑĮ
ĠÐľÐ°Ñģ ÑĤÐµÑĢ
ĠÐŁÑĢÐ°Ð² Ð¸ÑĤÐµÐ»ÑĮ
t na
ĠÑħ Ð¾ÐºÐº
Ð°ÑĢÐ ¸ÑĤÐµÐ»ÑĮ
ĠÐ½Ð°ÑĪ Ð¸Ð¼Ð¸
ĠÐ½Ð¾Ð² Ð¾Ð¾Ð±ÑĢÐ°Ð·
ĠÐ³Ð¾ÑĤÐ¾Ð² Ð½Ð¾ÑģÑĤÐ¸
ĠÐ¡ Ð°Ð¼Ð°
ĠÐºÐ» Ð¸Ð¼Ð°
ĠÐ¿ÑĢÐµÐ´ÐµÐ» Ð°Ð¼Ð¸
ĠÐ¨ Ð
Ġ2 10
ÑĢÐ¸ ÐµÐ¼
ĠÐ·Ð°Ð±ÑĥÐ´ ÑĮÑĤÐµ
ÑĤÐ°Ñ ĳÑĤ
ĠÐ² Ð¾Ð¸Ð½
ĠÐ¿Ð» ÐµÑĤ
Ð¾Ð»ÑĮÐ· ÑĥÐ¹ÑĤÐµÑģÑĮ
ĠÑģÑĥÐ¿ ÑĢÑĥÐ³Ð°
ĠÐļ ÑĥÑĢÑģ
ĠÐ¾ÑģÐ¾Ð± ÐµÐ½Ð½Ð¾ÑģÑĤÑĮ
ĠÑĤ ÐµÐ¼Ð¸
Ġ owo
ĠÐ²ÑĭÑģ ÑĭÐ¿
ÑĥÑĢÐ ¾ÑĢ
Ðļ Ð¾Ð¼
ĠÑĢÐ°ÑģÐ¿Ð¾Ð»Ð¾Ð¶ ÐµÐ½Ð¸Ñı
ÑĢÑĭ Ð¼Ð¸
ĠÐºÐ²Ð°ÑĢ Ñ
ĠÐºÐ²Ð°ÑĢÑ Ĥ
Ð¾Ð· Ð³
ĠÐ¾ÑĤÑģÑĥÑĤÑģÑĤÐ² ÑĥÑİÑĤ
Ð´ ÐµÐ¼
ĠÑĩ ÐµÑĢÐµÐ´
ĠÑĤÐµÐºÑģÑĤ Ñĥ
ĠÐºÐ°ÑĢÐ ±
Ð¸Ð»ÑĮ Ð½ÑĭÐµ
ĠÐ¡ ÑĩÐ¸ÑĤ
ĠÑģ ÐºÑĥ
ÑĢÐ¾ÑģÐ °
ĠÐºÐ°ÑĢ ÑĤÐ¸Ð½Ð°
Ð¸Ð´ÐµÑĤ ÐµÐ»ÑĮ
ÑĢ Ñİ
Ġ* **
ĠÐ¿Ð¾Ð² ÐµÐ·
ĠÐ¡ Ð°Ñħ
Å¼ ony
Ġ4 6
Ð¸Ð½Ð°Ð »Ð°
ĠÐ·Ð°ÑĢ Ð¿
ÐĿ ÐĶ
ĠÐ¸Ñģ Ñħ
ĠÐ¸ÑģÐ¿Ð¾Ð»ÑĮÐ·Ð¾Ð² Ð°Ð½Ð¸Ñİ
ĠÐ±ÐµÐ· ÑĥÑģÐ»Ð¾Ð²Ð½Ð¾
ĠÐŁ ÑĢÐ¸Ñı
ĠÐ£ ÑģÑĤÑĢÐ¾Ð¹
ĠÐ³Ð°ÑĢÐ°Ð½ ÑĤÐ¸Ð¹
ĠÐ¿Ð¾Ð½Ð¸Ð¼ Ð°ÑİÑĤ
Ġodp owiada
ĠÐ¶Ð¸Ð² Ð¾ÑĤÐµ
ÑģÐ»ÑĥÐ¶ Ð±Ðµ
Ð½Ð ³
ĠÐ½Ð¸Ñĩ ÐµÐ¼
ĠÑģÐ´ Ð°ÑĤÑĮ
Ñĭ Ð·
ĠÐ¿ÑĢÐ¾Ñģ Ð¼Ð°ÑĤÑĢ
ĠÑĢÑĭ Ñĩ
pie r
by m
ĠÑĥÑħ Ð¾Ð´Ðµ
ĠÑĤÑİ ÑĢÑĮ
ĠÐ¿ÑĢÐ¾Ð´Ð¾Ð»Ð¶ Ð¸ÑĤÐµÐ»ÑĮÐ½Ð¾ÑģÑĤÑĮ
ĠÐ¾ÑģÑĤÐ°Ð½Ð¾Ð² Ð¸ÑĤÑĮ
ÑĢÑĭ ÑģÐº
ĠÐ½ÐµÐ ½ÑĥÐ¶
Ġ3 50
ĠÐ¿Ð¾ÑĤÑĢÐµÐ± Ð»ÐµÐ½Ð¸Ñı
Ġspos ob
ĠÑĢÑĥÐºÐ¾Ð²Ð¾Ð´ ÑģÑĤÐ²Ð°
p owie
ĠÑĢÐµÑĦ Ð¾ÑĢÐ¼
ĠÐºÑĢÐ¾Ñģ ÑģÐ¾Ð²
Ġ0 4
ĠÐ¶Ð¸Ð²Ð¾ÑĤÐ ½ÑĭÐµ
ĠÑģ ÑĤÐ¾ÑıÑī
ĠÑįÐ»ÐµÐºÑĤÑĢÐ¾ÑįÐ½ÐµÑĢÐ³ Ð¸Ð¸
ĠÐĿÐ¾Ð² Ð°Ñı
ĠÑĥÑģÑĤÐ°Ð½Ð¾Ð² Ð»ÐµÐ½Ð°
ĠPo nad
ĠÐºÐ¾Ð½ÑĦ Ð¸Ð³Ñĥ
r ie
ĠÑĢÐ°Ð·ÑĢÐ°Ð±Ð¾ÑĤÐ ºÐµ
ĠÐŁÑĢÐµÐ¿Ð° ÑĢÐ°ÑĤ
°Ð º
ĠÐ¿ÑĢÐ¸Ð¾Ð±ÑĢÐµÑĤ ÐµÐ½Ð¸Ñı
ĠÑģÐ´ÐµÐ» Ð°Ð¹ÑĤÐµ
ĠÐł Ð¾Ð¶Ð´
201 1
ĠÐ¼ÐµÑĢÐ¾Ð¿ÑĢÐ¸Ñı ÑĤÐ¸Ðµ
dzia ÅĤu
sy w
ĠÐ½Ð°Ñĩ Ð°Ð»Ð°ÑģÑĮ
ĠÑĤÑĢÐµ ÑĥÐ³Ð¾Ð»ÑĮ
ĠÐ½Ð¸Ðº Ð¾Ð¼Ñĥ
ĠÑĥÑģÑĤÐ°Ð½Ð¾Ð² ÐºÑĥ
Ð¿ ÑĥÑģÐº
Ġdo kona
Ð¼Ð°Ð³Ð°Ð· Ð¸Ð½
Ð¸Ð´ Ð¾Ð²
ĠÐĲÐ½Ð ³
ĠÐ³ÐµÐ½Ðµ ÑĢÐ°Ð»
ĠI S
ĠÐ½Ð ¸ÑĪ
ÑĥÐ±Ð °
ĠÑĢÐµÐºÐ»Ð°Ð¼ Ñĥ
ĠÑħÐ²Ð° ÑĤÐ¸ÑĤ
gi nal
ĠÐ¼Ð°Ð»ÐµÐ½ÑĮ ÐºÐ¾Ð¹
ĠÐ¿Ð»Ð°ÑĤ Ñĥ
Ð¸Ð½Ñĭ Ð¼
ĠÐµÑ İ
ob ec
ĠÐ³Ð¾Ð» Ð¾Ð²Ð°
Ðº Ð°Ð´
Ġth is
Ð¸Ñģ ÑĤÐ¸ÑĤÑĮ
Ġo czy
li na
ĠÐĽ Ð¸Ñģ
Ġ Ð¾ÑĢÐ°Ð½Ð¶
ĠÐ¾ÑĤÐ·ÑĭÐ² Ð¾Ð²
ÅĦ skiej
da mi
ĠÑįÐ»ÐµÐºÑĤÑĢÐ¾Ð½Ð ½ÑĭÑħ
Ð¾ÑģÐ½Ð°Ð±Ð¶ ÐµÐ½Ð¸Ñı
ĠÐ°ÐºÑĤÐ¸Ð² Ð½ÑĭÑħ
ĠÐŀ Ñħ
ĠÐ°ÑĢÐ³ ÑĥÐ¼
ĠÐ´Ð¸Ð°Ð¼ÐµÑĤ ÑĢÐ¾Ð¼
ĠÐľ ÑĥÐ·
ĠÑįÐ»ÐµÐºÑĤÑĢ Ð¾Ð¿
] ,
ĠÐ¸Ð·Ð²ÐµÑģ ÑĤÐ½ÑĭÐµ
ĠÑĦÐ¾ÑĢÐ¼ Ð°ÑĤ
men cie
Ġkon kre
ĠÑĥÑģÐ¿ ÐµÐ²
ĠÐ¿Ð¾Ð´ ÑħÐ¾Ð´Ð°
C H
! )
ĠÑģÐ¾Ð² ÐµÑī
ĠÐºÐ¾Ð½ÐµÑĩ Ð½Ð¾Ð¼
ĠÑĤÐµÑħÐ½Ð¸ÑĩÐµÑģÐº Ð¾Ð³Ð¾
ĠÑģÐ¾Ð¾Ð±Ñī ÐµÐ½Ð¸Ð¸
ĠÐ»ÑİÐ± Ð¸ÑĤÐµÐ»ÑĮ
!! !!
pu bli
Ð¾Ð ¾ÑĤÐ
ĠÑģ Ð½Ð°ÑĢ
¾ ÑĢÐ°Ð¼Ð¸
ĠÐĴ Ð°ÑĪÐ°
ĠÑįÐº Ð¸Ð¿
ÐĲ ÑĢ
ĠÐ½Ð°Ð¿Ð¸ ÑĤÐºÐ¾Ð²
ÑĢÐ ¸ÑģÑĤÐ¾Ð²
ĠÑħÐ¾Ñĩ ÐµÑĪÑĮ
ĠÐŁ Ð°ÑĤ
ÐµÐ² ÑĭÐ¹
ĠÑģÑĩÐµÑĤ Ñĥ
Ġpoja wi
ĠÑģÐº Ð°Ð½Ð
Ð¿ÑĢÐ¾Ð´ Ð°Ð¶Ð¸
ĠÐ¶ ÐµÐ½Ð
ĠÑģÑĤÐ¾ÑĢÐ¾Ð½ Ð¾Ð¹
ÑĭÐ² Ð°Ñİ
ĠÑĨÐ²ÐµÑĤ Ð¾Ðº
Ð¾Ð½Ð ´Ð°
ĠÐ½Ð°Ð¿Ð¸ ÑĤÐºÐ¸
ĠÐ¿Ð¾Ð±ÐµÐ´ Ñĭ
Ð¾ÑħÐ ¸
ĠÐ¿Ð¾Ñģ Ð»ÑĥÑĪ
ĠÐł ÑĥÐ±
ĠÐ¿ÑĢÐ°Ð²Ð¾Ð¾Ñħ ÑĢÐ°Ð½Ð¸ÑĤÐµÐ»ÑĮ
ĠÐ°Ð½ÑĤÐ¸Ñģ ÐµÐ¿
ĠÐµÐ¼ ÐºÐ¾ÑģÑĤÐ¸
Ġsta nd
ĠÐºÐ¾ÑĢÐ ½Ñı
Ð» ÑĥÑĩ
ĠÑĢÐ°Ñģ ÑĤÑıÐ¶
ĠÐ¿Ð¾Ð± ÐµÑĢÐµÐ¶
ĠÐ½ÐµÐ´ Ð°Ð²
ĠÐ¸Ð¼ ÐµÐ½
la s
ĠÐ½Ð°Ð ´Ðµ
ĠÐ¿Ð¾Ð´Ð½Ñı ÑĤÑĮ
ĠÐ¿Ð¾Ð´ ÑģÑĤ
Ñĥ ÐºÐµ
ĠÐ¼ Ð°Ðµ
ĠÑĨ ÐµÐ½Ð½Ð¾ÑģÑĤÐ¸
Ġsob Äħ
ĠÐŁ Ð°Ð¿
ĠÐ¿ ÐµÐ½Ñģ
ĠÐºÑĥÑģ ÑĤÐ°ÑĢ
P N
ĠÐ²Ð´ Ð²
ĠÑĥÐ³ ÑĢÐ¾Ð¶
Ġog ro
¹ ÑĤÐµ
ĠÐ¾Ñģ ÑĤÐ¾ÑĢÐ¾Ð¶Ð½Ð¾
v el
Ð¸Ñĩ Ð½Ð¾ÑģÑĤÑĮ
ĠÐ¿Ð¾Ð´ Ñħ
Ġz im
czÄĻÅĽcie j
ĠÐ±ÐµÑĢ ÑĥÑĤ
ĠÑģÑĩÐ°ÑģÑĤÑĮ Ñİ
ĠÐ¢ Ð¾ÑĢ
ĠÐ¿ÑĢÐ°Ð²Ð¸Ð»ÑĮ Ð½Ð¾Ðµ
ĠÐ¿ÑĢÐ¸Ð³ Ð¾Ð´
rze ÅĦ
ĠÐ± ÐµÐ»Ð¾ÑĢÑĥÑģ
ÑĤÐ°Ñ Ī
ĠÐ¥ Ð°ÑĢÑĮ
Ð¿ ÑĢÐ¾ÑĨ
ĠÐ¨ Ðº
ĠÐ¼ÐµÐ¶Ð´ÑĥÐ½Ð°ÑĢ Ð¾Ð´Ð½Ð¾Ð³Ð¾
ĠÐ¿ÑĢÐ¾Ð±Ð»ÐµÐ¼ Ð°Ð¼Ð¸
ĠÐ¿Ð ¸ÑģÑĤ
ĠÐ¸Ð·Ð´ Ð°Ð½Ð¸Ñı
ĠÐ¿ÑĢÐ¾ÐµÐº ÑĤÐµ
Ð¸Ð½Ð°Ñ ĤÑĮ
ĠÑĦÐ°Ðº ÑĥÐ»ÑĮ
k niÄĻ
ĠÑģÐµÐ½ÑĤ ÑıÐ±ÑĢÐµ
ĠÐ°Ð³ÐµÐ½ÑĤ ÑģÑĤÐ²Ð¾
O T
Ġdu Å¼e
ĠÐ»ÐµÐ³ ÐºÐ¸Ðµ
Ġm et
Ġnaj wyÅ¼
ĠÐ¸Ð¼Ð¼Ñĥ Ð½Ð¸ÑĤÐµ
ĠÐ´Ð°Ð½Ð ½Ð¾Ð¼Ñĥ
ÑĦ ÐµÑĢÐµÐ½
ĠÐļÑĢÐ°Ñģ Ð½Ð¾ÑıÑĢ
ĠÐº ÑĢÐ¸Ñĩ
ĠÐŁ ÑĢÐµÐ¼
ĠÐ¸Ð³ Ð½Ð¾
ĠÐ²Ð¼ÐµÑĪ Ð°ÑĤÐµÐ»ÑĮÑģÑĤÐ²Ð°
ĠÐ¿Ð°ÑģÑģÐ°Ð¶Ð ¸ÑĢ
Ġfir ma
ĠÑģÐ¾ÑģÑĤÐ°Ð² Ð¸Ð»
ĠÐ´Ð²Ð¸Ð³ Ð°ÑĤÑĮÑģÑı
ĠÐ±Ð°Ðº ÑĤÐµÑĢÐ¸
Ð¾Ð² Ð°Ð½Ð¾
ĠÐ´ÐµÑģÑı ÑĤÐºÐ¸
ĠÐ¿ÑĢÐ¸Ð´ Ð°ÐµÑĤ
ĠÐ¼Ð¾ÑĪ ÐµÐ½Ð½Ð
ĠÐ¿Ð»Ð¾ÑīÐ°Ð´ ÐºÐµ
ĠÐ½Ðµ ÑĥÑģÑĤ
ĠÐ¿ ÑĥÑĩ
ĠÐ²ÑģÑĤÑĢÐµÑĩÐ °
ĠÐ±Ð°Ð½Ðº ÑĢÐ¾ÑĤ
ĠÐ¼Ð¾Ð» Ñĩ
ĠÐ¼ÐµÐ´Ð¸Ðº Ð°Ð¼ÐµÐ½ÑĤÐ¾Ð·
ÐµÐºÐ ¾ÑĢ
ĠÐ½ÐµÐ¸Ð· Ð±ÐµÐ¶
Ð½Ðº ÑĢÐ°ÑĦÑĤ
ĠÑĩÐµÑģ ÑĤÐ½Ð¾
ĠÑģÐ°Ð¼Ð¾Ñĩ ÑĥÐ²
rÃ³ ci
ĠÐ¿Ð¾Ð´ Ð·ÐµÐ¼
Ð°Ð ½Ð¾Ð¹
ĠÐ»Ðµ ÑĤÐ°
Ð· Ð²
ĠÐ¸Ð» Ð»ÑİÑģÑĤ
ĠÑħ ÑĢÐ°Ð½
ĠÐ±Ð»Ð°Ð³ Ð¾Ð´Ð°
ĠÐ³Ð¾ ÑĢÑĭ
oba cz
ĠÐľ Ð½Ð¾Ð³Ð¾
ĠÐļ Ð¾Ð¿
ĠÐ¼Ð ¾ÑĤÐ¾
rÃ³ ciÄĩ
ĠÐĹÐ° ÑĤÐ¾
ĠÐ²ÑĭÑģÐ¾Ðº Ð¾Ðµ
ĠÐ± Ð¾Ð±
ĠÐ½Ð°ÐºÐ°Ð· Ð°Ð½Ð¸Ñı
Ġo kaza
ĠÑĨÐ²ÐµÑĤ Ð¾Ð¼
ĠÐ¿Ð¾Ð´ ÐºÐ¾ÑĢÐ¼
ĠÐºÐ¾Ð» Ð»ÐµÐ´
ÐµÑĢÐµÑĩ Ð¸ÑģÐ»
Ð¸Ð·Ð µ
ĠÐ¿ÑĢÐ¾Ð¸Ð· Ð½ÐµÑģ
ĠÐ¿ÑĢÐµÐºÑĢÐ°Ñģ Ð½ÑĭÐ¹
ĠÑģÐº ÑĢÐ¸Ð¿
ĠÐ·Ð½Ð°Ð »Ð¸
ĠÐ½ÐµÐ¿ ÑĢÐµÐ¼ÐµÐ½Ð½Ð¾
ĠÐ½Ð°Ð»Ð¾Ð³ Ð¾Ð¿Ð»Ð°ÑĤÐµÐ»ÑĮ
ĠC he
ĠÑį ÑĢÐ¾
Ġcz ÅĤon
l noÅĽÄĩ
ĠÑĢÐ°ÑģÐ¿Ð¾Ð»Ð°Ð³ Ð°ÐµÑĤÑģÑı
ĠÐ¿ÑĢÐ ¸ÑĨ
ĠÐŁ ÐµÑĤÑĢ
ÐºÐ µÑĢ
Ġroz m
ĠÐ°ÑĢÐ± Ð¸ÑĤÑĢÐ°Ð¶
ĠÐ°ÑĤ Ð°Ðº
ĠÐľ Ð°Ð»ÑĮ
ĠÐ¸ÑģÐºÐ»ÑİÑĩ ÐµÐ½Ð¸Ñı
ĠÐĳ Ð¾ÑĢ
ĠÐ·Ð°Ð¿ ÑĥÑģÐºÐ°
ĠÐ°Ð²Ð¸ Ð°ÐºÐ¾Ð¼Ð¿
ĠÐĹ Ð°Ñģ
ĠÐ¿ÐµÑĩ Ð°ÑĤÑĮ
ĠÐºÐ¾Ð½ÑĨÐµÐ½ÑĤ ÑĢÐ°ÑĨÐ¸Ð¸
5 1
ĠÐ¿ÑĢÐµÐ´Ð¿ÑĢÐ¸Ð½Ð¸Ð¼ Ð°ÑĤÐµÐ»ÐµÐ¹
ĠÐ¿ÑĢÐ¾ÑģÑĤ ÑĥÐ´
Ð»Ð°Ð´ ÐµÐ»ÑĮ
ĠÑĢÐµÐº Ð¾Ð½ÑģÑĤÑĢÑĥÐº
t rza
ĠÑĤÐ°Ð± Ð»ÐµÑĤÐ¾Ðº
ÐŃ Ðº
ĠÐļ Ñĥ
ĠÐ¼ÐµÑĩ ÑĤÑĭ
Ġ4 1
ÐµÐ² Ð¾Ð¼
ĠÐ¾Ð±ÑĢÐ°Ð· ÑĥÐµÑĤÑģÑı
ĠÐ½Ð°ÑģÑĤÐ¾ÑıÑī ÐµÐ¹
ĠÐ¿ÑıÑĤÐ½Ð ¸ÑĨÑĥ
ĠÐ³Ð¾Ð» Ð¾Ð´
Ð»ÑıÑİÑī Ð¸Ñħ
ĠÐĶ Ð¾ÑĢÐ¾Ð³
ĠÐ¿ÐµÑĢÐµÐ´ Ð²Ð¸Ð¶
ĠÑģÐ¾Ð±Ð¸ ÑĢÐ°ÑĤÑĮ
ĠÑģÐ¿Ð¾ÑĢ ÑĤÐ¾Ð¼
ĠÐ¿Ð¾Ð´Ñģ Ð²ÐµÑĤÐ
ĠÐŁÐ¾Ñħ Ð¾Ð¶Ð¸Ðµ
Ð¸Ñģ ÑģÐ¸Ð¸
Ġog Ã³l
ĠÐ»Ðµ ÑĤÐ¾
ĠÐ±Ð¾Ð»ÑĮ Ð½Ð¸Ñĩ
ĠÐŁ Ð¾ÑģÑĤÐ°Ð²
ĠÐł ÑĭÐ±
Ġtran sp
ĠÐ²Ð¾Ð·Ð² ÑĢÐ°ÑĤ
ĠÐº Ð°ÑģÑģ
Ð¾Ðº ÑĢÑĥÐ¶
ĠkaÅ¼ dej
Ð¸Ð² ÑĪÐ¸Ñħ
ĠÐŁÐ¾Ð´ Ð¿Ð¸Ñģ
¸Ñ ĩÐµÑģÐºÐ¸
ĠÐ³Ð¾Ð» ÑĭÐµ
ĠÐ¾ÑĤ ÑĩÐµÑĤ
ĠÐĳ Ðļ
ĠdostÄĻp ne
ĠÐ½Ð°Ð·Ð½Ð°Ñĩ Ð°ÐµÑĤÑģÑı
Ð¸ÑĪ ÐµÑĩ
rÃ³ j
Â ®
ĠÐ³Ð¸Ð´ ÑĢÐ¾Ð¸Ð·Ð¾Ð»ÑıÑ
ÑĢÐ°Ð»ÑĮ Ð½ÑĥÑİ
ĠÑģÐ¾Ð» Ð¸Ð´
ÑĢÐ ½ÑĥÑİ
ÐĹ Ð°Ð¿
ĠÐ¼ Ð¾ÐµÐ¼
f y
ĠÑĥÑģÐ»ÑĥÐ³ Ñĥ
ĠÑĢÐµÐ³Ð¸Ð¾Ð½Ð°Ð»ÑĮ Ð½Ð¾Ð³Ð¾
ĠÑĢÐ°Ñģ ÑĩÐµÑĤÐ
t owa
ÐºÑĥÐ»ÑĮ Ð¿
an ta
ĠÑĤÐ µÑĢÐ
ĠÐ¿ÑĢÐ¾Ñģ ÑĢÐ¾Ñĩ
ĠÐĶ Ð°ÑĢ
ĠÐ² Ð¸ÑĨÐµ
ĠÐĶÐ¾Ð¼ Ð°ÑĪ
8 7
Ð¾Ð· Ð²
ĠÑĥÐ¹ ÑĤÐ¸
ĠÐ´Ð¾Ð¿Ð¾Ð»Ð½Ð¸ÑĤÐµÐ»ÑĮ Ð½ÑĥÑİ
Ġ j
ĠÐ¾Ñģ Ð¼Ð¾ÑĤÑĢ
ĠÐ¿ÑĢÐ°Ðº ÑĤÐ¸Ñĩ
ĠÐ¾Ð· Ð²ÑĥÑĩ
ĠÐ´ÐµÐºÐ¾ÑĢÐ °
ĠÐ¾Ð¶Ð¸Ð´ Ð°Ð½Ð¸Ñı
Ð¸Ð»ÑĮ Ð½Ð¾Ðµ
ĠÐ¿Ð¾Ð²ÑĭÑĪ Ð°ÐµÑĤÑģÑı
ĠÐ´ÑĢÐ°Ð¹ Ð²
Ġw rze
ĠÑĦÐ¸Ð³Ñĥ ÑĢÑĭ
) ||
ĠÑģÐºÐ²Ð¾Ð· ÑĮ
Ġ200 1
is h
ĠÑĢÐ°ÑģÐº Ð»Ð°Ð´
ĠP S
Ñı Ð»Ð¸
ĠÐ¸Ð½ÑĤÐµÑĢÐµÑģ ÑĥÐµÑĤ
ĠÐ¸Ð·Ð¾Ð± ÑĢÐµÑĤ
ĠÑĥÐ³ Ð»Ð¾Ð¼
Ġa p
g Ã³w
ĠÐ¿ÑĢÐ µÑĢ
Ġpierw sze
ĠÐ¾ÑĢÐ³Ð°Ð½Ð¸Ð· Ð¼Ñĥ
ĠÐĶ Ð¸Ñģ
ĠÐ°Ðº ÑĤÐµÑĢ
sty czne
ĠÐĳÐ¾Ð»ÑĮÑĪ Ð°Ñı
Ð¸Ð² ÑĪÐ¸Ð¹
ĠÐĽ ÐµÑģ
ĠÐ°ÑĢ ÐµÐ½Ð´Ð°
ĠÐ¿Ð»Ð°ÑĤÑĮ Ñı
h ttp
Ð»ÑıÑ ĨÐ¸Ñı
ĠÐĲÐ»ÐµÐºÑģÐ°Ð½Ð´ ÑĢÐ¾Ð²
ĠÐŀÐ´ Ð½Ð¾
Ġraz ie
ÐŁÐ ¾
ĠÐ¿ÐµÑģÐ ½Ñİ
m ÄĻ
ĠS T
ĠÐ½ÐµÐ¶ ÐµÐ»Ð¸
ĠÐ²ÑĭÑģ Ð¾ÐºÐ¾
ĠÐłÐ°Ñģ ÑģÐº
Ð¸Ð°Ñ ĨÐ¸Ñı
Ġ art
Ñ ĤÐ°Ð¼
I n
ĠÐ¯ ÑĢ
Ð¡ Ð
ĠÐ»ÑĮ Ð³Ð¾ÑĤÑĭ
Ð¾ÑĢ ÑĤÑĥ
Ġsprzeda Å¼y
ĠÐ¿Ð¾Ð¿ÑĢÐ¾Ð± ÑĥÐ¹ÑĤÐµ
ĠÐ½Ð°ÑĥÑĩ Ð½ÑĭÑħ
t kÃ³w
ĠÐºÑĥÑĢ ÑģÑĭ
ĠÐºÐ¾Ð½ÑĦ Ð¸Ð´ÐµÐ½ÑĨÐ¸Ð°Ð»ÑĮ
ĠÐ°Ð¿ ÐµÐ»
ĠÐ¸Ð·Ð´ Ð°Ð½Ð¸Ðµ
ĠP u
Ġza b
ĠÐ¸ÑģÐ¿Ð¾Ð»Ð½ÐµÐ½Ð ¸Ð¸
³Ðµ Ñı
ĠÑıÐ²Ð»Ñı ÑİÑī
Ð¸ÑĨ Ð¸ÑĤ
ĠÐ°Ð²Ð°ÑĢ Ð¸Ð¸
ĠÐ¾ÑĤ ÑĢÑĭÐ²
Ġz byt
ĠÐ²ÐµÑģ ÐµÐ½Ð½Ð
ĠÐ±ÑĢÐ°ÑĥÐ· ÐµÑĢ
ÐĿÐ ¾
ĠÐķ Ð³Ð¸Ð¿
ĠÑĤÐµÐ¼Ð¿ÐµÑĢÐ°ÑĤÑĥ ÑĢ
ĠÐ±ÐµÑģÐºÐ¾Ð½Ð µÑĩ
ĠÑĢÐ°Ð·Ð½Ð¾Ð¾Ð±ÑĢÐ°Ð· Ð½ÑĭÐµ
ĠÐ¿ÑĢÐµÐ´ÑģÑĤÐ°Ð² Ð¸ÑĤÐµÐ»Ñı
ĠÐ²ÑĭÐ· Ð´Ð¾ÑĢÐ¾Ð²
la mi
ĠÐŀÑĢ Ð¸Ð³
Ñĩ Ð¸Ð²Ð¾
ĠÑĢÐ°Ñģ ÑĤÐ¾ÑĢÐ¶
°ÑĢÐ ¸ÑĤ
ĠÐ¿ÑĢÐµÐ´ÑģÐµÐ´ Ð°ÑĤÐµÐ»Ñı
Ġob ja
ĠL in
ĠÐ¿Ð¾Ð· Ð°Ð±
Ð¾Ð ¸ÑĤÑĮÑģÑı
ia j
ĠÐĹ Ð°Ð»
z ino
Ñĳ ÑĤÐ°
ĠÐĺÑĢ ÐºÑĥÑĤ
de l
ĠÐĳÐµÐ»Ð°ÑĢÑĥ ÑģÑĮ
Ð¾Ð¶Ð´ ÐµÐ½Ð¸Ð¸
ÐµÐ½Ð¸Ð ½Ð
Ð¿Ð ¸ÑĢ
ĠÐ´Ð¾Ð³Ð¾Ð² Ð¾ÑĢÐµ
ÑĤÐ°Ñ ĩ
ce l
ĠÐ·Ð°Ð±Ð¾Ð»ÐµÐ²Ð°Ð½Ð¸Ñı Ð¼Ð¸
ĠÐ¼ÑıÐ³ ÐºÐ¾Ð¹
ig ht
ĠÐ¿Ð»Ð°Ð½ÐµÑĤ Ñĭ
ĠÑģÐ¾Ð²ÐµÑĤ ÑĥÑİÑĤ
ĠÑģÑĥÑīÐµÑģÑĤÐ² Ð¾Ð²Ð°Ð½Ð¸Ñı
Ð¸Ð² Ð°Ð»ÑģÑı
Ñĩ Ð°Ð¹
ne l
ĠÑģ ÑĤÐµÑģ
ĠÐ¼Ð°ÑĪ Ð¸Ð½Ð
ĠÐ´Ð¸ Ð°Ð»
ĠÑģÐ¼ ÑıÐ³Ñĩ
ÑĥÐ¶Ð´ ÐµÐ½Ð¸Ñı
ÑĥÑĩ Ð°Ñģ
ĠÑĦÐ¾ÑĢÐ¼ Ð¾Ð¹
z uje
Ð¾Ð½ÐµÐ ·
ĠÐ¡Ð² ÑıÐ·
Ð¸Ð»ÑĮ Ð½Ð°Ñı
p Ã³ÅĤ
Ġad res
ĠÐłÐ°Ð· ÑĥÐ¼
ĠÐºÑĢÐ¸Ð¿ÑĤÐ¾Ð²Ð°Ð» ÑİÑĤ
Ð¿ ÑĢÐ¾Ð¼
ĠÑģ Ð½Ð¾Ð²Ð¸Ð´
ĠB ez
ĠÐ½Ð¾Ð² Ð¾Ð¼Ñĥ
pa ra
ĠÐ½ÐµÐ¿Ð¾Ð² ÑĤÐ¾ÑĢ
ĠÑģÐ²Ð¾Ñĳ Ð¼
ĠÑģÑİÑĢ Ð¿ÑĢ
ĠÐ¼Ð½Ð¾Ð³Ð¾Ðº Ð²Ð°ÑĢÑĤÐ¸
ĠÑĤÐ°Ð½ ÑĨÐµÐ²
ÐµÐ½ÑĮ ÐºÐ¾
Ð°ÑĤ Ð°Ð¹
ĠÐ¿ÐµÐ½Ñģ Ð¸Ñİ
Ñģ ÑĤÐ¸
ĠÐļ Ð»ÑİÑĩ
ĠÑĢÐ¾Ð´ÑģÑĤÐ² ÐµÐ½Ð½Ð¸ÐºÐ¾Ð²
Ġpod stawie
ĠÐ½ÐµÐ±Ð»Ð°Ð³ Ð¾Ð¿ÑĢÐ¸Ñı
Ġpie niÄĻ
ĠÐ¿Ð¾ÐºÑĥÐ¿ Ð°ÑĤÐµÐ»ÑĮ
ĠÐľ ÐµÑħ
Ġ5 7
ĠÑįÐºÑģÐ¿Ð»ÑĥÐ° ÑĤÐ°ÑĨÐ¸Ñİ
ĠÐ¿Ð¾Ð½Ð¸Ð¼ Ð°ÐµÑĤ
ĠÐ½ÐµÐ¾Ð±ÑħÐ¾Ð´Ð¸Ð¼ ÑĭÐ¹
ĠÐ¼ÑĥÐ¶Ñĩ Ð¸Ð½Ðµ
ĠÐºÐ¾ÑĢ ÑĢÑĥÐ¿
mo s
ĠÐºÐ¾Ð»ÑĮ ÑĨÐ°
ĠÑģÐºÐ¾ÑĢÐ¾ÑģÑĤÑĮ Ñİ
Ġprodu ktu
ĠÐ°ÐºÐºÐ° ÑĥÐ½ÑĤ
ĠÐ± Ð¸Ñģ
¾Ñĩ Ð½ÑĭÐ¹
ĠÐ´ÐµÐ» Ð°Ð»Ð¸
u nd
Ġb owiem
Ġzna cznie
ĠÑģÐ¾Ð± Ð°ÐºÐ°
ĠÐļÐ°Ð» Ð¸Ð½Ð¸Ð
Ġumie jÄĻ
ĠÐĵÐ¾ÑģÐ¿ Ð¾Ð´
ĠÐ¾ÑĤ ÐµÐ»Ñı
Ġ1 10
ĠÐĵ ÑĢÐµÑ
ĠÑĩÑĥÐ²ÑģÑĤÐ² ÑĥÐµÑĤ
Ġi OS
cia Å¼
Ð¾Ð¿ Ð¾Ð´
ĠÑĩÐµÑĢ ÑĤÑĭ
ĠÐŁÐ°Ð² ÐµÐ»
ĠÐ·Ð° ÑĢÐ°Ð±Ð°ÑĤ
Ġtere nie
ĠmÃ³ gÅĤ
ĠÐ± Ð°Ð½
ĠÐĶ ÐµÐ¼
ĠÐ¿ÑĢÐ¸Ð¼ ÐµÑĢÑĭ
ĠÐ´Ð°Ð½Ð ½ÑĭÐ¼Ð¸
ĠÐ¿Ð¾Ð½Ð¸Ð¼ Ð°Ð½Ð¸Ðµ
Ð¾ÐºÐ¸Ñģ Ð»
Ġklu cz
ÑĪÐ¸Ð¼ ÑģÑı
Ð°Ð³ ÑĢÑĥÐ·
Ð² Ð¾Ð±
Ð°Ð¶ Ð½Ð¾
8 9
ĠÐ·Ð°Ð´ Ð½ÐµÐ¹
ĠÐķÑģÑĤÐµÑģÑĤÐ² ÐµÐ½Ð½Ð¾
ĠÐ±ÑĢ ÑİÑĪ
Ġre gul
ĠÐĴÐ¾Ð·Ð¼Ð¾Ð¶ Ð½Ð¾ÑģÑĤÑĮ
Ð¾Ð¼ Ð½ÐµÐ½Ð½Ð¾
ĠÑģÑĥÐ´ÐµÐ± Ð½ÑĭÑħ
ĠÐ¿ÑĢÐ¸ÑħÐ¾Ð´ Ð¸Ð»Ð¾ÑģÑĮ
ĠÑĩ ÑĳÐ¼
ĠÑģÑĤÐ° ÑĢÐ¾Ð¹
ĠÐºÐ¾Ð»Ð»ÐµÐ ³Ð¸
Ð¸Ð ¾ÑĤÐµÑĢÐ°Ð¿
Ðļ Ð
ÐµÐ½Ð°Ð »
Ġjed nej
s pi
ĠÐ¿Ð¾Ð´ Ð°Ð²Ð°ÑĤÑĮ
ĠÐ¾ÑģÑĤÐ° ÑĤÐºÐ¸
ĠÐłÐ°Ð± Ð¾Ñĩ
ĠÑį Ð»Ð¸
ĠG u
ĠD ob
ÑĥÐ·Ð °
ÑĢÐ°Ñİ ÑģÑĮ
ÑĢÐ¾ÑģÐ¾Ð² ÐµÑģ
ĠÐ¼ÑĥÑģ Ð¾ÑĢÐ°
Ġodpowie dnie
ĠÐ¢ ÐµÐ¼Ð°
ĠÐ² Ð¾Ð¾Ð±ÑĢÐ°Ð¶
ĠÐ£Ð¿ÑĢÐ°Ð² Ð»ÐµÐ½Ð¸Ðµ
ĠÐ·Ð½Ð°Ð¼ ÐµÐ½Ð¸
ĠÐ²ÐµÑĢ Ð½Ð¾
ĠÐºÑĢÐ°ÑģÐ¸Ð² ÑĭÑħ
ĠÐ¿ÑĢÐ¸Ð½ÑĨÐ¸Ð¿ Ñĥ
ĠÐ½Ð°Ñģ ÑĩÐ¸ÑĤ
l ow
ĠÐ¿ÑĢÐ¸Ð² ÐµÐ·
ÐµÐ» Ð»
Ġpowie dziaÅĤ
ĠÑįÑĦÑĦÐµÐº ÑĤÐ¾Ð²
ÑĤÐ ¿
ÐµÐ½ÐµÐ ´Ð¶
ĠÑĦÐ¸Ð»ÑĮ Ð¼Ðµ
Ä ĺ
Ð¸Ð½Ñ Ĥ
ĠÐ¼ Ð¾Ñ
ĠÐ½Ð°Ð·Ð½Ð°Ñĩ ÐµÐ½Ð¸Ðµ
ĠÑģÐ»Ð¾Ð¶ Ð½ÑĭÐ¹
ĠÑģÐ¿ Ð¸Ð½Ñĭ
ĠÑĩÐ°Ñģ ÑĤÐ½Ð¾Ð³Ð¾
ĠNe w
Ġchce sz
ĠÐ½ÐµÐ¿Ð» Ð¾ÑħÐ¾
ĠÑģÑĤÑĢÐ°ÑħÐ °
ĠÐ¿ Ð¾ÑĨ
½ Ð¾ÐºÐ°
ĠÐļÑĢÐ°Ñģ Ð½Ð¾Ð´Ð°ÑĢ
Ð¿ Ð¾ÑĤ
ĠÑĢÐ¾Ð¶Ð´ ÐµÐ½Ð¸Ð¸
ĠÐ¼Ð°ÐºÑģÐ¸Ð¼ Ð°Ð»ÑĮÐ½Ð¾Ð¹
Ġprodu cen
ĠÑĢÐ°Ð²Ð½Ð¾Ð¼ ÐµÑĢÐ½Ð¾
ĠÐ·Ð½Ð°Ð ºÐ¾Ð²
ĠÐ²ÑĭÐ´ÐµÐ» ÑıÑİÑĤ
ĠÐ·Ð°ÑĢÐ°Ð¶ ÐµÐ½Ð¸Ñı
ĠÐ²Ð¾Ð¹ Ð½Ðµ
ĠÐºÐ°Ð¼ Ð½ÐµÐ¹
µÑģ ÑĤÑĢ
ĠÐ½Ð¾Ð³ ÑĤÐ¸
Ġkobie t
ĠÐĵ ÑĢÐ¸Ð
ĠÐ¡ Ð¾Ðº
ĠÐł ÑıÐ´
ĠÐ¿Ð¾ ÑĢÐ°Ð·
Ġg ier
8 6
Ð°Ð½Ð¸Ð ½
ho p
ĠÐ½Ð°ÑĪ ÐµÐ¼Ñĥ
ĠÑĪÐºÐ¾Ð»ÑĮ Ð½Ð¸ÐºÐ¾Ð²
ĠÐ¸Ð½Ð´Ð¸Ð²Ð¸Ð´Ñĥ Ð°Ð»ÑĮÐ½ÑĭÑħ
ĠÐ¡Ð¾Ð¾ÑĤÐ²ÐµÑĤÑģÑĤÐ² ÐµÐ½Ð½Ð¾
Ġna pisa
Ġt ry
ĠÑģ ÐµÐ»Ð°
ĠÐ¾ÑĩÐµÐ²Ð¸Ð´ Ð½Ð¾
ĠÑĤÐ² Ð¾Ð¹
ĠÐ²Ð°Ð½Ð ½Ñĭ
Ġ9 00
ĠÐ½Ð°ÑħÐ¾Ð´ Ð¸Ð»ÑģÑı
ĠÐ¦ÐµÐ½ÑĤ ÑĢ
ĠurzÄħ dzenia
Ñģ ÐµÐ»ÑĮ
ĠÑĥÐ· ÐµÐ»
ĠÐ³Ð¾Ð²Ð¾ÑĢ Ñİ
ĠÐºÐ¾Ð¼Ð¸Ñģ ÑģÐ¸Ñı
ĠÐ¿ÑĢÐ¾Ñģ ÑĤÐ°Ñı
ĠÐ´ÑĥÑĪ ÐµÐ²
Ðĺ Ðŀ
ĠÑģÐ² Ð¸Ð´
ĠÐ½Ð°Ð³ÑĢÑĥÐ· ÐºÐ°
ĠÐĸÐµÐ½Ñī Ð¸Ð½Ð°
ĠÑĢÐ¾ÑģÑģÐ¸Ñı Ð
ĠÐ¾ÑģÐ²ÐµÑī ÐµÐ½Ð¸Ðµ
sto ÅĽci
ÑĭÐ² Ð°Ð»Ð¸ÑģÑĮ
z w
E M
ĠÐ²Ð¾Ñģ Ð¿Ð¸ÑĤÐ°ÑĤ
Ġtro chÄĻ
ĠÐ¾ÑĤÐºÑĢÑĭÐ² Ð°ÐµÑĤÑģÑı
ĠÐĲÐ¼ÐµÑĢ Ð¸ÐºÐ°Ð½
ĠÐ±ÑĭÐ² ÑĪÐ¸Ð¹
ĠÐĳ Ð¾Ð»ÑĮ
Ġz mniej
ĠÑĢÐ°Ð±Ð¾ÑĤ Ð¾Ð´Ð°ÑĤÐµÐ»ÑĮ
ÐºÐ¾Ð² ÑĭÐ¼
Ð¸Ð °ÑĢ
ĠÐĳ Ð¾Ð½ÑĥÑģ
ĠÐ¿Ð¾Ð·Ð²Ð¾Ð» ÑıÑĤ
Ġdo ÅĽÄĩ
ĠÐ¾Ð± ÑĪÐ¸ÑĢÐ
ĠÐ¶ÐµÐ½ ÑģÐºÐ¸Ðµ
ĠÐ³ÑĢÐ°Ð¶Ð´ Ð°Ð½Ð°Ð¼
i Äħ
mo c
ĠÐŁÑĢÐ¾Ð´Ð¾Ð»Ð¶ Ð¸ÑĤÐµÐ»ÑĮÐ½Ð¾ÑģÑĤÑĮ
ĠÐ² Ð»ÐµÑĩ
ĠÐ²Ð¾ÑģÐºÑĢÐµÑģ ÐµÐ½ÑĮÐµ
[...]
