#version: 0.2
² i
Ê ²i
² Ë
²Ë Ī
Ê ²ËĪ
Ë Ī
ËĪ É
É Ń
ËĪÉ ĳ
ËĪ o
t Ê
É ª
Ê²ËĪ e
Ġ p
Ê ²
ËĪÉ Ľ
Ġ v
Ê²ËĪ i
Ġ s
Ġ n
É ¡
tÊ ĥ
Ġ Ê
n Ê
nÊ Į
n Ê²i
É Ľ
Ġ k
t s
tÊ ²
j Éª
r Ê²i
ËĪ u
Ġ d
r Ê
j a
v Ê
vÊ Į
rÊ Į
s t
Ê Ĵ
Ê² Éª
ËĪ i
Ġ m
t Ê²i
ĠÊ Į
tÊ Į
É ķ
É ĳ
Ê ĥ
É Ķ
Ë Į
s Ê²
n y
Ġ t
Ġp Ê
ĠpÊ Į
Ġ b
ËĪ y
Ġ z
Ġv ËĪÉĽ
Ġ ËĪi
r a
Ê²ËĪ Éĳ
ÉŃ Ê²i
j u
k Ê
kÊ Į
ËĪ a
j i
É ¨
ÉŃ Ê
ËĪÉ Ķ
ÉŃÊ Į
r ËĪÉĳ
Ġ ËĪÉĽ
v Ê²i
tÊĥ Ê²i
Ġ f
Ġ É¡
Ġ Éª
Ġn ËĪÉĳ
r ËĪo
Ġk Ê
ĠkÊ Į
Ġ u
ÉŃ Ê²ËĪe
ËĪ e
ts y
tÊĥ Ê²
Ġp rÊ²i
ÉŃ Ê²
r Ê²ËĪe
Ê ĳ
s k
d Ê²i
t ËĪo
Ġp rÊĮ
nÊ²i ja
ÉŃ Ê²Éª
ĠÊ ĥ
Éķ i
ËĪÉ ª
Ġp ËĪo
m Ê²i
v ËĪo
ÊĴ y
Ġk ËĪÉĳ
d Ê²ËĪe
k a
ts Ê
tsÊ Į
Ġ ËĪÉª
Ġs Ê
ĠsÊ Į
É ²
nÊ²i jÉª
m Ê
mÊ Į
n a
j ËĪe
Ġ a
ÉŃ Ê²ËĪi
Ġ ËĪo
r u
n ËĪÉĳ
d ËĪÉĳ
m Ê²Éª
n t
â Ģ
v ËĪÉĳ
m Ê²ËĪe
Ê²ËĪ Éª
d Ê
dÊ Į
ĠËĪÉĽ s
n nÊĮ
ÉŃ ËĪÉĳ
Ê² e
Ġn Ê²e
Ġn Ê²i
ÉŃ nÊĮ
s p
ËĮ ÉĽ
ÉŃ a
k Ê²Éª
t Ê²ËĪi
n ËĪo
t ËĪÉĳ
Ġ âĢ
ĠÊ Ĵ
v Ê²ËĪe
ËĪo ÉŃ
Ġn a
tÊĥ Ê²ËĪÉĳ
t a
ji t
n Ê²ËĪe
v a
ÉŃ ËĪo
s Ê²i
Ġ ra
sÊ² Ê
sÊ²Ê Į
r ËĪu
Êĥ y
n ny
ËĪ ja
k ËĪÉĳ
Ġn Ê
ĠnÊ Į
ĠÊĮ b
Ê² ÉĽ
s tÊ²
r y
Ġz a
Ġ rÊ²i
Ġv Ê
Ġd Ê
ĠdÊ Į
É¡ Ê
s kÊĮ
É¡Ê Į
ĠËĪÉĽ tÊĮ
ĠvÊ Į
tÊ² Éª
Ġ rÊĮ
x Ê
xÊ Į
tÊĥ Ê²ËĪe
k u
n Ê²ËĪi
t o
d a
Ġv ËĪy
ÉŃÊ² Éĳ
ÉŃ Ê²ËĪÉĳ
Ġd ÉŃÊ²Éĳ
ËĪÉ ¨
d Ê²ËĪi
Ġ jÉª
z Ê
zÊ Į
t Ê²ËĪe
r Ê²ËĪi
ĠÊĥ to
ËĮ ÉĶ
b ËĪo
s tÊĮ
m ËĪÉĳ
Ġm Ê
Ġs Ê²i
k ËĪo
ĠmÊ Į
p Ê
pÊ Į
Ġp Ê²i
ÊĴ nÊĮ
d u
Ġ 1
Ġz Ê
ĠzÊ Į
p Ê²i
k Ê²i
Ġ ËĪÉĳ
m u
ĠÊĮ t
sÊ² tÊ²Éª
Ġ ËĪu
ji tsÊĮ
s Ê
sÊ Į
t y
t Éķ
ny x
Ê² Ê
Ê²Ê Į
Ġm Ê²i
Ġd Ê²ËĪe
n u
v Ê²ËĪi
Ġp r
z ËĪÉĳ
sk Ê²i
v y
ny jÉª
s Ê²ËĪe
b Ê²i
ju t
Ġ j
Ġ 2
É² Ê²ÉĽ
Ġ ÉĽ
st a
ÉŃÊ² u
Ġd Ê²i
Ġ (
Ġ Â
ny j
ĠkËĪÉĳ k
Ġt ËĪo
st vÊ²i
ËĮ a
m a
ts ËĪÉĽ
ĠkÊĮ tËĪo
b Ê
bÊ Į
ÉŃ ËĪu
Â »
ĠÂ «
ĠÉ¡ Ê
ĠÉ¡Ê Į
Ġs t
Ê² a
Ġt ËĪÉĳ
Ġv É¨
m y
É¡ Ê²i
tÊ²i ÉŃ
ÊĴ ËĪÉĽ
ĠpÊĮ d
Ì ĥ
Ê²ËĪ ÉĽ
st ËĪÉĳ
Éķ ËĪe
x ËĪo
Êĥ ËĪÉĽ
ĠËĪÉª s
Ġ o
Ġ tÊ²i
ĠâĢ ĵ
tsy Éª
tÊ² sÊ²ÊĮ
ËĮ u
m ËĪo
ĠâĢ Ķ
sÊ² tÊ²i
Ġ r
Ġz ËĪÉĳ
s Ê²ËĪi
Ġv ËĪÉĳ
t u
Ġm Ê²ËĪe
Ġo t
ju Éķi
ĠÉª n
Ġs p
Ġv y
ĠËĪÉª ÉŃÊ²Éª
tÊĥ Ê²ËĪi
nÊ²i Éª
ji m
n Ê²ËĪÉĳ
ËĮ o
ÉŃ u
tÊ²i ÉŃnÊĮ
Ġ Ċ
n ÉĽ
Ġv Ê²i
nÊ²i j
Ġ jËĪe
Ġ i
Ġf sÊ²ËĪe
Ġd ËĪo
Ġm ËĪo
st vÊĮ
Ġd ËĪÉĳ
Ġ x
Ġb Ê²i
v ÉŃÊ²ËĪÉĳ
ĠÊĴ ËĪÉĽ
Ġv ËĪo
Ê²ËĪ u
nÊĮ j
ĠÊĮ d
Ġk a
ĠÊĮ p
Ê²ËĪe r
s ËĪo
d y
Ġm ËĮo
Ġb Ê
Ġt a
d Êĳ
t ËĪu
Ġs ËĪÉĳ
ĠbÊ Į
tÊĥÊ² nÊĮ
n É¨
v u
ĠprÊ²i d
Ġ tÊĮ
Ġ tÊĥÊ²i
f Ê²i
b y
rÊĮ vÊĮ
É¡ ËĪÉĳ
Ġn o
s s
Ġpr Ê²ËĪÉª
ĠÉ¡ ËĪo
p ËĪÉĳ
Ġ ÉŃÊ²i
ĠkÊĮtËĪo ry
ÉĶ v
Ġ Éķ
Ġs vÊĮ
s ÉŃÊ²Éª
É¡ a
Ġb y
Ġn ËĪa
r Ê²ËĪÉĳ
Ġ ËĪja
0 0
ĠpÊ²i rÊ²i
Ġn Ê²ËĪe
ÉŃÊ² Ê
ÉŃÊ²Ê Į
ĠÊ ĳ
Ġ ËĮÉĽ
Ġ xÊĮ
Ġm ËĪÉĳ
v ÉŃÊ²ËĪe
Êĳ i
z y
z u
ĠjËĪe sÉŃÊ²Éª
Ġt Ê²ËĪe
Ġ rËĪÉĳ
Ġs Ê²
r t
s u
Ġra bËĪo
k t
d ËĪu
É¡ Ê²ËĪi
É¡ u
dÊ²i t
j ÉĽ
st va
ËĪÉĶ v
É¡ ËĪo
ny m
É¡ ÉĶ
n ËĪu
ĠÉª z
Ġk ËĪo
ĠÉª sp
tÊĮ f
ju tsÊĮ
É¡ dËĪÉĳ
ĠjÉª vËĪo
Ġn ËĪo
ĠkÊĮ m
Ġ tÊĥÊ²ËĪe
n ts
s nÊĮ
ÊĴ ËĪÉĳ
Ġ ÉŃÊ²ËĪi
ĠmËĮo ÊĴy
Ġs ËĪo
s a
ĠmËĪo ÊĴnÊĮ
Ġv Ê²ËĪi
Ġ ts
tÊĥÊ²i skÊ²i
nny x
j ju
v nÊĮ
ËĪÉĳ ÉŃ
Ġs tËĪÉĳ
p a
nny jÉª
l i
Ġb ËĮu
Ġ ja
z a
b Ê²ËĪi
nu ju
Ġra z
k Ê²ËĪi
n Ê²Éª
n ËĪy
Ġ ÉĶ
tÊĮ m
v ÉŃÊ²i
Į p
Ê Įp
n d
Ġs u
s ËĪÉĳ
ÉĽ r
ËĪoÉŃ kÊĮ
tÊĥÊ² Ê
tÊĥÊ²Ê Į
Ġ 3
ĠrÊĮ z
Êĳ ËĪi
Ġ ËĮÉĶ
Ġ tÊĥÊ²ËĪÉĳ
t nÊĮ
nÊ²i mËĪÉĳ
Ġ tÊĥ
Ġp rËĪo
Ġp rËĪÉĳ
p Ê²ËĪi
ĠËĪo n
p rÊ²i
rÊ Ĵ
tsy ja
ĠtËĪÉĳ k
Ġv rÊ²ËĪe
ĠÊĴ y
Į r
Ê Įr
vÊĮ tÊ²
Å ĭ
Ġ ÉŃÊ²u
Ġz É¨
sÊ² tÊ²ËĪe
p u
ĠÊĮ n
st ËĪo
É² Ê²a
m Ê²ËĪi
r nÊĮ
rÊĮ f
ĠÊĥ tËĪo
Ġ tsËĪÉĽ
kÊĮ f
tÊĥÊ²i skÊĮ
Ġs Ê²ËĪe
Ġb ËĪo
j tÊ²i
s ÉŃÊ²i
Ġs tÊĮ
v ËĪy
ĠkÊĮ n
j jËĪe
Ġp Êĥ
ĠvÊĮ z
nnÊĮ j
r ËĪy
l ÉĽ
ËĮ É¨
Ġj ËĪÉĽ
t Ê²ËĪÉª
Ġd ËĪÉĶ
nny j
n Ê²ÊĮ
Ġv Ê²ËĪe
Ġ ÉŃÊ²ËĪe
nÊ²i ju
Ġp ÉĶ
ÊĴ ËĪy
ĠÊĥtËĪo by
stÊĮ ËĪja
k ËĪu
Ġ2 0
Ġm a
ÉŃÊĮ sÊ²
Ġm ËĪy
r ËĪa
k i
Ġd ru
ĠÉªsp ËĪoÉŃ
ĠmËĮoÊĴy t
m ËĪu
m Ê²ÊĮ
É¡ rËĪÉĳ
Êĥ ËĪy
xÊĮ dÊ²ËĪi
ÉŃ y
Ġt ËĪoÉŃkÊĮ
kÊĮ m
Ġf Ê²i
l a
b ËĪÉĳ
É µ
Ê²ËĪ Éµ
d ËĪo
É¡ ÊĴy
ĠtËĪÉĳ É¡ÊĴy
ts t
sÊ² tÊ²ËĪi
ÉŃÊ²i jÉª
ĠÉķ ÉĽ
f tÊĮ
k tÊ²ËĪi
ĠËĪÉª x
t rÊ²i
ËĪ ju
Ġk u
ka zËĪÉĳ
nÊ²i jim
i n
Éķ ËĪÉĳ
Ġp a
Ġn Ê²ËĪi
ĠËĪo p
rÊ ĥ
kÊĮ j
Ġb Ê²ËĪe
. .
ËĪo r
rÊ²ËĪe d
b u
Ġ l
ĠprÊĮ i
n ÉĶ
Ġ ru
ĠÊĴ ËĪy
ÉŃ Ê²ËĪu
sÊ² sÊ²ËĪi
ts a
nnÊĮ vÊĮ
ĠpÊĮ ÉŃu
ÉŃÊ²i j
ĠÊĳ dÊ²ËĪe
Ġs ÉŃËĪu
Ġn ËĪu
Ġs ta
w a
rÊĮ m
j ÉĶ
Ġf sÊ²i
k ÉĶ
É ²ËĪ
Ġ "
É²ËĪ i
n k
ĠÊĮ r
pÊĮ ÉŃ
ËĮ y
Éķ ËĪi
ËĪÉĽ É¡ÉĶ
ĠbËĮu dÊ²it
s y
Ġ ËĪÉĶ
ËĪÉĽ m
Ġb ËĮy
Êĥ ËĪÉĳ
b a
ĠÉ¡ Ê²i
tÊĥÊ²i n
s ÉŃÊ²ËĪe
b ÉŃÊ²ËĪe
) .
ÉĶv ËĪa
ĠpËĪo sÉŃÊ²i
ËĪÉĳ ÉŃnÊĮ
Ġ rËĪu
vËĪo j
Ġp ËĪÉĶ
st u
Ġ É²Ê²ÉĽ
ĠkÊĮtËĪory jÉª
Ġp ËĮÉĶ
t kÊ²Éª
ÉĽ j
ÉŃÊ²ËĪi tÊĥÊ²i
d nÊĮ
Ġ 5
ĠÊĮn Ê²ËĪÉª
É ²i
ĠÉª mÊ²ËĪe
ÉĽ m
Ġp ËĪÉĳ
ĠvrÊ²ËĪe mÊ²ÊĮ
ĠbÊĮ ÉŃ
Ġb ËĪy
vËĪo d
sk a
t Éķi
skÊĮ j
ny mÊ²Éª
vÊ²ËĪe r
Ġ 4
zÊĮ vÊĮ
Ê² u
Ġs ÉŃÊ²ËĪe
nÊ²i k
nt a
Ġm nËĪo
b rÊĮ
Ġu s
r ËĪÉĶ
p rËĪo
ĠnÊ²i ÊĮp
sp Ê
É¡ Ê²Éª
b Ê²ËĪe
m Ê²
ÉŃ sÊ²ÊĮ
spÊ Į
e stÊ²
ĠnÊ²iÊĮp xÊĮdÊ²ËĪi
Ġt rÊ²ËĪe
ËĪa r
Ġj estÊ²
Ġ rËĪo
nËĪo j
v ËĪu
Ġby tÊ²
Ġp Ê²ËĪer
s ËĪu
Éķ tÉķ
Ġd a
k ÉŃÊ²u
ËĪÉĽ r
Ġs pÊ²i
Ġm u
sk Ê²Éª
m i
ÉŃÊĮ vÊ²ËĪe
²Ë Į
ĠkÊĮ É¡dËĪÉĳ
Ġm Ê²ËĪi
Ġ tÊĥÊ²
Ġk Ê²i
Į t
Ê Įt
f Êĥy
ĠrÊĮ sÊ²sÊ²ËĪi
Ġz ËĮa
Ġt ËĪÉĽ
tÊĥÊ²ËĪe nÊ²ijÉª
f ÊĮr
vÉŃÊ²ËĪÉĳ jitsÊĮ
Ġ tsy
ËĮ i
vÉŃÊ²ËĪe nÊ²ija
p ra
tÊ²i ÉŃÊ²ÊĮ
vÊ²i dÊ²ËĪe
ĠbËĪo ÉŃÊ²ijÉª
ĠkÊĮtËĪo rÊĮ
Ġs k
st rËĪo
e r
ts ËĪy
Ġs Ê²ËĪi
ĠËĪo tÊĥÊ²in
ÊĴ dÊ²ËĪe
dÊĮ vÊĮ
Êĥ ËĪo
Ġd ËĪoÉŃ
ĠËĪÉĽtÊĮ m
l ËĪÉĽ
m p
Ġ ÉŃËĪu
ËĪa k
Ġs rÊ²ËĪed
Ġz nËĪÉĳ
Ġb ËĪÉĳ
É¨ x
r Éª
st f
z vÊĮ
nÉ¨ x
ÉŃÊ²i sÊ²
ÉŃ Ê²ËĪÉª
sk ËĪÉĳ
ĠtÊĥÊ²i ÉŃÊĮvÊ²ËĪe
Ġs ËĪu
rÊ²i dÊ²i
stÊ² jju
Ġa ftÊĮ
ĠnËĪu ÊĴnÊĮ
j ja
ĠvÊĮz mËĪo
nÊ²ËĪe nÊ²ija
k s
ĠÊĮb ra
vy j
Ġta kËĪo
ĠËĪu ÊĴy
ËĪÉ µ
Â» .
ĠsÉŃËĪu tÊĥÊ²ÊĮ
tÊĥÊ²ËĪe nÊ²ija
vÊĮ j
sÊ² sÊ²i
v Ê²ËĪÉĳ
p ËĪo
ĠÊĮ nËĪÉĳ
Ġta kÊ²ËĪi
k tÊ²i
tsy ju
Ġt ÉĶ
ËĪa ts
st rËĪÉĳ
ĠdÊ²ËĪe ÉŃÊĮ
tÊ²i ja
tËĪu r
ĠbÊ²ËĪe s
mÊ²ËĪe r
É¡u t
f Ê²ËĪe
nÊĮ m
Ġdru É¡Ê²ËĪi
r ËĪÉĽ
Ġb ËĪoÉŃ
Ġ20 1
Ġs a
vËĪÉĳ tÊ²
ĠjÉª jËĪe
ĠsÉŃÊ²ËĪe du
nÊĮ f
ĠkËĪÉĳ ÊĴ
skÊĮ vÊĮ
f kÊ²Éª
ÊĴËĪÉĽ nÊ²ija
ËĪa t
ĠjËĪÉĽ st
sp Ê²ËĪe
vy jÉª
ĠtÊĮ vËĪo
ÊĴ ÉĽ
x a
ĠÊĮ s
mÊ²ËĪe nt
w ÉĶ
ĠÉªn tÊ²
rÊ²i ËĪÉĳ
Ġp u
rËĪu k
juÉķi jÉª
ÉŃ kÊĮ
nÊĮ vÊĮ
ĠËĪÉĽtÊĮ vÊĮ
Į b
Ê Įb
z na
skÊ²i j
ĠpËĪo ÉŃ
ĠvÊ²ËĪi dÊ²i
z nËĪÉĳ
Ġs tËĪo
k rËĪy
ĠnÊ²iÊĮpxÊĮdÊ²ËĪi mÊĮ
j ËĪÉĽ
Ġk ËĪu
nny m
Ġp rÊ²ËĪi
nnÊĮ ja
ĠÉ¡ËĪo da
Ġv ËĮÉ¨
ĠsÊ²i sÊ²tÊ²ËĪe
ÉŃÊ²ËĪe nÊ²ija
Ġ ËĮu
n tÊĮf
ra nÊ²ËĪi
sta vÉŃÊ²ËĪÉĳ
Ê²ËĪ a
Â» ,
ĠjÉª ÉķËĪe
ĠvËĪÉĳ m
t Ê²ËĪÉĳ
ĠÊĮ snÊĮ
ĠdÊ²ËĪe n
ĠÊĳdÊ²ËĪe ÉŃÊĮ
Ġm ËĪÉĶ
Ġs ÉŃËĪo
ĠvÊĮzmËĪo ÊĴnÊĮ
vËĪÉĳ nÊ²ija
ĠÉĽ ÉŃÊ²i
j stvÊ²i
Ġb u
juÉķi j
ĠprËĪÉĳ vÊ²i
Ġ S
r ÉĶ
ËĪi t
ĠtËĪo m
ĠbËĮy ÉŃÊĮ
2 0
ĠtÊĥÊ²ËĪe m
Ġ ËĪa
vy x
) ,
ĠpËĪo t
st vu
n ka
Ġu tÊĥÊ²ËĪÉĳ
Éķ tÉķi
ĠbËĪoÉŃ Êĥy
ĠÉ¡ ÉŃËĪÉĳ
Ġz na
tÊ²i ÉŃÊ²ij
mÊĮ t
rÊ²i s
d nÊ²i
ĠmÊĮ tÊ²i
k ra
dÊĮ m
Ê² dÊ²ËĪe
n tÊ²i
b Ê²ËĪÉĳ
ĠmËĮo É¡ut
Ġk rÊ²i
ĠspÊ²i tsy
rËĪu p
tÊĥ ËĪÉĽ
ĠdÊĮ ÉŃ
Ġ 6
vÊ²i r
ĠkÊĮtËĪory j
Ġf ËĪo
nËĪo vÊĮ
ĠÉĽ k
tsy ËĪo
nnÊĮ jÉª
ĠÊĮ sËĪo
rÊ²i Éª
st rÊĮ
rÊ²ËĪe t
vÊĮ jit
Ġb a
l ËĪi
É² Ê²ËĪÉĽ
| |
k tÊĮ
vÊ²i tÊ²
ĠkËĪÉĳ tÊĥÊ²i
ĠÊĴËĪy Êĳ
r tÊ²ËĪi
ËĪÉĽ tÊĮ
z ËĪo
sk u
ĠdËĪÉĳ ÊĴy
Į nËĪÉĳ
Ê ĮnËĪÉĳ
ÊĴ É¨
ÊĴËĪÉĽ nÊ²ijÉª
Éķi st
Ġp ÉŃËĪÉĳ
dÊ²ËĪi n
vÊ²ËĪe tst
n ËĪa
Ġv a
nnÊĮ sÊ²tÊ²Éª
ĠkÊĮm pËĪÉĳ
ĠprÊĮ tsËĪÉĽ
vÉŃÊ²ËĪe nÊ²ijÉª
p rÊĮ
j n
dËĪÉĳ r
Ġja vÉŃÊ²ËĪÉĳjitsÊĮ
ĠËĮÉĽ m
ÉŃÊĮ É¡ÊĮ
Ġs pÊĮ
n nÊ²i
ĠÊĮp rÊ²idÊ²i
kÊĮ mÊ²Éª
j ËĪja
ĠsËĪÉĳ my
ĠnÊ²ËĪe skÊĮ
É¨ m
ÉŃ tËĪÉĳ
b ËĪu
É¡ rÊĮ
Ġt ËĪy
tÊ²i ÉŃÊ²Éª
mÊĮ Éķ
juÉķi x
n tsy
ÊĥËĪÉĽ nÊ²ija
dÊĮ f
ËĪÉĽ s
ĠÊĮb Ê
ĠÊĮbÊ Į
Ġk rËĪo
k ÉŃËĪÉĳ
ËĪu p
nt ËĪÉĳ
b ËĪy
j ËĪÉĶ
vÊĮ ja
p Ê²ËĪe
Åĭ k
ĠpËĪo mÊĮÉķ
f ËĪo
Ġp Ê²ËĪe
Ġ A
Êĥy j
b nÊĮ
ĠtÊ²ËĪe m
ĠsvÊĮ jËĪe
ĠÊĮd nËĪÉĳ
Ð ¾
o n
Ġ 7
Ġ1 0
v rÊ²i
Ġk rËĪÉĳ
nÊ ĥ
ÉŃnÊĮ vÊĮ
rËĪo vÊĮ
ji j
ĠfsÊ²i vËĪo
Ġp ËĪu
ĠpÊĮ ÉŃÊĮ
tÊĥÊ²iskÊ²i x
sk ËĪo
Ġ C
v ËĪa
Ġv z
d Ê²Éª
m É¨
vÊ²ËĪe t
ĠvÊĮ prËĪo
Ġ1 9
ÉŃnÊĮ j
Ġm ËĪu
ĠÉŃÊ²ËĪe t
ĠsÊĮ z
ĠprÊ²i mÊ²i
Ġk ÉĶ
ĠvËĪÉĳ s
Éķ Ê
ÉķÊ Į
tsy j
sÊ² tÊ²ËĪÉª
t r
Ð µ
tÊĥ Ê²Éª
Ġd ËĪu
ĠsvÊĮ ËĪi
Ġby ÉŃ
nÊ²ËĪe j
ËĪÉĽtÊĮ mu
mÊ²i n
ĠÊĴËĪÉĽ n
f ka
ĠÊĮb Ê²i
Ġ ËĮa
Ġ Éķi
Ġu sta
tÊĥÊ² nyx
ĠpÊĮ ËĪÉĽtÊĮmu
Ġ |
b ÉŃÊ²i
ÊĴ du
Ġd Êĳ
ĠpÊĮ sÉŃÊ²ËĪe
ĠÉ¡ dÊ²ËĪe
ĠtÊĥÊ²ËĪe rÊ²is
ÊĴ a
ĠvÊĮ Êĳ
ËĪÉĶ ÉķtÉķi
Ġna j
ĠËĪÉĽtÊĮ t
tÊ² a
ÉŃ nyj
Ġb ËĪu
sÊĮ f
Ġf s
b ÉŃÊĮ
p rËĪÉĳ
ĠrabËĪo tÊĮ
Ġt ËĪÉ¨
st ra
ÉŃa É¡ËĪÉĳ
xËĪo dÊ²it
x ËĪÉĳ
t ËĪÉĽ
dÊĳ ÉĽ
Ê²ÊĮ t
Ġp ÉŃa
Ġs vÊ²ËĪÉĳ
nÊ²ËĪÉĳ tÊ²
tÊĥÊ² nyjÉª
st y
vÊĮ jitsÊĮ
Ġ Ð
tÊĥÊ²ËĪi tÊ²
Ġ rÊ²ËĪe
Ġm nÊ²ËĪe
Ġ 8
Ġsp ËĪo
vÊĮ vÊĮ
ĠrÊ²i É¡Ê²i
Êĥ kÊ²Éª
n s
tÊĥÊ²iskÊ²i jÉª
Ġ P
skÊ²i x
ji tÊ²i
ĠÉ¡ ËĪÉĽ
ÉŃÊ²i k
Ġm ËĪa
ĠdÊĮ stËĪÉĳ
ÉŃÊĮ m
ĠnÊ²ËĪe t
Ġf ËĪor
ĠÉªn fÊĮr
ËĮ Éĳ
r k
Ġp ra
Ġ M
x nÊĮ
tÊĥÊ²ËĪÉĳ tÊ²
ĠdÊĮÉŃ ÊĴ
kÊĮ x
Éķi j
ĠÉĽ f
Ġv Ê²ËĪÉĽ
ĠÉªspËĪoÉŃ zu
ĠprÊĮi z
ÉŃËĪo vÊ²i
ĠÊĥ y
Ġa k
Ġs m
bËĪo j
Ġra s
ÉĽ k
Ġst rËĪÉĳ
bÊ²i rËĪÉĳ
ĠprÊĮ bÉŃÊ²ËĪe
ÊĴ dËĪÉĳ
É¡ÊĮ nÊ²i
ja x
ĠÊĮsnÊĮ v
ĠsËĪÉĳ mÊĮ
Ġf ËĪÉĳ
ĠsÉŃËĪutÊĥÊ²ÊĮ jÉª
ÉķËĪe nÊ²ija
Ġk tËĪur
ËĪa l
d Ê²ËĪÉĳ
É¡ Ê²ËĪe
nt Ê²ËĪi
ĠprËĪo stÊĮ
z nÊĮ
kÊĮ vÊĮ
tÉķ ÉĽ
vÊĮ rÊ²ËĪi
ĠÉªspËĪoÉŃ zÊĮvÊĮ
Êĥ a
rÊĮvÊĮ tÊ²
Ġt rËĪÉĳ
rÊĴ ËĪÉĳ
ÉŃËĪo É¡Ê²i
Ġp ÊĥËĪÉĽ
k rËĪÉĳ
Êĥ nÊĮj
Ġz ËĪa
m nÊĮ
tÊĥ y
Ġt ËĪu
vÊĮ jut
ÉŃÊ²ËĪe nÊ²ijÉª
r m
ĠÊĮ pÊ²i
ĠÊĳ i
ĠsÊ²i bÊ²ËĪÉĳ
ÊĥËĪÉĽ nÊ²ijÉª
kÊ²i j
ĠÉª stËĪo
nÊ²ËĪe Êĥ
ĠmÊ²i nÊ²ËĪÉĳ
ËĪÉĶ va
ĠsÊ² tÊ²ËĪe
l e
d ËĪa
tÊĥÊ² kÊ²Éª
tÊĮ ry
É¡ ËĪu
ĠÉªz mÊ²i
strËĪo j
Ġ ÉŃÊ²ËĪÉª
ÊĴy n
Ġb ËĪÉ¨
Ġ ÉŃÊĮ
ÉŃÊ²i n
ĠprÊĮ dËĪu
ji my
Ġus ÉŃËĪovÊ²i
ĠxÊĮ rÊĮ
ĠsÊĮ mÊĮ
Ġp Ê²ËĪi
ĠbÊ²i sp
Ġst rÊĮ
b rËĪÉĳ
ts ÉĽ
mÊ²i nnÊĮ
ĠpÊĮ ja
tÊĥÊ² nyj
Ġ ÉŃÊ²ËĪu
É¡rËĪÉĳ m
w ËĪa
ĠrÊ²i zu
vÊ²i rÊĥ
ĠÊĮr É¡ÊĮnÊ²i
ĠÊĮt nÊĮ
tÊĥ ÉĽ
Êĥy m
ĠrabËĪo ty
ĠtÊ²i p
u r
sÊĮ m
ĠnÊ²ËĪeskÊĮ ÉŃkÊĮ
ĠsÊ² tÊ²i
tÊĥ É¨
d É¨
Ġa p
st nÊĮ
kËĪo f
tÊ² nÊ²i
n kÊ²Éª
ĠfsÊ²ËĪe x
ĠkÊĮ ÉŃÊ²ËĪitÊĥÊ²i
dËĪÉĳ tÊ²
ĠrÊ²izu ÉŃtËĪÉĳ
Ñ Ĥ
tÊĥÊ²iskÊĮ j
Êĳ ËĪe
Ġf Ê²ËĪi
d Ê²
Ġ xËĪo
ĠÊĮd nÊĮ
ĠÉŃËĪu tÊĥy
Ð °
ÉŃ nyx
prÊ²i ËĪja
²ËĮ ÉĽ
vÊ²ËĪi sÊ²i
Ê²a zËĪÉĳ
kËĪÉĳ zy
rÊĴ y
ĠÉĽÉŃÊ²i kt
ts u
Êĥ Ê
ÊĥÊ Į
skÊĮ ja
ra bËĪo
d ËĪÉĽ
ÊĮt vÊ²ËĪetst
r tÊ²i
kÊ²i x
ĠdÊĮ ku
ĠÉ¡ËĪo du
Êĥy vÊĮ
nÊ²ËĪe nÊ²ijÉª
ĠÊĮ dÊ²ËĪin
ĠnÊ²ËĪe kÊĮ
ĠrÊĮsÊ²sÊ²ËĪi Éª
Ġr ËĪy
ji f
Ġ 0
b É¨
ĠÊĮsËĪo bÊ²i
Ġb Ê²ËĪi
v ËĪÉĽ
ËĪa w
ĠnÊ²ËĪi x
nÉĽ j
r ÉĽ
Ġs ËĪÉĶ
skÊ²i jÉª
.. .
vËĪÉĳ nÊ²ijÉª
ÉŃÊĮ f
dÊ²ËĪe j
Ġu pra
ĠÊĴËĪÉĽn Éķi
ĠsËĪÉĳ j
Ġj ËĪak
Ð ¸
ĠÉ¡ rËĪÉĳ
ĠsÊĮ ÊĮtvÊ²ËĪetst
p y
ĠÉªntÊ² ÉĽ
ĠsÊĮ stÊĮËĪja
tÊ²ËĪe j
o r
É¡ÊĮ tËĪo
Ġk ËĮÉĶ
n nuju
ÉŃ ÉŃÊ²i
ĠrËĪÉĳ s
ÉŃ nyjÉª
ĠËĪÉĽ tÊ²i
k Ê²ËĪe
ĠpÊĮ s
sp Ê²i
stÊĮ nÊĮ
âĢ ¦
Éķi jÉª
ĠÉĶ t
Ġraz vÊ²ËĪi
Ġk tËĪo
Ġ 9
n ËĪÉĽ
ÉŃÊĮ É¡Ê²ËĪi
mÊ² pÊ²i
t ËĪy
ĠkÊĮ nt
Ġk ra
Ġf Ê
ĠfÊ Į
tÊĮ tÊĥÊ²nÊĮ
ĠpÊĮ zvÊĮ
Ġ T
mÊĮt rÊ²ËĪe
z ËĪu
vÊĮ nÊ²ija
ĠbËĮy ÉŃÊ²Éª
Éķ u
ĠspËĪo sÊĮ
ĠvËĪo t
nnÊĮ m
x i
Ġb ÉŃÊĮÉ¡ÊĮ
ĠbËĮu du
ĠËĪo bÉŃÊĮ
Ġna tÊĥÊ²ËĪÉĳ
v i
ĠÉªnfÊĮr mËĪÉĳ
tÊĥÊ²iskÊĮ vÊĮ
nÊ²i m
ĠtÊ²i ÉŃÊ²i
Êĥ Éª
ĠÉķi tËĪÉĳ
ra s
Ġd la
tÊĥÊ²i skÊ²Éª
ĠmÊĮ ÉŃÊĮ
ĠÉ¡ a
ĠÊĮ k
Ġp ÉŃÊĮ
Ð ½
ĠvËĪo z
ĠprÊĮ É¡rËĪÉĳm
Ġ B
ĠÊĳdÊ²ËĪeÉŃÊĮ tÊ²
pa rËĪÉĳ
Ġv nÊ²imËĪÉĳ
Ġa r
w ËĪÉĶ
ĠmnËĪo É¡ÊĮ
ĠÊĮ É¡
ĠprÊ²i tÊĥÊ²ËĪi
dÊ²ËĪe ÉŃ
dÊ²i tsÊĮ
ĠtÊ²i r
ĠÉ¡ÊĮ tËĪo
ji mÊĮ
kÊ²i jÉª
ĠpÊĮ t
ĠprÊ²i dÊĮ
ĠsÊĮ ÊĮp
ĠprÊĮ vÊĮ
Ġvy sËĪo
ËĪÉĶv ÉĽ
vËĪy jÉª
skÊĮ m
ĠmnËĪo É¡Ê²i
ĠsÊĮ stËĪÉĳ
su dËĪÉĳr
ĠÊĮb ËĪy
ĠËĪÉĽtÊĮ j
ĠËĪu rÊĮ
Ġd ÉĶ
ĠÊĮn ÉŃËĪÉĳ
ĠsÊĮ É¡
stvÊĮ m
ĠnÊĮ tÊĥÊ²i
ĠpÊĥ ËĮÉĽ
ĠÊĮdnËĪÉĳ kÊĮ
kËĪo j
tÊ²i r
Êĥ ka
zËĪÉĳ tsyÉª
ĠrÊ²i kÊĮ
âĢ Ŀ
ts É¨
ĠkÊĮ r
Ġusta nËĪo
Ġka kÊ²ËĪi
tÊ² Ê
tÊ²Ê Į
Ġs rËĪo
ĠbÊ²isp ÉŃËĪÉĳ
ĠprÊĮ jËĪe
Ġt Ê²ËĪi
ĠstÊĮ ËĪit
Ġ I
ËĪÉĶ r
mÊ²i nÊ²Éª
kËĪo m
ĠÊĮ sta
dÊ²i rÊĴËĪÉĳ
Êĳ ËĪÉĳ
ĠdÊ²ËĪe jstvÊ²i
ktÊ²ËĪi vnÊĮ
Ġk ÉŃÊ²i
t ra
Ġs vËĪoj
n ËĪÉĽÉ¡ÉĶ
b stvÊ²i
ĠpÊ²i r
p ËĪu
dÊ²ËĪi tÊ²
l u
jËĪÉĶ nts
ĠÊĮ stËĪÉĳ
ĠÊĮb jjËĪe
nÉ¨ m
ĠÉ¡ÊĮ sudËĪÉĳr
Ġu tÊĥÊ²ËĪe
nËĪy jÉª
Ġd ËĮÉĶ
t ka
st rÊ²ËĪe
n st
dÊĳ ËĪÉĽ
vÊ²ËĪe rÊ²i
tÊ²i jÉª
nÊ²ËĪi z
Êĥ ÉĽ
Ê²ËĪ ÉĶ
zÊĮ m
ÊĴdÊ²ËĪe nÊ²ija
ĠsËĪo bstvÊ²i
ĠÊĮd Ê²dÊ²ËĪe
nÊ²i kËĪÉĳ
Ġf tÊĮ
Ġt ËĪa
t É¨
Ġt ru
ËĪÉ¨ tÊĥ
k sÊ²i
ÉŃ ËĪy
a ÉŃÊ²ËĪi
ĠkÊĮtËĪorÊĮ ja
Ġ1 5
Ġs ÉŃÊĮ
i mÊĮ
ĠvÊĮ rÊ²iËĪÉĳ
v ra
ĠpÊĮ mÊ²i
nny mÊ²Éª
nÊ²i ka
prÊ²i mÊ²ËĪer
ĠËĪÉª mÊ²innÊĮ
ĠkËĪÉĳtÊĥÊ²i stvÊ²i
ĠÊĴËĪyÊĳ nÊ²Éª
Ġn ËĮa
Ġ ÉŃËĪo
ĠmËĮoÊĴy tÊ²i
Ġby ÉŃËĪÉĳ
p ËĪÉĽ
Ġv Ê²ËĪer
Ġu kra
tÊĥÊ²iskÊ²i j
Ġf a
ĠÊĮt krËĪy
Êĥy x
ĠtÊĥÊ² a
k ËĪa
ĠsÉŃÊ²ËĪedu jit
st ËĪa
ĠÉª sk
tÊĮ r
ĠaftÊĮ mÊĮ
zy vËĪÉĳ
xËĪo d
p r
v ÉĶ
ĠnÊ²i dÊĮ
Ġ2 00
ĠrÊ²i bÊ²ËĪe
ĠÉªmÊ²ËĪe jit
ĠËĪÉĽ tÊ²Éª
Ġst ra
ĠÊĮnÉŃËĪÉĳ jn
vrÊ²i mÊ²ËĪe
ĠÊĳdÊ²ËĪe sÊ²
ĠbËĮudu t
ĠrËĪÉĳ z
k ta
Ġza kËĪo
i t
ĠrÊĮ sp
mÊ²i nËĪÉĳ
ĠfsÊ²i É¡dËĪÉĳ
ĠmÊ²ËĪe ÊĴdu
ĠnÊ²ËĪekÊĮ tÊĮry
ĠtÊ²ËĪe x
Ġt r
Ġu vÊ²i
Ġt u
f a
Ġr ÉĶ
sk i
vËĪod nÊ²ÊĮ
Ġt rÊ²i
É¡ rËĪu
ÉķËĪe nÊ²ijÉª
ĠnÊĮtÊĥÊ²i nËĪÉĳ
nt y
Ġp ÉŃËĪo
ĠËĪo brÊĮ
ĠÉªntÊ²ÉĽ rÊ²ËĪe
Ġk va
ĠnËĪÉĳ s
tÊĮ k
l ËĪa
pÊ²ËĪi tÊ²
ĠzÊĮ bÊĮ
Êĥ u
x u
dÊ²ËĪe t
vu ju
ĠÊĮbÊ²i spÊ²ËĪe
ĠpÊ²i rÊ²ËĪet
Ġ ÉŃËĪÉĳ
ĠtÊĥ Ê²ËĪu
ĠmÊ²ËĪe sÊ²ÊĮ
ĠtakËĪo j
tÊ²ËĪe m
ĠspÊĮ sËĪo
dÊĮ rËĪo
nnÊĮ stÊ²
ĠÊĴy ÉŃËĪÉĳ
ss a
ĠÉ¡ rËĪup
Ġts vÊ²i
Ġb ËĪÉĽ
s sÊĮ
o m
Ġza vÊ²ËĪisÊ²i
ĠsÊ²i vËĪodnÊ²ÊĮ
Ġ D
ĠkËĪÉĳÊĴ dy
t rËĪÉĳ
Êĥ ËĪÉ¨
k tsyÉª
l ËĪÉĶ
Ġn Ê²ËĪÉª
ĠrÊĮsÊ²sÊ²ËĪi j
bËĪo r
" .
tÊĥÊ²ËĪÉĳ jitsÊĮ
ĠkÊĮtËĪory x
" ,
Ġf u
p ÉŃÊĮ
ĠpÊĮ kËĪÉĳ
t kÊ²i
Ġf kÉŃÊ²u
juÉķi m
Ġraz ÉŃÊ²ËĪi
ĠvÊĮ sp
Ġp rÊ²ËĪe
nÊĥ y
Ġr ËĪÉĶ
t p
ĠbÊĮÉŃ ÊĥËĪo
Ġ G
vËĪy x
ĠÊĮbÊ²ispÊ²ËĪe tÊĥÊ²i
ĠrÊ²ikÊĮ mÊ²in
ts ËĪo
ĠzÊĮ ja
ĠpÊĮ mËĪo
ĠdÊĮ pÊĮÉŃ
ĠvËĪy bÊĮ
ĠËĮÉĽ s
r e
ĠfËĪo tÊĮ
nÊ²i kÊ²Éª
n ku
h e
tÊĥÊ²nÊĮ vÊĮ
ĠÊĮb Ê²azËĪÉĳ
f ËĪÉĶ
Êĳ dÊ²ËĪe
vy m
ĠpÊĮzvÊĮ ÉŃÊ²ËĪÉĳ
vËĪo r
ĠpÊĮsÉŃÊ²ËĪe d
t rËĪu
Êĥy jÉª
Ġk ËĪÉĶ
ĠtÊĥÊ²iÉŃÊĮvÊ²ËĪe k
ĠÉ¡ÊĮ vÊĮrÊ²ËĪi
Ġdru É¡ËĪo
ĠaftÊĮmÊĮ bÊ²ËĪi
s ÉŃÊĮ
kËĪÉĳ n
vÊĮ m
Ġs ka
ĠÉª É¡rËĪÉĳ
ĠÉĽ kÊĮ
nt u
ĠpÊĮ dÊĮ
ÊĴ Éª
v Ê²a
ĠÊĮ ts
ĠÉŃÊ²ËĪi Êĥ
Ġ R
b ra
rÊ²i d
ĠzÊĮbÊĮ ÉŃÊ²i
ÉŃnÊĮ ja
Ġs kazËĪÉĳ
Ġu da
tÊĥÊ²ËĪÉĳ s
Ġ ,
ĠÉª É¡rÊĮ
zÊĮ vÊĮtÊ²
Ġf ÊĮr
ĠËĪobÉŃÊĮ sÊ²tÊ²Éª
Ñ Ģ
nÊĮ k
nt ÉĽr
dÊĮ ÉŃ
ĠkÊĮm Ê²
ÊĴ u
ĠtÊĮ vËĪÉĳ
l ÉĶ
ĠÉªspËĪoÉŃ zÊĮvÊĮtÊ²
ĠnÊĮ prÊ²imÊ²ËĪer
f Ê²ËĪi
Ġ â
ĠÉªntÊ² ÉĽr
Ġ F
r É¨
ĠdruÉ¡Ê²ËĪi x
k Ê²ÉĽ
st rËĪuk
Ġa d
ÉķÊĮ ja
Ġ É²
tÊ²iÉŃ nyjÉª
Ġts ËĪÉĶ
ĠpËĪoÉŃ zÊĮvÊĮ
m ÉĶ
ĠtÊĥÊ²ËĪÉĳ stÊĮ
nËĪy x
m ËĪy
ra tËĪu
É² Ê²u
tÊ²ËĪi tÊ²
j tÊĥÊ²ËĪÉĳs
rÊ²i ja
f ÉĶ
ji dÊ²i
ĠpÊĮ kazËĪÉĳ
k ËĪÉĶ
tÊ²ËĪi v
ĠdÊ²ËĪe vu
Ġ ËĮi
ĠxÊĮ rËĪo
tÊ²iÉŃ nyx
ÊĴy t
n tÊĮ
tu ËĪÉĳ
ĠrÊĮ s
Ġk rÊĮ
n dÊ²i
É¡ ry
Ġv ra
ĠËĪÉª m
tÊĥÊ²ËĪÉĳ jit
1 0
Ġpr ÉĶ
Ð »
Ġ rÊ²ËĪi
rÊ²i ËĪÉĳÉŃ
stËĪo j
Ġd ËĮÉĽ
Ġ .
ÉŃnÊĮ jÉª
w É¨
ĠsÊ²i jtÊĥÊ²ËĪÉĳs
ĠÉ¡ rËĪu
ĠvrÊ²ËĪe mÊ²inÊ²Éª
Ġus ÉŃËĪu
Ġ W
ĠnÊ²i vËĪo
Ġd vËĪÉĳ
a t
Ġ L
ĠtsËĪÉĽ nt
j jÉª
Ġ ÉķËĪe
ĠnÊĮ i
n da
tÊĥÊ²i t
t rÊĮ
ĠvÊ²ËĪidÊ²i Ê
ĠvÊ²ËĪidÊ²iÊ Į
s ËĪy
nÊ²ËĪi tÊ²
Ġ1 2
ĠrÊĮ spÊĮ
ÉŃÊ²i m
d ÉĽ
ĠtÊĮ r
ĠtÊĥÊ²iÉŃÊĮvÊ²ËĪe ka
rËĪo d
b ÉŃÊ²u
sÊ²tÊ²i j
Ġk ÉŃËĪÉĳ
Ġ ËĪju
s ÉŃËĪo
Ġt ra
ĠÊĥ ËĪÉĳ
Ġraz mÊ²ËĪe
stavÉŃÊ²ËĪÉĳ jit
ĠËĪo d
Ġz d
mÊ²i r
t ÉĶ
ĠtrÊ²ËĪe bu
ku f
Ġs mÊ²ËĪe
ÊĴ dÊ²i
Ġt Éķ
b jÉĽ
Êĳ nÉĽ
Ð ¼
Ġv ÉŃa
ĠvÊ²i r
ĠpÊ²i rÊ²ËĪi
ĠpËĪomÊĮÉķ jju
ĠstÊĮ rËĪo
mÊ²ËĪent y
ĠprÊĮ tÊ²i
Ġj ËĪa
tÊĥ Ê²ËĪu
nÊĮ x
xÊĮ dÊ²ËĪÉĳ
Ê ²ËĮÉĽ
ss ÉŃÊ²ËĪe
rËĪÉĽ f
Ġvy pÊĮÉŃ
Ġsp Ê²ËĪi
ĠmÊ²i nËĪu
s ÉŃËĪu
Ġs Ê²ËĪer
ĠpÊĮ ÉŃÊ²i
É¡ ËĪÉĽ
tÊ²iÉŃ stva
j ËĪju
v Ê²ÉĽ
00 0
a r
ĠsÊ²ËĪe bÊ²i
Ġ ju
Ê² ÉĶ
Éķi m
Ġza mÊ²ËĪe
f ku
bÊĮ ÉŃ
ĠtakÊ²ËĪi jÉª
w ËĪu
ĠmÊĮ sk
k tÊĮf
Ġt rÊĮ
ĠÊĮr É¡a
t nyx
Ġv mÊ²ËĪe
Ġt ËĮÉĽ
k ty
Ġmu ÉķËĪi
vÉŃÊ²ËĪÉĳ jutsÊĮ
ĠprÊĮ fÊ²i
ĠsÊĮ vÊ²ËĪe
Ġukra ËĪi
vÊ²i tsÊĮ
ËĪÉĶv É¨x
Ġp ËĮÉĽ
tÊ² ÉĽ
ĠdruÉ¡Ê²ËĪi jÉª
ĠdÊĮstËĪÉĳ tÊĮtÊĥÊ²nÊĮ
tsy ÊĮnËĪÉĳ
ktÊ²ËĪi v
mËĪu Éķi
Ġ tÊĥÊ²ËĪi
v ÉĽ
ĠvËĪÉĳ ÊĴnÊĮ
ĠsÊĮ vÊ²irÊĥ
ĠjÉª mËĪu
Ġk ËĮÉĳ
st ru
ĠprÊĮiz vËĪod
vÊ²idÊ²ËĪe nÊ²ija
dËĪÉĳ nÊ²ija
i l
t nyjÉª
nËĪo m
r o
j ËĪo
Ġm Ê²ËĪÉĽ
ĠmÊ²ËĪe stÊĮ
ĠkËĪÉĳÊĴdy j
Ġ H
ĠkÊĮÉŃÊ²ËĪitÊĥÊ²i stvÊĮ
b rÊ²ËĪÉĳ
k Ê²ËĪÉª
ĠpÊĥ É¨
tÊĥ a
ĠÉ² Ê²ËĮÉĽ
ĠdÊĮÉŃÊĴ nËĪy
dÊĳ i
j ËĪa
rÊĮ zÊĮ
vÊ²i n
z d
É¡ ra
ĠkrËĪo mÊ²i
ĠmÊĮtÊ²i rÊ²iËĪÉĳ
rËĪo j
p ÉĶ
ĠsvÊĮ ËĪÉª
ts ËĪÉĳ
ĠsÊ²i tuËĪÉĳ
b ËĪÉĽ
tÊĥÊ²i k
ĠprÊ²i jËĪe
kËĪÉĳ zÊĮ
ËĪats ji
ĠkÊĮmpËĪÉĳ nÊ²iÉª
ĠsvÊĮ ËĪju
Éķi x
ĠÉªz vÊ²ËĪe
É² tÉķ
Éķi vÊĮ
É¡a ÊĳËĪi
ĠdÊĮpÊĮÉŃ nÊ²ËĪi
ÊĴ ËĪÉ¨
tÊĥ ËĪÉ¨
Į ÉŃÊ²i
Ê ĮÉŃÊ²i
ĠsvÊĮjËĪe j
pu ÉŃÊ²ËĪÉĳ
ÉŃÊ²ËĪi tÊ²
ĠprÊ²i parËĪÉĳ
ma tÊ²ËĪi
Ġ1 8
Ġr ËĮÉĽ
ĠbÊ²i zÊĮ
tÊ²iÉŃnÊĮ sÊ²tÊ²Éª
r ta
i c
ĠdËĪo ma
i s
ĠpÊĮd Ê²dÊ²ËĪe
ĠdÊ²i tÊ²ËĪej
ĠÊĮb rÊĮzÊĮ
Ġd rËĪu
k rÊ²i
ĠprÊ²i mÊ²ËĪe
ĠËĮÉĶ ras
v nÊ²i
Ġsta tÊ²
ĠkrÊ²i dÊ²ËĪi
Ġv ÉŃËĪÉĳ
ĠdËĪoÉŃ ÊĴyn
t vÊ²i
rÊ²i n
ssÉŃÊ²ËĪe dÊĮvÊĮ
ĠtÊĥ É¨
jËĪe t
ĠprÊĮi s
ĠprÊ²id sta
ĠxÊĮ tÊ²ËĪÉĳ
ĠÊĮ su
Ġ3 0
ĠsÊĮ trËĪu
mËĪo trÊ²i
ËĪÉĶv É¨
ĠkÊĮ ÉŃ
ĠpÊĮ ÉŃËĪu
Ġb rËĪÉĳ
ĠËĮÉĽ rËĪÉĽf
Ġr Ê²ËĪÉĳ
ĠÊĮsËĪobÊ²i nnÊĮ
Ġ E
z dÊĮ
ĠprÊ²i ÊĮb
tÊĥÊ²i tËĪÉĳ
ĠbÊ²ispÉŃËĪÉĳ tnÊĮ
ĠdÊĳ ËĪÉĽ
ÉŃËĪo ÊĴy
Ġs vÊ²i
stÊĮ f
Ê²ÊĮ tsÊĮ
st ËĪu
ĠÉª nÊĮ
rÊ²ËĪe nÊ²ija
ĠzÊĮ nÊ²imËĪÉĳ
ĠpÊĮ vÊ²ËĪer
ĠbËĪy strÊĮ
ÊĴ nyx
Ġp ËĪÉĽ
ĠjÉª v
ĠÊĮt mÊ²ËĪe
ĠËĪÉĽ m
dÊ²i rËĪÉĳ
ĠpÊĮÉŃu tÊĥÊ²ËĪitÊ²
mÊĮ sÊ²tÊ²Éª
Ġk nÊ²ËĪi
d ËĪy
Ġ c
ĠÉ¡ËĪo t
ĠÉŃËĪu tÊĥÊ²
ĠpÊĥ ÉĽ
tÊ²iÉŃ nyj
n kÊ²i
Ê²ËĪer Éª
tÊ²iÉŃnÊĮ j
ĠvËĪy brÊĮ
ĠsËĪu m
fÊ²i tsy
ĠbÊ²ËĪi ÊĳnÉĽ
ĠsÊĮ vrÊ²imÊ²ËĪe
ĠpÊĮ stÊĮËĪja
r s
bÉŃÊ²ËĪe j
ĠvÊĮzmËĪoÊĴnÊĮ stÊ²
Ġf ËĪu
ĠÊĮb ÉŃa
Ġsu Éķist
Ñ ģ
ĠdÊ²ËĪe ja
Ġ N
ĠxÊĮrÊĮ ÊĥËĪo
kÊĮ ÉŃÊĮ
mÊ²ËĪe ntÊĮf
st rÊ²i
r mËĪÉĳ
ĠÉĽk sp
Ġt rËĪu
stu p
ĠmÊ²i dÊ²i
ĠrËĪu s
tÊĮm ËĪu
ĠtËĪÉĳ m
sku ju
ĠnÊĮ stÊĮËĪja
nÊ²ËĪeÊĥ nÊĮ
rËĪo t
ĠËĪÉĳ ftÊĮ
vÊ²i sÊ²tÊ²ËĪÉª
ĠsvÊĮ ji
Ġu spÊ²ËĪe
ĠtÊ²iÉŃÊ²i fËĪo
Ġ É²ËĪi
ĠdÊĮ rËĪo
ĠnÊ²i bÊĮÉŃ
ĠbÊĮ ÉŃÊ²ËĪe
Ġx a
ĠÊĮrÉ¡a nÊ²ËĪiz
ĠpÊĮ tÊĮmËĪu
ĠtÊ²ip Ê²ËĪerÉª
Êĳi nËĪo
Ġs ÉŃÊ²ËĪi
f ËĪor
ĠsÊ²isÊ²tÊ²ËĪe my
tsy f
Ġza tÊ²ËĪem
ĠÉĽf fÊ²i
Ġs rËĪÉĳ
f Ê
ĠÉ¡ ËĪÉĳ
É¡ÊĮ m
Ġr ËĪa
Ġza ÉķËĪi
ĠdÊĮ bËĪÉĳ
Ġkva rtÊ²ËĪi
mÊĮtrÊ²ËĪe tÊ²
e s
ĠpÊĥËĪÉĽ s
xËĪo t
n tÊĮm
Ġd ÉŃÊ²ËĪi
vËĪo vÊĮ
i z
Ġra ss
Ġz dÊĮrËĪo
t nyj
ĠÊĮr É¡ËĪÉĳ
rËĪo m
Ġs vÊ²ËĪe
st ËĪup
ĠËĪobrÊĮ zÊĮm
ĠzÊĮ mÊ²i
Ġs kÊĮ
ĠpÊĮ puÉŃÊ²ËĪÉĳ
Ġra sÊ²tÊ²ËĪe
Ġa nËĪÉĳ
ĠbÊ²i rÊ²ËĪe
20 1
ĠpÊĮ ÉŃÊ²ËĪe
ĠpÊĮ sÊ²i
ĠsÊĮ dÊ²irÊĴËĪÉĳ
Êĳ Éª
Ġ h
w u
e n
tÊĥÊ²i vÊĮ
Ġv nËĪu
ĠvnÊ²imËĪÉĳ nÊ²ijÉª
tÊ²i n
ÉŃ kÊ²Éª
tÊ²iÉŃnÊĮ vÊĮ
Ġ ËĮ
tÊĥÊ² ka
Ġsm ËĮo
kÊĮ ja
ĠÉŃÊ²ËĪi bÊĮ
Ġd vÊ²i
ĠtÊ²i mÊ²pÊ²i
ĠnÊ²i kÊĮ
ĠdÊ²ËĪeÉŃÊĮ tÊ²
ĠprÊ²id ÉŃaÉ¡ËĪÉĳ
ĠstËĪo imÊĮ
Ġru bÉŃÊ²ËĪej
tÊ²i j
Ġra jËĪo
rÊ²i j
rËĪo da
ra v
Ġm Ê²ËĪÉĳ
ĠmÊĮtÊ²i rÊ²iËĪÉĳÉŃ
ĠbÊ²izÊĮ pËĪÉĳ
nÊ²i tsy
ĠprÊĮ dÊĮÉŃ
ĠvÊ²ËĪe tÊ²
ĠprÊ²i dÊ²ËĪe
ĠsÊĮtrËĪu dnÊ²i
ÊĴ nyjÉª
r É¡Ê²i
mÊĮ f
Ġna ÉŃÊ²ËĪitÊĥÊ²i
vÊ²ËĪi tÊ²
Ġna dÊ²ËĪe
Ġk rÊ²ËĪe
k rÊĮ
e t
ĠfÊ²i dÊ²irËĪÉĳ
fÊ Į
ĠtÊĥÊ²ËĪÉĳ stÊ²
s ÉŃa
nÊ²i kÊĮf
ĠprÊ²id stËĪÉĳ
ĠdÊ²ËĪen É¡Ê²Éª
ĠrÊĮ dÊ²ËĪi
vËĪÉĳ ja
ĠËĪÉªs zËĪÉĳ
ĠmÊ²i rÊĮ
Ġf sp
ĠprÊ²id pÊĮ
Ġd u
ĠzÊĮ kÉŃÊ²u
o k
v Ê²ËĪÉĽ
ĠsÊĮ tsy
Ġ w
ĠnÊĮ ru
ĠpÊĮÉŃu tÊĥÊ²ËĪi
ĠnËĪÉĳ dÊĮ
tsy jij
mÊĮ j
rËĪo f
ÉŃËĪo k
Êĳ dÊ²i
v Ê²Éª
ËĪÉ¨ j
ĠkÉŃÊ²i jËĪe
tËĪÉĳ ÉŃ
ĠkÊĮtËĪorÊĮ j
Ġu É¡
vÊ²ËĪi dÊ²i
ĠsuÉķist vËĪu
n Ê²u
nÊ²i t
ĠprÊ²i nÊ²imËĪÉĳ
st ËĪÉĽ
ĠsÊĮ x
Ġu dÊĮ
stu pËĪÉĳ
ĠspÊ²itsy aÉŃÊ²ËĪi
Ġn u
ĠÊĮsu Éķist
ĠkËĪÉĳ r
Ġma ÊĥËĪy
Ġpr ËĮÉĶ
tÊ²i sÊ²
ĠÉ¡ÊĮsudËĪÉĳr stvÊ²i
ĠÊĮs nËĪo
Ġu dËĪo
ĠpÊĮd ËĪo
j tÊ²ËĪÉª
ĠÊĮbËĪy tÊĥÊ²nÊĮ
Ġna z
ĠnËĪÉĳ m
st ËĪy
ËĪÉĽ n
Ġpa r
tÊĥÊ²iskÊĮ ja
ĠsÊ² tÊ²ËĪi
Ġku pÊ²ËĪitÊ²
ĠpÊ²i tËĪÉĳ
ĠrÊ²ikÊĮmÊ²in dËĪu
Ġza dËĪÉĳ
ËĪ jut
ĠpËĪo ÉŃnÊĮ
tst vÊ²i
ĠtrÊ²ËĪe bÊĮ
ĠrÊ²i ÊĥËĪy
ĠpËĪo rnÊĮ
nÊĮ mÊ²Éª
juÉķi vÊĮ
ĠpÊĮ mÊĮ
ĠpÊĮvÊ²ËĪer xnÊĮ
ĠkÊĮ ÊĳinËĪo
ĠstrÊĮ ËĪi
ĠmÊ²i tËĪo
v ËĪi
ĠpÊĮ rÊ²ËĪÉĳ
ĠprÊĮi zvÊĮ
ru jit
Ġk Ê²ËĪi
ĠsrËĪÉĳ zu
ĠÉª ssÉŃÊ²ËĪedÊĮvÊĮ
ĠtakÊ²ËĪi m
tvÊ²i rÊĴ
ĠmËĪÉĶ ÊĴÉĽ
tÊĥ ËĪÉĶ
ĠsvÊ²ËĪÉĳ zÊĮ
tÊĮ j
Ġr ËĮÉĶ
ĠÉª zÊĮ
mÊĮ m
tÊ²iÉŃ stvÊĮ
ĠÊĳ ËĪe
ĠtÊĮ É¡dËĪÉĳ
ĠrÊ²i É¡u
p ÉŃËĪÉĳ
Ġa ÉŃ
fÊĥy j
kËĪÉĳ r
v É¨
5 0
p ÉŃÊ²i
ĠprÊĮ tsy
ĠfsÊ²ËĪe m
Ġkra sÊ²ËĪi
Į ÉŃ
Ê ĮÉŃ
Ġu tÊĥÊ²ËĪi
Ġna ËĪu
ĠÉķ f
Ġu strËĪoj
nÊĮ ja
Ġs kËĪo
xËĪo dÊ²itsÊĮ
ĠdÊ²i rÊ²ËĪe
Ġd vËĪu
ÉŃÊ²i ja
ĠÊĮ tÊ²ËĪe
ÊĴËĪÉĽ nÊ²iÉª
ĠfÊ²ËĪi ÉŃ
Ġu nÊ²i
kËĪÉĳ mÊ²Éª
ĠpÊĮ ÉŃÊ²ËĪi
t nÊĮj
ĠprÊĮtsËĪÉĽ ss
Ġd ËĪÉĽ
ËĪu s
d ÉŃÊ²i
m nËĪovÊĮ
rnÊĮ vÊĮ
d ËĪÉ¨
ËĪÉĶv ÉĶ
Ġd nÊ²ËĪej
Ġd ËĪa
ry vËĪÉĳ
ĠdÊĮ mËĪÉĳ
ĠtÊ²i tÊĥÊ²ËĪenÊ²ijÉª
Ġpra ktÊ²ËĪi
ĠÊĮb u
ĠsÊĮ bËĪoj
ĠmÊĮ É¡
ĠtÊĥÊ²i vËĪo
Ġfs Ê²ËĪÉµ
ĠtËĪÉ¨ m
stvÊ²i nnÊĮ
rÊ²id Ê²ËĪÉª
vÊĮ ÉŃ
vÊĮ jÉª
É¡ÊĮ tÊĮ
n dËĪÉĳ
ĠtakÊ²ËĪi x
ĠÊĮprÊ²idÊ²i ÉŃÊ²ËĪe
ĠtËĪo ÊĴy
É² Ê²ËĪa
ts ji
ntÉĽr nËĪÉĽ
kÊĮ n
Ġv nÊ²i
ĠrÊ²iÉ¡Ê²i strËĪÉĳ
ĠÊĴ ËĪÉĳ
ĠsrÊ²ËĪed stva
tÊĥÊ² u
t ku
ĠprÊ²iÊĮb rÊ²i
a n
d ka
vnÊĮ jÉª
ĠmnËĪoÉ¡Ê²i jÉª
a l
kËĪu p
ĠbÊĮÉŃÊ²ËĪe Êĳ
Ġ V
É¡ rÊ²ËĪe
ĠtÊĥ ËĪÉĽ
ĠÉ¡ ËĮÉĽ
ĠkÊĮ nÊ²ËĪeÊĥnÊĮ
ja sÊ²
Ġ /
ĠtÊĥÊ²i tËĪÉĳ
t k
Ġv ÉŃÊ²i
ĠËĮ in
Ġz ËĪÉĽ
tÊĥÊ²nÊĮ ja
ĠtÊ²ir rÊ²i
na tÊĥÊ²ËĪÉĳ
n ËĪÉĶÉķtÉķi
ĠmÊĮ É¡aÊĳËĪi
k ËĪoÉŃ
st vÊ²ËĪi
ËĪar dÊĳ
ĠÊĮt ÉŃÊ²ËĪi
ĠÉ¡ ÉŃa
ÊĴËĪÉĳ tÊ²
k tËĪo
ĠtakËĪo jÉª
ĠvÊĮ s
ĠÊĮpÊ²i rËĪÉĳ
ĠvÊĮprËĪo s
Ġt ËĪak
ĠpÊĮd rËĪo
ĠpÊĮd É¡ÊĮtËĪo
vÊĮ jutsÊĮ
ĠËĪop y
Ġ1 1
n sÊĮ
dÊĳ ËĪi
ĠpÊĮ tÊĥÊ²i
Ġk ËĪa
ĠnÊĮ vÊĮ
ËĪÉĶva tÉķ
ĠËĪÉĽtÊ²i x
tÊ²iÉŃnÊĮ stÊ²
ĠprÊ²i du
Ġ ÉŃ
e d
ĠkakÊ²ËĪi jÉª
tÊĥÊ² nym
ËĮÉĽ s
ĠpÊĮ ra
tsËĪÉĽ p
ĠÉ¡ÊĮ r
rÊ²i dÊ²ËĪi
ku pËĪÉĳ
ËĪÉĳÉŃ nyjÉª
ĠÊĮb jja
k tËĪu
bËĪo ÉŃÊ²ijÉª
ĠsËĪÉĳ jtÊ²i
ĠÉ¡ÊĮ rÊĮ
ĠnÊ²i pÊĮ
x ËĪi
Ġf pÊ²i
ĠsvÊĮËĪi x
d stvÊ²i
Ġu pÊĮ
ÉŃ nym
ĠÊĮd nËĪoj
ĠsÊ² nÊ²i
ĠÉªsk ÉŃÊ²u
ĠstÊĮrËĪo ny
ĠsÊ²i r
ĠËĪÉĽ ta
Éķ ËĪÉµ
Ġp ÉĶv
Ġ1 4
rÊ²i É¡Ê²i
s Ê²Éª
Ð¾ Ð
Ġk ru
ĠtÊ²i xnÊĮ
Ġm nÊĮ
ĠÊĴËĪyÊĳ n
z É¨
tsËĪy Ê
tsËĪyÊ Į
dÊ²ËĪe ÉŃÊ²Éª
Ġu znËĪÉĳ
ĠtÊĥÊ²ËĪÉĳ sÊ²tÊ²Éª
Ġm ÉĶ
ĠÊĥ a
Ġp ËĪa
Ġ1 00
rÊ²i tÊ²
ĠÉªn dÊ²i
Ġs x
ĠvËĪo dy
tÊ²ËĪi tÊ²i
tÊĥÊ² a
ĠpÊĮ tÊĮ
tÊĥÊ²iskÊĮ jÉª
ĠÉªstËĪo tÊĥÊ²
st ÉĶ
Ġs ÉŃu
Ġa nd
ĠdvËĪu x
Ġvy sÊĮ
ĠËĪa lÉĽ
ĠvËĪy Êĥy
t rÊĮf
rÊĮ mÊ²Éª
e l
Ġ ÉŃa
_ _
j ji
rÊ²ËĪe n
Ġu mÊ²ËĪe
tÊ²i tÊ²
ĠrÊĮz rabËĪo
ĠmÊ²ËĪe nÊ²ijÉª
ĠjËĪÉĽ d
ĠÉ¡ ru
rÊ²ËĪe j
ĠmnÊĮ É¡ÊĮ
ĠpÊĮtÊĥÊ²i mËĪu
Åĭ É¡
nÊ²i tÊ²
ĠÉ¡ÊĮ ÉŃÊĮ
Ġka kËĪoj
ĠprÊĮtÊ²i vÊĮ
Ġs ÉŃËĪÉĳ
n ËĪÉĶ
ĠpÊĮzvÊĮÉŃÊ²ËĪÉĳ jit
nÊ ĳ
ĠnËĪÉĳ t
ĠprÊĮizvÊĮ dÊ²ËĪi
kËĪÉĳ ja
n sÊ²i
ĠÉª dÊ²i
ĠdËĪoÉŃ ÊĴnÊĮ
ĠdÊĮ É¡ÊĮ
vËĪÉĳ ÉŃ
Êĥ ku
ËĪÉĳÉŃ nyj
ĠÊĮt ÉŃÊ²i
ĠkËĪÉĳÊĴ dÊĮ
r nyx
ĠÊĮts ËĪu
ĠprÊĮtsy dËĪu
ĠktËĪur ÉĽ
ĠkÊĮ mËĪÉĳ
ĠÉ¡ËĪo rÊĮ
ĠnÊĮi bËĪoÉŃÊ²ijÉª
Ġf ÊĥËĪÉ¨
ĠÊĮ kazËĪÉĳ
ĠÉĽÉŃÊ²ikt rËĪo
Ħ ĸ
ĠsÊĮÊĮtvÊ²ËĪetst vÊ²i
Ġ1 6
ĠbÊĮÉŃ Êĥy
ji sÊ²ÊĮ
ËĪÉĳÉŃnÊĮ j
. ,
d ÉĶ
ÊĴ ËĪo
ËĪÉĳÉŃ nyx
ĠmÊ²inËĪu t
ĠÉª ntÉĽrnËĪÉĽ
t ÉĽ
É¡ rÊ²i
r nyj
ĠtÊĥÊ²ËĪu v
ĠâĢ ŀ
ĠbÉŃÊĮÉ¡ÊĮ da
nÊ²i vÊĮ
ĠvËĪo ÉŃÊĮ
Ġs ÉŃÊ²i
Ġz ËĪo
ĠprÊ²i Êĳi
ĠvËĪoz rÊĮ
ĠrÊ²i sËĪu
ĠrÊ²ibÊ²ËĪe nka
tÊĥÊ²i j
Ġl ËĪup
ĠrÊĮsp rÊĮ
ĠkÊĮtËĪorÊĮ jÉª
p ÉŃÊ²ËĪe
Ġk ÉŃÊ²ËĪe
i d
ÉĶvËĪa É²Ê²ÉĽ
ĠtÊ²imÊ²pÊ²i ratËĪu
ĠprÊ²id ÉŃÊĮ
Ġd Ê²ËĪi
ĠnÊĮ zyvËĪÉĳ
Ġd vÊ²ËĪi
ĠvmÊ²ËĪe sÊ²tÊ²i
Ġnaj tÊ²ËĪÉª
nÊ²i x
Ġv ËĪa
jËĪe tsÊĮ
r nyjÉª
dÊ²ËĪe jstvÊ²i
ÊĴ ËĪu
ĠnÊ²ËĪekÊĮtÊĮry jÉª
ĠÊĮbÊ²azËĪÉĳ tÊ²iÉŃnÊĮ
ĠÉ¡ u
ËĪoÉŃ ku
ĠnÊĮ pra
ĠÉ¡ ra
ĠpÊĮ nÊ²imËĪÉĳ
Ġk rËĪy
xËĪod Ê²ÊĮt
ĠsÊĮÉ¡ ÉŃËĪÉĳ
ĠÉŃÊ²i x
Ġp sÊ²i
nÊ²ËĪÉĳ jitsÊĮ
ĠkËĪo mnÊĮ
Ġd nÊ²ËĪÉĳ
k tu
ĠpÊĮ stËĪÉĳ
ktÊĮ r
s ÉŃËĪÉĳ
ĠdÊĮmËĪÉĳ Êĥ
ËĪÉĽ ÉŃ
ĠâĢ ľ
ĠtÊĥÊ² u
c h
ĠspÊĮsËĪo b
ĠpÊĮ tÊĥÊ²
tnÊĮ vÊĮ
rÊĮ x
ĠtÊ²irrÊ²i tËĪo
Ġs rÊ²idÊ²ËĪÉª
kÊĮ nÊĮ
ĠrabËĪo tu
skÊĮ jÉª
Ġâ Ħĸ
É¡ nÊĮ
ĠfÊ²i nËĪÉĳ
ĠsrÊ²ËĪed stf
r Ê²Éª
tÊĥÊ²ËĪi tÊ²iÉŃnÊĮ
ĠÉ¡ÉŃËĪÉĳ v
ĠpÊĮÉŃËĪu tÊĥÊ²i
2 1
ĠmÊĮ mÊ²ËĪent
Ġf strÊ²ËĪe
ĠpËĪo tÊĮm
mÊ²i nÊ²i
ĠprÊĮfÊ²i sÊ²sÊ²i
p ËĮÉĽ
j s
v É²Ê²ÉĽ
ĠsÉŃËĪu ÊĴ
ĠpËĪoÉŃnÊĮ stÊ²jju
Ġf kËĪu
Ġza p
ĠËĪÉª É¡ry
ĠbÊĮÉŃÊĥy nst
ĠmÊ²idÊ²i tsËĪy
ĠsvÊĮji É¡ËĪo
sËĪo f
ĠdÊ²ËĪe ts
ÉŃËĪoÉ¡Ê²i Éª
sk Ê²ÉĽ
ĠpÊĮ tsy
skÊ²i m
ËĪÉĶv ÉĽj
vnÊĮ vÊĮ
Ġ1 3
ĠrÊ²i ÊĴËĪy
ĠËĪo kÊĮÉŃÊĮ
Ġka r
ĠÊĮt vÊ²ËĪe
ËĪi l
tÊ²i ÉŃÊ²im
nÊ²ËĪi k
ĠvnËĪu trÊ²i
ĠbÊ²izÊĮpËĪÉĳ snÊĮ
o u
ĠsËĪÉĳj t
ĠpÊ²irÊ²ËĪi ÊĮt
ĠÊĮrÉ¡ÊĮnÊ²i zËĪÉĳ
ËĪa mi
Ġ5 0
ĠprÊĮ dËĪÉĳ
nÊ²ËĪi m
dËĪÉĳ jit
ĠÊĮ fÊ²itsy
ËĪa É²Ê²ÉĽ
ÊĮb rËĪÉĳ
Ġsp rËĪÉĳ
tÊĥÊ² ku
nËĪu tÊ²
ÊĴËĪy tÊ²
ĠdÊĮ vËĪo
Ġpr ËĪÉĶ
ĠvÉŃÊ²i ËĪja
Ġja vÉŃÊ²ËĪÉĳjutsÊĮ
vÊĮ nÊ²ijÉª
ĠÊĮ tÊĥÊ²i
ĠfÊĮ tÊĮ
tÊĥÊ²i vËĪo
ÊĴ nyj
ĠpËĪÉĶ t
Ġj ÉĽ
Ġska tÊĥÊ²ËĪÉĳtÊ²
ĠpÊĮt rÊ²ËĪe
ÉŃy j
tÊĮ ra
n skÊĮj
ĠprËĪÉĳvÊ²i ÉŃnÊĮ
ĠkÊĮtËĪo rÊĮvÊĮ
Ġna ÉŃËĪo
Ġa ntÊ²i
ĠsvÊĮËĪi mÊ²Éª
ĠpÊĮ kupËĪÉĳ
sk ËĪoÉŃku
ĠdÊĮÉŃÊĴ nËĪÉĳ
fÊĮr m
ĠjÉª ËĪÉµ
ĠpÊĥ ËĮÉ¨
vÊĮ tÊ²sÊ²ÊĮ
m ËĪi
ĠpÊĥ ËĪÉ¨
ĠrazvÊ²ËĪi tÊ²ija
ĠÊĮ tsËĪÉĽ
z m
Ġku ÉŃ
É¡rËĪÉĳ fÊ²i
ĠzdÊĮrËĪo v
dÊĮ k
Ġx i
ĠpÊĮmÊĮ É¡ËĪÉĳ
Ð ³
Ê²ËĪÉĽ É¡ÉĶ
n kÊĮ
s ËĪÉĶ
ru ju
ÊĴ ÉĶ
Ñ ħ
ĠsÊ²ËĪe ks
ĠbÉŃÊĮÉ¡ÊĮda rÊ²ËĪÉĳ
Ġtr Ê²ËĪÉª
i on
ĠpÊ²ËĪer vyj
ĠprÊĮ s
m ËĪÉĽ
in g
ĠfÊĥËĪÉ¨ st
Ġza kËĪÉĳ
ĠdÊ²ËĪe j
Ġsp a
Éķu ju
ĠÉĽf fÊ²ËĪe
ĠÉªmÊ²ËĪe jut
rËĪu ÊĴy
o w
ĠpÊĮ skËĪoÉŃku
tÊĮ mÊ²Éª
É² dÊĳÉĽ
tÊ²i f
vËĪÉĳ jit
prËĪÉĳ vÊ²i
t ËĪÉĶ
ÉķËĪÉĳ jit
ÉĽ nt
1 2
ÉĶvËĪa É²Ê²a
Ġst ranÊ²ËĪi
ĠprÊ²idsta vÊ²ËĪi
ÉŃ ka
Ġs ËĪoÉŃ
ĠprÊĮfÊ²isÊ²sÊ²i ÊĮnËĪÉĳ
ĠuvÊ²i ÉŃÊ²ËĪitÊĥÊ²i
ĠpÊĮ vy
ĠÉ¡ ÉŃu
st rÊ²ËĪi
nËĪo sÊ²i
Ġa ÉŃÊ²ik
ĠÉ¡ Ê²ËĪi
rÊĮvÊĮ nÊ²ija
ĠÉªsp ÊĮÉŃ
Ġk rËĪup
Ġa n
ĠrÊ²i mËĪo
Ġp Ê²ËĪÉĽ
ĠnÊ²idÊĮ stËĪÉĳ
Êĥ ËĪu
ĠmÊ²ËĪe st
y tËĪÉĳ
tÊĮ x
ĠÉªntÉĽrnËĪÉĽ t
Åĭ ki
f t
r kÊ²i
jtÊ²i sÊ²
ĠpÊĮd Ê²
vÉŃÊ²i kËĪÉĳ
ÉŃÊ ĳ
ËĪÉ¨ mi
ty j
Ġb ËĪardÊĳ
rËĪu dÊĮvÊĮ
ĠËĪod zy
spÊĮ rt
ĠkÊĮn strËĪuk
ĠÉĽ tËĪÉĳ
Ġs ËĪy
Ġp Ê²ËĪÉĳ
ĠdÊ²i zËĪÉĳ
sÊ² tÊ²ËĪÉĳ
ĠÊĮt k
dËĪu t
nËĪÉĳ vÉŃÊ²i
Ġk ËĮa
ĠsvÊĮ bËĪo
v nËĪo
ĠrËĪu p
ĠËĮÉĽm ËĮÉĽ
k sÊ²ËĪi
ĠnÊ²ËĪe j
m jÉĽ
ĠfËĪu nk
ĠsÊĮz da
l kÉĶ
Ġl ËĪi
ĠËĮÉĽs ËĪÉĽm
s Ê²ËĪÉĳ
pu skËĪÉĳ
Ġ2 5
Ġ [
Ġv nÊ²ËĪeÊĥ
Ġ1 7
ĠtËĪy sÊ²ÊĮ
ĠstËĪÉĳ ÉŃ
mÊ²ËĪe nta
ĠbËĪu du
rËĪo s
tÊĥÊ²ËĪÉĳ jut
ĠrÊĮz nÊĮ
m Ê²ËĪÉĳ
ĠdËĪu mÊĮ
ĠsÊĮÊĮtvÊ²ËĪetst vu
d ÊĴËĪÉĽ
ĠdruÉ¡ËĪo j
ÊĴ ËĪÉĶ
ËĪi n
Ġsta nËĪo
nËĪo mÊ²i
ĠmÊ²i xa
x nÊ²ËĪi
tÊĥÊ²ËĪe nÊ²iÉª
r mÊ²i
ĠkÊĮmpËĪÉĳ nÊ²ija
ĠÊĮ fÊĮrm
ĠxÊĮrÊĮ ktÊ²i
ÊĴ Ê
ĠsÉŃËĪo ÊĴnÊĮ
ÊĴÊ Į
ĠÊĮp ÉŃËĪÉĳ
dÊ²ËĪe rÊĴy
Ġ O
É¡ r
ĠusÉŃËĪovÊ²i jax
ĠpÊĮtsy jËĪe
ĠÉķËĪe t
z vËĪo
ÊĴdÊ²ËĪe nÊ²ijÉª
r nÊĮj
ĠÊĮbÊĮ rËĪudÊĮvÊĮ
ÉŃy x
Êĥ É¨
ËĪja tnÊĮ
sÊ² tÊ²ÊĮ
1 9
ĠvËĪy rÊĮ
dnÊĮ vÊĮ
Ġst u
ĠustanËĪo vÉŃÊ²i
k ÉŃa
ĠsÊ²i mÊ²ËĪe
vÉŃÊ²ËĪe nÊ²iÉª
ksÊ²i mËĪÉĳ
ĠsËĪÉĳ m
ĠprÊ²i ÉŃÊĮ
ĠutÊĥÊ²ËĪÉĳ sÊ²tÊ²i
dÊ²ËĪe nÊ²ija
ĠpÊĮ trÊ²i
n skÊĮvÊĮ
ĠsÊĮmÊĮ stÊĮËĪja
Ġm ËĮa
ĠkÊĮ tÊ²i
! !
Éķ Éª
tÊĥÊ²iskÊ²i m
ĠutÊĥÊ²ËĪÉĳ st
ĠÊĴy vËĪo
ĠdvÊ²ËĪi É¡ÊĮ
ĠnÊ²i Ê
ĠnÊ²iÊ Į
ÊĴ na
Ġb ÉŃÊ²ËĪi
ÉŃÊ² a
Ġpr Ê²ËĪÉĳ
sÊ² t
j nÊ²i
ĠrÊ²iÉ¡Ê²i ËĪo
tÊ²i kÊ²Éª
Ġv ËĮÉĽ
b rÊ²i
b ÉĶ
Ġz v
ÉŃy jÉª
o t
ĠsÊ²i mp
ËĪÉĳÉŃnÊĮ vÊĮ
Ð ¹
ĠtËĪo t
ĠmÊ²ËĪe nÊĥy
stvu jit
ĠtËĪu t
c e
ĠnÊ²i tÊĥÊ²ivËĪo
Ġna pÊ²ËĪi
fÊ²i kËĪÉĳ
ĠÉª ËĪju
ĠÉŃÊ²ix kËĪo
ĠsËĪÉĳmy x
ĠzÊĮbÊĮÉŃÊ²i vËĪÉĳnÊ²ija
ĠÉ¡ÊĮ rËĪoda
nÉĶ ÉķtÉķ
ĠvÊ²ËĪi t
Ġl ËĪÉĽ
Ġv ËĪÉ¨
ĠaftÊĮ mËĪÉĳ
ĠmÊĮ ksÊ²imËĪÉĳ
rÊĮ j
Ġa nÊĮ
ĠËĪÉĽtÊ²i m
ĠtÊĥ ËĪa
ĠtÊĮr É¡ËĪo
ĠpËĪomÊĮÉķ Éª
kËĪo vÊĮ
ĠrÊ²i ÊĥËĪÉĽnÊ²ijÉª
ËĪa É²Ê²a
rÊ²ËĪÉĳ t
ÉĶv ËĪÉĽÉ¡ÉĶ
va rÊ²ËĪi
Ġras skËĪÉĳ
Ġts vÊ²ËĪe
ĠÊĥ ËĪÉĽ
ĠdÊ²ËĪejstvÊ²i ja
ĠËĪÉĽ tu
ËĪu Êĥ
Ġsu p
ĠÊĮ tÊ²
ĠsÊĮ f
tÊĥÊ²nÊĮ jÉª
f i
ĠusÉŃËĪovÊ²i ja
mÊ²i ntËĪÉĳ
ĠsvÊ²ËĪÉĳ ÊĳÉª
ĠzÊĮ kÊĮnÊĮ
ĠËĪurÊĮ v
ĠmËĪÉĳ ÉŃÊ²in
Êĥ kÊĮm
z ËĪÉ¨
r i
mËĪÉĳ trÊ²i
ÉŃÊĳ ËĪÉĳ
nÊ²i rËĪÉĳ
ĠrÊĮz rÊ²i
d ËĪoÉŃ
dËĪÉĳ nÊ²ijÉª
vÊĮ z
n tÊĥÊ²i
ĠutÊĥÊ²ËĪÉĳ stÊ²
k tsyja
ĠdÊĮ stËĪup
d Ê²ÊĮ
vÊ²i ÉŃ
ĠÉŃÊ²i tÊĥÊ²ËĪenÊ²ija
ĠprÊĮis xËĪodÊ²it
Ġb ËĮÉĽ
j stvÊ²ËĪi
ĠbÊĮÉŃÊĥËĪo j
o l
ĠÉĶ p
nÊ²ËĪe jÉª
Éķ ÉĽ
ĠstËĪoimÊĮ stÊ²
ĠËĪÉĽ r
ĠnÊ²ËĪi m
ĠÊĮtnÊĮ ÊĥËĪÉĽ
Ġu dÊ²i
ĠÊĮrÉ¡ÊĮnÊ²i zËĪÉĳtsyÉª
xËĪo da
ÉŃÊĮ k
ĠsrËĪo k
Ġv rÊ²i
ĠrÊĮz mÊ²i
Êĥ ÉŃËĪo
d vÊ²ËĪi
ĠpÊĮtÊĥÊ² tÊ²ËĪÉª
ju ÉķÊĮja
ĠrÊĮsprÊĮ stra
ÉķËĪe stvÊ²i
ĠÊĮp ËĪÉĳ
Ġs fËĪÉĶ
ĠpÊĮ ÊĴËĪÉĳ
ĠxÊĮ ÊĳËĪÉĳ
ĠnÊ²i mnËĪovÊĮ
Ð º
ĠÊĮdnÊĮ vËĪo
ĠÊĮbra tÊ²ËĪi
nËĪÉĳ ja
Ġa ktÊ²ËĪivnÊĮ
ĠtÊĥÊ² ÉŃÊ²ËĪe
jÉĶ nts
rnÊĮ ja
nÊĮ jÉª
Ġs mÊ²i
tÊ²iÉŃ nym
ĠprÊ²id prÊ²iËĪja
ĠnÊ²i za
ĠrÊ²i ÊĮÉŃÊ²i
vÊĮ k
vÊ²i du
d ra
Ġst rÊ²i
kÊ²i m
Ġv ËĪÉĶ
ĠpÊĮ dËĪÉĳ
tÊĥÊ²ËĪÉĳ j
ĠjÉª ÊĴy
nÊ²ÊĮ ja
ĠtrËĪÉĳ n
ĠÉ¡ rÊ²i
3 0
Ġad mÊ²inÊ²i
dÊĳ a
Ġu vÊ²ËĪidÊ²i
ĠÉŃÊ²i tÊĥÊ²ËĪenÊ²ijÉª
ÉŃÊĮ vÊĮ
ĠËĪo nÊĮ
Ġs kËĪÉĳ
É²Ê²ËĪÉĽ j
rnÊĮ jÉª
É²i k
Ġst ru
ĠdÊ²i a
ĠdÊ²ËĪeja tÊ²iÉŃnÊĮsÊ²tÊ²Éª
Ġu dËĪÉĳ
vÊ²ËĪetst vÊ²i
n tsyÉª
ĠprÊĮbÉŃÊ²ËĪe my
p jËĪju
Ġsx ËĪe
ĠvËĪoz du
ĠprÊĮ ja
ÉŃ Ê²ËĪÉµ
Ġk ÉŃÊ²ËĪi
dËĪo j
sÊ²tÊ²i tËĪu
nÊ²ËĪe nÊ²ij
r É¡Ê²ËĪi
i mËĪuÉķi
/ /
kÊĮ jÉª
ÊĴ dÊĮ
ĠvËĪÉĳ Êĥ
ĠpËĪÉĶ l
ĠÉª ÊĳdÊ²ËĪe
É¡ ËĪÉĶ
É¡ ÊĴÉĽ
ĠËĪi n
ĠnÊ²i u
ĠvËĪy pÊĮÉŃ
ĠtÊĥÊ²ËĪÉĳ Éķi
ÉŃÊĮ j
Ġt ËĪÉĽÉ¡ÉĶ
b jËĪÉĽ
ĠÉ¡ rÊĮ
brËĪÉĳ tÊ²
ĠjÉª ÉķËĪÉµ
ĠÉªndÊ²i vÊ²idu
Ã §
ĠprËĪÉĳvÊ²i ÉŃÊĮ
Ġd vu
ĠÊĮ dÊ²ËĪe
ĠnÊ²i ÉŃÊĳËĪÉĳ
ĠÊĮ ÊĴy
ĠÉªn stru
ĠÉŃÊ²ËĪe x
ÊĥËĪÉĽ ÉŃ
ĠvÊĮÊĳ nÊ²ikËĪÉĳ
nËĪÉĳ ÉŃ
Ġb ËĪÉĶ
ĠtÊĥÊ²i sÉŃÊ²ËĪe
Êĥ ÉŃÊ²ËĪÉª
tÊĥÊ²ËĪe m
f kÊ²i
pr Ê²a
ËĪi m
Êĳ nÊ²i
dÊ²ËĪi tÊ²i
ĠnËĪo vyj
z ËĪy
ĠpÊĮ tÊ²i
d ÊĴ
ĠkÊĮmÊ² pjËĪju
pÊ²i n
ĠpraktÊ²ËĪi tÊĥÊ²iskÊ²Éª
ĠkÊĮm pÊĮ
tÊ²iÉŃnÊĮ jÉª
b ÉŃÊ²ËĪi
Ġu kËĪÉĳzÊĮ
ĠÊĮ x
ĠnÊĮ zna
ĠprÊ²i imËĪuÉķi
Ġna xËĪodÊ²itsÊĮ
Ġvy bÊ²irËĪÉĳ
ĠnÊĮ bÉŃÊ²u
Ġja zy
ÊĴËĪÉĽ nÊ²ij
r ËĪÉ¨
sÊ²tÊ²ËĪe j
ĠnÊ²iÊĮpxÊĮdÊ²ËĪi my
Éķ li
ĠskËĪo rÊĮ
n du
Ġv ÊĳËĪÉĳ
ĠnÊĮ sÊ²i
n Ê²ËĪÉª
Ġpr ËĪa
vy mÊ²Éª
ĠmËĪo Éķ
p kÊ²Éª
r ma
sÊ²ËĪi tÊ²
Ġm ËĪÉĽ
b ÉŃÊ²ËĪÉĳ
ĠstËĪÉĳ tÊ²
ĠpËĪo r
ts ËĪÉ¨j
sp ÉĶ
z v
ĠfÊ²i ÊĳËĪi
nÊ Ĵ
ĠmÊĮ r
ĠspËĪosÊĮ p
ĠspËĪosÊĮ bÊĮ
vËĪo dÊ²itsÊĮ
ĠprÊ²ËĪi znÊĮ
ĠÊĥ kËĪoÉŃ
ĠsÊĮ jidÊ²i
nÊ²i n
ĠÉªnÊĮ É¡dËĪÉĳ
k sa
s É¨
t ËĮÉĽ
ĠmÊ²ËĪe sta
ĠdÊ²i jstvÊ²ËĪi
ĠsrÊ²ËĪed stvÊĮ
ĠprÊĮ da
ËĪa wa
ĠkÊĮnt rËĪo
: //
ĠÊĮ zna
m e
Ìĥ ,
ĠËĪu ÉŃÊ²i
dÊ²i nËĪÉĳ
ĠvÊĮrÊ²iËĪÉĳ nt
ĠpÉĶ d
ĠvËĪybrÊĮ tÊ²
Êĥ ÉŃÊ²i
k rÊ²ËĪe
ĠrabËĪo tÊ²i
vÊ²i t
dÊ²i Ê
dÊ²iÊ Į
Ġvz É¡
n Ê²a
ĠbËĪÉĽ É²dÊĳÉĽ
jimy x
ĠÉªntÊ²ÉĽrÊ²ËĪe s
ĠprÊ²ËĪi nÊ²ÊĮ
m ËĪÉĶ
ĠpÊĮdËĪo b
Ġka rtÊ²ËĪi
ĠzËĪÉĳ pÊĮ
Ġv nu
ĠpÊĮja vÊ²ËĪi
ĠsÊ²i rÉª
ËĪÉĶv Ê²ÉĽ
ĠpÊĮ krËĪy
ĠÊĥ ÊĥËĪÉĳ
ĠÉŃÊ²ËĪi tsa
vÊ²i tÊĥÊ²
d Ê²ËĪÉµ
Ġfs Ê²ËĪÉĳ
n skÊ²ij
Ġ2 4
ĠsÊĮvÊ²irÊĥ ËĪÉĽ
ÉŃÊ ²ËĮ
ĠprÊ²idstËĪÉĳ vÉŃÊ²i
ĠÉŃÊ²i kËĪÉĳr
ĠdÊĮvËĪo ÉŃnÊĮ
ĠsÊĮ v
ĠsÊ²imp tËĪo
ĠdËĪÉĳ nnyjÉª
ĠnËĪo vyjÉª
ĠvËĪybÊĮ r
ĠÊĮ Éķu
ĠmÊ²ËĪe sÊ²tÊ²i
ĠudËĪo b
1 1
ËĪats jÉĽ
Ġsp ÉĶ
ĠpÊĮ zvËĪo
Ġu bÊ²i
Ġzna kËĪom
ĠtsËĪÉĽ ÉŃ
ĠÉĽffÊ²i ktÊ²ËĪivnÊĮ
tËĪo f
t tp
ĠkÊĮn tsËĪÉĽ
ĠsvÊĮËĪi m
v nÊĮj
nÊĮ vÊ²ËĪe
ĠftÊĮ rËĪoj
Ġu stÊĮnÊĮ
vËĪÉĳ jut
ĠprÊ²i krËĪÉĳ
fÊĥy x
ÊĥËĪÉĳ jit
ĠvËĪy É¡
ĠÊĮt vÊ²ËĪetstvÊ²i
ĠpÊĮdÊ²dÊ²ËĪe rÊĥ
ĠsÉŃÊĮ vËĪÉĳ
pÊ²i sËĪÉĳ
mÊ²i t
Ġst rËĪo
ÉŃnÊĮ m
Ġk rËĪu
ĠÊĮtsËĪu tstvÊ²i
ĠzavÊ²ËĪisÊ²i mÊĮsÊ²tÊ²Éª
ĠdËĪo m
strËĪo ji
ĠnÊ²i ka
Ġz m
tÊ²i Éª
Ġb Ê²u
r tËĪÉĳ
ĠpÊĮ kËĪup
tÊĥÊ² nuju
bËĪÉĳ ty
rÊ²ËĪe nÊ²ijÉª
m jËĪÉĽ
ĠzavÊ²ËĪisÊ²i t
ĠÉª zu
ĠËĪo tÊĥÊ²i
ĠsÊĮÉ¡ ÉŃa
ĠÉŃÊ²ËĪi tÊĥÊ²nÊĮ
Ġna p
ĠËĪja r
ĠrazÉŃÊ²ËĪi tÊĥÊ²nyx
ĠvËĮÉ¨ kÉĶ
ĠprÊ²id mÊ²ËĪe
ĠÊĮ tÊĮ
ÊĥÊĮ ja
n kÊĮf
ĠÉªzvÊ²ËĪe st
jimy jÉª
ĠÉª tËĪo
zÊĮ f
ĠkÊĮtËĪo rÊĮm
ĠprÊ²iÊĳi dÊ²ËĪe
ĠrÊ²izuÉŃtËĪÉĳ tÊ²i
ÊĴy m
ĠrÊ²i kÉŃËĪÉĳ
Ġbu mËĪÉĳ
ĠÉ¡ÊĮ vÊĮ
tst vu
tÊĥ Ê²ËĪ
ru jitsÊĮ
ĠÉĶ d
ĠjËĪe j
ËĪÉĽm É¨
ĠrÊ²i tsËĪÉĽp
v ËĮÉĽ
Ġs sËĪy
vËĪÉĳ tÊ²sÊ²ÊĮ
tÊ²iÉŃÊ²ÊĮ m
ĠsËĪÉĳmy jÉª
ss u
tËĪu ra
ĠÊĮd nÊ²ËĪim
ĠtËĪÉ¨ lkÉĶ
n tÊĥ
ĠnËĪÉĳ Êĥym
d vÊ²i
É¡ nËĪo
sk ÉĶ
2 2
Ê²ËĪÉĳ zÊĮ
ĠmÊ²i ÉŃÉŃÊ²i
Ġst ËĪa
tsy Ê
ĠnÊ²ËĪi ÊĴy
tsyÊ Į
ĠvËĪyÉ¡ ÉŃÊ²ÊĮ
ĠprÊĮ vÊ²i
ĠtÊĥ ËĪÉ¨
mÊ²i rÊ²i
d nÊĮj
ĠanËĪÉĳ ÉŃÊ²i
vÊ²idÊ²ËĪe nÊ²ijÉª
ĠmnËĪo ÊĴy
ĠtakËĪo vÊĮ
Ġ +
ÊĮp ÉķËĪe
Ġru kËĪÉĳmÊ²Éª
Ġ X
ĠfÊ²inËĪÉĳ nsÊĮ
ĠtËĪo mu
vÊĮz mËĪo
tÊĥÊ²ËĪÉĳ jutsÊĮ
Êĥy k
nnÊĮ mu
vnÊĮ ja
ĠrËĪu vÉ²Ê²ÉĽ
ĠsËĪÉĳmy j
ty jÉª
x ËĪÉĶ
nt rËĪÉĳ
nu tÊ²
tÊĥÊ² nymÊ²Éª
Ġx ËĪÉĳ
ĠÉ¡ ËĪÉĶ
Ġna zËĪÉĳ
É² Ê²ËĪÉĶ
ĠvÊĮprËĪo sy
ĠvÊ²ËĪer sÊ²i
ĠnÊ²i s
Ġ U
ĠËĪurÊĮ vÊ²in
Ġx u
ĠrabËĪotÊĮ jit
ĠstrËĪÉĳ ny
ĠfÊĮr mÊ²i
tÊ²a brÊ²ËĪÉĳ
ÊĴnÊĮ j
ĠËĮÉĽm ËĪÉĽm
bÊ²i r
mËĪo j
Ġtsy nËĪÉĳ
ĠbËĮu dÊ²i
ÉŃÊ²ËĪe j
ĠrËĪÉĳz nyx
Ġj ËĪuÊĥ
ĠrabËĪo ta
ĠnËĪÉĳ Êĥyj
ĠkÊĮtËĪo ruju
rÊ²ËĪi sÊ²tÊ²i
ĠtÊĮ ÉŃ
stvÊĮ vÊĮtÊ²
i tÊ²
ĠkÊĮtÊ²i É¡ËĪo
vËĪo dÊ²it
r Ê²ÊĮ
ts ja
ĠprÊ²idu s
ĠÉªnfÊĮrmËĪÉĳ tsyÉª
ĠrÊ²iÉ¡Ê²istrËĪÉĳ tsyÉª
Ġsk ËĪoÉŃkÊĮ
ĠsÊ²isÊ²tÊ²ËĪe ma
Ġtru dÊĮ
Ġ K
ĠtËĪa É¡ÊĴÉĽ
ĠmÊ²i ÊĴdu
nÊ²ËĪi tÊ²i
ĠdÊĮ sÊ²tÊ²i
ĠrÊĮz vÊ²i
b ÉĽ
st ËĪÉĽm
Ġu É¡ÊĮ
ĠnÊ²ËĪeskÊĮ ÉŃ
Êĥ nÊĮ
sÊ²tÊ²ËĪi tÊ²
nÊ²ËĪe ts
Ġs vÊ²idÊ²ËĪe
ĠËĪop Éķi
ĠrÊĮs ska
vËĪo ÉŃ
nÊ²ËĪÉĳ jit
v e
ĠpÊĮ vËĪy
ĠsÊ²ËĪer vÊ²i
âĢ ĵ
ĠtÊ²i xnÊ²ËĪi
su p
ĠpËĪÉĳ mÊ²ÊĮ
d rÊĮ
ĠpËĪo i
ta ÉŃ
ĠdËĪÉĳ ÉŃ
rÊ²i ju
ÊĴ dy
sÊ²ËĪe m
t tÊĥÊ²i
pÊ²i r
ĠkÊĮ ntËĪÉĳ
Ġb rÊĮ
Ġupra vÉŃÊ²ËĪenÊ²ija
vËĪÉĳ nÊ²ij
st É¨
ĠpÊĮd kÉŃÊ²u
Ġ4 0
rÊĮvÊĮ nÊ²ijÉª
ĠmÊ²irÊĮ prÊ²iËĪja
ĠdËĪÉĳ nnyx
Ġts ËĪy
ĠkËĪo mp
Ġd vÊ²ËĪe
vÊĮ f
dËĪo f
ĠrÊĮsÊ²sÊ²ËĪij skÊĮj
ĠpÊĮ nÊ²ËĪÉĳ
ĠrÊ²i ÊĥËĪÉĽnÊ²ija
Ġu tÊĥÊ²
ĠtÊ²irrÊ²itËĪo rÊ²iÉª
sÊĮ k
d nÊ²ËĪe
ĠÊĮt mÊ²i
tÊĥÊ²i stvÊ²i
ĠkËĪu r
ĠrËĪuvÉ²Ê²ÉĽ Êĥ
kÊĮ stÊ²
ĠvÊĮ ÊĮpÉķËĪe
znËĪÉĳ tÊĥÊ²i
ĠnazËĪÉĳ t
ĠbÊ²irÊ²ËĪe mÊ²i
ĠËĪÉĽ ÉŃ
Ġs y
ĠvÊ²ËĪÉĽ nts
ĠkÊĮ rÊĮ
ĠÉ¡ ËĪu
p Ê²ÉĽ
d nyx
nÊ²ËĪe nÊ²iÉª
d nyjÉª
sÉŃËĪu ÊĴy
dËĪÉĳ jut
st ry
ĠsuÉķistvËĪu jit
1 5
dËĪÉĳ tÊ²iÉŃ
ĠsÊĮÊĮp ÉķËĪi
Ġs rav
j dÊ²ËĪet
ĠbËĪardÊĳ ÉĶ
ĠÉĽÉŃÊ²ikt rÊĮ
Ġra ÉķËĪe
Ġk ÉŃa
ĠdËĪÉĳ ÉŃÊ²ijÉª
ĠÊĮbra bËĪo
ĠpÊĮÉŃÊ²ËĪe z
e c
Ñ ı
ĠrabËĪotÊĮ tÊ²
ĠnatÊĥÊ²ËĪÉĳ ÉŃa
ĠÊĮ ÊĥËĪy
ĠpÉŃa nÊ²ËĪi
k su
ĠbËĪÉ¨ tÉķ
ĠpÊĮsÉŃÊ²ËĪed nÊ²ijÉª
sÊ²i n
ĠunÊ²i vÊ²ir
É¡ ÉĽ
Ġt kËĪÉĳ
ĠÊĮ kËĪÉĳzy
ĠËĪa bÉ¨
ĠprËĪo tÊ²if
Ġs ËĪa
ĠpÊĮ vrÊ²i
dÊĮ x
nÊ²ËĪe nÊ²iju
rËĪÉĳ ktÊ²i
t ËĪÉ¨
f ÉĽ
tËĪÉĳ tsyÉª
Ġz nËĪa
ĠsÊĮ stavÉŃÊ²ËĪÉĳjit
vËĪÉĳ ÉŃÊ²Éª
É²Ê²ÉĽ j
ĠÊĳi m
sÊ²sÊ²i Éª
ĠprËĪÉĳ va
ĠpÊĮ xËĪo
Ġd rËĪuk
ĠprËĪÉĳ vÊĮ
ÊĴËĪÉĳ jit
ĠsÉŃÊ²ËĪi ÊĥkÊĮm
nËĪo sÊ²ÊĮ
sËĪÉĳ nd
nÊ²i mu
ĠtÊĥÊ²a sËĪof
ĠskazËĪÉĳ ÉŃ
ĠpÊĮ da
p rÊĮvÊĮ
ĠnÊĮ prÊ²a
r É¡a
ĠxÊĮrÊĮktÊ²i rÊ²ËĪisÊ²tÊ²i
ĠdÊĮ ba
ĠmÊ²iÊĴdu na
Ġs vÊ²ËĪet
ĠÊĮb rËĪÉĳ
x Éª
ÉŃ nuju
ru jut
nËĪo jÉª
ĠprÊĮ vÊ²ËĪer
ĠsËĪÉĳj ta
sÊ² sÊ²ËĪe
ĠmnËĪoÉ¡Ê²i x
ĠÊĮb na
ĠtsvÊ²ËĪe ta
Ġh ttp
ĠprÊ²ËĪi ntsy
kÉŃËĪÉĳ dy
ĠsÉŃÊ²ËĪedu juÉķijÉª
ki x
ĠÊĮb Ê²ËĪÉĳzÊĮ
m Ê²ËĪÉª
ĠÊĮk ru
ĠnÊ²i jËĪe
ĠstËĪÉĳ ÉŃÊ²Éª
) ;
f tËĪo
ĠmËĪÉĶ ÊĴna
Ġp ÉŃÊ²ËĪe
ĠtËĪo tÊĥÊ²nÊĮ
ÉĶ r
ĠÊĴy ÉŃ
a s
Ġsp ËĪÉĶ
ĠvÊĮ jËĪe
Ñ ĥ
ĠvÊĮ ÉŃ
Ġpra vÊ²ËĪi
Ġru kÊĮ
²ËĮ i
p rÊ²ËĪe
Ðµ ÑĤ
Ġsp rËĪa
vËĪÉĳ nÊ²iÉª
ĠÊĮb nÊĮ
ĠtÊ²ËĪe k
Êĥ kÊ²i
ĠsÊĮx ra
ÉĶv Ê²ËĪÉĽ
ĠsÊĮmÊĮstÊĮËĪja tÊ²iÉŃnÊĮ
ĠzÊĮja vÊ²ËĪi
ĠrËĪÉĳ m
ĠkÊĮ rËĪo
ĠÊĮprÊ²idÊ²i ÉŃÊ²ËĪÉĳ
Ġt he
ĠdËĪÉĳ nnyj
ĠvËĪÉĳ ÊĥyvÊĮ
xÊĮdÊ²ËĪi tÊ²
É¡ ÉŃa
sp ÊĮr
ĠsÊĮf sÊ²ËĪem
o g
ĠrËĪÉĶ ku
ĠvÊĮzmËĪoÊĴnÊĮ sÊ²tÊ²Éª
nËĪo f
ĠsÊ²i mÊ²
tÉķ ËĪÉĽ
ĠÉ¡rËĪÉĳ ÊĴdÊĮ
ĠupÊĮ trÊ²i
ĠÉªn strËĪuk
ji Êĥ
ĠnËĪo vÊĮ
ĠÊĮtnÊĮ ÊĥËĪÉĽnÊ²ija
Êĥ ÉŃËĪÉĳ
ĠkËĪu x
sp ËĪu
a d
ĠsÊĮ bËĪy
Ġta kËĪÉĳja
ĠpÊ²ir sÊĮ
Ġk r
Ġbu k
ĠÉªzmÊ²i nÊ²ËĪenÊ²ija
r kÊ²Éª
ru f
Ġu sÊ²ËĪi
ĠprÊ²i sËĪu
Ìĥ .
ÊĴy j
ÊĴ nym
ĠsÉŃËĪutÊĥÊ²ÊĮ jax
ĠÊĥy rËĪo
ĠrabËĪo tÊ²nÊ²i
Ġst rËĪÉĶ
ĠdÊ²i ËĪÉĳ
ĠpÊĮ k
ĠxÊĮ tÊ²ËĪe
ĠnËĪÉĳ ÊĥÉª
tÊ² nÊ²ËĪe
Ġxa rËĪÉĳktÊ²i
mÊ²ËĪe n
n e
ĠzÊĮ Éķi
É²Ê²ÉĽ m
ĠsÊĮÉ¡ÉŃËĪÉĳ snÊĮ
ÉķËĪe nÊ²iÉª
ĠrËĪÉĳ nÊ²ijÉª
ĠËĮÉĽ stËĪÉĽ
ĠsÊĮ bÊ²irËĪÉĳ
ĠËĮÉĶ tp
j ËĪÉª
tÊĮ vÊĮ
ĠvÊ²ËĪer x
ĠkÊĮ ÉŃÊ²ËĪe
ĠÉªsk ËĪus
ĠvÊĮs stÊĮnÊĮ
ĠÉªspËĪoÉŃzÊĮvÊĮ nÊ²ija
stÊĮ rËĪo
tnÊĮ ja
ĠÉª dÊ²ËĪe
ĠkÊĮ pÊ²i
ĠÉ¡ËĪo ÉŃÊĮ
p ku
Åĭ ku
ĠznËĪÉĳ tÊĥÊ²it
ĠkÊĮ nts
ĠÉªzÊĮ bra
Ġ2 1
ĠÊĮsnËĪo vÊ²i
ĠtrÊ²ËĪebÊĮ vÊĮnÊ²ija
Ġb ÉŃÊ²i
Ġpr Ê²a
ĠjËĪÉĽd na
nÊĳ i
ĠÊĴy ÉŃÊ²ËĪe
st r
stÊĮ m
Ġ tÊ²a
ĠrÊĮ zÊĮ
nËĪy m
ty x
ĠnÊ²i prÊ²i
ĠsÊ²ËĪe mÊ²
ts ÉĶ
sk Ê²ËĪi
ĠprÊĮbÉŃÊ²ËĪe m
ĠÉªÉ¡rËĪÉĳ tÊ²
Ġi n
ÊĴ da
ĠutÊĥÊ²ËĪi ty
s nyj
tÊ²iÉŃÊ²ÊĮ mÊ²Éª
Ġk ÉŃËĪu
Ġz ÉĶ
ĠmÊ²ËĪi ra
nÊ²ËĪe t
ÊĥËĪÉĳ tÊ²
ĠÉªmÊ²ËĪe tÊ²
Ġ :
ĠÉª s
ĠvËĪy pÉŃÊĮ
nÊ²ËĪe rÉ¡Ê²i
st ÉĽm
Ġu vÊ²ËĪerÊ²i
ĠnÊ²ËĪe m
ĠktËĪur É¨
f sÊ²i
ĠnËĪa Êĥ
sÊ²tÊ²i r
ĠfËĪor mu
ĠprÊĮi zÊĮ
mÊ²i nÊ²ËĪi
nÊ²ËĪÉĳ jut
Ġvy zyvËĪÉĳ
Ġvy dÊ²i
Ġf ËĪi
nÊĮ mÊ²ËĪi
rabËĪo tÊĮ
ĠprËĪo Êĥ
t rËĪo
vÊĮ jim
ĠkËĪo ÊĴÉª
p ÉŃÊ²ËĪenÊ²ija
Ġru kÊĮvÊĮ
xËĪo dÊ²i
t vÊĮ
Ġp ÉŃÊ²i
strËĪÉĳ n
ts jÉĽ
tu f
ĠÉªn vÊ²i
Ġr ÉĽ
ĠpÊĮzvËĪo ÉŃÊ²i
ĠÉª mËĪuÉķi
Ġka sËĪÉĳ
ĠaÉŃÊ²ik sËĪÉĳnd
ĠxÊĮ tÊ²ËĪitÊ²i
rÊĮ ËĪjatnÊĮ
ĠnaÉŃËĪo É¡ÊĮ
ĠsÊĮstËĪÉĳ f
ĠrÊ²iÉ¡u ÉŃÊ²ËĪÉĳ
Ġm Ê²ËĪa
ÉŃÊĮ x
ĠpËĪÉĳ r
vÉŃÊ²ËĪe nÊ²ijim
rÊĥ y
ĠtÊ²ËĪi pa
ĠvÊĮÊĳ dÊ²ËĪejstvÊ²i
ĠÊĮsËĪo bÊĮ
ĠÊĮsta ÉŃ
ĠsËĪÉĳmÊĮ m
tÊ²i ka
Ġsu dÊ²ËĪe
ÉŃËĪo m
vÊĮ ÉŃÊ²Éª
ĠsËĪÉĳmÊĮ jÉª
s ÉĶ
f ËĪÉĳ
ĠrÊ²i ÊĥËĪÉĽ
ĠÊĮp u
tÊĥÊ²i jÉª
ĠdÊ²i tËĪÉĳ
ĠÊĮd nËĪo
ĠÊĴ ËĪÉ¨
Ġm Ê²ÉĽ
tr Ê²ËĪÉª
Ġ 000
ĠpÊ²irÊ²i vËĪo
v nyx
ĠÊĥto tËĪo
Ġa t
ĠËĪÉĳ d
ĠrabËĪo t
ĠËĮÉĶ p
sÊ²t Ê²ËĪÉĽ
i x
ĠnÊ²i dÊ²ËĪe
ĠdÊ²ijstvÊ²ËĪi tÊ²iÉŃnÊĮ
p p
Ġ2 2
É¡ ÉŃËĪÉĳ
v tÊ²i
ĠnÊ²ËĪi ÊĴ
ĠsÊ²ËĪe tÊ²Éª
k ÉĽ
skËĪo f
ĠkËĪÉĳÊĴ dÊĮvÊĮ
ĠbÊ²izÊĮpËĪÉĳsnÊĮ sÊ²tÊ²Éª
rËĪo dÊ²i
Ġza nÊ²ËĪÉĳ
b ËĪoÉŃ
Ġusta nËĪÉĳvÉŃÊ²i
ÉŃÊ²ËĪi bÊĮ
b ËĪÉĶ
ĠdÊ²i rÊ²i
Ġraz mÊ²ËĪer
ĠÉªnfÊĮrmËĪÉĳ tsyju
kËĪÉĳ k
tÊĥÊ²i m
ĠÊĴËĪÉĽnÉķi ny
ĠÉªz bÊ²i
ĠsÊĮ bÉŃÊ²u
ĠÉª m
ĠfsÊ²ËĪe j
prËĪÉĳ vÉŃÊ²i
u m
ĠtËĪysÊ²ÊĮ tÊĥÊ²
ĠprÊĮÉ¡rËĪÉĳm my
Ġi x
ĠkÊĮÉŃ ÉŃÊ²ËĪe
vËĪÉĳ nÊ²ijim
ĠÊĴËĪy d
ĠrÊĮ ss
ĠdËĪoÉŃ É¡ÊĮ
ĠnÊ²ibÊĮÉŃ ÊĥËĪo
rËĪo fkÊ²Éª
ĠfËĪÉĳ ktÊĮ
ĠnËĪo vyx
ĠvËĪy vÊĮ
ku ju
ĠÊĮbra ÉķËĪÉĳ
ĠsÊ²i n
Ġs mÊĮtrÊ²ËĪetÊ²
ĠpËĪoÉŃ zu
Ġf p
ĠvÊĮ dÊĮ
ĠpÊĮ rÊĮ
ĠÊĮt vÊ²ËĪet
ÊĴy tsÊĮ
vÊ²i tÊ²sÊ²ÊĮ
ĠdÊ²ËĪe ÉŃÊ²i
ĠÊĮpÊ²i sËĪÉĳ
Ġ ÉŃu
fÊ²i tsËĪy
ÊĴy tÊ²i
mÊ²i nt
stvÊ²i ja
Ġk l
mÊĮt rÊ²ËĪÉĳ
sÊ² nÊ²ËĪi
dÊ²ËĪe nÊ²ijÉª
ĠstÊĮ ËĪja
ÉŃÊ²ËĪi t
ĠnÊ²ËĪekÊĮtÊĮry x
Ġd vÊ²ËĪer
d nyj
ÉĶvËĪa nÉĽ
ĠkrËĪo vÊ²Éª
ĠnÊ²ikÊĮ É¡dËĪÉĳ
p ka
ĠkÊ²i tËĪÉĳ
ĠpÊĮstÊĮËĪja nnÊĮ
ĠstanËĪo vÊ²itsÊĮ
ĠuznËĪÉĳ tÊ²
ĠpÊ²irÊ²i dËĪÉĳ
ĠpÊĮd tvÊ²irÊĴ
ta mÊ²ËĪi
c om
rÊ²ËĪi tÊ²i
ĠnËĪÉĳ Êĥ
n Ê²ËĪu
nÊĮ stÊ²
ĠprÊ²ËĪe ÊĴdÊ²i
i m
ĠsÊĮ tÊĥÊ²itËĪÉĳ
ĠpÉŃËĪo ÉķÊĮ
ma t
Ġt Ê²ËĪÉĽ
ĠÉ¡rËĪup py
ĠsÊ²imÊ²ËĪe j
ĠmÊ²ËĪÉĽ js
Ġts vÊ²ËĪet
z dnÊ²i
Ġt vÊĮ
ĠsÊ² nÊ²ËĪi
ĠÉĽkÊĮ nËĪomÊ²i
i a
ĠjÉª dÊ²ËĪin
ĠËĪotÊĥÊ²i rÊ²itÊ²
ĠnÊĮ kÊĮ
É¡ ÉŃÊĮ
kazËĪÉĳ tÊ²
dÊ²ËĪi tÊ²iÉŃ
ĠtÊ²i bÊ²ËĪÉĳ
ĠmÊĮ bÊ²ËĪi
v nyjÉª
Ġp ytËĪÉĳ
ĠpÊĮmËĪo ÊĴyt
n dÊĮ
ĠprÊĮ strËĪÉĳn
kÊĮ sÊ²tÊ²Éª
ĠusÉŃËĪu É¡Ê²Éª
Ġs fÊ²ËĪe
tÊ²iÉŃnÊĮ ja
ĠskazËĪÉĳ tÊ²
x ÉĶ
ĠsËĪu t
Ê²a t
n dÊĳ
ÊĴnÊĮ vÊĮ
ĠÉ¡ Ê²ËĪe
ĠmÊĮ dÊ²ËĪeÉŃÊ²Éª
ĠpÊĮÉŃu tÊĥÊ²ËĪenÊ²ija
ĠÉ¡ÊĮvÊĮrÊ²ËĪi t
vÉŃÊ²ËĪÉĳ tÊ²
ĠvËĪy Êĥ
ĠkuÉŃ tËĪu
ĠÊĴ ur
t nym
tÊĥÊ²i skuju
Ġak ku
ĠsÊ²ituËĪÉĳ tsyÉª
É¡ÊĮtÊĮ vÉŃÊ²ËĪenÊ²ija
ĠfÊĮtÊĮ É¡rËĪÉĳfÊ²i
f ËĪi
ĠbËĪo nu
j m
kËĪu ju
dÊ²ËĪi ÉŃ
Ġv zÊĮ
ĠsÊĮÊĮtvÊ²ËĪetstvÊ²i Éª
Ġf ra
nËĪo va
tÊĥËĪÉĽ É²Ê²a
Ġna É¡rËĪu
ÉŃÊ²i Éª
ĠÊĮp tÊ²i
ÉŃ nÊ²ËĪej
n dy
ĠÉ¡ÉŃËĪÉĳ vnÊĮjÉª
Ġza krËĪy
ĠËĪÉĽtÊĮ mu
ĠÉĽkÊĮ nÊĮmÊ²ËĪi
ĠmËĪo j
ĠvÊ²i ÉŃÊ²i
Ġra st
ĠpÊĮ bÊ²ËĪe
ĠÊĮt ra
ĠÊĳËĪe m
Ġu mÊ²i
ĠÉŃÊ²i tsËĪo
Ġz ËĪu
z ma
Ñ ĭ
stÊĮ ËĪit
mÊĮ x
ÉŃËĪo f
stËĪÉĽm p
ĠvËĪÉĳ Êĥy
Ġ19 9
ĠrÊĮsska zËĪÉĳ
p ÉŃa
ntÊĮ mÊ²Éª
zËĪo vÊĮ
ĠstÊĮ rÊĮ
ĠusÉŃËĪu k
ĠmÊĮsk vÊ²ËĪe
Ġm i
ĠfËĪor my
ÊĥËĪÉĳ ja
Ġka nËĪÉĳ
ĠkÊĮ s
ĠÊĴËĪÉĽnÉķi n
kËĪo mÊ²i
ĠpÊĮÉŃÊĮ ÊĴËĪy
ĠmÊ²ËĪÉĳ x
stÊĮ j
ĠnÊĮ rmËĪÉĳ
tÊĥÊ²ËĪe nÊ²ijim
ĠâĢ ¢
ĠÉªnfÊĮrmËĪÉĳ tsyja
sp ËĪo
Ġ e
Ġfu nk
ĠÊĥ ËĪu
ĠtrÊ²ËĪebu jitsÊĮ
ĠmÊ²i krÊĮ
ĠÊĮsËĪobÊ²i nnÊĮsÊ²tÊ²Éª
ĠmÊ²ËĪesÊ²ÊĮ tsyf
d ku
É² Ê²ÉĶ
ĠsÊ²i zËĪo
ĠfÊ²idÊ²irËĪÉĳ tsyÉª
ĠrÊ²i ËĪÉĳ
sÊ²i tÊ²
mÊ²ËĪi tÊ²i
ĠnaÉŃÊ²ËĪitÊĥÊ²i jÉª
ĠjÉª sÊ²tÊ²ËĪÉĽ
ĠsÊ²ËĪer d
ĠjËĪa kÉĶ
ĠkÊĮtËĪory m
kÊ²i r
ĠmÊĮtÊ²irÊ²iËĪÉĳ ÉŃÊĮf
Ġz bËĪor
m ËĪa
Ġpr ËĪats
g e
ĠvËĪy xÊĮ
ĠpÊ²ËĪe rÊ²i
tËĪÉĳ k
ĠnÊĮ r
ÉŃ ku
ĠprÊĮ vÊ²ËĪerÊ²i
4 0
nÊĮ sÊ²tÊ²Éª
rËĪo k
dÊ²i Éª
tÊĥÊ²ËĪi sÉŃÊ²i
ĠmÊ²ËĪi rÊ²i
ĠÊĮÉ¡ ranÊ²ËĪi
ĠzÊĮ vÊ²irÊĥ
ĠtÉķ ËĪÉĽ
w w
ĠnÊ²i vÊĮzmËĪo
ĠspÊ²itsy ËĪÉĳÉŃnÊĮ
ĠtsËĪÉĽ ny
ĠvÊ²i Éķist
ĠrÊ²ikÊĮmÊ²indËĪu jitsÊĮ
fÊĥy sÊ²
ĠbÊ²i z
ĠnÊĮ nÊ²i
ĠdÊ²ËĪe nÊ²ik
Ġfs Ê²ËĪu
ĠdËĪo mÊ²i
Ġk Ê²ËĪe
pu sk
Ġs vËĪÉĳ
na ÉŃÊ²ËĪi
n É¡Ê²i
Ġf strÊ²i
ĠÊĮp ÉķËĪestvÊ²i
ranÊ²ËĪi tÊ²
ĠjËĪÉĽdna k
ËĪÉĶv É¨m
Ġpar tÊ²nÊ²ËĪe
ĠÉĽksp ÉŃu
ĠpsÊ²i xÊĮ
ËĪats ja
ĠsÊĮstÊĮËĪja nÊ²ijÉª
ĠÊĮb j
Ġm ËĪi
nËĪu ju
Ġp ËĮa
p ËĪy
É² stf
v ËĪÉĶ
ĠpÊĮ tÊ²ËĪe
ĠjËĪÉĽ É¡ÉĶ
Éķ ËĪÉĽ
ÊĴËĪÉĳ j
ĠsÊĮ bËĪÉĳ
tÊĥÊ²ËĪÉĳ ja
ĠjËĪÉĽ Éķli
ÉŃËĪoÉ¡Ê²i ja
n kt
ËĪaw É¨
ĠÊĥ tËĪÉĳ
ĠvÊĮ k
Êĥ tÊĥÉĽ
É¡ ËĪa
juÉķi mÊ²Éª
w ËĪÉ¨
s nyjÉª
ĠÉªspËĪoÉŃzu jitsÊĮ
Ġx ËĪÉĶ
a m
ĠvÊ²ËĪe sÊ²
rËĪÉĳ n
ĠprËĪÉĳ ktÊ²i
Ġs vÊ²a
ĠkËĪÉĳtÊĥÊ²i stva
ÊĥËĪy jÉª
ĠpÊĮ prËĪo
ĠËĪurÊĮv nÊ²ÊĮ
ËĪÉĶv i
ĠbÊĮ rÉª
ĠrËĪÉĳ za
ĠsËĪÉĳmy m
ĠtËĪÉĽ Êĥ
r d
ÉŃÊ²ËĪe t
jjËĪe z
ĠrËĪu kÊ²Éª
stnÊĮ sÊ²tÊ²Éª
Ġu ÉŃu
Ġd y
tËĪo j
ĠdÊĮku mÊ²ËĪenty
ÉķtÉķ ÉĽ
nÊ²i kÊĮm
tÊĥ nÉĽ
Ġu tvÊ²irÊĴ
ËĮÉĽ m
ĠnËĪÉĳ tÊĥÊ²ÊĮ
ÉĽ f
ĠaftÊĮmÊĮbÊ²ËĪi ÉŃÊ²ÊĮ
ĠvËĪy dÊ²i
Ġnu ÊĴ
Ê²ËĪÉĽ n
tÊ²ËĪi vnÊĮ
ÊĴËĪÉĽ nÊ²ijim
v na
Ġ201 8
sk Ê²ËĪÉĽÉ¡ÉĶ
z nËĪa
v rËĪÉĳ
Ġ2 3
ĠtÊ²ËĪe ÉŃa
Ġpa rËĪÉĳ
ĠstrÊĮ xÊĮ
nt É¨
ĠkËĪo r
ĠdËĪoÉŃ ÉŃÊĮ
ĠÉªspËĪoÉŃzÊĮvÊĮ nÊ²ijÉª
tsÊĮ mÊ²Éª
ĠkËĪÉĳ mÊ²i
ĠvÊ²i ÉŃÊ²ËĪi
Ġ Ã§
Ġa u
ĠsÊĮ stavÉŃÊ²ËĪÉĳ
ĠnÊĮ tsyÊĮnËĪÉĳ
Ġst ËĪu
ĠvËĪoÉŃÊĮ s
spËĪu bÉŃÊ²i
ĠsËĪo zdÊĮ
ĠÊĮtnÊĮ sÊ²ËĪi
jimy j
v nyj
ĠpÊĮ ÉŃ
Ġstru ktËĪu
É¡ ru
ĠspÊĮsËĪo bnÊĮ
ĠvËĪy É¡ÊĮ
ĠkËĪÉĳtÊĥÊ²i stvÊĮ
tnÊĮ jÉª
u s
Ð ²
ĠpÊ²irsÊĮ nËĪÉĳ
ĠprÊ²i vËĪy
ĠÉª É¡rËĪu
ĠprÊ²i Ê
ĠprÊ²iÊ Į
dÊĮ mÊ²Éª
Éķ f
ss y
ĠstatÊ² jËĪÉª
ĠsÊ² u
ĠmÊ²ËĪi r
ĠprÊ²ijËĪe m
Ġo f
Êĳi Éª
ĠprÊ²id prÊ²i
É¡ rËĪa
tÉķ ËĪi
z ËĪÉĽ
Ġn rËĪÉĳ
nts ÉĽ
kÊ²i mÊ²Éª
nÊ²ËĪe tÊ²i
fËĪo rt
t ru
ĠdÊĮku mÊ²ËĪentÊĮf
vËĪo jÉª
ĠprÊ²i znËĪÉĳ
Ġvy ra
ËĪÉĳ n
f ËĪÉĽ
ĠvËĪo j
ĠrÊ²ËĪÉĳ dÊĮm
rt ÉĶ
ĠpÊĮ pËĪÉĳ
ĠfËĪor mÊ²i
ĠËĪodzy vy
1 8
ĠtrËĪÉĳn spÊĮrt
ĠkrÊ²idÊ²ËĪi t
ĠÊĮsnÊĮv nËĪyjÉª
Ġs nËĪova
ĠdÊ²ËĪe tÊ²Éª
Ġa mÊ²irÊ²i
ĠÉ¡ÊĮrÊĮ d
ĠrÊ²i spËĪubÉŃÊ²i
nÊ²i r
Ġsm ËĪy
ÉķËĪÉĳ jitsÊĮ
mÊĮ mÊ²Éª
Ġ6 0
Ġzna tÊĥÊ²ËĪitÊ²iÉŃnÊĮ
Ġz ËĮÉĽ
tÊĥ ÉĶ
ĠtrÊ²ËĪe tÊ²
ĠpÊĮdÊ²dÊ²ËĪe rÊĴy
Ġu nÊ²ikËĪÉĳ
sk ËĪu
ĠpÊĮvÊ²ËĪerxnÊĮ sÊ²tÊ²Éª
ĠpÊĮ ÉŃnÊĮ
Ġb ÉŃÊ²ËĪu
ĠprÊ²idÊ²ËĪe tsÊĮ
ĠnÊ²is mÊĮtrÊ²ËĪÉĳ
ĠËĮÉĶ d
fÊĥy jÉª
ĠÊĮt vÊ²i
ĠjÉªv rÊĮ
ĠÉ¡ÊĮ rÊ²ËĪÉĳ
ndËĪÉĳ rt
ĠtÊ²ËĪe bÊ²i
k rËĪo
nu f
f rÊĮ
ÉĶv ËĪi
li z
ĠprÊĮjËĪe kt
ĠmÊĮtÊ²irÊ²iËĪÉĳÉŃ y
dÊ²i n
vÉŃÊ²ËĪe nÊ²iju
É²ËĪi ka
Ġb rËĪo
bÊ²i ÉŃ
n nÊ²ij
ÉŃÊĮ mÊ²Éª
tÊĥÊ²iskÊ²i mÊ²Éª
ĠrukÊĮ vËĪod
ÉŃÊ²i kËĪo
pÊĮ f
Ġja n
ĠvÊ²ËĪi dy
ĠprËĪÉĳ v
ĠtÊ²ip ÉŃÊĮ
ĠËĪÉĽ n
ki m
ĠutÊĥÊ²ËĪÉĳsÊ²tÊ²i jÉª
ĠÊĮ rÊ²iÉ¡Ê²i
ju sÊ²
natÊĥÊ²ËĪÉĳ ÉŃa
ĠmËĪy Êĥ
n i
ĠnÊ²ËĪeskÊĮÉŃ kÊ²ix
pÊĮÉŃ nÊ²ËĪe
ĠÉ¡ra ÊĴdËĪÉĳ
ĠÊĮbrÊĮzÊĮ vËĪÉĳnÊ²ija
Ġ J
ĠbÊ²ËĪiÊĳnÉĽ s
l l
Ġ201 7
Ġb ËĪÉĽs
ĠvÊ²i tamÊ²ËĪi
p Ê²ËĪer
ĠukraËĪi ny
Ġ201 9
tÉķ a
fÊĥy vÊĮ
ĠprËĪÉĳvÊ²i ÉŃa
n ËĪÉ¨mi
Ê²ËĪÉµ m
k wa
Ġv ËĪi
ĠvzÊĮ imÊĮ
ĠrÊ²imËĪo nt
Êĥ ÉĶ
t e
ĠkÊĮn su
v nÉĶ
Ġda ÉŃnÊ²ËĪej
6 0
ĠsÊ²ËĪi ÉŃnÊĮ
ĠdÊ²i mÊĮ
nts a
ĠdvÊ²i ÊĴËĪÉĽnÊ²ija
ts ËĪu
É²ËĪi kuf
n na
ĠmÊ²i nÊ²i
ĠpÊĮ bÊ²i
ĠvÉŃa dÊ²ËĪi
Ġs mÊĮ
ËĪo p
ĠsmËĮo ÊĴytÊ²i
Ġl ËĪu
b rÊ²ËĪe
ĠÊĮÉ¡ rËĪom
ĠprÊ²i vÉŃÊ²ikËĪÉĳ
ĠfËĪÉĳ j
Ġ ry
kÊĮn tÊĥÊ²ËĪÉĳ
ĠsÉŃËĪo va
Ġx ra
Ġju rÊ²idÊ²ËĪi
tÊ² ÉĽr
v rÊ²ËĪe
rÊ²ËĪed kÊĮ
ĠÉªstËĪotÊĥÊ² nÊ²ik
b ËĪa
ĠÉ¡ ranÊ²ËĪi
tËĪo k
ĠvËĪÉĳ Êĥyj
tÊĥÊ²nÊĮ stÊ²
Ġsa mËĪÉĳ
ĠstËĪÉĳ nÊ²it
ĠprÊĮizvËĪod stva
tÊĥËĪÉĽ É²Ê²ÉĽ
mÊĮ stÊ²
ĠpÊĮ jËĪe
ĠprËĪÉĳ zdnÊ²i
my x
j jif
ĠÊĮ kÊĮntÊĥÊ²ËĪÉĳ
ĠpÉŃËĪÉĳ sÊ²tÊ²i
ĠËĪod dy
Ġb rÊ²i
ĠjÉªdÊ²ËĪin stvÊ²i
ĠÉ¡ dËĪÉ¨
Ġs natÊĥÊ²ËĪÉĳÉŃa
f ËĪa
sta nËĪo
ĠW i
bÊ²i n
pËĪo m
s nÊĮj
ĠznËĪÉĳ tÊ²
ÉŃÊ²ÊĮ x
Ê² dÊ²i
ĠËĮin fÉĶ
ĠkÊĮmpÊĮ nÊ²ËĪe
ĠprÊĮ mËĪy
tÊ²ir bËĪu
ĠnËĪo vÊĮvÊĮ
Ġra ÊĳdÊ²ËĪe
ÉŃÊ²ËĪe nÊ²iju
Ġd vÊĮ
Ġk nËĪo
Ġa ÉŃkÊĮ
rÊ²i zËĪÉĳ
tÊĥÊ²iskÊĮ m
z ËĪa
ra pÊ²ËĪi
ĠbÊĮÉŃÊĥynst vËĪo
c k
2 5
ĠÊĮbna rËĪuÊĴy
ĠÉªzvÊ²ËĪe stnÊĮ
ĠpÊĮ kËĪÉĳzy
2 00
É¡ËĪo vÊĮ
ĠutÊĥÊ² rÊ²i
ĠËĪÉĳftÊĮ r
tÊĥa s
ĠstatÊ² jjËĪe
r ka
bËĪo f
Ġp ËĪÉĳÉŃ
ĠrÊĮspÊĮ ÉŃËĪoÊĴy
Éķ m
ĠxÊĮ ÉŃËĪo
ĠÉĽksp Ê²ËĪer
ĠtËĪo n
ĠdruÉ¡Ê²ËĪi mÊ²Éª
ĠpÊĮÉŃÊĮ vÊ²ËĪi
ĠvzÉ¡ ÉŃÊ²ËĪÉĳ
ĠprÉĶ dËĪu
ĠprÊ²itÊĥÊ²ËĪi ny
Ġstu dÊ²ËĪe
ĠprÊ²imÊ²ËĪe rnÊĮ
ĠdËĪÉĶ b
Ġ lÉĽ
Ġf pÊĮÉŃnÊ²ËĪe
k rÊ²ËĪet
ĠpÊĮÉŃu tÊĥÊ²ËĪÉĳ
ÉŃÊ²ËĮ Éª
ĠnÊ²iÊĮpxÊĮdÊ²ËĪimÊĮ sÊ²tÊ²Éª
dvÊ²ËĪi ÊĴy
ĠÉªstËĪo rÊ²iÉª
p ÉĽ
Ġd ÉŃÊ²i
Ġ201 6
ĠmnËĪoÊĴy stvÊĮ
ĠÊĮd Ê²dÊ²i
kËĪÉĳ s
Ġku dËĪÉĳ
tÊĥÊ²ËĪe j
t ÉĽr
ĠsËĪÉĳ mÊ²Éª
Ġna rËĪu
kÊ²ÉĽ m
s rÊ²ËĪed
ĠkÊĮm mÊ²intËĪÉĳ
ĠprÊ²ËĪÉĳ mÊĮ
ĠrÊĮznÊĮ ÊĮbrËĪÉĳ
ĠÉª dÊ²ËĪet
Ġka zËĪÉĳ
rÊ²ËĪe jÉª
ĠadmÊ²inÊ²i strËĪÉĳ
pÊ²ËĪe j
ĠrazÉŃÊ²ËĪi tÊĥÊ²nyjÉª
ĠÊĮrÉ¡anÊ²ËĪiz ma
ĠÊĥ kËĪo
ÊĳËĪi rÊĮvÊĮ
Ġb ÉŃËĪo
ĠÊĮtÊ² tÊ²ËĪe
ĠstËĪo ÉŃ
Ġs kËĪu
dÊ²i r
n dÊ²ËĪe
Ġp ÉŃÊ²ËĪu
dÊ²i ËĪo
ĠpÊĮ pa
dnÊĮ jÉª
ÉŃËĪo sÊ²
ĠÉªspËĪoÉŃzu jut
ÉŃ Ê²ËĪÉĽn
k tÊĮm
Ġvz rËĪos
Êĥ Êĥy
ĠrËĪÉĳm kÊĮx
ĠÉªntÊ²ÉĽrÊ²ËĪe snÊĮ
Ġza ËĪja
É¡ÊĮ f
ĠsÊĮz dËĪÉĳtÊ²
ĠprÊ²idÊĮ stËĪÉĳ
Ġap parËĪÉĳ
jËĪÉĶnts ÉĽ
dnÊĮ ja
Ġt ur
ĠÉķ ËĪÉĽ
skÊ²ÉĽ j
ĠÊĮp sÉŃËĪuÊĴy
ĠpËĪu nk
ĠrazvÊ²ËĪi tÊ²ijÉª
ĠÉ¡ÊĮ ÉŃËĪo
ĠÊĮ fËĪor
Ġras xËĪo
ĠmÊĮtÊ²irÊ²iËĪÉĳ ÉŃa
Ġb ËĪa
w ÉĽm
Ġfu d
ĠdÊ²ËĪe nÊ²i
Ġs ËĮa
va tÉķ
sÊ²tÊ²ËĪe r
rÊĮ k
ĠtËĪÉĽ n
ĠprÊĮdÊĮÉŃ ÊĴËĪÉĳ
ĠM a
s nyx
Ġb ÉŃÊĮ
ĠÉĽffÊ²i ktÊ²ËĪiv
ĠzËĪÉĳ pÊ²i
bËĪo m
o s
ĠpÊĮmÊĮÉ¡ËĪÉĳ jit
ĠmËĪÉĳ sÉŃÊĮ
ĠÉªntÊ²ÉĽr Éª
Ġm ËĮÉĶ
ĠstËĪÉĳ ÉŃÊĮ
ĠkÊĮm pÉŃÊ²ËĪe
ĠnÊ²ivÊĮzmËĪo ÊĴnÊĮ
ĠÉ¡ ÉĶ
ĠÊĥ ËĪy
ĠpÊ²ËĪÉĽ rÊĥ
ĠÊĮb ËĪo
É¡rÊĮ nÊ²i
kt É¨
d ÊĴy
i r
ntu f
bÊĮ tÊĮ
ĠÉĽk spÊ²i
Ġda jËĪet
ĠnÊ²i dvÊ²ËĪiÊĴy
ĠÊĮs vÊ²i
ĠÉ¡ÊĮ ra
ĠÉĽkspÉŃu a
ĠvÊĮ stËĪo
vÊ²i ÉŃÊ²Éª
ĠdÊ²ËĪej stvu
Ġna sÉŃÊ²ËĪe
Ġk ÉŃÊ²u
ĠpÊĮvËĪy Êĥy
d ËĪÉĶ
nÊ²ik nÊĮvÊ²ËĪe
d É²Ê²ÉĽ
ÉŃÊ²ËĪÉĳ tsyÉª
jËĪe m
ĠkÉĶ lËĪÉĽ
ĠpÊĮmÊ²i ÉķËĪenÊ²ija
ĠÉķ ËĪÉĳ
ĠpÊ²itËĪÉĳ nÊ²ija
ĠvÊ²i rÊĮËĪjatnÊĮ
Ġu tÊ²i
ĠfÊĮr mËĪÉĳ
Ġvnu trÊ²ËĪÉª
ĠpÊ²ËĪer vuju
Ġb ÉĽ
jimÊĮ vÊĮ
nu t
ÉŃÊ²ËĪe nÊ²iÉª
ĠprÊ²idprÊ²i nÊ²imËĪÉĳ
ĠÉĽ nÊ²ËĪerÉ¡Ê²i
ĠdËĪÉĳ nnÊĮj
ĠrasskËĪÉĳ zy
Ġt vËĪor
ĠbÊ²i Ê
ĠbÊ²iÊ Į
t ËĪa
ĠnÊĮ tu
m ÉĽ
nÊĥ ËĪÉĽ
nÊ²i tÊ²i
ĠÉĽffÊ²ËĪe kt
Ġs ËĪÉĽ
Ġ É²Ê²ËĪÉĽ
ĠÉ¡ rÊ²ËĪe
v Ê²ËĪa
Ġupra ÊĴ
ĠsÊĮ dÊ²ËĪerÊĴy
Ġtru dËĪÉĳ
ĠvÉŃËĪÉĳ sÊ²tÊ²Éª
st kÊ²Éª
ĠuvÊ²i ÉŃÊ²i
ĠrËĪo ÉŃ
ĠÊĮ tÊĥÊ²ËĪi
ĠpÊĮ ÊĳËĪi
juÉķi jisÊ²ÊĮ
b rËĪa
ĠprÊĮ ÊĴy
v Ê²ÊĮtsÊĮ
ĠprÊ²i É¡ÊĮtËĪo
ĠprÊĮ vÊ²idÊ²ËĪenÊ²ija
Ġd rÊĮ
ĠdÊĮ rÊĮ
p rÊ²ËĪi
ĠspÊ²ËĪi sÊĮk
ĠtÊ²a ÊĴËĪÉĽ
Êĥu ju
ĠÉªssÉŃÊ²ËĪedÊĮvÊĮ nÊ²ija
ĠrasÊ²tÊ²ËĪe nÊ²ija
ĠdÊ²ËĪe ÉŃa
k ËĮÉĳ
n skÊ²ix
ĠmÊ²i nÊ²imËĪÉĳ
ĠprÊ²id stavÉŃÊ²ËĪÉĳ
n g
ĠsÊĮvÊ²irÊĥËĪÉĽ nnÊĮ
ĠpÊĮd xËĪodÊ²it
ĠÉķitËĪÉĳ jitsÊĮ
ĠsÊĮ kra
stÊ² jja
ĠpÊĮ mÊ²ËĪi
ĠvËĪÉĳ ÊĥÉª
Ġsp rÊĮ
f ËĪu
ĠdÊ²i Ê
ĠdÊ²iÊ Į
ĠmËĪÉĳ ÉŃÊĮ
Ð ´
ĠÊĮd nËĪu
ĠÊĥ Ê
ĠÊĥÊ Į
ĠvÊĮÊĳ nÊ²ËĪik
rt É¨
ĠprÊ²id varÊ²ËĪi
jjËĪe m
Ġts ËĮÉĽ
Êĥ Êĥ
ĠvËĪy dÊĮ
kËĪÉĳ x
ĠvÊĮsp ËĪoÉŃ
ĠnÊĮ xÊĮdÊ²ËĪi
ĠbÊ²irÊ²ËĪemÊ²i nnÊĮsÊ²tÊ²Éª
ĠtÊĥÊ²ËĪÉĳ st
ĠËĮÉĽmËĮÉĽ ÉŃÊ²ËĪÉĽn
w ËĪat
j ËĪÉĽmÉ¨
Ġsu b
xÊĮ d
tÊĥ É²Ê²ÉĽ
ĠrÊĮ ÊĳdÊ²i
Êĳ jËĪja
ĠnÊĮstÊĮËĪja ÉķijÉª
tÊ²ËĪe t
n kÊĮm
Ġ *
ĠÊĴËĪÉĽnÉķi na
p ËĪoÉŃ
o d
âĢ Ķ
Ġa ssÊĮ
ĠprÊĮ stËĪy
ss ËĪÉĳ
sÊĮ x
ĠfÊĮrmÊ²i rÊĮ
ĠnËĪÉĳ Êĥyx
ĠÊĮp su
Į ru
Ê Įru
ĠnËĪo tÊĥÊ²
ĠmÊ²iÉŃÉŃÊ²i ËĪo
ĠjÉªv rËĪo
ĠkÊĮm mu
ĠÉĽÉŃÊ²ikt rÊ²ËĪi
ĠsÊ²i É¡
ĠÉŃÊ²ËĪi ts
ÉķËĪÉĳ tÊ²
ĠzÊĮ prÊ²i
Ĥ ¬
vÉŃÊ²ËĪÉĳ jit
v rÊĮ
8 0
nËĪosÊ²i tsÊĮ
tÊĮ rÊĮf
vËĪÉĳ jitsÊĮ
ÊĴËĪÉĽ É²Ê²a
Ġjan va
ĠÊĮÉ¡ranÊ²ËĪi tÊĥÊ²i
r Ê²ËĪu
ĠsvÊĮjËĪe m
__ __
ĠÊĮt rÊ²i
dÊ²i tsyËĪo
ĠsËĪÉĳmÊĮ vÊĮ
ĠkÊĮ vËĪo
ĠprÊ²id stavÉŃÊ²ËĪÉĳjit
ÉķËĪe nÊ²ij
ĠÉ¡ÉŃËĪÉĳ za
tÊ²ËĪe ta
1 7
ĠdÊ²i ka
ĠkËĪa ÊĴ
ĠvÉŃa dÊ²ËĪeÉŃ
Ð» ÐµÑĤ
jÉĶ n
ĠprÊĮtÊ²ivÊĮ pÊĮ
Ġv ÉĽ
Ġd rÊ²i
ĠstËĪÉĳ ÉŃa
ĠnÊĮtu rËĪÉĳ
ĠpÊĮ zd
ĠÊĮbjja sÊ²
bËĪu tÊ²
ĠvÊĳËĪÉĳ tÊ²
rÊ²ËĪi tÊ²
ĠÊĳi ÉŃÊ²ËĪe
Ġm ÉĽ
ĠÉ¡ËĪo dy
Ġf rËĪÉĳ
Ġap sÊĮ
ĠtrÊ²ËĪebu jit
Éķ ËĪÉĶ
ĠnÊ²i ÊĮb
ĠsÊĮz dËĪÉĳnÊ²ija
ĠmÊ²ËĪe ÉŃ
ĠvÊĮ dËĪoj
ntÊ²ËĪi rÊĮvÊĮ
ĠÊĮrÉ¡ËĪÉĳ nÊĮf
Ġv i
tËĪÉĳ tÊ²
ĠsÊĮz dËĪÉĳ
1 4
tsÊĮ m
ĠtrËĪu dnÊĮ
ÉķtÉķ ÉĶ
ĠbÊĮÉŃÊ²ËĪeÊĳ nÊ²Éª
1 6
ĠsÊ² nÊ²imËĪÉĳ
nÊ²ËĪÉĳ jutsÊĮ
tÊĥÊ²i tsÊĮ
tÊ²iÉŃ nuju
ĠpÊĮ ftÊĮ
ĠdÊĮbËĪÉĳ vÊ²itÊ²
ĠdÊ²i kÊĮ
ĠprÊ²id na
ĠxÊĮ tÊĥÊ²ËĪu
rËĪu t
rÊ²ËĪi t
ĠÉªn ËĪy
t kÊĮ
ÉŃÊ²ËĪÉĳ tÊ²
jimÊĮ j
vËĪu ju
ĠmÊĮ jËĪe
Ġz b
mÊ²ËĪe rÊ²i
Ġsta rËĪÉĳ
tÊĥÊ² kÊ²i
ĠsÊ²isÊ²tÊ²ËĪe m
tsu f
vÊĮ ÉŃÊ²i
ĠzdÊĮrËĪov jja
ĠrÊ²i ËĪÉĳÉŃnÊĮ
vËĪo da
ĠrÊĮ ÊĥÊĥy
Ġsta n
ĠpÊ²i sËĪÉĳ
ĠpÊĮrÊ²ËĪÉĳ tkÊ²i
âĢĿ .
Ġj ÉĽj
jËĪÉĶnts É¨x
ĠdÊ²ËĪe vÊĮ
Êĥ kÊĮj
ĠnÊ²i prÊ²iËĪja
ĠprÊĮjËĪe kta
bÊ²i rÊ²i
ĠÉķf Ê²ËĪÉĽ
ĠmÊ²ËĪesÊ²ÊĮ ts
tsyja x
Ġv rËĪÉĳ
ĠrÊ²izuÉŃtËĪÉĳ t
ĠrÊ²ËĪÉĳ t
bËĪo ra
vËĪÉĳ jtÊ²i
ĠpÊĮsÉŃÊ²ËĪe dnÊ²i
ĠpÉŃÊĮ ÉķËĪÉĳ
Ġ2 7
ĠsÊĮdÊ²irÊĴËĪÉĳ nÊ²ijÉª
dÊĳËĪÉĽ É²Ê²a
ĠrËĪÉĳ nÊĥy
skËĪo j
ĠvËĪÉĳ Êĥym
ĠpÊĮd ËĪu
pÊ²i ÉŃ
ĠvÊĮz vra
Ġ20 20
ĠÉªÉ¡rÊĮ vËĪyjÉª
ĠrËĪÉĳz nyjÉª
mu ju
ĠÉ¡Ê²i nÊ²irËĪÉĳ
tÊĥÊ²i stva
ĠrËĪy nkÊ²i
dÊĳ ËĪÉĶ
i g
ĠpÊĮdrËĪo b
Ð ¡
ĠÉ¡ rËĪa
ĠÊĮ É¡rÊĮnÊ²i
Ġv wËĪa
É¡ ÉŃÊ²ËĪi
ĠprÊĮtsËĪÉĽ sÊ²sÊ²i
ĠËĪop Éķij
ĠkËĪo nku
ĠpÊĮmÊ²ËĪi mÊĮ
Ġs mÊ²ËĪer
tÊĥÊ²i x
ÉŃ kÊ²i
Ġs ma
n o
ĠmÊĮÉŃÊĮ dËĪy
Ġpa nÊ²ËĪe
Êĳi r
ËĪÉµ m
ĠvnËĪutrÊ²i nnÊ²i
ĠpÊĮ ÉŃËĪo
bËĪo vÊĮ
ĠbÊ²ËĪiÊĳnÉĽ sa
stu pÊ²ËĪi
ĠÉ¡ËĪorÊĮ t
ĠsÊ²isÊ²tÊ²ËĪe mu
ĠpÊĥËĪÉĽ t
ËĪ jutsÊĮ
ĠkÊĮnsu ÉŃtËĪÉĳ
Ġpr ËĮa
Ġk rÊ²ËĪi
ĠprÊ²i vÊ²i
nnÊ²i kÊĮf
Ġzna tÊĥÊ²ËĪenÊ²ijÉª
ĠvÊĮk rËĪuk
dÊĴ Ê²
ĠnaÉŃÊ²ËĪitÊĥÊ²i Éª
ĠustrËĪoj stvÊĮ
dÊ²i nËĪo
pÊ²i rÊ²i
Ġa É¡Ê²ËĪe
ĠapsÊĮ ÉŃÊ²ËĪu
Ġap rÊ²ËĪe
ËĪÉĽ l
Ġu kËĪÉĳzy
ĠÊĮkru ÊĴËĪÉĳ
ĠvËĪÉĳ mÊ²Éª
ĠprÊ²i vÊĮ
ÊĴy ÉŃËĪÉĳ
ĠprÊ²i ËĪja
ĠdÊ²ËĪevu ÊĥkÊ²Éª
ĠprÊ²ËĪi by
Ġp ÉŃÊ²ËĪi
Ġrass mËĪÉĳtrÊ²i
ĠtËĪy s
ĠnËĪovÊĮ sÊ²tÊ²Éª
ĠpÊ²ËĪer vÊĮj
Éķ a
t f
Ġa ÉŃÉŃÊ²i
Ġak tu
Ġna tÊĥÊ²
nd ÉĶ
ĠbÊĮÉŃÊĥËĪo jÉª
vËĪo t
k ÉŃÊĮ
ĠzÊĮ ra
É¡ÊĮ vËĪo
Ġxu dËĪo
rÊĴ Ê
rÊĴÊ Į
ĠvËĪoÉŃÊĮ sy
ĠËĮi ntÉĽr
ĠÉĽ É¡
ĠËĪo k
ĠmÊ²ËĪesÊ²ÊĮ tsa
rÊ²iÉ¡Ê²i strÊ²ËĪi
Ġna prËĪÉĳvÉŃÊ²i
ĠamÊ²irÊ²i kËĪÉĳn
ĠrÊ²ikÊĮmÊ²in dËĪÉĳ
ĠpËĪo tÊĥÊ²
ĠsÊ² nÊ²ËĪe
ĠnÊ²iza vÊ²ËĪisÊ²i
ĠsÊ²ir É¡Ê²ËĪe
ĠdÊĮ sÊ²tÊ²ËĪi
ĠnÊ²ipÊĮ srÊ²ËĪed
w ÉĽ
ĠnÊĮ pÊĮ
ĠsËĪÉĳmÊĮ j
Ġ2 8
n rËĪÉĳ
Ġs rÊ²ËĪe
tÊ²i ÉŃÊ²u
É¡ËĪovÊĮ ra
ĠsÊĮ prÊĮvÊĮ
ĠvÊ²ËĪi dÊĮf
É¡ ËĪoÉŃ
ĠustÊĮnÊĮ vÊ²ËĪitÊ²
ĠÊĮdnÊĮ vrÊ²imÊ²ËĪe
ĠrÊ²isËĪu r
d ËĮÉĽ
ĠdÊ²ËĪeÉŃÊĮ jit
tÊĥÊ²ËĪe nÊ²iju
ĠÊĮrÊ²iÉ¡Ê²i nËĪÉĳ
tÊĥÊ²nÊĮ m
ĠprÊĮdËĪu kty
ĠaftÊĮmËĪÉĳ ty
ĠkÊĮnt Ê²ËĪe
nËĪÉĳ dÊĮ
ĠbÊĮ É¡ËĪÉĳ
ĠzÉĶ stËĪa
Ġx rÊĮ
ĠnÊ²ËĪi mÊ²Éª
ĠÉªnÊĮ strËĪÉĳ
Ġsta ndËĪÉĳrt
ĠspÊĮ rtÊ²ËĪi
k wËĪa
Ġda vnËĪo
ĠnÊ²i iz
Ġn Ê²ËĪer
ĠÉ¡ËĪorÊĮ dÊ²i
Ġtsy ntrËĪÉĳ
ĠmÊĮ ÉŃy
k tËĪur
ĠaftÊĮ matÊ²ËĪi
snÊĮ vÊĮ
z ÉĶ
ĠprÊ²idus mËĪotrÊ²i
ju Éķuju
ĠdÊĮ É¡ËĪovÊĮra
Ġtsy ÉŃÊ²i
ĠÊĮt ÉŃÊ²ËĪitÊĥÊ²i
ĠprÊ²inÊ²imËĪÉĳ tÊ²
ĠsÉŃËĪuÊĴ by
ĠpÊĮ r
ĠstranÊ²ËĪi tsy
rÊ²i ji
ÊĴ nuju
ĠkvartÊ²ËĪi ry
ĠpÊ²ËĪe sÊ²
ËĪÉĳÉŃ nym
ĠsÊ²ËĪemÊ² jÉª
ĠnÊ²i ktËĪo
strÊĮ jËĪe
ĠustrËĪoj stva
Ġa ktÊ²ËĪiv
skÊĮ mu
1 3
Ġsp ËĪor
ĠmÊĮ dÊ²ËĪeÉŃ
Ġspa sÊ²ËĪi
tÊĥ Ê²ËĪÉµ
vËĪod Ê²ÊĮt
Ġsu stËĪÉĳ
rÊĮ bÊĮ
ĠmÊĮ skËĪof
mu ÉŃÊ²ËĪÉĳ
Ġz dËĪÉĳ
% .
ĠprËĪÉĳ f
ĠbÊ²i ÉŃ
k tsyju
mÊĮ s
ĠsÉŃÊĮvËĪÉĳ m
ĠpÊĮtrÊ²i bÊ²ËĪi
ĠnËĪÉĳ ÊĥyvÊĮ
ĠpÊ²irÊ²ËĪi Ê
ĠpÊ²irÊ²ËĪiÊ Į
ĠnapÊ²ËĪi sÊĮ
ĠprÊĮ vÊ²idÊ²ËĪe
Ġ2 6
d tsÊĮ
ĠpÊ²i Éķi
ĠkÉŃa sÊ²sÊ²ËĪi
ĠvËĪy i
ĠvmÊ²ËĪe stÊĮ
ra tÊ²ËĪiv
t vÊ²ir
ĠkÊĮ ta
ĠpÊ²ËĪer vÊĮvÊĮ
ĠnËĪo mÊ²ir
ĠrÊĮ bÊĮtÊĮ
vËĪy m
ĠpÊĮd rÊĮ
ĠÊĮd nËĪom
ĠrÊĮ ÊĴdÊ²ËĪenÊ²ija
ĠkËĮÉĳ É¡ËĪÉĽ
Ġ g
ĠsÊĮv mÊ²ËĪe
2 4
ĠpÊĮtrÊ²ËĪe bu
ĠsÊĮstÊĮËĪja nÊ²iÉª
m sÊ²ÊĮ
k ÉŃËĪo
Ġa vÊ²i
ĠtrÊĮ dÊ²itsyËĪo
ĠzÊĮ ÉŃÊĮ
ĠprÊ²i vy
Ġs ÉĽ
ĠËĪopy t
ĠprÊĮ tÊ²a
ĠÊĮbj jidÊ²i
ĠprÊ²idpÊĮ ÉŃaÉ¡ËĪÉĳ
ĠprÊ²imÊ²i nÊ²ËĪenÊ²ija
stvÊ²i nnyx
vnÊĮ sÊ²tÊ²Éª
ĠvËĪy pu
Ġt ÉķËĪÉĳ
ĠÊĮbjjËĪe m
ĠÂ »
tÊ² u
mÊĮ tsyËĪo
ĠpÊ²irÊ²i da
nËĪu tÊ²sÊ²ÊĮ
ÉŃ nymÊ²Éª
ĠkÊĮ rËĪot
p Ê²ËĪÉĳ
r my
Ġr ËĪÉĽ
ÉĶvËĪa nÉ¨
on e
l o
ĠrÊ²ibÊ²ËĪe nÊĮk
ĠËĪurÊĮ vnÊ²i
ĠÉªn fÊ²ËĪe
ĠmÊ²iÊĴduna rËĪod
rÊ²ËĪi na
ĠutÊĥÊ²ËĪe b
ĠsÊĮ sÊ²ËĪe
ĠpËĪo m
v É¡u
ĠpÊ²ËĪer vyjÉª
p ËĪat
ĠmÊ²ixa nÊ²ËĪiz
zËĪÉĳ tsyja
rÊ²ËĪÉĳ tÊ²
tÊ²ËĪi tÊĥÊ²iskÊ²ix
dÊ²i ja
sÊ²ËĪi ÉŃ
tÊ²ÉĽ rÊ²i
ĠbËĪÉĳ nkÊĮf
Ġt Ê²ËĪÉĳ
nËĪu ÉŃ
Ġkar tËĪo
ĠprÊ²idÊĮ sta
x vËĪÉĳ
ĠpÊĮmËĪo tÊĥÊ²
ĠxÊĮrËĪo Êĥyj
tÊ²ËĪi tÊĥÊ²iskÊ²ijÉª
ĠËĮÉĽ lÉĽ
ĠzÊĮ rÊ²iÉ¡Ê²istrÊ²ËĪi
ĠpÊĮdrËĪo bnÊĮ
ĠsÊĮstËĪÉĳ vÊ²i
ĠdÊ²irÊ²i vÊ²ËĪÉĳ
ĠvËĪo du
ĠÉ¡ÊĮ rËĪÉĳ
tËĪÉĳ jit
ĠtakËĪo m
ru m
ĠkÊĮm Ê²ËĪi
Êĥy n
vËĪÉĳ rÊ²i
Ġu tÊĮ
ĠpÊĮ sÊ²tÊ²i
ĠprÊ²idprÊ²iËĪja tÊ²ija
Ġp Ê²ÉĽ
skËĪÉĳ tÊ²
ĠrÊ²ËĪe tÊĥÊ²
ĠmËĪÉĳ sÉŃa
ry j
stup ÉŃÊ²ËĪenÊ²ija
Ġl ËĪat
ĠdÊĮmËĪÉĳÊĥ nÊ²ix
ĠsÊ²imptËĪo my
Ġs rÊ²i
Ġs kÊ²ËĪi
Ġz u
ĠtrÊ²i nÊ²i
ĠtÊĥÊ²i r
ĠkÊĮn dÊ²i
. )
juÉķix sÊ²ÊĮ
Ġar xi
pu tËĪÉĳ
z ËĪor
ĠsÊ²ËĪi ÉŃu
ËĮÉĽ r
2 3
ĠbÊ²i spÊĮ
l ËĪu
ĠsÊ² nÊ²ËĪÉĳ
Ġstra nÊ²ËĪe
ĠdËĪÉĳÉŃ Êĥy
ÊĴ ÊĴy
Ġvy stupËĪÉĳ
nÊ²i kÊ²i
ĠzaÉķËĪi ty
ËĪÉĳ r
ĠkÊĮn fÊ²i
rËĪo fka
Ġras ÉķËĪi
ĠnÊĮ ja
ĠÊĮbratÊ²ËĪi tÊ²sÊ²ÊĮ
ĠkËĪomp ÉŃÊ²ik
ĠvÊ²i dËĪu
ĠdÊĮÉ¡ÊĮ vËĪo
Éķ É²Ê²ÉĽ
ĠmÊ²ËĪe rÊ²i
ÉŃy m
d nÉĶ
Ġn ËĪÉĶ
ty m
Ġ20 21
ĠÊĮp Ê²ËĪi
ĠmÊĮ dÊ²ËĪe
my jÉª
p ËĪa
Ġsu dËĪÉĳ
Ġpu tÊ²i
tÊ²ËĪe nÊ²ijÉª
ĠrÊĮ mËĪÉĳ
Ġnaz vËĪÉĳnÊ²ijÉª
Ġk tËĪura
Ġt o
ĠÊĮbrÊĮzÊĮ vËĪÉĳ
ĠtÊĥÊ²ËĪÉĳ j
ĠËĪo fÊ²i
ĠmËĪÉĶ É¡ÉĶ
ĠsudÊ²ËĪe b
ĠkakÊ²ËĪi x
ĠdÊĳËĪÉĽ Åĭki
nÊ²i bËĪutÊ²
skÊ²i mÊ²Éª
.. ..
nÊ²ËĪe nÊ²ijim
ĠtrÊ²ËĪe x
Ġ li
ĠnÊ²i mÊ²ËĪe
ĠmÊĮÉ¡ ËĮu
ĠkÊĮ ra
tÊ²ËĪe ÉŃ
vÊĮ ÉŃa
Ġl ËĪa
ĠËĪÉĳ vÉ¡u
t ËĪÉ¨tÊĥ
Ġna rËĪo
ĠkËĪÉĳÊĴdÊĮ j
tÊ²ËĪe nÊ²ija
mÊ²i nÊ²im
tÊĥÉ¨ tÉķ
nÊĴ y
ĠpÊĮ sËĪÉĳ
ĠvÊ²ËĪi ru
Ġz vÊĮ
Ġsp ËĪÉĳ
n É¡a
ĠmËĪu zy
ĠskÊĮ rÊ²ËĪejÉª
tÊ²i ju
ÊĴ lËĪi
n ËĪÉĽr
ĠÉªz bËĪÉĳ
ow s
â Ĥ¬
xÊĮ m
ĠpÊ²i nsÊ²i
vÊ²ËĪi dnÊĮ
Ġk rÊĮvÊĮ
ÊĥËĪÉĽ d
ĠrÊĮzrabËĪo tÊĮ
ĠtËĪÉĽ j
Ġt É¨
p ËĪor
t ion
Ġna tÊĥÊ²ËĪÉĳtÊ²
ĠstËĪo rÊĮ
ĠzÊĮja vÉŃÊ²ËĪenÊ²ijÉª
ĠtsËĪÉĽÉŃ jju
na l
ĠsÊĮ stÊĮËĪit
tÊĮ ja
ĠzÊĮkÊĮnÊĮ dËĪÉĳ
ĠprÊ²i vra
ËĪÉĳÉŃnÊĮ ja
ĠvÊ²iÉķist vËĪÉĳ
ĠtÊ²i rapÊ²ËĪi
ĠvÊĮ ÉŃÊĮ
tÊĥ Ê²ËĪÉª
vÉŃÊ²ËĪe nÊ²ij
tÊ² sÊ²i
j kÊ²Éª
f u
Ġ201 5
ĠstËĪÉĳ fkÊ²Éª
va ÉŃÊ²ËĪi
ĠpÊĮ nrËĪÉĳ
ĠÊĮt tÊĥÊ²ËĪe
dÊĳ ËĪa
ĠvÊ²ËĪi da
dÊ²i ÉŃÊ²ËĪi
ĠtsËĪÉĽnt r
Ġza trËĪÉĳ
Ġpu tÊ²ËĪÉª
Ġsp u
Ġx ËĪu
ĠmÊĮ nÊ²i
n dÊ²ËĪi
Ġb rËĪa
ĠprÊĮdËĪu ktÊĮf
ĠnÊ²ika kÊ²ËĪi
ĠprÊĮmËĪy ÊĥÉŃÊ²i
ĠprÊĮdËĪu ktsyÉª
ĠvÊĮÊĳnÊ²ikËĪÉĳ jit
É¡ÊĮ j
ĠsÉŃËĪutÊĥÊ²ÊĮ jif
É²tÉķ a
) )
ĠkÊĮ ÉŃËĪo
ĠkÊĮm fËĪort
Ġu va
Ġby vËĪÉĳjit
rÉĽ s
ĠprÊĮÉ¡rËĪÉĳm ma
spÊĮ sËĪo
ĠdrËĪu É¡a
Ġ5 00
dÊ²ËĪi tÊ²sÊ²ÊĮ
ĠpÊĮ nËĪÉĳdÊĮ
lËĪÉĽ ÊĴÉ¨
Éķm ËĮÉ¨
Ġst rÊ²ËĪe
ĠdÊ²ËĪevu Êĥka
ĠËĪuÉŃÊ²i tsy
ĠprÊĮbÉŃÊ²ËĪe ma
ÉķËĪÉĳ jut
ĠvÊĮz bu
ĠrÊ²izuÉŃtËĪÉĳ ty
ĠstËĪorÊĮ nu
ĠsÊĮvÊ²ËĪe ts
Éķi stvÊĮ
ĠÊĮb Ê²ËĪi
ÊĥËĪu ju
ĠvËĪypÊĮÉŃ nÊ²i
ĠÉª stÊĮ
bÊ²i ÉŃÊ²i
ĠÉ¡ËĪo r
Į n
Ê Įn
p ÉŃÊ²ËĪÉĳ
ËĮÉĶ va
ĠËĪÉĳd rÊ²is
ĠsÉŃÊ²ËĪedu juÉķij
ĠnÊ²i dÊ²ËĪeÉŃÊ²Éª
ja mÊ²Éª
ĠvysÊĮ kÊĮ
ĠnÊ²i dËĪÉĳ
vÉĽ t
Ġsk ÉŃËĪÉĳ
du f
mÊ²i Éª
Ġsp Ê²ËĪe
ĠËĮinfÉĶ rm
Ġna rËĪod
ĠpËĪÉĳ ru
ĠdÊĮÉŃ É¡ÊĮ
b o
ĠbËĪo ÉŃÊ²Éª
ĠÊĴËĪÉĽ st
ĠprÊ²i rËĪo
ĠtÊĥÊ²ËĪÉĳ sa
jim sÊ²ÊĮ
ĠmÊ²i taÉŃ
ĠnÊ²i sÊĮ
ÊĮb ra
Ġdru ÊĳjËĪja
ĠÉŃÊ²i tsËĪÉĽ
mnÊĮ jÉª
ĠdËĪÉĳ nnÊĮvÊĮ
Ġvy rËĪÉĳ
Ġv u
Ġts a
nd ows
ĠmaÊĥËĪy ny
ĠpÊ²ËĪi sÊ²
ndÊĳ É¨
ĠkasËĪÉĳ jitsÊĮ
ĠdËĪoÉŃÉŃÊĮ rÊĮf
ÊĥÊĮ tÊ²
ĠrËĪÉĳ dÊĮ
Ġra sk
ski x
ĠvÊĮ dËĪÉĳ
ĠpÉĶv Ê²ËĪÉĽ
x ËĪu
ĠÊĮprÊ²idÊ²i ÉŃÊ²ËĪitÊ²
ĠpÊĮ kÊĮ
Ġ2 9
ĠuÉ¡ÊĮ ÉŃËĪo
É¡Ê²i Éª
ĠprÊĮ vÊ²isÊ²tÊ²ËĪÉª
ĠÉŃËĪutÊĥÊ² ÊĥyjÉª
Ð½ Ð¸
ĠÊĴ ËĮÉĽ
ĠspasÊ²ËĪi bÊĮ
ĠtËĪo tÊĥÊ²kÊ²Éª
ÉŃu j
Ġx ËĮa
tsËĪo f
ĠÊĮs vÊĮ
ĠdÊ²ËĪejstvÊ²i jÉª
ĠprÊ²i nÊĮ
ĠzËĪÉĳ rÊĮbÊĮ
ĠpÊĮt pÊ²ËĪi
ĠprÊ²idÉŃaÉ¡ËĪÉĳ jit
ĠznakËĪom stva
ĠÊĮzna tÊĥÊ²ËĪÉĳjit
n skÊĮja
ĠÉ¡rËĪÉĳÊĴdÊĮ n
ĠprÊĮs mËĪo
ĠjÉª dÊ²i
ĠpÊĮd xÊĮdÊ²ËĪÉĳ
pÊĮ m
my j
v ÉŃa
Ġu bÊ²ËĪi
ĠËĮÉĶ b
ĠnÊĮru ÊĥËĪÉĽnÊ²ija
t nuju
Ġd ÊĴËĪÉĽ
ĠrÊ²iÉ¡u ÉŃÊ²ËĪi
ĠpÊĮvÊ²ËĪerxnÊĮ stÊ²
Ġ ...
ĠnËĮa j
ĠÊĮpÊ²isËĪÉĳ nÊ²ijÉª
ĠtsËĪÉĽ ÉŃÊĮm
ĠpÊĮ nÊ²ËĪÉĳtÊ²
ĠjÉªvrÊĮ pÊ²ËĪej
ĠnËĪo vÊĮj
ĠmÊĮksÊ²imËĪÉĳ ÉŃnÊĮ
stvÊ²i jÉª
ÊĴnÊĮ sÊ²tÊ²Éª
j t
pÊĮ d
ĠpÊ²irÊ²i Ê
ĠpÊ²irÊ²iÊ Į
ĠnÊ²idÊ²ËĪe ÉŃÊ²u
ĠsÊĮstÊĮËĪja nÊ²ija
Ġna strËĪoj
ĠËĪu Êĥ
ĠnÊ²i É¡a
Ġjanva rÊ²ËĪÉĳ
li ÉķmËĮÉ¨
É²ËĪi tÊĥ
Ġ8 0
ĠmÊ²ËĪi nÊ²imu
m ÉĽnt
ĠudËĪo bnÊĮ
ĠmÊĮ ÉŃËĪo
ÊĴËĪy t
É¡ËĪÉĳ tÊ²
d rËĪÉĳ
n nÊ²ijÉª
ĠÊĮrÉ¡anÊ²ËĪiz m
ĠprÊ²i tÊĥÊ²ËĪem
ĠprËĪÉĳv da
ji va
ĠtÊĥÊ²i mÊ²pÊ²i
p s
ĠpËĪo dÊĴÊ²
ĠÉªÊĳdÊ²ËĪe ÉŃÊ²ija
ĠdÊ²i rÊĴËĪÉĳ
ĠpÊĮsÊ²i tÊ²ËĪi
ĠpËĪu stÊ²
tÊĥÊ²ËĪe nÊ²ij
pu sÊ²tÊ²ËĪi
ĠkrÊĮ snÊĮ
Ġt fËĪÉĶ
ÉŃ k
ĠdÊĮÉ¡ÊĮ vËĪor
ĠmËĪÉĳ ja
ĠpÊĮdÊ² tÊĥÊ²i
ĠprÊ²i kra
Ġa rÊĮ
Ġx rÊ²i
pÊ²i nÊ²Éª
ĠtÊĥÊ² rÊ²i
s ÉŃ
Ġz ËĪÉĶ
ĠprÊ²i É¡ÉŃa
r nym
ÉķËĪe stf
ĠpÊĮzvËĪoÉŃÊ²i t
Ġj ËĪÉĶ
Ġba ÉŃ
ĠdÊ²ËĪeÉŃÊĮ jut
ĠpÊĮrÊ²ËĪÉĳ dÊĮk
ĠdÊ²ËĪejstvÊ²i j
ĠkÊĮpÊ²i tËĪÉĳ
ÉŃÊĮ ÊĴËĪÉĽnÊ²ija
ĠsÊ²tÊ²ËĪe pÊ²inÊ²Éª
ĠËĪÉª mÊ²ÊĮ
ĠustanËĪo fkÊ²Éª
rnÊĮ m
bÊĮ k
ĠvËĪozdu xa
ĠpÊĮsÉŃÊ²ËĪed nÊ²ij
Ġx ÉĶ
h a
ĠxÊĮ ÉŃÊĮ
ĠkrËĪÉĳ j
ĠvÊĮsp a
ĠkÊĮ ÉŃÊ²i
tsyja mÊ²Éª
ts k
nËĪÉĳ tÊĥÊ²i
Ġs vÊ²ËĪer
ĠkÊĮnstrËĪuk tsyÉª
r kËĪo
Ġu krÊ²i
ĠxËĪo tÊĥÊ²it
ĠÊĮtnÊĮÊĥËĪÉĽ nÊ²iÉª
ĠsËĪum mu
ĠÉªstËĪo rÊ²ija
ĠpÊĮtÊ²i ntsy
Ð¾Ð ²
ËĪÉĳÉŃnÊĮ jÉª
ĠtÊĮvËĪÉĳ rÊĮf
r Ê²u
ĠvÊ²ËĪe s
ĠnËĪÉĳ Êĥy
dÊ²ÊĮ m
ĠÊĮt nËĪosÊ²ÊĮ
ĠpÊĮs mÊĮtrÊ²ËĪetÊ²
ĠnËĪa vÉĽt
I I
ĠÉĶ sËĪÉĶ
ĠÊĮsta jËĪetsÊĮ
s ts
ĠnatÊĥÊ²ËĪÉĳ ÉŃÊ²i
Ġa ÉĽ
ĠtkËĪÉĳ nÊ²Éª
ĠkÊ²itËĪÉĳ j
ĠÊĮdnÊĮvrÊ²imÊ²ËĪe nnÊĮ
kËĪo jÉª
ĠtsvÊ²i t
ĠsËĪÉĶ bjÉĽ
ĠvÊ²ËĪÉĽnts ÉĽj
skËĪo vÊĮ
ĠÊĮbÉŃa dËĪÉĳjit
Ð³ Ð¾
ĠÊĮpËĪÉĳ snÊĮ
ĠudÊĮ vËĪoÉŃ
ĠkÉŃÊ²ijËĪe ntÊĮf
7 7
Ġa ktÊ²i
ĠÊĮtÉŃÊ²ËĪi tÊĥÊ²nÊĮ
ĠmËĪÉĳ t
Ġbuk mÊ²ËĪe
Ñģ ÑĤ
ĠmÊ²i stËĪÉĳ
li k
Ġv d
ĠÉªspÊĮÉŃ nÊ²ËĪi
strËĪÉĳ i
lËĪÉĽ p
Åĭ ka
ĠvÊĮÊĳ nÊ²iknÊĮvÊ²ËĪe
Ġrass mËĪotrÊ²i
k tsyj
ĠspÊ²itsyaÉŃÊ²ËĪi sty
nÊ²ËĪe m
ĠvÊĮ j
É¡ÉŃÊ²ËĪi j
Ġ9 0
ĠÊĮtmÊ²ËĪe tÊ²itÊ²
ĠdËĪÉĳ nnym
ĠtËĪo j
Ġz rÊ²ËĪenÊ²ija
ÉŃÊ²ËĪe nÊ²ij
ĠvËĪozrÊĮ sta
ĠdruÉ¡Ê²ËĪi m
ĠrÊĮ d
ĠkÊĮmÊ²pjËĪju tÊ²ÉĽr
ĠÊĮt kazËĪÉĳ
ĠtÊ²i kËĪu
ĠÊĮt vÊ²ËĪer
ÊĳËĪe j
ĠkÊĮtÊ²iÉ¡ËĪo rÊ²iÉª
ĠjÉª dÊ²ËĪi
ĠaÉŃÉŃÊ²i rÉ¡Ê²ËĪi
nÉĽ k
ĠputÊ²i ÊĥËĪÉĽ
ĠÊĮtsËĪutstvÊ²i jÉª
t i
ĠvÊ²i sÊ²
ĠpÊ²ir vÊĮ
ĠsÊĮ brËĪÉĳ
ĠprÊ²i vËĪodÊ²it
ĠkÊ²i sÉŃÊĮ
Ġra vnËĪo
ĠpÊĮ xu
ĠÊĮtÉŃÊ²i tÊĥÊ²ËĪÉĳjitsÊĮ
ĠÊĮt pra
ĠÉªnfÊĮr mÊĮtsyËĪo
ĠpÊĮ É¡ËĪo
p i
ra k
ĠmÊ²i tÊĥÊ²
ĠpÊĮÊĴËĪÉĳ ÉŃuj
ĠsÊ²ËĪi ÉŃy
Ġdu xËĪo
ĠsÊĮ ËĪju
nÊ²i Êĥ
bÊĮ f
ĠÉĽ pÊ²i
Ġja pËĪo
ĠdÊ²i jËĪe
ĠÊĮbÊĮrËĪudÊĮvÊĮ nÊ²ija
ĠprÊĮtsËĪÉĽ ssa
Ġpa kÊ²ËĪe
ĠprÊĮ sÊ²tÊ²itËĪu
Ġ201 4
ĠÉª nËĪÉĳtÊĥÊ²i
v nym
Ġs mÊĮt
ÊĥËĪÉĳ jitsÊĮ
f f
Ġm ËĪar
sÊ²ËĪe nÊ²ija
ĠmËĪÉĳ rta
ĠÉ¡ÊĮvÊĮrÊ²ËĪi tÊ²
ĠtÊ²iÉŃÊ²ifËĪo n
su f
ĠkÊĮn tsy
ĠdËĪÉĳ nnÊĮm
ĠstrËĪÉĳ n
ĠtÊĥÊ²ËĪu tÊ²
ĠfÊ²i vra
ĠprÊ²iparËĪÉĳ ty
É¡nËĪo sÊ²tÊ²i
ĠzÊĮbÊĮÉŃÊ²i vËĪÉĳnÊ²ij
Ġsma rt
ĠpÊĮ zna
ĠËĮu ÊĴÉ¨
ĠjÉªÊĴy dnÊ²ËĪe
ĠsÊĮ sËĪu
ĠpËĪÉĶt tÊĥas
ÉŃÊĮ ÊĴ
Ġvy da
ĠkÊ²i r
tÊĥÊ²ËĪu v
ËĪo n
ĠÊĥËĪÉĳ k
ĠsÊ²i m
ËĪo Ê
ËĪoÊ Į
p rËĪa
ĠbÉŃÊ²i ÊĴËĪÉĳj
ĠmuÉķËĪi n
Ġu stËĪoj
ĠsËĮa mÉĶ
ĠÊĮsnÊĮv nËĪoj
ĠmÊ²i tËĪÉĳÉŃ
ĠpÊ²irÊ²i mÊ²i
ĠkÊĮn ku
tÊĥÊ² at
ĠkËĪÉĳr ty
rËĪÉĳ nÊ²ijÉª
ĠfËĪunk tsyÉª
É² tÉķÉĽ
ĠtÊĥÊ²i sÉŃËĪo
ĠÊĮsnÊĮv nËĪom
ĠÉ¡ÉŃa vËĪÉĳ
ĠsmËĮo ÊĴyt
ĠkÊĮmÊ² bÊ²i
juÉķij sÊ²ÊĮ
xËĪod Ê²ÊĮtsÊĮ
d ÉŃÊ²ËĪi
Ġu stra
ĠÉªspËĪoÉŃzu jutsÊĮ
ntsy f
ĠzÊĮ krÊ²i
ĠÊĮb Ê²ËĪe
ĠÊĮptÊ²i mËĪÉĳ
u d
nÊ²i ku
ĠprÊ²ikrËĪÉĳ snÊĮ
ĠvËĪa rtÉĶ
ĠsËĪÉĳ xÊĮ
ĠmÊĮsk vËĪÉĳ
t rÊĮm
ĠdÊĮ xËĪo
Ġtu rÊ²ËĪi
ĠunÊ²ivÊ²ir sÊ²i
ĠvËĪy pÊ²i
ĠnËĪa s
fÊĥyj sÊ²ÊĮ
ĠsÊ²tÊ²ËĪe ny
ĠsÊ²isÊ²tÊ²ËĪe mÊ²i
Éķi ka
ĠÊĴy ÉŃËĪu
ĠkÊĮÉŃÊ²ËĪitÊĥÊ²i stva
Ġrast vËĪo
ĠtÊĥËĪa s
tÊĥ É¨m
ĠÉ¡ÊĮrËĪÉĳ zdÊĮ
p ËĪÉĶ
ĠvÊĮspËĪoÉŃ zÊĮvÊĮ
f kÊĮj
tÊ²iÉŃ nymÊ²Éª
tÊĮ rÊĮm
ĠrÊĮs stÊĮËĪja
fÊ²i k
jitÊ²i sÊ²
ĠknÊ²ËĪi É¡Ê²Éª
ĠsfËĪÉĶ jÉĽ
Ġd rÊ²ËĪe
Ġ Y
ĠmuÉķËĪi na
tËĪo r
ĠxËĪo dÊ²i
vËĪÉĳ ÉŃa
p ÉŃÊ²ËĪenÊ²ijÉª
ĠmÊ²i tÊĮ
Ġ7 0
sk ËĪoÉŃkÊĮ
Ġb rÊ²ËĪe
É¡ Ê²ËĪÉª
ĠsÊ²i ÉŃ
ĠprËĪats É¨
ĠvÊ²isÊ² mËĪÉĳ
ĠprÊ²ËĪe ss
ĠprÊ²imÊ²i nÊ²ËĪenÊ²ijÉª
Ġs ËĮÉ¨
nÊ²ËĪi rÊĮvÊĮ
ĠÊĮp stÊĮËĪja
Ġzna kËĪo
xÊĮ f
ĠkËĪu rs
ĠÊĥ ËĪÉ¨
ĠÊĮsnÊĮv nËĪyx
Ġp ËĪy
ĠprËĪo fÊ²i
ĠÊĮbÊĮ rËĪo
ĠkÊĮ mÊ²i
ĠjËĪÉĽ ÊĥtÊĥÉĽ
Ġsa mËĪo
ĠrajËĪo nÊ²i
ĠfpÊ²i r
ĠvrËĪÉĳ tÊĥÊ²
ĠprÊ²i É¡ÊĮtÊĮvÉŃÊ²ËĪenÊ²ija
ĠÊĴy vÊĮ
ĠnÊĮsÊ²i ÉŃÊ²ËĪenÊ²ija
ĠmÊĮsk vËĪy
ĠuvÊ²ËĪidÊ²i tÊ²
tÊ² nÊ²ik
v Ê²ËĪÉª
ĠtËĪo pÉŃÊ²i
Ġza prËĪo
ĠvÊ²ËĪe p
tÊĥÊ² kÊĮj
Ġpu tÊ²ËĪem
Ġm ok
Ġka m
ĠstËĪÉĳ rÊĥy
ÉŃËĪu tÊĥÊ²
ĠÉª vËĪÉĳ
jjËĪe r
er s
ĠvÊ²i ÉķËĪestf
ĠprÊ²idÊĮ t
nËĪy mÊ²Éª
sÊ²tÊ²ÊĮ mÊ²Éª
ĠdÊ²ia É¡nËĪosÊ²tÊ²i
r Ê²ËĪÉª
ĠpÊĮsÊ²tÊ²i pÊ²ËĪe
st ËĪÉĶ
Ġk ËĪil
ĠdÊ²ika brÊ²ËĪÉĳ
ĠvÊ²i s
ĠrËĪo st
Ġpu bÉŃÊ²i
ĠmÊĮÉ¡ ÉŃÊ²ËĮÉª
Ð ¿
ĠdÊ²i ÊĥËĪÉĽ
j na
k rËĪÉĽ
ĠprÊ²i vÊ²isÊ²tÊ²ËĪÉª
ĠvysËĪo kÊĮj
ĠÊĮk tÊ²abrÊ²ËĪÉĳ
ĠxËĪo tÊ²
dÊ²i j
ĠdÊĮ brÊĮ
ĠkÊĮnt rËĪÉĳ
ĠËĮÉĽ r
dËĪu Êĥ
ĠrÊĮsÊ²sÊ²ËĪi ja
ĠzËĮÉĽ tËĪÉĽ
n sÊ²ËĪi
ĠkËĪÉĳ ÊĴytsÊĮ
ËĪoÉŃ y
ĠtÊĥÊ²a sÊ²tÊ²ËĪi
ĠÉŃÊ²i tÊ²i
ĠprÊĮ stËĪo
ĠprÊĮvÊĮ dÊ²ËĪitÊ²
ÊĴnÊĮ ja
ĠbÊĮÉŃ ÊĥËĪÉĳja
ĠprÊĮtsydËĪu ry
tu r
ĠsÊ²in tÊ²abrÊ²ËĪÉĳ
b ËĪÉ¨
tÊ²ËĪi ÉŃ
k vÊ²i
ĠprÊĮ stËĪoj
ĠbÊ²i tËĪo
nËĪo k
ĠtrÊ²ËĪebÊĮ vÊĮ
bÉŃÊ²ËĪe nÊ²ija
ÉŃËĪÉĳ ktÊ²i
jËĪÉĶnts É¨
ĠÊĮfËĪor mÊ²i
vÉŃÊ²ËĪÉĳ jut
ĠbÊĮÉŃ ÊĥËĪyjÉª
Ġk Ê²ËĪÉĽ
ĠsÊ²tÊ²ËĪe n
ĠfËĪor ma
ĠtÊĥÊ²ËĪÉĳ stnÊĮsÊ²tÊ²Éª
ÊĴËĪÉĽ É²Ê²ÉĽ
ĠbÊĮÉŃ nÊ²ËĪi
nt Ê²ËĪe
ĠsÊĮÊĮp ÉķËĪÉĳjit
bÉŃÊ²ËĪe nÊ²ijÉª
Ġna pËĪom
ÊĴËĪÉĳ jitsÊĮ
Ġan É¡ÉŃÊ²ËĪij
dÊĳi tÉķ
Ġsp ËĪu
ĠÉ¡Ê²i Ê
ĠÉ¡Ê²iÊ Į
tÊ²i jim
Ġu kazËĪÉĳ
t ki
tsÊĮ x
ĠdÊ²izËĪÉĳ jn
ĠzËĮÉĽtËĪÉĽ w
Ġf stËĪÉĳ
stËĪÉĳ tÊ²Éª
ĠpËĪo ÉŃÊ²i
ĠÉ¡ÊĮvÊĮ rÊ²ËĪÉĳt
vËĪa É²Ê²a
ĠdÊ²ËĪeja tÊ²iÉŃnÊĮstÊ²
ĠÊĥ u
Ġm y
mÊ²i nta
ĠÉ¡ÉŃu bËĪo
ĠÊĳi mÊ²ËĪe
m in
ĠprÊĮÉ¡rËĪÉĳm m
n ËĮa
ĠpÊĮ rËĪo
r tÊĮ
Į bÊĮ
Ê ĮbÊĮ
ĠvËĪy zvÊĮ
ĠvÊ²i dÊ²iÊĮ
ÊĴËĪy tÊ²i
âĢ Ļ
sËĪo bÊ²i
ĠrÊĮsprÊĮstra nÊ²ËĪe
ĠstÊĮ ÉŃÊ²ËĪi
ĠdruÉ¡ËĪo jÉª
j ËĪal
Ġs ku
ĠvÊ²ËĪe tÊĥÊ²i
tËĪy rÊ²i
ÉŃÊ²ËĪe p
dËĪoÉŃ ÊĴy
ĠprÊ²iÊĮbrÊ²i sÊ²tÊ²ËĪÉª
ĠkÉŃËĪÉĳ ss
ĠnÊĮtÊĥÊ²inËĪÉĳ jit
ĠaftÊĮmÊĮbÊ²ËĪi ÉŃ
ĠvËĪydÊ²i ÉŃÊ²i
ĠÊĴËĪÉĽ ÉŃ
ĠrukÊĮvÊĮ dÊ²ËĪi
ĠsÉŃÊ²ËĪedu juÉķim
Ġb j
ĠrÊ²ËĪe jtÊ²i
ÊĴnÊĮ stÊ²
ĠvÊ²ËĪÉĽ lÉĽ
ĠÊĮsuÉķist vÉŃÊ²ËĪÉĳjitsÊĮ
nÊ²i ts
h t
Ġmu ÉŃ
ĠsÊĮdÊ²ËĪerÊĴy t
ĠmuÉķËĪi ny
ĠmÊ²itaÉŃ ÉŃÊ²ËĪi
dËĪÉĳ jitsÊĮ
ĠrÊ²iÊĴËĪy m
s sÊĮf
ĠmÊ²itËĪo t
dÊĳ ÉĶ
Ñ Į
ÊĴÉ¨ tÉķ
ÊĴËĪÉĽ nÊ²iju
ĠkËĪo mu
ĠstËĪÉĳ tu
ĠÉŃÊ²ËĪi nÊ²iÉª
ĠÊĥ ËĪo
ĠWi ndows
ÉŃÊ²ËĪe tÊ²
ĠzÊĮrÊ²iÉ¡Ê²istrÊ²ËĪi rÊĮvÊĮ
xÊĮ tÊ²
b rËĪo
ĠÊĮtk ryvËĪÉĳ
ÉŃÊĮ ja
nu ÉŃ
Ġz ÉĽ
ĠstËĪoimÊĮ sÊ²tÊ²Éª
nt ÉĽ
ĠvËĪozrÊĮ sÊ²tÊ²i
Ġta bÉŃÊ²ËĪe
o p
ĠzÊĮjavÊ²ËĪi ÉŃ
Ġt ËĪÉĶ
ĠdÊĮku mÊ²ËĪent
r sÊ²i
ÊĴ ËĪa
ÊĴy jÉª
ĠÊĮ krËĪÉĳ
ĠfÊ²i É¡ËĪu
tÊĥÊ² nÊ²ika
ĠtÊĥÊ²ËĪuv stvÊĮ
ĠÊĳËĪem ÉŃÊ²Éª
9 0
ĠÊĴËĪÉĳ ÉŃÊĮ
st ËĪÉ¨tÊĥ
b e
Į tÊ²ËĪe
Ê ĮtÊ²ËĪe
s wu
ĠtsËĪÉĽnt ra
ĠkËĮÉĳ ËĪÉĽm
n Ê²e
ĠtÊ²imÊ²pÊ²iratËĪu ry
ĠfkËĪu s
É¡ÊĮ rÊĮ
ĠtÊ²ËĪi p
ĠzËĮa p
Ġd nÊ²ËĪÉª
ĠËĪobÉŃÊĮ stÊ²
ĠÉŃËĪutÊĥÊ² Êĥyx
ĠÉ¡Ê²ËĪi p
ĠnÊ²ikakÊ²ËĪi x
ĠprÊ²i dy
Ġr ËĪÉ¨
Ġna vÊ²ËĪe
Ġx va
v Ê²ÊĮt
ĠvËĪy stÊĮ
ĠvÊĮz ra
lÉĽ m
ĠvÊ²iÉŃÊ²i kÊĮ
ĠÉ¡ÊĮ sÊ²tÊ²ËĪi
stvu jut
Ġv Ê²ÉĽ
stvÊ²i nnÊĮvÊĮ
stÊĮ k
ĠusÊ²ËĪi ÉŃÊ²i
ĠrËĪo sta
tËĪo m
ĠÊĮtnÊĮsÊ²ËĪi tÊ²iÉŃnÊĮ
ĠrËĪu ÊĴ
ĠpËĪo ÉŃa
ĠfpÊ²i tÊĥÊ²at
ĠtÊ²ixnÊĮ ÉŃËĪoÉ¡Ê²iÉª
ĠpÊ²ËĪÉĳ tÊ²
ĠmÊ²i nÊ²ËĪu
Ġpr ËĮÉĽ
ĠËĮÉĶtp ÉĶvÊ²ËĪÉĽ
Ġz vu
ĠsÊ²ËĪi m
ĠprÊ²idu prÊ²i
Éķi k
tËĪÉĳ kÊ²Éª
ÊĴ ÉĽj
ĠÊĮpu bÉŃÊ²i
ĠpÊ²i tÊĥÊ²ËĪÉĳ
Ġta bÉŃÊ²ËĪi
sk rÊ²i
stvÊ²i nnyjÉª
ĠsÊĮ m
ĠÉ¡ rÊ²ËĪi
Ġt rËĪa
Ġ3 5
ĠrÊĮspÊĮ ÉŃaÉ¡ËĪÉĳ
ĠprÊ²idÊĮt vra
Ġm ËĮi
Ġu pa
jËĪe sÉŃÊ²Éª
ĠnÊ²ibÊĮÉŃÊĥËĪo j
7 0
ĠusÉŃËĪovÊ²i j
Ġv ËĪu
Ġja vÉŃÊ²ËĪÉĳ
Ġhttp s
ĠprÊ²itÊĥÊ²ËĪi nÊĮj
ĠkÊĮnts ËĪÉĳ
ĠrajËĪo na
ĠkuÉŃtËĪu ry
ĠÉ¡ÊĮsudËĪÉĳr stva
ĠtËĪak Ê²ÉĽ
tstvu jit
ĠdÊ²irÊ²ËĪe v
Ġu vËĪa
ĠtÊĥÊ²rÊ²i z
ĠÊĮsËĪo by
Ġ y
ĠmÊ²i nÊ²ËĪi
b Ê²Éª
ÉŃÊ²ËĪÉĳ jitsÊĮ
Ġd ÊĳËĪi
rÊĴ ËĪÉĽ
ĠpÉŃËĪÉĳ tÊ²
f ki
ËĪÉµ t
ĠËĪop Éķim
Êĥ ËĪa
t kÊĮf
ĠÊĳ ËĪim
nÊ²i tsa
ĠsÊ²ËĪi ÉŃ
ĠËĪÉĶ p
ĠÉªnvÊ²i sÊ²tÊ²ËĪi
tsËĪÉĽ nt
sÊĮ mÊ²Éª
ĠpÊĮÉŃÊĮ ÊĴËĪÉĽnÊ²ijÉª
Ġs vÊ²ir
Ġsa ÉŃËĪo
ĠprÊĮ fÊ²ËĪe
Ġra sp
s ËĪÉ¨
ĠvnÊ²ËĪeÊĥ nÊ²ij
ĠÊĮpÊ²irËĪÉĳ tsyÉª
ĠzÊĮ sÊ²i
ĠÊĮ tsy
tÊĥ nËĪÉĽÉ¡ÉĶ
ĠzakËĪo n
Ġa ftËĪo
Ġz vËĪu
ĠanËĪÉĳÉŃÊ²i s
Ñ ĩ
rÊ²ËĪi Ê
rÊ²ËĪiÊ Į
ĠsfÊ²ËĪe rÊ²i
ĠtsËĪÉĽnt rÊ²i
ĠËĪÉĶ sup
s ËĪa
sy pËĪÉĳ
tÊ²iÉŃ stf
ĠËĪÉĽ k
Ġu tÊĥÊ²i
ĠzÊĮmÊ²i tÊĥÊ²ËĪÉĳ
bËĪy jÉª
ĠËĪop ÉķijÉª
ĠkakÊ²ËĪi m
ĠÉ¡ÉŃËĪÉĳ s
Ġz nÊĮ
ĠprÊ²idna znËĪÉĳtÊĥÊ²i
ĠbËĪÉ¨ wÉĶ
ĠdËĪÉĳ tÊ²
ĠnÊ²ikÊĮ ÉŃËĪÉĳ
ĠbËĪÉ¨ w
ĠznËĪÉĳ ju
Ġva ÊĴ
Ġk stËĪÉĳtÊ²Éª
ĠtÊĥÊ²itËĪÉĳ tÊ²
sËĪo vÊĮ
rÊĮ ÉŃÊ²ËĪi
ĠudÊ²i vÊ²ËĪi
ĠaÉŃÊ²iksËĪÉĳnd r
z nyjÉª
p ÉŃËĪo
ĠpÊĮ i
ÉŃÊ²i É¡ËĪÉĳ
ĠÉķf Ê²ËĪa
ĠdÊĳ a
strËĪo itÊ²
ĠprÊ²idy dËĪu
r ku
ĠmËĪÉĳ ÉŃ
ĠÉªntÊ²ÉĽr nÊ²ËĪetÊ²i
ĠsrÊ²ËĪed nÊ²ij
ĠmËĪÉĳ ssÊĮ
ĠvËĪoj ny
ĠxarËĪÉĳktÊ²i r
ĠpÉĶ mËĪÉĶ
ĠxÊĮrÊĮktÊ²irÊ²ËĪisÊ²tÊ²i kÊ²Éª
ĠprÊĮdÊĮÉŃ ÊĴËĪy
ĠsÉŃÊ²ËĪe dstvÊ²i
xÊĮ ÊĴdÊ²ËĪenÊ²ija
ĠbËĪÉĳ nka
Į x
Ê Įx
ĠtÊĮvËĪÉĳ ra
ĠprÊ²i nÊ²i
ĠaprÊ²ËĪe ÉŃÊ²ÊĮ
Į nÊ²ËĪe
Ê ĮnÊ²ËĪe
ĠprÊĮtÊ²a ÊĴËĪÉĽnÊ²iÉª
ĠpÊĥÉ¨ pËĪat
ĠÉªzbÊ²i ÊĴËĪÉĳtÊ²
ĠstatÊ² jËĪja
Ġta kËĪuju
ĠpÊĮmËĪo É¡ut
tÊĥÊ²i stvÊĮ
ĠrÊ²ispËĪubÉŃÊ²i kÊ²Éª
ËĪÉª ÉŃÊ²Éª
ĠnËĪÉĳ Êĥa
Ġu krËĪÉĳ
ĠkÊĮ bÊ²i
ĠkÊ²i ÉŃÊĮ
Ġu z
Ġsmart fËĪo
n É¡
vÉĶ d
vËĪo m
ra m
ĠbËĪoÉŃÊĥy m
ĠdËĪo stup
Ġsp ËĮÉĶ
ĠsÊ²ËĪe ksa
ĠtÊĥËĪÉĽ É²
sÊ²i t
ĠÊĳËĪe r
Ġu rÊĮ
âĢĿ ,
Ġs ËĪÉĽr
Ġt Ê²ËĪer
ĠvÊ²ËĪe ÉķÉª
ĠvÊ²ËĪe ka
ĠsrËĪo kÊ²Éª
tÊ²ËĪi tÊĥÊ²iskÊĮj
Ġdy xËĪÉĳ
t ËĪÉĽÉ¡ÉĶ
ÉĽ ts
mÊ²ËĪe ntÊĮm
sÉŃÊ²ËĪe dÊĮvÊĮ
ĠR e
ĠÊĮt prËĪÉĳ
t na
ĠbËĮudÊ²i tÊ²i
ĠrÊĮ vnÊĮ
ĠsÊ²ivËĪodnÊ²ÊĮ Êĥ
ĠvÊĮsp rÊ²i
ĠpÊĮpuÉŃÊ²ËĪÉĳ rnÊĮ
wa m
p ËĪi
tÊĥÊ²nÊĮ sÊ²tÊ²Éª
ĠtÉķËĪÉĳ tÊ²iÉŃnÊĮ
k ÉŃÊ²i
i st
w tÉĶ
Ġp tÊ²ËĪi
ĠrÊĮsp rÊ²idÊ²i
ËĪat É¨
ĠÉªËĪju ÉŃÊ²ÊĮ
Ġza bËĪo
ĠÊĮ rÊ²iji
ÊĴdËĪÉĳ jitsÊĮ
Ġfra nts
stËĪu ju
l nÉĽ
ĠËĮÉĶ rÉ¡a
Ġf ËĪÉĶ
rËĪu s
Ġstra tÊ²ËĪe
st ka
É¡ËĪo f
ĠÉ¡ ÉŃÊĮ
ĠprÊ²iparËĪÉĳ t
pÊ²i tÊ²irbËĪu
ĠspÊĮ kËĪoj
Ġna d
bÊ²i ÉŃÊ²Éª
my m
strÊ²ËĪe jÉª
Ġna st
stËĪÉĳ n
ĠrabËĪotÊĮ jut
ĠxÊĮÊĳËĪÉĳ j
ĠtÊĥÊ²i tËĪyrÊ²i
ĠrÊ²iÉ¡Ê²i ÊĮnËĪÉĳ
ĠÉª ntÊ²ËĪi
Ġuda ÉŃËĪosÊ²
r Ê²a
ts ta
k ÉŃÊ²ËĪe
nnÊ²i kÊ²Éª
ĠÉĽkspÉŃua tËĪÉĳtsyÉª
ĠkÊĮ ÉŃÊĮ
ĠËĪobrÊĮ s
ĠÉªËĪju nÊ²ÊĮ
ĠkÊĮmÊ²pjËĪju tÊ²ÉĽ
ĠbËĪÉĽ ndÉĶ
ĠspËĪÉĶ sup
Ġmu zy
t kÊĮj
ĠsËĪÉĳ nkt
ÊĴda nÊ²ËĪi
dÊ²ËĪe tÊ²
u w
z da
Êĥy t
ĠvÊĮrÊ²iËĪÉĳ nty
ĠrÊ²iÊĴËĪy mÊ²i
ĠudÊĮ vÉŃÊ²i
ĠpÊĮnËĪÉĳdÊĮ bÊ²i
Ê²ËĪ ÉĶv
ÊĴdÊ²ËĪe nÊ²ij
ĠfpÊ²ir vËĪyjÉª
ĠdÊĮ ÉŃÊ²ikËĪo
ĠvÊĮprËĪo sÊĮm
ĠprÊ²i xËĪodÊ²itsÊĮ
ĠpÊĮÉŃu tÊĥÊ²ËĪÉĳjitsÊĮ
ĠÉ¡ rÊ²ËĪÉĳ
p ÉŃÊ²ËĪi
sÊ²tÊ²i tÊ²
Ġma ssËĪÉĳ
ĠprÊ²idÊĮ stavÉŃÊ²ËĪÉĳ
stvÊ²i nnÊĮj
ĠmÊ²irÊĮprÊ²iËĪja tÊ²ija
ra z
Ġn ËĪy
e w
ËĪÉĳÉŃ nuju
ĠkÊĮn krÊ²ËĪet
ĠÉ¡Ê²i rmËĪÉĳ
ĠÉ¡Ê²i rËĪo
Ġsup rËĪu
ÊĴdÊ²ËĪe nÊ²iÉª
sp Ê²ÉĽ
dËĪÉĳ ÉŃ
Êĥ É¨x
ĠbÊĮ ji
ÉŃÊ²i ks
ĠzakËĪo ntÊĥÊ²i
sÉŃÊ²ËĪe dstvÊ²i
4 5
É²i tÉķ
ĠdÊ²i putËĪÉĳ
e x
ĠnÊĮpÊĮ mÊ²inËĪÉĳ
Êĳi n
ĠbËĪu d
ĠrÊ²ËĪi sk
Ġna xËĪodÊ²ÊĮtsÊĮ
ĠprÊ²i ÊĥÉŃËĪo
l É²Ê²ÉĽ
rÊ²i sËĪu
Ê²ËĪÉĽ r
ĠpÊ²ËĪer vyx
ĠÊĮt nËĪosÊ²itsÊĮ
nd É¨
Ġt rËĪo
nÉĽ t
nu s
ĠnÊĮja brÊ²ËĪÉĳ
nÊĮ va
brËĪÉĳ tÊ²sÊ²ÊĮ
ĠprÊĮ É¡nËĪo
ĠpÊĮtrÊ²ËĪe bnÊĮ
r ËĮÉĶ
fÊ²ikËĪÉĳ tsyÉª
ĠÉ¡ÊĮsudËĪÉĳrstvÊ²i nnÊĮj
Ġna lËĪÉĽÊĴÉ¨
ĠÉ¡rÊĮ ÊĴdanÊ²ËĪi
ĠkÊ²i ÊĥËĪÉĽ
ĠprÊ²i tÊ²sÊ²i
ĠvnÊ²imËĪÉĳ nÊ²ija
ĠnËĪo k
ĠpÊĮtrÊ²ËĪebu jitsÊĮ
rak tÊ²ËĪe
dËĪÉĳ x
ÉŃÊ²ËĪe nÊ²ijim
ĠbËĮudÊ²i m
Ġp la
ĠsÉŃÊ²ËĪe dÊĮvÊĮ
ĠÉªtËĪo É¡Ê²i
Ġ3 00
ĠzÊĮ pÊĮÉŃ
Ġz rÊ²ËĪe
ĠprÊĮ vËĪodÊ²itsÊĮ
xËĪo j
ĠÉ¡Ê²i nÊ²i
ĠtrËĪÉĳ v
Ġst ËĪÉĶ
ĠtsËĪÉĽ ÉŃÊ²Éª
0 1
ĠkÊĮ ÉŃÉŃÊ²i
ĠÉªsp ytËĪÉĳ
ĠnÊ²idÊĮstËĪÉĳ tÊĮtÊĥÊ²nÊĮ
ĠpÊĮsÉŃÊ²ËĪe du
ĠzÊĮ vÊĮ
a st
vËĪo dÊ²i
ĠÉĽk rËĪÉĳ
ĠÉªn sÊ²tÊ²itËĪu
ĠrÊĮdÊ²ËĪi tÊ²iÉŃÊ²ij
ĠsmÊ²ËĪe sÊ²
Ġp ËĪi
ĠmÊĮ mÊ²ËĪenta
m ja
ĠtÊ²imÊ²pÊ²iratËĪu ra
ĠbËĪÉĳ nk
dËĪo m
d kÊĮj
n Ê²ËĪÉµ
ĠzÊĮ by
in o
Ġz bËĪo
Ġsk rËĪy
ĠnÊ²ipÊĮsrÊ²ËĪed stvÊ²innÊĮ
ĠprÊ²idpÊĮ tÊĥÊ²
ĠÉ¡rËĪÉĳ du
Ġs É¨
ĠkÊ²ËĪÉĽ dÉ¨
ĠÊĮsvÊĮ bÊĮ
ĠkËĪo dÊ²i
ĠÊĮd da
ĠkÊĮmpËĪÉĳ nÊ²ij
mÊĮ n
ĠspËĪosÊĮbÊĮ m
ËĪÉĶva w
Ġp Ê²a
ĠÊĥ tÊĥÉĽ
ĠmÊ²itËĪo dy
mÊĮ vÊĮ
nÊ²i tsÊĮ
ĠkËĪo ÊĴu
ĠpÊĮ nÊ²i
ĠsvÊĮjËĪe mu
ĠvËĪyÉ¡ÉŃÊ²ÊĮ dÊ²it
ĠÉ²ËĪi Êĥ
d nym
da tk
bÊĮ vÊĮtÊ²
Ġja zËĪy
ĠËĪÉª mÊ²inÊ²Éª
ĠprËĪÉĳvÊ²i ÉŃ
Ġs ÉŃËĪy
dÊĳa w
ĠpÉŃa t
Ġv ËĪoÉŃ
ĠanÊĮ ÉŃÊĮÉ¡Ê²ËĪi
b lËĪi
ËĪÉĽ f
dÊ²ËĪÉµ t
ĠvrÊ²ËĪe mÊ²inÊ²im
ĠÊĥ trËĪÉĳ
mËĪo f
Ġka kËĪojÉª
Ġk ËĪoÉŃ
snÊĮ ja
É² Ê²ËĪÉĶv
ĠdÊ²ËĪe tÊ²ÊĮ
dÊ²i ËĪÉĳ
Ġv mÊ²i
ktÊĮ ra
rk Ê²ËĪe
ĠsÊ² nÊ²ËĪÉĳtÊ²
Ġmu Êĥ
Ġa É¡rÊ²i
nËĪu ÉŃsÊ²ÊĮ
ĠÊĮp Éķi
ĠnËĪÉĳ vy
ĠspËĪosÊĮ by
tÊĥ ËĪa
Â «
Ġa kt
n nÊ²ik
ĠsËĪum ma
sÊ²sÊ²i ja
ĠvÊĮ spÊ²i
rÊ²ËĪÉĳ jit
ĠprÊ²i mÊ²ËĪer
ĠnÊ²ibÊĮÉŃ ÊĥËĪy
ĠxrÊĮ nÊ²ËĪi
Êĳi tÊ²
nt er
Ġt ÉķËĪi
v ja
ts ËĪÉĶ
ĠktËĪo tËĪo
Ġva ÉŃÊ²ËĪu
ĠsÊ²ituËĪÉĳ tsyja
É²ËĪi tsÉ¨
b vÊ²ËĪÉª
ĠxÊĮrËĪo ÊĥyjÉª
ĠzakËĪo na
ĠprÊĮvÊ²ËĪerÊ²i tÊ²
É¡ËĪÉĳ ja
ĠdËĮÉĽ ËĪÉĽr
ĠmÊ²inÊ²i sÊ²tÊ²ËĪer
ĠpÊĮÉŃutÊĥÊ²ËĪi ÉŃ
ÊĥËĪÉĽ nÊ²ij
j dÊ²i
ÉŃnÊĮ sÊ²tÊ²Éª
t ËĪÉĽr
ĠrÊ²i ÊĳËĪi
ĠdrËĪu É¡ÊĮm
ĠnÊĮ u
ĠprÊĮ xËĪodÊ²it
ĠÉĽÉŃÊ²i mÊ²ËĪenty
ÉŃnÊĮ stÊ²
ĠkËĪÉĳ p
Ġdvu x
ĠÊĥ tËĪu
o c
ĠprÊ²i nÊ²ËĪÉĳtÊ²
Ġu rËĪo
Ġna skËĪoÉŃkÊĮ
Ġk vÊĮÉŃÊ²i
ĠxÊĮ raktÊ²ËĪe
ĠmÊ²ËĪe tÊĮ
Ġv Êĳ
ĠÊĥy rÊ²i
vÉŃÊ²i nÊĮ
ĠÊĮbÊĮrËĪudÊĮvÊĮ nÊ²ijÉª
Ġu stËĪÉĳ
ĠfËĪÉĳ kt
tsyËĪo nnyx
brÊĮ zÊĮ
ĠpÊĮsÊ²tÊ²ipÊ²ËĪe nnÊĮ
pÊĮ ÉŃÊ²i
Ġmuzy kËĪÉĳ
ĠrazmÊ²ËĪe ra
ĠprÊĮfÊ²i ÉŃËĪÉĳktÊ²i
l t
mÊ²i nÊĮ
dÊĮ j
dÊ²ËĪi ÉŃÊ²Éª
ĠËĮÉĽ f
ĠÉªm mu
ĠÊĮ rËĪuÊĴy
ĠÊĮb vÊ²i
p Ê²ËĪÉĽ
ts jÉĶ
ĠnÊ²i j
s na
ĠÊĮtÉŃÊ²ËĪitÊĥÊ²i jÉª
É¡ÊĮ vÊĮrÊ²ËĪi
Ð ±
tÊ²i t
ĠprÊĮdËĪu kt
Ġx rËĪÉĳ
Ġby strÊ²ËĪejÉª
ĠvËĪÉĳ Êĥyx
ra tÊ²ËĪi
ĠÊĮ dÊ²inËĪÉĳ
ĠuÉŃu tÊĥËĪÉĽ
l y
ĠtÊ²ixnÊĮ ÉŃËĪoÉ¡Ê²i
ĠxËĪo tÊĥÊ²itsÊĮ
ĠnÊ²i vÊ²i
ĠsÊ²i rtÊ²i
d Ê²ÊĮt
kËĪomÊ²i tÊ²sÊ²ÊĮ
Ġf Ê²ËĪe
ĠÉ¡a rËĪÉĳ
ĠsÊĮ ÊĴa
ĠtÊ²ËĪe ÉŃÊĮ
ÊĥËĪÉĽ nÊ²iÉª
ĠÊĴyvËĪo tnyx
ĠkrÊ²ËĪe p
Ġza rËĪÉĳnÊ²ijÉª
ĠutÊĮ tÊĥÊ²
ÊĴ ËĪÉª
ĠprÊ²i nÊ²ËĪÉĳ
ĠnÊ²i mËĪu
x ËĪa
ĠsÊĮÊĮtvÊ²ËĪetstvÊ²i nnÊĮ
ĠdÊĮpÊĮÉŃnÊ²ËĪi tÊ²iÉŃnyjÉª
ĠtÊĮÉŃ Éķi
ĠarÊĮ mËĪÉĳ
Ġz vÊ²ËĪe
Ġkl jËĪÉĽ
tu ju
ĠÊĴËĪy tÊ²
ĠËĪÉª É¡r
ĠÊĮbra zËĪu
ĠÊĮb mÊ²ËĪe
ĠmÊ²ËĪe nÊ²i
ĠnÊ²iÊĮb ËĪy
ÉŃÊĮ ÊĴËĪÉĽnÊ²ijÉª
pÊ²isËĪÉĳ tÊ²
ĠsÊ²i kËĪu
Ġt rËĪup
ĠËĮÉĽm ËĪÉĽÉŃ
ĠtÊ²ËĪex nÊ²ikÊ²Éª
0 4
Ġvra tÊĥÊ²ËĪÉĳ
bÊĮ j
ĠÊĥkËĪoÉŃ y
ĠkÉĶlËĪÉĽ j
Êĥ t
ĠsÊ²ir dÊ²ËĪe
ĠÊĮtvÊ²ËĪer sÊ²tÊ²i
ĠsÊ²i ksu
ĠG o
sÊ²ËĪe r
ÉŃÊ²ÊĮ mÊ²Éª
ĠmËĪo ja
ĠsÊĮbËĪy tÊ²ija
ĠÊĮ ËĪoÊĮ
ÉŃÊ²i zËĪÉĳtsyÉª
ĠdvÊ²ËĪer Ê²Éª
ĠpÊ²ËĪe nsÊ²i
bËĪo jÉª
dÊ²i tÊ²
Ġ tÊĥÊ²ÊĮ
ĠsËĪoÉŃ nÊ²i
s h
ĠpÉŃÊĮ tÊ²i
ĠÊĮ stavÉŃÊ²ËĪÉĳ
Ġ =
ĠpËĪu tÊ²
ĠpÊĮ stÊĮnÊĮ
ĠÉª nÊ²itsy
Ġka kËĪÉĳja
ĠpÊĮ sta
Åĭ É¡u
mÊĮ r
Ġl ÉĶ
tnÊĮ m
ĠÉªn É¡
ĠvÉŃadÊ²ËĪi mÊ²ir
ĠupÊĮtrÊ²i bÉŃÊ²ËĪÉĳ
Ġmu nÊ²itsy
ĠpÉŃËĪÉĳsÊ²tÊ²i kÊĮ
ĠfsÊ²i mËĪu
ĠÊĮkazËĪÉĳ ÉŃÊĮsÊ²
i sp
ĠËĪoddy xa
Ġb ÉĶ
Êĥ kËĪa
ÊĴËĪÉĳ jut
tÊĥÊ²ËĪ ok
ĠskËĪorÊĮ stÊ²
Ġakku rËĪÉĳ
ĠfÊ²ivra ÉŃÊ²ËĪÉĳ
ĠprÊ²i pÊĮ
ĠnrËĪÉĳ vÊ²itsÊĮ
fÊ²itsËĪy rÊĮvÊĮ
r É¡ÊĮ
ĠÊĮtnÊĮÊĥËĪÉĽ nÊ²ij
É¡ Ê²ÉĽ
vÉŃÊ²i n
ĠprÊ²iimËĪuÉķi stva
Ġ201 3
ĠÊĮtnËĪosÊ²ÊĮ tsÊĮ
ĠkÊ²i sÉŃËĪo
ĠprÊ²idÉŃÊĮ ÊĴËĪÉĽnÊ²ija
k ËĮa
ĠÉ¡Ê²i drÊĮ
ski m
ĠrÊ²iÊĮÉŃÊ²i zËĪÉĳtsyÉª
ĠÉ¡ÉŃa zËĪÉĳ
ĠÉ¡ÊĮtËĪo vy
bnÊĮ jÉª
ĠvzÉ¡ÉŃÊ²ËĪÉĳ t
ĠvÊĮ dÊ²ËĪi
ÊĥËĪÉĳ jut
ĠjËĪak Ê²ÉĽ
ĠprÊ²iÉŃÊĮ ÊĴËĪÉĽnÊ²ijÉª
ĠÊĮs ÉŃÊĮÊĴ
ĠbÊĮÉŃ ÊĥËĪuju
ĠsËĪu tkÊ²Éª
ĠvËĪÉĳ Êĥa
ÉŃÊĮ sÊ²tÊ²Éª
ĠtsvÊ²i tËĪof
ĠadmÊ²inÊ²i stra
ĠÉ¡rËĪup pa
fÊĥy jisÊ²ÊĮ
ÊĴ mÊ²ËĪitÊ²i
Ġx ËĪa
sty jÉª
Ġb ra
Ġa rÊ²ËĪe
ĠnËĪo É¡Ê²Éª
ĠrÊ²i stÊĮ
mu f
ĠrÊĮss mÊĮtrÊ²ËĪe
ÉŃÊĮÉ¡Ê²ËĪi tÊĥÊ²iskÊ²ix
ĠpÊĮdÊĮ z
ÉŃÊ²ËĪe ty
É¡ÉĶ t
ts ËĮÉĽ
ĠpËĪoÉŃzÊĮvÊĮ tÊ²iÉŃÊ²ij
l ËĪar
ĠkËĪÉĳr tu
ĠprÊĮ pÊ²ËĪi
ĠsvËĪoj stva
ĠzËĪÉĳ nÊ²ÊĮ
ĠzdÊĮrËĪov jjÉª
3 5
ĠaÉ¡Ê²ËĪe nts
ĠÉ¡ÊĮÉŃÊĮ v
ĠprÊ²imÊ²ËĪe ru
ĠrÉĶ dÊĳËĪi
rËĪÉĳ v
ĠnÊ²iÊĮpxÊĮdÊ²ËĪimy jÉª
Ġxi mÊ²ËĪi
ĠÉªstÊĮ rÊ²ËĪi
ĠpÊ²ËĪer vÊĮm
b jËĪÉĶ
ÊĳËĪi rÊĮvÊĮtÊ²
ĠdÊĮ vÊ²ËĪerÊ²i
n kÊĮj
nÊ²ËĪÉĳ tÊ²sÊ²ÊĮ
sta w
ĠzadËĪÉĳ tÊĥÊ²ÊĮ
ĠÉª tËĪÉĳk
Ġsu ÉķistvÊĮ
ĠutÊĥÊ²ËĪÉĳstÊ² nÊ²ikÊĮf
É¡ËĪo dnÊĮ
pÊĮ ÊĳËĪi
ĠÉªmÊ²ËĪe jitsÊĮ
vÊĮ jtÊ²i
ĠdËĪumÊĮ ju
ĠÊĮx rËĪÉĳ
ĠukraËĪi nÊ²i
ĠvÊĮspËĪoÉŃzÊĮvÊĮ tÊ²sÊ²ÊĮ
kÊĮ va
nÊ²ËĪi ÉŃ
Ġat mÊĮs
ĠsvÊ²i tÊĮ
ĠsËĪÉĳnkt pÊ²itÊ²irbËĪu
ĠrËĪy nka
ĠvÊ²i sÊ²ËĪe
rÊ²ËĪi rÊĮvÊĮ
Ġza É¡rËĪu
nts ji
jjËĪe ra
j jim
Ġvu ÉŃ
tÊĥÊ²ËĪÉĳj nÊĮ
ĠdÊ²i sÊ²ËĪÉĳ
ĠstrÊĮËĪi tÊ²iÉŃstva
ĠpÊĮ dËĪÉĳr
kÊĮ tÊ²i
Ġ la
dÊĳËĪÉĽ É²Ê²ÉĽ
ĠfÊĮtÊĮÉ¡rËĪÉĳfÊ²i Éª
ĠnÊ²i prËĪÉĳvÊ²i
ÉĶ m
ÉŃÊĮ ÊĴËĪytÊ²
ĠznËĪÉĳ jit
ĠvyzyvËĪÉĳ jit
ĠmÊ²ËĪi n
ĠsËĪÉĳmÊĮ ja
r ËĮa
Ġm ËĪÉ¨
ĠsËĪa m
ĠnÊ²i zÊĮ
ĠÉĽÉŃÊ²i mÊ²ËĪentÊĮf
tÊ²i k
Ġ #
ĠrazmÊ²ËĪe rÊ²i
sta tÉķ
mÊĮ É¡aÊĳËĪi
ĠdruÉ¡ËĪo vÊĮ
in tÊ²ÉĽrÊ²i
ĠÉ¡ÊĮr mÊĮ
ĠÊĮfÊĮrm ÉŃÊ²ËĪenÊ²ija
ĠnÊĮkÊĮ nÊ²ËĪets
ĠpÊĮtÊĮ ÉŃ
É¡ËĪÉĳ ÉŃ
ĠsÊĮz dËĪÉĳnÊ²ijÉª
rÊ²idÊ²i jËĪe
stÉĽm p
ĠÂ ·
ĠÊĮ xËĪo
ĠÉªspËĪoÉŃzÊĮvÊĮ nÊ²iÉª
ĠnatÊĥÊ²ËĪÉĳ ÉŃ
Ġx tsËĪÉĽ
ĠâĢ ¦
Ġj ËĮÉĽ
ĠÉĶ st
tÊĥ u
ru jutsÊĮ
Ġ4 5
bÊ²ËĪi tÊ²
ĠrËĪo dstvÊ²i
Ġtra ns
ĠdÊ²izËĪÉĳ jnÊ²i
ĠÉªzbËĪÉĳ vÊ²itÊ²sÊ²ÊĮ
ÉŃÊ²ËĪÉĳ jut
ĠsxËĪe ma
f ÉŃÊ²ËĪi
Ġsa ÉŃËĪÉĳ
ĠÊĮbÊ²ispÊ²ËĪetÊĥÊ²i vÊĮjit
ĠkÊĮnt rÊĮÉŃÊ²ËĪi
ĠrËĮÉĶ z
k ru
ĠÉªnÉ¡ rÊ²idÊ²ijËĪe
ĠËĪÉĳvÉ¡u sta
Ġm ËĮÉĽ
Ġra sÊ²tÊ²ËĪi
ĠkÊĮ za
Ġk rËĪa
ĠvËĪy vÊ²i
ĠT he
9 9
ĠspÊ²itsy ÊĮÉŃÊ²i
dÉŃÊ²i nnÊĮ
ts kÊ²ij
ĠmnÊ²ËĪe nÊ²iju
Ġsta bÊ²ËĪi
v ÉŃÊ²Éª
ĠÊĮtÊ²ËĪe tÊĥÊ²istvÊ²i
ĠkÊĮr rÊ²i
ĠtÊ²ËĪe p
ĠÉŃÊ²ËĪi stÊ²jja
ĠvÊĮ rËĪo
ts ËĪa
ĠtÊĥÊ²i ty
z rËĪÉĳ
ĠzËĪÉĳ f
ĠnÊĮ xÊĮdÊ²ËĪÉĳ
ĠmÊ²ËĪe trÊĮf
fÊĮr mËĪÉĳ
ĠfsÊ²ËĪe mÊ²Éª
Ġma rÊĥ
ĠprÊ²ijËĪe ma
tÊĥ nÉ¨x
É¡ra fÊ²ËĪi
Ġ wa
ĠtÊĮvËĪÉĳ r
ĠmÊĮ nÊĮ
sÊ²i ÉŃ
ĠpÊ²ËĪer vÊĮjÉª
ĠzÊĮ pÊĮ
Ġd rËĪÉĶ
n skÊ²ijÉª
ĠbukmÊ²ËĪe kÊ²ir
ĠpÊĮs vÊ²a
Ġkru p
tsy nËĪÉĳ
ĠËĪÉĳ rmÊ²i
z nyx
bÊ²i t
ĠpÊĮÉŃu tÊĥÊ²ËĪÉĳtÊ²
ma x
ĠdÊĮ puskËĪÉĳ
ĠÊĮrÉ¡ÊĮnÊ²izËĪÉĳ tsyja
ĠtÊĥÊ²ËĪÉĳ s
Į tnÊĮ
Ê ĮtnÊĮ
ĠvÊĮz vrËĪÉĳ
ĠvÊĮspÊ²i tËĪÉĳ
n tsËĪÉĽ
ĠmÊĮÉ¡aÊĳËĪi n
ĠprÊ²imÊ²i nÊ²ËĪÉĳtÊ²
ĠpÊĮzvÊĮÉŃÊ²ËĪÉĳ jut
Ġb ÉŃËĪÉĳ
ĠrÊ²i dËĪÉĳ
f ÊĥÉĽ
Ġna mnËĪovÊĮ
Ġz ÉŃÊĮ
ĠsmÊ²ËĪer tÊ²Éª
ĠstËĪÉĳ ry
ĠsÊ²imÊ² jjËĪe
sËĪo k
ĠzÊĮnÊ²imËĪÉĳ tÊ²sÊ²ÊĮ
nts É¨
vÊ²ËĪe j
ssa ÊĴËĪy
ĠtËĪÉ¨ x
stËĪo in
ĠrËĪÉĳ dÊ²Éª
ĠÊĮfËĪormÊ²i tÊ²
ĠÉ¡ dÊĳËĪÉĽ
s nym
ĠzakËĪÉĳ s
st ÉĽ
ĠnÊĮ strÊĮjËĪe
ĠfÊ²ËĪiÉŃ m
ĠkËĪÉĳ m
stËĪo f
Ġs ÉĶ
ĠmÊ²istËĪÉĳ x
ĠÊĮs nËĪovÊĮ
ĠkÊĮn krÊ²ËĪe
ÉķËĪÉĳ tÊ²sÊ²ÊĮ
ĠÉ¡a ÊĳËĪe
t nymÊ²Éª
Ġza r
Ġs tsËĪÉĽ
ĠmËĪa jÉĶ
ĠÉªz É¡ÊĮtËĪo
ĠpÊĮ É¡Ê²ËĪi
ĠsuÉķistvËĪu jut
ĠÉª ÉŃ
r ts
Ġzd r
ĠÉĽ nÊ²ir
Ê²ËĪÉµ t
vnÊĮ stÊ²
ĠÉªmËĪuÉķi stva
Ġza dËĪu
ĠdÊ²ËĪetÊ²ÊĮ m
Ġv vÊ²i
ĠkÊĮn tËĪo
ĠnÊ²idËĪÉĳ vnÊĮ
ÉĽr dËĪÉĽ
ĠÊĥ kËĪÉĶ
ĠzÊĮ kazËĪÉĳtÊ²
i na
ÉŃÊ²ËĪe ta
Ġfunk tsyÊĮnËĪÉĳ
ĠkÊĮmÊ² pÊ²in
ĠsÊĮv mÊ²i
Ġzna tÊĥÊ²ËĪi
ÊĥËĪÉĽ nÊ²ijim
ĠpÊĮnrËĪÉĳ vÊ²i
nÊ²i v
ĠsÊĮ sta
vÉŃÊ²ËĪÉĳ tÊ²sÊ²ÊĮ
ËĪal nÉĽ
Ġtsy nÊ²ËĪe
Ġf ËĪil
Ġ3 1
ĠnÊĮtÊĥÊ²inËĪÉĳ jitsÊĮ
ĠËĪok na
ĠprÊ²inÊĮ dÉŃÊ²i
ĠÊĮtÊĥÊ²i rÊ²id
ĠnÊ²idvÊ²ËĪiÊĴy mÊĮsÊ²tÊ²Éª
ĠpÊ²ir spÊ²i
ĠÊĮbÊ²ispÊ²ËĪetÊĥÊ²i nÊ²ija
ĠprÊ²i vÉŃÊ²i
ĠmÊ²ËĪe ry
ĠËĪja bÉŃÊĮ
Ġu m
v nÉĽ
ĠbrËĪÉĳ tÊ²
ĠÊĮsnÊĮ vËĪÉĳnÊ²iÉª
ĠpÊĮ pËĪy
ĠkrËĪÉĳ ja
Ð ·
É²Ê²ËĪÉĽ É²Ê²a
ËĪi x
sÊ²i r
Ġz da
sÊ²ÊĮ t
z nÊĮj
ĠdÊĮ stËĪoin
) :
ĠznÊĮ mÊ²inÊ²ËĪi
tÊĥÊ² nÊ²i
mu ÉŃÊ²ËĪi
lËĪi nÉĽ
Ġfa ktÊ²ËĪi
Ġt ÉĽr
ĠpÊĮsÉŃÊ²ËĪed stvÊ²ija
ĠÉªspËĪoÉŃzÊĮvÊĮ nÊ²ijim
ĠprËĪo Éķi
ĠÉĶ b
ĠsÊ²ËĪe vÊ²i
ĠnËĪo vÊĮjÉª
v Ê²ÊĮ
ĠdÊ²ËĪe ÉŃ
ĠprÊĮ jtÊ²ËĪÉª
ĠmËĪÉĳ sÊ²tÊ²ir
ĠsÊ²ËĪerd tsy
ĠkÊĮmËĪÉĳ ndy
ĠsÉŃËĪo j
ĠvypÊĮÉŃ nÊ²ËĪenÊ²ija
ĠÉ¡ËĪoÉŃÊĮ vu
ĠsËĪobstvÊ²i nnÊĮsÊ²tÊ²Éª
Ġf ËĪa
ĠrÊĮz dra
ĠxÊĮrËĪo Êĥym
xÊĮ ÉŃ
ĠprÊĮ stËĪÉĳ
ĠrÊ²itsËĪÉĽp t
] .
ËĪÉ¨ k
^ ,
ĠsÊĮtrËĪudnÊ²i kÊĮf
ĠpÉŃËĪÉĳ n
ĠtÊĥÊ²i t
ĠbÊĮ ËĪja
ĠjazËĪy k
!! !
ĠpÊĮ vÊĮ
ĠaÉŃÊ²ik sÊ²ËĪe
ĠÉª É¡
ĠustanËĪo fka
nnÊĮ stÊ²jju
É¡ÊĮ mÊ²Éª
ĠaÉĽ rÊĮ
ĠrasÊ²tÊ²ËĪe nÊ²ijÉª
ĠËĪopÉķi stva
Ġf kÉŃËĪÉĳ
nd ËĪo
jimÊĮ ja
mÊ²ËĪi trÊ²i
ĠnËĪu ÊĴyn
dËĪÉĳ ÉŃÊ²Éª
ĠdËĪo b
ËĮÉĽs ËĪÉĽr
s ÉŃu
ĠpÊĮja vÉŃÊ²ËĪÉĳjitsÊĮ
ĠÉ¡ÊĮra ntÊ²ËĪi
2 6
ĠrÊ²i b
ĠbËĪoÉŃÊĥy x
ĠpÊĮ ËĪja
ĠutÊĥÊ²ËĪe tÊĮm
Ġzar pÉŃËĪÉĳ
ĠstÊĮrËĪo n
ĠdÊ²itËĪÉĳ ÉŃÊ²Éª
ra tËĪur
ĠbÊ²i ÉŃÊĮ
ĠÊĮÉ¡ rËĪo
v ËĪÉĶÉķtÉķi
ĠÉªn tÊ²in
ĠmÊĮ tÊĥÊ²i
ÉŃ ÉŃÊĮ
ĠkËĪomnÊĮ ty
nt k
ĠmÊ²i nÊ²irËĪÉĳ
ĠbrËĪÉĳ u
ĠpÊ²ËĪer vym
ĠpÊĮ dÊ²iÉŃÊ²ËĪi
nÊ²ËĪi s
og le
ĠsÊ²ËĪe ÉŃ
ĠprÊ²iparËĪÉĳ tÊĮf
ÉŃ kÊĮj
ĠrÊ²i bÊ²ËĪÉĳ
ĠmÊĮ ntËĪÉĳ
ĠÉŃÊ²itÊ²i ratËĪu
ĠÊĥy rÊĮ
ĠprÊĮizvËĪod stvÊĮ
ĠvËĪy j
s ÉĽ
su ÉŃ
ĠpËĪÉĳ rtÊ²i
dÊ² tÊ²i
tsyËĪo nnyjÉª
k ryvËĪÉĳ
a tÊ²ËĪi
ĠsÊ²irÉ¡Ê²ËĪe j
kÊ²ÉĽ j
Ġ201 2
ĠnÊĮ sÉŃa
ÊĴ nymÊ²Éª
ĠpÊĮ sËĪobÊ²i
ĠÉŃ É¡ËĪo
Ġda vÉŃÊ²ËĪenÊ²ijÉª
Éķi kÊĮf
Ġzap ËĪoÉŃ
Ġakku muÉŃÊ²ËĪÉĳ
nÊ²ËĪe ta
ĠÉªz É¡ÊĮtÊĮ
ĠËĪu m
ĠÉªntÊ²ËĪi m
ÉŃËĪÉĳ sÊ²
ĠdÊ²ËĪe rÊ²i
ËĪaw u
ĠnÊĮru ÊĥËĪÉĽnÊ²ijÉª
ĠtËĪu r
ĠdÊĳËĪÉĽ tÉķi
ĠÊĮfÊ²itsy ËĪÉĳÉŃnÊĮ
ĠÊĮt prËĪÉĳvÊ²i
ĠmÊ²ËĪinÊ²imu m
ĠnÊ²ËĪekÊĮ tÊĮ
ĠÉªnstrËĪuk tsyja
ÉĶvËĪa nÉ¨x
ĠmÉĶ ÊĴlËĪi
kÊĮ r
ĠpÊĮsÉŃÊ²ËĪe dÊĮvÊĮ
p t
ĠbÊĮ ta
Ġva rÊĥ
ĠÊĮt kËĪÉĳ
ĠËĪÉĳ ktsyÉª
m b
ĠpËĪoÉŃzÊĮvÊĮ tÊ²sÊ²ÊĮ
ÊĥËĪy tÊ²
ĠÉ¡ÉŃËĪÉĳv nyj
ÉĶvËĪa na
ĠpÊĮdËĪu mÊĮ
ĠprÊ²itÊĥÊ²ËĪi n
ĠzÊĮ pÊ²i
ĠÊĮt kÉŃÊ²u
Ġdvu mÊ²ËĪÉĳ
ĠmÊĮÉ¡ ÉŃ
ĠÊĮbÊ²ispÊ²ËĪetÊĥÊ²i tÊ²
ĠÊĮk rËĪu
ĠpÊĮdÊ²dÊ²ËĪerÊĥ kÊ²Éª
ĠÊĮ stÊĮnÊĮ
Ġ $
Ġst ËĮa
Ġa rt
ĠpÊ²i sÊ²
ĠkËĪo t
kËĪa mi
f ÊĥÊĮja
ĠI n
ĠpÊĮ j
ĠjËĪe m
Ġupra vÉŃÊ²ËĪenÊ²ijÉª
Ġz vÊ²i
Ġna ÊĴmÊ²ËĪitÊ²i
ĠÉ¡ÊĮvÊĮ rÊ²ËĪÉĳ
Ġsu dÊ²
ĠpËĪÉĳmÊ²ÊĮ tÊ²Éª
ĠvËĮÉ¨kÉĶ nËĪa
ĠdÊĳa wËĪa
Ġvy puskËĪÉĳ
ĠsÉŃËĪo vÊĮ
ĠvÊĮprËĪo sÊĮf
i zÊĮ
ĠsÊ²tÊ²ËĪi ÉŃÊ²i
tÊ²i rËĪÉĳ
ĠaÉŃkÊĮ É¡ËĪo
rÊ²i t
dnÊĮ m
Ġt vÊ²ËĪer
vËĪÉĳ r
Ġa zËĪÉĳ
ĠbÊĮÉŃÊ²ËĪeÊĳ n
Éķix sÊ²ÊĮ
s rËĪo
Ġst ÉĶ
ĠvÉ¨ sËĪÉĶ
ĠÊĮbu tÊĥÊ²ËĪenÊ²ija
Ġz rÊ²ËĪi
vÊ²ËĪe ÉŃ
É¡ rËĪÉĶ
ÉŃËĪÉĳ n
ĠvËĪy bÊ²irÊ²i
ĠtÊ²iÉŃÊ²ifËĪo na
tÊ²iÉŃnÊĮ m
ji ÊĴ
ĠnuÊĴ nËĪÉĳ
ĠsËĪum my
Ġxra nÊ²ËĪenÊ²ija
ĠzËĪÉĳ j
ĠvÊĮrÊ²iËĪÉĳ ntÊĮf
k ËĪÉĶÉķtÉķi
ĠpËĮÉĶ d
ĠsvÊ²ËĪe ta
ĠvÊ²ËĪersÊ²i Éª
vÉŃÊ²i ny
ĠÉªntÊ²in sÊ²ËĪi
ËĪo m
ĠsÊĮÊĴa ÉŃÊ²ËĪenÊ²iju
ĠvËĪy ja
0 5
ta j
bÊ²ËĪi tÊ²sÊ²ÊĮ
ĠrÊĮdÊ²ËĪi tÊ²iÉŃÊ²Éª
stvÊ²i nnyj
ĠpravÊ²ËĪi tÊ²iÉŃstva
i nt
ĠstrÊ²i mÊ²ËĪi
Ġu ÉŃ
ĠvÉŃÊ²iËĪja nÊ²ijÉª
ĠpÊĮstËĪÉĳ vÊ²itÊ²
Ġf ËĮi
ĠprÊ²iÊĳidÊ²ËĪe nta
ĠpÊĮÉŃu tÊĥÊ²ËĪenÊ²ijÉª
ÊĴy mËĪÉĳ
ĠËĪo bu
sty j
f y
ĠnËĪÉĳ mÊ²Éª
ĠpÊĮ stupËĪÉĳ
Ġn ËĮÉĶ
tÊ²ËĪi tÊĥÊ²iskÊ²ij
Ġo n
ĠpÉŃËĪo xÊĮ
ĠkrËĪÉĳ jnÊ²i
ĠvypÊĮÉŃ nÊ²ËĪÉĳtÊ²
ĠÊĮbrÊĮzÊĮ vËĪÉĳnÊ²ijÉª
tsyÊĮ nÊ²ËĪe
sÉŃËĪu ÊĴ
ĠÉĽ mËĪo
vËĪo du
ĠpÉŃa sÊ²tÊ²ËĪi
ĠprÊĮ ku
sÊ²ËĪe t
Ġs mËĪÉĳ
ĠktËĪur É¨x
tÊ²ËĪi tÊĥÊ²iskÊĮvÊĮ
ĠprÊ²i da
ĠspÊ²itsyaÉŃÊ²ËĪi stÊĮf
ĠspÊĮsËĪob stvujit
tÊ²i kÊ²i
tÊ²i ku
ĠvÊ²i ÉŃÊĮ
ĠvÉ¨ dËĪa
ĠÊĴËĪyd kÊĮsÊ²tÊ²Éª
ĠbÊ²i zu
u t
ĠprÊ²iÊĳidÊ²ËĪe nt
ĠspÊ²itsy ËĪÉĳÉŃnyjÉª
ĠrabËĪo tÊĥÊ²ij
Ê²ËĪÉĳ tÊ²
ĠÊĮb ÉŃÊ²ik
wÉĶ n
ĠnÊĮpra vÉŃÊ²ËĪenÊ²ija
b l
x ÉĽ
ĠËĪop ÉķivÊĮ
Ġ rÊ²ËĪedkÊĮ
ĠrÊ²iÉ¡uÉŃÊ²ËĪÉĳ rnÊĮ
ĠnuÊĴ nËĪy
Ġd ËĪy
j ËĪÉµ
ĠnÊĮstÊĮËĪja Éķij
ĠrÊĮz ru
tnÊĮ sÊ²tÊ²Éª
ĠvzrËĪos ÉŃyx
ĠsÊĮ znËĪÉĳ
stvÊĮ mÊ²Éª
ĠÉ¡ÊĮ spËĪo
ĠrÊ²iÊĥËĪy tÊ²
Ġnaj lËĪÉĽp
ËĪi ÉŃ
Ġtu dËĪÉĳ
ÉŃÊ²ËĪÉĳ jit
ĠÊĮtmÊ²ËĪe tÊ²iÉŃ
ĠpÉŃat fËĪor
ĠtÊĥÊ²iÉŃÊĮvÊ²ËĪe ku
pÊ²i sÊ²
ĠÉªspËĪoÉŃzu ja
Ġv ËĮi
l nËĪÉĽÉ¡ÉĶ
ĠkÊĮn fÉŃÊ²ËĪi
ĠbÊĮÉŃÊĥynst vÊ²ËĪe
skÊĮ f
É²i m
nÊ²i na
pÊĮ tÊ²ËĪe
Ġza stËĪÉĳ
Ġv ru
p ÊĥÉĽ
ĠzÊĮ rabËĪotÊĮ
ĠunÊ²i tÊĥÊ²
ĠprÊĮtsydËĪu ra
or d
ĠpÊĮdrËĪob nÊ²ijÉª
É¡ra m
2 7
b ÉŃËĪo
st nÊĮj
0 3
zÊĮ vËĪÉĳtÊ²
ĠP a
ĠutÊĥÊ²ËĪity vÊĮtÊ²
ĠfÊĥËĪÉ¨st kÊ²ÉĽ
Ġfud bËĪoÉŃ
vÊ²ËĪi zÊĮ
Ġd mÊ²ËĪitrÊ²i
ĠËĪin nÉ¨x
Ġp ÉŃÊ²ËĪÉĳ
ĠrasÊ²tÊ²ËĪe nÊ²ij
mÊ²ËĪe rnÊĮ
ĠrazmÊ²ËĪe ry
ĠrasÉķËĪi ty
ĠÊĮstËĪÉĳ vÊ²itÊ²
ĠrÉĶ z
ĠnÊĮzyvËĪÉĳ jut
Ġ >
v Ê²azËĪÉĳ
Ġf xËĪodÊ²it
mÊĮ jÉª
ĠpÊĥËĮÉ¨ É¡ÉĶt
ĠprÊ²i bËĪo
ĠpÊĮÉŃÊĮ ÊĴËĪÉĽnÊ²ija
ÊĥËĪÉĽ É¡ÉĶ
v stvÊ²ËĪi
ĠÉ¡ ËĮÉĶ
ĠdÊĳ ÉĽ
ĠpÊĮjavÊ²ËĪi ÉŃÊĮsÊ²
ĠtËĪÉĳ j
ĠpËĪo ÊĴÊĴy
ÉĽk ËĪa
ĠprÊ²iÉŃÊĮ ÊĴËĪÉĽnÊ²ija
ĠÉĽnÊ²ËĪerÉ¡Ê²i Éª
ĠÉĶ bËĪÉĽ
fÊĥy m
ĠpÊĮs rÊ²ËĪed
ĠpÊ²ËĪer vÊĮja
e a
ĠrassmËĪotrÊ²i m
ÑĢ Ð°
ĠtÊĥÊ²ËĪe mu
tÊ² jËĪja
É² tÉķi
ÊĳËĪi tÊ²
ĠpÊĮ stra
Ð Ł
ĠzÊĮja vÉŃÊ²ËĪenÊ²ija
ĠsÊ²ËĪerd tsa
ÉŃ ÉŃÊ²ËĪe
ĠÊĮsnÊĮ vËĪÉĳnÊ²ija
ĠÊĮ stÊĮrËĪo
dËĪÉĳ tÊ²iÉŃÊ²ÊĮ
ĠprÊ²iparËĪÉĳ ta
É¡ ji
Ġt ËĪoÉŃ
ĠkËĪÉĳÊĴ dÊĮm
ÉŃÊ²ËĪe tÊ²nÊ²i
ĠÊĴur naÉŃÊ²ËĪi
Ġd wËĪu
ĠtÊ²ËĪe mu
ĠkÊĮtËĪorÊĮ mu
ĠmËĪÉĳ ma
ĠÉĶst ËĪat
Ġda vÉŃÊ²ËĪenÊ²ija
ĠpÊ²i rÊ²ËĪed
znÊĮ jÉª
ĠdÊĮ kazËĪÉĳ
2 8
ĠdvÊ²ËĪiÉ¡ÊĮ tÊ²iÉŃÊ²ÊĮ
ĠpÊĮdÊĮ jdÊ²ËĪet
Ġv ÉŃÊĮ
ĠtÊĥÊ²itËĪÉĳ jtÊ²i
ĠbËĪy stry
Ġa f
tÊ²ËĪi t
É¡ÊĮ vÊĮ
Ġupra vÉŃÊ²ËĪÉĳ
ĠtÊ²i ËĪÉĳ
ĠmunÊ²itsy pËĪÉĳ
ĠpÉŃËĪoÉķÊĮ dÊ²Éª
nÊĳ ËĪi
na t
ĠpÊ²ËĪi ÉķÉª
ĠbÊ²i bÉŃÊ²i
kËĪÉĳ m
ĠnËĪÉĳtÊĥÊ²ÊĮ ÉŃ
ĠÉ¡rËĪÉĳdu sÊĮf
ĠÊĮ vÊĮ
Ġk tËĪu
ĠvÊ²i nËĪo
ĠrÊ²iÊĥËĪy ÉŃÊ²Éª
ĠzÊĮbÊĮÉŃÊ²i vËĪÉĳnÊ²ijÉª
ĠÊĮtvÊ²ËĪetstvÊ²i nnÊĮstÊ²
ĠÉªsp ËĪy
Ġza tÊĥÊ²ËĪem
ÊĴËĪÉĽ j
ĠvËĪy jasÊ²
rÊ²ËĪe zÊĮ
c o
ĠprÊ²iÉ¡ÊĮtËĪo vÊ²itÊ²
ĠdËĮÉĶ datk
ĠmÊ²itËĪo dÊ²i
ĠÉ¡Ê²i pÊ²ir
Ġza bËĪy
Ġda ËĪjut
ĠmÊĮ ÉŃ
ĠznËĪÉĳ nÊ²ija
ĠÉ²ËĪi x
ĠmËĪÉĶÊĴÉĽ Êĥ
Ġa na
ĠmËĪo z
fÊĮr mÊ²i
É²ËĪi ki
dÊĮ vÊĮtÊ²
z ÉĽ
Ġm É²Ê²ÉĽ
ĠnÊ²i zna
j tsa
znÊĮ ja
ĠÉĽkspÊ²i rÊ²i
rÊĴ ËĪy
ĠtÊĮ kÊĮ
vËĪa É²Ê²ÉĽ
Ġvy xÊĮd
Éª n
Ġkva drËĪÉĳ
ĠÊĥËĪÉ¨ p
pu sÊ²tÊ²ËĪitÊ²
ĠÊĮpÉŃËĪÉĳ ty
ĠÊĴËĪy tÊ²iÉŃÊ²ij
Êĥ nËĪoj
ĠmÊĮ ËĪÉª
É¡Ê²i ja
sÊ²tÊ²ÊĮ x
ÉķËĪe stvÊ²innÊĮ
ĠtrËĪÉĳn spÊĮr
Ġ20 22
ĠsÊĮtrËĪudnÊ²i kÊ²Éª
rÊĮ sÊ²sÊ²ËĪi
tÊĥÊ²ËĪi tÊ²sÊ²ÊĮ
ĠrÊ²ikÊĮmÊ²indËĪÉĳ tsyÉª
ĠstrÊĮËĪi tÊ²iÉŃstvÊĮ
ĠnËĪo vÊĮja
t rÊ²ËĪe
ĠsmËĮo É¡ut
ĠÉªntÊ²ÉĽ rÊ²isËĪu
ÊĴËĪy ÉŃ
n jjÉª
ĠvrÊ²i mÊ²ËĪe
na x
ĠkËĪomp ÉŃÊ²iks
mËĪo tr
ĠxÊĮÉŃÊĮ dÊ²ËĪiÉŃ
ĠmËĮoÊĴy m
mÊ²ËĪe trÊĮf
tÊĥÊ² kÊĮmÊ²Éª
Ġna bËĪor
ĠprÊ²id ËĪu
ĠrËĪy nÊĮk
* *
ĠnÊ²i dÊ²ËĪeÉŃ
Ġd ËĮÉ¨
Ñ İ
ĠznËĪÉĳ jitÊ²i
ĠpÊĮd vÊ²ËĪe
ĠÉ¡raÊĴdËĪÉĳ n
ĠtÊĮvËĪÉĳ ry
ĠzÊĮkÊĮnÊĮ dËĪÉĳtÊ²iÉŃ
ĠvÊ²ËĪÉĽ lu
ĠÊĮtvÊ²ËĪetstvÊ²i nnÊĮsÊ²tÊ²Éª
Ġz dËĪÉĳnÊ²ija
vrÊ²ËĪe mÊ²i
ĠprÊ²imÊ²i nÊ²ËĪÉĳjitsÊĮ
sÊĮ n
ĠÊĮtrÊ²i tsËĪÉĳ
ĠÊĴyÉŃËĪÉĳ tÊ²iÉŃnÊĮ
Ġzna tÊĥÊ²ËĪenÊ²ija
É² Ê²i
% ,
ĠkËĪo pÊ²i
Ġ tÊ²u
i e
ĠÉªntÉĽrnËĪÉĽt mÊĮÉ¡aÊĳËĪi
ĠpÊ²irÊ²i mÊ²ËĪe
ÊĴÉ¨ stËĪa
Ġi P
tÊĥÊ²ËĪÉĳ tÊ²sÊ²ÊĮ
m m
nËĪosÊ²i t
ĠÉŃÊ²i tÊĥÊ²ËĪe
sÊĮ jidÊ²i
ĠÊĮrÉ¡ÊĮnÊ²izËĪÉĳ tsyj
ĠpÊĮ rËĪÉĳ
Ġb ËĪÉĳÉŃ
rÊĮ pÊ²i
ÉŃÊ²ËĪi sÊ²
Ġ15 0
ĠÊĮrÉ¡ËĪÉĳ ny
j ËĮÉĽ
ĠprÊĮstrËĪÉĳn stvÊĮ
ĠprÊ²i ËĪjatnÊĮ
tÊ²ir Ê²Éª
Ð Ĺ
ĠËĪu ÉŃ
ĠsÊĮx ranÊ²ËĪitÊ²
Ġza pËĪÉĳ
ĠpÊ²itËĪÉĳ nÊ²ijÉª
Ġf rËĪuk
ĠÊĮtkrËĪy tÊ²
ĠbÊĮÉŃÊĥËĪo vÊĮ
Ġd ÊĴËĪo
ĠmÊĮÉŃy ÊĥËĪÉĳ
vËĪÉĳ ÉŃÊĮsÊ²
ĠnËĪo vuju
ĠdÊ²irÊ²ËĪe va
mÊ²ËĪe ntÊĮmÊ²Éª
ĠmÊ²ÉĽ ÊĥkËĪa
ĠpÊĥÉ¨pËĪat ku
ĠvÊ²ËĪÉĽ Åĭk
Ġsrav nÊ²ËĪenÊ²iju
ĠpËĪoÉŃ nyj
ĠkvartÊ²ËĪi rÊ²i
ĠrÊĮz É¡ÊĮ
ÉĶv ËĪÉĶ
Ġstan dËĪÉĳr
ĠÊĮrÉ¡anÊ²ËĪiz mÊ²i
ĠkÊĮtËĪory mÊ²Éª
Ġzm Ê²ËĪa
É¡ËĪÉĳ jit
vËĪy mÊ²Éª
ĠvÊĮ dÊ²ËĪe
bÊ²ËĪi r
tsyÊĮ nÊ²ËĪi
q u
Ġd nÊ²ËĪem
ĠsÊ²i rÊ²idÊ²ËĪi
ĠÊĮbjjËĪe ktÊĮf
Êĥ to
ĠassÊĮ rtÊ²i
sÊ²i ja
Ġv ËĮÉĶ
ĠaftÊĮmÊĮbÊ²ËĪi ÉŃÊ²ij
Ġv nËĪof
ĠsvÊ²ËĪÉĳ Êĳ
É¡ÊĮ ÉŃ
ĠnatÊĥÊ²ËĪÉĳ ÉŃÊĮ
ĠkÊĮm mÊ²ËĪer
rÊ²ËĪi j
ĠzÊĮ intÊ²ÉĽrÊ²i
p e
ĠmÊĮjËĪe j
ÉŃÊ²ËĪe k
tÊĥÊ²i vÊĮtÊ²
ĠmÊĮ rÊ²i
ĠÊĥtËĪo p
st nyx
Ġak sÊ²i
ĠpÊĮ ssaÊĴËĪy
ĠspËĪosÊĮbÊĮ f
ÉŃÊĮÉ¡Ê²ËĪi tÊĥÊ²iskÊ²ijÉª
ĠsÊĮ ÉŃ
ĠtÊ²ËĪek st
tsyËĪo nnÊĮj
Ð Ĳ
ĠktËĪu ÊĴÉ¨
Ġs vÊ²idÊ²ËĪenÊ²ija
rÊ²ËĪe ja
sty x
ĠkÊĮntËĪÉĳ kt
ra tËĪo
ĠbËĪu k
Ġza tËĪo
vÊ²ËĪer x
ĠpËĪo ÉŃnÊĮj
ka r
ĠnËĪa m
ĠvËĪybÊ²irÊ²i tÊ²i
ĠmÊ²ixa nÊ²ËĪi
ĠÉķitËĪÉĳ jut
ĠdÉĶ stËĪÉĽmp
b ËĮÉĽ
Êĳ dÊ²ËĪeÉŃ
nÊĮ sÊ²ËĪitÊ²
ĠpÊĮÊĴËĪÉĳÉŃuj sta
in e
Ġd É²Ê²ËĪa
snÊĮ jÉª
ĠÉ¡ÊĮ rÊ²i
tÊ²ËĪÉĳ É¡Ê²i
nst rËĪuk
Ġ Z
h o
ĠkvartÊ²ËĪi ru
ĠpÉĶd ËĪÉĶ
ĠpËĪoi sk
ĠvÊ²ËĪi du
Êĥ kÊĮmÊ²Éª
É¡ nÊ²ËĪi
Ġnaj dÊ²ËĪe
d nÊ²ik
da tÉķ
ĠÉŃÊĮ bÊĮ
Ġsub jjËĪe
ĠnÊ²i prÊĮ
ĠÊĮp Ê²ËĪÉĳtÊ²
ĠsÊĮvÊ²ËĪe ty
ĠtÊĥÊ²i rÊ²i
ĠdÊ²irÊ²ËĪe ktÊĮr
ĠpÊĮd nÊ²imËĪÉĳ
Ġvy Êĥy
vËĪÉĳ nÊ²iju
ĠËĪÉª sÊ²tÊ²i
tÊĥÊ²i ka
ĠÊĮfÊ²itsy ËĪÉĳÉŃnyj
Ġby vËĪÉĳjut
Ġku r
ĠupraÊĴ nÊ²ËĪenÊ²ija
ĠdÊĮ mËĪof
dÊ²ËĪi t
ĠsvÊ²ËĪer xu
i o
ĠdÊĮ stÊĮ
ntÊĮ x
ĠutÊĥÊ²ËĪÉĳ stÊĮk
ËĮa w
nk Ê²ËĪe
É¡ËĪo n
v er
ĠutÊĥÊ²ËĪÉĳst ka
ĠzadËĪÉĳ tÊĥÊ²Éª
ĠprÊ²itÊĥÊ²ËĪi na
ÉŃnÊĮ mu
ĠnÊĮtÊĥÊ²inËĪÉĳ jut
Êĳi ja
ĠpÉŃËĪoÉķÊĮ tÊ²
ÊĮbÊĮ rËĪot
ĠÊĴyÉŃËĪÉĳ nÊ²ijÉª
ĠÉªspËĪy ty
ĠpÊĮÉŃutÊĥÊ²ËĪi ÉŃÊ²Éª
bËĪy x
ĠvnËĪutrÊ²i nnÊ²ij
vËĪu t
nÊ²i jij
ð Ł
Ġt ÉĽ
Ġb ÉŃËĪok
ĠpÊĮd rËĪu
ta x
ÉŃÊĮ jÉª
ĠvËĪypÊĮÉŃ nÊ²itÊ²
ĠjÉª kÊĮtÊ²i
ĠfÊĥËĪÉ¨st kÉĶ
t ËĪÉĶr
ĠkÊĮmpÊĮ ÊĳËĪi
p o
ĠÉŃËĪutÊĥÊ² Êĥyj
É¡ w
dÊ²ËĪe rÊĴÊĮ
Ġp l
ĠvËĪy ÉŃÊ²i
ĠvËĪypÉŃÊĮ ty
ĠpÊĮÉŃËĪutÊĥÊ²i tsÊĮ
d e
ĠpÊĮ sÊ²ËĪe
ĠvËĪÉĳ Êĥu
ĠuspÊ²ËĪe ÊĥnÊĮ
ĠsÊ²ËĪi x
ĠmnÊ²ËĪe nÊ²ijÉª
Ê²ËĪÉµ x
ĠtÊĥÊ²it vÊ²ËĪer
É¡ËĪÉĶ d
p tÊ²ËĪi
ĠprÊ²ËĪiznÊĮ kÊ²Éª
ĠÉ¡ÉŃËĪÉĳ vnÊĮja
ĠmÊ²ËĪe bÊ²iÉŃ
mÊĮ tÊ²i
Êĥy tÊ²
Ġ rÊ²ËĪet
s tsy
ĠprÊ²i by
ĠmÊĮÉŃÊĮ dÊ²ËĪe
ĠprÊ²i s
. |
ĠÉ¡ wËĪu
Ġby tÊĮ
rÊ²ËĪi ÉŃ
Ġza rÊ²ËĪÉĳ
ĠvÊ²ËĪerx nÊ²ij
ĠsÊĮÊĮpÉķËĪi ÉŃ
ĠmÊĮ nta
ĠsrÊ²ËĪed nÊ²im
Ġts ÉĶ
Ġku pÊ²ËĪi
ĠsÊĮvÊ²ËĪe ta
ĠdÊ²i f
ĠkËĪÉĳÊĴdÊĮ ja
ĠvÊ²i nÊĮ
b nyjÉª
ĠkËĪonku r
ĠpÊĮÉŃnÊĮ tsËĪÉĽ
Ġtra dÊ²ËĪi
ĠpÊĮÉŃËĪutÊĥÊ²i tÊ²i
ĠÉªdÊ²i ËĪÉĳÉŃnÊĮ
ĠprÊĮvÊ²ËĪer kÊ²Éª
ĠpÊĮkËĪup kÊ²Éª
ĠsmÊĮt rÊ²ËĪitÊ²i
ĠprÊĮbÉŃÊ²ËĪe mu
Ġspu sÊ²tÊ²ËĪÉĳ
ĠmÊ²iÊĴduna rËĪo
ĠvÉŃa dÊ²ËĪe
Ġnast ËĪoÉŃkÊĮ
ĠtÉķ ËĪÉĶ
ÉķËĪe r
ĠtsËĪÉĽ n
ty mÊ²Éª
ĠpÊĮ vËĪodu
dËĪu jÉĽ
Ġdla tËĪÉĽÉ¡ÉĶ
n lËĪinÉĽ
ĠdÊ²ËĪevu Êĥyk
Ġu p
ĠÉŃÊ²ËĪi dÊ²i
ĠnÊ²i rÊ²ËĪedkÊĮ
ĠpÊĮja vÉŃÊ²ËĪenÊ²ija
ĠbÊ²ibÉŃÊ²i ÊĮtÊ²ËĪe
ĠvÊ²i rtÊ²i
ĠtÊ²ËĪe mÊ²i
ĠrÊ²iÊĥËĪy ÉŃ
tËĪo vÊĮ
ĠuspÊ²ËĪe Êĥ
0 2
ĠGo ogle
ĠpÊĮ strËĪoji
dËĪÉĳ ja
ĠavÊ²i Ê
ĠavÊ²iÊ Į
Ġs na
b ÉŃÊĮÉ¡ÊĮ
ĠsvÊ²ËĪÉĳzÊĮ nÊĮ
ku ÉŃ
Êĥ ËĪÉĶ
ma n
v nuju
ĠsÉŃËĪÉĳ bÊĮ
ĠÉªspËĪoÉŃzu jtÊ²i
ĠÊĮprÊ²idÊ²i ÉŃÊ²ËĪi
ĠÉĽtËĪÉĳ pÊ²i
ndÊ²i ks
kwa d
ĠsÊĮ r
0 7
Ġk rÊ²idÊ²i
ĠprÊ²itÊĥÊ²ËĪi nÊ²i
ĠprÊĮiz vËĪodÊ²itsÊĮ
ĠÉŃÊ²i tsy
ĠÊĮbra s
ĠsrËĪo ka
5 5
ktÊĮ mÊ²Éª
Ġs nËĪÉĳ
Ġda vËĪÉĳjtÊ²i
spÊĮ mÊ²inËĪÉĳ
ĠpÊĮdÊĮ brËĪÉĳtÊ²
tÊĥÊ²ÊĮ t
ĠsÊĮ vÊ²ËĪet
vÊĮ mÊ²Éª
dËĪa É²Ê²a
dtsÊĮ tÊ²
ĠrÊĮ spÊ²i
Ġza pÊ²ËĪi
k rÉĽ
rÉĶ d
ĠprÊ²idstËĪÉĳvÉŃÊ²i ny
ĠumÊ²ËĪe nÊĥy
ĠnËĪa t
ĠfËĪÉĳktÊĮ rÊĮf
ĠtsËĪy f
vÊĮ vÊĮtÊ²
strËĪo i
Ġa m
ĠÊĳ ËĪi
Ġ19 8
ĠfËĪo nÊ²i
h one
ĠdvÊ²ËĪer Éª
ĠnÊĮ vÊ²i
ĠrÊĮ sÊ²sÊ²i
Ġap tÊ²ËĪe
ĠÊĮ tÊĥÊ²
ĠÉª nÊĴy
ĠpÊĮtsyjËĪe ntÊĮf
ĠrÊ²ib Ê²ËĪÉµ
ĠuÉŃu tÊĥÊ²
ÉŃÊĮ É¡Ê²Éª
Ġzna j
ĠÉķ rËĪÉĶ
vÊĮ juÉķijÉª
ra bËĪÉĳty
Éķ ÉĶ
ĠvuÉŃ kËĪÉĳn
1 00
ĠdÊĮstËĪÉĳ fka
e g
xÊĮ ÉŃÊ²Éª
zËĪu jÉĽ
ĠmÊĮÉ¡aÊĳËĪi nÊ²i
Ġza j
ĠprÊĮtsËĪÉĽ ntÊĮf
o ur
Ġ201 1
ĠbËĪardÊĳ ÉĽj
ĠkËĪÉĳÊĴdÊĮ mu
ÉŃÊ²ËĮ ÉĽrdËĪÉĽ
3 3
ĠzÊĮmÊ²i sÊ²tÊ²ËĪi
ĠtÊĥÊ²ÉŃÊ²ËĪe n
Ġx ËĪi
ĠbËĪudu Éķim
tÊĮ n
ĠzanÊ²ËĪÉĳ tÊ²ija
ĠËĮÉĽmËĮÉĽ ÉŃÊ²ËĮÉĽrdËĪÉĽ
t vÊĮrÊ²ËĪi
ĠstanËĪo vÊ²ÊĮtsÊĮ
ĠnÊĮ tÊĥÊ²
tÊ²ËĪiv nyx
ĠrÊ²iÉ¡Ê²iËĪo na
d ru
ĠpÊĮnËĪÉĳdÊĮbÊ²i tsÊĮ
Ġl ËĪÉĶ
ĠËĮuÊĴÉ¨ tk
ĠÊĮ rÊ²ËĪe
spÊĮsËĪo bnÊĮ
ĠxÊĮtÊ²ËĪÉĳ t
tÊĮ jÉª
ĠvzÊĮimÊĮ dÊ²ËĪejstvÊ²i
Ġuda ÉŃÊ²ËĪitÊ²
Ġka kËĪuju
ĠÉķitËĪÉĳ jit
ĠÊĮx ÉŃa
z vÊ²i
ĠkËĪor pu
ĠstÊĮ ÉŃËĪo
Ġfrants ËĪus
prÊĮ tÊ²i
ĠmÊ²ËĪenÊ²i dÊĴy
ĠpÊĮja vÉŃÊ²ËĪÉĳjutsÊĮ
ĠsÊĮtsy ËĪÉĳÉŃnyx
ĠbumËĪÉĳ É¡Ê²Éª
ĠpÊĮdÊ²tÊĥÊ²i rk
ĠkÉŃËĪÉĳ ssa
ĠvÊ²i ntÊ²i
nÊĥ ËĪÉĳ
Ð Ĵ
Ġp ÉĽ
Ġa ÉŃÊ²i
ĠprÊ²idstavÊ²ËĪi tÊ²iÉŃÊ²Éª
ĠprÊĮ dvÊ²i
ĠutÊĥÊ²rÊ²i ÊĴdÊ²ËĪenÊ²ija
ĠÉªdÊ²ËĪe Éª
ÉŃÊ²i na
ĠËĪja É¡ÊĮ
ĠrÊĮsskazËĪÉĳ ÉŃ
ĠkËĪil ka
É¡ ËĮÉĽ
É²stf a
ĠÉŃÊ²i mËĪo
ĠÊĮ ÉŃÊ²i
Ġza kËĪu
ĠÊĮp sÉŃÊ²ËĪedÊĮvÊĮ
ĠsÊ²ivËĪodnÊ²ÊĮÊĥ nÊ²ij
2 9
Ġsta tÊ²ËĪi
ĠvÊĮ dÊ²ËĪitÊ²iÉŃ
ĠnÊĮ tÊĥÊ²a
s tsÉĽ
ĠÊĴËĪyÊĳ nÊ²i
É¡ lÉĶ
ĠadmÊ²inÊ²istrËĪÉĳ tsyÉª
mÊ²ËĪe ra
Ġk f
ĠvÊ²ËĪe sÊ²tÊ²Éª
rÊ²i sÊ²tÊ²ËĪi
z nyj
ĠpÊĮ ftËĪo
tsyËĪo nnyj
ts kÊĮvÊĮ
ĠpÉŃa nÊĥËĪÉĽ
ĠP ro
kÉŃËĪÉĳ tkÊ²Éª
ĠzËĪÉĳpÊ²i sÊ²Éª
ĠprÊ²i vÊ²idÊ²ËĪe
Ê²ËĪÉµ r
ĠÊĮstËĪÉĳ ÉŃÊĮsÊ²
k tÊ²ËĪej
tÊ²ir na
ĠÊĮtÉŃÊ²i tÊĥÊ²ËĪÉĳjutsÊĮ
ĠsÊĮvrÊ²imÊ²ËĪe nnyjÉª
ĠvÊ²irtÊ²i kËĪÉĳ
ÉŃy mÊ²Éª
rËĪÉĳ ÉŃ
st rÊĮf
ĠkÊĮza x
rËĪÉĳ ja
ĠÉĶ nlËĪinÉĽ
ĠËĪo stry
ĠÊĴy ÉŃÊ²ËĪi
ĠprÊĮizÊĮ ÊĥÉŃËĪo
da vËĪÉĳ
ĠpÊĮdÊ² dÊ²irÊĴËĪÉĳ
ĠkËĪo fÊ²i
ĠpÊĮprËĪo bu
ĠÊĮbrabËĪo tkÊ²Éª
ĠstËĪÉĳ dÊ²iÉª
ĠxudËĪo ÊĴ
ro id
Ġb ÉŃÊ²ËĪe
Ġtsy frÊĮ
Ġvd rËĪuk
ĠsÊĮtsy ËĪÉĳÉŃnÊĮj
j dÊ²ËĪe
Ġbu x
ĠuÉ¡ ÉŃÊ²i
ĠmÊĮ tËĪo
Ġv ÉĶ
ĠrËĪu k
ĠËĪa l
ĠfÊĮrmÊ²i rËĪu
bÊ²ËĪe t
ĠbËĪud tÊĮ
b Ê²ËĪer
tsyËĪo nnÊĮvÊĮ
Ì ģ
ĠrËĪo da
0 6
Ġna ÉŃÊ²ËĪi
d ÉŃÊ²Éĳ
ĠnÊ²ËĪiÊĴ nÊ²ij
tÊ²i ÉŃa
Ġna znËĪÉĳtÊĥÊ²i
rÊĮvÊĮ ÉŃ
ĠprÊ²ËĪess sÉŃËĪuÊĴ
ĠdÊĮrÊĮ É¡Ê²ËĪi
ĠvÊ²ËĪersÊ²i ja
ĠzÊĮnÊ²imËĪÉĳ jit
ĠpÊĮkËĪÉĳ zÊĮ
ĠÊĮ pÊĮ
Ġfu ndËĪÉĳ
ĠnÊ²iÊĮpxÊĮdÊ²ËĪimÊĮ stÊ²
ĠkÊĮntrËĪo ÉŃ
nÊĮ prÊ²imÊ²ËĪer
ĠvËĪo fsÊ²i
z ji
ĠrÊĮsÊ²sÊ²ËĪij skÊ²ix
Ġpa rËĪo
Éķ ËĪu
pËĮÉĽ ËĪÉĽl
ĠmËĪÉĳ s
ĠmËĪÉĳ ksÊ²i
tÊĥÊ²ËĪ om
ĠvÊĮÊĳdÊ²ËĪejstvÊ²i ja
ĠÊĮ dÊ²inËĪo
ĠvÉŃÊ²iËĪja jit
ĠprÊĮda f
ĠmËĪÉĳ tÊ²irÊ²Éª
ĠknÊ²ËĪi É¡a
nÊĮ ÉŃÊ²i
nÊ²i tËĪÉĳ
ĠtakÊ²ËĪi mÊ²Éª
nnÊ²i ka
ĠsËĪu tÊĮk
ĠsÊ²ËĪe rÊ²iÉª
rÊ²ËĪi n
ĠËĮÉĶ tÊĥÉ¨
É¡ lËĪÉĶ
ĠvËĪybÊĮ rÊ²i
tÊ²i kÊĮf
ĠrÊĮ tsyËĪo
ËĪÉĳÉŃ nymÊ²Éª
ĠrÊĮznÊĮ vÊ²ËĪidnÊĮ
ĠzÊĮ tÊĥÊ²a
ĠnÊĮ ÊĮbÊĮrËĪot
mnÊĮ ja
ĠzÊĮ vÊ²i
ĠprÊ²iÊĥÉŃËĪo sÊ²
ĠparËĪÉĳ mÊ²it
ËĮÉĽ f
ĠjÉªdÊ²i nÊ²ËĪi
ĠtÊĥÊ²imÊ²pÊ²i ÊĮnËĪÉĳ
ĠstËĪo j
Éķi nËĪy
ĠÊĮ sËĪÉĳ
p ÉŃÊ²ik
ĠudÊĮ stÊĮ
ĠÉķ ËĪi
ĠËĪo strÊĮ
Ġsp ËĮÉĽ
vÊĮ ÉŃÊĮ
ĠtÊ²ËĪe pÉŃÊĮ
ĠÉ¡ÊĮÉŃËĪo vy
ĠvÊ²ËĪidÊ²i tÊ²
ĠsÊĮ ÊĮru
ĠnËĪÉĳtÊĥÊ²ÊĮ ÉŃÊ²Éª
ĠatmÊĮs fÊ²ËĪe
ĠkartËĪo fÊ²i
ĠsÊ²ituËĪÉĳ tsyju
ĠÊĳi r
s w
É¡ËĪÉĳ mÊ²Éª
Ð½ Ðµ
ĠsÉŃËĪutÊĥÊ²ÊĮ j
ĠprÊ²idpÊĮ tÊĥÊ²itËĪÉĳ
Éķi mu
ÊĴnÊĮ jÉª
ĠsÉŃÊ²ËĪi Êĳi
ĠpÊĮ m
ĠvybÊ²irËĪÉĳ tÊ²
ĠbËĪonu s
ĠÉªz É¡ÊĮtÊĮvÉŃÊ²ËĪenÊ²ija
rÊĮ jÉª
nÊĮ sÊ²ËĪi
vÊ²i ÉŃa
ĠdËĪo stu
ĠÉªzmÊ²i nÊ²ËĪitÊ²
ĠdËĪÉĳ ta
ĠsÊ²ËĪervÊ²i s
ĠfËĪo ru
ĠpÊĮkËĪÉĳzy vÊĮjit
w ËĪÉĽ
ĠsÊ²ËĪe tÊ²
ĠA nd
ĠkÊĮmËĪÉĳ nda
Ġm Ê²a
ĠÉªn tÊ²iÉŃ
ĠrukÊĮvËĪod stvÊĮ
Ġx ranÊ²ËĪi
ÊĥËĪy tÊ²i
ÊĥÊĥ tËĪÉĳ
ĠtÊĥÊ²u vstvÊ²ËĪi
st nyj
ĠtÊ²i ËĪo
ĠpÊĮÉŃu tÊĥÊ²ËĪÉĳjit
ĠprÊ²i pÊ²ËĪÉĳ
Ġka pËĪu
ĠkÊĮntrËĪo ÉŃÊ²ÊĮ
nÊ²i kÊĮmÊ²Éª
ĠkÊĮr pÊĮ
dÊ² mÊ²ËĪÉª
ĠtÊ²iÉŃÊ²i vÊ²ËĪizÊĮ
ĠÉªzmÊ²i nÊ²ËĪenÊ²ij
ĠÉĶbËĪÉĽ ts
tÊĮ tÊ²
ĠpÊ²irÊ²iÊĮ dÊ²ËĪi
ĠtÊĥÊ²ËĪÉĳ stÊ²jju
sÊ²i j
ĠvÊ²i zu
Ġtur nÊ²ËĪi
ĠpÊĮdÉ¡ÊĮtËĪo fkÊ²Éª
ĠpÊĮzd ra
ĠÉ¡ÉŃu bÊ²i
ĠpÊĮ vÊ²i
Ð ¤
Ġvy ja
vÊĮ kËĪÉĳ
ĠvÊ²ir nËĪutÊ²
ĠpÊĮtsyjËĪe nta
Ġk Ê²ÉĽ
ĠÉªÉ¡rÊĮ vËĪoj
Ġ201 0
Ġkra sËĪo
Ġt h
Ġv zy
ĠÉ¡ru d
Éķi kÊ²Éª
ĠnapËĪom nÊ²im
ĠsvÊ²idÊ²ËĪe tÊ²iÉŃ
v ËĮu
ĠvËĪozdu x
e st
ĠpÊĮvy ÊĥËĪÉĽnÊ²ijÉª
ĠsrÊ²ËĪedstvÊĮ mÊ²Éª
nÉĶ É²tÉķ
ĠaftËĪo bu
tr Ê²a
ĠsÊĮvrÊ²imÊ²ËĪe nnyx
ĠprÊ²i bÉŃÊ²i
ĠÉ¡ ËĪoÉŃy
ĠstrËĪÉĳ nÊĮx
ĠumÊ²i nÊĥËĪÉĳ
ĠaÉŃ tÊ²irna
ĠraÊĳdÊ²ËĪe ÉŃÊ²i
Éķf Ê²at
r tu
ĠkÊĮ ÉĽf
tÊĥÊ²i vÊĮjitsÊĮ
b nyx
7 5
ĠÊĴur nËĪÉĳ
ĠËĮa wtÉĶ
ĠprÊĮÉ¡rËĪÉĳm mu
ĠktËĪur É¨m
ĠdvÊ²i ÊĴËĪÉĽnÊ²ijÉª
l nÉ¨x
pÊ²i tÊĥÊ²ËĪÉĳ
k ËĮi
ĠdÊ²i vËĪÉĳ
l nËĪÉĶÉķtÉķi
0 9
ĠpubÉŃÊ²i kËĪÉĳ
p tÊĮ
ĠtrÊĮ n
É ²ËĮi
ĠkÊĮntsy ntrËĪÉĳ
Į s
ĠsËĮÉ¨ tu
ĠvÊĮz dËĪuÊĥ
Ê Įs
ĠËĮÉĶ sÉĶ
tÊ²ËĪiv nyjÉª
ËĮÉĽ rËĪÉĽ
ĠspËĪo rt
ĠËĮÉĽs ËĮÉĽs
ĠÊĮ kËĪo
Ġta rÊ²ËĪi
d Ê²ËĪÉª
Éķi mÊ²Éª
ĠmÊ²i d
ĠÉ¡rËĪÉĳ fÊ²i
fÊ²itsy jËĪe
ĠbËĪoÉŃÊĥy j
ĠrÊ²i a
ĠfÊĥËĪÉ¨st kix
jËĪÉĽ É²tÉķa
nÊ²ËĪi ÉŃÊ²Éª
ĠÉĽ ta
Ġz dÊĮ
ĠnÊĮ kazËĪÉĳ
ĠvËĪy z
Â °
lÉĽ j
ĠÊĴy nËĪÉĳ
ĠÉĶ kËĪÉĶ
ĠmÊ²iÉŃÉŃÊ²iËĪo nÊĮf
ĠsÊ²tÊ²ËĪi ÉŃ
ĠstÊĮ ÉŃk
sp ËĪÉĶ
ĠknËĪo pku
ĠpÉĶv ËĪin
ĠmËĪo rÊ²i
ĠsÊ²ËĪe vÊ²ir
ĠprÊĮtsËĪÉĽ nt
ĠsÊ²tÊ²i rËĪÉĳ
ĠsÉŃËĪu ÊĥÊĮ
ĠvËĪÉĳÊĥy mu
ĠpÊĮmÊĮÉ¡ËĪÉĳ jut
Ê²ËĪ o
vËĪo dÊĮf
ĠÊĮ É¡ÊĮ
g ram
ĠrÊĮz ÉŃÊ²i
ĠprÊ²i rËĪod
ĠznËĪÉĳ jut
ĠnÊ²i mËĪÉĳ
ĠbËĪÉ¨ wa
bnÊĮ ja
ĠpÊĮd ÉŃÊ²i
Ê ²ËĮi
ĠzÊĮ ÊĴy
ĠtsËĪÉĽ ÉŃÊ²ij
ÉŃÊ²ËĪi f
ĠËĪÉĶ n
ĠC o
d nÊ²ij
ĠÊĮÉķu ÉķËĪenÊ²ija
n tËĪo
É¡ ÉŃÊ²ËĪÉĳ
b rÉª
ĠkrÊ²ËĪe m
ĠÉĽ mÊĮ
l nÉ¨
ĠÊĮstaÉŃ nËĪyjÉª
ĠmÊ²ËĪÉĽjs tsÉĽ
É¡ÊĮ x
201 8
ĠÉªn vaÉŃÊ²ËĪi
ĠzÊĮtÊĥÊ²a stËĪuju
k Ê²ËĪÉĽÉ¡ÉĶ
ĠfÊ²i ksÊ²ËĪi
ĠÉªnÊĴy nÊ²ËĪe
ĠvËĪyz vÊĮtÊ²
nËĪu ÉŃÊĮsÊ²
stÉĶ s
ĠstËĪo ÉŃkÊĮ
ĠmÊ²ËĪe stu
9 5
ĠudÊĮvÉŃÊ²i tvÊĮ
ĠrÊ²istÊĮ rËĪÉĳ
ÉŃÊĮ É¡a
ĠL a
ĠËĪÉĳ ÉŃ
ĠÊĮfÊĮrm ÉŃÊ²ËĪenÊ²ijÉª
ts kÊĮj
t h
ĠtsËĪÉĽ ÉŃÊ²ÊĮx
Ġl ËĮi
fÊĥyx sÊ²ÊĮ
ĠmËĪo du
ĠkÊĮ t
É¡ÊĮ tËĪÉĳ
ĠpÊĮd tvÊ²ir
rËĪovÊĮ nÊ²ija
b ÉŃÊ²ËĪu
ĠkËĪÉĳ d
É¨ t
tÊĥÊ²i nÊ²Éª
ĠÉ¡ru p
ĠsmÊĮ É¡
ĠrabËĪo tÊĥÊ²ix
ĠbÊĮ rÊĮ
Ġna sËĪo
É¡ËĪu ju
ĠdÊĮsÊ²tÊ²i ÊĴËĪÉĽnÊ²ija
ĠprÊĮ tÊĥÊ²itËĪÉĳ
ĠÊĮbÊĮ ÉŃËĪo
. :
Ġu ÉŃËĪutÊĥÊ²
Ġra ÊĳdÊ²ËĪeÉŃ
ĠnÊĮzyvËĪÉĳ jitsÊĮ
ĠprÊ²ËĪiby ÉŃ
ĠdÊĮku mÊ²ËĪenta
ĠstÊĮrÊĮ nËĪÉĳ
ĠÊĮdÊ²ËĪe ÊĴdy
w rÉĶ
ĠzÊĮ pÉŃa
mÊ²ËĪe t
tÊĮ rÊ²i
ĠtËĪÉĽ ras
ru rÉ¡Ê²ËĪi
ĠrasxËĪo dy
ĠprËĪÉĳ zd
ĠbËĪÉĳ Êĳi
. ).
ĠuÉ¡ rËĪo
tÊ²ËĪe r
Ġru kËĪÉĳx
ĠzakËĪo nÊĮm
ĠÊĮbu tÊĥÊ²ËĪenÊ²ijÉª
ĠkÉĶ nt
Êĥ kÊĮ
f ÉĽr
ĠÉ¡ÊĮtËĪo f
ĠprÊ²idvarÊ²ËĪi tÊ²iÉŃnÊĮ
ĠprÊĮdËĪÉĳ ÊĴÉª
ĠsÉŃËĪo f
ĠsÊĮ s
ËĮÉĳ tËĪÉĽ
ĠxarËĪÉĳktÊ²i ra
Ġts ËĪaw
mÊĮ ja
ĠÊĮ sÊĮ
ĠtÊ²irapÊ²ËĪi Éª
Ġs ËĪÉ¨
Ġ Q
vÉŃÊ²i na
k tÊĥÊ²i
tÊĥÊ²i rËĪÉĳ
ĠpÊ²irÊ²i ÊĴy
rÊ²ËĪÉĳ jut
Ġv nÊ²ËĪe
ĠsÊ²irtÊ²i fÊ²ikËĪÉĳ
Ġu sÊ²i
Ġv rËĪodÊ²i
Ġjazy kËĪÉĳ
st nyjÉª
ĠÉªs xÊĮdÊ²ËĪÉĳ
ĠkÊĮÉĽf fÊ²itsyjËĪe
ĠrabËĪotÊ²nÊ²i kÊĮf
z ËĮÉĽ
ËĮÉĽ n
ĠkrËĪup nyx
Ġf or
n jja
p kÊĮj
ĠkrÊĮ sÊĮ
ĠdÊĮpÊĮÉŃnÊ²ËĪi tÊ²iÉŃnÊĮ
li vËĪÉĶÉķtÉķi
ĠprÊ²a mËĪy
ÊĥËĪÉĽ nÊ²iju
ĠvËĪa ÊĴ
ĠpÊĮrÊ²ËĪÉĳ dka
Ġsa xËĪÉĳ
tÊ²ËĪe nÊĳi
kËĪÉĳ tÊĥÊ²istvÊ²i
ĠsÉŃÊ²ËĪedu juÉķix
ĠkËĪu p
vÉŃÊ²ËĪe tÊĥÊ²
vÊ²i m
j dËĪut
natÊĥÊ²ËĪÉĳ ÉŃnÊĮ
É¡ÊĮtËĪÉĳ vÉŃÊ²i
ĠvÊ²iÉŃÊĮ sÊ²i
b r
t kÊĮmÊ²Éª
ĠnÊ²iiz vÊ²ËĪe
ĠprÊĮ zrËĪÉĳ
sÊ²tÊ²i n
Ġd rËĪÉĳ
ĠzÊĮvÊ²irÊĥ ËĪÉĽ
ĠprÊ²i tÊĥÊ²ËĪe
ĠÊĮpubÉŃÊ²i kËĪovÊĮ
b ÉŃ
nËĪosÊ²ÊĮ t
vÊ²ËĪi ru
nËĪÉĶ ÉķtÉķÉĶ
ĠtÊ²iÉŃÊ²ifËĪo nu
ĠmnÊĮÉ¡ÊĮ tÊĥÊ²ËĪisÉŃÊ²i
É¡ nu
ĠvËĪyi É¡ry
stnÊĮ jÉª
ÉŃÊ²i ts
ĠdËĪÉĳ nnÊĮja
ĠpÊ²ËĪe tÊĥÊ²inÊ²Éª
vÊĮ ÉŃÊĮsÊ²
Ġp lËĪa
ĠzËĪÉĳ m
ĠvËĪybÊĮ ra
ĠrÊ²izuÉŃtËĪÉĳ tÊĮf
vÊ²ËĪi ÉŃ
mËĪo tÊĥÊ²i
Ġs kËĪÉĳzÊĮ
ĠËĪu trÊĮm
ĠnÊ²i vÊ²ËĪe
ĠÉªÉ¡rÊĮ kËĪof
ĠxÊĮrÊĮktÊ²i rÊ²i
vi tÉķ
ĠpÊĮja vÉŃÊ²ËĪenÊ²ijÉª
3 6
vËĪÉĳ jutsÊĮ
tÊ² tÊ²ËĪÉª
Êĳ ËĪÉª
ĠËĮÉĽsËĮÉĽs ËĮÉĽsËĪÉĽr
ĠkÊĮ rÉª
tnÊĮ stÊ²
bÊ²i ËĪo
ĠvÊ²ir tu
Ġa ktÊ²ËĪi
ta l
ĠkËĮÉĶ n
ĠpÊ²ËĪi tÊ²
É¡ ranÊ²ËĪi
dnÊĮ sÊ²tÊ²Éª
ĠpÊĮ tËĪo
stËĪÉĳ na
ĠmaÊĥËĪy nu
stvÊ²i nnÊĮjÉª
ĠjËĪe vrÊĮ
ĠpÊĮdrÊĮ ÊĳdÊ²i
ĠpÊ²ËĪesÊ² nÊ²Éª
Ġs nÊĮ
pÊĮ k
ĠsËĪo brÊĮ
ĠsÊĮvÊ²irÊĥ ËĪÉĳ
Ġa vËĪÉĳ
ĠÊĴ ËĪu
ĠprÊ²idÉŃaÉ¡ËĪÉĳ jim
ĠdÊ²ËĪej stvujit
b li
ĠÉªzÊĮbra ÊĴËĪÉĽnÊ²ija
skËĪo rÊ²i
ĠËĪo ba
Ġ tÊ²ÊĮ
ĠÉŃÊ²ËĪe tÊĮm
Ġst rÊ²ËĪi
ĠpÊĮ bËĪo
ĠÉª skËĪÉĳtÊ²
ma il
ËĪit É¨
ÊĳËĪe r
f tsa
ĠrÊ²imËĪo nta
rÊĮvÊĮ tÊ²sÊ²ÊĮ
ĠdÊĮ bÊ²ËĪitÊ²sÊ²ÊĮ
ĠpÊĮdËĪÉĳ rÊĮk
Ġna rkËĪo
nst ru
ĠÉ¡ru zÊĮ
ĠbÊĮ r
Ġjazy kÊ²ËĪe
ĠÉª Éķi
ĠpÊĮ rtËĪÉĳ
ĠdËĪÉĶ mu
Ġrast vËĪor
ĠsÉŃu tÊĥÊ²ËĪi
sÊ²tÊ²i ka
tÊĥÊ²iskÊĮ mu
vËĪÉĳ jim
s sËĪo
Ġju rÊ²ËĪi
n n
ĠÉª É¡rÊ²ËĪe
ĠpËĪÉĽ w
Ġbu tËĪy
0 8
É¡Ê²i n
Éķi jisÊ²ÊĮ
t er
ĠÊĮb zËĪor
ËĪa d
Ġk ÉŃÊ²ËĪu
ĠmaÊĥËĪy na
Ġf prËĪo
Ġa rÊ²ËĪen
ĠsÊĮÊĮp ÉķËĪenÊ²ija
ĠÊĴËĪÉĽ rt
ĠpÊĮdËĪob nyjÉª
kËĪo r
Éķ ËĪÉĳÉŃ
ĠÉªz mÊ²ËĪe
ĠËĮÉĽm É¡ËĪÉĽ
Ġ3 6
ĠsÊ²tÊ²ËĪe pÊ²in
ĠsÊ²iÉ¡ nËĪÉĳ
ĠzÊĮmÊ²i nÊ²ËĪitÊ²
ĠdÊĮ vÊ²i
mÊ²i tr
Ġv wËĪÉĶ
kÊĮ vÊ²i
ĠpÊĮkazËĪÉĳ tÊ²
Ġma ÊĥÊĥtËĪÉĳ
ĠvysËĪo kÊĮja
Ġst ËĮÉĶ
tru d
vËĪÉĳ ÉŃsÊ²ÊĮ
ĠtsvÊ²i tÊĮ
k tsji
x kËĪÉĳ
ÉŃÊ²ËĪi na
ĠprÊ²i sÊĮjidÊ²i
ĠuvÊ²iÉŃÊ²ËĪitÊĥÊ²i tÊ²
ĠaksÊ²i ssu
ĠpÉĶ l
ĠnÊ²i kËĪÉĳk
tst ËĪa
Ġp ru
ĠpÊ²irÊ²i stËĪÉĳ
ĠÉªstËĪo rÊ²iju
tÊĥÊ²ËĪÉĳ ÉŃ
ĠsÊĮ rÊ²i
ĠÊĥtÊĥÉĽ É¡ËĪu
Ġ tÊ²ÉĽ
4 4
ĠpanÊ²ËĪe ÉŃÊ²Éª
ĠpÊĮ ÊĴy
ÉŃa rËĪu
ĠprÊĮsÊ²tÊ²itËĪu tkÊ²Éª
ĠnÊ²i isp
s wa
ĠrÊ²izuÉŃtËĪÉĳ tÊĮm
ĠpÉĶdËĪÉĶ b
ĠÊĮtÊ²ËĪe ts
ĠmÊĮdÊ²ËĪe ÉŃÊ²ij
mËĪu ju
ĠmÊ²ËĪe bÊ²iÉŃÊ²Éª
ĠprÊĮdËĪu kta
ĠjÉªÊĴydnÊ²ËĪe vnÊĮ
ĠkakËĪoj tËĪo
ÉŃÊ²ËĪe na
ĠËĪo vÊĮ
tÊĥÊ²i tÊ²
ww w
t kËĪa
ĠrËĪu ku
s e
Ġk tËĪÉĶ
ĠzËĪa fÊĥÉĽ
ĠpÊĮmÊ²i ÉķËĪenÊ²ijÉª
n skÊĮm
vÊ²ËĪÉĽ Åĭk
rËĪy f
ÊĴËĪy dÊĮ
j skÊĮvÊĮ
kÊĮ ÉŃ
ĠvÊĮ ÊĮru
j k
Ġj ËĪo
ĠkÊ²i nËĪo
tÊĥ nÉ¨
ĠpÊ²insÊ²i ËĪo
ĠprËĪoÊĥ ÉŃÊĮm
ĠpÊĮprËĪo bÊĮvÊĮtÊ²
dÉĽ n
ĠrÊĮz bÊ²irËĪÉĳ
z dnÊĮ
ĠdÊ²i pÊĮÊĳËĪi
jimÊĮ jÉª
ĠÊĮdÊ²dÊ²ËĪe ÉŃnyx
ĠpÉĶ tÊĥËĪÉĽ
mÊĮ ÉŃ
ĠÊĴyÉŃ jËĪja
ĠrËĪo ÉŃÊ²i
ĠpÊĮnÊ²ËĪÉĳ tnÊĮ
sÊĮ vËĪÉĳtÊ²
Ð ļ
Ġt rËĪÉĽ
ĠkÊĮs mÊ²i
n tsyja
vËĪod Ê²ÊĮtsÊĮ
bÊ²ir nËĪÉĳ
Ġd ÊĴ
Ġz É¡ËĪÉĶ
Ġa l
ĠËĪo sÊ²in
ĠstrËĪÉĶ nÉ¨
ĠxÊĮtÊ²ËĪe ÉŃ
ĠpËĮÉĶ zÉĶ
s ËĪÉĽ
ĠsÊ²i nd
ĠÉĶkËĪÉĶ wÉĶ
vÉĶ ÉķtÉķ
ĠkÉŃÊ²i nÊ²ËĪi
ĠbÊĮ ÉŃÊ²i
ÉĶvËĪa É²Ê²u
ĠtÊ²ixnÊĮ ÉŃËĪoÉ¡Ê²ija
Ġt kËĪÉĳn
Êĥ ÊĥËĪy
ÉķËĪe nÊ²iju
tÊ² mÊ²ËĪÉª
w ËĮa
ĠpËĪÉĶl stsÉĽ
rËĪy x
ĠsrÊ²ËĪe dy
lËĪÉĽ É²Ê²a
ĠnÊĮ ÉŃÊĮÉ¡ÊĮ
Ġv dÊĮ
ĠÉĽf Ê²ËĪi
juÉķi mu
n sy
ĠsËĪo rta
ĠjÉªsÊ²tÊ²ËĪÉĽ stvÊ²innÊĮ
ma tËĪo
b rÊ²ËĪi
Ġma j
ĠtsËĪÉĽ lu
ĠÊĥ tu
tÊĥ ËĪÉĽÉ¡ÉĶ
ĠdÊ²i tÊ²mÊ²ËĪÉª
rËĪÉĳ tsyÉª
ĠvnËĪutrÊ²innÊ²i x
ĠprÊ²ËĪinÊ²ÊĮ tÊĮ
la r
rÊ²ËĪe Éª
rÊ²izËĪÉĳ tÊ²
dËĪÉĳ nÊ²iÉª
ts ka
ĠtËĪa m
ĠutÊĥÊ²ËĪe ta
ĠÊĮ sÊ²tÊ²i
ĠpÊĮ ÉŃaÉ¡ËĪÉĳ
ĠmËĪoz É¡a
ĠpÊĮ ÊĴyÉŃËĪÉĳ
tsy m
nÉĽ m
ĠÊĮ dÊ²i
ĠÊĮtsËĪÉĽ nkÊ²Éª
ĠprÊĮtsËĪÉĽss y
ĠvÊ²irÊĮËĪjatnÊĮ stÊ²
Ġ %
ĠÉ¡ rËĪÉ¨
stf a
ĠpËĪoÉŃzÊĮvÊĮ tÊ²iÉŃ
ÉķËĪÉĳ jutsÊĮ
ĠdÊ²i nËĪÉĳ
sÊ²tÊ²ËĪÉĳ x
Ġu xËĪot
ĠbÊ²i sÊ²ËĪe
ĠnavÊ²ËĪe rnÊĮjÉª
ĠÉªnfÊ²ËĪe ktsyÉª
Ġu pÉŃËĪÉĳ
ĠazËĪÉĳ rt
ĠrËĪus skÊ²ij
ĠÊĮsnËĪo vy
nÊ²a ÉŃËĪÉĳ
ËĮÉĽ Åĭ
ĠnÊĮ mÊ²i
ËĪal É²Ê²ÉĽ
ĠfÊ²i sÊ²tÊ²i
ĠnËĪo vym
ĠrazvÊ²ËĪi tÊ²iju
ĠvÊĮ ji
Ġna stËĪÉĳ
ĠfËĪi r
ĠrÊ²ikÉŃËĪÉĳ m
ĠpÊĮ Êĳi
ĠtÊ²ixnÊĮÉŃËĪoÉ¡Ê²i j
3 8
ĠdÊ²iËĪÉĳ É¡nÊĮ
ĠvÊĮÊĳnÊ²iknÊĮvÊ²ËĪe nÊ²ija
ĠassÊĮ tsy
zÊĮ j
ÉŃËĪo ÊĴyn
ĠÊĳdÊ²ËĪeÉŃÊĮ ÉŃ
O S
dy xËĪÉĳ
Ġna sËĪy
z ÉĽnt
ĠtËĪysÊ²ÊĮ tÊĥÊ²Éª
tÊ²i m
Ġsu ÉķËĪestvÊ²i
rÊ²i k
âĢ¦ âĢ¦
ĠnÊ²iÊĮ ÊĴËĪydÊĮ
ĠjËĮÉĽ dnÉĶ
Ġs mËĪotrÊ²i
Ġs mÊĮtrÊ²ËĪe
ĠpÊ²isÊ² mËĪo
va Êĥ
ĠdaÉŃnÊ²ËĪej Êĥym
ktu f
ĠÊĳËĪer kÊĮÉŃÊĮ
ĠÉĽffÊ²iktÊ²ËĪivnÊĮ stÊ²
ĠtÊ²i k
ĠmÊ²i n
ĠprÊĮ d
ĠpÊĮd xËĪodÊ²ÊĮt
ÉŃÊ²ËĪÉĳ tsyja
r nymÊ²Éª
ĠpÊĮ rt
ĠprÊ²idus mËĪÉĳtrÊ²i
ĠÊĮbÉŃa st
ĠzadËĪÉĳ tÊĥÊ²
ĠdÊ²i ÉŃÊĮ
p rÉĶ
st nÊĮvÊĮ
ĠÊĮ f
ĠkËĪaÊĴ dÉ¨
ĠkÊĮrÊĮ ÉŃÊ²ËĪe
ĠpÊĮd xËĪot
ĠpÊ²irÊ²ËĪiÊĮ da
ĠprÊ²idstavÊ²ËĪi tÊ²iÉŃ
ĠdÊ²i ÉŃËĪÉĳ
ĠvËĪyvÊĮ t
ĠkËĪÉĳr tÊĮ
Ġ ?
dÊ²i nËĪy
ĠprÊĮÉ¡rËĪÉĳm mÊ²i
ĠfprËĪo tÊĥÊ²im
ĠmnËĪoÉ¡ÊĮ jÉª
s ËĪi
ĠpÊĮ ru
Ġ -
É¡ rÉĶ
j ËĪi
ĠÉ¡ÉŃËĪÉĳv nym
ĠmËĪyÊĥ tsy
ĠnÊ²idÊĮstËĪÉĳ tkÊ²Éª
ĠpËĪÉĳ spÊĮrt
Ġka kËĪovÊĮ
ĠpÊ²irÊ²i tÊĥÊ²ËĪisÉŃÊ²i
ÉŃÊĮÉ¡Ê²ËĪi tÊĥÊ²iskÊĮvÊĮ
Ġsa mÊ²ËĪi
ĠbÊ²i ÉŃarËĪu
ĠdÊĮpÊĮÉŃnÊ²ËĪi tÊ²iÉŃnyx
k sËĪÉĳ
tÉķ ËĪÉĶ
ĠrÊ²iÉ¡Ê²istrËĪÉĳ tsyja
nÊ²ËĪi t
rÊ²ËĪen tsyÉª
ĠkËĪux nÊ²Éª
ĠpÊĮ prÊĮ
n kÊĮx
bÊ²i rÊ²ËĪe
ĠpËĪom nÊ²itÊ²
ĠmËĪu Éķi
ĠsÉŃÊ²i xkËĪÉĳ
bÊ²i tÉķ
nËĪo s
ĠÉªn vÊ²ËĪe
ĠÊĮtnÊĮ ÊĥËĪÉĽnÊ²ijÉª
ĠvnÊ²i d
Ġarxi tÊ²i
ĠÉŃÊ²ËĪitÊĥÊ²nÊĮ sÊ²tÊ²Éª
ĠkrÊ²i tÊ²ËĪe
ĠsÊ²nÊ²i ÊĴËĪÉĽnÊ²ijÉª
ĠzËĪo ny
ĠtsvÊ²i tËĪy
Ġru ÉŃÊ²ËĪe
ĠmÊ²i k
Ġ1 000
tÊĥ nÉĽj
ĠËĮintÉĽr nÉĽt
ĠkrËĪu É¡
ÊĴy k
zv Ê²ÉĶ
ĠÊĮdÊ²dÊ²ËĪe ÉŃnÊĮ
ĠkÊĮÉŃÉŃÊ²i ktÊ²ËĪi
ĠmÊĮ rËĪo
ĠÊĮ tÊ²nÊ²i
ĠmÊ²irÊĮprÊ²iËĪja tÊ²ij
ĠsÊĮ prÊĮtÊ²i
ĠvÉŃadÊ²ËĪi mÊ²i
z vu
Ġs w
h i
ĠÊĮsta nËĪo
nnÊĮ sÊ²tÊ²ij
ĠÉªnvÊ²i sÊ²tÊ²i
Ð ŀ
mËĪu jÉĽ
ĠËĮi dÉĽ
ĠkËĪo ÊĴy
nÊ²i ÉŃ
ÉŃËĪo vÊĮ
ĠrËĮÉĶ spÉĶ
rËĪo fku
ĠdÊ²ikÊĮ ratÊ²ËĪiv
xËĪo dÊĮf
ĠËĪÉª mÊ²Éª
e le
É²Ê²ËĪÉĽ É²Ê²ÉĽ
Ġsp ËĪÉĳÉŃ
É¡ËĪÉĳ x
tÊĥÊ² nÊ²ik
t É²Ê²ÉĽ
ĠËĪo trÊĮ
Êĳi ÉŃ
ĠtrÊ²i vËĪo
Ð ľ
ĠsÊĮÊĮp ÉķËĪenÊ²ijÉª
tstvu jut
ĠÉ¡ÊĮ sÊ²tÊ²ËĪej
ĠtrÊ²ËĪebÊĮvÊĮ nÊ²ij
ĠdËĪÉĶb ÊĴÉĽ
l d
ĠpÊ²ËĪi Êĥyt
ĠnËĪo rmy
ĠmËĪy sÉŃÊ²Éª
ĠF a
jËĪe f
ĠvÊ²ËĪi dÊĮm
ĠÉŃÊĮbÊĮ ratËĪo
ÉķËĪe nÊ²ijim
ĠÉªsp rËĪÉĳ
ĠmËĪÉĳ tÊ²
ĠvÊ²ËĪi dnÊĮ
ĠÉª tÊ²tÊ²ËĪÉª
sÊĮ ÉŃ
ÊĴy vÊĮtÊ²
Ġdru ÊĳËĪej
ĠsÊĮrÊ²i vnÊĮ
ĠÊĮt kËĪÉĳzy
ĠÊĳËĪem ÉŃÊ²u
Ġd É²ËĪi
li ne
ĠÊĮÉ¡rËĪo mnÊĮjÉª
ĠpÊĮkrËĪy tÊ²ija
ĠprÊ²i mÊ²
ĠprÊ²idÉŃÊĮ ÊĴËĪÉĽnÊ²ijÉª
ĠvÊĮÊĳnÊ²ikËĪÉĳ jut
ĠÊĥ ËĮÉĳtËĪÉĽ
ĠrabËĪo tÊĥÊ²ijÉª
ĠznakËĪom stf
ĠspÊĮsËĪob ny
É¡r Ê²a
ĠÐ ¼
ĠÉŃÊ²itsËĪÉĽ nÊĳi
ËĪi É²Ê²ÉĽ
Ġsp ÊĥËĪÉĽ
ĠdÊĮ mËĪoj
e nt
ĠvysËĪo kÊ²ij
vÉŃa ÊĴ
Ġku sËĪo
ĠmËĪu Êĥ
l ËĮi
Ġi m
Ð½ Ñĭ
ĠvÊ²i tÊĥÊ²ËĪe
ji vËĪo
ĠmÊ²ËĪÉĳ sÊĮ
ĠpÉĶ f
Ġza kËĪÉĳn
Ġmu ÊĳËĪe
ĠvÊĮÉŃÊĮ sËĪÉĳ
ĠÉĽmÊĮ tsyÊĮnËĪÉĳ
4 8
z ÉĽm
Êĥy ÉŃ
Ġra ÊĥÊĥËĪy
z dy
Ġza pËĪu
ĠÊĮbra tÊ²ËĪitÊ²
zv ËĪÉĶ
ĠnÊ²izavÊ²ËĪisÊ²i mÊĮ
j ËĪÉĽÉ¡ÉĶ
Ġkrup nÊ²ËĪej
mÊ²i ntÊ²ËĪi
ĠsÊ²izËĪo n
m ÉĽr
ĠxudËĪo ÊĴy
ĠprÊĮjËĪe ktÊĮf
ĠÉªssÉŃÊ²ËĪedÊĮvÊĮ nÊ²ijÉª
ĠkËĪomnÊĮ tÊ²i
ĠfËĪir mÉ¨
ĠprËĪÉĳktÊ²i kÊ²i
Ġpa ÉŃËĪÉĳ
Ġsu ÉķËĪestvÊ²innÊĮ
Ġfsp ËĪom
jimy m
ĠbÉŃÊ²iÊĴËĪÉĳj ÊĥyjÉª
ĠprÊĮ É¡ËĪu
ĠvËĪyi É¡rÊĮ
Ġs fÊĮrmÊ²i
ĠkÊ²i nÊĮ
la y
e b
ĠÉ¡arËĪÉĳ ntÊ²i
s o
ĠpÊĮnÊ²imËĪÉĳ tÊ²
ĠÉŃÊ²ËĪe stÊ²
ĠvËĪozrÊĮ st
kt Ê²ËĪÉĽ
ĠtÊĥËĪa su
nts É¨x
ĠvÊ²ËĪe sa
ĠmËĪÉĳ r
Ġv Ê²ËĪÉĳ
mÊ²i ja
Ġsk ÉŃËĪo
É¡rÊ²a Êĳ
É²ËĪi tst
mÊ²ËĪe ntÊ²i
ĠkÊĮndÊ²i dËĪÉĳ
Ġs ÉĽr
b Ê²ÊĮt
ĠnÊĮ mÊ²ËĪera
ĠtËĮÉĽ lÉĽ
ĠÉĽtËĪÉĳ p
rÊ ĳ
ĠprÊĮtÊ²ivÊĮpÊĮ kazËĪÉĳ
ĠÉĽÉŃÊ²iktrËĪo nnÊĮj
tsÉĽ nt
ĠstÊĮrÊĮ nÊ²ËĪe
ĠkÊĮmÊ²pÊ²in sËĪÉĳ
ĠfstrÊ²ËĪe tÊĥÊ²Éª
ĠrÊ²ibÊ²ËĪe nku
Ð½ Ð°
ĠtÊĥËĪÉ¨ li
ËĪÉĳ tsyÉª
i k
j skÊ²ij
Ġx ÉŃÊĮ
d rËĪo
ĠvÊ²iÉŃÊĮsÊ²i pÊ²ËĪe
Ġ4 00
ĠsÊĮx ranÊ²ËĪi
ĠvËĪy ji
du ju
ĠpÊĮ tÊĥÊ²ËĪuv
ĠbÊ²ËĪe ÉŃyj
ĠtÊ²i ndÊ²ËĪe
ĠrËĮÉĶ zvÊ²ÉĶ
Ġsm Ê²ËĪÉª
ĠxÊĮrÊĮktÊ²irÊ²i zËĪu
ĠÊĥ kËĪÉĳ
tËĪÉĳ tsyja
Êĳi Ê
ÊĳiÊ Į
ĠrËĪo dÊ²i
mÊ²ËĪe sÊ²ÊĮ
nÊ²ÊĮ ÉŃ
ĠÉªÊĳdÊ²ËĪe ÉŃÊ²ij
ĠsÊĮbËĪy tÊ²ij
ĠÊĮsnÊĮv nËĪym
ĠÉªnstrËĪuk tsyÉª
ĠskazËĪÉĳ ÉŃa
vÊĮ nÊ²iÉª
ĠzÊĮ da
ĠrazmÊ²ËĪe rÊĮf
ĠpÊĮja sÊ²nÊ²ËĪi
dÊ²ËĪe nÊ²iÉª
ĠÊĮbjjËĪe kta
ĠftÊĮ rËĪovÊĮ
ĠÉªzmÊ²i nÊ²ËĪi
ĠÉ¡ÊĮvÊĮrÊ²ËĪi tsÊĮ
ÉŃÊĮ stÊ²
ĠÉķfÊ²ËĪa t
pÊ²i t
ĠkÊĮ rÊ²ËĪi
ĠbËĪo k
ĠvËĪyrÊĮ ÊĴy
sÊ²i Éª
ĠpÊĮs mËĪotrÊ²i
ĠÉķ ast
ÉŃu ju
Į d
ĠÊĮtkazËĪÉĳ tÊ²sÊ²ÊĮ
Ê Įd
tËĮÉĽ pËĪÉĽ
ĠrËĮÉĽ É¡u
ĠspÉĶ tkËĪa
ĠËĪo t
ĠtËĪÉĽ mu
ĠpÊĮmÊ²i ÉķËĪenÊ²iÉª
Ġja ËĪi
dÊ² jju
ĠzÊĮ É¡rÊ²aÊĳ
ĠsxËĪe my
ĠsÊĮvÊ²irÊĥ ËĪy
ĠpÊ²ËĪerÊ²i tÊĥÊ²in
ĠtrËĪu by
b ËĪÉĳÉŃ
ĠÊĮbÉŃa dËĪÉĳjut
u n
ĠpÊ²irÊ²idËĪÉĳ tÊĥÊ²Éª
kÊĮ stÊ²jju
ĠÊĥkËĪo ÉŃÊ²i
ĠpÊĮvy ÊĥËĪÉĽnÊ²ija
ĠvypÊĮÉŃ nÊ²ËĪÉĳ
Ġu vÉŃaÊĴ
ry vËĪÉĳtÊ²
stÊ² jjÉª
ĠÊĮbra tÊ²ËĪitÊ²i
ĠpÉĶ z
ĠÉ¡ÊĮsudËĪÉĳrstvÊ²i nnÊĮvÊĮ
Ġna rÊ²ËĪÉĳ
ĠsÊĮÊĮtvÊ²ËĪetstvu juÉķijÉª
ÊĮr Ê²a
ĠÊĮb ÉŃÊ²i
ËĪar É¨
ĠnÊ²i f
Ġvra tÊĥÊ²ËĪÉª
vÊ²i tÊĥÊ²ÊĮ
ra stËĪÉĳ
sÊ² a
ĠÊĳi mËĪoj
ĠmÊ²i Êĥ
ĠsmÊ²ËĪe sÊ²Éª
ĠdÊĮ stËĪoj
ĠsÊĮprÊĮvÊĮ ÊĴdËĪÉĳ
ĠrÊĮsp ÊĮrÊ²a
Êĳ ÉĽ
tÉķi tÉķ
ĠÊĮb rÊ²i
É¡ rÊĮf
ÉŃÊĮÉ¡Ê²ËĪi tÊĥÊ²iskÊĮj
Ġv vÊ²ËĪerx
bÊĮ ÉŃÊ²ËĪi
ĠpÊ²irspÊ²i ktÊ²ËĪi
f o
tÉķ ÉĶ
r skÊ²ij
z nÊĮvÊĮ
ĠnÊĮtÊĥÊ²inËĪÉĳ ja
ĠtkËĪÉĳ nÊ²ij
skÊ²ËĪi x
kËĪÉĳ u
ĠfÊĥËĪÉ¨st kim
ĠpÊĮÉŃu tÊĥÊ²ËĪÉĳjut
ĠprÊĮ vÊ²idÊ²ËĪenÊ²ijÉª
ĠtÊĥÊ²ËĪi stÊĮ
ĠtÊĥÊ²iÉŃÊĮvÊ²ËĪe kÊĮm
ĠÉª pÊĮtÊ²ËĪe
ĠrËĪÉĳ ÊĳnÊ²i
ĠÉ¡rËĪÉĳ mÊĮ
ËĮÉĽm ËĪÉĽs
vnÊĮ m
p kÊ²i
jÉĽ m
ĠprËĮÉĶ va
ĠkÊĮ rÊ²i
ĠspËĪor ta
ĠnÊ²i na
dÊ²i k
ĠpÊĮkrËĪy tÊ²ijÉª
m l
ĠbËĪÉĳ bu
ĠbÊĮ rËĪo
Åĭ kuf
kÊĮ ÉŃËĪÉĳ
ÊĴÉĶ n
ĠmÊĮÉŃÊĮ dËĪoj
ĠÉŃÊ²ËĪe tÊ²
ĠkËĪÉĶ É²
Ġba sÊ²sÊ²ËĪe
ĠpÊĮÉŃÊ²ËĪi tÊ²ikÊ²Éª
ĠakkurËĪÉĳ tnÊĮ
ĠnÊĮr kÊĮ
vÉŃÊ²i nnyjÉª
ĠÊĮprÊ²idÊ²iÉŃÊ²ËĪÉĳ jitsÊĮ
ÊĴËĪÉĳ ÉŃ
ĠËĪja jtsa
ĠtÊĥËĪÉĽ ba
f ski
Ġ200 0
Ġvra tÊĥÊ²ËĪu
z va
ĠpËĪo ÉŃnÊĮvÊĮ
Éķ mÉ¨
ĠprËĪÉĳzd nÊ²ik
ĠÊĮprÊ²idÊ²i ÉŃÊ²ËĪenÊ²ija
Ġu prÊĮ
Ġs jjËĪe
ktÊĮ x
ĠkrËĪo f
Ġm il
Ġd e
Ġn Ê²u
ĠÊĮbra ÉķËĪenÊ²ija
ĠÉ¡Ê²i m
ĠtÊĥÊ²ËĪi sÉŃa
ĠnaÉ¡rËĪu skÊ²Éª
ĠkËĪo ÊĴa
ĠprÊ²imÊ²i nÊ²ËĪÉĳ
ĠnËĪo r
Éķi n
ËĪaw ÉĽm
ĠÊĳim ÉŃÊ²ËĪe
Ġbuk vËĪÉĳ
r nuju
kËĪÉĳ ÉŃ
Ġxi rurÉ¡Ê²ËĪi
sp ËĪÉĽ
ĠjÉªvrËĪo py
Ġa mÊ²ËĪerÊ²i
ĠrÊĮsÊ²sÊ²ËĪij skÊĮvÊĮ
ĠzÊĮ ru
ĠkÉĶ bjËĪÉĽ
Ġd Ê²ËĪu
ĠÉªnstru mÊ²ËĪent
vÊ²i tÊ²i
Ġf xËĪodÊ²ÊĮt
ĠÉ¡ranÊ²ËĪi tsy
stÊĮ mÊ²Éª
ÊĳËĪi t
ĠprÊĮ vËĪodÊ²ÊĮt
ĠvnÊ²imËĪÉĳ tÊ²iÉŃnÊĮ
ĠstËĪÉĳ vÊĮk
ĠËĮa p
v ÉŃÊ²ÊĮ
ĠvrÊ²i mÊ²inËĪÉĳ
ÉŃÊ²ËĪÉĳ jutsÊĮ
Êĳi rËĪovÊĮ
ĠvÊ²ËĪetÊĥÊ²i rÊĮm
ĠpËĪÉĳrtÊ²i Éª
ĠkÊĮmÊ²ËĪi sÊ²sÊ²iÉª
j d
Ġx ËĪÉĽ
ĠuvÊ²iÉŃÊ²i tÊĥÊ²ËĪenÊ²ijÉª
ĠspÊĮ rts
ĠËĮÉĶtpÉĶvÊ²ËĪÉĽ d
ĠtrÊ²ËĪebu jut
ĠËĪÉª z
stup ÉŃÊ²ËĪenÊ²ijÉª
ĠsÊĮvÊ²ËĪe tu
3 2
ĠrÊ²i Ê
ĠrÊ²iÊ Į
3 4
ĠzËĪÉĳpÊ²i sÊ²
ĠrÊ²ËĪejtÊ²i nk
ĠprÊ²idÉŃaÉ¡ËĪÉĳ jut
ĠkÊĮmÊ²bÊ²i nËĪÉĳ
pÊĮ x
pÊ²ËĪer vyx
Ġand rÊ²ËĪej
ĠÉªmmu nÊ²i
3 7
ĠÊĮdÊ²dÊ²ËĪe ÉŃa
sÊ²t Ê²ËĪu
É¡ wÉĶ
ĠxÊĮtÊ²ËĪe ÉŃÊĮsÊ²
ĠpÉĶ É²Ê²ËĪÉĽ
ĠstÊĮ nÊĮ
ĠrÊ²ikÊĮmÊ²indËĪu jim
ĠtrÊ²i x
vÊĮ juÉķij
ĠnËĪy nÊ²iÊĥ
ËĪÉĶr É¨
ĠpÊĮsta rËĪÉĳ
ĠkrasÊ²ËĪi vyjÉª
stvu jtÊ²i
Ġdru É¡ËĪuju
b ËĮÉ¨
ĠÊĴËĪy tÊ²iÉŃÊ²Éª
É¡ rÊĮm
ĠÉ¡ËĪÉĳ za
ĠÉĶsËĪÉĶ bÉ¨
Ġu skÊĮ
ĠkrÊ²ËĪi Êĳi
Ġza xvËĪÉĳ
Ġk ËĪak
sp a
ÉŃÊ²i s
ndÊ²i Éª
Ġa rÊ²i
Êĳ ËĪÉĶ
l ka
Ðµ ÑĢ
d nÊ²ijÉª
vÊ²i dÉŃÊ²ËĪi
Ġu ÉķËĪer
ĠsrÊ²ËĪed nÊ²ivÊĮ
tsËĪÉ¨j nÉĽ
ĠmÊ²ËĪi nu
ĠvÊĮsp aÉŃÊ²ËĪi
rÊ²i vËĪÉĳ
ĠpÊĮmÊ²i ÉķËĪenÊ²ij
z dËĪÉĳ
nt rÊĮ
t kÉĶ
vÊĮ ÉŃÊ²isÊ²
Ġz ËĮÉĶ
ĠÉ¡rËĪu dÊ²Éª
ĠpÊĮkazËĪÉĳ tÊ²iÉŃÊ²Éª
ĠÉŃÊ²ËĪe ktÊĥÊ²i
ĠsvÊ²ËĪÉĳzÊĮ nnyjÉª
ÊĥËĪÉ¨ kwad
jji vÊĮ
ĠustrËĪoj stf
ÊĴËĪÉĽ li
ĠÉªnvÊ²ËĪe stÊĮ
ĠvËĪÉĳ nnÊĮj
ĠmÉĶ ÊĴËĪÉĽ
ĠÉķitËĪÉĳ tÊ²
ĠpÊĮ mÊ²ËĪe
ĠubÊ²i dÊ²ËĪi
Ġv nÊ²ËĪis
ĠuvÊ²i dÊĮm
ĠÉªssÉŃÊ²ËĪedÊĮvÊĮ nÊ²ij
ĠkÊĮr rÊ²ËĪe
Ġk ÉŃÊĮ
ta r
ĠÊĮsnÊĮv nËĪÉĳja
Ġtu a
ĠsmËĪy sÉŃ
u p
Ġu spÊĮ
ĠkrÊĮ vËĪÉĳ
ĠkÊĮm pÉŃÊ²ik
ktËĪo ra
ĠsÊ²tÊ²i muÉŃÊ²ËĪi
____ ____
ĠÉªzmÊ²i nÊ²ËĪenÊ²ijÉª
ĠpÊĮÊĳËĪi tsyÉª
Ġna stËĪoj
ĠprÊ²imÊ²i nÊ²ËĪÉĳjut
vÊĮ dÊ²ËĪitÊ²
nt ÉĶ
ra mÊ²ËĪi
b nÊĮj
ÊĳËĪe ts
v jju
Ġb rÊ²u
ĠtÊĥÊ²a sËĪy
ËĪi tsÊĮ
ĠÉªz vÊ²i
ĠAnd roid
ĠvwËĪa ÉķÉ²Ê²ÉĽ
Ġfa sËĪÉĳ
sp Ê²ËĪÉĽ
ĠudÊĮstÊĮ vÊ²i
pÊĮ r
ĠzdÊĮ rËĪovÊĮ
Ġad vÊĮkËĪÉĳ
ĠpÊ²a tÊ²ËĪÉª
ĠsÊĮzda vËĪÉĳtÊ²
ĠpÊĮ Ê
ĠpÊĮÊ Į
sÊ²i m
b nyj
Ġza vÊ²ËĪi
ĠËĮÉĶ fÉĽ
Éķ ËĪa
ĠÉ¡rËĪup pÊ²i
ĠmËĮa tÉĽr
ĠÉĽkÊĮnËĪomÊ²i kÊ²Éª
ĠkËĪaÊĴ d
ĠrukÊĮvÊĮ dÊ²ËĪitÊ²iÉŃ
ĠprÊ²idprÊ²iËĪja tÊ²ij
ĠktËĪur ÉĽj
ĠsÊĮ ts
Ġsy É¡rËĪÉĳ
ĠspÊĮsËĪo bÊ²in
ĠprËĪo tÊĥÊ²ijÉª
Ġa rtÊ²ËĪi
ĠznËĪÉĳ tÊĥÊ²i
ĠÉªdÊ²ËĪe ja
Ġf ËĮÉĶ
Ġma rkÊ²ËĪe
ĠstÊĮÉŃÊ²ËĪi tsy
ĠÉ¡ w
k sÊĮm
Į brÊĮzÊĮ
Ê ĮbrÊĮzÊĮ
vËĪy Êĥy
Ġa da
Ġu trËĪÉĳ
sÊ² tÊ²a
r f
ĠvËĪy stu
rÊ²i Ê
rÊ²iÊ Į
Ġ3 2
Ġ 00
ĠprÊ²idÊ²ËĪe rÊĴy
ĠmarÊĥ rËĪu
ÉķtÉķ ËĪi
ÊĴnÊĮ m
ĠËĮÉĶtp ÉĶv
ĠÊĴy ÉŃÊ²i
ĠprÊĮ xÊĮdÊ²ËĪi
tËĪo n
ĠskËĪorÊĮ sÊ²tÊ²Éª
tÊ²iÉŃ stvÊ²i
ĠdÊĮmËĪÉĳÊĥ nÊ²ijÉª
ĠËĪÉĶ f
ĠvËĪy nu
nnÊ²i x
tst va
bËĪu ju
ĠÉ¡rÊ²i p
ĠrËĪo ÉŃÊ²Éª
ĠÊĮs na
n kÊĮmÊ²Éª
fi k
ĠmÊĮÉŃÊĮdËĪy x
ĠrÊ²iÊĥËĪÉĽ nÊ²ij
k rËĪu
ĠÉª mÊ²
Ġtr ËĮa
ĠÉ¡ÊĮr mËĪo
ĠvwËĪa s
tÉķ u
ĠA pp
ĠsvËĪÉĳ dÊ²
ĠknÊ²ËĪi É¡u
rÊ²ËĪe tÊ²
ÊĴy ÉŃÊ²Éª
ĠtÊ²ÊĮ ÊĴy
p É¨
jËĪe nÊ²ija
vËĪa nÉĽ
Ġl u
ĠkÊ²ËĪi jif
ĠÉªmËĪuÉķi stvÊĮ
ĠËĪo ÉŃ
ĠkÊĮ ÉŃÊ²in
ÑĤ Ð¸
bÊ²ËĪi ÉŃ
t rÉª
ĠprÊĮ ji
Ġp y
d nuju
ĠzakËĪÉĳ za
É¡nÊĮ vÊ²ËĪe
ĠpÊĮtÊ²i rÊ²ËĪÉĳ
Ġf strËĪoji
Ġxva tËĪÉĳjit
ĠÊĴËĪÉ¨ tÉķa
stupËĪÉĳ jit
ĠvarÊĥ ËĪa
Ðº Ð°
Ġzv Ê²ÉĶ
ĠtËĪa kix
ĠÉŃÊ²ikËĪÉĳr stva
ĠtÊ²ip ÉŃËĪo
nd ËĮÉĽ
ĠpÊĮ fsÊ²i
Ġbux É¡ËĪÉĳÉŃ
ĠvËĮÉ¨ da
Ġsk rÊ²i
ĠpÉĶ jËĪa
ĠaftÊĮmatÊ²ËĪi tÊĥÊ²iskÊ²Éª
rÊ²ËĪe nt
ĠpÊĮzvÊĮ nËĪo
o b
ĠnÊĮ vÊ²ËĪi
stÊĮf Éķi
ĠÊĮ kÊ²i
mÊĮ tÊĮ
ĠspÊ²itsy ËĪÉĳÉŃnyx
ĠpÊĮt rËĪÉĳ
tÊ²i ÉŃÊ²ËĪe
ra x
ĠÉªnÊ²itsy atÊ²ËĪi
ĠustËĪoj tÊĥÊ²i
ĠvÊ ²ËĮÉĽ
ĠsËĪo n
ka dÊ²ËĪe
ĠdÊ²iÊĮ É¡nÊĮ
ÉķËĪe n
ĠzÊĮ xÊĮ
ĠumÊ²i nÊĥËĪÉĽ
ĠanËĪÉĳÉŃÊ²i za
ĠpÊĮ sËĪu
ĠnÊĮ sÊ²ËĪi
ĠÉ¡Ê²irmËĪÉĳ nÊ²iÉª
ĠÉ¡u bÊ²irnËĪÉĳ
ĠÊĮÊĥËĪy pkÊ²Éª
ĠprÊ²ËĪintsy p
Ġar xËĪi
vÊ²ËĪe ts
Ġma rÊ²ËĪi
ĠnÊĮ pÊ²isËĪÉĳtÊ²
pËĪÉĽ v
ĠnÊ²ibÊĮÉŃ ÊĥËĪyjÉª
ĠtÊĥÊ²rÊ²iz vy
Ġp Ê²ÊĮ
ĠutÊĥÊ²ËĪÉĳstÊ² nÊ²ikÊ²Éª
ĠD e
vÉŃÊ²ËĪÉĳ jim
ĠkrÊ²idÊ²ËĪi ta
ÉķËĪe j
Ġus ÉŃËĪy
É²Ê²ËĪÉĽj ÊĥÉĽ
t t
ts ÉĶv
ĠpÉŃa tÊ²ËĪe
ĠËĮÉĽlÉĽ kt
ĠprÊĮdËĪÉĳ ÊĴy
o v
ĠÉª r
ĠËĮÉĽm vËĮÉĽ
Ġna ÊĥÉŃÊ²ËĪÉª
ĠpÊĮd bËĪor
ĠrÊ²ËĪe j
tÊĥÊ²ÊĮ ja
nÊ²in É¡rËĪÉĳ
ĠvËĪyxÊĮ t
ĠkËĮÉĳ vËĪÉĽ
ĠvÊ²ËĪe Éķij
ĠÊĥ ËĪa
Ġu vÊĮÉŃ
ĠfËĪo n
ĠmnËĪo j
201 7
Éķi nËĪÉĳ
ĠzÊĮra bËĪÉĳty
ĠpËĪÉĳ ra
skÊĮ x
pÊ²i sÊ²Éª
ĠzÊĮ mÊĮ
Ġt rÊ²ËĪi
ĠvÊĮÊĳdÊ²ËĪejstvÊ²i jÉª
ĠvËĪo pÊ²ËĪervyx
ĠÊĮÉ¡rÊĮnÊ²i tÊĥÊ²ËĪenÊ²ija
ĠfsÊ²ËĪe tËĪÉĳkÊ²Éª
Ġd É¨
ĠsËĪy n
s ny
ĠprÊ²idÊ²ËĪe ÉŃÊĮx
b ËĪardÊĳ
Ġm É¡nÊĮvÊ²ËĪe
Ġ200 9
ĠÉĶ kËĪa
ĠjÉĽ d
ĠmËĪÉĳ ssu
ĠbÊĮ kÊĮ
ĠprÊĮvÊĮ dÊ²ËĪi
ĠpÉĶÉ²Ê²ËĪÉĽ vaÊĥ
ĠdËĮÉĶ tÉ¨
ĠsÉŃÊĮvËĪÉĳ mÊ²Éª
ĠsaxËĪÉĳ ra
ĠpÊĮjavÊ²ËĪi ÉŃÊ²isÊ²
Ġz wËĪÉĶ
ĠÊĮbÉŃa dËĪÉĳ
ĠÊĮb jji
ĠÉķast ÉŃÊ²ËĪi
Ġnap rËĪa
ĠËĪÉĳd rÊ²i
Ġ2 50
ÉŃÊĮsÊ² sÊ²i
tËĪu ry
rÊ²in bËĪu
ĠpÊ²insÊ²i ÊĮnÊ²ËĪe
ÉŃËĪy x
ĠprÊ²isËĪu tstvÊ²i
Ġd ra
vÊĮ ju
st rÊĮvÊĮ
vÊĮ x
tÊĥÉĽ É²
ÉŃÊ²ËĪi n
ĠfpÊ²i rÊ²ËĪet
ĠÊĴyÉŃÊ²ËĪe zy
Ġr É¨
ĠmÊĮtÊ²i rÊ²i
skÊĮ mÊ²Éª
k va
Ġf ËĮu
Éķi nËĪo
ĠsËĪoÉŃ ntsy
ĠdËĪa nÉ¨x
Ġr e
ĠkÊĮnstrËĪuk tsyja
ĠÊĮdÊ²inËĪÉĳ kÊĮ
Ġd vÊĮj
ĠU S
ĠrÊĮ stvÊĮ
ĠrÊ²ikÊĮmÊ²indËĪu jut
ĠÊĳdÊ²ËĪe ÉŃkÊ²Éª
ĠÊĴËĪÉĽ bÉ¨
3 9
! Â»
f Êĥuju
y nnÊĮ
ĠbÊ²i r
ĠÉŃÊ²i nÊ²ËĪej
ĠzÊĮ ÉŃÊ²i
ĠpËĪÉĳmÊ²ÊĮ tÊ²
ĠkÊ²ir pÊ²ËĪi
Ġd ÊĴËĪy
ÉĶvËĪa nÉĶ
ĠsÊ²imÊ² jËĪja
mja st
sÊ²ËĪe nÊ²ijÉª
ÊĴËĪo m
ĠkËĪak tËĪo
ĠprÊ²iÊĳi ntËĪÉĳ
bÊĮ m
tsËĪo m
t kÊĮx
ĠËĪo m
ĠpÊĮ za
ĠpÊĮpuÉŃÊ²ËĪÉĳ rnyx
ĠÊĮtÉŃÊ²ËĪi tÊĥÊ²nyj
ĠÉªmÊ²ËĪe jutsÊĮ
ĠpÊĮdÉ¡ÊĮtËĪo fka
ĠÉªsp ËĪÉĳ
ĠpÊĮ dËĪÉĳtÊ²
ĠspÊĮsËĪobnÊĮ stÊ²
Ġna mÊ²ËĪerÊ²i
ĠsÊ²tÊ²i k
ĠkÊĮÉŃÊ²ËĪitÊĥÊ²i stvÊĮm
ĠprÊĮ mÊ²i
Ġa w
Ġta ÉŃËĪÉĳ
ĠÊĮtsËĪutstvÊ²i Éª
ĠbÊ²izÊĮpËĪÉĳsnÊĮ stÊ²
ĠÊĮbra bËĪÉĳty
É¡Ê²i j
ĠkrËĪup nyjÉª
stvÊ²i nnym
ĠfÊ²ËĪiÉŃ my
ĠsÊĮ ËĪop
Ġnap ËĪoÉŃ
ĠdËĪÉĳ nnÊĮjÉª
pr Ê²ËĪÉª
nÊ²a kËĪÉĳ
ĠbaÉŃ kËĪo
? ?
ĠpËĪÉĳ rÊ²in
ĠvmÊ²i ÊĥËĪÉĳ
ĠsrÊ²i dnÊ²i
Ġap pÊ²i
Ġs fÉĶ
ĠkÊĮÉŃÊ²ËĪitÊĥÊ²i stvÊ²i
rÊĮvÊĮ ÉŃÊ²Éª
ĠpËĪoi ska
ĠfÊ²idÊ²irËĪÉĳ ÉŃnÊĮvÊĮ
ĠsËĪo k
liz ËĪatsji
ĠbÊ²ispÉŃËĪÉĳ tnyjÉª
ĠÉŃÊĮ É¡Ê²ËĪi
Ġfp wËĪÉ¨
ĠËĮin vÉĽ
Ġp ËĮu
ĠprÉĶ jËĪÉĽ
ÉĽ n
vÊ²i j
ĠprËĪo sÊ²
Ġba ÉŃËĪÉĳ
stnÊĮ ja
ĠpÊĮdËĪÉĳ tÊĥÊ²Éª
Ġfunk tsyÊĮnÊ²ËĪi
ĠrÊ²ËĪÉĳ da
ĠÊĮpÊ²ËĪi sÊĮ
Ġf tÊĥÊ²irËĪÉĳ
na nsÊ²ËĪi
ĠÉŃÊ²i tÊĥÊ²ËĪenÊ²iÉª
ĠÊĥ ÉŃÊ²ËĪu
ĠfËĪor m
bÊĮ vÊĮ
rÊĴ ÊĮt
ud bu
ĠËĪin nÉĽ
r ËĮÉĽ
ĠpÊĮd s
ju m
s Ê²ËĪu
s ÉĽm
ar d
ĠbËĪÉĳ nkÊ²Éª
ĠvÊ²i dÊ²iËĪo
Ġvnu trÊ²i
d Ê²a
ĠmËĪyÊĥ ts
ĠÊĥtu ka
ĠspÊ²itsyÊĮÉŃÊ²i ÊĳËĪirÊĮvÊĮ
ÉŃ t
Ġa rtÊ²i
Ġva rËĪu
ru ja
rÊĮ va
ĠpÊ²i tÊ²irbËĪu
ĠvËĪoz ÉŃÊ²i
rÊ²ËĪi rÊĮvÊĮtÊ²
ĠpÊĮ py
ĠrËĪo t
ĠC h
ĠrÊĮ dÊ²iÊĮ
Ġand rËĪo
ĠËĪÉª Éķi
ĠpÊĮkupËĪÉĳ tÊ²
Ġu ÊĴËĪÉ¨
ĠprËĪoÊĥ ÉŃÊĮvÊĮ
ĠnajdÊ²ËĪe tÊ²i
ĠÊĮtk rËĪo
ĠprÊĮtsËĪÉĽ ssÊĮ
s f
ĠnÊ²iza kËĪo
ĠdÊ²ËĪerÊ²i vÊĮ
lËĪÉĽ É²Ê²ÉĽ
ĠzamÊ²ËĪe na
ĠmÊ²ËĪe r
ĠnËĮa u
ĠÉŃÊ²i tÊĥÊ²ËĪitÊ²
d ÉĶv
ĠpÊĮ vÊ²ËĪe
tÉķ ÉĽm
d vËĪÉĳ
ĠÃ§ ist
v rËĪo
d ËĪat
nËĪu ÉŃa
ĠÊĮp ËĪo
ĠpÊĮ stÊĮfÉķi
ÊĴy tÊ²
ĠpÊĮra ÊĳËĪi
Ġnaz vËĪÉĳtÊ²
Ġu brËĪÉĳtÊ²
ĠÊĮbÊ²ispÊ²ËĪetÊĥÊ²i nÊ²ijÉª
ĠnÊĮzna tÊĥÊ²ËĪenÊ²ija
ĠÉ¡ÉŃËĪÉĳ vy
x va
Ð¾ Ð¼
ĠkËĪÉĳ rta
ÉŃËĪÉĳ d
ĠÉŃÊ²i kvÊ²i
É²i z
v Ê²ËĪÉĶ
Ġ ðŁ
Ġka kËĪom
ĠÊĥyrÊĮ kËĪo
ĠprÊ²id jja
ÊĴdËĪÉĳ tÊ²
ĠvËĪyxÊĮ da
ĠmÊĮntËĪÉĳ Êĥ
vËĪÉĳ ÉŃÊ²isÊ²
stvÊ²i j
ĠÊĴ dËĪÉĳtÊ²
ĠpËĪo ÉŃnÊĮjÉª
ĠÊĮ sÊ²ËĪe
rÊ²ËĪÉĳ jitsÊĮ
tÊĮ ÉŃÊ²i
Ġ7 5
Ġk ÉŃÊĮsÊ²sÊ²i
ĠkuÉŃ tËĪur
ĠpÊ²irÊ²i jtÊ²ËĪÉª
ĠÊĮ kËĪÉĳ
ÊĴËĪÉĳ t
Ġ200 8
4 6
ĠmËĪÉĳ ssy
ĠpÊĮpuÉŃÊ²ËĪÉĳ rnyjÉª
tÊ²iÉŃnÊĮ stÊ²jju
pÊ²ÉĽ j
ĠzÊĮvÊ²irÊĥ ËĪy
Ġuva ÊĴËĪÉĳ
ĠfËĪi rm
ĠprÊĮtsËĪÉĽ ssÊĮf
nÊ²ija mÊ²Éª
ĠjËĪa ki
ĠaksÊ²issu ËĪÉĳ
V I
brÊ²i tËĪÉĳ
z mu
É Ļ
rÊ²i tÊ²ËĪe
ĠËĮÉĽ n
ĠfÊ²ËĪi rmy
ËĪu jÉĽ
ĠÉªÉ¡rËĪÉĳ jit
bËĪardÊĳ ÉĽj
as ino
kËĪu da
ĠpÊĮ É¡ÊĮvÊĮrÊ²ËĪi
ĠÐ ¿
ĠprÊ²idstËĪÉĳ vÊ²itÊ²
mÊ² pÊ²ËĪi
jimÊĮ stÊ²
ĠmËĪa mÉ¨
stu pÊ²ËĪitÊ²
skÊ²ËĪi jÉª
p Ê²Éª
ĠsÊĮÊĮpÉķËĪi ÉŃÊ²Éª
ĠÊĮkËĪÉĳzy vÊĮjit
Ġzd ËĮÉĽ
Ġza dËĪoÉŃÊĴy
ĠprÊĮtsydËĪu ru
ÉŃÊ²a tsËĪyÊĮ
ĠsÊ²i krÊ²ËĪe
ĠpÊĮm nÊ²ËĪitÊ²i
l nÉĶ
kËĪÉĳ jit
ĠmÊĮÉ¡ÉŃ ËĮa
ĠprÊĮizvÊĮdÊ²ËĪi tÊ²iÉŃÊ²ÊĮ
ĠsÊĮÉ¡ÉŃa sÊ²ËĪi
ĠtËĪopÉŃÊ²i va
ĠpÊĮxu dÊ²ËĪenÊ²ija
ĠnÊĮpra vÉŃÊ²ËĪenÊ²iÉª
ĠprÊĮizvÊĮdÊ²ËĪi tÊ²iÉŃÊ²ij
s tsÉ¨
ĠnËĪo udbu
ĠkazËĪÉĳ ÉŃÊĮsÊ²
Ġs wËĪu
ĠrËĪy by
ĠrÊ²iËĪÉĳ ktsyÉª
ĠdÊĳ ËĪawa
la x
r skÊĮvÊĮ
ĠÊĮbra ÊĳËĪets
Ġu xËĪoda
Ġna stËĪÉĽmp
Ġkr Ê²u
ru jtÊ²i
ĠpËĪu nkt
ĠÊĳdÊ²ËĪeÉŃÊĮ ÉŃÊ²Éª
ĠnÊ²ËĪe f
ĠL i
ĠnÊ²iisp rËĪÉĳ
ĠÊĮbÊ²ËĪÉĳzÊĮ nnÊĮsÊ²tÊ²Éª
ĠvyrËĪÉĳ Éķi
m pa
ĠdËĪu ÊĴÉĶ
dËĪa É²Ê²ÉĽ
ĠbËĪÉ¨ wÉ¨
ju f
ĠpÊĮÉŃÊĮ ÊĴËĪÉĽnÊ²iÉª
wa t
dÊĴËĪÉĽ ta
ĠÊĥ ËĪÉĽr
vÊ²ËĪi ÉŃÊ²Éª
om e
ĠpÉŃa tÊ²ËĪitÊ²
ĠpÊĮvrÊ²i ÊĴdÊ²ËĪenÊ²ija
ĠkÉŃÊ²ijËĪe ntÊĮm
ĠÊĮprÊ²idÊ²i ÉŃÊ²ËĪenÊ²ijÉª
ĠprÊ²idstavÊ²ËĪi tÊ²iÉŃÊ²ij
ĠÉªnÉ¡rÊ²idÊ²ijËĪe nty
ĠÊĮtvÊ²ËĪe ty
Ġk rËĪÉĶ
vÊĮ t
Ġi s
ĠnÊĮ vÊ²ir
Ð» Ð¸
Ġm ËĪoÉŃ
ĠiP hone
ÊĴdËĪÉĳ jit
ĠH D
ĠtabÉŃÊ²ËĪe tkÊ²Éª
Ġ3 8
Ġk ÉķËĪÉĶ
ĠÉª nËĪoj
ĠustËĪoj tÊĥÊ²ivÊĮ
ÊĳËĪe m
ĠpÊĮdËĪob nyx
ĠÊĴ ËĪo
Ġnaj bËĪardÊĳÉĽj
ĠprËĪa v
ĠdÉŃÊ²i nËĪÉĳ
Ġ )
ĠkÊĮ sÊ²tÊ²ËĪu
ÉŃÊĮ ÊĴËĪy
Ġvzy skËĪÉĳ
tÊĥ ÉĽj
ĠkÊ²i p
ĠtÊ²ËĪe ma
ĠÊĮtÊĮ bra
ĠrÊĮzÊĮ brËĪÉĳtÊ²sÊ²ÊĮ
ĠsrÊ²ËĪed stvÊĮm
nt ku
st vËĪo
ĠnÊ²ËĪekÊĮtÊĮ rÊĮjÉª
w ËĪÉĽÉ¡ÉĶ
ĠznËĪÉĳ nÊ²ij
ÊĴ d
ĠvÊĮsstÊĮnÊĮ vÉŃÊ²ËĪenÊ²ija
ĠpËĪoÉŃzÊĮvÊĮ tÊ²iÉŃÊ²ÊĮ
w ËĪÉĶÉķtÉķi
ĠpsÊ²i xËĪo
ĠÉŃËĪu k
ĠpÊ²ir vÊ²ËĪi
ĠprÊ²idÊĮstËĪÉĳ vÊ²itÊ²
ĠtÊ²ËĪe my
ĠtÊĥÊ²ËĪe rnyj
ÊĥËĪÉĽ j
ĠsÊ²ËĪim vÊĮ
mËĪa É¡a
tÊĥÊ²i ny
ĠdÊ²ËĪeÉŃÊĮ jitsÊĮ
ĠzÊĮru bÊ²ËĪe
ĠsÊĮÊĮtvÊ²ËĪetstvu jit
ĠzËĪÉĳ dnÊ²i
ĠnËĪÉĳ Êĥu
rÊ²ËĪe x
ĠÊĮbrËĪÉĳ tnÊĮ
ĠÉŃÊ²ËĪi st
ĠpÊĮÉŃutÊĥÊ²ËĪi ÉŃÊĮsÊ²
ĠÉªnstru mÊ²ËĪenty
ĠbrÊ²i tËĪÉĳ
ĠsÊĮ brËĪÉĳtÊ²
ĠtÊĮvËĪÉĳ rÊ²i
ĠÉªndÊ²ivÊ²idu ËĪÉĳÉŃnÊĮ
b nÊĮvÊĮ
ĠfaktÊ²ËĪi tÊĥÊ²iskÊ²Éª
ĠËĪopy ta
ĠutÊĥÊ²ËĪity vÊĮja
ĠkÉŃÊ²ijËĪe nta
ËĪa wÉĶ
ĠdÊĮrËĪo É¡Ê²Éª
ĠpËĮÉĶ li
ĠËĪu k
ĠjÉĽ ÊĴËĪÉĽli
Ġu stËĪa
bu r
ĠkÉŃÊ²ËĪe tkÊ²Éª
rÊĮ n
ĠpËĪÉĶl ski
xÊĮ ÊĴdÊ²ËĪenÊ²ijÉª
lÉĶ É¡Ê²ËĪi
zËĪÉĳ tsyju
ĠpËĪÉĶ nat
ĠfÊĮ ÉŃ
bËĪÉĳ ja
ĠrËĪÉĳ du
Ġk tur
x rËĪÉĶ
rËĪÉĽ d
ËĪal nÉ¨
ĠpÊĮdÊ²dÊ²ËĪerÊĥ ku
ĠtÊĥËĪa ÉķÉĽ
rÊ²i jij
ĠrÊĮzvÊ²i vËĪÉĳjitsÊĮ
ĠvnËĪu trÉª
Ġs ÉŃa
ĠtËĪÉĽ mat
ĠdvÊ²ËĪiÉ¡ÊĮ tÊ²iÉŃ
ĠÊĮbu sÉŃËĪo
ĠpÊĮpy tËĪÉĳ
tÊĥËĪÉĽ É²
sÊ²tÊ²ËĪe ra
taÉŃ jËĪja
ĠpÊĮÉŃÊ²ËĪez nyjÉª
ĠÃ§ist ËĪÉĶr
Ġf ËĮa
Ġu st
ĠbÊĮ k
ĠÊĴËĪÉĳ n
rËĪovÊĮ nÊ²ijÉª
mËĪÉĳ n
nÊ²ÊĮ x
ÉŃ jja
ĠzËĪÉĶ staw
Ġra stËĪu
ĠpÊĮ ÉŃËĪoÊĴy
ĠjÉªv É¡Ê²ËĪe
ĠrÊĮz É¡ÊĮvËĪo
ĠnastrËĪoj kÊ²Éª
ĠsÊĮ ntÊ²i
ĠvÊ²ËĪep sËĪÉĳ
ÉŃÊ²ËĪe tÊĮf
ĠbukvËĪÉĳ ÉŃnÊĮ
Ġsa m
sÊ²i bÊ²ËĪir
ĠtÊ²ËĪÉĽ stÊĮ
ĠnÊĮ pÊĮÉŃ
t kÊĮm
Ê²ÉĽ m
ĠÉķËĪÉĽ bjÉĽ
ĠÉ¡ËĪo sÊ²tÊ²Éª
sÊ²sÊ²i ju
ĠËĪo pu
ĠÊĮkËĪÉĳzy vÊĮjitsÊĮ
ĠfËĪo nda
Ð Ŀ
Ġau dÊ²i
Ġpa mjËĪÉĽ
ĠtrÊĮ ns
s ËĪÉĳÉŃ
ĠÉ¡ÊĮ ÉŃu
ĠtÊ²i ÉŃÊ²ËĪe
prÊĮ jËĪe
ĠpÊĮkËĪup kÊ²i
it e
ĠÊĮzna kËĪomÊ²itÊ²sÊ²ÊĮ
sÉŃÊ²ËĪedstvÊ²i jÉª
ĠtsËĪÉĽ rk
ĠjÉĽ dËĪÉ¨
ĠpÊĮxËĪo ÊĴy
ĠraÉķËĪe t
ĠprÊĮstrËĪÉĳn stva
ĠÉ¡a r
ĠÊĮtsËĪÉĽ nka
stu f
Ġras strËĪoj
ĠkÉŃÊ²ËĪe tÊĮk
Ġu bËĪor
ÉĶvËĪa wa
ĠdÊ²ËĪevu Êĥku
ĠÉĽ nÊ²i
ĠtÊ²ËĪex nÊ²ika
pa zËĪo
d t
ĠdÊĮ xËĪot
st rËĪa
ĠrÊ²ikÉŃËĪÉĳ my
ĠpÊĮkazËĪÉĳ tÊ²iÉŃ
ĠpÊĮÉŃÊ²ËĪi tsyÉª
ĠrÊĮ sk
dÊ²ËĪe ÉŃÊĮ
st ËĪÉ¨
Ġv wa
ĠdÊ²ËĪe ÉŃu
Ġa nÊ²i
tÊĥËĪÉĽ É²Ê²u
jËĪÉĶnts a
Ð Ķ
ĠprÊ²i tÊĥÊ²i
tÊ²i ra
Êĥ É¨m
kËĪu jÉĽ
i re
ĠkËĪÉĳÊĴ duju
Ġpu zy
pÊĮ ÉŃËĪu
ĠmassËĪÉĳ Êĥ
vÊĮ ÉŃÊ²ËĪu
ĠrÊĮzrabËĪo ttÊĥÊ²i
tÊ²ËĪivnÊĮ m
ĠkÉĶ ÊĴËĪÉ¨
ĠdÊĮstËĪÉĳ fkÊ²Éª
ĠmËĪoÉķ nÊĮstÊ²
ĠkÉŃËĪu p
ĠÉ¡ÊĮ zÊĮ
ĠzËĪu bÊĮf
vÊ²i f
ĠpÊĮ sÊĮ
ĠrËĮÉĽ a
ĠnËĪotÊĥÊ² jju
ka x
ĠrÊĮsÊ²sÊ²i ËĪja
Ñ Ĩ
ĠprÊ²idmÊ²ËĪe ty
ĠÉ¡ËĮÉĶ spÉĶ
ĠkÊĮn tsËĪÉĽp
ĠzÊĮ É¡ÊĮ
ĠdÊ²itËĪÉĳ ÉŃÊ²ij
d ÉĽm
6 5
ĠprÊ²i É¡ÊĮtÊĮ
to r
ĠÊĮprÊ²idÊ²iÉŃÊ²ËĪe nnyjÉª
ĠbËĪudu ÉķijÉª
Ġfsp uw
sÊ²tÊ²i kÊ²Éª
pÉĽ w
ĠsËĪu tÊ²Éª
ĠÉ¡ÊĮrÊ²i zÊĮ
Ġa kadÊ²ËĪe
ĠdËĮÉĶ skÉĶ
ĠpÊĮbÊ²i dÊ²ËĪi
zdÊĮ rÊĮ
ĠÉŃÊĮ kÊĮ
ĠutÊĥÊ²ËĪÉĳst kÊ²i
tÊ²i tÊ²i
ĠvzÉ¡ lËĪÉĽ
ĠbÊ²i skÊĮ
ĠÉ¡ÊĮrÊ²ËĪÉĳ tÊĥÊ²ij
n et
tÊĥÊ²ËĪi t
ĠmÊĮ ÊĥËĪÉĽ
Ġzv Ê²ËĪÉĶ
vÊ²ËĪi tÊ²sÊ²ÊĮ
ĠrÊ²ËĪe skÊĮ
ĠÊĮbÊĮ zna
ĠÉ¡ rËĪo
ĠnÊ²i vy
Êĥ tÊĥ
Ġak kËĪÉĳu
Ġc o
ĠpÊĮd vÊ²ir
^ .
ĠÊĴËĪyd kÊĮstÊ²
ĠÉªnËĪy x
ĠÉ¡ rËĪom
ĠpÊĮ É¡a
s nËĪovÊĮ
ĠrÊĮz vÉŃÊ²i
xËĪo du
rÊ²i kÊĮ
Ġu dÊ²ËĪerÊĴy
ĠzËĪÉĳpÊĮ x
ĠnÊĮ ka
Ġu ËĪjut
ĠstËĪÉĳtu s
vÊĮja sÊ²
ĠprÊĮizvËĪod stvÊ²i
ĠËĪop ÉķÊĮja
Ġsta kËĪÉĳ
sp ËĪor
ĠbÊ²ispÊĮ kËĪo
stru ktËĪu
Ġza rËĪu
nÉĽ r
ĠmÊ²i trËĪo
m nËĪo
ĠmÊ²i nÊ²ËĪÉĳtÊ²
Ġa pÊ²iÉŃ
ĠpÊ²irÊ²i sÊ²i
ĠpÊĮsrÊ²ËĪed stvÊĮm
ĠÉ¡Ê²i p
ĠspÊ²itsyaÉŃÊ²ËĪi st
Ġnaz vËĪÉĳnÊ²ijim
ĠzÊĮ fÊ²i
ĠsÉŃËĪoÊĴnÊĮ sÊ²tÊ²Éª
. ||
Ġv ËĪal
Ġba ktÊ²ËĪÉĽ
ĠkÊĮmmÊ²intËĪÉĳ rÊ²iÉª
stf ÉĶ
Ġk lËĪa
ĠsÉŃËĪutÊĥÊ²ÊĮ Éª
vrÊ²ËĪe mÊ²innÊĮ
Êĥ kËĪo
nnÊ²i kÊĮm
Ġka rmËĪÉĳ
kÊĮ nËĪomÊ²i
dÊĴËĪÉĽ t
Ġ wËĪÉĶ
ĠdmÊ²ËĪitrÊ²i j
ĠvysËĪo kÊ²im
mÊĮ ÉŃÊ²i
Ġf sÉŃÊ²ËĪedstvÊ²ijÉª
ĠÊĮp ÊĥËĪy
ĠrÊ²iÉ¡Ê²iËĪo nÊ²i
ĠmËĪu sÊĮ
tÊ²i ÉŃÊ²i
ĠmËĪÉĳ Êĥyn
t rËĪa
ĠsÊĮ bÊ²i
dËĪoÉŃ É¡ÊĮ
ĠnËĪaÊĥ ÉĽj
ĠÉªz É¡ÊĮtËĪÉĳvÉŃÊ²i
ĠzÊĮrabËĪotÊĮ tÊ²
nËĪo mu
ĠpÉŃËĪÉĳ nÊ²i
da É¡ËĪo
ĠnËĮÉĶ vÉĶ
ĠpÊĮ vÉŃÊ²i
Ġu pËĪÉĳ
ĠkÉŃËĪÉĳ sÊ²sÊ²i
ĠvËĮÉ¨ pÉĶ
rÊ²ËĪe ts
ĠjÉª dËĪy
ÉŃ s
ĠmÊĮÉŃÊĮ kËĪo
s wËĪu
d wu
ĠtÊĥÊ²ËĪuv stva
ĠprÊ²a mËĪoj
tÊĥËĪÉĽ s
ĠtsËĪÉĽrk vÊ²Éª
ĠÊĥyrËĪo kÊ²ij
ĠprÊĮdËĪÉĳ Êĥ
kt ÉĶr
ĠËĮinfÉĶrm ËĪatsjÉĽ
ĠfÊ²i nansÊ²ËĪi
vËĪÉĳ j
Ġsp ÊĥÉĽ
ĠdËĪostu pa
ÊĴËĪÉĳ ja
ĠftÊĮ rËĪÉĳja
m Ê²a
Ġv ËĮu
zÊĮ k
ĠstrËĪo ja
Ġzd rËĪÉĳv
ĠprËĮÉĶ du
li n
n skÊĮjÉª
ĠpÊĮdtvÊ²irÊĴ dËĪÉĳ
Ð ĵ
ĠnasËĪy Éķi
b et
ĠprÊ²iÊĮ dÊĮ
ĠsÊĮjidÊ²i nÊ²ËĪenÊ²ija
tÊ² nÊ²ËĪi
ĠaktÊ²i vÊ²ËĪi
Ġa ÉŃÊ²u
ĠvÊ²is nËĪoj
ĠpÊĮt pÊ²isËĪÉĳ
Ġuda ÉŃÊ²ËĪenÊ²ija
rÊ²i jax
ĠmÊĮnÊ²i tËĪo
ĠÊĮp stanËĪo
ĠÊĥÊĮ kÊĮÉŃËĪÉĳ
ĠsÊĮvÊ²irÊĥ ËĪÉĽn
tsÉĽ s
ĠrÊ²i ÊĴy
Ġw ËĪat
ĠbÊĮÉŃÊĥynst vËĪÉĳ
ĠËĪodzy f
ĠanÊĮ ÉŃÊ²i
ĠÊĴ a
ĠdÊ²iÊĮÉ¡nÊĮ sÊ²tÊ²ËĪi
Êĥ ËĪoÉŃ
ĠÉĶ fËĪÉĽ
ĠkËĪur sa
ÊĥËĪÉĽ É²Ê²a
jËĪe nÊ²ijÉª
Ġu vÉŃÊ²ikËĪÉĳ
ĠzÊĮnÊ²imËĪÉĳ jitsÊĮ
v nymÊ²Éª
ËĮÉĽs ËĪÉĽm
ĠtrÊ²ËĪe tÊ²ij
tÊ²i tÊ²sÊ²ÊĮ
ĠtsËĪÉĶ Éķ
ĠvËĪynu ÊĴdÊ²i
ĠdÊ²iÊĮ pazËĪo
mÊ²it rÊ²ËĪi
ĠÊĮÊĴy dËĪÉĳ
ĠpÊĮstra dËĪÉĳ
ËĪÉ¨tÊĥ nÉĽ
É²Ê²ËĪa mi
z dËĪu
Ġt fÉĶ
ĠparËĪÉĳmÊ²it ry
u a
ĠmËĪu vi
ĠvÊ²iÉŃÊ²ikÊĮ ÉŃÊ²ËĪep
ĠkËĪo ntÊĥÊ²i
ĠkÊĮ rm
ĠaudÊ²i tËĪo
ĠÉª taÉŃjËĪja
vÊ²i tËĪÉĳ
ĠnÊ²isÊĮ vÊ²irÊĥ
z ËĪÉĶ
ĠdÊĮ pusÊ²tÊ²ËĪi
ĠËĪÉĳ f
ĠbÊĮÉŃÊ²ËĪeÊĳ nÊ²i
ĠfËĪunk tsyj
ĠrÊ²iÊĴËĪy ma
znËĪÉĳ tÊĥÊ²in
tÊ²ËĪi tÊĥÊ²iskÊĮja
xËĪo vÊĮ
ĠrÊ²i ÊĥËĪÉĳ
Êĥ ki
ĠÊĴyÉŃÊ²ËĪi Éķ
k tËĪÉĳ
ĠpÉĶv ËĪÉĶ
tÊĥËĪÉĶ nÉĽ
ËĪÉĽ t
ĠÉŃËĪutÊĥy jÉª
va ÊĴ
ĠmÊ²irÊĮ vËĪoj
ĠdÊĮku mÊ²intËĪÉĳ
ĠtÊ²i Ê
ĠtÊ²iÊ Į
Ġpra v
o st
ĠrËĪa s
Ġa b
ĠpÊ²irÊ²i kÉŃÊ²u
Ġru kËĪoj
ĠÊĮdnÊĮ mËĪu
ĠtÊĮ ksÊ²ËĪi
Â» :
ĠpÊĮd bÊ²irËĪÉĳ
ĠmÊ ²ËĮÉĽ
rÊĴ a
u É¡ËĪoÉŃ
Ġb ËĮa
ĠnÊĮprÊ²a mËĪuju
ĠmËĪÉĳ tkÊ²Éª
ĠstËĪÉĳÉŃ kÊ²i
tsa x
É²stf ÉĶ
ĠÉ²ËĪi m
ĠkËĪodÊ²i ksa
tÊ²iÉŃ stvÊĮm
ĠÊĴ u
ĠtÊĥÊ²i stÊĮ
j ka
ĠsËĪÉĳj tÊĮf
strËĪoj kÊ²Éª
ĠfÊ²i ÉŃÊĮ
ĠdËĪo ktÊĮr
E R
x ËĪe
ĠÊĮbraÉķËĪÉĳ tÊ²sÊ²ÊĮ
ĠmÉĶÊĴËĪÉĽ mÉ¨
ĠspÊĮrts mÊ²ËĪe
ĠpÊ²irÊ²i É¡ÊĮvËĪo
Ġa spÊ²ËĪe
sÊ²tÊ²ÊĮ m
xu d
ĠprËĮa tsÉĶv
Ġ5 5
ĠpÊ²irÊ²i nÊ²i
v jËĪju
ĠÉªn du
ĠbrËĪÉĳu Êĳi
ĠÉªskËĪus stva
ĠtÊĥÊ²ÉŃÊ²ËĪe nÊĮf
ĠtÊĥÊ²ËĪuv stvu
ÉķtÉķ a
ĠÉ¡ÊĮsudËĪÉĳr stvÊĮ
mÊ²ËĪi n
Ġsk ËĮÉĶ
ĠtÊĮr mÊĮ
jËĪÉĶnts ÉĶ
Ġf skËĪorÊ²i
ĠvËĮÉ¨ ma
ĠÊĮpsÉŃËĪuÊĴy vÊĮnÊ²ija
c he
É¡lËĪÉĶ nda
ĠÉ¡ÊĮsudËĪÉĳrstvÊ²i nnyx
sta nËĪÉĳvÉŃÊ²i
ĠsÊĮ ÊĮtnÊĮ
ĠaÉ¡rÊ²i É¡ËĪÉĳ
krËĪÉĽ ÉķÉĽ
Ð» Ð°
ĠkËĪÉĳ rt
ĠsÊĮdÊ²irÊĴËĪÉĳ nÊ²ija
ĠvËĪyÉ¡ÉŃÊ²ÊĮ dÊ²itÊ²
ru s
ĠI I
ĠpravÊ²ËĪi tÊ²iÉŃstvÊĮ
c t
ĠkÊĮmmu nÊ²ikËĪÉĳ
Ġma É¡nÊ²ËĪi
ĠdÊĳËĪÉĽ É²
m ËĪÉĶÉķtÉķi
É¡ËĪÉĳ jitsÊĮ
Ġfa ntËĪÉĳ
ĠzÊĮ É¡ÊĮtËĪo
ĠpËĪo ÉŃÊĮsÊ²tÊ²Éª
ĠkÊĮmpÊĮnÊ²ËĪe nty
ĠnÊ²i ËĪÉµ
ĠdÊĮbËĪÉĳ vtÊ²i
ji k
ĠdrËĪu É¡u
ĠkÊĮn sÊ²ir
ĠmÊ²ËĪe dÉŃÊ²innÊĮ
ĠzÊĮfÊ²i ksÊ²ËĪi
ËĪÉµ tsÊĮ
mÊ²ËĪe trÊ²i
ĠfËĮi na
d nymÊ²Éª
ËĪal nÉ¨x
ĠÊĮ rËĪÉĳ
ĠËĪovÊĮ ÉķÉª
ĠÊĮrÉ¡ÊĮnÊ²i zËĪovÊĮ
ĠpÊĮsÉŃÊ²ËĪednÊ²i x
ĠA d
ĠÊĮbjjËĪe kt
skËĪÉĳ ja
tsËĪÉĽ É¡ÉĶ
ÉĽr ËĪÉĶ
ĠÐ Ĳ
ĠÉªn tÊ²i
ÉŃÊ²ËĪe n
ĠÉªntÊ²ÉĽr fÊ²ËĪe
tsËĪÉ¨j nÉ¨x
ËĪo f
ĠËĮÉĽ ndËĮÉĽ
ĠÉªn spÊ²ËĪe
ĠrÊĮ zu
ĠsÉŃËĪo vnÊĮ
ĠrÊ²i ËĪÉĳÉŃnyjÉª
Êĥy mÊ²Éª
ĠÊĮtsËĪÉĽ nÊ²i
ĠtÊĥÊ²ity rÊ²ËĪex
Ġa nkÊ²ËĪe
ĠÊĥtuka tËĪur
ĠmÊ²itÊĥÊ² tËĪÉĳ
ĠsÊĮstËĪÉĳ va
ĠdËĮÉĶ ÉķfÊ²at
ĠzarËĪu vnÉĶ
ĠÉªz natÊĥÊ²ËĪÉĳÉŃnÊĮ
ËĮÉĽrËĪÉĽ n
ĠrÊĮ dÊ²iËĪÉĳ
ĠpËĪoÉŃzÊĮvÊĮ tÊ²iÉŃÊ²Éª
ĠsÊ²isÊ²tÊ²ËĪe mÊĮj
ĠËĪÉª É¡ÊĮ
Ġma ÉŃËĪy
ĠÉĽ rÊĮ
Ġst rËĪovÊĮ
ĠprÉĶ É¡rËĪa
ĠnÊ²iÊĮpxÊĮdÊ²ËĪimy x
zy vËĪÉĳtÊ²
me nt
ĠÉĽÉŃÊ²i mÊ²ËĪent
ĠmÊĮÉ¡aÊĳËĪi na
ĠvÊ²ir nËĪutÊ²sÊ²ÊĮ
ËĪu m
ĠprÊ²i É¡ÊĮ
ĠtÊĥÊ²a sÊ²tÊ²ËĪej
ĠrÊ²iÉ¡Ê²istrËĪÉĳ tsyju
ĠvÊ²ËĪe dÊĮm
ĠdÊ²ËĪenÊ²i ÊĴnyx
ĠantÊ²i bÊ²iËĪo
ĠrËĪuÊĴ nÉ¨x
ĠrÊĮsstÊĮËĪja nÊ²ijÉª
Ġsu xËĪi
ĠrÊ²i Êĳ
ĠpÊĮËĪja vÊ²itsÊĮ
ÊĴ ny
ĠprÊ²idmÊ²ËĪe t
ĠpËĮÉĽ ËĪÉĽr
ĠpÊĮ stupÊ²ËĪi
ĠftÊĮ rËĪom
b lËĪÉĽ
ĠmÊ²ËĪi ru
ĠtÊ²ir mÊĮ
ĠtÊĥ Ê²ËĪÉµ
ĠkÊĮ nÊ²ËĪets
tÊ²ir pÊ²ËĪe
ÊĴËĪÉĳ tÊ²sÊ²ÊĮ
ĠprÊĮdÊĮÉŃÊĴËĪy tÊ²iÉŃnÊĮstÊ²
ĠÊĮb rÊ²ËĪe
ĠvÊĮzmËĪoÊĴnÊĮ sÊ²tÊ²ij
ĠÊĮkÊĮntÊĥÊ²ËĪÉĳ nÊ²ija
3 1
tÊ²ËĪi ta
Ġu xud
ĠudÊĮvËĪoÉŃ stvÊ²ijÉª
ĠprÊĮvÊĮ sÉŃËĪÉĳ
ĠpÊĮ pÊ²i
ja m
ĠnÊĮ É¡rÊ²i
ĠËĪoddy x
ĠtrÊ²ËĪebÊĮvÊĮnÊ²ija m
ĠpÊĮd vÊ²ËĪi
Ġvy kÉŃÊ²u
ĠsvÊ²idÊ²ËĪe tÊ²iÉŃstvÊĮ
ĠmÊ²ËĪÉĽ ndÊĳÉ¨
ĠutÊĥÊ²ËĪÉĳsÊ²tÊ²i ja
ĠÊĥËĪo u
Ġku rÊ²ËĪi
ĠfËĪÉĳktÊĮ ry
ĠËĮÉĽ k
ĠÊĮp ÉķËĪenÊ²ija
rÊĮ ËĪja
ĠupÊĮtrÊ²ibÉŃÊ²ËĪÉĳ tÊ²
ĠÉªn fÊ²ik
v ËĪÉ¨
ĠÉª sÊ²tÊ²i
ĠmÊĮÉŃÊĮdËĪy jÉª
ĠsÊ²ikËĪu nt
ĠkËĪu xÊĮ
ĠËĪÉĳrmÊ²i Éª
Ġka sËĪÉ¨
ĠpartÊ²nÊ²ËĪe r
mÊ²i sÊ²ÊĮ
ĠprÊ²itÊ²sÊ²i dËĪÉĳtÊ²iÉŃ
ĠmÊ²ËĪetÊĮ dÊĮf
Ġfa mÊ²ËĪi
ĠpÊ²i daÉ¡ËĪo
ĠmËĪa m
ĠpÊĮpËĪÉĳ stÊ²
ĠbÊĮrÊĮ dËĪÉĳ
ĠËĪÉĳdrÊ²i su
Ġ( Â«
ĠÊĮt tsËĪÉĳ
ĠmËĪÉĶ É¡
ĠdÊ²i sp
ĠvysËĪo kÊ²ijÉª
É¡ jËĪÉĽ
ĠÉªz bÊ²irËĪÉĳ
sÉŃËĪÉĳ f
ĠparËĪÉĳ mÊ²i
ra bËĪÉĳ
jÉĽ kt
ĠbÉŃÊĮÉ¡ÊĮ prÊ²iËĪja
Ġr ËĮa
fËĪu j
Ġm wËĪÉĶ
ĠÊĮkazËĪÉĳ ÉŃsÊ²ÊĮ
4 1
vËĪi ÉķtÉķÉĽ
ĠdÊĮÉŃ ÊĴnÊĮ
Ġp i
ĠÊĮt kËĪuda
ĠÉ¡ÉĶ dÊĳËĪi
ĠÉ¡rËĪup p
ĠmÊ²ËĪÉĽ tÉķ
É¡Ê²i ËĪo
ĠprÊ²idpÊĮÉŃaÉ¡ËĪÉĳ jit
ĠsÉŃËĪo ja
ĠnÊĮvÊĮ É¡ËĪo
jimÊĮ sÊ²tÊ²Éª
ĠrazmÊ²ËĪe rÊĮm
ĠzËĪÉĳf trÊĮ
rÊ²ËĪi s
vÊ²i sÊ²ËĪi
ĠÊĮpÉŃËĪÉĳ ta
t ÉŃÊ²i
rÊ²i dÊĮ
É¡Ê²i bËĪÉĳ
ĠbËĪÉĳ r
Ġv za
rËĪu jÉĽ
ĠmËĪÉĳ ssa
spÊ²ÉĽ tÊĥËĪÉĽ
ĠËĪÉĶ nÉĽ
tÊĥ na
mÊĮ k
ĠkËĮÉĶ mp
s ÉŃÊ²ËĪi
ĠËĮu tÊĥÉĽ
ĠnÊĮtÊĥÊ²inËĪÉĳ tÊ²
sÉŃÊ²ËĪe nÊ²ija
ĠÉ¡Ê²i r
ĠÉĶ xrËĪÉĶ
ĠprÊ²ivÊĮ s
Ġrask rËĪy
bÊ²ir bËĪÉĳ
ĠzËĪo nÊ²i
Ġzd rÊĮvÊĮ
tÊ²a brÊ²ËĪe
ĠdÊ²i fÊ²ËĪe
ĠsÊ²i rÊ²ËĪe
ĠmËĪu ÊĴa
rt ÉĽ
ĠpÊĮ sÊ²tÊ²ËĪe
dÊĳÉĽ tÉķ
ĠsÊ²i ÉŃÊĮ
ĠprÊ²irËĪo dy
Êĥ kÉĶ
ĠÊĮb y
ĠÊĮtsy nÊ²ËĪitÊ²
Ġnu ÊĴdËĪÉĳ
ĠsÊ²nÊ²ËĪi ÊĳitÊ²
ĠsÊĮvmÊ²ËĪe stnÊĮ
z mÊ²i
rÊĮ ËĪi
Ġf xËĪot
ĠpÊĮmÊ²i dËĪo
ĠprÊĮ É¡rÊ²i
ĠdÊ²izËĪÉĳ jna
ĠÊĮÉķu ÉķËĪenÊ²ijÉª
ra t
ĠsÊĮtsy ËĪÉĳÉŃnÊĮ
ĠprÊ²ËĪinÊ²ÊĮ ÉŃÊ²Éª
4 7
ĠprÊ²ËĪe ÊĴ
xÊĮ ÊĳËĪÉĳ
Ġv rËĪa
ĠsËĪo ÉŃÊ²Éª
ĠsvÊ²ËĪÉĳzÊĮ nnyx
Ġz nËĮa
ĠÉ¡ÊĮ rÊĥ
tu rËĪa
ĠprÊ²itÊĥÊ²ËĪi nÊĮm
ĠpÉŃËĪÉĳ ty
Êĥ nÊ²i
ĠpÊĮtÊĮ ÉŃËĪoÉ¡Ê²iÉª
Êĥ tÊĥa
ĠÊĮd nÊ²ËĪÉª
ĠÊĮkruÊĴËĪÉĳ juÉķij
ĠÊĮptÊ²i mÊ²i
tÊ²ËĪiv nyj
ĠprÊĮku ratËĪu
t ÉĽm
ĠkÊĮmpÊĮnÊ²ËĪe ntÊĮf
w ki
Êĥ tÊ²i
ĠC a
ĠÉĽffÊ²iktÊ²ËĪivnÊĮ sÊ²tÊ²Éª
ĠvÊĮsprÊ²i nÊ²imËĪÉĳ
Î ¿
m pu
ĠvÊĮsstÊĮnÊĮ vÊ²ËĪitÊ²
x nÉĶ
v ÉĽr
Ġf prËĪÉĳvÊ²i
ĠrÊ²ËĪi s
vÊĮ nÊ²iju
Ġu strËĪÉĳi
ĠjÉªvrËĪo pÊ²i
Ġr Ê²a
ĠdÊĮstËĪup ny
ĠdÊ²irÊĴËĪÉĳ tÊ²
ĠaÉŃÊ²iksÊ²ËĪe j
kÊĮ mu
kt Ê²ËĪÉĳ
d rÊ²i
ĠnÊĮxÊĮdÊ²ËĪi tÊ²sÊ²ÊĮ
ĠpÊĮk ÉŃËĪo
ĠsvÊĮbËĪo dy
ĠËĪopÉķi stvÊĮ
ÉŃÊ²i ju
ĠpÊĮmËĪo Éķ
Ġstra nËĪÉĳ
ĠfÊ²i ÊĳiÊĮ
Ġv rÊ²ËĪÉĳt
Ġka nËĪÉĳÉŃ
ntsy j
ĠznËĪÉĳ k
ĠÊĮrÉ¡a nÊ²ËĪi
tÊĥÊ²i kÊ²Éª
4 9
Ġ &
l nÉĽj
ĠprÊ²i xÊĮdÊ²ËĪi
ĠsÊ²imptËĪo mÊĮf
ĠsÉŃÊ²i dÊ²ËĪitÊ²
d na
ĠspËĮÉĽ tsja
vËĪÉĳ ÉŃÊĮ
k rËĪÉ¨
Ġf ska
ĠtÊĥËĪÉ¨ m
va w
rÊ²i dÊ²Éª
ĠÉªntÊ²ÉĽr vjËĪju
ĠsÊĮÊĮtvÊ²ËĪetstvu juÉķij
Ġza lËĪÉĽ
vÊĮ ÉŃsÊ²ÊĮ
pÊĮ mÊ²Éª
ĠËĮu sta
Ġda vËĪÉĳtÊ²
tÊĥ ËĪu
Ġsy rÉª
I N
ĠrÊ²ia É¡Ê²ËĪi
ĠÉ¡ ÉŃËĪu
ĠprÊĮ dËĪoÉŃÊĴy
ĠtÊ²imÊ²pÊ²iratËĪu rÊ²i
Ġku rËĪo
ĠprÊ²i stËĪup
ĠrÊ²ikÉŃËĪÉĳ ma
ĠsËĪo tÊ²
ĠËĪja kÊĮ
ĠÉª mÊ²i
ĠprÊĮdËĪÉĳ ÊĴa
f e
ĠsÊĮvmÊ²i sÊ²tÊ²ËĪi
Ġvy pa
ĠtÊĥÊ²i x
ĠkËĪÉĳ ÉŃ
stÊĮ n
Êĳi j
o y
ĠmËĪÉĳ rkÊ²Éª
ĠÉªspÊĮÉŃ nÊ²ËĪenÊ²ija
Ġ1 20
É¡ËĪÉĳ jut
Êĳi ËĪÉĳ
ĠpÊĮxËĪo ÊĴyjÉª
or e
201 6
ĠzÊĮkÊĮnÊĮdËĪÉĳ tÊ²iÉŃstva
tÊ²nÊ²i ka
Ġz rËĪÉĶ
rÊ²i jif
ĠsvÊ²ËĪe ÊĴy
Ġp wËĪÉ¨
ĠstrËĪÉĶ É²Ê²ÉĽ
vÊ²ËĪÉĽ É²Ê²a
Ġ200 7
ĠutÊĥÊ²ËĪÉĳst kÊ²Éª
Ġf pr
ËĪÉĽr É¨
Ġv ËĮa
ĠxÊĮÊĳËĪÉĳ jstvÊ²i
ĠrÉĶ dÊĳËĪa
ĠÊĮprÊ²idÊ²iÉŃÊ²ËĪe nnyx
ĠvÊ²i n
ÉŃÊĮÉ¡Ê²ËĪi tÊĥÊ²iskÊ²ij
ĠprÊ²i u
ĠÉ¡ ËĪa
ĠvËĪy ÉŃÊĮ
tsyja m
ĠÊĮstaÉŃ nËĪyx
f ta
ĠpÊĮ vÊ²idÊ²ËĪenÊ²ija
4 2
ĠprÊĮmÊ²i ÊĴËĪu
ËĪaw ÉĽ
ĠbËĪu dÊ²tÊ²i
nÊĮ vÊĮj
ĠkÊ²isÉŃËĪo ty
ĠE x
ĠpÊĮkÊĮ ÉŃÊ²ËĪenÊ²ija
ĠfÊĮrmÊ²irÊĮ vËĪÉĳnÊ²ija
ĠdrÊ²i vÊ²isÊ²ËĪi
tÊĥÊ²i kÊĮf
f ra
ÉĽts ËĪÉ¨
ĠtÊĥÊ²i rnÊĮ
p is
ĠdËĮÉĶskÉĶ nËĪa
ĠdÊĮ mÊĮ
ĠrÊ²ËĪi ska
ĠÉ¡ÉŃËĪÉĳv nÊĮj
ĠkrËĪÉĳ skÊ²Éª
k ËĮÉĶ
stËĪÉĳ ntsyÉª
ĠspÊ²itsy ËĪÉĳÉŃnyj
ĠaftÊĮmËĪÉĳ t
ĠÉªz ÉŃÊ²ËĪi
ĠÉ¡ËĮÉĽ ËĮÉĽrËĪÉĽn
ĠkÊĮtÊ²iÉ¡ËĪo rÊ²ija
ĠdÊ²inËĪÉĳ mÊ²i
ĠÐ ľ
É¡ÊĮ rËĪod
ĠÊĮk nËĪo
ÊĮx ra
mp ËĪu
ĠspÊĮkËĪoj nÊĮ
x É¨
ĠÉªn frÊĮ
mjÉĽ Êĥ
Ġza pËĪÉĽv
ĠpÊĮÉŃutÊĥÊ²ËĪi ÉŃa
rÊĮ vËĪÉĳtÊ²
ĠpËĪÉĳ ry
ĠtÊĥÊ²ÊĮ stÊĮ
va r
ĠsfËĪÉĶ ix
ĠkÊ²iÊĥËĪÉĽ tÊĥÊ²nÊ²ika
ĠpÊ²i nÊĮ
ĠtrËĪÉĳnspÊĮr ta
ĠrÊ²isËĪur sÊĮf
d ËĪar
ĠËĪÉĽ f
ĠÊĴ É¨
Ġta mËĪo
ĠpÊ²ËĪÉĽ Åĭk
ĠÉªzÊĮbra ÊĴËĪÉĽnÊ²ijÉª
stÉ¨ tËĪu
b er
ĠprÊ²i kËĪÉĳ
ĠsfËĪÉĶ jÉĶ
ĠsÊ²imÊ²ËĪe na
ÉŃÊĮ n
f tsÉ¨
ĠÉªz ba
ĠukraËĪi na
ĠmÊĮ jivËĪo
ĠstËĪÉĳ nut
ĠsÉŃÊĮ ÊĴËĪy
ĠpÊĮ tÊ²
ĠpÊ²i rÊ²ËĪe
t kÊ²ij
dÊĮ n
ĠkrasÊ²ËĪi vÊĮ
ĠrËĪÉ¨ Åĭku
ĠmËĪoÉķ nÊĮsÊ²tÊ²Éª
zËĪÉĳ p
ĠnÊĮ pa
ĠuvËĪa É¡ÉĽ
ku ÉŃÊ²ËĪÉĳ
ĠrÊ²itsËĪÉĽp ty
ĠÊĮtk ÉŃÊĮ
ĠkÊĮm prÊ²ËĪe
Ê²ÉĽ r
ĠsÊ²izËĪo na
ĠrÊ²ibÊ²ËĪÉĳ ta
sy ÉŃËĪÉĳ
ĠÊĥa bÉŃËĪo
Ġ3 7
ĠprÊĮja vÉŃÊ²ËĪenÊ²ija
i ÉŃ
ĠmÊ²ËĪe dÊ²i
ĠÊĮt pËĪu
Ġu zna
ĠÊĥ ÉŃËĪÉĳ
Ġza kËĪup
ĠnaÉŃËĪo É¡a
Ġf pÊ²ËĪi
ĠpÊ²ËĪisÊ² mÊ²i
ĠkËĪÉĳÊĴdy m
nËĪu jÉĽ
ĠtsËĪÉĽ nu
Ġx ÉŃËĪo
ĠfÊ²iÊĳËĪi tÊĥÊ²iskÊ²ix
Ġma r
tÊ²ËĪi f
ĠspËĪosÊĮbÊĮ mÊ²Éª
ĠÊĮtÊĮ pÉŃÊ²ËĪenÊ²ija
t va
ĠpÊĮÉ¡Ê²ËĪi p
ĠvËĪyj tÊ²Éª
sna b
ĠrazÉŃÊ²ËĪi tÊĥÊ²nymÊ²Éª
ĠnÊ²i sËĪu
ĠsËĪobstvÊ²i nnÊĮj
id e
w s
zÊĮ tsyÉª
ĠmÊĮtÊ²irÊ²iËĪÉĳ ÉŃÊĮm
ĠnÊĮrmËĪÉĳ ÉŃnÊĮ
dËĪÉĳ m
ĠmÊ²ixanÊ²ËĪiz m
ĠÉĽkspÊ²i rtÊ²ËĪi
ĠÉŃËĪo ÊĥkÊ²Éª
ĠsËĪÉĳ nk
ĠrasxËĪo dÊĮf
ĠpÊĮra ÉŃÉŃÊ²ËĪe
vÊĮ jitÊ²i
Ġma sÊ²sÊ²ËĪi
Ð¾ ÑĢ
Ġx ËĮÉĶ
f Ê²ËĪer
ĠprÊ²ipÊĮ davËĪÉĳ
Ġnap ÊĥËĪÉ¨kwad
ÉŃa ktÊ²ËĪi
ĠÉ¡ÊĮrÊ²izÊĮ nt
ĠÐ ¢
Ġza kËĪÉĳzy
ĠkËĮÉĶ mu
ĠpËĪo d
rËĪo jÉª
j tÊ²ËĪi
Ġi st
ĠassÊĮrtÊ²i mÊ²ËĪent
pËĪo t
Ð» ÑĮ
ĠËĮi ntÉĽ
ĠÊĮtvÊ²i tÊĥÊ²ËĪÉĳjit
ĠrabËĪo tÊĥÊ²ivÊĮ
ĠstÊĮËĪja t
ĠprÊ²idstavÉŃÊ²ËĪÉĳ jut
ĠpÊĮjavÊ²ËĪi ÉŃsÊ²ÊĮ
Ġd ÉĽ
skËĪÉĳ zy
ĠmËĪÉĳksÊ²i mu
ĠËĪÉĳ k
ĠstrËĪÉĳ x
ĠpËĮÉĶ pu
ĠnÊĮstrÊĮjËĪe nÊ²ijÉª
sÊ²ËĪi tÊ²i
Åĭ É¡a
ĠsprËĪÉĳ vÊ²itÊ²sÊ²ÊĮ
É¡Ê²i jÉª
ĠprÊ²i tÊ²ËĪenÊĳi
ĠvysËĪo kÊĮvÊĮ
ĠnÊĮ sÊ²ËĪitÊ²
ĠsÉŃÊ²ËĪedÊĮvÊĮ tÊ²iÉŃnÊĮ
ĠdËĪu ÊĥÉª
ĠrÊĮz mnÊĮ
ĠbËĪonu sy
ĠpÊ²irÊ²i jËĪe
krÊĮ vÊ²ËĪe
ÊĥËĪÉĽ É²Ê²ÉĽ
ĠjËĪÉĽ dÉĽn
tÊĥËĪÉ¨ ma
ĠÊĥ ka
Éķi tËĪÉĳtÊ²
ĠrÉĶ zm
k e
Ġz vÊ²ÉĽ
Ġts ËĪu
ĠskÉŃËĪÉĳ dy
ĠdÊĮ bËĪy
ĠpÊĥËĮÉĽ tsta
ĠnÊ²ika kËĪovÊĮ
ĠkÊ²ËĪe m
ĠÊĮbjja vÉŃÊ²ËĪenÊ²ija
ĠxÊĮ ÉŃÊ²i
ĠfÊ²ËĪiÉŃ ma
ĠÊĮbjjËĪe ma
ĠÉŃÊ²itsËĪo m
ĠrasÊ²tÊ²ËĪe t
ĠvrÊ²ËĪe t
Ġb ËĮÉĶ
Êĥ kÊ²ËĪÉª
ĠÉ¡ÊĮrÊĮd skËĪoj
bo ok
ĠxrÊ²i sÊ²tÊ²i
ĠmÊ²id vÊ²ËĪe
ĠbÊ²izu sÉŃËĪo
Ġd vËĪa
ĠpakÊ²ËĪe t
ĠzÊĮintÊ²ÉĽrÊ²i sËĪovÊĮ
Ġu ÉŃy
Ġna prËĪÉĳ
ĠkËĪomnÊĮ tu
ĠËĮÉĽmvËĮÉĽ dËĪÉĽ
Ġl ËĮÉĶ
ÉŃÊ²i nËĪÉĳ
ĠmÊ²inËĪu ty
nÊ²ija x
z jÉĽ
Ġ ËĪak
ĠmÊĮ nÊ²ik
ĠprÊĮ xËĪodÊ²ÊĮt
ĠprÊ²imÊ²i nÊ²ËĪÉĳjutsÊĮ
ĠnÊĮpra vÉŃÊ²ËĪenÊ²ijÉª
Ġd nÊ²iv
ĠprÊĮ tÊ²ËĪiv
ĠzaËĪja fku
Ġma sÊ²tÊ²ËĪera
ĠunÊ²ivÊ²irsÊ²i tÊ²ËĪeta
Ġus ÉŃËĪo
ĠÊĮsËĪobÊĮ jÉª
nÊ²ÊĮ t
ĠsÊĮmÊĮ u
Ðµ Ð½
ĠbÊĮ É¡ÊĮ
ĠpÊĮ u
ĠsamËĪo mu
Ġzvu kÊĮ
ĠubÊ²ËĪi j
ĠdÊ²i stsy
ĠprÊĮÊĴy vËĪÉĳnÊ²ija
c i
Ġsu tÊ²
nÊĮ vyjÉª
ĠzaÉķËĪi ta
Ġy ou
Ġm ÉŃËĪÉĳd
Ġu tÊĥÊ²ËĪÉµ
ĠdÊĮrËĪo É¡Ê²i
Ġt rËĪÉĶ
Ġvy xËĪodÊ²it
ĠdÊ²ËĪets kÊ²ij
ĠzdrÊĮvÊĮ ÊĮxra
Ġst ËĪaÉ²Ê²ÉĽ
vÉŃÊ²i nnyx
Ġv Ê²azËĪÉĳ
ĠzÊĮ kryvËĪÉĳ
sp rÊĮ
jÉĶn tsËĪÉĽÉ¡ÉĶ
Ġza bËĪu
ĠzdrËĪÉĳv stvujtÊ²i
ĠvÊ²i dÊ²ËĪet
ĠvysÊĮ tËĪÉĳ
bjËĪÉĶ r
Ġku stËĪÉĳ
ĠmÊ²idÊ²i ka
ĠjËĪÉĽd nÉ¨m
ĠstudÊ²ËĪe ntÊĮf
ĠprÊ²idÊĮ stavÉŃÊ²ËĪÉĳjit
ĠmÊ²ËĪi nÊ²Éª
ĠmÊĮnta ÊĴËĪÉĳ
Ð»ÐµÑĤ Ð½Ð¸
ĠÉ¡ ÉŃÊ²i
ĠvypÊĮÉŃ nÊ²ËĪenÊ²ijÉª
Ġsk lËĪÉĽ
ĠÉªz rËĪÉĳ
ĠÊĮpÊ²i rÊĮ
ĠpÊĮ pÊĮÉŃ
ĠssËĪy ÉŃka
ĠvÊĮspa ÉŃÊ²ËĪenÊ²ijÉª
rÊĳ ËĪi
rÊ²i kÊ²Éª
Ġza m
ĠËĪosÊ²in jju
ĠÉ¡ÉŃazËĪÉĳ mÊ²Éª
ĠÉķ m
Ġd rËĪo
ĠsËĪÉĳxÊĮ r
ĠdËĮÉĶtÉ¨ tÊĥËĪÉĶ
Ġbu ÉŃ
ĠÉª dËĪut
ĠÉªntÊ²ÉĽrÊ²ËĪes nyjÉª
ĠpÊĮ trÊ²a
Ġp ËĪar
Ġb rÊ²ËĪen
ĠkÉŃËĪu ba
ĠsÊĮvrÊ²imÊ²ËĪe nnÊĮj
ĠvÊ²i t
tËĪÉĳ tsyju
ĠrabËĪotÊ²nÊ²i ka
strÊ²ËĪe bÊĮvÊĮ
Ġf Ê²ËĪer
ĠdÊ²i kÉŃa
ĠsmÊ²ËĪer tÊ²
tÊĮ sÊ²tÊ²Éª
tÊĥÊ²ËĪÉĳ ÉŃÊ²Éª
ĠmÊ²i xËĪÉĳ
ĠÉ¡Ê²i É¡Ê²i
ĠËĪu É¡ÊĮÉŃ
ĠÉªnÊĮstrËĪÉĳ nnyx
Ġv dËĪoÉŃ
ĠkÊĮmÊ² pÊ²i
rÉ¡ÊĮ n
Ġsu xËĪoj
ĠËĮÉĶ krÉĽ
ĠprÊ²inÊ²imËĪÉĳ jit
ĠtÊĥËĪÉĽÉ² ÉķtÉķ
bra tÉķ
ĠÉ¡ÊĮ dËĪof
ĠrËĪÉĳz nymÊ²Éª
f sÊ²ËĪe
Ġ6 5
ĠpÊĮbÊ²ËĪe dy
Ġv wËĮa
ĠÊĮb mÊ²ËĪen
ĠdÉĶ stËĪa
prËĪo tÊ²if
ĠzËĮa pÉĶ
ĠxËĪu ÊĴy
na d
ry jÉª
ĠpÊĮprËĪobu jtÊ²i
tÊ²ËĪi na
spÊĮr tÊ²i
ĠmÊ²ËĪest nÊĮvÊĮ
r skÊĮj
bËĪo ÉŃÊ²i
e m
Ġvz nËĪo
n dÊĳÉĽ
xËĪo dy
ĠpÉĶ tÊĥËĪÉĶ
ĠzÊĮ É¡ru
ĠsÊĮËĪju za
ĠpÊĮtsyjËĪe nt
Ġu kÉŃËĪÉĳdy
ĠnÊĮ vÊ²itÊĥÊ²
ĠÉªnfrÊĮ struktËĪu
Ġka fÊ²ËĪe
Ġza É¡ËĪÉĳ
Êĥ ËĪÉª
ĠpÊĮ rËĪoj
4 3
ËĪÉ¨ v
ĠnÊ²idÊĮ rÊĮ
j ËĪu
Ġpu bÉŃÊ²ËĪi
dËĪÉĳ mÊ²Éª
zÊĮ vyj
ĠrËĪo zy
ĠbÊ²i nËĪÉĳ
ĠpÊĮÉŃÊ²ËĪe znÊĮ
ĠnËĪo vÊĮm
ĠkakÊ²ËĪijÉª tËĪo
ĠpÉĶ stËĪa
ĠÉª tËĪÉĳ
ĠËĮinfÉĶrm ËĪatsji
ĠsÉĽ kÊĮnËĪomÊ²i
Ġr ËĮu
ĠsÊ²i tÊ²ËĪÉĳ
ĠprÊĮizvÊĮdÊ²ËĪi tÊ²iÉŃ
s mÊ²ËĪe
ic ro
pa rtËĪÉĳ
ht ml
ĠnÊĮprÊ²a ÊĴËĪÉĽnÊ²ijÉª
vËĪÉĳ ÉŃÊ²i
ĠÉ¡ÊĮvÊĮrÊ²ËĪi ÉŃ
Ġst rËĪa
Ġsp rav
ĠzËĪo ÉŃÊĮ
zu mÊ²i
ĠÉªnstru mÊ²ËĪentÊĮf
tÊ²i rÊ²i
ĠsÊĮsËĪu dÊĮf
ĠÊĮt kËĪÉĳs
k Ê²ËĪÉĽ
ĠnÊĮvÊĮ sÊ²ibÊ²ËĪir
ĠlËĪi dÊĴ
ĠÉĶ É¡rËĪÉĶ
ĠÊĮpsÉŃËĪuÊĴy vÊĮnÊ²ijÉª
ÊĥËĪo k
ĠbÉŃÊĮÉ¡ÊĮ dËĪÉĳ
pÊĮ j
É²i x
ĠtÊĥÊ²i nËĪo
st vËĪÉĳ
mËĪo k
Ġu kazËĪÉĳtÊ²
s sÊĮm
ĠËĪal bÉĶ
ĠËĮa rtÉ¨
ĠnÊĮvÊĮ rËĪo
ĠsÊĮzda jËĪet
ĠkÉŃÊ²ijËĪe nt
ĠprÊ²id ÉŃËĪoÊĴy
ĠrÊĮspÊĮ ÉŃËĪoÊĴyn
ĠdËĮÉĽ tËĮÉĽpËĪÉĽ
ĠnÊĮprÊ²a ÊĴËĪÉĽnÊ²ija
ĠpÉĶ tstËĪa
kÊ²ËĪe t
ĠrËĪus skÊ²ijÉª
stvÊ²i jim
ĠnÊĮvÊ²ir nÊ²akËĪÉĳ
mÉĶ ts
ĠrÊĮzrÊ²i ÊĥËĪÉĽnÊ²ija
bÊĮ r
ĠbËĪudu ÉķivÊĮ
ĠÐ ¡
ĠmËĮatÉĽr j
ĠpËĪo ÉŃÊ²ÊĮ
ĠprÊ²ËĪiby ÉŃÊ²Éª
ÉŃÊ²i Éķi
juÉķim sÊ²ÊĮ
Ġs vÊ²azËĪÉĳ
ĠprÊĮvÊ²ËĪer ka
ĠbÊ²ispÉŃËĪÉĳ tnyj
ĠfstrÊ²i tÊĥÊ²ËĪÉĳjutsÊĮ
ĠtrËĪÉĳ xÊĮ
ĠÊĮ É¡u
ĠvÊ²i ÊĳËĪi
ĠvnËĪutrÊ²i nnÊ²ijÉª
Ġn ÉĶ
ĠÉªzmÊ²i ÉŃ
ĠÉŃÊĮ kËĪÉĳ
ra kt
ĠstÊĮ ÉŃÊ²ËĪe
ĠrajËĪo n
201 9
rÊ²i ÉŃ
ĠfËĮu Åĭk
Ġ0 1
ĠuÉŃËĪutÊĥÊ² ÊĥytÊ²
ĠnÊĮi bËĪoÉŃ
Ġsk wa
ĠÉĶ f
ĠkËĪÉĳ mÊ²in
ĠkÊĮmÊ²pjËĪjutÊ²ÉĽ ra
Ġdru É¡ËĪÉĳja
ĠÊĮsta ËĪjutsÊĮ
ÉŃÊ²ÊĮ t
ĠsÊĮÉŃ dËĪÉĳ
ĠprÊĮ stÊĮ
ĠÊĮpÊ²irËĪÉĳ tsyj
sÊ²ÊĮ tÊ²
ĠunÊ²itÊĥÊ² tÊĮ
Ġk ËĮu
ĠÐ Ĵ
: .
ĠspÊĮsËĪobnÊĮ sÊ²tÊ²Éª
ru jim
ĠkÉŃÊ²ËĪe j
ĠspÊ²itsy ËĪÉĳÉŃnÊĮj
ĠdÊĮrÊĮÉ¡Ê²ËĪi jÉª
vÊ²i s
ĠandrËĪo it
ĠprÊ²i stupÉŃÊ²ËĪenÊ²ija
ĠrËĪus skÊĮj
Ġf ËĪÉĶr
ĠkrasËĪo ty
kÉĶ É²
ĠsËĪÉĳj ty
mp y
tÊ²nÊ²i kÊĮf
Êĥ ny
vrÊ²i mÊ²ÊĮ
ĠtsËĪÉĽ ÉŃyj
vi d
ĠkËĪÉĳmÊ²i ry
rÊĮ s
nËĪÉĶ Éķi
ĠÉ¡ÊĮÉŃÊĮ sÊĮ
ĠÉ²Ê²ËĮÉĽ za
ĠÊĮrÉ¡ÊĮnÊ²i zÊĮ
ĠprÊĮ tÊĮ
tÊ²iÉŃ ny
É¡lÉĶ nd
ĠunÊ²ivÊ²ir s
ts ki
ĠÊĮdÊ²dÊ²ËĪe ÉŃnyjÉª
dÊ²i ÉŃ
ĠprÊĮ jdÊ²ËĪet
É² ski
nÊ²ËĪe ty
ĠprÊ²iÊĮbrÊ²i tËĪÉĳ
fÊ²ikËĪÉĳ tsyja
ĠÊĥËĪÉĽ stÊ²
ĠnÊ²iu dËĪÉĳ
ĠmÉĶÊĴlËĪi vÉĶÉķtÉķ
ĠprÊĮdÊĮÉŃ ÊĴËĪÉĳjit
Ġs jjËĪem
ĠfËĮina ns
j dÊĳÉĽ
nËĪÉĽ ntÊĥ
: ||
ĠpÊĮnrËĪÉĳvÊ²i ÉŃÊĮsÊ²
sÊ²i jÉª
ÉĽ t
ĠÉ¡ÊĮ ÉŃÊĮvÊ²ËĪe
ĠtÊĮrÉ¡ËĪo vÉŃÊ²Éª
na mÊ²ËĪi
Ê²ÉĽ t
ĠkrÊ²i ptÊĮ
ĠkÊĮ ma
ftÊĮ rËĪyx
ĠtÊ²ÉĽ sÊ²tÊ²ËĪi
ĠËĮutÊĥÉĽ st
ĠkrËĪÉĳj nÊ²ij
A R
ĠvÊ²iÉŃÊ²i tÊĥÊ²i
ĠdÊ²ËĪej stvÊĮvÊĮtÊ²
ĠbÊĮÉŃ nËĪyx
ĠsËĪy na
ĠvËĪÉĳ ÊĴnyx
Ġna É¡rËĪÉĳ
ĠB a
Ġb ru
ĠÊĮbËĪo Éª
ĠvdÊĮ xnÊĮ
ĠfÊĮrmËĪÉĳ tÊ²i
Ġf sk
ĠspÊ²ËĪe kt
dÊ²ËĪÉĳ t
ĠÉ¡ ËĪup
Ġja j
tÊ²ËĪi tÊĥÊ²iskÊĮjÉª
ĠrÊ²izuÉŃtËĪÉĳ ta
Ġs tsy
ĠuvÊ²iÉŃÊ²ËĪitÊĥÊ²i vÊĮjitsÊĮ
ĠËĪÉª p
ĠkËĪompÉŃÊ²ik sa
ĠÊĴ ËĪÉĶ
ĠbÊ²i rÊ²i
bjÉĽ rËĪa
prËĪo vÊĮ
ĠÉ¡ ÉŃÊ²ËĪÉĳ
ĠnËĪaÊĥ É¨x
ĠËĪÉª sk
Ġx ranÊ²ËĪitÊ²
Ð ¢
ĠpÊĮdÊ²dÊ²ËĪerÊĴy vÊĮtÊ²
ĠdrÊ²ËĪe v
ĠstËĪÉĳ ntsyÉª
ĠdÊĮmËĪÉĳÊĥ nÊ²ij
ĠmËĪy Êĥy
ĠvËĪydÊ²iÉŃÊ²i tÊ²
ĠÉĽnÊ²ir É¡ÊĮ
ĠmÊĮÉŃÊĮ kËĪÉĳ
ĠÉĽkspÊ²ËĪer ty
ĠpÊĮdrÊĮ zumÊ²i
ĠvËĪo vrÊ²imÊ²ÊĮ
ĠtÊ²imÊ²pÊ²i ratËĪur
ĠaktÊ²ËĪivnÊĮ stÊ²
ĠtsËĪy k
ĠËĮuÊĴÉ¨tk ÉĶv
ĠÉŃËĪÉĳ Êĳi
s wËĪa
ĠmÊ²i ÊĴ
ĠpÊĮ ÉŃÊ²ËĪÉĳ
ĠÊĮsËĪobÊ²innÊĮ sÊ²tÊ²ij
y a
ĠËĪja ndÊ²iks
nÊĮ ÉŃ
ĠÉ¡ÉŃËĪÉĳ vnÊĮvÊĮ
ĠdËĪo tÊĥÊ²
ĠpÉŃanÊ²ËĪi rujitsÊĮ
rt ËĪy
ĠÉ¡ËĪoÉŃÊĮ s
ĠsÊ²i dÊ²ËĪe
ĠtÊĥÊ²ËĪe tkÊĮ
ĠrÊ²i jËĪe
s tÊĥÉĽ
ĠvÊĮ sÊ²
ĠprÊĮstËĪy jÉª
ĠvÊ²ir xËĪo
ĠÊĮtvÊ²ËĪersÊ²tÊ²i ja
ĠY ou
ĠÉ¡Ê²i pÊĮ
ÊĴ nÊ²imu
sp Ê²ËĪi
ĠsÊĮÉ¡ÉŃa ÊĥËĪÉĽnÊ²ija
ĠkÊĮr nÊ²i
ĠrÊ²iÉ¡u ÉŃÊ²i
ĠjÉªdÊ²ËĪinstvÊ²i nnyj
ĠdËĪo brÊĮ
ËĪi mi
g a
ĠÉªtËĪo É¡ÊĮm
ĠbÉŃÊ²ËĪi ÊĴy
ĠdÊ²i partËĪÉĳ
tÊĥÊ²ËĪi ÉŃ
ĠpÊĮi skËĪo
vÊ²ËĪi t
tÊĥÊ²i nËĪy
ĠzaÉķËĪi tu
8 8
ĠmÊ²i stÊĮ
ĠnasÉŃÊ²ËĪe d
e e
ĠtsvÊ²i tËĪo
ĠnÊĮ dÊ²i
ĠjËĪÉĽd nÉĶ
ĠspÊĥÉĽ dËĪa
ĠpËĮÉĽ kËĪÉĳ
Ġna ÉŃËĪok
ĠpÊ²isËĪÉĳ tÊ²
Êĥ ÊĥËĪÉĽ
Ġvz rËĪÉĶ
tÊĥÊ²ËĪe t
ĠvÊĮ pÉŃÊĮ
rËĪovÊĮ k
ĠdÊ²ËĪevÊĮ tÊĥÊ²kÊ²Éª
ĠvÊĮz mÊ²i
ĠkÊĮmpËĪÉĳ nÊ²ijij
ru juÉķijÉª
ĠstËĮÉĶ s
ÉŃ ta
j jij
skÊĮ r
sp ËĮÉĽ
ĠÊĮtvÊ²ËĪe tÊ²itÊ²
ĠsËĪobstvÊ²i nnÊĮvÊĮ
Ġvy pusk
ĠfÊ²i ÉŃÊ²i
v ËĮi
b le
ĠprÊ²iÊĮbrÊ²i tÊ²ËĪe
Ġra ssÉŃÊ²ËĪedÊĮvÊĮ
ĠsÊ²tÊ²i nÊ²ËĪe
ĠsÊĮ dÊ²ËĪe
vËĪo Êĳ
Ġsa dËĪo
Ġt ÉĽm
ĠkÊĮmpËĪÉĳ nÊ²iju
ĠrazvÊ²ËĪi tÊ²iÉª
ĠÉ¡ÊĮ ÉŃÊ²i
ĠmÊ²itËĪÉĳÉŃ ÉŃa
ĠvÊĮ strÊ²ËĪebÊĮvÊĮ
ĠnÊĮsÊ²i kËĪo
ÊĴu t
ĠpÊ²irvÊĮ natÊĥÊ²ËĪÉĳ
ĠkËĪux nÊ²i
tÊ²i xnÊ²ËĪi
p tÊ²i
vÊ²idÊ²ËĪe nÊ²iÉª
ĠApp le
ĠkËĪorpu s
? Â»
ĠmËĪÉĳÉŃÊ²in kÊ²ijÉª
ĠsprËĪa v
ĠdÊ²i skÊĮm
É¡ ÉŃÊ²a
ĠpÊĮtÊ²ËĪe rÊ²ÊĮ
Ġktur ËĪÉĽÉ¡ÉĶ
ĠraÉķËĪe ta
s nymÊ²Éª
ĠstËĪÉĳ fka
dÊĳ É¨
ĠdËĪoÉŃ Êĥy
Ġtsy ÉŃÊ²ËĪi
ĠkrÊ²i pÉŃÊ²ËĪenÊ²ija
Ġx fËĪi
ĠbÊĮÉŃ nËĪovÊĮ
ĠsÊ²tÊ²ËĪe kÉŃa
pËĪÉĽ w
ĠpÉŃËĪÉĳtÊ² jjÉª
kÊĮm pËĪÉĳ
Ġukra ÊĥËĪÉĽnÊ²ija
v z
ĠfstrÊ²i tÊĥÊ²ËĪÉĳjitsÊĮ
ĠarxitÊ²i ktËĪu
Ð½ Ð¾
ĠÉ¡ÉŃËĪÉĳv nyx
Ġm É²Ê²ËĪÉĽj
stËĪo ja
ĠpÊĮkupËĪÉĳ tÊ²iÉŃÊ²ij
ĠpÉĶ n
ĠrÊĮ ma
v nÊ²ik
r kÊĮf
ĠtÊ²ËĪÉĽ st
pÊĮ trÊ²i
ĠsÊĮbËĪÉĳ k
ĠsÊĮstËĪÉĳ vÊ²it
ĠpÊĮvÉŃÊ²i ËĪja
ĠvÊĮs stanËĪÉĳvÉŃÊ²i
Ġzm Ê²ËĪÉĽ
c a
ĠÊĴyvÊĮ tËĪÉĳ
Ġz bÊ²irbËĪÉĳ
ĠvÊĮ skrÊ²i
Éķi ny
Ġuda ÉŃÊ²ËĪenÊ²ijÉª
ĠpÊĮ vÊ²idÊ²ËĪenÊ²ijÉª
bu d
ĠrÊ²i ÊĳËĪer
Ġj ËĮa
ĠpÊĮzna kËĪomÊ²i
ĠvËĪo ftÊĮrËĪyx
ĠzdËĮÉĽ tsÉ¨
Ġ3 3
ĠV i
ĠpÊĮÉŃÊ²i tsËĪÉĽ
6 6
ĠmÊĮ mÊ²ËĪenty
ku p
it h
Ġb jÉĽ
Ġpar ÉŃËĪÉĳ
ĠtÊ²ËĪÉĳ ÊĴy
nÊ²i nËĪy
ĠfÊ²inËĪÉĳnsÊĮ vyx
É¡ nÊ²i
my mÊ²Éª
ĠÊĮrÊ²iji ntÊ²ËĪirÊĮvÊĮ
Ġza sÉŃËĪuÊĴy
ĠÊĮrÉ¡ËĪÉĳ na
ĠÊĮnÉŃËĪÉĳ j
ĠnÊ²imËĪÉĳ ÉŃÊĮ
ĠsvÊ²i t
ĠrÊ²i ÉŃÊ²ËĪi
ĠbÉŃÊĮ kÊ²i
ĠsmÊĮÉ¡ ÉŃÊ²ËĮÉª
ĠpÊĥËĮÉĽ tÉķi
ĠÉ¡rËĪup pu
ĠpÊĮkazËĪÉĳ nÊ²ija
É¡ÊĮ rÊ²ËĪit
rËĪo sÉŃÊĮ
k nÊĮvÊ²ËĪe
Ġs ËĮu
bÊ²ËĪi tÊ²iÉŃÊ²ij
ĠustanËĪÉĳvÉŃÊ²i vÊĮjitsÊĮ
ĠkÊĮmpËĪÉĳ kt
ĠpÉĶ ÊĴ
Ġsp ra
tÊĥÊ²ÊĮ rÊĮ
ĠrÊ²i ÉŃÊ²i
ĠvÉŃËĪÉĳ É¡Ê²Éª
ÊĴËĪÉĳ ÉŃÊ²Éª
ĠutÊĥÊ²ËĪe t
ĠkËĪo s
ĠzËĮa vÉĶd
ĠËĮÉĽlÉĽ mËĪÉĽ
ĠprÊĮjËĪe kty
ĠnÊ²ibÊĮÉŃÊĥËĪy x
ĠvÊĮ ÉŃÊ²i
ĠpÊĮfsÊ²i dnÊ²ËĪe
ĠdËĪÉĳ st
ĠaktÊ²ËĪivnÊĮ sÊ²tÊ²Éª
ĠpÊĮÉŃÊ²ËĪez nyx
ĠÊĮtkrËĪy tÊ²ija
ĠsvÊ²ËĪÉĳzÊĮ ny
fsÊ²i É¡dËĪÉĳ
ĠÉªzvÊ²ËĪest nyx
ĠmaÊĥËĪy nÊ²i
ĠprÊ²imÊ²i nÊ²ËĪenÊ²iju
skËĪu rsÊ²i
ĠfËĪo nt
ÉĽ nÊ²ËĪerÉ¡Ê²i
ĠpÊĮtrÊ²ibÊ²ËĪi tÊ²iÉŃ
ĠjÉªÊĴy mÊ²ËĪesÊ²ÊĮ
Ġma n
Ġpr Ê²ÊĮ
ĠmÊĮnÊ²ik Ê²ËĪu
ËĪÉ¨k lÉĽ
ĠvnÊ²i zËĪÉĳp
rÊ²ËĪe ÉŃ
ĠrÊĮ dÊ²i
Ġza ÉŃÊ²ËĪi
ĠnËĪa ÊĥÉĽ
ĠxÊĮrËĪo ÊĥÊĮja
ĠsprÊĮ vÊ²idÉŃÊ²ËĪi
ĠmÊ²ËĪa sta
Ġus wËĪu
ĠmÊĮ kÊ²i
ĠnÊĮ mÊ²inËĪÉĳ
ĠpÊ²ËĪerÊ²i ts
ĠtËĮÉĽ xnÉĶ
ĠprÊ²ivy ÊĥËĪÉĳjit
ĠlËĪu dÊĳi
ĠtrudÊĮ vËĪoj
Ġf rÊ²i
ĠmÊ²idÊ²itsËĪy nskÊĮj
ĠdËĪÉĳ ttÊĥÊ²i
ĠÉĶ tsËĪÉĽ
kwa t
ĠsËĪÉĳmy mÊ²Éª
ĠprÊĮfÊ²iÉŃËĪÉĳktÊ²i kÊ²Éª
ĠstratÊ²ËĪe É¡Ê²iÉª
Į pÊ²i
Ê ĮpÊ²i
Ð¾Ð ´
ĠprÊ²i rËĪodÊ²i
ĠuvÊ²iÉŃÊ²i tÊĥÊ²ËĪenÊ²ija
ĠprÊ²inÊ²imËĪÉĳ jut
ĠrÊ²isËĪu nÊĮk
tÊ²ËĪi ÉŃÊ²Éª
ĠprËĪats ÉĽ
ĠaÉŃÊ²iksËĪÉĳnd ra
ĠdÊ²ËĪe sÊ²ÊĮtÊ²
ĠpÊĮtÊ²ËĪe rÊ²Éª
ĠssËĪy ÉŃkÊ²Éª
ĠÉª kËĪo
j skÊĮj
ÊĴËĪÉĳ jutsÊĮ
Ġk rËĪÉĽ
Ġna bËĪo
ĠvÊĮsp Ê²ËĪi
ĠrËĪus skÊĮvÊĮ
ĠprÊĮ dÊ²i
mÊĮ É¡ËĪÉĳ
ĠÊĮstÊĮrËĪo ÊĴnÊĮ
ĠËĮu ÊĴÉĶn
ĠÉ¡ÊĮrÊĮ dËĪof
Ġpr ÉĽ
ĠkÊĮr pËĪu
Ġt Ê²ËĪÉµ
ĠpËĪÉĳr nÊ²ÊĮ
znËĪÉĳ k
ĠmÊ²ËĪetÊĮ dÊĮm
ĠvÊ²inÊĮ É¡rËĪÉĳ
Êĥ x
ĠsÊ²i krÊ²ËĪet
ĠmËĮÉĶ ÊĴ
ĠdruÊĳjËĪja mÊ²Éª
sÊ²i sÊ²tÊ²ËĪe
nts ja
Ġa rËĪÉĳ
ĠÊĮbÊ²ËĪÉĳzÊĮ n
ĠkÊĮ ÊĮr
ĠprÊĮtÊ²ivÊĮpÊĮ ÉŃËĪo
ĠnÊĮnÊ²i sÊ²tÊ²ËĪÉª
ĠÊĳdÊ²ËĪeÉŃÊĮ jtÊ²i
ĠËĪa Êĥ
ĠmÊĮskËĪof skÊĮj
ĠprÊĮ É¡rÊ²ËĪe
sÊ²tÊ²i tÊ²i
ĠtÊĮ mËĪÉĳ
ĠÊĮ strËĪo
nÊ²ËĪe tsÊĮ
ĠsÉŃÊĮ ÊĴ
s nuju
k tÉķÉĽ
rÊĥ ËĪy
ĠprÊ²idmÊ²ËĪe tÊĮf
vËĪÉĳ tsyÉª
ĠspÊ²itsy fÊ²ËĪi
ĠsÊĮstËĪÉĳ vÊ²itÊ²
z nym
fÊ²ËĪi ÉŃ
ĠsvÊĮ ËĪÉµ
j skÊ²ix
ĠÉĽffÊ²ËĪe kta
ĠpËĪo st
d ja
ÉŃ ÉŃËĪÉĳ
n sÊĮf
ĠÊĮp a
ĠprÊ²a mËĪo
Éķi kÊĮm
Ġst rËĪoj
ĠpÊĮ krËĪÉĳ
nÊĮ mu
ĠÊĮdÊ²ËĪe ÊĴdu
ĠusÊ²ËĪi ÉŃÊ²ija
ĠprÊ²i xËĪodÊ²it
ĠdÊĳËĪi Éķ
ĠËĪÉĽtÊ²i mÊ²Éª
tÊĥÊ²i nËĪo
kÊ²i n
ËĪo brÊĮ
zÊĮ x
ĠxÊĮrËĪo ÊĥyvÊĮ
Ġ6 00
ĠbÊ²ËĪe ÉŃÊĮvÊĮ
Ġstru ktËĪur
Ġn ËĪÉĶvÉĽ
ĠbËĮÉĽ spÊ²ÉĽtÊĥËĪÉĽ
ĠprÊ²iimËĪuÉķi stvÊĮ
ĠstruktËĪu ry
ĠpÊĮk ryvËĪÉĳ
ĠÊĥËĪÉ¨p kÉĶ
ĠrËĪÉĳ zu
ĠstrËĪÉĳ Êĥ
spÊĮ ndÊ²ËĪe
Ġstu pÊ²ËĪe
ĠËĮÉĶ t
ndËĪo vÊĮ
t ry
ĠpÊĮsvÊ²a ÉķËĪe
ĠaÉŃkÊĮ É¡ËĪoÉŃ
ĠtËĪu taj
ÉŃÊĮ sÊĮ
ĠÊĳir kËĪÉĳ
ĠËĪo rÉ¡ÊĮn
prÊ²ËĪe ÊĴnÊ²imu
nÊ²ËĪi kÊĮf
z vËĪu
ĠÉª skÊĮ
dÊĮ rÊĮ
ÉĽ ÉŃÊ²i
ĠpÊĥËĪÉĽ dÉĽ
n nÉĽ
tÊĥÊ²ËĪe n
ĠsÊ²i ntÊ²i
ĠpÉĶ ÉķËĪa
Ġda rm
ĠprÊĮizvÊĮdÊ²ËĪi tÊ²iÉŃÊ²Éª
ĠrÊ²iÊĥËĪy ÉŃa
ĠutÊĥÊ²ËĪe nyjÉª
t É¨x
Ġf ÉŃËĪÉĳ
k ÉŃÊ²ËĪi
²ËĮ iz
ĠpÊ²i tËĪom
ĠÊĮ É¡ËĪon
ĠmÊ²idÊ²itsËĪy nskÊ²ix
ĠËĮÉĽ wrÉĶ
ĠnËĪaÊĥ É¨m
ÉŃÊĮÉ¡ÊĮ f
ĠÊĮt vËĪÉĳ
Ġsp rËĪo
Ġ4 8
ĠkartÊ²ËĪi nkÊ²Éª
ĠvÊ²ËĪe Éķ
jËĪÉĶnts É¨m
ĠkrËĪÉĳ snyj
ĠbËĪy fÊĥyj
ĠÉĽ pËĪo
ĠstranÊ²ËĪi tsu
or g
Ġs vÊ²ËĪi
nËĪu ÉŃÊ²isÊ²
ÉŃÊ²i zËĪovÊĮ
ĠzÊĮmÊ²isÊ²tÊ²ËĪi tÊ²iÉŃ
ĠzÊĮ vÊ²idÊ²ËĪenÊ²ija
Ġb lËĪi
ĠrÊĮzrÊ²i ÊĥËĪÉĽnÊ²ijÉª
ĠÉªstËĪotÊĥÊ² nÊ²ikÊĮf
ĠsÊĮs rÊ²idÊĮ
ĠprÊĮstËĪy x
Ġmu ÊĳËĪej
ĠÉķËĪÉĳ stÊ²jjÉª
ĠdÊĮÉŃÉ¡ÊĮ vÊ²ËĪe
ĠpÊĮnÊ²ËĪÉĳ tÊ²ijÉª
v dÉĽ
xËĪo f
Ġsp ÉĽts
vËĪÉĳ juÉķijÉª
nt ÉĽm
ĠÉĶ bjËĪÉĽ
sÊ²ËĪi ÉŃa
ĠpÊĮsÊ²i tÊ²ËĪitÊ²
ËĪo na
ĠdÊ²iÊĥËĪÉĽ vÉŃÊ²i
nÊĮ stÊ²jju
ĠspËĪosÊĮ ba
ĠÉĽ ndÊĮ
tÊĥÊ² kÊĮx
ĠprÊ²inÊ²ËĪÉĳ tÊ²ija
ĠC O
rËĪÉĳ tÊĮr
ĠrÊ²ibÊ²ËĪe nkÊĮm
nÊĮ ru
ĠdÊ²ËĪets kÊĮj
ĠtÊ²ËĪi pÊĮf
ĠÉ¡ËĮÉĽ É¡ËĪÉĽ
ĠprËĪÉĳktÊ²i ka
ĠdÊ²ËĪets kÊ²ix
ĠmÊ²ËĪest nyx
ĠrËĪus skÊĮm
ĠËĪÉĳftÊĮ ra
Ġna rËĪoda
ĠÊĮpÊ²ËĪi sy
ty vÊĮjit
ĠprÊĮja vÉŃÊ²ËĪÉĳjitsÊĮ
ĠvËĪÉĳ ÊĴnym
ĠÊĴyÉŃËĪÉĳ nÊ²ija
É¡ zËĪÉĳ
ĠsÊĮbËĪÉĳ kÊ²Éª
Ġv ÉŃÊ²u
sy xËĪÉĳ
É¡ ÉŃÊ²i
ĠpËĪoÉŃzu jutsÊĮ
Êĥ tÊĥËĪÉ¨
ĠÉ¡ÊĮtËĪo vÊ²itÊ²
ĠÉŃÊ²ËĪi tÊĥÊ²nyj
ĠmÊĮ tÊĮ
ĠfÊ²i r
Ġz dËĪa
ĠzËĪÉĳ pu
nu ÉŃa
ÉĽ tËĪÉĳ
Ġp É¨t
Ġ19 7
ĠÉĽk skËĪursÊ²i
ĠS a
ĠkËĪÉĳÊĴdÊĮ jÉª
ĠtfËĪÉĶ jÉĽ
ĠusÉŃËĪovÊ²i Éª
vÊĮ stÊ²
zÊĮ vyjÉª
s ji
ĠaÉ¡rÊ²i sÊ²sÊ²ËĪi
ĠnÊ²imÊ²ËĪe ts
nts jÉĽ
il l
ĠËĪa w
ĠÊĮsnËĪo vu
ĠdËĪÉĳ ty
p ÉĽr
ĠprÊĮ ÊĥÉŃËĪo
ĠvÊ²ËĪidÊ²i ÉŃ
ĠËĪja snÊĮ
vËĪo f
Ñ Ħ
ĠprÊ²idÉŃÊĮ ÊĴËĪytÊ²
kËĪu r
ĠËĮÉĶb ÉĶv
ĠpÊ²irÊ²i dvÊ²i
ĠmËĪÉĳ my
ĠpÊĮ ji
ĠpËĪo prÊ²ËĪeÊĴnÊ²imu
ĠsÊĮ pÊ²ËĪer
ĠÊĮdÊ²dÊ²i ÉŃÊ²ËĪenÊ²ija
ĠpÊ²ËĪi Éķu
ĠnaËĪu kÊ²Éª
ĠÊĮtsËĪu tstvujit
ĠpÊĮra ÊĴËĪÉĽnÊ²ija
ĠprÊ²i ÊĥËĪÉĽÉŃ
Ġi nt
jn ËĪÉĽÉ¡ÉĶ
ĠÉªÉ¡rÊĮ vËĪyx
ĠzÊĮ puskËĪÉĳ
ĠmËĪÉĳ ÉŃÊĮvÊĮ
ĠsÉŃu tÊĥÊ²ËĪÉĳjnÊĮ
n tsyju
ĠtabÉŃÊ²ËĪi tsy
tÊĥÊ²ËĪ o
Ġku pËĪÉĳ
ĠM o
ÉĶ n
ĠÉ²ËĪi ts
vÊĮ r
ĠtÊ²ËĪe ÉŃÊ²i
ĠËĪobu f
ĠnÊĮ ktÊ²ËĪej
ĠÊĮdnËĪÉĳ ÊĴdy
ĠumÊ²ËĪenÊĥy tÊ²
jÉĶ ntk
ĠvËĮÉĽ tËĪÉĽ
Ġna É¡rÊ²ËĪe
Ġvra tÊĥÊ²ËĪom
ĠÉ¡dÊ²ËĪe tËĪo
ĠpÊĮvËĪyÊĥy nnÊĮj
Ġx vËĪÉĳ
ĠnÊ²isÊĮvÊ²irÊĥ ynnÊĮ
ĠkËĪÉĳ rtÊ²i
ĠtÊĥËĪÉĽÉ² ÉķtÉķi
ĠuvÊ²ËĪerÊ²i ny
tËĪo na
ĠkÊĮ kÊĮ
dÊ²i rÊĴËĪy
Ġsm ok
ĠkÊĮntÊ²ËĪe k
fÊĥy msÊ²ÊĮ
f tsuf
ba rÊ²ËĪi
ÊĴÉĽ É²
stÊ² jjif
ĠmÊ²inÊ²isÊ²tÊ²ËĪer stva
ĠzanÊ²ËĪÉĳ tÊ²ij
Ġu dËĪÉĳr
ĠmËĪÉĳs ÉŃÊĮm
ĠÊĮb zËĪo
ĠnÊ²i ÊĴy
sty m
Ġru tÊĥÊ²
ĠkÊĮmÊ²i tÊ²ËĪeta
ĠÊĮtnÊĮÊĥËĪÉĽnÊ²ija x
Ġpa rÊ²ËĪi
ĠvÊ²ËĪÉĽ l
ĠmÊĮ rËĪÉĳ
ĠsÊ²irÊ²idÊ²ËĪi nÊ²i
ĠpÉĶ ÊĳËĪÉĶ
pa s
ĠÊĮbmÊ²ËĪe na
j skÊ²ijÉª
ĠÉ¡ÊĮ spÊĮ
prÊ²i mÊ²i
Ġa ntÊ²ËĪi
rÊ²ËĪe nÊ²iÉª
A N
ĠpÊĮdÊ²dÊ²ËĪerÊĥ ka
ĠkÊ²iÉŃÊĮ É¡rËĪÉĳm
ĠsÊ²i rÊ²i
mÊ²ËĪe nnÊĮ
Ġna ÊĴËĪÉĳ
ĠspÉĽts jËĪal
ĠsrÊ²ËĪed nÊ²ÊĮja
ĠpËĪÉĳ dÊĮ
sta n
ĠpÊĮd kËĪo
ĠvypÊĮÉŃ nÊ²ËĪÉĳjitsÊĮ
Ð ł
ĠdÊ²ËĪets kÊ²ijÉª
ĠÉª mÊ²pÊ²i
ĠbuxÉ¡ËĪÉĳÉŃ tÊ²ir
ĠkÊĮrpËĪu sa
ĠÊĮp ÉŃa
ĠbËĪu tÊ²
Ġp Ê²ËĪÉĶ
Ġu pÉŃÊĮ
ĠrÊĮ stÊĮ
tÊ²ËĪiv nÊĮj
k la
²ËĮ a
nk Ê²ËĪÉª
ĠrËĪÉĳz vÊ²i
ĠpËĮÉĶ Éķa
ĠbÊ²irÊ²ËĪe mÊ²innÊĮ
ji muju
vÊ²ËĪÉĳ zÊĮ
ĠdÊ²imÊĮ nst
ĠtÉ¨ ÉķËĪÉĽ
Éª bÊĮ
ĠÉªndÊ²i kËĪÉĳ
s Ê²ËĪÉª
ĠÉªspËĪoÉŃzÊĮvÊĮ tÊ²sÊ²ÊĮ
Ġzu b
ĠnÊ²iÊĮpxÊĮdÊ²ËĪi ma
ĠxÊĮÊĳËĪÉĳj stva
ĠutÊĥÊ²ËĪÉĳst kÊĮf
ĠnaËĪu tÊĥÊ²nÊĮ
ĠbÊĮÉŃÊ²ËĪeÊĳ nÊ²ij
nÊ²i ÉŃÊĮsÊ²
stvÊ²i nnÊĮja
stÊĮ ja
ĠnÊĮvÊĮrËĪo ÊĴdÊ²i
l nÉ¨m
ĠkÊĮmËĪÉĳ ndu
sËĪu dÊ²i
ĠvÊĮsstÊĮnÊĮ vÉŃÊ²ËĪenÊ²ijÉª
ĠsÊĮzdËĪÉĳ nÊ²iÉª
Ġza vÊ²ËĪe
ĠrËĪÉĳÊĳnÊ²i tsa
ÉŃÊ²i ÉķÊĮ
er e
ĠrastvËĪo ra
Ġd ÉĽtsËĪÉ¨
Ġk ry
ĠprÊĮÉ¡nËĪo s
b ÉŃa
ĠpÊ²ËĪensÊ²i Éª
Ġu ÉŃËĪy
ĠjÉªkÊĮtÊ²i rÊ²inbËĪu
Ġx ËĮÉĳ
ĠÉŃÊ²ËĪi stÊ²jjif
ĠpËĪÉĶ r
Ġbu d
ĠsÊĮÉ¡ÉŃa ÊĥËĪÉĽnÊ²ijÉª
tÊĥ ki
ĠG a
Ġu bÊ²irËĪÉĳ
st ËĪar
tÊĥÊ² kÊĮ
ĠfËĪunk tsyja
ĠpÊĮd jjËĪe
Ġu tÊ²ËĪe
ĠnÊ²i ÊĴyÉŃËĪÉĳ
Ġkar kËĪÉĳ
Ġkam pËĪÉĳ
sta r
ĠtÊ²ixnÊ²ËĪi tÊĥÊ²iskÊ²ijÉª
ĠbËĪÉĳ zy
ĠsÊ²ËĪe rÊ²ija
nÊ²ËĪÉĳ ja
nËĪu t
ĠËĮÉĶ É¡ra
ĠtÊ²ip ÉŃËĪÉĳ
ĠtÊĥ w
ĠapparËĪÉĳ t
ĠÊĮtmÊ²i tÊĥÊ²ËĪÉĳjitsÊĮ
ĠsÊĮtÊĥÊ²itËĪÉĳ nÊ²ijÉª
z ËĪaÉ²Ê²ÉĽ
ÊĳËĪi rujit
ĠÉªspËĪoÉŃzu jit
ĠknÊ²ËĪi k
ĠÉŃËĪutÊĥÊ² Êĥym
ĠnÊĮ bÊ²irËĪÉĳ
ĠÊĮtnÊĮÊĥËĪÉĽ nÊ²iju
ĠzÊĮ dÊ²irÊĴËĪÉĳ
ĠpÊ²irÊ²ivËĪo t
ĠzÊĮkÊĮnÊĮdËĪÉĳtÊ²iÉŃ stvÊĮm
tÊĥ ËĮÉĽ
ĠtsËĪÉĶ ras
ÉŃÊ²ËĪe tÊĮ
ĠvËĪyvÊ²i sÊ²tÊ²Éª
ĠsËĪÉĳ t
ĠtËĪo p
ĠkËĪonkur sa
k tsyjij
ĠprÊĮ du
ĠspÊ²i ts
É¡ËĪo r
vËĪo dy
Êĥ ÉĽj
ĠmËĪo ÉŃÊĮ
ĠupÊĮ mÊ²inËĪÉĳ
ĠÊĮ ËĪÉĳ
ĠÊĮdÊ²dÊ²ËĪe ÉŃkÊ²Éª
ÊĴËĪÉĶ nÉĽ
ĠsÊĮÊĮp ÉķËĪÉĳ
sËĪÉĳ tÊ²
ĠÉ¡ rËĪÉĶ
ĠpËĪodÊĴÊ² vy
ĠprÊĮiz vÊ²idÊ²ËĪe
ĠsÉŃËĪy ÊĥÊĮ
Ġs tsynËĪÉĳ
ĠpsÊ²i xËĪi
ĠÊĮÉ¡rËĪom nyj
bËĪy m
ĠB o
ĠpÊĮ É¡ru
bÊ²i trËĪÉĳ
Ġnaz vËĪÉĳnÊ²ija
r ËĪi
m jËĪa
ĠprÊĮvÊ²idÊ²ËĪe nÊ²iÉª
ĠÊĮstËĪÉĳ ÉŃÊ²isÊ²
ĠsÊĮvrÊ²imÊ²ËĪe nnyj
ĠrÊ²ËĪe tÊĥÊ²Éª
ĠvÊĮ rÊĮ
ĠsÉŃËĪuÊĴ bu
kËĪo vÊĮj
ĠpÊĮvrÊ²i ÊĴdÊ²ËĪe
ĠD a
dÊĳ in
8 5
ĠbÊĮÉŃnÊ²ËĪi tsy
Ġpu stËĪy
rnÊĮ stÊ²
ĠprÊ²i ÊĥÉŃÊ²ËĪÉª
ĠprÊĮbÉŃÊ²ËĪe mÊĮj
ĠsÉŃu tÊĥÊ²ËĪÉĳj
j znËĪÉĳk
ji vÊ²i
Ġx ËĪoÉŃ
ĠstËĪÉĳ vÊ²itÊ²
tÊĥÊ²i nÊĮ
ĠËĮa ktu
ĠËĪja vnÊĮ
tÊĮ ÉŃ
ĠËĮÉĽs ËĮÉĽmËĪÉĽs
Éķ lËĪi
ĠskÊĮ r
ĠkÊĮ rÊĳËĪi
ĠdÊ²irÊ²ËĪe ktÊĮra
ĠvysËĪo kuju
Ġra v
ĠprÊĮi ÊĥÊĥËĪÉĽ
ĠsÉŃËĪÉĳ by
ĠvÉŃËĪÉĳ stÊ²
ĠËĪjar kÊĮ
ĠtÉķ ÉĽkËĪa
kÉĶ m
ĠkËĪonku rs
ĠvwËĮa ÉķtÉķi
ĠsrËĪo tÊĥÊ²nÊĮ
ĠrËĪa zÉĽm
n sa
Ġna mÊ²ËĪe
ĠÊĮstËĪÉĳ nÊ²itsÊĮ
ĠsÉŃËĪu ÊĴyt
ĠfÊĮrmÊ²irÊĮ vËĪÉĳnÊ²ijÉª
ĠkÊĮmmu nËĪÉĳ
ÉĶv ËĪÉ¨mi
ĠpÊ²irÊ²i vÊĮ
Êĳi dÊ²ËĪe
Ġna prËĪotÊ²if
ĠkrasÊ²ËĪi vyj
ĠÊĴyÉŃËĪu dka
ĠpÊĮ stanËĪo
ĠÉ¡ÊĮrmÊĮ nËĪÉĳ
u strËĪoj
stu ju
Ġ <
mp le
Ġ0 9
ĠpÊĮtrÊ²ËĪe bÊĮ
ĠkartÊ²ËĪi ny
Ġv vÊ²isÊ²tÊ²ËĪÉª
ĠmËĪÉĳÉŃÊ²in kÊ²ij
ĠrÊĮzrabËĪo tkÊ²Éª
s ÉĽr
ĠsÊĮdÊ²ËĪe rÊĴÊĮt
p ËĮÉĶ
j ma
ĠÉªz bËĪy
ĠaÉŃ É¡ÊĮrÊ²ËĪit
ĠpÊĮdÉ¡ÊĮtËĪo vÊ²itÊ²
ĠÉ¡ÊĮÉŃÊĮ vËĪoj
ĠpÊĮpuÉŃÊ²ËĪÉĳrnÊĮ stÊ²
ĠrÊ²iÊĥËĪÉĽ nÊ²ijim
bÊ²i ÉŃÊ²ËĪi
tsy n
Ġu kÉŃËĪÉĳ
Ð¾Ð ¹
ĠpËĪoÉŃnÊĮ m
ĠËĪÉĶ d
ĠzËĮa x
tËĪÉĳ rÊ²i
ĠS o
ĠpËĮÉĶ zÉ¨
É¡ËĪÉĳ nt
Ġw ww
ĠpÉŃÊĮ dËĪy
ĠsÊĮstÊĮËĪja ÉŃÊĮsÊ²
Ġna tËĪÉĳÉŃ
ĠsvÊ²ËĪÉĳ zy
ĠÉ¡ ÉŃÊ²ËĪi
ĠÉĽÉ¡ Êĳi
ĠkÊĮrÊ²ËĪi tÊĥÊ²nÊ²i
ĠfËĪÉĳj ÉŃ
ĠÊĳ rËĪu
ĠÊĮd dyxËĪÉĳ
l ËĪatsji
ÉŃÊ²ËĪi tÊ²i
ĠnaprËĪa vdÉĽ
ĠÊĮbu tÊĥÊ²ËĪÉĳ
rËĪy va
d skÊĮj
ĠÉª ÉķËĪe
ĠkÊĮbÊ²i nÊ²ËĪet
ÉŃÊĮ va
. ),
ĠÉŃÊ²ËĪex kÊ²ix
ĠpÊĮÉŃÊ²ËĪi tÊ²ika
p h
Ġta tÊ²jËĪja
Ġja kËĪÉĶÉķtÉķi
b nÊ²ËĪi
Ġst ËĪy
Ġza dÊ²ËĪe
ĠrÊĮ ÊĳËĪe
ĠrasskËĪÉĳzy vÊĮjit
ĠÉªnËĪy jÉª
stËĪÉĳ nÊ²i
ĠpÉŃËĪo tnÊĮ
Ġ/ /
6 7
ĠmËĪo rÊ²ÊĮ
ĠrÊĮbÊĮtÊĮ dËĪÉĳ
ÉŃa sÊ²tÊ²ËĪi
ĠÉ¡ËĪÉĳ s
ĠprÊĮsmËĪo tra
ĠbÊĮrËĪo tÊ²sÊ²ÊĮ
ĠvËĪozdu xi
ĠËĪu tra
ĠkÊĮ p
Ġp ry
tËĪÉĳ mÊ²Éª
ĠbËĪystry j
ĠtÊĥÊ²ËĪe stÊ²
ĠÉŃÊ²ËĪi nÊ²ija
²ËĮ ÉĽr
ĠnËĪÉĳ jdÊ²i
Éķij sÊ²ÊĮ
ĠÉĽÉ¡ zËĪÉĳ
ĠznËĪÉĳ ÉŃ
sÊĮ ËĪju
ĠprÊ²isËĪu tstvujit
ĠrÊ²iÊĮ bÊ²iÉŃÊ²i
Ġar bÊ²itrËĪÉĳ
ĠÉªsp ra
tÊ² tÊ²ËĪe
ĠrÊĮsÊ²sÊ²ËĪij skÊ²ij
ĠrÊ²iÊĴy sÊ²sÊ²ËĪe
ĠÉ¡ËĮÉĶspÉĶ dËĪar
É¡ÊĮ rËĪÉĳ
ĠpÊ²ËĪÉĳ tÊ²nÊ²i
Ġ3 9
Ġsrav nÊ²ËĪi
Ġ Ñģ
É¡ lÉĽ
tÊ²ËĪi m
ĠpÉĶ prËĪa
ĠnÊ²iÊĮ dnÊĮ
xËĪo dÊĮm
ĠkÊĮmpÉŃÊ²ËĪe kt
ĠkÊĮntrÊĮÉŃÊ²ËĪi rÊĮvÊĮtÊ²
ĠfrËĪÉĳ ntsyÉª
m ËĪÉ¨
v Ê²ÉĶ
Ġz dËĪÉĳnÊ²ijÉª
j ËĮÉĶ
ĠÊĴËĪÉĽ ny
ĠprÊ²id stÊĮËĪit
ĠnÊ²ika kËĪoj
ĠdËĪo mu
20 20
ĠÉª dÊ²ËĪej
ĠdÊ²iaÉ¡nËĪosÊ²tÊ²i kÊ²Éª
ĠÉ¡Ê²i rmÊ²i
Ġ200 6
ĠÉ¡rËĪu nt
tÊĥ nÉĶ
ĠstËĪÉĳtÊ² jju
u l
ĠpÊĮzd nÊ²ËĪejÉª
Ġust ranÊ²ËĪitÊ²
ĠstËĪo ÉŃÊ²i
Ġb jËĪÉĽ
ĠËĪu ksu
ĠrÊĮzu mÊ²ËĪe
ĠprÊ²imÊ²i nÊ²ËĪenÊ²ijim
ĠÉ¡rËĪÉĳÊĴdÊĮ nÊ²i
ĠzÉŃÊĮ u
dÊĮ É¡ÊĮ
la n
ĠpÊĮsmËĪotrÊ²i tÊ²i
vÉŃÊ²i nnyj
ĠrÊ²iÉ¡Ê²iËĪo nÊĮf
ĠÉ¡ Ê²ËĪer
ĠmÊ²ËĪÉĽjs tsu
ĠËĮÉĶsÉĶ b
ĠÊĴËĪÉ¨ tÉķÉĽ
ĠsËĮamÉĶ xËĪÉĶ
ÉĽ s
ĠmÊĮ dÊ²i
ĠÊĴyÉŃ jjËĪe
ĠËĮu É²i
ĠsÊ²tÊ²ik ÉŃÊ²ËĪÉĳ
ĠfËĪÉĳj ÉŃy
ĠvËĪypÉŃÊĮ t
ĠmÊĮ ÉŃÊ²ËĪit
Ġsa rËĪÉĳ
ĠurÊĮ ÊĴËĪÉĳj
ĠzËĪÉĳ ÉŃ
ĠustanËĪo fkÊ²i
ĠÊĮp tsyËĪo
ce book
ĠrÊ²iËĪÉĳ ktsyja
m o
rÊ²i É¡u
ĠÊĮtÊĥÊ²irÊ²id nËĪoj
ĠÊĮbÊ²i z
ĠÊĮbÊ²i tËĪÉĳ
sÊ²tÊ²ËĪÉĳ mÊ²Éª
ĠËĪot pusk
Ġ ;
Ġsub bËĪo
ĠfkËĪu su
lÉĽ t
pÉĶ zËĪÉ¨
ĠnapÊ²ËĪisÊĮ ÉŃ
Ġva ÉŃÊ²ËĪe
Ġk ËĮi
ĠkvartÊ²ËĪi ra
ĠzdrÊĮvÊĮÊĮxra nÊ²ËĪenÊ²ija
Ġf pÊĮ
t kÊ²ijÉª
re e
ĠmÊ²ixa ËĪiÉŃ
ĠÊĮt krÊĮvÊ²ËĪe
stÊĮ vÊĮ
Ġf ÊĥËĪÉĽ
ËĪi É¡ry
ËĪat ÉĽm
ĠËĮ ÉªbÊĮ
ĠmÊ²i krËĪo
ĠvÊĮprËĪo sa
Ġf ÉŃËĪo
kËĪÉĳ t
Ġa mÊ²
ĠsfËĪÉĶjÉĽ j
ĠrÊ²i fÊ²i
ĠvydÊ²i ÉŃÊ²ËĪenÊ²ija
ĠÉ¡ ÉŃÊ²u
tÊĥÊ²i Êĥ
ĠnËĮa turËĪa
dÊĳ ËĪÉĽmÉ¨
ĠdËĪumÊĮ tÊ²
ĠpÊĮvËĪy sÊ²itÊ²
ĠnaËĪu k
Ġu jËĪe
ĠprÊĮ ÊĥËĪÉĽÉŃ
ĠÊĴy vËĪut
ĠpÊĮtrÊ²ibÊ²ËĪi tÊ²iÉŃÊ²ij
vËĪÉĳ tÊĮ
É¡ ÉŃËĪo
ĠmËĪÉĳÉŃÊ²in kÊ²ix
ĠsÊ²tÊ²i kÉŃËĪo
ĠpËĪo tÊĥÊ²ik
jjËĪe znÊĮ
Ġba nk
ĠdÊĮÉŃÊĴnÊĮ st
ĠbÊĮ rabËĪÉĳ
ĠkÊĮn sta
ÊĴËĪy ÉŃÊ²Éª
ĠsmËĪy sÉŃÊ²i
dÊ²ik vËĪÉĳ
Ê²a dËĪÉĶ
ĠpÊ²irÊ²iÊĮdÊ²ËĪi tÊĥÊ²iskÊ²Éª
ĠbÊ²izusÉŃËĪo vnÊĮ
ĠsÊĮbÊ²i sÊ²ËĪe
ĠmnËĪoÉ¡Ê²i m
ĠsÊĮdÊ²ËĪerÊĴy tsÊĮ
ĠkÊĮntËĪÉĳ ktÊ²i
ĠËĮÉĶkrÉĽ Éķ
ĠÊĮtÊĥÊ²i vÊ²ËĪidnÊĮ
ĠÉ¡rup pÊĮ
ĠjÉª ÉŃÊ²ËĪena
ĠnÊĮ rÊ²i
ĠjÉªÊĴy É¡ËĪodnÊĮ
ÑĤ Ð°
Ġf spÊĮmÊ²inËĪÉĳ
ĠpÊ²ËĪÉĽrÊĥ É¨
ĠpËĪo nÊ²ÊĮÉŃ
ĠdÊĮ xËĪoda
ĠprÊ²i krÊ²i
ĠmÊ²ËĪa w
ĠÉªzvÊ²ËĪest nyj
ĠvystupËĪÉĳ jit
ĠÉ¡rÊĮÊĴdanÊ²ËĪi na
ĠkrËĪy m
mÊĮ ÉŃÊĮ
d zÊĮ
ĠÊĮsÊĮ znËĪÉĳ
ÉŃ ÉŃ
ĠvËĪyÊĥy ÉŃ
ĠÉ¡ÉŃu bÊĮ
vËĪa la
ĠÉªstËĪotÊĥÊ² nÊ²ikÊ²Éª
ĠxËĪo t
ĠvyzyvËĪÉĳ jut
ĠÊĥkËĪo ÉŃa
ts vÊ²ËĪet
stÊ² sÊ²ÊĮ
vÊ²ËĪi k
Ġf i
spËĪor ta
ĠnÊĮsÉŃa ÊĴdËĪÉĳ
ĠËĮÉĶtÊĥÉ¨ vËĪiÉķtÉķÉĽ
nts ÉĶ
ĠvËĪy tÊĥÊ²i
Ġf tËĪÉĽ
ĠdÊ²ËĪets kÊĮvÊĮ
Ġn jËĪju
ĠsÊ²ËĪi ÉŃa
ĠÊĳim ÉŃÊ²ËĪÉĳ
ĠsËĪobstvÊ²i nnÊĮ
Ġvz rËĪosÉŃÊĮ
ĠtÉĽr ËĪÉĽ
nÊ²i ji
nÊ²i rËĪovÊĮ
Ġupa kËĪo
ra ft
É¡rËĪÉĳfÊ²i ja
v ËĮa
ĠdËĪoÉŃ k
ĠvÊ²iÉŃÊ²ikÊĮ brÊ²itËĪÉĳ
ĠpÊĮs mÊĮtrÊ²ËĪe
vËĪÉĳ ÉŃÊ²u
É¡rËĪÉĳfÊ²i Éª
ĠprÊĮmËĪyÊĥÉŃÊ²i nnÊĮsÊ²tÊ²Éª
jËĪa mi
jtÊ²ËĪi sÊ²
ĠËĪÉĳ ktsyja
ĠpÊĮ kÊ²ËĪi
ĠrabËĪotÊĮ ÉŃ
s ÉŃÊ²ËĪÉª
x ÉŃËĪÉĳ
ĠÊĮsnÊĮv nËĪovÊĮ
ra tÊ²ËĪivnÊĮ
É²i ts
ĠzËĮa stÉĶs
Ġ Ã
ĠuspÊ²ËĪe xa
Ġpa pÊ²ËĪi
s vÊĮ
rÊĮvÊĮ n
ka nËĪÉĳ
ĠprÊĮji ktÊ²ËĪi
Ġsta kËĪÉĳn
Ġf sta
ĠsfËĪÉĶ im
ĠsËĪobstvÊ²i nnyj
za ÉķËĪi
rÊ²i m
ĠpubÉŃÊ²ikËĪÉĳ tsyÉª
x ËĪÉª
znËĪa tÊĥa
ĠÊĮtprËĪÉĳ vÊ²itÊ²
ĠprÊ²i spÊĮ
ĠuÉŃutÊĥËĪÉĽ nÊ²ija
ĠtËĪÉ¨ pu
ĠdÊ²i fÊ²itsËĪy
ĠrÊĮzmÊ²i ÉķËĪenÊ²ija
ĠprÊ²i bËĪor
ĠsËĪu dÊ²
ĠfstrÊ²i tÊĥÊ²ËĪÉĳ
ĠtËĪo ka
Ġf xÊĮdÊ²ËĪÉĳ
Ġnaj vÊ²ËĪÉĽÅĭk
ÊĴd ËĪÉĽÉ¡ÉĶ
ĠsaÉŃËĪÉĳ t
ĠdÊ²iaÉ¡nËĪosÊ²tÊ²i ka
rÊ²ËĪi sa
st ÉĽr
ĠparËĪo ÉŃ
ĠpËĪu tÊ²in
ĠpÊĮsÉŃÊ²ËĪednÊ²i m
Ġad rÊ²i
ĠrÊĮsÊ²sÊ²ËĪi ju
dÊĳi w
ĠpËĪoÉŃ nuju
ĠÊĮprÊ²idÊ²iÉŃÊ²ËĪÉĳ jit
krËĪÉĳ tnÊĮ
Ġst ËĪÉ¨
ĠpÊĮkËĪup ku
ĠvysËĪo kÊ²ix
ru t
mÊ²i na
Ġva kËĪÉĳn
6 8
ĠprÊ²idsta vÉŃÊ²ËĪenÊ²ijÉª
Ġsa ÉŃ
Ġka ÊĴdËĪÉĽÉ¡ÉĶ
ËĪÉ¨tÊĥ nÉ¨x
ĠÉŃa dËĪo
Ġâ Ĩ
Ġz ÉŃËĪo
d tsa
ĠsÉŃËĪu ÊĥÊĮtÊ²
ĠÊĮfËĪor m
ĠmÊ²inÊ²ËĪi str
ĠprÉĶ tsËĪÉĽ
dÊ²ËĪe nÊ²ijim
by vËĪÉĳ
ĠpÊĮdÊĮ jdËĪut
k ÉŃÊ²ËĪu
bÊ²ËĪi tÊ²iÉŃ
ĠËĮap lik
ĠpÊĮ ËĪÉĽ
Ð¤ ÐĹ
ĠpÊĮd stËĪÉĳ
ĠupÊĮtrÊ²i bÉŃÊ²ËĪenÊ²ijÉª
ĠmÊ²ËĪÉĳ sa
r ËĮu
rÊĮ z
dËĪo vÊĮ
ĠdÊ²ijËĪe ta
Ġmil jËĪÉĶ
ĠkËĪÉĳ bÊ²i
ĠprÊ²idÊĮtvra tÊ²ËĪitÊ²
tÊ²nÊ²i kÊ²Éª
Ġs ËĮÉĽ
ĠdÊĮsÊ²tÊ²ËĪi É¡
rÊĮ ja
ĠprÊ²idËĪu mÊĮ
ĠrËĪa max
ĠÊĮtÊĥÊ²i vÊ²ËĪi
ĠÉªÊĳdÊ²ËĪe ÉŃÊ²ijÉª
ĠpÊ²ËĪisÊ² ma
ĠtrËĪÉĳv my
ĠsÊĮf pa
d Êĥ
ĠpÉĶÊĴ ËĪÉ¨tÊĥ
ĠÉĽÉŃÊ²iktrÊĮ ÉĽnÊ²ËĪerÉ¡Ê²i
ĠrabËĪotÊĮ j
ĠpamjËĪÉĽ nta
ĠÊĥËĪÉĳ ns
nÊ²i kËĪof
dÉ¨ t
ta w
ĠnÊ²i dËĪu
dnÊĮ stÊ²
ĠmarkÊ²ËĪe tÊ²in
ĠpÉĶ lËĪÉĽ
ĠmÊĮÉ¡aÊĳËĪi nÊĮx
v ÉŃÊ²u
Ġar mÊ²ËĪe
ĠdËĪu Êĥy
ĠrÊĮsskazËĪÉĳ tÊ²
ĠkÊĮnsuÉŃtËĪÉĳ tsyÉª
Ġvy pÉŃËĪÉĳ
ĠÊĮsta nËĪÉĳvÉŃÊ²i
tÊ² ÊĮt
Ġk ÉŃu
ĠfËĪu Åĭk
ĠfsÊ²i mÊ²ËĪi
ĠÉķËĪÉĳ stÊ²jja
ĠsËĪobstvÊ²i nnyx
ĠnÊ²i ÊĮt
ĠdÊĳawËĪa É²Ê²a
dËĪa jÉĶ
Ġt f
ĠpËĮÉĶ tsta
ĠvËĪy tÊ²ÊĮ
ĠrËĪus skÊ²ix
jËĪÉĶnts ÉĽj
ĠprÊĮ ÊĥËĪÉĽd
Ġsu mÊ²ËĪe
ĠËĪo kÊĮn
le t
tËĪÉĶ mjast
ĠunÊ²ivÊ²ir sËĪÉĳ
ĠÉ¡ÊĮrÊĮ dËĪÉĳx
ĠvËĪaÊĴ nÉĽ
b ÉŃÊ²Éª
ĠsvÊ²i tÊ²ËĪiÉŃ
ĠÃ§ ËĮi
ĠprÊ²imÊ²i tÊĥÊ²ËĪÉĳ
ĠtÊ²ir pÊ²ËĪe
ĠsÊ²nÊ²i ÊĴËĪÉĽnÊ²ija
mÊ²ËĪÉĳ n
ĠbÊ²irÊ²ËĪemÊ²innÊĮ stÊ²
Ġsku tËĪÉĽ
ĠpÊ²irÊ²ida jËĪet
rt ËĪÉĽ
ĠmËĪÉĳt tÊĥÊ²
t tÊĥÊ²ik
ĠutÊĥÊ²ËĪe stÊ²
ĠËĪotrÊĮ sÉŃÊ²Éª
nnÊ²i m
sÊ²sÊ²i j
ĠknÊ²ËĪi É¡Ê²i
n skÊ²im
ĠnÊ²ËĪi skÊĮj
Ġtra n
zÊĮ mÊ²Éª
r vËĪÉĳ
k rÉĶ
Ġba r
ĠÉªntÊ²ÉĽr nÊ²ËĪeta
Ġva k
Ð² Ð°
ĠdËĪa nÉĽ
ĠsÉŃËĪuÊĴ ba
Ġtu rÊ²isÊ²tÊ²ËĪi
ĠftËĪÉĽ dÉ¨
ĠÊĮkazËĪÉĳ ÉŃÊ²isÊ²
Ġza sËĪa
ĠzakËĪo nu
tÊĥÊ²ËĪÉĳ tkÊ²Éª
ĠzamÊ²ËĪe ny
ĠvÊĮrÊ²iËĪÉĳ ntÊĮm
Ġna tËĪÉĶmjast
ĠÊĮprÊ²idÊ²i ÉŃÊ²ËĪÉµ
ĠfstrÊ²ËĪe tÊĥÊ²ÊĮ
sk Ê²ËĪÉª
ĠftÊĮ rÊ²ËĪi
Ġsta ÉŃ
fÊĥyvÊĮ sÊ²ÊĮ
ĠÊĮÊĥËĪy bÊĮk
ĠmÊ²ËĪeÉŃ kÊ²ijÉª
ĠaÉŃtÊ²irna tÊ²ËĪi
ĠzadËĪu mÊĮ
ĠËĪÉĳ u
ĠsÊĮsrÊ²idÊĮ tËĪo
zÊĮvÊĮ vÊĮ
ĠÉ¡ÊĮtËĪo va
ÉŃÊ²i r
ĠÊĮfÊ²itsyËĪÉĳÉŃnÊĮ m
ĠkÊĮs mÊ²ËĪe
Ġf ku
r kÊĮ
ĠÊĮbra ÉķËĪenÊ²ijÉª
ĠtÊĥÊ²ËĪe stnÊĮ
ĠpÊ²ÊĮ tÊ²i
ĠfËĪunk tsyju
r na
ĠÊĮtÊ²tÊ²ËĪe nÊĮk
Ġ É²i
ĠkvartÊ²ËĪi r
ĠÉ²Ê²ÉĽ ktËĪur
Ġupa kËĪof
ĠsÊĮËĪop Éķi
ĠvËĪy zÊĮ
Ġru ÊĴ
Ġe mail
ËĪi na
ĠsËĪobstvÊ²i nnyjÉª
ĠËĮa d
vÊĮ juÉķix
ĠkÊĮnku rÊ²ËĪe
ĠtÊĥÊ²i s
ĠkÊĮn stru
Ġz ËĪup
xËĪodÊ²i tÊ²i
ĠstËĪÉĳry jÉª
ĠÊĮrËĪuÊĴy ja
ĠmÊĮ ËĪix
ĠÉ¡rËĪÉĳ mm
ĠvÊ²i ÉŃÊ²ËĪitÊĥÊ²i
ĠtÊ²i pÊĮ
ĠtÊ²ÊĮÊĴy ÉŃËĪo
ĠpÊĮdÊ² tÊĥÊ²ËĪe
ĠÊĮsuÉķist vÉŃÊ²ËĪÉĳ
Êĳi jÉª
ĠÉ¡Ê²ËĪip dt
ĠÊĮbËĪy tÊĥÊ²nyj
Ġkru É¡ÉŃÊĮ
ĠsvËĪoj stvÊĮmÊ²Éª
ĠnÊ²idÊĮstËĪÉĳ tÊĮk
ĠI P
f ska
ĠpËĮÉĶ vÉĶ
ĠpÊĮdxÊĮdÊ²ËĪÉĳ Éķij
nËĪu f
Ġd jËĪÉĽ
swu k
ĠprÊ²i stupËĪÉĳ
ĠxÊĮtÊ²ËĪe ÉŃÊ²Éª
ĠzdËĮÉĽtsÉ¨ d
ĠfËĪi rma
ĠjÉª dvËĪÉĳ
ĠnËĪÉĳvy kÊ²Éª
ĠfËĪo rum
nnÊ²i vÊĮ
Ġk ËĪar
ĠrÊ²iÉ¡Ê²iËĪo nÊĮx
rÊ²i mËĪo
tÉķ ËĪa
ĠÉ¡ËĮÉĽ ËĪÉĽr
bËĪo k
Ð»ÐµÑĤ Ð½Ðµ
ĠxÊĮ dÊ²ËĪitÊ²
ĠkakÊ²ËĪix ÉŃÊ²ËĪibÊĮ
ĠÉŃÊ²i ÊĴËĪyt
ĠmÊ²ËĪe t
Ġist É²Ê²ËĪÉĽ
ĠÊĴËĮÉĽ kËĮÉĳ
ĠnÊĮtsyÊĮnËĪÉĳ ÉŃnÊĮj
ĠrÊĮspÊĮ ÉŃÊĮÊĴËĪÉĽnÊ²ijÉª
ĠtsyntrËĪÉĳ ÉŃnÊĮj
Ġstra nËĪu
ĠÉķitËĪÉĳ jutsÊĮ
ĠÊĮbjjËĪe kty
ĠÊĴ dÊ²ËĪet
ĠdÊ²i ji
ĠËĪo bÊ²i
rÊĮvÊĮ ny
ĠvÊĮrÊ²iËĪÉĳ nta
ĠrÊ²i ÊĥËĪÉĳtÊ²
ĠmËĪÉĶ ts
ĠpÊĮdÊ²iÉŃÊ²ËĪi tÊ²sÊ²ÊĮ
mËĪÉĳ ÉŃ
Ġba nËĪÉĳ
ĠÊĮpsu ÊĴdËĪÉĳ
ĠpÊĮ ka
nÊ²ÊĮ mÊ²Éª
ĠnËĪo sa
ĠvËĪypu ska
r É¡
kËĪÉĳ mÊ²i
ĠÉķfÊ²ËĪÉĽ tÉķÉĽ
Ġka tËĪÉĳ
ĠËĪopy tÊĮm
ĠkÊĮ nÊĮ
Ġna kËĪÉĳ
ĠÊĥ pa
ĠrËĪÉĳ nÊĮ
ĠvËĪÉĳ ÊĴnyj
tÊĥÉ¨ w
Ġza bËĪa
Ġ !
ĠnaÉŃÊ²ËĪitÊĥÊ²i ja
Ġza dËĪÉĳnÊ²ija
sÉŃÊ²ËĪedstvÊ²i Éª
ĠprÊ²idprÊ²inÊ²imËĪÉĳ tÊ²iÉŃ
ĠrËĪo dÊĮf
j f
ĠmÊ²ËĪest nyjÉª
ÉŃÊ²ik tu
ĠrÊ²ibÊ²ËĪÉµ nka
ĠvÊ²i tÊ²irËĪÉĳ
ĠÊĴy vÊ²ËĪet
ĠsÊĮtrËĪu dnÊ²ik
ĠxÉĶ rËĪÉĶ
ĠtÊĥ ËĪÉĽÉ¡ÉĶ
Êĳi m
ji x
ĠÉ¡ÊĮrmÊĮ nÊ²ËĪi
ĠprËĪÉĳvÊ²i ÉŃnyj
st ËĪawÉ¨
Ġraz vÊ²ËĪe
ĠrÊĮ ÊĴdÊ²ËĪe
201 5
ĠsÊ²i tÊ²i
ĠËĪu swuk
ĠmËĪuzy ka
pÉĽ v
sp aÉŃÊ²ËĪi
Ġp jËĪja
ĠvÊ²i dÊ²ËĪe
ĠvÊĮÊĳnÊ²ËĪik nutÊ²
ĠmËĪÉĳsÊ²tÊ²ir kÉŃËĪÉĳ
tËĪur É¨
ĠrÊĮma ntÊ²ËĪi
v ÉĽk
ĠÊĮtÊĥÊ²ËĪi sÊ²tÊ²itÊ²
ÉŃa dÊ²ËĪe
st na
ĠbÉŃÊĮÉ¡ÊĮ pÊĮÉŃËĪu
dÊĮ vËĪÉĳtÊ²
ĠvÊĮspa ÉŃÊ²ËĪenÊ²ija
ĠzÊĮ trud
sk ÉŃÊ²u
ĠdÊĮ pËĪoÉŃ
ĠÉªdÊ²i ntÊ²i
ĠzatrËĪÉĳ t
ĠrÊĮsÊ²sÊ²ËĪij skÊ²ijÉª
ÉŃÊĮÉ¡Ê²ËĪi tÊĥÊ²iskÊ²Éª
ĠvaÊĴ nÊ²ËĪej
ÑĢ Ð¸
Ġf Éķ
ĠftÊĮ rËĪojÉª
ĠstruktËĪu ra
ĠbÊĮÉŃ É¡ËĪÉĳ
ĠÊĮsta vËĪÉĳtÊ²sÊ²ÊĮ
skËĪo m
ĠÊĮbËĪo ix
Ġpr ËĪÉĽ
ĠumÊ²ËĪe rÊ²i
ĠËĮÉĽ ÉŃ
Ġd Ê²
ĠÉ¡ÉŃazËĪÉĳ x
ĠÊĮtvÊ²ËĪe tÊ²iÉŃ
ĠÉĽ ÉŃasÊ²tÊ²ËĪi
vi s
ĠnÊĮ fsÊ²iÉ¡dËĪÉĳ
ĠmÊ²ËĪÉĽjs tsa
f skÊ²ij
ĠÉ¡Ê²im nËĪÉĳ
Ġm rËĪÉĳ
ĠtÊ²ËĪi xÊĮ
nt ËĪu
ĠprÊĮ ÊĥÉŃÊ²ËĪÉª
ĠrÊ²iÉŃÊ²i É¡Ê²iËĪo
ĠspÊ²itsyaÉŃÊ²ËĪi sta
ĠnÊ²idvÊ²ËĪiÊĴy mÊĮstÊ²
ĠprÊĮdËĪu ktsyju
Ġna rËĪot
ĠM icro
ĠÉĽmËĪo tsyÉª
ĠzËĮa a
rËĪof kÊ²i
ĠstÊĮ tsyÊĮnËĪÉĳ
ĠnÊ²i sÉŃËĪo
ĠËĮÉĽ spËĮÉĽ
Ġza pËĪom
ĠmËĪy sÉŃ
ĠstËĪo ÉŃa
ĠustanËĪovÉŃÊ²i n
Ġ8 00
ĠbÊ²i t
bÉŃÊĮ kÊ²ËĪi
ĠvÊĮ dÊ²a
ĠvÊĮzmËĪo ÊĴnyjÉª
ĠkËĪÉĳÊĴdy jÉª
ĠÉĽnÊ²i rÉ¡Ê²i
ĠprÊ²i dËĪÉĳ
spÊĮ ÉŃ
ĠÊĮbËĪy ÊĥnÊĮj
F i
ĠvËĪyrÊĮ bÊĮ
ĠprÊ²ivËĪy k
ĠprÊ²id stÊĮËĪja
prÊĮ dËĪÉĳ
ĠprÊĮfÊ²ËĪe ssÊĮ
j ËĪÉĽm
ÉŃÊ²ËĪi tÊ²sÊ²ÊĮ
mÊ²i ndËĪovÊĮ
tÊĥËĪÉĽ ÉķÉ²Ê²ÉĽ
ĠprÊ²idÊĮsta vÉŃÊ²ËĪenÊ²ija
ĠÊĮsnÊĮv nËĪojÉª
ĠsÊĮ vÊĮ
v nËĪoj
ĠprÊĮ pËĪÉĳ
d tsy
ĠÉ¡ËĪÉĳ m
ĠsÊĮ pÊĮ
ĠdËĮÉĶ ku
nÊĮ vyj
ĠvËĪÉĳ ÊĴnyjÉª
Ġs ra
ĠÊĮbrËĪÉĳ za
fÊĮr mÊ²ËĪi
ĠzËĮa lÉĽ
ĠnÊ²iÊĮpxÊĮdÊ²ËĪi m
ĠrÊ²iÊĮÉŃÊ²i zËĪu
Êĥy vÊĮtÊ²
ĠjurÊ²idÊ²ËĪi tÊĥÊ²iskÊ²ix
lÉĽ ÉķtÉķ
ĠÉ¡ra fÊ²ËĪi
ĠkËĮÉĶ ÊĴÉ¨stËĪa
vÊĮ mu
ĠprËĮÉĶ fÉĽ
ĠaÉŃkÊĮÉ¡ËĪo ÉŃÊ²ÊĮ
ĠsvÊ²a ÉķËĪe
ĠsxËĪe mÊ²i
ĠnÊ²ivÊ²i rÊĮËĪjatnÊĮ
nÊ²i f
20 21
ĠsÊĮ stÊĮ
Ġ3 4
fÊĮ f
ĠnÊ²idÊ²ËĪe ÉŃÊ²i
da ktÊ²ËĪi
ĠssËĪy ÉŃkÊ²i
ĠÊĮ dÊĮ
n É²Ê²ÉĽ
ĠÉ²Ê²ËĮÉĽ pÉĶ
xÊĮÊĳËĪÉĳ jstvÊ²i
ĠpÊĮ strËĪoitÊ²
spÊĮsËĪobnÊĮ sÊ²tÊ²Éª
sy vÊĮtÊ²
ĠpËĮÉĶ tÊĥÉĽ
ĠprÊ²i kÉŃÊ²u
É¡ram mÊ²ËĪi
ĠÉ²Ê²ÉĽ zv
ĠprÊ²i tÊ²in
Ġr vËĪo
ĠuvÊ²ËĪerÊ²i n
ja kÊ²Éª
ĠÊĮpÉķËĪestvÊ²i nnÊĮvÊĮ
ĠkÊĮndÊ²i tsyÊĮnÊ²ËĪe
Éķ É²Ê²ÉĽj
ĠtÊ²ir rÊĮ
ĠapparËĪÉĳ ta
ĠÉĽ sÊ²tÊ²i
ËĪÉ¨tÊĥ É²Ê²ÉĽ
ĠÉ¡ÊĮÉŃÊĮ vËĪÉĳ
sÊĮ ÊĮbrËĪÉĳ
Ġsta rÊ²ËĪi
ĠvrËĪa s
Ġb rÊ²ËĪu
ĠpËĮÉĶtsta v
ĠÊĴËĪÉĽnÉķi nÊ²i
É¡ËĪo da
Ġx vËĪo
st nym
6 4
ĠpÊĮt pÊ²i
d ry
ĠÊĮdÊ²ËĪe ÊĴda
ĠÊĥtrËĪÉĳ f
v nÊ²ika
ĠmËĪa Êĥ
nÊ²ËĪi tÊ²sÊ²ÊĮ
Ð»ÐµÑĤÐ½Ð¸ Ð¹
tsk Ê²ËĪÉĽÉ¡ÉĶ
ĠprÊĮ xÊĮdÊ²ËĪitÊ²
ĠsÉŃutÊĥÊ²ËĪi ÉŃÊĮsÊ²
ĠbrËĪÉĳ ka
ec t
ĠdÊ²ËĪeÉŃÊĮ jim
ĠzÉĶstËĪa wa
Ġka ÉŃËĪo
ka Êĥ
ĠÊĮtvÊ²ËĪe ta
ĠÊĮp rËĪo
ĠpËĪo ÉŃu
ĠrukÊĮvÊĮdÊ²ËĪi tÊ²iÉŃÊ²ÊĮ
ÉĶvËĪa li
ĠjËĪem kÊĮstÊ²
ĠprÊĮvÊĮ ÊĮx
d nÉĽ
ĠprÊĮ vËĪodÊ²it
juÉķivÊĮ sÊ²ÊĮ
ĠnÊ²ikÊĮÉŃËĪÉĳ j
ĠÉ¡rËĪu tÊ²
tÉĽ l
ĠbËĪo É¡a
ĠËĮu rÉĶ
e ar
ÉŃËĪÉĳ na
Ġz bËĪora
ĠÊĮtkrËĪy tÊ²ijÉª
ĠpÉĶÉķËĪa da
zËĪÉĳ tÊ²
É¡ËĪo j
ĠtËĪa ki
ĠtÊ²i mËĪÉĳ
ĠnatÊĥÊ²ËĪÉĳ ÉŃÊĮm
ĠsrÊ²ËĪe du
jjËĪe rÊ²i
ĠfÉķ rËĪut
ĠnÊĮi mÊ²inÊĮ
su ng
ĠsÊ²ËĪi ÉŃnyj
ĠsÊ²ËĪe ksÊĮm
ĠkÊĮmÊ²pÊ²i tÊ²ËĪe
ĠstrÊĮ tÊ²i
ĠzaÉķËĪi tÊ²i
ĠvnËĪutrÊ²innÊ²i vÊĮ
Ġk rËĪuk
ĠÉĶbËĪÉĽts É²Ê²ÉĽ
Ġpa spËĪorta
lÉĶ r
ĠpÊĮs ÉŃËĪÉĳ
ĠsÊ²i mÊ²ËĪÉĳn
ĠmÊĮkÊ²i ËĪja
ĠsÉĽr vËĪi
ÉŃÊ²i nËĪy
p rÉĽ
Ġt ËĮÉĶva
ĠËĪo bÊĮ
ĠstÊĮ ÉŃ
ĠmÊĮtÊ²i rÊ²ËĪi
ĠkÊĮntËĪÉĳ kty
ĠdÊ²ËĪejstvÊ²i jim
sÊ²ËĪi ÉŃÊ²Éª
ĠprÊĮiz vÊ²idÊ²ËĪenÊ²ija
ĠpÊ ²ËĮÉĽ
ĠuspÊ²ËĪe x
ĠprÊ²ËĪintsy pÊ²i
Ġna strËĪoji
ĠprÊĮsmËĪo trÊĮf
É²i j
ĠdËĪoÉŃÊĴnÊĮ sÊ²tÊ²Éª
ĠnÊ²i sta
ĠvÊ²iÉķist vËĪo
ĠtrÊ²ËĪe nÊ²i
ĠpÊĮ tÊĥÊ²itËĪÉĳ
xËĪodÊ²i m
ĠfpÊĮ sÉŃÊ²ËĪedstvÊ²iÉª
tÊĮ na
ĠprËĪÉĳvÊ²i ÉŃÊĮm
ĠaftÊĮmÊĮbÊ²ËĪi ÉŃÊ²Éª
Â» )
ĠÊĮrËĪuÊĴy jÉª
ĠtÊĥÊ²ÉŃÊ²ËĪe ny
ĠnÊ²iu dËĪo
Ġts ËĪÉĳr
ĠdÊ²i kËĪo
ĠjËĪe s
ĠsÊ²itÊ²ËĪÉĳ x
É¡ÊĮ tÊ²
ÉŃËĪo n
ĠxËĮa rakt
ĠpÊĮsËĪÉĳ tkÊ²Éª
ĠÊĮtsËĪutstvÊ²i ja
ĠtÊ²irapÊ²ËĪi ja
ËĪats jÉĶ
Ġrass ËĪÉĳ
Ġk lËĪi
ĠvÊĮsp rÊĮ
tÊĥÊ²i tÊ²i
ĠsvËĪÉĳ dÊ²i
ĠnÊĮkÊĮ pÊ²ËĪi
st Ê²i
rÊĮvÊĮ nÊ²iÉª
ĠkÊĮmpÉŃÊ²ËĪe ks
ĠdÊ²ijËĪe ty
ĠËĪÉĳ p
ĠkÊĮntÊ²ËĪe jnÊ²i
ĠkÊĮmmÊ²intËĪÉĳ rÊ²ij
ĠbËĪÉĳ nkÊ²i
z i
ĠvÊ²itamÊ²ËĪi nÊĮf
ĠÊĮts tËĪÉĳ
ĠprÊĮ nÊ²ikËĪÉĳ
ĠzatrËĪÉĳ ty
ĠudÊĮvËĪoÉŃ stvÊ²ijim
tÊĥ nÉ¨m
ËĪÉĶr ÉĽm
tÊĥÊ²nÊĮ mu
nts ËĪy
m s
strÊĮ ËĪi
mp ÉŃÊ²ËĪÉĳ
ĠsÊ²i krÊ²i
ĠstËĪÉĳ ryj
ĠrÊĮzumÊ²ËĪe jitsÊĮ
ĠËĮÉĶrÉ¡a É²iz
zËĪa nÉĽ
Ġ19 5
ĠËĪÉĳ nÉ¡
ĠprÊĮ pa
ĠprÊ²i zËĪy
Ġpr ÉĶvËĪa
ĠdÊĮstËĪoin stva
Ġsk ËĪÉĶ
ËĪ juÉķijisÊ²ÊĮ
ĠstÊĮ bÊ²iÉŃÊ²i
ĠvÊĳ ËĪÉĳÉŃ
Ñ Ī
ĠzÊĮ ka
ĠprËĪo tÊĥÊ²ix
mÊ²ËĪi tÊ²
dÊĮÉ¡ÊĮ É¡Ê²ËĪi
ĠvrÊ²i dËĪÉĳ
tÊĥÊ²ËĪi ÉŃÊ²Éª
ĠkËĪo n
ĠrÊĮmËĪÉĳ n
ĠnËĪo sÊ²it
ĠdÊĮxËĪo dÊĮf
x ËĪÉĽ
ĠvÉŃÊĮ dÊ²i
ÉŃËĪo tÊ²
ĠrÊĮspÊĮÉŃËĪoÊĴy ny
ĠkÊĮ pÊ²ËĪi
? !
pÊĥÉĽ s
tÊĥÊ² kÊĮm
Ġn ËĮÉĽ
ĠvÊ²ËĪetÊĥÊ²i r
ĠtÊĥÊ²ËĪi sÉŃÊ²i
ĠdÊ²irÊ²ËĪev jja
ĠÉĽÉ¡Êĳi mpÉŃÊ²ËĪÉĳ
ĠprÊ²imÊ²ËĪe ry
ĠËĪÉĶ k
ĠrÊĮz rabËĪÉĳty
ĠpËĮÉĶ ka
Ġt Ê²ËĪu
ĠdÊ²i n
ĠpÊĮ kËĪo
ĠprÊĮ stËĪu
n nÊ²ÊĮja
ĠvÊĮ ÉŃËĪo
ĠlËĪÉĽ k
ĠtamËĪo ÊĴy
ĠvËĪy skÊĮ
ĠprÊĮ bÊ²ËĪe
ĠzËĮa u
ËĪÉĶv ja
Ġmy Êĥ
ĠpÊĮnÊ²ËĪÉĳ tÊ²ija
ĠtÊ²imÊ²pÊ²iratËĪu ru
ĠnÊĮru ÊĥËĪÉĽnÊ²ij
ĠznakËĪom stvÊĮ
ĠudËĪob nyj
kËĪÉĳ tÊ²
ĠnÊĮ rma
tÊ²iÉŃ na
ĠsÊ²iÉŃ nÊ²ËĪejÉª
ĠsËĪotÊ² nÊ²Éª
Ġspa sËĪÉĳ
ĠÐ º
li tÉķ
nËĪÉĳ t
tÊĮ ÊĥnÊĮj
Ġv É²Ê²ËĪÉĶ
ĠpÊĮ sÉŃÊ²i
ĠpÊĮdËĪÉĳr kÊ²Éª
ĠprÊ²idsta vÉŃÊ²ËĪenÊ²ija
ÊĥÉ¨ tÉķ
ĠdÊĮpuskËĪÉĳ jitsÊĮ
É²tÉķ u
Ġraz ÉŃÊ²ËĪitÊĥÊ²i
ĠmËĪuzy ku
ĠvËĪyÉ¡ÉŃÊ²ÊĮ dÊ²ÊĮt
ĠnastËĪÉĽmp É²Ê²ÉĽ
Ġs kÉĶ
ĠÉĽ nËĪÉĽr
ĠvËĮÉ¨ jÉĶntk
Ġf ÉĶ
Ġbu dËĪÉ¨
ĠkvÊĮÉŃÊ²i fÊ²itsËĪyrÊĮvÊĮ
ĠtÊ²ËĪex nÊ²iku
ĠpÊĮr tËĪÉĳÉŃ
ĠÉªzu tÊĥÊ²ËĪitÊ²
ĠmuÉķËĪi nu
tÉĶ r
kÊĮ s
sÊ² nÊ²ËĪe
Ġa naÉŃÊ²ËĪi
Ġr tËĪÉĳ
ĠfpÊ²itÊĥÊ²at ÉŃÊ²ËĪenÊ²ijÉª
ol d
ĠpÊĮkazËĪÉĳ tÊ²iÉŃÊ²ij
ĠzËĪÉĳ ÉŃÊ²i
vÊ²ËĪÉĽ É²Ê²ÉĽ
ĠpÊĮvÊĮ rËĪo
nËĪu ÉŃÊ²Éª
ĠmnËĪoÉ¡ÊĮ m
nt ËĪa
ĠubÊ²i dÊ²ËĪitÊ²sÊ²ÊĮ
ĠnÊĮstÊĮËĪja Éķim
ĠprÊ²i ÊĥÉŃËĪÉĳ
ĠÉª ÉķËĪu
ĠnÊ²iÊĮpxÊĮdÊ²ËĪimÊĮ jÉª
ĠÊĴyÉŃÊ²i znÊĮ
b lÉĽm
Ġstra dËĪÉĳ
nÊ²i s
bÊĮ rËĪo
ĠtÊ²ËĪe ÉŃ
ĠbaÉŃËĪÉĳ ns
ĠËĪoÉŃ É¡a
ĠrÊ²ikÊĮ mÊ²indËĪovÊĮ
vÊ²ËĪe ra
. ;
ĠÉĽ ÉŃÊ²ËĪi
ĠpÊĮsÊ²itÊ²ËĪi tÊ²iÉŃÊ²ij
ĠbËĮÉĽ kËĪÉĳ
a p
ĠpÊĮdrËĪo st
ĠuÉ¡ÊĮ ÉŃ
ĠprËĪa va
ĠÊĮÉ¡rÊĮnÊ²i tÊĥÊ²ËĪenÊ²ij
ĠÉŃÊ²i m
ĠÉ¡ËĮÉĽ kËĪÉĳ
ra n
ĠÉªntÊ²iÉŃ ÉŃÊ²iktu
ĠsÊĮvrÊ²imÊ²ËĪe nnÊĮvÊĮ
nÊ²ËĪe s
r ny
ĠprÊĮfÊ²i ÉŃaktÊ²ËĪi
ĠspÉĶ sËĪÉĶ
ĠÉ²Ê²ËĪÉĽ É¡ÉĶ
ĠprÊĮ ÊĥÉŃËĪÉĳ
ĠmuÉŃ tÊ²i
ĠdÊ²i sÊ²ÊĮ
ĠÉĽk strËĪÉĳ
ĠÊĴyÉŃËĪu dÊĮ
ĠnÊ²i ÉķËĪÉĳ
ĠpÊĮdÊ²dÊ²ËĪerÊĴy vÊĮjit
ĠpÉĶ kËĪÉĶ
ĠËĪÉĳ kt
Ġu É¡ËĪodnÊĮ
ĠkrÊ²i stËĪÉĳ
Ġu dÊ²irÊĴËĪÉĳ
ĠzÊĮÉķi tÊ²ËĪitÊ²
ĠkËĪÉĶ Êĥ
ĠupraÊĴ nÊ²ËĪenÊ²ij
ĠmÊ²ËĪinu sy
dËĪa jÉĽ
ĠbËĪo j
ĠprÊ²ivra tÊ²ËĪi
mÊ²ËĪe ntÊĮx
ĠÉªÉ¡rÊĮ kÊ²ËĪÉª
ÊĴËĪÉĽ n
ĠprÊĮ f
ĠprËĪÉĳ vÊĮj
Ġ0 8
ĠpÊ²ËĪÉĳ tna
ĠzÊĮÊĴy É¡ËĪÉĳ
ĠmËĮÉĶÊĴ livËĪÉĶÉķtÉķi
ĠkrÊ²iptÊĮ vËĪÉĳÉŃÊ²u
ĠÊĴËĪÉĽnÉķi nÊĮm
ĠpËĪo ÉŃnÊĮja
ÉŃÊ²ÊĮ m
ĠdËĪoÉŃÊĴnÊĮ stÊ²
ĠtsËĪÉĽnt rum
ĠdÊĮÉ¡ÊĮvËĪo ru
ĠÊĮkrËĪu É¡a
ĠsÊ²ituËĪÉĳ tsyjax
tsËĪÉ¨j nÉ¨
ru sa
stvÊĮ vÊĮÉŃ
ĠutÊ²i pÉŃÊ²ËĪi
ĠprÊ²ÊĮ mÊĮ
nt ËĪÉĽ
ĠkrÊĮvÊĮ tÊ²i
ĠÊĮtkËĪÉĳ za
ĠsÉĽkÊĮnËĪomÊ²i tÊ²
ĠrËĪÉĶ k
ĠprÊĮtsydËĪu r
ĠtÊĮ rÊĴËĪÉĽ
ĠpÊ²irÊ²i xËĪot
mËĪy sÉŃÊ²i
ĠtÊĥÊ²rÊ²izvy tÊĥÊ²ËĪÉĳjnÊĮ
tÊĥÊ² kËĪom
ĠkljËĪÉĽ ntuf
prÉĶ va
wu f
tst vÊĮ
Ġd ÊĴy
wÉĶ ÉķtÉķ
Êĥy nÊ²ËĪi
ĠsÊĮtsy ËĪÉĳÉŃnÊĮvÊĮ
Ġt ËĮa
ĠmÊĮ rkÊ²i
ĠkÊĮs mÊ²ËĪi
ĠfÊ²i ksËĪÉĳ
ĠËĪo r
rÊ²ËĪe nÊ²ij
ĠÊĮ strÊĮ
ĠsËĪoÉŃ ntsa
ktÊĮ rÊĮm
f É¨
nËĪu nÊ²i
ĠkÊĮta ÉŃËĪok
ĠvÊ²itamÊ²ËĪi ny
ĠmÊ²i ÉŃÊĮ
ĠdÊĮ ÊĴ
ĠËĪu l
ĠÊĮsÉŃÊĮÊĴ nÊ²ËĪenÊ²ija
ktÊ²ËĪiv nyx
ĠÉ¡ÊĮrÊĮd skËĪovÊĮ
b ÉŃu
l s
ĠkÊĮrËĪot kÊ²ijÉª
ĠpÊ²ËĪi sÊĮÉŃ
ĠÊĴ ÉĽ
É²ËĪi kÊ²ÉĽm
Ð» Ðµ
ĠvÊ²i tÊĥÊ²i
int ËĮÉĽ
kÉĶ nËĪa
ĠspÊ²itsyaÉŃÊ²ËĪi stÊĮm
d ÉĽr
z ËĪaÉ²Ê²a
ĠpÊĮvy ÊĥËĪÉĳjit
ĠunÊ²ivÊ²irsÊ²i tÊ²ËĪe
prÊ²imÊ²i tÊĥÊ²ËĪÉĳ
Ġvra tÊĥÊ²ËĪej
prÊ²i d
tÊĥ Ê²ËĮi
ĠËĪa nt
ĠtrÊ²inÊ²i rËĪofkÊ²Éª
sta gram
ĠrÊ²ËĪi m
É¡rËĪÉĳ tÊ²
v o
ĠÉ¡rÊĮÊĴdanÊ²ËĪi n
Ġra kÊ²ËĪe
stvÊĮ vÊĮ
ĠÉŃÊ²i stËĪo
s jÉĶ
ĠzaËĪja fkÊ²Éª
rÊ²ËĪe sa
ĠprÊ²ËĪi stÊĮ
p it
ĠsÊĮstavÉŃÊ²ËĪÉĳ jut
tÊĮ nÊ²ËĪi
ĠÉªnsÊ²tÊ²itËĪu ta
Ġf ÉŃÊ²ËĪe
Ġm ÉŃadÊ²ËĪe
ĠtÊĥÊ²asÊ²tÊ²ËĪi tÊĥÊ²nÊĮ
ĠzÉ¡ËĪÉĶ dÉ²Ê²ÉĽ
Êĳi ÉŃÊ²ËĪe
ĠvÊ²ËĪidÊ²i tÊ²i
ĠËĮu mÉĶ
ĠpÊĮnÊ²imËĪÉĳ ju
ĠÉ¡Ê²i mÊĮr
ĠpÉŃÊ²ËĪi tkÊ²Éª
ĠmËĪÉĳt tÊĥÊ²ÊĮ
Ġna ÊĥËĪÉĽÉ¡ÉĶ
ĠkÊĮpÊ²itËĪÉĳ ÉŃa
ĠrÊ²ËĪe ÊĴy
ĠÉ¡Ê²ËĪe j
Ġk rÉĽ
Ġ> >
ĠmaÉŃËĪy Êĥ
ĠdËĮÉĶdatk ËĪÉĶvÉĶ
ĠÉ¡ ËĪoÉŃ
ĠtÊ²iÊĮ rÊ²i
Ġ É²Ê²ËĪÉĽj
ĠdÊĮsÊ²tÊ²ËĪi tÊĥÊ²
ĠdÊ²i vÊ²ËĪi
ĠÉªmÊ²ËĪe juÉķijÉª
ĠÊĮtÊĥÊ²ËĪi stkÊ²Éª
ĠzamÊ²ËĪe tÊ²itÊ²
Ġpra vËĪÉĳ
ĠprÊ²idÊĮsta vÉŃÊ²ËĪÉĳjitsÊĮ
ĠËĪotÊĥÊ²i rÊ²idÊ²Éª
ĠpËĪÉĶ pÊĥÉĽs
l na
ĠËĪurÊĮv nÊ²im
ĠvÊĮsprÊ²i ËĪja
Ġs vËĪyÊĥy
v ËĪar
ĠÊĮb jËĪja
ĠnÊĮu tÊĥÊ²ËĪitÊ²sÊ²ÊĮ
ĠjÉªdÊ²i nÊĮ
ĠvÊĮÉŃ ÊĥËĪÉĽ
ĠsÊ² nÊ²ËĪim
dÊ²ËĪe ja
ĠdËĪob ryj
ĠvÊĮskrÊ²i sÊ²ËĪe
ĠÊĴ vÊ²ËĪe
É¡ nËĪÉĳ
ĠËĪjar kÊ²ijÉª
ĠÊĮkazËĪÉĳ tÊ²sÊ²ÊĮ
ĠnÊ²ËĪeskÊĮÉŃ kÊ²imÊ²Éª
ĠÊĮpËĪÉĳsnÊĮ stÊ²
vËĪod Ê²
ĠzËĪÉĳf tra
ĠÉªm mËĪu
ĠÊĮÉ¡u r
ĠpÊĮsÉŃÊ²ËĪednÊ²i vÊĮ
ĠutÊĥÊ²ËĪi tÊ²iÉŃ
Ġb rËĪu
ĠprÊĮis xÊĮÊĴdÊ²ËĪenÊ²ija
ĠzËĪÉĳ dnÊ²ij
y s
Ġb e
tÊĥÊ²nÊĮ stÊ²jju
Ġp lËĪi
ĠdÊĮbËĪÉĳ vÊ²iÉŃ
ĠsÊĮstÊĮ ËĪitsÊĮ
g o
ĠrËĪy ba
ĠÉªnvÊ²isÊ²tÊ²ËĪi tsyj
Ġx tÉķ
ĠÉªnfÊĮrmËĪÉĳ tsyjij
ĠbÊ²i s
ĠpÉĶz vËĪala
Ġ ÉŃËĪoÉ¡Ê²i
Ġx ËĪe
d ÉĽk
Ġana tËĪo
ĠÊĮtmÊ²i tÊĥÊ²ËĪÉĳjut
ĠdÉĶ kwËĪa
d ÊĴa
ĠvyrËĪÉĳ ÉķivÊĮ
Ġl ËĮÉĽ
É¡Ê²i m
ĠvËĪÉĽ rs
ĠfrËĪuk ty
ĠvÊ²ËĪidÊ²i mÊĮ
ĠsÊĮvÊĮ kËĪup
tÊĥÊ² nËĪuju
tÊĥ É¨x
tÊ²ËĪi vnÊĮvÊĮ
Ġs xËĪo
ĠkËĮÉĳ pËĮÉĽ
ĠpÊĮÉŃu tÊĥÊ²ËĪenÊ²iÉª
ĠÊĥ kÉĶ
ĠÉ¡ËĪo dÊĮm
É²ËĪi ku
ĠnÊ²ibÊĮÉŃÊĥËĪo jÉª
Ġza prËĪÉĳ
ĠustanËĪovÉŃÊ²i ny
ic e
ĠprÊĮvÊĮ tsËĪy
ĠUS B
s sÊ²
ĠmÊĮ sÊ²tÊ²i
ĠpÉŃËĪÉĳ ny
ĠpÊĮtrÊ²a sËĪÉĳ
k ËĪar
rÊ²ËĪe nÊ²ijim
va l
ĠkËĪu rÊ²i
ĠprÊ²ËĪiznÊĮ kÊĮf
z ja
ĠpÊĮsÊĮ vÊ²ËĪe
Ġza bËĪÉĳ
ĠsrÊ²ËĪed nÊ²ijÉª
ĠprÉĶdËĪu ktuf
ĠzÉĽ spËĪÉĶ
ĠÊĴ ËĪad
ĠfÊ²iÊĳËĪi tÊĥÊ²iskÊĮj
ĠnÊĮka nËĪunÊ²i
ĠtËĪon n
ĠmÊ²iÉŃÉŃÊ²i ËĪÉĳr
ĠÉķ ËĪÉµt
ĠzËĪu by
ĠR o
ĠÉ¡ÊĮ dËĪÉĳx
ĠkËĪÉĶ nta
ĠsÊĮtrËĪudnÊ²i ka
ĠturÊ²ËĪi stÊĮf
ĠÉŃÊ²ikËĪÉĳr stvÊĮ
Ġ200 5
ĠÉĶ É¡ËĪu
ĠzËĮa pÉĽv
ĠÉŃÊ²ËĪe tÊĮ
ĠmÊ²iÊĴdunarËĪo dnÊĮvÊĮ
ĠÉ¡ÊĮ dÊĮ
ĠzÊĮby vËĪÉĳtÊ²
nu tÊ²sÊ²ÊĮ
ĠuÉŃ trÊĮ
nÊ²ËĪi ÉŃa
ĠmÊ²inÊ²ËĪÉĳ jitsÊĮ
ĠÉĽ rËĪo
ĠtÊ²ËĪek sta
ĠrÊĮzÉ¡ÊĮ vËĪor
Ġsk ryvËĪÉĳ
ĠbÉŃËĪo ka
ĠzamÊ²ËĪe tnÊĮ
ĠsÊ²tÊ²ËĪe nu
lËĪÉĶ É¡ji
so ft
ĠdÊ²i namÊ²ËĪi
vÊ²ÉĽ k
tÊĥËĪÉĶ nÉ¨
ĠÊĥkËĪoÉŃ u
k rËĪÉĶ
ĠprÊ²i nu
ĠvÊ²ËĪÉĽ ku
tÊĥ nËĪÉĶÉķtÉķi
d jÉĶ
ĠzdËĪÉĳ nÊ²ij
u ma
ĠustanËĪovÉŃÊ²i nÊĮ
ÉŃÊ²ËĪÉĳ tsyju
ĠËĪÉĶ na
ĠvÊĮs xi
ĠpÊĮsËĪobÊ²i jÉª
ĠÉķf Ê²at
ĠdÊĮrËĪo ÊĴy
Ġry bËĪÉĳÉŃ
ĠskÊĮ rÊĮ
ĠpÊĮtÊĮÉŃ kËĪÉĳ
ÊĴy ny
ĠnadÊ²ËĪe jusÊ²
ĠvÊ²iÉŃÊ²ËĪi kÊĮj
Ġa bÊĮ
ĠmÊĮÉ¡aÊĳËĪi nÊĮf
ĠbÊĮk tÊ²ÉĽ
ĠsvÊ²ËĪe ÊĴyj
ĠnÊĮpÊĮmÊ²inËĪÉĳ jit
Ġv rÊ²idÊ²ËĪi
ĠÉªÉ¡rËĪu ÊĥkÊ²Éª
ĠtÊ²ip ÉŃÊ²ËĪi
ĠpÊĮtÊĥÊ² tËĪo
ĠËĪÉªÉķi t
ĠstranÊ²ËĪi tsa
ĠrÊĮtsyËĪo n
v nÉ¨x
ĠÉªÉ¡ rËĪok
ĠvÊ²ËĪÉĽÅĭk ÊĥÉĶ
o ki
ĠrÊĮ skËĪo
tÊĥÊ² nÊ²ËĪejÉª
ĠnÊĮnÊ²i sÊ²ËĪe
ĠtÊĥÊ²i ÉŃÊ²ËĪÉĳ
ĠtËĪo r
ĠmÊ²ËĪesÊ²ÊĮ tsy
t ÉĽk
vËĪo ÉŃÊ²i
ĠÊĮn kÊĮ
Ġs mÊ²ir
ĠÉªsp ËĪor
v É¡ÊĮrÊĮ
ĠËĪja rkÊ²i
ĠprÊĮ xÉŃËĪÉĳ
ĠzËĮa intËĮÉĽ
str Ê²ËĪu
dwu k
ĠpÉŃÊĮÉķËĪÉĳ tkÊ²Éª
ĠdÉŃÊ²ËĪi ny
Ġx ÉŃÊ²ËĪe
ĠÊĴyÉŃÊ²iznÊĮ dÊĮrËĪo
ĠbÊ²i ss
ĠprÊĮvÊĮ nÊĮru
ĠzvÊ²ËĪe zdy
ĠÉĽkrËĪÉĳ na
ĠkÊĮnstrËĪuk tsyj
Ġf stupÊ²ËĪi
ĠusÊ²ËĪi ÉŃÊ²ij
ĠÉªz dËĪÉĳ
ĠprÊĮtÊ²i vÊĮvÊĮ
ĠunÊ²ikËĪÉĳ ÉŃnyj
ĠpÊ²irÊ²i krËĪy
ĠdËĪÉĳ tu
nts ÉĽj
ĠÊĮbnÊĮ vÉŃÊ²ËĪenÊ²ija
f skÊĮvÊĮ
ĠkËĪil ku
ĠpÊĮjËĪe s
ĠprÊĮ tÊ²ËĪivnÊĮm
ĠmÊĮ dÊ²ir
ĠbËĪudu Éķij
ĠrabËĪo tÊĥÊ²im
ĠrËĪy nÊĮ
ĠpÊ²irÊ²i sËĪÉĳ
É¡ÊĮ r
stËĪu pÊ²in
ÉŃÊ²i kËĪÉĳ
Ġst ËĪar
ĠtsËĪÉĽ rkÊĮf
ĠkakÊ²ËĪi mÊ²Éª
ĠkruÉ¡ÉŃÊĮ sËĪu
ĠtrudÊĮ vËĪovÊĮ
pËĪo Êĳi
ĠFa cebook
ĠakkumuÉŃÊ²ËĪÉĳ tÊĮr
f kÊĮmÊ²Éª
ĠÉª ji
ĠprÊĮtÊ²ivÊĮpÊĮkazËĪÉĳ nÊ²ija
ĠP lay
ĠpÊ²ËĪe t
ĠËĮÉĶ kÉĶ
ĠÉŃÊ²ËĪi tsÊĮm
O N
Ġfra É¡
ĠÉĶ znËĪatÊĥa
tÊĥËĪÉĽ ÉķÉ²Ê²ÉĽj
ĠS am
Ġs mËĪotr
kÊĮnÊĮ mÊ²ËĪi
ĠprÊ²idstËĪÉĳvÉŃÊ²i n
ĠkËĪÉĳ fÊ²i
ĠprÊ²itÊĥÊ²ËĪi nu
ĠaftÊĮmÊĮ tÊ²i
ËĮa wa
ĠutÊĥÊ²rÊ²i ÊĴdÊ²ËĪenÊ²ij
dÊ²ËĪi m
Ġru bÊ²i
bÊ²ËĪi ny
ĠpanÊ²ËĪe ÉŃ
Ġrass ÉŃËĪÉĳ
ĠprÊĮ tÊ²ËĪe
ĠvÉŃadÊ²ËĪe ÉŃÊ²its
t fa
ĠkÉŃËĪÉĳ vÊ²i
ĠprÊ²i vÊ²ËĪi
ĠdÊ²irÊ²ËĪev jjif
ĠsprËĪa f
ĠÊĮtÊ²nÊ²i sÊ²tÊ²ËĪÉª
ĠfÊĮr mÊĮ
t kuf
ĠfÊ²i Ê
ĠfÊ²iÊ Į
ÉŃÊ²ËĪe kt
ĠnÊĮr matÊ²ËĪi
ĠÊĮ fÊ²i
ĠÊĴ dËĪut
ĠxËĪÉĶ tÉķ
vÊ²i a
Ð¾Ð ³
ĠprÊĮvÊ²i rÊ²ËĪÉĳ
ĠpËĮÉĶ wÉĶn
ĠprÊ²i zna
ĠÉŃÊ²ËĪitÊĥÊ²nÊĮ stÊ²
ĠznËĪÉĳ jim
ÊĴ nÊ²i
rnÊĮ sÊ²tÊ²Éª
ĠÉªzÉ¡ÊĮtÊĮ vÉŃÊ²ËĪenÊ²ijÉª
ĠpÉĶmËĪÉĶ tsÉĶ
ĠukËĪÉĳzy vÊĮjit
Ġzd ÉĶ
ĠÊĮt y
ĠdÊ²ËĪeÉŃÊĮ m
ĠÊĮdÊ²dÊ²i ÉŃÊ²ËĪenÊ²ijÉª
ĠdÊĳ ÉĽf
Ã ©
ĠprËĪÉĳ vÊĮm
v Ê²ËĪÉµr
sÊ²i mÊ²
ĠbÊ²ispÉŃËĪÉĳtnÊĮ ja
ĠprÊ²idusmËĪÉĳtrÊ²i vÊĮjit
ĠdÊ²ËĪe rÊĴy
ÑĢ Ð¾Ð²
ĠprÊ²ËĪinÊ²ÊĮ ÉŃ
Ġzd jËĪÉĽ
ĠpÊĮdÊ²tÊĥÊ²ËĪe rkÊ²i
ÉŃËĪu tÊĥy
ĠpÊĮs ÉŃËĪu
t vËĪo
Ġx ru
ĠmÊ²inËĪu tu
ĠnËĮaj vaÊĴ
xËĪÉĶ dÊĳi
Ð ĺ
ËĪal na
ĠsÊĮtÊĥÊ²itËĪÉĳ nÊ²iÉª
ĠnÊĮ pÊ²i
9 8
ĠunÊ²itÊĥÊ² tËĪo
ĠÉ¡ÊĮvÊĮrÊ²ËĪi ÉŃÊ²Éª
ÊĥËĪy mÊ²Éª
Ġka strÊ²ËĪu
t nÉĽ
ĠsËĪo rt
ĠvÊĮji nnÊĮ
ĠbrÊ²ËĪe nda
b Ê²u
ĠÊĮÉ¡ ra
ĠÊĮpÉŃËĪÉĳ tu
bËĪÉĳ mÊ²Éª
ĠsÊ²tÊ²ËĪi ÉŃÊ²ÊĮ
ĠustanËĪÉĳvÉŃÊ²i vÊĮtÊ²
ĠvÊ²ËĪersÊ²i ju
ĠpÊĮjËĪe stkÊ²Éª
ÉŃÊ²i rËĪu
ĠÉ¡ÊĮsudËĪÉĳrstvÊ²i nnyj
ĠÉ¡ mËĪi
ĠrÊĮss mÊĮtrÊ²ËĪetÊ²
ĠnÊĮstÊĮËĪja ÉķivÊĮ
ĠspÊ²itsy ËĪÉĳÉŃnÊĮvÊĮ
ĠtrÊĮn spÊĮrtÊ²i
ÉĽ kÊĮnÊĮmÊ²ËĪi
ĠdvÊ²i rÊ²ËĪej
ĠÊĮbjja sÊ²nÊ²ËĪi
ĠstrÊ²i m
ĠvÊĮ zÊĮ
kÉŃËĪÉĳdy vÊĮtÊ²
ĠnÊ²i bÉŃÊĮÉ¡ÊĮ
nÊ²ËĪe nnyx
ĠtrËĪÉĳ vy
ĠÉ¡ÊĮ barÊ²ËĪi
ĠnÊ²i dËĪo
ĠnËĪo mÊ²i
w rËĪÉĶ
ĠmËĪy sÉŃÊ²i
ĠvËĪÉĳÊĴnÊĮ jÉª
Ġc om
ĠÊĳiÉŃÊ²ËĪe nyj
Êĥ na
ĠmËĪÉĳksÊ²imu m
Ê²ËĪÉµ tsÊĮ
ĠdËĪa lÉĽj
ts kÉĶ
ĠmÊĮ É¡Ê²i
ĠdËĪu Êĥa
ÊĴËĪÉĽ t
ĠnÊ²i pÉŃÊĮ
Â» ;
É¡ ÉŃu
ntÊ²ËĪi rÊĮvÊĮtÊ²
ĠtÊĥÊ²ËĪÉĳst nyx
Ġznaj dËĪujÉĽ
ĠpÊĮsÉŃÊ²ËĪed stvÊ²ij
Ġu ÊĴËĪÉĳ
tÊĥÊ² kÊ²ËĪÉª
ĠstrÊĮtÊ²i É¡Ê²ËĪi
tÊ²ËĪi tÊĥÊ²iskÊ²im
ÉŃÊ²ËĪe jÉª
dÊ²ËĪi tsÊĮ
ĠsÊĮprÊĮvÊĮ ÊĴdËĪÉĳjitsÊĮ
Ġupra vÉŃÊ²ËĪÉĳtÊ²
nÊĮ vyx
ĠdÊĮ Êĳi
ĠbÊ²i ÉŃÊ²ËĪety
ĠsÉŃÊĮ tËĪy
ĠzrËĪÉĶ bÊ²itÉķ
ĠrÊĮsstÊĮËĪja nÊ²iÉª
ĠprÊĮ dËĪÉĳtÊ²
Ġst rËĪu
ĠzËĮa pa
v nËĪÉĽntÊĥ
rÊ²ikÊĮ mÊ²in
sp u
ĠdÊ²iËĪÉĳÉ¡nÊĮ s
tÊĥÊ²i nnyjÉª
sËĪu jÉĽ
O R
ĠkËĪÉĳp ÉŃÊ²Éª
Ġna kÉŃËĪo
É¡Ê²i x
ĠpÊĮÉŃÊĮ tÊ²ËĪe
ĠnÊ²i sÊ²ËĪet
ĠprÊĮtÊĥÊ²itËĪÉĳ tÊ²
Ġw ith
ĠpÊĮÉŃÊĮ ÊĴËĪytÊ²
ĠmËĪÉĳ j
ĠudËĪÉĳ stÊ²sÊ²ÊĮ
ĠÉĽk rËĪÉĳn
ĠËĮÉĶ ka
ĠÉĶp swËĪu
ĠzvËĪu k
ĠrËĪÉĳ dy
ĠbÊ²iÉŃarËĪu sÊ²Éª
ĠËĪobu vÊ²Éª
ĠpÊĮ ÊĥËĪÉĳ
ĠrÉĶ zvËĪÉĶ
Ġz wÉĶ
Ġs kÊĮvÊĮ
ĠpËĮÉĶ ja
p sÊ²i
ĠprÊ²isËĪu tst
ĠjËĪÉĽst ÉĽm
ĠvÊĮzmËĪo ÊĴnyx
rËĪÉĳ m
ĠtÊ²ËĪÉĽ sta
ĠbÉŃÊ²ËĪi skÊ²ix
ĠdÊ²ia bÊ²ËĪe
ĠnËĪo vÉ¡ÊĮrÊĮ
ÑĤ Ðµ
ĠtÊĥÊ²ËĪuv stvÊĮvÊĮtÊ²
ĠvÊ²i dÊ²ËĪenÊ²ija
stËĪÉĽ tÉ¨
ĠprÊ²i jiÊĴ
ĠsmÊ²ËĪe ÉŃÊĮ
ĠvÊĮzra st
kt ËĪÉĶ
ĠÉŃËĪo ndÊĮ
Ġsta r
ĠsÉŃËĪo ÊĴnyx
ĠÊĮb mËĪÉĳ
ĠÊĮpËĪÉĳsnÊĮ sÊ²tÊ²Éª
ĠvËĪÉĶ j
ĠfÊ²i ÉŃ
ĠsÊĮtrËĪudnÊ²i tÊĥÊ²istva
Ġaktu ËĪÉĳÉŃnÊĮ
ĠpÊĮnÊ²i dÊ²ËĪeÉŃ
ÉĶvËĪaÉ²Ê²ÉĽ m
ĠËĪÉĳ ktsyj
ĠprÊ²i vÉŃÊ²ËĪetÊĥÊ²
ĠrÊ²i vÊĮÉŃÊ²ËĪu
ĠpËĪu Êĳ
x rÊĮ
ĠÊĮbÊ²ispÊ²ËĪetÊĥÊ²i vÊĮjut
Ġma É¡Ê²ËĪi
nÉ¡Ê²i ÉŃ
ĠkÊĮm fËĪor
ĠvÊĮ jtÊ²ËĪÉª
ĠÂ ©
ĠsÊĮ dÊ²irÊĴËĪy
ĠtÊĮ bËĪoj
ĠsÊ²nÊ²i ÊĴËĪÉĳjit
ĠdÊĳ ËĮawa
ĠtvÊĮ jËĪe
ĠnÊĮnÊ²i sÊ²ËĪenÊ²ija
ĠsustËĪÉĳ va
ĠkËĪo rÊĮ
ĠtÊĥÊ²ËĪem tËĪo
Ð ĳ
ĠpÊĮzvÊĮnËĪo tÊĥÊ²nÊ²ika
ĠnÊĮzna tÊĥÊ²ËĪÉĳjut
ĠprÊĮiz vÊ²isÊ²tÊ²ËĪÉª
ĠÊĴ Ê
ĠÊĴÊ Į
A S
ĠstrÊĮËĪi tÊ²iÉŃstvÊ²i
É²Ê²ËĪÉĽj ÊĥÉ¨x
ĠÊĳdÊ²ËĪeÉŃÊĮ jit
ĠssËĪy ÉŃkÊĮj
ĠzadÊ²ËĪe rÊĥ
ĠËĮa na
ĠnËĪo rm
n tÊĥÊ²ÊĮ
ĠÉªntÊ²ÉĽrÊ²ËĪe sy
kÉŃËĪÉĳ ssÊ²
ĠÊĮpÊ²i ratÊ²ËĪiv
ĠÉ¡Ê²ip sÊĮ
ĠÉŃÊ²ËĪi ÊĥnÊĮj
ĠÉŃ Ê²ËĪÉµx
ĠpÉĶf stËĪa
ĠÊĮpÊ²irËĪÉĳ tsyja
lËĪi tsÉ¨
ĠzËĪÉĳrÊĮbÊĮ tka
ĠkÊĮrÊĮ nËĪÉĳ
ĠÊĴËĮÉĽ tÊĥÉ¨
ĠkËĪo sÊ²tÊ²Éª
dËĪo k
ĠÉªÉŃ ÉŃÊ²u
Ġts É¨
Ġu xËĪÉĳ
ĠÊĮvÊĮ ÉķËĪej
ĠprÊ²ispÊĮ sÊĮ
ĠfÊĮrmËĪÉĳ t
matÊ²ËĪi tÊĥÊ²iskÊ²ix
ĠprÊ²iÉŃÊĮ ÊĴËĪÉĽnÊ²ij
Ġ @
ĠtÊ²ËĪi py
Ġvy dÊ²ËĪerÊĴy
ĠÉ¡ËĪoÉŃy jÉª
ĠprÊ²idpÊĮtÊĥÊ² tÊ²ËĪenÊ²ijÉª
Ġza jËĪem
ĠÉªntÊ²ÉĽrÊ²ËĪe sÊĮf
Ġ: )
ĠsÊ²ËĪervÊ²i sa
ĠdÊĮpÊĮÉŃnÊ²ËĪi tÊ²iÉŃnÊĮvÊĮ
i ty
ĠdÊ²i prÊ²ËĪe
Ġkra sËĪÉĳ
ĠÉ¡rËĪÉĳ fÊ²ik
ĠÊĳrËĪu d
ĠÉŃÊ²ËĪi sta
ĠÊĮfÊĮrm ÉŃÊ²ËĪenÊ²iÉª
ĠdrËĪu É¡Ê²ÉĽ
nÊĮvÊĮ ja
ĠtÊ²i tÊĥÊ²ËĪenÊ²iÉª
Ġn ËĪÉĶvÉ¨x
9 6
ĠtÊĮr rÊ²ËĪent
ĠnÊĮ tÊ²a
ĠÊĮp ÉķËĪenÊ²ijÉª
ĠzÊĮnÊ²imËĪÉĳ jutsÊĮ
jÉĽ nt
ĠprÊĮdËĪu ktsyja
ĠvybÊ²irËĪÉĳ jtÊ²i
Ġm nÊ²ËĪenÊ²ija
ĠÊĮprÊ²idÊ²iÉŃÊ²ËĪe nnÊĮj
rËĪu ju
ĠpÊĮdËĪo bnÊĮjÉª
s tÊĥËĪÉĽ
ĠÊĥËĪÉĳ x
ĠdÉŃÊ²ËĪi nnyjÉª
ĠrÊ²isËĪu rs
ËĪal u
ĠÉķfÊ²ËĪa ta
ÉķËĪe t
ĠÊĮsnÊĮ vËĪÉĳnÊ²ijÉª
Ġu zËĪo
ĠsÊĮzda ËĪjut
tÊĮ tÊĥÊ²nyj
mËĪÉĳ tÊ²
ĠÊĥËĪu m
ĠsÉŃËĪo jim
ĠvÊ²i rÊĥËĪy
ĠsÊ²tÊ²ËĪe nkÊ²Éª
ĠnÊ²i tÊĥÊ²
j ÉķtÉķ
ĠÉ¡ wËĪÉĶ
Ġf tÊĥËĪÉĽÉķÉ²Ê²ÉĽj
ĠvÊĮzvrËĪÉĳ t
ĠpËĪÉĶ za
ĠvzÉ¡lËĪÉĽ ndu
ĠÉĽ tÊ²i
ĠnatÊĥÊ²ËĪÉĳÉŃ nÊ²ik
rÊĮ ÉŃ
k tsyËĪo
ËĪo nÊĮf
ĠjÉĽ stËĪÉĽ
tsËĪyÊĮ nnÊĮj
Ġts ÉĽ
ĠÊĳËĪi mu
ĠzËĮaintËĮÉĽ rÉĽs
ĠÉŃÊ²ËĪi tÊĥÊ²nÊĮvÊĮ
ĠbÊĮÉŃ ÊĥËĪymÊ²Éª
ĠfstrÊ²ËĪe tÊ²itÊ²
bÉĽ spÊ²ÉĽ
ts ÉĽm
Ġustra nÊ²ËĪenÊ²ija
ĠnÊĮzna tÊĥÊ²ËĪenÊ²ijÉª
ĠuvÊ²ËĪidÊ²i ÉŃ
ĠmËĪo ju
ĠxÊĮÉŃÊ²i sÊ²tÊ²i
Ġvru tÊĥÊ²nËĪuju
ĠsÊ²ËĪi ÉŃnyjÉª
ĠzÊĮprÊ²i ÉķinËĪo
Ġna sÊ²ËĪi
ĠvËĪybÊĮ rÊĮm
ËĪat ÉĽ
ÊĴËĪÉĳ ÉŃa
Ġs f
ĠÉªstËĪotÊĥÊ² nÊ²ikÊĮm
ĠÊĮbÊ²azËĪÉĳ tÊ²iÉŃstf
Ġu bËĪy
ĠËĪi lÉĽ
ĠmÊ²itËĪo da
Ġku p
nt ÉĽk
ĠprÊ²iimËĪuÉķi stf
ĠkÉŃÊ²ijËĪe nty
ĠbÊ²ËĪe ÉŃyjÉª
ĠaÉ¡Ê²ËĪents tvÊĮ
ĠprÊĮtÊ²ivÊĮvÊĮ spaÉŃÊ²ËĪi
jjËĪez nyjÉª
ĠbÊĮÉŃÊĥËĪo m
ĠsÉŃÊ²ËĪi vÊĮ
ĠpÊĮtrÊ²ËĪebnÊĮ sÊ²tÊ²Éª
ĠdÊĮstÊĮ prÊ²imÊ²itÊĥÊ²ËĪÉĳ
ĠpÉŃËĪÉĳ na
ĠÊĮdnÊĮ znËĪÉĳ
Ġt vÊ²ir
ĠpÊ²i É¡
ĠÉªmÊ²ËĪe ÉŃ
ÊĥËĪÉĽ nkÊĮ
ĠpËĪÉĳ rk
ÉŃÊĮÉ¡Ê²ËĪi tÊĥÊ²iskÊĮjÉª
Ġfpr ËĮÉĶva
ĠËĪu st
Ġza vÊ²ËĪÉĽ
ĠprÊ²ibËĪo rÊĮf
ĠkËĪor nÊ²Éª
ĠsÉŃÊĮÊĴ nÊ²ËĪejÉª
ĠspËĮÉĶ wÉĽ
ĠprÊĮizvÊĮ dÊ²ËĪitÊ²
ĠtvÊ²ËĪer dy
201 4
st ËĮÉĽ
y dra
ĠkrÊ²idÊ²i tÊĮ
ĠtsyÉŃÊ²ËĪi nd
ĠdËĪoÉŃÉ¡ÊĮ jÉª
ĠstËĪÉĳry x
Ġk ËĪÉĽ
ĠxËĪÉĶ dÊĳi
ĠprËĪÉĳktÊ²i kÊ²Éª
f skÊ²ËĪÉĽÉ¡ÉĶ
ĠprÊĮ sta
É¡ÊĮ n
ĠprËĪÉĳvÊ²i ÉŃnÊĮjÉª
ĠrÊĮspÊ²i sËĪÉĳ
Êĳi ju
ĠtËĮÉĽ vËĪÉĽ
ĠÊĮsËĪobÊ²i nnÊĮstÊ²
ÉŃÊĮÉ¡Ê²ËĪi tÊĥÊ²iskÊĮja
ĠstruktËĪu ru
ĠkrÊĮvËĪÉĳ tÊ²Éª
ĠprËĪo tÊĥÊ²nÊĮstÊ²
Ġuda jËĪetsÊĮ
ĠsÊ²i mÊ²inËĪÉĳ
ĠvzÊĮimÊĮdÊ²ËĪejstvÊ²i ja
ĠdÊĮrËĪo É¡ÊĮj
tÊĥËĪÉ¨ na
ĠarÊĮmËĪÉĳ t
ĠsvÊ²itÊĮ dÊ²iËĪo
ĠÊĮsËĪoby x
ËĪÉĳn sy
ĠpÊĮrËĪo dy
ĠdÊ²ËĪevÊĮ tÊĥÊ²ka
ĠkËĪux nÊ²ÊĮ
Ġak tÊ²ËĪe
s ËĪoÉŃ
l vÊ²ÉĽk
ntÊĥ É²Ê²ÉĽ
ËĪÉĶvÊ²ÉĽ m
ĠrÊ²ËĪe kÊ²Éª
ĠÊĴËĪy ra
ĠvÊĮjËĪe nnyx
kÊĮ tÊ²
ĠÊĮsnÊĮv nËĪymÊ²Éª
ĠdÉŃÊ²i nËĪu
ĠÊĮtvÊ²ËĪersÊ²tÊ²i jÉª
ĠÉŃÊ²ËĪi dÊ²ir
Ġts ËĪawÉ¨
ËĪal nÉĽj
Ġna ÉŃËĪÉĳ
ĠprÉĶ blËĪÉĽ
Ġnu ÊĴdËĪÉĳjitsÊĮ
Ġv ÉŃaÉ¡ËĪÉĳ
ĠÊĮnÉŃËĪÉĳj Åĭ
ĠdÊ²istsy pÉŃÊ²ËĪi
A T
ĠspËĪÉĳ tÊ²
ĠprÊ²i ntsy
ÊĴËĪÉĽ nnyx
VI D
bu f
ĠmÊĮnÊ²i puÉŃÊ²ËĪÉĳ
ĠprÊĮ vËĪodÊ²ÊĮtsÊĮ
ĠnÊ²i skÊĮ
ĠÊĴËĪÉĽnÉķi nu
Ġsp rÊĮvÊĮ
stÊ² jËĪja
ĠnastËĪÉĳ i
vÊ²i ÉŃÊ²ËĪi
Ġf rÊĮ
Ġa rÊ²in
ĠutÊĥÊ²ËĪÉĳstÊ² nÊ²ikÊĮm
tÊĥÊ²ËĪÉĳ ÉŃÊĮsÊ²
ĠÉĶf ËĪÉĽr
ĠzapËĪoÉŃ nÊ²itÊ²
ĠvÊ²i ÊĳdÊ²ËĪe
ĠfÊĮ tËĪo
ĠÊĮpubÉŃÊ²i kÊĮ
ĠËĮÉĶ pa
ĠpËĪunk ta
ĠktËĪur ÉĶ
ĠÊĮrÉ¡ÊĮnÊ²i zÊĮvËĪÉĳtÊ²
ĠÉŃÊ²ikvÊ²i dËĪÉĳ
w ka
ĠÂ °
ĠpytËĪÉĳ jitsÊĮ
ĠvysÊĮ kËĪo
Ġk nÊ²ËĪÉĳ
ĠnÊ²i mnËĪo
ĠarÊ²ËĪen dy
ĠnÊĮr mÊĮÉŃÊ²i
ĠÊĥa mpËĪu
ĠprÊ²idna znËĪÉĳtÊĥÊ²in
ĠrËĪo ÊĳnÊ²i
Ġ wËĪu
ĠpÊĮtÊĮ ÉŃËĪok
zÊĮ vyx
ĠraÊĥÊĥËĪy rÊ²i
ĠsÉ¨ stËĪÉĽ
mÊ²ËĪe j
ĠÊĳËĪe ÉŃÊ²in
ĠvÊĮÉŃ É¡ÊĮ
ÉĶ t
ĠrÊĮsskazËĪÉĳ ÉŃa
dÊ²ËĪi ÉŃa
ĠbÊ²i n
ĠnÊĮpra vÉŃÊ²ËĪÉĳ
ĠtsËĪÉĽ ÉŃÊĮ
v nÉ¨
Ð¼ Ð¸
ĠÊĮsnÊĮ vËĪÉĳ
ĠtÊĥÊ²u dÊ²ËĪe
ĠÉªz ÉŃu
ĠznËĪa lÉĽÉķtÉķ
ĠtÊ²iËĪo rÊ²iÉª
ĠÊĮsuÉķist vÉŃÊ²ËĪÉĳtÊ²
ĠkrasÊ²ËĪi vÊĮja
zËĪo vy
ĠsvÊ²ËĪÉĳzÊĮ na
ĠsrÊ²i dÊ²ËĪe
ĠmÊ²iÊĴdunarËĪod nyx
ĠrÊ²i tsy
ĠËĮartÉ¨ kËĪu
ĠprÊ²idprÊ²iËĪja tÊ²ijÉª
ĠsÊĮrÊ²ivnÊĮ vËĪÉĳnÊ²ija
ĠËĪÉª É¡rÊĮ
ĠprÊ²idÉŃÊĮ ÊĴËĪÉĽnÊ²ij
ĠtradÊ²ËĪi tsyÉª
Ġja rÊĮ
ĠspÊĮsËĪob na
Ġu strËĪoi
le s
Ġn ËĪÉĶvÉ¨
ĠtÊ²i pÊ²ËĪi
sÊ²tÊ²ËĪÉĳ m
ĠbrÊĮ n
nÉĽ s
ĠprÊ²imÊ² jjËĪe
ĠpÊĮÉŃËĪu tÊĥÊ²it
ĠkËĪÉĳtÊĥÊ²istvÊ²i nnÊĮ
ĠÉ¡ ËĮa
ĠnËĪo tÊĥÊ²Éª
ts jËĪÉĽ
ĠÉª rËĪÉĳ
ĠpÊĮdvÊ²ËĪe rÊĴy
ĠÊĮtÊ²ËĪetÊĥÊ²istvÊ²i nnÊĮj
mÊ²ËĪe nÊ²i
ĠvÊĮÉŃ nËĪu
ĠprÊ²imÊ²i nÊ²ËĪenÊ²iÉª
tÊ²ËĪi p
ĠpËĮÉĶ lÉĽ
sÊ²tÊ²ËĪi tÊ²i
ĠvËĪÉĽ dwuk
ĠprÊ²i bËĪy
el l
o rt
ĠpÊĮ prËĪÉĳ
Éķ lÉĽ
Ġp s
ĠsÊĮstavÉŃÊ²ËĪÉĳ tÊ²
ĠÊĴy stËĪo
t rÊ²ËĪi
Ġpu tÊ²ËĪej
ÉŃ ËĪa
ra l
ĠpËĮÉĶzÉĶ stËĪa
ĠkÊĮpÊ²i tËĪÉĳÉŃ
ÊĮr É¡a
ĠprÊ²ËĪesssÉŃËĪuÊĴ ba
Ġsk wËĪa
ĠxÊĮ k
ks Ê²ËĪÉª
ĠnarËĪod nyjÉª
ĠutÊĥÊ²ËĪÉĳsÊ²tÊ²i jim
ĠzÊĮkÊĮnÊĮ prÊĮjËĪe
ĠprÊ²i ÉŃÊ²ËĪi
Ġ '
ĠkÊĮrrÊ²i spÊĮndÊ²ËĪe
É¡ dÊ²ËĪe
ĠrÊĮzrabËĪo tka
tÊĥÊ² tÊĮ
ĠËĪÉĳ nna
Ġvwa ÉķtÉķËĪi
ĠsËĪÉĳnktpÊ²itÊ²irbËĪu rk
ĠdÊ²ËĪenÊ²i ÊĴnyjÉª
ĠkËĪÉĳ pÊ²iÉŃ
d m
ĠtÊ²ËĪepÉŃÊĮ j
vÊĮ stËĪo
fÉĽ kt
ĠkrÊĮsnÊĮ ËĪja
vÊ²i ÉķËĪÉĳ
tÊ²ËĪe x
rËĪa tsji
ĠpÉŃÊĮ dËĪÉĳ
Ġju bÊ²i
ÉŃÊ²ËĪe nnyx
Â» ).
ĠÊĮpÊ²i ratÊ²ËĪivnÊĮ
bu s
ĠÉ¡ÉŃubÊĮ kËĪo
k tËĪÉĳk
ĠfÊ²ËĪi Êĳi
ĠkÊĮrÊ²i dËĪo
ĠzÉĶstËĪa É²Ê²ÉĽ
ĠÊĮbjjËĪe mÊ²i
st er
ĠadmÊ²inÊ²istrËĪÉĳ tsyja
ĠzËĮap rÉĶ
ĠËĪu dÊĳaw
ĠtÊ²ik stËĪu
ĠtaÉŃËĪÉĳ nt
ĠSam sung
kÊĮn suÉŃ
ĠtÊ²irrÊ²itËĪo rÊ²iju
ĠkÊĮÊĮr dÊ²inËĪÉĳ
ÑĢ Ñĥ
ĠukrÊ²i pÉŃÊ²ËĪÉĳ
ĠkanËĪÉĳ ÉŃa
ĠpÊ²irÊ²i dÊĮ
n nÉ¨
ĠsprÊĮ sÊ²ËĪiÉŃ
ĠJ a
p l
ĠprËĮÉĽ zÉĽnt
ĠvÉŃÊ²iËĪja nÊ²ija
ĠÊĮsÉŃÊĮÊĴ nÊ²ËĪenÊ²ij
ĠvypÊĮÉŃ nÊ²ËĪÉĳjit
tÊĥÊ² kËĪÉĳ
j ËĪor
ĠspÉĶ wËĪÉĽ
É²Ê²ÉĽ ts
ĠnÊ²iprÊ²i rËĪy
my Êĥ
sÊ²i nÊ²Éª
ĠmËĪÉĳ rtÊ²i
ĠËĪÉªÉ¡ÊĮ rÉª
ĠÉ¡rÊ²i bËĪy
t Ê²ËĪÉĽ
ĠËĪÉªz brÊĮ
ĠutvÊ²irÊĴ dÊ²ËĪe
9 7
vÊĮ sÊ²tÊ²Éª
ktÊĮ ry
ĠrÊĮdÊ²ËĪi tÊ²iÉŃ
ĠprÊ²iÊĮ brÊĮzÊĮ
Ġza pËĪo
tÊĥÊ²ËĪÉĳ sÊ²tÊ²Éª
ĠvysÊĮ tÊ²ËĪe
ĠpËĪÉĶl ska
ĠrÊ²i fËĪor
ĠsÊ²iÉ¡ nËĪÉĳÉŃ
ĠmËĪÉĳ skÊ²Éª
tÊĮ rÊĮmÊ²Éª
ĠpÊĮ vÊ²ir
ĠfËĪÉĶ rm
ĠpËĪÉĳ ÉŃÊĮ
bÊĮ x
matÊ²ËĪi tÊĥÊ²iskÊ²ijÉª
ĠprÊĮvÊ²i ÉŃÊ²ËĪÉª
ĠpËĪo zdnÊĮ
kËĪo va
ĠpÉĶvÊ²ËĪÉĽ Êĥx
ËĪa jÉĶ
ĠzËĪÉĳ jm
vËĪÉĳ i
Ġ200 4
ĠvÊ²ËĪi dÊ²it
ĠpÊĮkazËĪÉĳ ÉŃÊ²Éª
Ġi stËĪÉĶ
ĠsprËĪÉĳ va
ĠËĪa É²i
ĠkÊ²ËĪi jivÊ²i
ĠÊĮs mËĪo
z bËĪÉĽ
pa tÊ²ËĪi
ĠËĮÉĶtpÉĶv Ê²ÉĽ
ĠdÊĮÉŃÉ¡ÊĮ srËĪo
lu s
ĠdruÉ¡ËĪo mu
ĠÊĮbnÊĮ ru
n É¡Ê²Éª
ĠdÊĮ pËĪu
ĠkÊĮnts ËĪof
Ġp nÊ²iv
Ġza jtÊ²ËĪÉª
dÊ²i ju
É²ËĪi tsÉĽ
U S
ĠsÊ²i tÊ²ËĪej
ĠrËĪÉĳdÊĮ stÊ²
j mu
ĠnÊ²imÊ²ËĪe dÉŃÊ²innÊĮ
ĠpÉĽ v
sta f
ĠspÊ²ËĪi skÊ²i
ĠÊĮpÉŃa tÊ²ËĪitÊ²
tÊĥÊ²u ju
ÊĥËĪa mÉ¨
da l
Ġp rËĪu
ĠvnÊ²i sÊ²tÊ²ËĪÉª
ĠX X
ÉŃÊ²ËĪetÊ² nÊ²ij
ĠÊĴ ËĪÉĳÉŃ
ĠËĪofÊ²i s
ĠdÊ²izËĪÉĳ j
ĠnÊ²isÊĮvÊ²irÊĥynnÊĮ ÉŃÊ²ËĪetÊ²nÊ²i
ĠsvÊ²ËĪe tÊ²i
Ġzd jËĪÉĽÉ²tÉķa
u sa
ĠnÊĮÉŃÊĮÉ¡ÊĮ ÊĮb
mÉ¨ sw
Êĳ ËĪÉĽ
É¡u f
ĠÉªzÊĮ brÊ²i
e ss
ĠsÉŃÊ²ËĪiÊĳi stÊĮj
tÊĥ nÉĶÉķtÉķ
ĠÊĴËĪy tÊ²iÉŃstva
ĠuznËĪÉĳ jitÊ²i
ĠmÊ²irÊĮprÊ²iËĪja tÊ²ijÉª
ÉĶvËĪa nÉĽj
Ġf rËĪo
É ¹
ĠjÉª É¡Ê²ËĪi
ĠÊĮbÊĮ jtÊ²ËĪisÊ²
ĠmÊ²i nstru
f s
b jÉĶ
ĠÉ¡ÉŃËĪÉĳv nyjÉª
ĠnÊĮ pÊ²isËĪÉĳ
Ġin nËĪÉ¨mi
ĠaÉ¡Ê²ËĪents tva
ĠvÊ²itÊĥÊ²ËĪe r
ĠÉŃÊ²i nÊ²inÉ¡rËĪÉĳ
ÊĴËĪÉĶ nÉ¨
ĠmÊ²i nÊĮ
ĠsvÊ²ËĪe ÊĴyjÉª
ĠtÊ²ir mÊ²inËĪÉĳ
nÊ²ËĪÉĳ mÊ²Éª
ĠvÊ²ËĪe sÊ²i
x ËĮÉĳ
ĠmÊĮdÊ²ir nÊ²i
pra ts
Ġar tÊ²ËĪe
k r
snÊĮ m
ĠÊĮstËĪÉĳ vtÊ²i
ĠfsÊ²i vÊĮzmËĪo
Ġza ÉŃËĪok
ĠvÊĮjËĪe nnÊĮj
ĠsÉŃÊ²ËĪedstvÊ²i jÉª
ĠkËĪÉĳtÊĥÊ²istvÊ²i nnyj
ĠsÉŃÊ²ËĪedu juÉķivÊĮ
kÉŃa d
ĠÊĴËĪÉĽn skÊ²ijÉª
ĠprËĪa vÉĶ
ĠprÊ²iÊĮbrÊ²i tÊ²ËĪenÊ²ijÉª
ÊĴdÊ²ËĪe nÊ²iju
ËĪÉĶv É²Ê²ÉĽ
Ġdla tÊĥËĪÉĽÉ¡ÉĶ
ĠÉķitËĪÉĳ ju
ĠvÊĮprËĪo su
m ba
ĠkÊĮntËĪo ra
ĠvÊ²ËĪi na
ĠM in
ĠvnÊ²i zËĪu
Ġ0 3
ĠkËĮÉĶ ns
ĠÊĮbÊ²i ÉķËĪÉĳ
ÑĢ Ð¾
ÊĴ É²Ê²ÉĽ
ĠÉŃÊ²ËĪex kÊ²ij
Ġka ÉŃÊ²ËĪi
ĠkÊĮnstrËĪuk tsyju
jjËĪez nyx
tkÉĶ jÉª
ĠÉĽk spÊĮ
ĠdÉŃÊ²i nËĪoj
ĠÉª nnÊĮvÊĮ
ĠprÊĮis xÊĮdÊ²ËĪÉĳ
tËĮÉĽ ËĪÉĽs
ÉŃËĪo É¡a
rËĪÉĳ mÊ²Éª
ĠÊĴyvËĪo tnÊĮvÊĮ
Ġ4 2
rËĪÉĳn tÊ²ija
st ÉŃÊ²i
ĠdÊĮpÊĮÉŃnÊ²ËĪi tÊ²iÉŃnyj
t vËĪor
tÊ² tÊ²i
ĠsprËĪÉĳ vÊĮ
ĠsËĮÉ¨tu ËĪatsji
ĠvÉŃadÊ²ËĪeÉŃ tsa
Ġza strËĪoj
ĠvÉŃÊ²iËĪja jut
ĠÊĮtÊ²ËĪe ÉŃ
Ġsp Ê²ËĪer
ĠmÊ²iÉŃÉŃÊ²iËĪo na
ĠdËĪÉĳ ÉŃÊ²Éª
ĠsÊ²i ÉŃÊ²ËĪe
b rÊ²ËĪenÊ²ija
ĠsprËĪÉĳ fka
ĠÉĶt p
ĠsÊĮts sÊ²ËĪe
ĠtÊĮ ÊĥnÊĮ
ĠskÊ²ËĪi tkÊ²Éª
ĠÊĮb ÊĴËĪÉĳ
Êĥ ËĮÉĽ
ĠsfÉĶ jËĪÉĽÉ¡ÉĶ
ĠpÉŃËĪÉĳsÊ²tÊ²i ka
Ġbj ËĪu
ĠprÊ²inÊĮdÉŃÊ²i ÊĴËĪyt
Ġzdr ËĪÉĶvja
ĠtÉķËĪÉĽ bjÉĽ
ĠÊĴyÉŃËĪÉĳ nÊ²iju
ĠxÊĮÉŃËĪo dnÊĮj
ĠpÉĶ znËĪa
Ġ4 4
ĠÉŃÊ²ËĪi nÊ²iju
ĠdÊ²ËĪi sk
ĠprÊĮ pËĪor
ĠÉªn sËĪu
Ê²ËĪa da
ĠuÉ¡ÊĮÉŃËĪo vnÊĮvÊĮ
ĠËĮu mjÉĽ
ĠÊĥ ÉĽrËĪÉĶ
nad ÉŃÊ²ËĪe
ĠÊĮbËĪy tÊĥÊ²nyx
ĠÊĮprÊ²idÊ²iÉŃÊ²ËĪe nnyj
ĠaÉĽrÊĮ pËĪor
ĠsmÊ²i tËĪÉĳ
ĠprÊĮtÊ²ivÊĮ rÊ²ËĪe
ĠbÊ²i ÊĳdÊ²i
ĠÊĮtvÊ²i tÊĥÊ²ËĪÉĳ
ĠpÊ²itÊĥÊ²ËĪÉĳ tÊ²Éª
Ġ rÊ²ËĪed
ĠrËĪo bÊĮ
ĠËĮÉĶ tÊĥÉ¨m
ĠdvËĪÉĳ ÊĴdy
Ġ ÉŃËĪy
ĠÊĥ ta
zÊĮvÊĮ j
ĠzÊĮvÊĮ ji
ÉŃ jjËĪe
ĠrukÊĮvËĪod stvÊĮm
ĠzdÊĮrËĪov jju
ĠrÊĮdÊ²ËĪi ÉŃsÊ²ÊĮ
kËĪÉĶ lvÊ²ÉĽk
ĠprÊ²i vÊ²ËĪet
rÊ²ËĪe nÊ²iju
j nÊĮvÊĮ
ĠsustËĪÉĳ vÊĮf
tnÊĮ mu
ĠrÊ²ikÊĮ nstrËĪuk
ÉŃÊ²isÊ² tÊ²ËĪÉĳ
ĠÉŃÊ²i tsËĪu
ĠrËĪÉĳ ka
ĠÊĮpÉķËĪestvÊ²i nnyx
Ġ ÉŃÊĮÉ¡ÊĮ
Ġfsp ËĪu
ĠsÊ²ind rËĪo
Ġd vËĪojÉª
Ġbank rËĪo
Ġkl ËĪu
nÊ²ik Ê²ËĪÉª
ĠÊĴy ÉŃËĪyx
Ġv vÊ²idÊ²ËĪenÊ²ijÉª
ĠkËĪÉĳtÊĥÊ²istvÊ²i nnyjÉª
ĠpÊĮ tËĪok
mÊ²ËĪe nÊ²ijÉª
du kt
ĠrËĪus skÊĮja
ĠpÊ²i ÉŃËĪo
ĠprÊ²ËĪintsy py
nÊ²i ÉŃÊ²Éª
Ð ¶
ĠprÉĶdËĪu ktÉ¨
Ġd nÊ²i
vËĪÉĳ juÉķix
ĠtsËĪÉĽ nÊĮm
kva rtÊ²ËĪi
ĠnËĪÉĳvy kÊĮf
nÊ²i mÊ²Éª
ĠvËĪyÉ¡ÊĮ dnÊĮ
ĠvysÊĮ tËĪu
ĠpÊĥËĮÉĽ tÉķÉĽm
ĠspÊ²i ktËĪÉĳk
nÊ²ËĪi rÊĮvÊĮtÊ²
i Êĥ
ĠtrËĪÉĳnspÊĮrt nÊĮvÊĮ
rËĪovÊĮ nnyjÉª
ĠpËĮÉĽ vËĮÉĽ
ĠrÊĮss ÉŃa
ĠÉª mp
sÊ² tÊ²iÉŃ
trÊĮ x
ĠÉŃÊ²i s
ĠÊĮx vËĪÉĳ
ĠdËĪÉĶb r
ĠsÊ²imÊ² jËĪju
ĠtÊĥÉ¨ n
ĠsËĪÉ¨ stÉĽm
Ġz rÉĶ
ĠdÊĮrËĪo É¡u
ĠËĪjakÊĮ by
vÊ²ËĪi ÉŃÊĮsÊ²
ĠmËĪÉĳ Êĳ
ĠpÊĮÉŃÊĮvÊ²ËĪi ny
n sk
É² skÊ²ËĪÉĽÉ¡ÉĶ
ËĮu w
Ġra sÊ²tÊ²ËĪÉĳ
ĠÉŃÊ²ikËĪÉĳr stvÊ²innyx
Ġa dÊ²ikvËĪÉĳ
ĠsvÊĮji ÊĮbrËĪÉĳ
ĠkrËĪy ÊĥÉª
Ġna prËĪÉĳvÊ²i
ĠdÊĮpÊĮÉŃnÊ²ËĪi tÊ²iÉŃnÊĮj
ĠxÊĮ tÊ²ËĪim
ĠÉ¡ÉŃa vÊ²ËĪe
Ġf ÉŃa
Ġkva rtËĪÉĳ
ĠprÊ²i stËĪÉĳ
ĠËĪi Êĥ
ĠÉ¡ÊĮr dÊ²i
stvÊĮ vÊĮÉŃÊ²Éª
st kÊ²i
ÉŃ ÉŃÊ²ËĪi
ĠpÊĮ kÊ²i
pÊĮ n
ĠpÊĮstÊĮËĪja nnÊĮvÊĮ
ĠxËĪo tÊĥÊ²iÊĥ
É¡ da
Ġna tÊĥÊ²ËĪi
ĠÊĴy ÊĳnÊ²i
ÊĴÉĶ ndÊĳ
ĠprÊ²i nadÉŃÊ²ËĪe
ĠpËĪunk tÊĮf
ĠdÊ²i tËĪÉĳÉŃ
d r
ĠfÊ²inËĪÉĳnsÊĮ vyjÉª
xÊĮ rÊĮ
z mÊĮm
ĠsfÊ²ËĪe ry
tËĪÉĶ ra
ĠrËĪo vnÊĮ
Ġf ru
ĠstrÊĮËĪi tÊ²iÉŃnyx
Åĭ kÉĶ
ËĪa li
pu ÉŃ
va n
nd ÉĽ
ĠvÊĮdÊ²ËĪi tÊ²iÉŃÊ²ÊĮ
ĠuÉŃutÊĥÊ² ÊĥËĪÉĳjit
ĠprÊĮstËĪy m
Ġ wËĪa
tÊ²iÉŃ stvu
xËĪÉĳ ja
ĠsÊĮdÊ²irÊĴËĪÉĳ tÊ²
ÑĢ Ðµ
ĠmÉĶ dËĪÉĽ
Ġra sÊ²tÊ²ËĪÉª
ĠkrËĪa ju
ĠmÊĮr ÉķËĪi
ĠÊĮsvÊ²i ÉķËĪenÊ²ija
Ġj ËĪu
Ġna sËĪÉĳ
Ġja vÉŃÊ²ËĪenÊ²ijÉª
ĠprÊĮdÊĮÉŃ ÊĴËĪÉĳtÊ²
ĠsvÊ²ËĪe tÊĥÊ²Éª
Ð¼ Ð¼
ĠpÉĶ rËĪa
ĠprÊĮ nÊ²iknÊĮvÊ²ËĪe
Ġrasp Ê²ËĪi
ĠbËĪy strÊĮvÊĮ
ĠupÊĮ ÉŃnÊĮ
ĠpÊĮzna kËĪomÊ²itÊ²sÊ²ÊĮ
ĠÊĮsuÉķist vÉŃÊ²ËĪenÊ²ija
ĠÐ ´
ĠpÊĮ jtÊ²ËĪÉª
ĠËĮÉĽ kÉĶ
ĠprÊ²iimËĪuÉķi stvÊ²innÊĮ
ktÊ²ËĪiv nyjÉª
ĠsÊĮtsy ËĪÉĳÉŃnyjÉª
ĠrÊ²i f
ĠzanÊ²ËĪÉĳ tÊ²sÊ²ÊĮ
Ġi mp
ĠF or
ĠdÊ²iÉŃËĪÉĳ m
ĠpËĮÉĶ ru
Ġvy pÊ²i
Ġna ÊĴËĪÉĽ
ĠnaÉ¡rËĪu sku
sÉŃËĪu ÊĴÊĮ
ĠstËĪÉĳ fku
ĠvÉ¨ brËĪa
ĠfÊ²ËĪi rmÊ²i
sp ËĪÉĳ
ĠdÊ²ËĪejstvu jut
ĠÉķ rËĮÉĶ
nËĪa mi
Ġza vËĪot
ĠzmÊ²ËĪa nÉ¨
tkÊ²i m
ĠsËĪÉĳ muju
ĠdÊĮbrÊĮ vËĪo
Åĭka x
ĠtrËĪudnÊĮ sÊ²tÊ²Éª
ĠnÊ²i pÉŃËĪo
Ġfspuw prËĪa
kÊĮnsuÉŃ tÊ²ËĪi
ĠvÊĮ spÊĮmÊ²inËĪÉĳ
ĠzadËĪoÉŃÊĴy nnÊĮsÊ²tÊ²Éª
ĠmÊ²ÉĽÊĥkËĪa É²
dËĪu jÉĶ
ĠprÊ²id ÊĥËĪÉĽ
ĠpÊĥÉĽ pËĪi
Ġru bÉŃÊ²ËĪÉĳ
vËĮu vËĪu
ĠpÊ²i tÊĥÊ²ËĪÉĳtÊ²
ĠrÊĮ sÊ²tÊ²i
ĠprÊ²iÊĮ rÊ²itÊ²ËĪe
ĠpÊĮdÊ²tÊĥÊ²irk nËĪuÉŃ
Ġu mËĪÉĳ
Ġras xËĪot
ĠbËĪÉĳ za
ĠvÊĮ rÉª
ĠÊĥyrÊ²i nËĪÉĳ
ĠmÊ²ËĪe ÉŃkÊĮ
É¡ n
Éķi tËĪÉĳ
ĠskËĪu rÉ¨
rÊ²i ka
ĠkËĪÉĳm nÊ²ÊĮ
mËĪÉĳ t
ÊĴËĪo k
ĠkÊĮn dÊ²in
ĠdÊĮsÊ²tÊ²i É¡ËĪÉĳjit
bÊ²ËĪi t
ÉŃÊ²i nÊĮ
ĠvËĮÉ¨pÉĶ sa
ĠpÊĮbÊ²ËĪe du
Êĥy tsÊĮ
ĠtsËĪy kÉŃa
ĠmÊĮ nËĪÉĳ
ĠkËĪo ÊĴyj
ĠfËĪÉĳj ÉŃÊĮf
b i
ĠÉªndÊ²ivÊ²idu ËĪÉĳÉŃ
ĠudËĪob stva
ĠpËĪoÉŃzu jitsÊĮ
ĠbÊ²iÉŃÊĮ rËĪus
ĠÊĥ kËĪu
ĠÊĮdÊ²dÊ²ËĪe ÉŃ
ĠpÊĮftÊĮ rÊ²ËĪÉĳ
ĠÊĮbÊĮrËĪo ny
Ġpa tsjËĪÉĽ
ĠrÊ²isËĪur sy
ĠËĪjaÉ¡ÊĮ dy
ĠxtsËĪÉĽ Êĥ
tÊĥ ÉĽk
fÊĮ m
ĠÉĽk skÉŃÊ²u
ĠÉĽnÊ²ir É¡Ê²ËĪe
ĠÊĮpstÊĮËĪja tÊ²iÉŃstvÊĮ
ĠkÊĮ nÊ²ËĪe
ĠznËĪa jdÊĳÉĽ
ĠrËĪy bu
ĠzËĮa pra
ĠuswËĪu É¡Ê²i
skËĪo p
5 7
ĠsÊĮdÊ²irÊĴËĪÉĳ nÊ²ijim
ĠÊĮ tÊĥÊ²a
ĠdËĪo tÊĥÊ²i
.... ....
sÊ²tÊ²i m
ĠdÊĮmËĪÉĳÊĥ nÊ²ivÊĮ
ĠÊĮbrabËĪo tka
ĠprÊ²intsy pÊ²i
d kÊĮx
ĠupÊĮtrÊ²i bÉŃÊ²ËĪenÊ²ija
ĠpÉĶmËĪÉĶ tsÉ¨
ĠstrÊĮxÊĮ vËĪÉĳnÊ²ija
sÊ²tÊ²ËĪi sÊ²
Ġp Ê²at
ĠmiljËĪÉĶ nuf
sÊ²tÊ²ËĪi ÉŃ
va ÉŃÊ²ËĪe
ĠÉĽ m
Êĥ kËĪÉĳ
ĠÊĴyÉŃËĪÉĳ nÊ²iÉª
ĠsÊĮvrÊ²imÊ²ËĪe nnÊĮm
ĠÉĶfËĪÉĽ rtÉ¨
ĠÉ¡Ê²i n
ĠpÊĮdÉ¡ÊĮtËĪo fkÊ²i
ĠÉĽÉŃÊ²i É¡ËĪÉĳnt
vÊĮ rÊĮ
ĠtsyÉŃÊ²i sÊĮÊĮbrËĪÉĳ
ĠdÊĮ n
ĠfÊĮtÊĮÉ¡rËĪÉĳfÊ²i j
rnÊĮ mu
zÊĮ tÊ²
ĠjËĪe du
Ġn Ê²ËĪÉµm
Ġpu blËĪi
ĠsÊ²nÊ²ËĪÉĳ tÊ²ija
ĠsvÊĮbËĪo dnÊĮ
ĠvËĪy ru
ĠjËĪe ÊĳdÊ²i
ĠprÊ²idstËĪÉĳvÉŃÊ²i na
Ġma nÊ²ËĪe
ĠjÉªdÊ²ËĪinstvÊ²i nnÊĮjÉª
ĠÉªvËĪÉĳ n
É²Ê²ËĪa jÉĶ
ĠprËĪofÊ²i ÉŃ
ĠvÊ²ËĪidÊ²i m
ĠrasÉķËĪity vÊĮtÊ²
vËĪodÊ²i m
ĠdËĪoÉŃ É¡a
ĠtrËĪÉĳ x
bÉĽ ts
ĠvÊ²ËĪi ktÊĮr
Ġta ksÊ²ËĪÉª
ĠËĮa r
ĠpÊĮ tÊ²irpÊ²ËĪe
²ËĮ ÉĶ
ĠprÊĮ kÊĮnsuÉŃtÊ²ËĪi
fÊ²i ka
zÊĮ ÉŃ
ËĪi sa
ĠvÊĮÊĳ mÊ²ËĪitÊ²i
nÊ²i tsËĪÉĳ
ĠkÊĮvËĪo tËĪo
Ġa Êĳir
ĠrabËĪo tÊ²nÊ²ik
ĠsÊĮÉ¡ ÉŃÊĮsÊĮ
Ġja vÉŃÊ²ËĪenÊ²ija
bjÉĽ t
d ÉĶvËĪi
tsy dÊ²ËĪe
ĠxÊĮrÊĮktÊ²irÊ²izËĪu jitsÊĮ
ĠbÉŃÊĮ kÊ²ËĪi
ĠpÊĥ ÉĽk
Ê²ËĪÉĽ t
n skuju
ĠkËĪÉĳtÊĥÊ²i stvÊĮm
ĠkËĪaÊĴd É¨m
ĠËĮÉĽ Åĭ
ĠÊĮsËĪobÊĮ vÊĮ
ĠartÊ²i rÊ²i
ĠÊĥtÊĥÉĽÉ¡ËĪu lÉ²Ê²ÉĽ
ĠdËĪo ÉŃÊ²Éª
ĠrÊ²i nd
kËĪo t
Ġad rÊ²ËĪesa
rÊĮvÊĮ nnyj
ĠdÊ²ËĪe mÊĮ
la s
ĠÊĮpstÊĮËĪja tÊ²iÉŃstva
Ġf xÊĮd
ĠtÊĥÊ²is nËĪok
ĠÊĮtÊ²tÊ²ËĪe nkÊ²Éª
ĠÉĽ vÊĮ
ÉŃ ÉŃÊ²u
ĠfÊ²inËĪÉĳnsÊĮ vÊĮj
ts jÉĶn
ĠkÉĶ É²Ê²ËĪÉĽ
Ġza krËĪÉĽÉķÉĽ
ĠÉª mÊ²inËĪÉĳ
ĠkrËĪÉĳ snÊĮvÊĮ
ĠsÊĮÊĮtvÊ²ËĪetst vÊĮvÊĮtÊ²
spÊĮsËĪobnÊĮ stÊ²
vËĮi du
6 9
ĠÉ¡Ê²iÉ¡Ê²i jËĪe
Ġs fËĪuj
ĠbÊĮ j
ĠC om
ĠspÊĮsËĪob stvujut
ĠprÊ²iby vËĪÉĳnÊ²ija
ĠÉĽ wrËĪÉĶ
ĠvÊĮj nËĪÉĳ
ĠnaÉŃËĪoÉ¡ÊĮ vÊĮj
ĠvÊ²ËĪe sÊĮm
ĠkÊ²i ramÊ²ËĪi
ĠÊĮts ÉŃÊ²ËĪe
ĠËĮi ndÉ¨
ĠmÊ²iÊĴdunarËĪod nÊĮj
ĠpÊĮkËĪÉĳzy vÊĮjut
ĠtÉ¨ É¡ËĪÉĶd
ĠÉ¡ nÊ²i
ĠkÊ²ir pÊ²itÊĥÊ²ËĪÉĳ
ĠdÊĮba vÉŃÊ²ËĪÉĳjut
É¡ ËĪÉĶr
ĠprÊ²ipÊ²ËĪÉĳ tstvÊ²i
ty vÊĮtÊ²
Êĥy ny
sËĪÉĳ mÊ²Éª
ĠËĮu zÉ¨
er i
ĠtsËĪÉĽ na
ĠvÊĮÉŃÉ¡ÊĮ É¡rËĪÉĳ
ĠdÊĮ stËĪupÊ²in
É¹ ËĪÉĶ
ĠÉĶÉ¡rËĪÉĶ m
ĠnËĪo vymÊ²Éª
ĠprÊĮ É¡rammÊ²ËĪi
Ġs ËĮÉĶ
b ÊĴy
ka tÉķ
ĠÉ¡a rËĪÉĳntÊ²ija
k o
ĠÉªntÊ²ÉĽrÊ²ËĪes nyx
ĠtÊĮrÉ¡ËĪo vyx
Ġt y
ĠmÊ²ËĪe tra
ĠkÊĮnfÊ²i rÊ²ËĪentsyÉª
ĠÊĮÊĥËĪy pka
ĠÉ¡ÊĮtËĪo vyjÉª
ĠtÊ²ixnÊ²ËĪi tÊĥÊ²iskÊ²ix
ĠsÊĮ nÊ²itËĪÉĳ
ĠvysËĪo ty
ĠdËĪo ÉŃÊ²ÊĮ
ĠÊĮsËĪobÊĮ j
Ġv rÊĮ
ĠubÊ²idÊ²ËĪi tÊ²isÊ²
v ny
ĠnÊ²i sÊĮm
ĠvybÊ²irËĪÉĳ jut
t ÉŃÊ²ËĪi
ĠÊĮtpËĪu ska
st rÊĮm
ĠprÊ²ivÊ²idÊ²ËĪe t
ĠbÊ²irÊ²ËĪe É¡u
ĠbrËĪÉĳ t
Ġb ÉŃÊ²isÊ²tÊ²ËĪÉĳ
ĠpÊĮdËĪob nÊĮvÊĮ
ĠkÊĮ nÊ²ËĪeÊĥ
Ġpl ËĮa
pËĪÉĽ j
ĠtÊĥ Ê²ËĮi
ĠlËĪa ta
ru xÉĶ
Ġkr ËĮÉĽ
ĠpÉŃËĪÉĳtÊ² jja
Ġzap rÊ²ËĪe
ĠrÊĮÊĳdÊ²i ÉŃÊ²ËĪitÊ²
ĠuÉ¡ ÉŃËĪÉĳ
tÊĥÊ²ËĪÉĳ mÊ²Éª
ĠprÊ²idpÊĮtÊĥÊ²itËĪÉĳ jut
ĠzÊĮrabËĪÉĳty vÊĮtÊ²
ĠO n
ĠÊĮp rÊĮ
3 00
ĠprÊĮ puskËĪÉĳ
ĠpÊ²ËĪe tÊĥÊ²Éª
ĠkrÊ²idÊ²ËĪi ty
ĠpÊĮpuÉŃÊ²ËĪÉĳrnÊĮ stÊ²jju
ĠrÊ²iÉ¡Ê²i strÊ²ËĪi
ĠprÊĮ vËĪÉĳ
ĠsÊĮÉ¡ÉŃËĪÉĳ sÊ²ijÉª
ÉķËĪÉĳ ja
ĠuvÊ²ËĪidÊ²i tÊ²i
ËĪÉĽ k
ĠvÊ²i d
ĠpÊĮsËĪobÊ²i ja
ĠsÊ²ËĪevÊ²ir nÊĮj
ĠmÊĮr kËĪof
ĠnÊĮ vÊ²ËĪej
rÊĥ a
dÊ²ËĪe m
Ġ ËĪar
É¡ dÉ¨
ĠparËĪÉĳmÊ²i trÊĮf
ĠÉ¡ÊĮra ntÊ²ËĪirÊĮvÊĮ
Ġa mÊĮ
ĠdrËĪu ÊĴ
Ġs kÊ²i
ĠvËĪyjasÊ² nÊ²itÊ²
ĠrastvËĪo rÊĮm
ĠvÊĮjinnÊĮ sÉŃËĪuÊĴÊĮ
ĠzÊĮ Ê
ĠzÊĮÊ Į
ĠprËĪÉĶ stu
ËĪÉĳ na
ĠÊĮxrËĪÉĳ ny
Ġ18 0
ĠdÊĮstËĪup na
Ġstan ËĪÉĶvi
ĠvËĪÉĶ dÉ¨
b nym
Ġa varÊ²ËĪi
ĠkrÊĮ vËĪÉĳtÊ²
ĠvÊ²idËĪu Éķix
ĠdËĪÉĳ nnuju
ĠutÊĥÊ²ËĪÉĳ ÉķixsÊ²ÊĮ
ĠsprÊĮvÊĮ tsËĪy
Ġzb ËĪÉ¨
ĠrÊĮssmÊĮtrÊ²ËĪe nÊ²ija
ĠÊĮÊĴy dËĪÉĳnÊ²ija
ĠsÊ²i rÊ²iËĪÉĳ
" :
ĠbÊ²itËĪo na
ĠX I
ĠpÊ²irÊ²i dËĪÉĳtÊ²
ĠkartËĪofÊ²i ÉŃ
ĠdËĪÉĳ r
ĠbÊ²isp rÊ²i
ĠÉĽkspÊ²ËĪer tÊĮf
ĠÉªz jËĪja
ĠkËĪÉĳmÊ²i ra
ĠkÊĮnt ra
ĠsÉŃu ÊĴËĪytÊ²
ĠpÊĮxu dÊ²ËĪetÊ²
ĠÉ¡Ê²i rÊĮËĪi
ĠmËĪuzy kÊ²Éª
ĠnapÊ²ËĪi tÊĮk
ĠsÊ²i É¡a
ĠvnÊ²i sÊ²ËĪe
Êĥy nËĪo
ĠprÊĮ vËĪoda
ĠÊĮbÉŃÊ²i tsËĪo
P S
ĠdÊĮvËĪo ÉŃ
ĠIn stagram
nÊ²i kÊĮx
Ġskwa d
ĠvÊĮzra stËĪÉĳ
ĠËĮÉĽ nËĪÉĽr
5 2
ĠpËĪÉĶr nÉĶ
ĠbÊ²i zËĪu
ĠkÊ²itËĪÉĳ ja
ĠÊĮtmÊ²i tÊĥÊ²ËĪÉĳjit
tÊĥÊ²i na
sËĪi mÉ¨
Ġa j
ĠnÊĮ tËĪÉĳrÊ²i
ĠvysËĪo kÊĮjÉª
ĠpËĮÉĶpu lËĪar
ĠzÊĮsÊ²i dËĪÉĳnÊ²iÉª
ĠkartÊ²ËĪi na
d É²Ê²a
ĠvÊ²idËĪu Éķij
ĠT a
ĠvËĪyÊĥ ÉŃa
ĠpÉŃÊ²ËĪi ty
ĠsvÊĮji vrÊ²ËĪemÊ²innÊĮ
ĠmËĪÉĶ jÉĽ
ĠmÊ²ËĮÉĽ ndÊĳÉ¨
j nyj
mÊĮ nst
Ġsu vÊ²i
ĠsËĪo ka
ĠÉªmÊ²ËĪe ja
ĠÉŃÉ¡ËĪo ty
znÊĮ mu
ĠvËĪyvÊĮ dy
ĠsËĪÉĽ ks
ĠWi Fi
mÊ ²ËĮ
ĠrÉĶdÊĳËĪa ju
âĢ ľ
i zvÊĮ
rÊĮpÊ²i f
ĠdÉŃÊ²ËĪi tÊ²iÉŃnÊĮjÉª
ĠÊĴËĪÉĳÉŃÊĮ by
ĠatmÊĮsfÊ²ËĪe ru
Ġvy skËĪÉĳzy
ĠrÊ²ikÊĮmÊ²indËĪu ju
ĠÊĮbÊĮ strÊ²ËĪe
ĠjÉĽstËĪÉĽ ÉķmÉ¨
ĠdÊĮba vÉŃÊ²ËĪÉĳtÊ²
ĠsÊ²i rËĪo
Ġpa rt
ĠbÊ²i nÊĳËĪi
m bËĪu
ĠpÉŃÊĮtÊ²i ÊĴËĪÉĽj
ĠtËĪo tÊĥÊ²ku
ĠvÉ¨ bËĪÉĶ
ĠÉªmmunÊ²i tÊ²ËĪet
ĠpËĪotÊĥÊ² ty
d kÊĮ
ĠprÊĮku rËĪo
ĠdÊĮ brËĪÉĳtÊ²sÊ²ÊĮ
Ġu xËĪodÊ²it
ĠprÊ²iÊĮb ra
ĠtÊĥÊ²a stËĪo
ĠmÉĽ tËĪÉĶ
ĠprÊĮvÊĮÊĮx ranÊ²ËĪi
ĠvÊ²ËĪe kÊ²i
ĠmÊ²ËĪestÊĮ m
ĠmÊ²i ÉŃÊ²ËĪi
ĠmÊĮtÊ²i mËĪÉĳ
trËĪÉĳ n
ĠtÊĥÊ²ËĪi stÊĮj
ĠÉĽkÊĮnÊĮmÊ²ËĪi tÊĥÊ²iskÊĮj
ÉŃÊ²i ka
ĠzakrËĪy tÊ²
ĠnÊĮ nÊĮsÊ²ËĪitÊ²
ĠdÊĮ kÉŃËĪÉĳ
ĠkÊĮnts ËĪu
pÉŃa tÊ²ËĪeÉŃ
mÊ²ËĪe ntÊĮ
tÊ²ËĪÉĳ t
ĠÉªzu tÊĥÊ²ËĪenÊ²ija
tÊĥÊ²i s
ĠnÊ²isÊĮm nÊ²ËĪe
ĠÉ¡ÊĮrdÊ²i rËĪo
ĠÉªz ËĪy
ĠtrÊĮ v
tÊĥÊ²ivÊĮ jutsÊĮ
Ġpa ÉŃ
Ġu kÊĮ
sËĪo vÊ²i
ĠxËĪÉĳ rÉª
ĠnËĪÉĳ zvÊĮ
ËĪ juÉķijÉª
ry x
ĠsÊĮbÊ²irËĪÉĳ jitsÊĮ
ĠskazËĪÉĳ ÉŃÊ²Éª
5 6
ĠsÊ²i sÊ²tÊ²i
Ġprav dÊĳËĪi
ĠËĮindÉ¨ vËĮidu
ĠÉªz dËĪÉĳnÊ²ijÉª
ĠkËĪu rt
ĠkrËĪÉĳ snÊĮj
ĠupÊĮÉŃnÊĮ mËĪotÊĥÊ²i
nk rËĪÉĳ
ĠvÊ²itÊĥÊ²i rÊ²ËĪi
ĠdÊ²i r
ĠtÉķËĪÉĶ ÅĭÉ¡u
ĠdÊĮxËĪo dy
Ġf xËĪoda
ĠtÊĥÊ²ÉŃÊ²ËĪe nÊĮm
ĠrÊĮdÊ²ËĪi tÊ²iÉŃÊ²ÊĮm
ĠÉªzbÊ²i É¡ËĪÉĳtÊ²
ĠdÊ²iËĪÉĳ mÊ²itr
dÊĮ sÊ²tÊ²Éª
ÉĶv ËĪÉĶÉķtÉķi
kÊ²i ra
Ġstra xËĪo
ts kÊĮja
ĠpÊĮkËĪup ka
ĠbrËĪo n
Ðº Ð¸
ĠsÊ²i rÊ²iËĪÉĳÉŃ
Ġfp ÉŃËĪotÊ²
sp ÉĽ
É²Ê²ËĪÉĽ É¡ÉĶ
ĠmËĪÉĳ ska
ĠÉ¡rÊ²ËĪi p
Êĥy mu
ÉŃÊ²ËĪe nnÊĮj
ĠprÊĮiz vÊ²i
ĠprÊĮstËĪÉĳ ja
ĠusÉŃËĪy ÊĥÊĮ
sa x
Ġj ËĪi
mp ÉĽ
ĠtÊĥ ËĪÉĽr
ĠÊĮËĪÉĳ Ê
ĠÊĮËĪÉĳÊ Į
ĠdvÊĮ r
vÉŃÊ²i nnÊĮj
Ġnaj vËĪÉ¨
ĠmÊ²i r
ĠkÊĮÉ¡dËĪÉĳ tËĪo
ĠsÊ²irdÊ²ËĪe tÊĥÊ²nÊĮ
ĠÊĮfÊ²i tsËĪÉĽ
Ġu vÉŃÊ²i
É²ËĪi tsa
ĠrËĪÉĳz nym
ĠsÊ²nÊ²i ÊĴËĪÉĳjitsÊĮ
ĠpÊĮtÊĮ ÉŃËĪoÉ¡Ê²i
ĠdÊ²imÊĮnst rÊ²ËĪi
ĠrÊĮz jja
ĠkËĮa tÉĽ
ËĮaw k
ĠtÉķËĪÉĽ p
ĠÊĴËĪyÊĳn jju
ĠkÉŃa pËĪÉĳ
ba tÊĥ
z dÉ¨
ÉŃÊĮ É¡u
Ġv id
ĠptÊ²ËĪi tsy
vÊ²ij tsËĪÉĳ
ĠpÊ²i Êĥy
ĠÊĮbËĪy tÊĥÊ²nyjÉª
ĠdÊ²iËĪÉĳ mÊ²it
Ġku rÉª
ĠÊĮtÊ²tÊ²ËĪe nkÊĮf
Ġna strËĪoitÊ²
ĠkÊĮn sÊ²tÊ²itËĪu
ĠprÊ²idÊ²ËĪerÊĴy vÊĮtÊ²sÊ²ÊĮ
ĠpÊ²irÊ²i pËĪÉĳ
ĠN ew
ĠprÊĮdÊ²i mÊĮnst
ĠnÊ²izna tÊĥÊ²ËĪi
ĠprÊĮfÊ²isÊ²sÊ²iÊĮnËĪÉĳ ÉŃnÊĮvÊĮ
ĠvÊĮsprÊĮ iz
ĠnÊ²ipÊĮ nÊ²ËĪÉĳ
rÊĴ ËĪÉĳÉŃ
ÊĴ jjÉª
ÊĴdÊ²ËĪe nÊ²ijim
ĠËĪÉĳu dÊ²iÊĮ
ĠtrËĪu t
ĠvÉŃadÊ²ËĪeÉŃ tsyf
Ġa s
nd er
ĠtÊĥÊ²ËĪe rnÊĮvÊĮ
l ËĪat
ru juÉķix
ĠsÊĮm nÊ²i
ĠnÊ²ibÊĮÉŃ ÊĥËĪÉĳja
Ġ200 3
ĠsmËĪy sÉŃa
ĠÊĮstËĪÉĳ ÉŃsÊ²ÊĮ
ĠÊĥ ÉŃÊ²i
201 3
ĠsaÉŃ fÊ²ËĪe
ĠkrÊĮvÊĮ ÊĮbra
ĠÊĴyÉŃËĪÉĳ ju
ĠvÊ²intÊ²i ÉŃÊ²ËĪÉĳ
v nÉ¨m
ĠkÊĮ ba
ĠzËĪÉĳrÊĮbÊĮ tnÊĮj
ĠpÊĮÊĳËĪi tsyju
mÊ²i ntÊ²ËĪirÊĮvÊĮ
tÊĥÊ²in kÊĮ
ĠnarÊ²ËĪÉĳ du
ĠsÊ²ind rËĪom
Ġza kwËĪa
ĠkËĪo Êĥyk
ĠÉĶ krËĪÉĽ
ĠtatÊ²jËĪja na
Ġ0 7
ĠkÊ²isÉŃÊĮ tËĪÉĳ
Éķ É²Ê²a
ĠtÊĥ ËĪar
ĠkËĪo ÊĥkÊ²Éª
ĠzaprËĪo s
ĠtÊĥÊ²ÉŃÊ²ËĪe na
ĠzÉĶ stËĪawÉ¨
ĠsvËĪoj stf
ĠkÊĮntsËĪÉĽ rt
prÊĮ iz
ĠukËĪÉĳzÊĮ nnyx
ĠÊĮtÊ² sÊ²ËĪu
ĠÊĴ ÊĴËĪÉĳ
ËĮa liz
ĠmÉĶ mËĪÉĽ
ĠËĪopÉķi stvÊ²i
ĠÊĮd nÊ²ËĪi
ĠrÊ²ËĪi t
w É¨x
ĠnÊĮkazËĪÉĳ nÊ²ijÉª
ĠsÊ²nÊ²imËĪÉĳ tÊ²
ËĪÉĶr tu
ĠsmartfËĪo n
l nÉĶÉķtÉķ
ĠÉªr kËĪu
ĠfÊ²iÊĳËĪi tÊĥÊ²iskÊ²ijÉª
r skÊ²ix
Ġzb rËĪo
ĠputÊ²iÊĥËĪÉĽ stvÊ²i
vËĪÉĳ juÉķij
ĠvËĪyja vÊ²itÊ²
ĠÉªÉ¡rËĪÉĳ jut
ĠpÊĮstÊĮnÊĮ vÉŃÊ²ËĪenÊ²ijÉª
ĠsÉŃu ÊĴËĪÉĽ
ĠtÊĥÊ²i snÊĮ
spÊĮr ta
ĠÉŃÊ²ËĪe tÊ²nÊ²i
Ġsp ËĪÉĽ
5 8
ĠÉªz dËĪÉĳnÊ²ija
ĠÉŃÊ²ËĪi tÊĥÊ²nyjÉª
ĠÊĮd dÊĮx
ĠprÊĮ tÊĥÊ²
ĠT h
5 00
nt ra
ĠÉĽffÊ²ËĪe kty
ĠzÊĮpÉŃa nÊ²ËĪirÊĮvÊĮ
ĠÊĥy sÊ²tÊ²ËĪÉª
ĠvÉŃadÊ²ËĪimÊ²i ra
ĠnÊĮ ÊĴymËĪÉĳ
ĠnÊ²ËĪer vnÊĮj
ĠsÊ²ËĪi ÉŃÊĮj
ĠstrÊ²i ÉŃ
dÊĮ r
ĠprÊĮ ÉŃÊ²i
ĠmÊ²idÊ²itsËĪy ny
e xa
ĠaksÊ²issuËĪÉĳ ry
ĠrassmËĪÉĳtrÊ²i vÊĮtÊ²
Ġf ÉŃÊĮ
kvÊ²i ÊĳËĪi
ĠÉ¡ nÊ²ËĪe
ĠkËĪomnÊĮ ta
ĠfËĪÉĳ kty
ĠvËĮÉĶ jÉĽ
ĠprÊĮ vÊ²ËĪe
ĠbÉĽ spÊ²ËĪÉĽ
ĠtsËĮÉĽ ËĪÉĽm
ĠrÊĮzmÊ²i sÊ²tÊ²ËĪitÊ²
li t
ĠÉ¡raÊĴdËĪÉĳ nskÊĮvÊĮ
ĠsamÊ²ËĪi m
tÊĥÊ²i vÊĮjit
Ġraz rËĪu
ĠvÉŃadÊ²ËĪeÉŃ tsy
ĠÉªmÊ²ËĪe ÉŃÊ²Éª
sÊĮ sËĪudÊ²i
ĠsvÊ²a tËĪy
vÊ²ËĪÉĳ zy
dËĪÉĳ tÊ²sÊ²ÊĮ
ĠÉª rÊ²ËĪina
ĠsÊĮvÊ²ËĪe tÊĮf
ĠÉŃÊ²ix kÊĮ
Ġx ÉŃÊ²ËĪep
ĠÉŃÊ²itÊ²iratËĪu ry
ĠmÊ²ËĪi nus
Ġvy syxËĪÉĳ
ĠpÊ²irÊ²i s
kËĪÉĳ nÊ²ija
ĠnÊ²ikÊĮ vËĪo
ĠprÊ²idÉŃaÉ¡ËĪÉĳ jitsÊĮ
t ny
ĠkËĪur sy
fÊĥy mu
ĠtËĪo nkÊĮ
ĠsÊ²ËĪe j
ĠnÊĮ dÉŃÊ²i
Ġrass ËĪy
ĠbÊ²i ÊĳnÉĽ
ĠdÊ²ËĪevu ÊĥkÊĮj
stup ÉŃÊ²ËĪenÊ²ij
ÉŃÊ²ÊĮ tsÊĮ
f Ê²ÉĽ
ĠprÊ²i kËĪÉĳs
ĠprÊĮfÊ²isÊ²sÊ²iÊĮnËĪÉĳ ÉŃnÊĮj
ĠpÊ²i dÊĮÉ¡ÊĮÉ¡Ê²ËĪi
kËĪo vyx
tÊĥÊ²i nnyx
ĠrÊĮz vÊĮ
ĠprÊĮfÊ²isÊ²sÊ²iÊĮnËĪÉĳ ÉŃnyx
ĠËĮÉĶb ÉĽj
ĠbukmÊ²ËĪekÊ²ir skÊĮja
bÊ²ËĪe s
ĠmËĪo tÊĥÊ²Éª
ĠprÊ²ibÉŃÊ²i ÊĳËĪi
ts vÊ²ËĪe
ĠtËĪo k
ĠÊĮby knÊĮvÊ²ËĪe
ĠvydÊ²i ÉŃÊ²ËĪÉĳjut
ĠkÊ²iÉŃÊĮ mÊ²ËĪetrÊĮf
vÊĮ jtÊ²isÊ²
kÉĶ ÉķtÉķ
ĠÊĴyvËĪo tnyjÉª
u be
ĠsÊ²nÊ²ËĪi Êĳi
ĠbrËĪÉĳ k
ĠÉ¡Ê²irmÊ²i tÊ²ËĪi
ĠÉĶb rËĪÉĶ
ĠpÊĮ stÊĮrËĪo
tÊĮ ru
ËĮÉĽÅĭ É¡ËĪÉĽ
ĠÊĮstËĪÉĳ tÊ²sÊ²ÊĮ
ĠuÉ¡ ÉŃÊĮ
ĠpÊ²irsÊĮnËĪÉĳ ÉŃa
ĠsÊĮxra nÊ²ËĪenÊ²ija
ĠpÊĮs ËĪy
ĠpÉĶ p
tËĪÉĳ ja
7 8
nd ing
É²Ê²ËĪÉĶ nÉĽ
ĠutÊĥÊ²ËĪi tÊ²iÉŃÊ²ÊĮ
Ġx ËĪÉ¨
ĠdÉĶstËĪÉĽmp nÉĽ
z n
rabËĪo tkÊ²Éª
ĠËĮa k
nÊĮ stÊĮËĪja
ĠpÊĮkupËĪÉĳ tÊ²iÉŃ
ĠprÊ²i vÊ²ËĪetst
ĠfÊ²ËĪiÉŃ tr
ĠÉªzmÊ²i rÊ²ËĪenÊ²ija
m pÊĮ
ĠprÊĮvÊ²ËĪer Éª
ĠprÊ²ËĪe mÊ²i
Ġu dËĪa
ËĪÉĳ ÉŃa
ĠdÊĮkumÊ²intËĪÉĳ tsyÉª
ĠnatËĪÉĳÉŃ jja
ĠR a
ĠnÊĮtsyÊĮnËĪÉĳ ÉŃnÊĮvÊĮ
Ġd vÊ²ir
v ËĪat
ĠËĪo s
sÊ²ËĪi t
ĠdrÊ²ËĪe vnÊ²i
ĠÉĶd bËĪÉ¨
ĠkakËĪojÉª tËĪo
Ð Ľ
ĠpÊĮdÊ²dÊ²ËĪerÊĥ kÊ²i
ÊĴÉ¨ w
ĠvypÊĮÉŃ nÊ²ËĪÉĳjut
ĠvÊ²ËĮÉĽ lÉĶ
ji r
ĠarÊ²ËĪen du
É¡ ja
Ġma ÉŃ
ĠdÊĮmËĪÉĳ x
ËĪawu f
ĠpÊĮmÊ²iÉķËĪenÊ²ija x
ĠpÊĮÉŃÊĮÊĴËĪy tÊ²iÉŃnyjÉª
Ġna ÊĴËĪÉĳtÊ²
ĠdÊĮ nÊ²ËĪets
tÊĥÊ²i vÊĮja
vÊ²ËĪi ÉŃsÊ²ÊĮ
ĠvrÊ²i mÊ²ËĪen
ĠmÊ²idÊ²itsËĪy nskÊĮvÊĮ
ĠvnÊ²ËĪeÊĥ nÊ²ivÊĮ
j sÊ²ÊĮ
ĠprÊ²idusmËĪotrÊ²i nÊĮ
ĠÉªntÉĽrnËĪÉĽtmÊĮÉ¡aÊĳËĪi nÊ²i
rËĪu ÊĴÉª
ĠÊĴËĪÉĳ r
ĠvËĮÉ¨ sÉĶ
ĠnÊĮu tÊĥÊ²ËĪi
ĠsÊĮÊĮtvÊ²ËĪetstvu juÉķix
ĠrÊĮznÊĮvÊ²ËĪidnÊĮ sÊ²tÊ²Éª
ĠËĪu mÊ²ir
ĠpÊ²i rËĪo
ĠkÊĮrËĪo pkÊ²Éª
ku w
b rÊ²ÊĮ
ĠsÊĮbËĪÉĳ ka
ĠxÊĮÉŃÊĮdÊ²ËĪiÉŃ nÊ²ik
ĠpartÊ²nÊ²ËĪe rÊĮf
Ġsp ÉĽ
ĠkÊĮÉŃÉŃÊ²ËĪe ktsyÉª
ĠsÊ²ituËĪÉĳ tsyj
ĠkÊĮÉŃÊ²i bËĪÉĳ
ĠpÊĮ kra
ĠsÊĮmÊĮ tÊĥÊ²ËĪuv
nËĪÉĳ dtsÊĮ
ĠprÊ²iÉ¡ÊĮtÊĮ vÉŃÊ²ËĪenÊ²ijÉª
ĠsÊ²i É¡nÊĮ
ĠnatÊĥÊ² nÊ²ËĪet
ĠL e
ĠftÊĮ rËĪuju
ĠvyxÊĮd nËĪyjÉª
rÊ²i na
ĠËĮÉĽndËĮÉĽ ËĪÉĽs
mÊ²ËĮ jakÊ²Éª
Ġa v
ĠÉŃÊ²ËĪestÊ² nÊ²itsy
rËĪÉĳ t
ĠÊĮÉ¡ nÊ²i
ĠÊĮpsÉŃÊ²ËĪedÊĮvÊĮ nÊ²ijÉª
ĠÊĴy rÊĮ
ĠprÊ²i z
Ġvy zyvËĪÉĳtÊ²
st vËĪu
rm ÉŃÊ²i
ĠzÊĮ stavÉŃÊ²ËĪÉĳ
ĠkrÊĮsnÊĮ dËĪÉĳr
st vÊ²ËĪe
ĠT ele
Ġska ndËĪÉĳ
ĠpËĪoÉŃzÊĮvÊĮ nÊ²ija
Ġv nÊ²ËĪeÊĥnÊĮ
ĠbÊ²ËĪe ÉŃka
ĠdÊĮrËĪo k
ĠsÊ²tÊ²i kÉŃÊĮ
tÊ²ËĪi rÊĮvÊĮtÊ²
ĠA c
ĠmÊĮÉ¡aÊĳËĪi ny
n kËĪof
ĠM e
ĠtËĮÉĽ kËĪÉĳ
ĠvÊĮzmËĪo ÊĴna
201 2
ĠpÊĮÉŃÊĮvÊ²ËĪi nÊ²i
ÉĶvËĪa nÉ¨m
ĠprÉĶ bl
tÊ² nÊ²ijÉª
Ġu ÊĳËĪÉª
jm É²Ê²ÉĽj
ĠpÊ²ËĪÉĽrÊĥ ÉĽ
ĠmËĪo sk
Ġu xËĪodu
Ġsp ÉŃÊĮ
ĠdËĪÉĶ m
ĠdÊ²ËĪe tstva
ntÊ²ËĪi n
ĠÉŃÊ²ikËĪÉĳr stf
ËĪi s
ĠËĪÉĳ j
vËĪa nÉ¨
ĠzÊĮÉķi ÉķËĪÉĳjit
ĠdÉĶ tËĪÉ¨
ĠÊĥ tÊĥËĮÉĽ
tËĪÉ¨tÊĥ nÉĽ
Ġa zËĪo
ĠzarpÉŃËĪÉĳ ty
sËĪo fÊ²i
ĠrÉĶ s
ĠÊĮfÊ²itsy ËĪÉĳÉŃnÊĮvÊĮ
na tÉķ
ÊĴËĪÉĽ nnyjÉª
ÊĳËĪi rujitsÊĮ
ĠprÊĮdËĪÉĳ ÊĴu
ĠdËĪo skÊ²Éª
Ġza ÉŃÊ²ËĪitÊ²
ĠsËĪobstvÊ²i nnÊĮstÊ²
z vÊ²ËĪe
r skÊ²ijÉª
ĠvÊĮzmËĪoÊĴnÊĮ stÊ²jju
ĠsÉŃËĪo ÊĴnyjÉª
za tÉķ
ĠfundËĪÉĳ mÊ²inta
É¡ÊĮ tsËĪÉĽ
ru jitÊ²i
ĠmÊĮbÊ²ËĪi ÉŃnÊĮvÊĮ
mÊ²i tra
Ġts ËĮawk
ĠrÉĶzvËĪÉĶ ju
ĠprÊĮ my
ĠÊĮ ÉŃÊ²ËĪek
ĠbÊ²i ÉŃÊ²ËĪet
Ġza vËĪoda
nnÊ²i kÊĮmÊ²Éª
ĠtrÊĮns fÊĮrmËĪÉĳ
ĠzÊĮbÊĮÉŃÊ²ivËĪÉĳnÊ²ija x
ĠÊĮbÊ²ËĪÉĳzÊĮ ny
ĠzadËĪÉĳ tÊĥÊ²ij
ĠprÊĮ dËĪoÉŃ
j dÊ²ËĪitÊ²i
vnÊĮ mu
ĠvËĪystu pÊ²i
skÊĮ xÊĮÊĳËĪÉĳjstvÊ²i
ĠvÊĮz nÊĮ
vÊ²i ÉŃÊĮsÊ²
ĠkËĪÉĳmÊ²i ru
ĠrÊĮsskazËĪÉĳ ÉŃÊ²Éª
stnÊĮ stÊ²
Ġtsy vÊ²i
ĠsÊĮr tËĪof
ĠÊĮpÉŃËĪÉĳ tÊ²i
ks Ê²Éª
ĠvËĮÉ¨ p
ĠupÊĮtrÊ²i bÉŃÊ²ËĪe
ĠpÊĮdrËĪobnÊĮ sÊ²tÊ²Éª
ĠzËĪo nu
ĠrÊĮbÊĮtÊĮ dËĪÉĳtÊ²iÉŃ
vÊĮ Êĳ
ĠprÊĮvÊ²ËĪer ku
ĠsÊ²imp tÊĮ
M S
z ÉŃËĪo
ĠpÊĮ strÊĮjËĪe
ĠsvÊ²idÊ²ËĪetÊ²iÉŃ stvujit
Ġta rÊ²ËĪe
ÊĳËĪi ÉŃ
ĠÉ²Ê²ÉĽ stËĪÉĽtÉ¨
ĠpÊĥËĮÉĽtÉķÉĽm bjËĪÉĶr
ĠudÊĮvÉŃÊ²i tvÊĮrÊ²ËĪi
tÊ²ËĪi ÉŃa
Ê²adËĪÉĶ mÉĶ
ĠprËĪo vÊĮÉŃÊĮ
ĠÉĽkrËĪÉĳ nÊ²i
Ġtsy rÊ²imËĪo
ĠprÊ²ËĪi stu
ĠÉķËĪÉĽ tÉķi
ĠstËĮa n
ĠÉªtËĪÉĳ ÉŃÊ²iÉª
ĠsËĪy r
rt ËĪÉĶÉķtÉķi
ĠpÊĮd rÊ²ËĪÉĳ
ĠjËĮÉĽdnÉĶ tÊĥËĪÉĽÉķÉ²Ê²ÉĽ
Ê²a k
ĠdÉŃÊ²ËĪi tÊ²iÉŃnÊĮvÊĮ
ĠrÊ²i sÊ²nÊ²ËĪi
ĠvÉ¨ wËĪÉĶ
ĠdÊ²isÊ²ÊĮ tÊ²iÉŃÊ²ËĪe
ĠprÊĮdËĪu mÊĮ
ĠpËĮÉĶ vÊ²ÉĽ
ĠkÊĮntËĪo ry
ĠsmËĪotrÊ²i tsÊĮ
fÊ²i ÉŃ
ĠuÉ¡ÊĮÉŃËĪo vnÊĮjÉª
ĠtsvÊ²i tËĪok
rËĪÉĳ tsyja
f kÊĮx
ĠÊĮ ÉŃÊ²ËĪif
Ġfsp ËĪy
ĠsÊ²ËĪi sÊ²
ĠÊĮpstÊĮËĪja tÊ²iÉŃstf
ĠkÊĮmÊ²ËĪi sÊ²sÊ²ija
ËĮÉ¨ va
ĠÊĴËĪy tÊ²iÉŃ
ĠprÊĮtÊ²ivÊĮ stÊĮËĪja
ĠnadÊ²ËĪe ÊĴnÊĮ
ĠzbËĪor nÊĮj
ĠrajËĪo nÊĮx
ĠprÊ²ikrËĪÉĳ snyj
ĠnËĪo s
ĠvËĪyiÉ¡ry Êĥ
ĠsÊĮntÊ²i mÊ²ËĪetrÊĮf
ĠÊĮtÉŃÊ²i tÊĥÊ²ËĪÉĳ
Ġu strËĪo
Êĥu t
ĠzÊĮ bÉŃÊĮkÊ²ËĪi
Ġtsy mÊ²ËĪent
ĠdÊĮstËĪÉĳ fkÊĮj
Ġtsy rku
fÊ²i r
Ġva É¡ËĪo
Ġ0 2
ĠsvÊĮji vrÊ²ËĪemÊ²i
n ËĮÉĶ
ĠkÊĮÉĽffÊ²itsyjËĪe nt
tsyËĪo nnÊĮja
ĠkÊ²ip Ê²at
ĠsËĪÉĳ du
ĠvnÊ²ËĪeÊĥ nÊ²ix
ĠkÊĮndÊ²in sËĪÉĳ
ĠprÊ²ËĪiznÊĮ kÊĮm
ĠskËĪÉĳzÊĮ nÊĮ
ĠËĮÉĽwrÉĶ pËĪÉĽj
ĠlÉĶ k
ĠknËĪo pkÊ²Éª
st ku
É¡ÊĮ rËĪo
ĠpÊĥËĪÉ¨ kwat
ĠÉ²Ê²ËĮÉĽ ÉĶ
rÊ²ËĪi ny
ËĪÉ¨ vatÉķ
Ġt vËĪoj
ĠzÊĮvÊ²irÊĥ ËĪÉĳ
ĠkËĪÉĳm nÊ²Éª
Ġf spÊĮ
ĠËĮin sta
ĠpÉĶ lËĪi
ĠÉŃÊ²ËĪi tÊĥÊ²nyx
Ġku l
ĠÉ¡ÊĮrantÊ²ËĪi rujit
ĠprÊ²itÊ²sÊ²i dËĪÉĳtÊ²iÉŃÊ²ÊĮ
bËĪo mu
ĠÊĮbÊ²azËĪÉĳ tÊ²iÉŃstva
ĠprËĪÉĶ dukt
ĠsËĪozdÊĮ n
ĠÊĴy ÉŃËĪovÊĮ
nËĪo stÊ²
Ġ20 23
nÊ²ÊĮ ÉŃÊ²Éª
ĠtÊ²iÉŃÊ²ifËĪo nÊĮf
na w
ĠÊĥËĪÉĳ nsy
Ġpr o
ĠprÊ²i bÊ²i
ĠbÊ²iÊĳdÊ²i pËĪoÊĳi
ĠpytËĪÉĳ jutsÊĮ
ĠstËĪÉĳ rÊĮvÊĮ
fËĪo n
ĠÉªsprËĪÉĳ vÊ²itÊ²
ĠbÊ²ËĪiÊĳnÉĽ sp
É¡ÊĮ rÊ²ËĪi
tÊ²ËĪi ÉŃÊĮ
ĠftÊĮ rËĪy
6 3
ĠssËĪy ÉŃku
Ġsu pÊ²ir
ĠËĪÉª ndÊ²i
Ġna ÊĥËĪÉĽÉŃ
ĠsrËĪÉĳ vnÊ²i
ĠnÊ²iprËĪÉĳvÊ²i ÉŃnÊĮ
ĠvÊĮÊĳ dÊ²ËĪej
r n
ĠÊĮtÉŃÊ²ËĪi tÊĥÊ²nym
ĠÊĮsvÊ²i ÉķËĪenÊ²ijÉª
vÊĮ n
ÉŃÊ²ËĪi rÊĮvÊĮtÊ²
ĠsËĪu Éķ
ĠrËĪoÉŃÊ²i kÊ²Éª
Êĥu ki
ĠËĪju rÊ²ij
ĠA l
ĠÉªtËĪo É¡Ê²Éª
ĠpÊĮÉŃËĪutÊĥÊ²i nnyjÉª
ĠrÊĮbÊĮtÊĮ dËĪÉĳtÊ²iÉŃÊ²ÊĮ
ĠkÉĶ n
ĠtÊĥÊ²ËĪÉĳ ja
bÊĮ pËĪy
Ġru bËĪÉĳ
sty mÊ²Éª
vËĪa jÉĶ
ĠpÉĶl ËĪitÉ¨
ĠdÊ²i stÊĮn
ĠÊĮbnarËĪuÊĴy ÉŃÊ²Éª
ĠsÊĮÊĮpÉķËĪi ÉŃa
ĠjÉĽdËĪÉ¨ É²Ê²ÉĽ
ĠpÊĮd ska
n kËĪÉĳ
dÊ²ËĪeÉŃ kÊ²Éª
ĠprÊĮdÊĮÉŃÊĴËĪÉĳ jitsÊĮ
ma l
pËĮÉĽ ËĪÉĽs
ĠxÊĮtÊ²ËĪe ÉŃa
É¹ËĪÉĶ tsÉĽnt
ĠsprËĪÉĳ fkÊ²Éª
ĠÉ¡ÊĮsÊ²tÊ²ËĪi nÊĮj
ĠxÊĮk kÊ²ËĪe
ĠrËĪÉĳ k
ec raft
ĠsÊĮ pËĪu
ĠdÊĳËĪÉĽ tska
ĠprÊ²i ÉŃaÉ¡ËĪÉĳ
ĠkËĪu bÊ²i
ĠvÊĮz rÊĮ
Ġp É¹ËĪÉĶtsÉĽnt
st rÉĶ
ts kÊ²ix
6 2
ĠpËĪotÊĥÊ² tÊ²i
ÊĴËĪÉ¨ statÉķ
ĠpËĪÉĽ vnÉĶ
ĠrÊĮs ÉķitËĪÉĳtÊ²
ĠtrËĪÉĳnspÊĮrt nyx
ĠsÊ²iÉŃ skÊĮxÊĮÊĳËĪÉĳjstvÊ²i
ËĮÉĽ stËĪÉĽ
ĠrËĪÉĳz nÊĮvÊĮ
ĠR u
ĠkÊĮÉŃÊ²ËĪe sa
ĠjÉªvÉ¡Ê²ËĪe nÊ²ij
ĠtÊ²aÊĴËĪÉĽ ÉŃyx
ĠÉŃÊ²i É¡Ê²ËĪe
ĠnasÉŃÊ²ËĪe dnÊ²i
ja n
ĠfÊ²isÊ²tÊ²i vËĪÉĳ
ĠprÊĮstrËĪÉĳn stvÊ²i
ĠzÊĮvÊ²irÊĥËĪÉĽ nÊ²ija
ĠpËĪy ÉŃÊ²Éª
ĠÊĴ vÊ²ijtsËĪÉĳ
Ġsna rËĪuÊĴÉª
ĠspÉĶ rt
f kËĪÉĳ
ĠuvÊ²iÉŃÊ²ËĪitÊĥÊ²i vÊĮjit
ĠvÊ²izu ËĪÉĳÉŃnÊĮ
ĠÉŃÊ²ËĪi nÊ²ij
ĠÊĮbjjasÊ² nÊ²ËĪitÊ²
ĠtÊ²ikËĪu Éķij
ĠdÊ²i sÊ²a
ĠÊĮpu skËĪÉĳ
ĠÉ²Ê²ÉĽ vÊ²ËĪÉĽ
ĠËĪju nÊĮ
ĠaftÊĮ rÊ²i
ĠtrËĪÉĳ tÊ²itÊ²
Ġ4 7
ĠbÊĮta rÊ²ËĪeÉª
ĠpÊĮpËĪy tkÊ²Éª
fÊĥuju sÊ²ÊĮ
sÊĮ vËĪoj
a nd
R A
r mu
Ġta j
ĠpÊĮpa dËĪÉĳjit
ĠmÊĮ z
ĠxvËĪÉĳ tÊ²it
ĠtsËĪyf ry
ĠÉĽnÊ²ËĪerÉ¡Ê²i ju
Ġtru bÊĮ
kÊ²i pËĪÉĳ
i p
ĠpÉĶtÊĥËĪÉĶ ntku
ĠmÊĮ tÊ²ËĪi
ĠÊĮtkrËĪy tÊĮm
ĠprÊĮ sÉŃËĪu
nÊĴ ËĪÉĽ
ĠÉŃÊ²ËĪex kÊ²ijÉª
ĠËĮinvÉĽ stËĪÉ¨
ĠbrËĪa k
ĠÉĽkspÊ²ËĪer t
Ġa rm
a k
ĠprÊĮÉ¡rÊ²i sÊ²sÊ²ËĪi
ĠaktÊ²i vÊ²i
ĠvÊĮzvrËĪÉĳ ta
w É¨m
Ġk fËĪÉĶ
bÊ²ËĪi ÉŃÊ²Éª
ĠmÊ²ËĪeÉŃ kÊ²ix
ĠvËĮÉ¨kÉĶ ÊĴÉ¨stËĪa
Ð½Ñĭ Ð¹
kÊĮ É¡dËĪÉĳ
ĠpËĪot pÊ²isÊ²
ĠÉ¡ÊĮtËĪo vyj
ĠËĪju ÊĴnÊĮj
zËĪÉ¨ ka
ĠsÊĮÉ¡ÉŃËĪÉĳ sÊ²ija
ĠÊĮrÉ¡ËĪÉĳ nÊĮmÊ²Éª
ĠdÊ²ËĪevÊĮ tÊĥÊ²ik
ĠrÊĮsprÊĮstra nÊ²ËĪenÊ²ijÉª
ĠstËĪÉĶ p
ĠrÊĮzvÊ²i vËĪÉĳtÊ²sÊ²ÊĮ
ĠÊĴ ÉĶ
ĠpÊĮkËĪÉĳzÊĮ nÊĮ
ĠprÊĮfÊ²iÉŃËĪÉĳktÊ²i ka
ĠvÊ²iÉŃÊ²ikÊĮbrÊ²itËĪÉĳ nÊ²iÉª
ĠstranÊ²ËĪi ts
ĠvÉ¨ mËĪaÉ¡a
rÊ²i ks
Ġm ËĪat
ĠvÉ¨ É¡lËĪÉĶnda
sÊ²tÊ²i tu
ĠÉª nËĪovÊĮ
ĠzavÊ²ËĪÉĽ ra
ĠtrÊĮdÊ²itsyËĪo nnÊĮ
Ġz vÉ¨
nÊ²i tsu
ĠmÊ²ËĪe dÉŃÊ²i
ĠmÊ²ËĪi mÊĮ
ĠpÊĮÉŃÊĮvÊ²ËĪi nu
mÊ²ËĪi nÊ²iji
ĠÊĴur nËĪÉĳÉŃ
Ġb lËĪÉĶ
ÊĴ ÉĽm
rËĪof kÊĮj
ĠvÊ²itamÊ²ËĪi n
ĠI II
z bÊ²i
ĠËĪÉĳftÊĮ ry
ĠprÊĮ xÊĮÊĴdÊ²ËĪenÊ²ija
ĠÉŃËĪutÊĥy vÊĮ
ĠÊĴËĪÉĽ tÊĥÉ¨
bjËĪÉĽ ra
ĠÉªnfÊ²ËĪe ktsyja
ĠlËĪÉĽ pÊ²ÉĽj
da É²
ĠtakËĪo mu
ĠsvÊ²ir x
ĠrÊ²i m
ĠvËĪo sÊ²imÊ²
ĠpÉĶ É²ËĪi
ĠtÊ²ËĪÉĳÊĴy sÊ²tÊ²Éª
Ġry bÊĮ
ĠpÉŃÊĮ xËĪoj
ĠÊĮÉŃÊ²i mÊ²pÊ²ËĪi
ĠzavÊ²ËĪi sÊ²ÊĮt
ĠÊĳdÊ²ËĪeÉŃÊĮ nÊĮ
ĠsrËĪo kÊĮm
ĠnËĪovÊĮ mu
ĠsxËĪe mu
ĠËĪu ÊĴÊĮ
ĠmÊĮbÊ²ËĪi ÉŃnyx
ĠnÊ²if tÊ²i
Ġup rËĪu
ĠpÊĮd rÊ²ËĪÉĳt
ĠvÊĮzÊĮ bnÊĮ
Ġa ÊĳËĪi
ĠrasskËĪÉĳ ÊĴym
nt rËĪo
ĠÉ¡Ê²i rËĪoj
t ÉĻ
tÊ²i xnÊĮ
ktÊ²ËĪiv nÊĮj
ĠrÊĮzÉ¡ÊĮ vËĪÉĳrÊ²i
ĠÊĮprÊ²idÊ²iÉŃÊ²ËĪi tÊ²sÊ²ÊĮ
vÊ²ËĪe nÊ²ija
ĠnÊ²i dÊ²i
xÊĮ ÉŃa
ĠprÊ²ijËĪe mÊ²i
ĠkÊĮn vÊ²ËĪe
ĠzamÊ²ËĪe tÊ²iÉŃ
ĠpÊĮdtvÊ²irÊĴ dÊ²ËĪenÊ²ija
kËĪÉĶ m
Ê²ËĪ on
ĠuÉķËĪer p
ĠpÊĮrtËĪÉĳ ÉŃÊ²i
i an
ĠlÉĽ kËĪa
Ġva sÊ²ËĪi
ĠkÉŃasÊ²sÊ²ËĪi tÊĥÊ²iskÊ²ij
Ġsu dËĪom
ĠpËĪoÉŃzÊĮvÊĮ tÊ²iÉŃÊ²ÊĮm
ĠÉŃÊ²i tËĪÉĳ
Ġvy ÊĴy
ĠvÊ²ËĪi tsy
5 4
ĠpÊĮda vËĪÉĳtÊ²
tÉĻ tÊĥÊ²Éª
ĠpËĪotÊĥÊ² tu
Ġza kÉŃËĪÉĳ
ĠÉķ ËĪu
tÊ²ËĪe k
ĠnÊ²idËĪo rÊĮvÊĮ
ĠpÊ²i sËĪok
ĠpËĪodÊĴÊ² vu
ĠbÊ²iÉŃ jjËĪe
ĠËĪÉª skrÊ²i
ĠÉªmÊ² pÊ²ËĪe
tsËĪÉĽ É²Ê²a
ĠnÊĮ stupËĪÉĳjit
ĠprÊ²idÉŃÊĮ ÊĴËĪyÉŃ
rËĪovÊĮ nnyj
ĠpÊĥËĮÉĽ zna
ĠdÊ²iskÊĮm fËĪort
Ġtr Ê²ËĪÉµx
tÊ²irÊ²i nËĪÉĳ
ĠzËĮa mu
ĠsvÊ²idÊ²ËĪe nÊ²ij
ĠÉŃÊ²ËĪe vÊĮj
ĠÊĮkËĪÉĳzy vÊĮjut
ĠvÊ²ËĪidÊ²i ÉŃÊ²Éª
ĠvÊ²i tÊ²irÊ²inËĪÉĳ
ĠËĪÉª Éķu
ĠtËĪÉĽ k
ntÊ²ËĪi na
Ġu kÉŃËĪÉĳtkÊ²Éª
mÊ²ËĪi t
ĠmËĪo dy
ĠpÊĮk rËĪo
kÊĮ ÊĳinËĪo
ĠvËĪy nÊ²i
ĠÊĳ ËĪÉĽm
ĠÊĥtËĪu k
ĠnÊ²i rÊ²i
ĠÉ¡Ê²i pÊ²i
ĠfÊ²ËĪiÉŃ mÊĮf
ĠukËĪÉĳzÊĮ nÊĮ
ĠvÊ²ËĪi ÊĴu
ĠrabËĪotÊ²nÊ²i kÊ²Éª
ĠÊĮprÊ²idÊ²iÉŃÊ²ËĪe nnÊĮvÊĮ
ĠkvÊĮÉŃÊ²i fÊ²ikËĪÉĳtsyÉª
ĠkËĮÉĶn su
Ġpy ÉŃÊ²i
ĠtrÊ²ËĪetÊ² jjivÊĮ
ĠkÊĮnkrÊ²ËĪe tnÊĮvÊĮ
ĠËĪop Éķuju
ĠtsÉĶ dÊĳËĪÉĽ
ĠbËĮÉĽ spÉĶ
ĠÊĮtmÊ²ËĪe tÊ²im
ĠkÊĮrÊĮnËĪÉĳ vÊ²i
dËĪÉĽ ÉĶ
z du
ĠpÊĮza bËĪo
tÊ² jjËĪe
ĠrÊ²ËĪi skÊ²Éª
Ġtr fËĪa
ĠpÊĮssaÊĴËĪy rÊĮf
ĠzËĪÉĳ dÊĮ
ĠÉ¡arËĪÉĳntÊ²i Éª
Ġt rÉĽ
mp i
ĠÊĮbÊ²ËĪe ix
E N
ĠËĮÉĽspËĮÉĽ bËĪÉĽ
ĠaÉŃÉŃÊ²irÉ¡Ê²ËĪi Éª
rËĪovÊĮ nnyx
ĠpÊ²irÊ²ËĪed nÊ²ij
ĠpÊĮtpÊ²ËĪi sy
ĠkÉĶ lËĪÉĶ
ĠsÊĮtrËĪudnÊ²i kÊĮm
ĠprËĪÉĳzdnÊ²i ka
ts ËĪÉ¨
ĠprÊ²i nËĪosÊ²it
rÊ²ËĪe m
ÉŃa nsÊ²ËĪi
ĠvyrËĪÉĳ vnÊ²i
ĠnÊĮ É¡ËĪÉĳx
ĠpÉĶ zËĪÉ¨
ĠzËĮa vÊ²ÉĽ
ĠpÊ²irÊ²i sta
ĠkÉŃÊ²ËĪi k
ĠÊĮtÊĮ pÊ²ËĪi
pu f
ĠpËĪuÊĳ É²Ê²ÉĽj
ĠÊĴËĪÉĽ tÊĥ
ĠdÉĶ dËĪat
ĠjapËĪo nÊ²iÉª
ĠprÊ²i mËĪÉĳ
Ġv ËĪar
Ġa ÊĳiËĪÉĳ
ĠfstrÊ²ËĪe tÊĥÊ²i
ĠÐ ļ
z my
ĠÉªmÊ²ËĪe juÉķix
ĠvÊĮspËĪoÉŃ zu
ĠmÊ²ÉĽ ÉķËĪÉĶ
ĠmÊ²ËĪe stnÊĮsÊ²tÊ²Éª
ĠsËĪÉĳnktpÊ²itÊ²irbËĪu rÉ¡Ê²i
ĠdÊ²irÊ²ivÊ²ËĪÉĳ nnyjÉª
ĠusÉŃËĪovÊ²ija m
ĠmnÊĮÉ¡ÊĮtÊĥÊ²ËĪisÉŃÊ²i nnyjÉª
k ry
ĠnÊ²ËĪe tÊĥÊ²tÊĮ
ĠpÊĮ jdÊ²ËĪet
ĠzËĮa kÉĶÉ²
Ġd nËĪo
r prÊ²ËĪi
ĠstudÊ²ËĪe nty
Ġma sÊ²tÊ²ËĪer
Ġmaj nkrËĪÉĳ
ĠnÊĮ É¡ra
ĠmÊĮÉ¡ÉŃ ËĮo
ĠÊĥkËĪÉĳ f
ĠvÊ²i ÉķËĪÉĳ
Ġ0 5
ĠkrÊ²i stÊ²jËĪja
Ġtsy nÊĮ
ĠsÊ²ËĪi ÉŃÊĮmÊ²Éª
ĠpÊĮd skËĪÉĳ
ĠrËĪus skÊĮjÉª
ji vÊ²itÊĥÊ²
ĠÊĮsuÉķist vÊ²ËĪitÊ²
f tsÉĽ
ĠzÊĮÉŃÊĮ tËĪy
ĠvÊ²ËĪe k
ĠÉª dÊ²ËĪÉµt
tu re
ĠsËĪÉĳ da
Ġza kËĪÉĳzÊĮ
Ġfud bËĪo
ĠÊĳdÊ²ËĪeÉŃÊĮ k
ĠprÊĮ spÊ²ËĪe
Ġz É¡
ĠtÊ²iÉŃÊ²i vÊ²ËĪidÊ²i
mjËĪÉĽ É²Ê²a
krËĪÉĳ tkÉĶjÉª
Ġ0 6
ÉŃ ÉŃa
Ġsp rÊ²ËĪÉĳ
Ġv vÊ²idÊ²ËĪenÊ²ija
ĠnÊ²ibÊĮÉŃÊĥËĪy m
ĠkrÊ²idÊ²i tËĪo
ĠsËĪu p
ĠvÊĮrËĪo ta
mÊ²i Ê
mÊ²iÊ Į
ĠprÊĮdaf tsËĪÉĳ
ĠpËĪu Åĭk
É¡ rËĪo
ĠkËĪur sÊ²i
ĠzbËĪÉ¨ t
rabËĪotÊĮ tÊ²
Ġza dÊ²ËĪej
jimy mÊ²Éª
ĠpËĪy ÉŃ
ĠÉªntÊ²ÉĽrÊ²ËĪes nyj
v ÉŃËĪÉĳ
ĠbrËĪÉĳu Êĳir
nÊĮ vÊ²i
ĠrÊĮvnÊĮ mÊ²ËĪernÊĮ
ĠpÊ²ÉĽ É²Ê²ËĪÉĶ
ĠzËĮapra ÊĥËĪamÉ¨
ÊĴÉĶ nt
ËĪo k
ĠtvËĪor tÊĥÊ²istva
tÊ²ËĪi tÊĥÊ²iskÊ²Éª
ĠkÊĮnfÉŃÊ²ËĪi kt
ĠprËĪÉĳvÊ²i ÉŃnÊĮvÊĮ
ÊĥËĪÉĳ jtÊ²i
ĠzÊĮby vËĪÉĳjtÊ²i
ĠbÉĽ É²
ĠzadËĪu my
ĠtÊĮÉŃÉķi nËĪÉĳ
ĠvÊ²ËĪer nÊĮ
ĠstrÊ²i mÊ²ËĪÉĳ
ĠxËĪo ÉŃÊĮ
ĠÊĮÉ¡ nÊ²ËĪÉĳ
ĠdyxËĪÉĳ nÊ²ijÉª
ĠupraÊĴ nÊ²ËĪenÊ²ijÉª
r om
ĠsËĪu pÊ²ir
ĠMicro soft
ĠtÊ²iËĪÉĳ tra
vÊ²a tÉķ
tÉķËĪÉĽ li
ÉŃ p
ĠpÊĮstËĪÉĳ fkÊ²Éª
ĠÉªnstru mÊ²ËĪenta
ĠjÉªdÊ²ËĪinstvÊ²i nnym
Ġ9 5
ĠbrÊ²i É¡ËĪÉĳ
ru juÉķij
kËĪo vyjÉª
ĠfsÊ²i rÊĮsÊ²sÊ²ËĪi
ĠpÊ²irÊ²idËĪÉĳ tÊĥÊ²
ĠnÊ²ikÊĮ mËĪu
tÊĥÊ² kËĪof
Ġ ÉŃÊ²ËĪÉĳ
ĠpÊĮkupËĪÉĳ tÊ²iÉŃÊ²ÊĮ
ĠtÊĮ tÊĥÊ²nÊ²ËĪejÉª
Éķ la
ĠkrÊĮ tkÊĮ
ĠaftÊĮmÊĮbÊ²ËĪi ÉŃÊ²i
ĠfËĪÉĳ ktÊĮr
ĠmËĪi mÉĶ
ĠvÉŃËĪÉĳ ÊĴnÊĮsÊ²tÊ²Éª
ĠÊĮn ÉŃËĪa
du jit
ĠÉªstËĪotÊĥÊ² nÊ²ika
tÊĥÊ² kÊĮf
ĠËĮÉĽm kËĮÉĳ
v nËĪÉĶÉķtÉķi
ĠpÊĮnÊ²imËĪÉĳ nÊ²ijÉª
ĠtËĪur tsyÉª
ĠkÉŃu bnÊ²ËĪi
ĠdÊĮÉ¡ÊĮ vÊĮrÊ²ËĪi
ĠmÊ²ËĪenÊĥy j
ĠrÊ²ispËĪubÉŃÊ²i kÊ²i
dÊ²ËĪi Ê
dÊ²ËĪiÊ Į
ĠpÊĮkazËĪÉĳ ÉŃ
ĠnjËĪju jËĪor
ĠsËĪam É¨m
nÊ²ËĪe n
ĠnÊ²ij trËĪÉĳ
ĠdÉŃÊ²ËĪi tsÊĮ
Ġsta tÊ²ËĪej
ĠvÉ¨ stËĪar
ĠnËĮÉĶvÉĶ tÊĥËĪÉĽs
ĠpÉŃËĪoÉķÊĮ dÊ²jju
ĠÉªzvÊ²ËĪest nyjÉª
ĠtrÊ²i na
ĠkÉĶ mp
ĠkËĪoÉŃ ÉŃÊ²i
Ġ6 4
vËĪo rÊĮ
ĠdÊ²i pÉŃÊĮ
ĠbËĪudu tÊĥÊ²Éª
Ġar É¡u
ĠvnÊ²ËĪeÊĥ nÊ²im
ĠlËĪu dÊĳÉĽ
ĠsÊ²i ËĪja
ĠvÊĮznÊĮ É¡ra
Ġts u
ow er
ĠsÊ²ËĪim vÊĮÉŃ
ĠpËĮÉĽvËĮÉĽ xËĪÉĳ
x bet
ĠrÊ²i v
sÉŃÊ²ËĪe t
ĠtËĮÉĶva ÊĴËĪÉ¨
ĠËĪÉĳ kta
tÊĥËĪÉĽÉ² ÉķtÉķ
ĠdËĪu x
ĠsÉŃËĪo vÊĮm
ĠanËĪÉĳ ÉŃ
ËĪÉ¨tÊĥ nÉ¨
ĠrÊ²iËĪÉĳÉŃnÊĮ sÊ²tÊ²Éª
ĠrÊĮsprÊĮstra nÊ²ËĪÉĳjitsÊĮ
ĠvnÊ²ËĪeÊĥ nÊ²ijÉª
bÊ²ËĪe k
ĠkÊĮmËĪÉĳ ndÊ²i
ĠvÊĮ ÊĮbra
ĠsËĪu dÊ²ÊĮ
É ²ËĮiz
ĠÉĽÉ¡ zÊĮ
ĠdrÊĮ É¡ÊĮtsËĪÉĽ
ĠtÊĥÊ²imÊ²pÊ²iÊĮnËĪÉĳ ta
É² Ê²ËĪu
Ġ7 00
ĠprÊĮfÊ²ËĪe sÊ²sÊ²iÉª
ĠpÊĮjavÊ²ËĪi tÊ²sÊ²ÊĮ
Åĭk Ê²ÉĽm
ĠpÊ²irÊ²i xËĪoda
ĠlËĪa tax
ĠpÊ²i skËĪÉĳ
ĠÊĮp ÉķËĪÉĳtÊ²sÊ²ÊĮ
ĠÊĮbÊ²ËĪÉĳzÊĮ nnÊĮsÊ²tÊ²ij
ĠrastËĪu t
Åĭk ÉĽ
ĠfËĪil m
ĠpÊĮdËĪumÊĮ tÊ²
w ËĮu
ĠpËĪÉĶ zna
ĠkruÉ¡ÉŃÊĮsËĪu tÊĮtÊĥÊ²nÊĮ
ËĪal nÉ¨m
Êĥy na
ĠÉŃÊ²ËĪetÊ² nÊ²ij
ĠÉŃËĪu kÊĮvÊ²i
ĠÊĳdÊ²ËĪeÉŃÊĮ ÉŃa
ĠvËĪydÊĮ tÊĥÊ²Éª
nd ÉĽm
ĠprÊ²imÊ²ËĪe rÊ²i
z ba
ĠzabËĪu dÊ²tÊ²i
ĠkËĮatÉĽ É¡ËĪÉĶr
ĠtÊĮÉŃÉķi nËĪoj
ĠpÊĮsÊ²i ÉķËĪenÊ²ija
pr ÉĶvËĪa
ĠÉªz nu
ĠS ta
ĠdÊ²i fÊĮrmËĪÉĳ
ĠkÊ²i fÊ²ËĪi
ĠdwËĪu É¡ÉĶ
pÊĮ ÉŃÊ²ËĪi
vÊ²idÊ²ËĪe n
ĠfËĮuÅĭk tsjÉĶ
ĠpÊĮmÊ²i nÊ²ËĪÉĳtÊ²
rËĪÉĳ tÊ²
ĠspÊ²ËĪi ska
ĠÉªntÊ²i É¡rËĪÉĳ
ĠstakËĪÉĳ na
ĠÉŃÊĮ mÊ²inËĪÉĳ
É¡ËĪo rÊĮ
ĠkÉĶnt rËĪÉĶ
ĠsudÊ²ËĪeb nÊĮvÊĮ
lu e
ĠtrËĪÉĶ xÉĽ
ĠÊĮd dËĪÉĳtÊ²
ĠsÊĮbËĪy tÊ²ijÉª
Ġada ptÊ²ËĪi
ĠsÊĮzdËĪÉĳ nÊ²iju
ĠrÊĮskËĪo Êĥ
ĠÉŃËĪÉĳ mpy
ĠkÊĮmÊ²pjËĪju tÊ²ÉĽrÊ²i
h er
Ġdu ÊĥËĪÉĽ
j tÉķÉĽ
ĠkÊĮÉŃ tsËĪo
ĠÊĳimÊ²ËĪe ÉŃnÊĮvÊĮ
ĠÉŃÊ²ËĪiÊĥ nÊ²ij
e ch
tÊ²i ÉŃÊ²in
ĠÊĮtpra vÉŃÊ²ËĪÉĳ
ĠvÊĮzbu dÊ²ËĪi
ĠstrËĪo itÊ²
ĠistÉ²Ê²ËĪÉĽ jÉĽ
ĠpÊĮ É¡ÉŃÊĮ
ĠputÊ²iÊĥËĪÉĽ stvÊ²ijÉª
ĠpartÊ²nÊ²ËĪe ra
ĠÉŃÊ²itsËĪÉĽnÊĳi Éª
ĠÉ¡ÊĮsudËĪÉĳr stf
ĠbrÊ²ËĪe nt
na tËĪo
ĠpËĪÉĳ pa
ĠsÊĮjidÊ²i nÊ²ËĪenÊ²ijÉª
ĠpÊĮzvËĪoÉŃÊ²i tÊ²
ĠsÊĮ ÉŃÊ²ËĪi
Ġf rËĪa
tËĪu ru
ĠËĮÉĽ du
ĠbËĮÉĽspÉĶ Éķ
ĠpËĪom nÊ²u
ĠÊĮkËĪÉĳ ÊĴytsÊĮ
a j
Ð»ÐµÑĤ Ð¸
ĠS u
E S
ĠbÊ²ËĪe ÊĴy
ĠnaÉŃÊ²ËĪi tÊĥÊ²nymÊ²Éª
Ġt rÊĮm
ĠÊĮ Êĥy
ĠutÊĥÊ²ËĪi tÊ²sÊ²ÊĮ
ĠustanËĪÉĳvÉŃÊ²i vÊĮjut
ĠprÊ²i xËĪodÊ²ÊĮt
É¡ÉĶ d
ĠzËĪo na
dÊĮ nÊĮ
ĠpÊĮvrÊ²i ÊĴdÊ²ËĪenÊ²ij
ic a
ĠbÊ²ispÊĮ kËĪoj
ĠA ir
ĠÉķËĪÉĳ stÉŃÊ²i
nÊ²ËĪe tu
Ġf tËĪor
tÊ²i tsÊĮ
ĠvËĪÉ¨ bur
ĠuÉ¡ ÉŃu
Ġst fÉĶ
tÊĥÊ²ËĪÉĳ t
ĠsamÊ²ËĪi x
ËĪar tÉķÉĽ
vÊ²ËĪi ÉŃa
ĠÉĽkÊĮnÊĮmÊ²ËĪi tÊĥÊ²iskÊĮvÊĮ
d kÊĮmÊ²Éª
ËĪÉ¨tÊĥ nÉĽj
ĠprËĮÉĶva dÊĳËĪÉĶ
ĠÊĮrÉ¡ÊĮnÊ²izËĪÉĳ tsyju
Ġl ËĮa
ĠkÊĮmÊ²pÊ²insËĪÉĳ tsyÉª
ĠrËĪÉĳz nÊĮj
rÊĮvÊĮ nÊĮ
tÊĥËĪÉĶ nÉ¨x
pÊĮ rt
ĠanÉ¡ÉŃÊ²ËĪij skÊ²ij
ËĮÉĽ rÉ¨
ĠnapÊ²ËĪisÊĮ nÊĮ
ËĮÉĽ spËĪÉĽ
Ġada p
ĠnÊ²ipÉŃËĪo xÊĮ
ĠutÊĥÊ²ËĪÉĳ stvÊĮvÊĮtÊ²
ĠrËĪuÊĴ nÉĽ
ËĮÉĽn ËĪÉĽs
ĠÉ¡ÊĮ rËĪo
j dÊ²ËĪÉµt
ĠÉ¡rËĪu nta
ĠzÊĮpÊĮÉŃ nÊ²ËĪenÊ²ija
tÊ²ËĪiv nym
p Ê²a
ĠxrÊ²isÊ²tÊ²i ËĪÉĳn
ĠÊĮbÊĮ znËĪÉĳtÊĥÊ²i
ĠvÊ²itÊĥÊ²ËĪe ra
ĠÊĮstrËĪo va
dÊ²i tÊ²i
6 1
ĠjÉªÊĴy É¡ËĪo
Ġrasp ËĪÉĳ
Ġar ma
Ġpr É¨
dËĪÉĳ jutsÊĮ
dvÊ²ËĪi É¡ÊĮ
i sËĪu
ĠÉĶp Ê²ËĪÉĽ
ĠÊĮbËĪy tÊĥÊ²nÊĮvÊĮ
ĠavÊ²iÊĮ kÊĮmpËĪÉĳ
ĠprÊ²i jtÊ²ËĪÉª
Ġfsp ËĮuw
ĠÊĮtÉŃÊ²i tÊĥÊ²ËĪÉĳtÊ²sÊ²ÊĮ
ĠÊĮÊĥËĪy pku
ĠpÊĮ znËĪÉĳ
ĠÊĮs mËĪotr
stËĪo m
ĠzËĪÉĳj ma
zËĪÉĳ pÊĮ
ĠkÊĮntrËĪÉĳ kt
ĠmarÊ²ËĪi ja
x f
exa mple
tÊĥÊ²ËĪe nnyx
ÊĴËĪÉĳ n
ĠdÊ²ËĪevu ÊĥkÊ²i
Éķf Ê²ÉĽt
ĠstratÊ²ËĪe É¡Ê²ija
ĠdrÊ²ivÊ²isÊ²ËĪi ny
ËĪÉĶ f
ĠËĪodzy vÊĮf
ĠÊĮ znÊĮ
stÉĽm pËĪu
5 9
ĠpÊĮ vÊ²ËĪerÊ²i
ĠÊĮstËĪÉĳ tkÊ²Éª
ĠÊĴyvËĪo t
da x
É¡ËĪa jÉĶ
ĠudËĪÉĳ tÊĥÊ²Éª
Ġ200 2
ĠËĮÉĽs ËĮÉĽÅĭÉ¡ËĪÉĽ
zËĪÉĳ tsyjij
ĠnÊĮtÊĥÊ²inËĪÉĳ juÉķix
ĠdÊ²isÊ²a tÊ²ËĪÉª
tr ËĪÉ¨
ĠnÊ²ËĪekÊĮtÊĮry m
a ÉŃ
Ġpru ÊĴËĪy
ĠnÊĮvÊĮ sÊ²tÊ²ËĪej
ĠsuprËĪu É¡a
nu ÉŃÊ²Éª
ĠvÊĮzmËĪo ÊĴny
r ki
bÊĮ ÉŃÊ²ËĪe
ndÊĮ j
ĠÉªskËĪus stvÊĮ
ĠpÉŃËĪÉĳsÊ²tÊ²ikÊĮ vyjÉª
b ja
rËĪovÊĮ nnÊĮj
dËĪu mÊĮ
ĠprËĪofÊ²i ÉŃÊ²ÊĮ
r xi
ĠÉĽtËĪÉĳ pa
ÉŃÉŃÊ²i r
ĠÊĮrÊ²iji ntÊ²ËĪi
ĠpÊĮdxÊĮdÊ²ËĪÉĳ ÉķijÉª
ĠdËĪo ÉŃÊ²u
ĠrÊ²i kvÊ²iÊĳËĪi
ĠfËĪÉĳ ktu
Ġz dËĪÉĳtÊ²
ĠuznËĪÉĳ jtÊ²i
ĠamÊ²irÊ²i kËĪÉĳ
vÊ²ËĪa jÉĶ
ĠrÊĮz vÉŃÊ²ikËĪÉĳ
ĠÊĮbras tsËĪÉĳ
ĠÉķrËĮÉĶ dÉĶvËĪi
ĠmÊ²i trÊĮ
ĠspÊ²i nÊ²ËĪe
ĠprÊĮdÊĮÉŃÊĴËĪÉĳ jut
ĠÉĽÉŃÊ²i mÊ²ËĪentÊĮmÊ²Éª
Ġv Ê²ËĪÉĶ
ĠÉĽffÊ²ËĪe ktÊĮm
ĠÊĴ ÊĴy
ĠÊĴyÉŃÊ²ËĪe za
ĠfÊ²iÉŃÊĮ sËĪofÊ²i
ĠnÊĮtÊĥÊ²a ÉŃËĪÉĳsÊ²
Ġart ËĪÉ¨
Ġd ÉĶvËĪÉĶ
ĠxÊĮrÊĮktÊ²irÊ²ËĪisÊ²tÊ²i k
ĠdÊ²imÊĮ n
ĠfÊĥËĪÉĽ l
tÊ²i rapÊ²ËĪi
x ÉŃÊĮ
ĠÊĮpsÉŃÊ²ËĪedÊĮvÊĮ nÊ²ija
ĠCO VID
ru p
É¡ÉŃÊ²ËĪÉĳ dy
ĠtÊ²ipÉŃÊĮ izÊĮ
ĠpÊ²i rÊĮ
rÉĽ d
nËĪo sa
kÊĮ vËĪÉĳtÊ²
ĠÊĥ ËĪÉĽÉŃ
ĠnËĪu ÊĴnyj
ĠËĪo Êĳi
ĠjËĪe ju
ĠnÊ²iÊĮÊĴËĪydÊĮ nnÊĮ
ĠnÊ²iÊĮpxÊĮdÊ²ËĪi muju
ĠprÊĮiÊĥÊĥËĪÉĽ stvÊ²ija
ĠkÊĮnfÊ²i É¡u
ĠxÊĮ ÉŃ
ĠruÉŃÊ²ËĪe tka
ĠpÊĮpÊ²i rÊ²ËĪe
ĠvËĪyiÉ¡rÊĮ tÊ²
ĠkËĪup ÉŃÊ²Éª
ĠËĪjar kÊ²ij
ĠkÊĮnfÊ²i dÊ²i
Ġmu ÊĴy
ĠvydÊ²i ÉŃÊ²ËĪÉĳ
ĠsÊĮznËĪÉĳ nÊ²ija
rÊ²ËĪi p
ĠkartÊ²ËĪi nu
ĠÉ¡ÊĮÉŃÊĮv nËĪovÊĮ
stna me
ĠÉķ ËĪÉµ
pa x
ĠÉ²ËĪi É¡dÉ¨
ĠsÊĮvÊ²ËĪets kÊĮvÊĮ
ĠsaÉŃËĪo n
Ġk lu
Ë Ĳ
ĠdÊ²isÊ²ËĪÉĳ tkÊ²Éª
Êĳi ËĪo
or ld
Ġxra nÊ²ËĪenÊ²ijÉª
ĠÉªÉ¡rÊĮ kËĪÉĳ
ĠprÊĮ pËĪu
âĢĶ âĢĶ
ĠÊĮ ÉŃÊ²ËĪe
f skÊĮj
ĠmÊ²i ta
is ËĪa
tÊ²i kÊĮj
prÊĮdËĪÉĳ ÊĴÉª
ĠÉ¡ËĪo ry
ĠÉªn dÊ²ËĪi
ss ËĪu
b lÉĽ
Êĥy vÊĮjut
ĠnÊĮzna tÊĥÊ²ËĪÉĳjitsÊĮ
ĠpÊĮÉŃ tÊĮ
ĠÊĮdÊ²dÊ²ËĪe ÉŃÊĮ
ĠvËĪy sÊĮ
ĠÉ¡rËĪup É¨
ĠÉĽk strÊ²i
ĠkrasÊ²ËĪi vÊĮj
ĠkÊĮtÊ²iÉ¡ËĪo rÊ²ij
ĠnÊ²iza mÊ²ËĪe
ĠvÊĮskrÊ²isÊ²ËĪe njjÉª
kÊĮ snÊĮ
ĠzËĪÉĳrÊĮbÊĮ tÊĮk
z nymÊ²Éª
ĠpÊĮÉ¡ËĪo da
ĠÉ¡ jËĮÉĽ
ftÊĮ rÊ²ËĪi
Ġsk vËĪoÊĳ
Êĳ ËĪu
ĠmÉĽ d
ĠmuÉŃ tÊ²ËĪi
v Ê²ËĪÉµ
ĠprÊ²idÊĮsta vÉŃÊ²ËĪenÊ²ijÉª
ĠrÊ²iÊĥËĪÉĽ nÊ²iju
ĠsÊĮmÊĮ ÉŃÊ²ËĪet
Ġa pÊĮ
ĠvrÊ²ËĪe dnyx
Êĥ tÊĥÉ¨
ktÊ²ËĪÉĳ brÉª
al l
É² ska
Ġba dËĪaÉ²Ê²a
ĠpÊĮÉŃÊĮ vËĪyx
É¡ÊĮ ÉŃËĪo
II I
wËĪat É¨
ĠpÊ²i tÊĥÊ²ËĪe
Ġz rËĮÉĽ
ĠdÊĮpÊĮÉŃnÊ²ËĪi tÊ²iÉŃnuju
ku rËĪu
ĠÊĮsnËĪo va
Ġna rËĪÉĳ
= =
Ġsp rËĪos
tÊ²ËĪi vnÊĮjÉª
ĠuÉ¡ ÉŃËĪu
Ġzd ËĪÉĶ
ĠpÉŃÊĮtÊ²i ÊĴËĪÉĳ
ĠdÊ²ËĪi ska
ĠÉŃÊĮ pËĪÉĳ
ËĪat tÉĶ
ĠpÊĮ ÉŃÊ²ik
ĠmÊ²ik rÊĮf
ĠÉªspËĪoÉŃzÊĮvÊĮ ÉŃÊ²Éª
Ð¾ ÑĤ
ĠÉ¡Ê²irËĪo jif
ĠpÊĮ stËĪup
ĠÊĮt prËĪÉĳvÉŃÊ²i
ĠÉ¡rËĪÉĳ m
ĠÉªzËĪy skÊĮ
ĠvÊ²i dÊ²ËĪenÊ²ijÉª
ĠËĮÉĶÉ¡ra É²i
Ġf ur
ĠuvaÊĴËĪÉĳ jimyjÉª
Ġz bÊ²i
ĠÊĮdÊ²inËĪÉĳ kÊĮvÊĮ
ĠprËĪÉĶ blÉĽm
ĠprÊ²id Ê²ËĪÉµtsÊĮ
ĠsprËĪa vÊ²ÉĽ
i f
ĠzÊĮmÊĮ rËĪo
ĠmÊĮ rÊĮ
Ġtsy rkËĪo
ĠvnÊ²izËĪÉĳp nÊĮ
ĠusÉŃËĪovÊ²ija mÊ²Éª
Ġt fËĪa
ĠsmÊ²i Êĥ
ĠmÊĮr skËĪoj
tÊĥ ka
É¡Ê²i na
ĠskÊĮvÊĮ rÊĮ
ĠvËĪydÊ²i rÊĴÊĮ
zËĪÉĽ t
v jjÉª
É¡Ê²ËĪi tÊ²i
ĠnapÊ²ËĪi tkÊ²Éª
tÊ²i nk
ĠvÊ²i dËĪut
Ġp sÊĮ
ĠmÊĮksÊ²imËĪÉĳ ÉŃnÊĮja
ĠprÊ²isËĪu tstvujut
ig ht
mÊ²int ËĪÉĳÉŃnÊĮ
ĠbËĪy fÊĥyvÊĮ
ĠÊĮbnÊĮ vÉŃÊ²ËĪenÊ²ijÉª
ĠfpÊ²itÊĥÊ²at ÉŃÊ²ËĪenÊ²ija
kËĪÉĳ i
ĠmËĪÉĳÉŃ tÊĥÊ²ik
ĠnarËĪod nÊĮj
ĠrËĪÉĳdÊ²Éª o
ĠpÊĮnÊ²idÊ²ËĪeÉŃ nÊ²ik
Ġza dËĪÉĳtÊ²
nt ki
ĠrÊĮstÊĮ rÊĴËĪÉĽ
j nyx
sjÉĶ nËĪa
ĠdÊĮ bÊ²i
D F
ĠsËĪa mÉĶ
dËĪo vÊ²i
É¡rÊ²i vËĪÉĳ
Ġd vÊ²ËĪÉĽ
Ġu tÊĥÊ²a
ÉĽÉŃÊ²i kt
ĠkÊĮmÊ²bÊ²i nÊ²ËĪirÊĮvÊĮ
ĠsÊĮm nÊ²ËĪenÊ²ija
ĠmuÉķËĪi nÊ²i
ĠrÊĮÊĥÊĥy rÊ²ËĪenÊ²ijÉª
ĠxÊĮrËĪo Êĥuju
Ġr tËĪu
ĠÉª É¡nÊĮ
ĠdÊĮrËĪo É¡a
ĠdÊĮrËĪo ÊĴnÊĮvÊĮ
ĠÉŃÊ²ËĪe nty
ĠÊĮtkrËĪy tyj
ĠpÉĶ rt
vÊ²i jÉª
ĠbÊ²i rËĪut
stu r
ĠnÊ²ËĪi skÊ²im
ĠzavÊ²ËĪisÊ²i tÊ²
ĠpËĪu ÊĥkÊ²i
ĠprÊĮ É¡nÊĮ
tÊ²ËĪe rÊĮpÊ²i
ĠpËĪa É²stfa
ĠÊĮtsËĪÉĽ nku
ĠabÊĮ nÊ²ËĪe
ĠÊĮp Ê²ËĪe
ĠrukÊĮvËĪod stva
ĠpÊĮpËĪÉĳ ÉŃ
ĠunÊ²ivÊ²irsÊ²i tÊ²ËĪet
stvÊ²i nnuju
ĠnarËĪo dÊĮf
ĠÊĮbÊĮÉŃËĪo tÊĥÊ²kÊ²Éª
ĠrÊĮznÊĮÊĮbrËĪÉĳ znyjÉª
ĠvËĪÉ¨ bratÉķ
tÊĥÊ²ËĪe k
st rËĪÉĶ
20 22
ĠptÊ²ËĪi ts
ĠprÊ²i vËĪodÊ²ÊĮt
ĠkÊĮnsuÉŃtËĪÉĳ tsyja
ĠÉªndu strÊ²ËĪi
ĠÉĽ n
ĠkÊĮ ktÊ²ËĪej
ĠmÊĮÉŃÊĮdÊ²ËĪe ÊĴÉª
ĠsÊĮ ÉŃÊ²ËĪe
ĠfpÊ²i rÊ²idÊ²ËĪÉª
I S
ĠpÉŃËĪÉĳ ta
ĠpÊĮ tÊĥÊ²ËĪe
ÉĶ k
ĠÊĳËĪim nÊ²ij
Ġu rËĪok
5 3
ĠÉŃÊ²ËĪe tÊĥÊ²ÊĮ
ÉŃÊĮ vÊ²ËĪi
ĠrÊ²i sÊĮ
ĠustanËĪo fku
ĠÊĮsÊ²tÊ²i Ê
ĠÊĮsÊ²tÊ²iÊ Į
ĠnÊ²iprÊ²i mÊ²ËĪennÊĮ
ĠÉ¡ar mËĪo
Êĥ kÊĮx
lÉĽ ks
ĠpÉĶv ËĪiÉ²Ê²ÉĽ
ĠsÊĮbÊ²irËĪÉĳ tÊ²
ĠkËĪÉĶ bjÉĽt
o rk
ĠÉĽf ËĪÉĽ
ĠprÊĮ vÊ²ËĪeÉŃ
pËĪo rt
ĠnÊ²i rÊĮ
ÉŃËĪÉĳ t
ĠÊĮstÊĮnÊĮ vÊ²ËĪitÊ²
ĠmÊ²inÊ²isÊ²tÊ²ËĪer stvÊĮ
tÊĥÊ²ËĮi ËĪÉĽs
ĠspÊĮrtÊ²ËĪi vnyx
tÊĥÊ²i kÊĮm
Ġsu r
Ġt ËĮÉĶ
ĠprÊ²ida jËĪet
ĠpÉĶvËĪiÉ²Ê²ÉĽ n
ĠÊĮtsËĪu tstvujut
ĠpÊ²ËĪesÊ² nÊ²ÊĮ
ĠkÊ²ÉĽ rËĪu
ĠnÊ²i rËĪo
ĠznËĪÉĳ kÊĮm
ĠfkÉŃËĪÉĳ t
ĠumÊ²ËĪe nÊ²ijÉª
nËĪÉĳ dtsÊĮtÊ²
ĠprÊĮis xËĪodÊ²ÊĮt
ĠËĪÉĳ ÊĳiÉª
ĠÊĥtÊĥËĮÉĽ É¡u
ĠÊĮttÊĥÊ²ËĪe t
âĢ¦âĢ¦ âĢ¦âĢ¦
ĠsÊ² tÊ²ËĪÉĳ
prËĪo stÊĮ
ĠsËĪum mÊ²i
ĠfundËĪÉĳ mÊ²int
ĠfrËĪuk tÊĮf
ĠnÊĮ ÉŃÊ²i
ĠvysÊĮkÊĮ kËĪÉĳtÊĥÊ²istvÊ²i
kËĪo n
ĠmÊĮsk vËĪu
ĠkÉĶ mËĪi
ĠËĮÉĶ pu
dÊĮ stÊ²
ĠkÊĮ fÊ²i
i le
ĠbËĪÉĳ zu
f il
ĠutÊĥÊ² rÊ²idÊ²ËĪi
rÊ²i f
ĠpËĪÉĳÉŃ tsyf
ĠËĪu trÊĮ
tsyËĪo nÊĮ
ĠmÊ²itÊĥÊ² tËĪy
ÊĥËĪy p
ĠÊĴyvËĪo tnÊĮjÉª
Ġkar kËĪÉĳs
ĠdÊĮ sËĪu
rÊĮvÊĮ nÊ²iju
ĠdÉŃÊ²ËĪi tÊ²iÉŃnÊĮstÊ²
ĠËĮÉĽf ËĮÉĽs
ĠrËĮÉĽ jÉĽ
Ġ ËĪe
ĠrÊ²iÊĥËĪÉĽ nÊ²iÉª
ĠdÊĮstËĪup nÊĮ
ĠkËĪoÉŃ tsa
Ġts ËĪawÉĶ
ĠpÊĮbÊ²i rÊ²ËĪe
ĠpÊĮpuÉŃÊ²ËĪÉĳ rnyj
ĠpÊĮd nÊ²ËĪÉĳtÊ²
ĠÉ¡ËĪorÊĮ du
vËĮÉĽ pËĪÉĽ
ĠpÊ²i t
ĠÉĶp ËĪi
ĠpÊĮdrÊĮÊĳdÊ²i ÉŃÊ²ËĪenÊ²ija
ĠbrÊĮ sËĪÉĳ
Ġxra nÊ²ËĪÉĳ
ĠsÊĮstÊĮËĪja nÊ²iju
ĠprÊ²ixÊĮdÊ²ËĪi ÉŃÊĮsÊ²
ĠËĮu dÉĶ
ĠnËĪÉĳÊĥy mÊ²Éª
ĠfÊĥËĪÉ¨ stsÉ¨
ĠT or
nËĪo vÊĮj
Į nÊĮÉŃÊ²i
Ê ĮnÊĮÉŃÊ²i
Ġx ËĪit
ĠvÊ²i É¡Ê²i
snab ÊĴËĪÉĽnÊ²ija
ĠmnËĪoÊĴy stva
ĠaftÊĮ nËĪom
Ġ ÑģÑĤ
d vËĪu
ĠÉĽmËĪo tsyj
ĠxrËĪÉĳ m
ĠtÊ²imÊ²pÊ²i rËĪÉĳ
ĠprÊ²ibËĪo ry
ĠÉª nnÊĮ
Ġ4 3
ĠvËĪybÊĮ ru
ĠpÊ²i stÊĮ
ĠmÊ²i tËĪÉĳ
ĠÊĮdÊ²dÊ²ËĪe ÉŃka
ĠmËĪÉĳ jÉª
s i
Ġd ËĪar
ĠÉªdÊ²i ËĪÉĳÉŃnyj
natÊĥÊ²ËĪÉĳ ÉŃÊ²i
ĠpÊ²irsÊĮnËĪÉĳ ÉŃnyx
v É¨x
ĠpÊĮ by
ĠÉªnsÊ²tÊ²itËĪu t
ĠpÊ²irÊ²i pÊ²ËĪi
dÊ²i jÉª
ĠpÉĶ mËĪÉ¨
sËĪu t
M A
zbËĪÉĽ nd
ĠnaÉŃËĪoÉ¡ÊĮ f
ĠÊĮs ÉŃËĪÉĳ
ĠpÊĮstÊĮËĪja nnÊĮj
Ġza dÊ²ËĪerÊĴÊĮ
ĠÉ¡ÊĮtËĪo vÊ²itsÊĮ
ĠpËĪa É²i
ĠprÊ²ivy ÊĥËĪÉĳtÊ²
ĠpÊĮ nÊ²ËĪi
Ġp ËĪÉ¨
ĠkÊĮ Êĥy
f kÉĶ
Ġst f
ĠprÊ²ËĪi zvÊĮ
at ion
ËĪit ÉĽ
ĠnÊĮvÊĮ ÊĮbrÊĮzÊĮ
ĠtÊ²ËĪem nÊĮ
ĠustanËĪovÉŃÊ²i na
ĠpÊĮtrÊ²ËĪebnÊĮ stÊ²
ĠÉĽksp rÊ²ËĪe
ĠkuÉŃ tËĪura
Ġvyra bËĪÉĳty
ĠkrÊ²ËĪe pÊĮ
ĠpÊĮdrÊĮzumÊ²i vËĪÉĳjit
ĠpÊĮvy ÊĥËĪÉĳjitsÊĮ
ĠzËĪÉĶ batÊĥ
ÊĴ jja
ĠkÉĶ Åĭ
Ġsp Ê²ËĪÉĳ
ĠvÊĮk tsynËĪÉĳ
rËĪÉĳ ÊĴy
ĠpÊĮtsyjËĪe ntÊĮm
ĠnÊ²i tÊĥÊ²ËĪem
ĠrËĪÉĳ n
ĠÉªÉķi zËĪÉĳ
ĠsÊĮ tÊĥÊ²i
ĠkrÊ²idÊ²ËĪi tnÊĮj
ĠprÊ²ijËĪem ÉŃÊ²i
ska tÉķ
ĠÉŃÊ²ËĪi tsÊĮmÊ²Éª
ĠsÉŃÊ²ËĪe dÊĮvÊĮtÊ²
ĠÊĮ ÊĳËĪe
ĠkÊĮÉŃÉŃÊ²ËĪe ktsyja
ĠÉ¡ËĪo rÉª
É¡ËĪÉĳ m
mÊ²i ntÊ²i
ĠvÉ¨ rËĪa
tÊĮ va
k ÉŃy
ĠpÉĶdËĪÉĶb nÉĽ
ĠÉªntÊ²ÉĽrÊ²isËĪu jit
ĠbÊĮÉŃ nËĪoj
ĠpÉĶd ËĪat
ĠstrËĪÉĳ nnÊĮ
bÊ²ËĪi myj
jiÊĥ sÊ²ÊĮ
ĠbÊ ²ËĮi
Êĳ Ê
ÊĳÊ Į
ĠrÊ²imËĪo ntu
ĠnÊ²ibÊĮÉŃ ÊĥËĪuju
ĠpÊĮd mÊĮ
ĠzÊĮ bÊ²i
ĠpÊĮÊĥËĪÉĳ É¡ÊĮ
ĠËĪi ks
ĠpÉŃanÊ²ËĪi rujit
lËĪÉĶ nÉ¨
ËĪal nÉĶÉķtÉķ
ĠÉª sÉŃËĪÉĳ
ĠkÊĮmfËĪort nÊĮ
ĠjËĪem kÊĮsÊ²tÊ²Éª
tÊĥÊ²ËĪÉĳ ÉŃa
ĠuÉŃutÊĥËĪÉĽ nÊ²ijÉª
ĠÉª É¡ËĪo
ĠzËĪu t
ĠmÊ²iÊĴdunarËĪod nyj
ËĪ juÉķij
ĠnËĪo É¡u
ĠsÊ²izËĪo nÊ²i
ĠsÊĮz rÊ²i
ĠnÊĮdÉŃÊ²i ÊĴËĪÉĳ
ĠsÊĮ dÊĮ
ĠdËĪu ÊĴÉ¨
Ġ8 5
ĠdÊĮrÊĮ É¡ÊĮ
ĠuÉķËĪer ba
tÊ²i sÊ²tÊ²ËĪi
É¡Ê²i ju
ĠËĪop Éķix
ĠpÊĮÉŃutÊĥÊ²ËĪÉĳ jitÊ²i
ĠsubjjËĪe ktÊĮf
Ġs wËĪÉĶ
ĠnÊĮÉŃÊĮÉ¡ÊĮ pÉŃatÊ²ËĪeÉŃ
ĠbÊ²iÉŃarËĪu sÊ²
ĠrÊĮznÊĮÊĮbrËĪÉĳ ÊĳijÉª
pa r
Ġst vÊĮ
ĠsËĪo tÊĥÊ²Éª
ĠpÊĮd da
ĠpÊ²i vÊ²ËĪi
dÊ²ËĪe v
ÉŃÊ²i nËĪo
ĠsÉŃËĪo t
ĠaftÊĮmËĪÉĳ tÊĮf
ĠÉŃa nd
ĠpÉĶn ËĪattÉĶ
ĠvyrËĪÉĳÉķi vÊĮnÊ²ija
jimÊĮ m
ÉŃÊ²i kÊ²Éª
ĠpÊĥËĮÉĽ prÉĶva
Ġva sÊ²ËĪiÉŃ
ĠÉªzu tÊĥÊ²ËĪenÊ²ijÉª
ĠpÊĮtrÊ²i bÉŃÊ²ËĪÉĳ
ĠnÊ²ibÊĮÉŃÊĥËĪo vÊĮ
ĠpÊĮd nÊ²ËĪÉĳ
ĠÉ²Ê²ÉĽ zbËĪÉĽnd
ĠpÊĮ nÊĮ
ĠtÊ²ixnÊ²ËĪi tÊĥÊ²iskÊĮvÊĮ
ĠrÊ²iÉ¡Ê²iÊĮnËĪÉĳ ÉŃnÊĮvÊĮ
ĠkËĪÉĳp su
ÉĶvËĪa wÉ¨
ns ÉĽ
ĠÉ¡ËĪo rÊ²i
ĠsÊĮ vÊ²iÉķËĪÉĳ
z nuju
Ġba ÉŃËĪÉĳn
ĠprËĪÉĶ jÉĽkt
ĠrabËĪotÊ²nÊ²i kÊĮm
ĠËĪÉª n
ĠÉªspytËĪÉĳ nÊ²ija
ĠpÉŃÊĮ nÊ²i
Ġk fËĪÉĽ
ĠpËĮÉĶd ÉĽj
ĠnÊ²i nËĪu
l ËĪatsjÉĽ
ĠÉª ÊĳËĪÉĳ
Ġ4 9
ĠP re
ĠÉŃËĪo kÊĮ
Ġru kËĪÉĳ
T ube
Ġb rËĪÉĶ
s vÊ²i
ĠkÉĶbjËĪÉĽ tÉ¨
ĠnÊ²iÊĮpxÊĮdÊ²ËĪimy j
Ġm p
ĠÊĮpÊ²i ratÊ²ËĪi
ĠspÊ²i tsËĪy
ĠËĮÉĶfÉĽ rËĪujÉĽ
b nÉĽ
ĠnÊ²ËĪiÊĴ nÊ²im
ĠËĪÉĳ t
ĠvzrËĪos ÉŃyjÉª
ÊĴËĪÉĽ É²Ê²u
ĠrÊĮsk ryvËĪÉĳ
ĠpÊĮ ÉŃÊ²u
ĠsvÊ²ËĪÉĳzÊĮ n
ĠkÊĮtÊ²i É¡ÊĮrÊ²ËĪi
ÉŃkÊĮ x
ĠÉªzvÊ²ËĪest ny
Ġu xËĪodÊ²i
ĠzadËĪÉĳ tÊĥÊ²u
É¡ÊĮ ÉŃÊ²ËĪi
sk ËĪa
ĠÉ¡ËĮÉĽ nÉĽ
ĠÉĽtËĪÉĳ py
ĠpÊĮdÊĮz rÊ²ivËĪÉĳ
ĠzÊĮ pusÊ²tÊ²ËĪitÊ²
ĠustËĪojtÊĥÊ²ivÊĮ stÊ²
ĠprÊĮÉ¡nËĪo zy
ĠtÉĽr mËĪi
ĠzÊĮkÊĮnÊĮdËĪÉĳ tÊ²iÉŃstvÊĮ
ĠkÊĮntÊ²ËĪe nt
ĠfËĪÉĳktÊĮ rÊĮm
ĠrÊĮspÊĮÉŃaÉ¡ËĪÉĳ jitsÊĮ
tËĪy rÊ²Éª
vËĪo mu
ĠstatÊ²ËĪi sÊ²tÊ²i
w ÉĽk
ĠzabËĪy tÊ²
ĠkËĪo jim
zËĪu jÉĶ
ĠpËĪo ji
ĠprÊ²i mËĪo
l ËĮÉĶ
Êĥ p
jja m
ĠfÊĮ kuÉŃ
ĠmËĮoÊĴy Êĥ
dÊĳ ËĪawa
Ġfud bÊĮÉŃÊ²ËĪi
ĠzÊĮvÊ²i ÉķËĪÉĳ
ĠznËĪÉĳ ja
mu Êĥ
ĠpÊĮtÊ²intsy ËĪÉĳÉŃ
Ġv ÊĴËĪÉĽ
ĠbÊ²ËĪe ÉŃÊĮj
ĠpÊ²ÉĽÉ²Ê²ËĪÉĶ ndÊĳÉĽ
ĠprÊĮfÊ²isÊ²sÊ²iÊĮnËĪÉĳ ÉŃnyjÉª
lÉĶ ÉķtÉķ
ĠsÉŃÊ²ËĪe va
Ġdy mÊĮ
ĠsÊ²i rÊ²ËĪij
ĠÉ¡Ê²ipÊ²ir tÊĮnÊ²ËĪi
ĠstËĪÉĳ rÊĮj
ĠprÊ²inÊĮdÉŃÊ²i ÊĴËĪÉĳ
ĠsvÊ²ËĪe ÊĴym
Ġna dÊ²ËĪÉµ
ĠÉŃËĪÉĳ kÊĮm
tËĪÉĳ rÉª
ĠvypÊĮÉŃ nÊ²ËĪenÊ²iÉª
lËĪÉĽ pÊ²ÉĽj
ĠpËĪÉĳÉŃ tsy
ĠbÉŃËĪo kÊĮf
ĠfspÊĮ mÊĮÉ¡ËĪÉĳ
ĠassÊĮtsy ËĪÉĳtsyÉª
ĠtËĪo tÊĥÊ²ik
ĠutÊĥÊ²ËĪÉĳst kÊĮx
ĠsmÊ²ËĪe ÊĥÊĮ
stÉĶ mp
ĠÊĮrÉ¡ËĪÉĳ nÊĮx
ĠÉ¡rËĪÉĳmÊĮ tnÊĮ
tÊĥËĪÉĽÉ²ÉķtÉķ ÉĽj
ĠnaÉ¡rËĪu ska
Ġku kurËĪu
t fËĪÉĶ
ĠskËĪÉĳ ÊĴym
tËĪu rÊ²i
stËĪÉĳ ja
ĠÊĮtÊĥÊ² kÊ²ËĪÉª
ĠrÊ²ikÉŃËĪÉĳ mu
8 00
ĠtÊ²i rÊ²ËĪÉĳjit
Êĥ tËĪo
ĠnËĪok tÊ²Éª
ĠkrasËĪÉĳ vÊ²i
ĠfËĮÉĶ tÉĶ
Ġz bÊĮ
ĠprÊ²iÊĮbrÊ²i tÊ²ËĪenÊ²ija
ĠprÊ²ivÊĮ tÊ²i
Ġu É¡rÊĮ
ĠÊĮkruÊĴËĪÉĳ juÉķix
ĠutvÊ²irÊĴ dËĪÉĳjut
ĠmÊ²ËĪe rt
jjËĪe ry
ĠÉª ssÉŃÊ²ËĪe
f ËĪaw
Ġza mËĪok
ĠpÊĮdrËĪost kÊĮf
ĠnÊ²ËĪef tÊ²Éª
ĠdvÊ²i ÊĴËĪÉĽnÊ²ij
ĠpËĪoÉŃ za
ĠÉ¡ÊĮvÊĮ rÊ²ËĪu
ĠÉ¡Ê²idrÊĮ izÊĮ
ĠÉªntÊ²ÉĽrÊ²ËĪesnÊĮ jÉª
ĠtÊ²ikËĪu ÉķivÊĮ
Ġd nÊ²ËĪe
ĠdËĪÉĳ jtÊ²i
lËĪÉĶ nÉĽ
ĠprÊĮ ktÊ²i
ĠÊĮtÉŃÊ²ËĪi tÊĥÊ²nÊĮjÉª
stvÊĮ x
ĠzÉĶ bËĪa
mÊĮ mu
Â» ?
ĠtsËĪÉĽ nnÊĮsÊ²tÊ²Éª
ĠÊĮbrazËĪu jitsÊĮ
tÊĥÊ²i sÉŃÊ²ËĪe
ĠnajlËĪÉĽp ÊĥÉĽ
ĠmËĪÉĳÉŃÊ²in kÊĮj
ÉŃÊ²ËĪe tÊ²i
ÊĮrÉ¡a nÊ²ËĪiz
ĠtrÊ²ËĪebÊĮ vÊĮnÊ²ijÉª
ĠÉĶ tÊĥËĪÉ¨ma
a rt
k sÊĮ
ĠpÊĮraÉŃÉŃÊ²ËĪe ÉŃnÊĮ
ĠÊĮrÊ²iÉ¡Ê²i nËĪÉĳÉŃ
Ġraz ËĪy
ĠkÊĮnfÊ²idÊ²i ntsy
ĠunÊ²i tËĪÉĳ
ĠmËĪÉĳ rkÊ²i
ĠtsvÊ²i tËĪÉĳmÊ²Éª
Ġp ÊĥynÊ²ËĪi
ĠÉª pËĪo
ĠpÉĶ mjËĪÉĽ
ĠbËĪo ÊĴy
ĠtÊ²ËĪe mÊ²Éª
brËĪÉĳ sy
ĠprÊ²i bËĪora
ĠkÉŃËĪÉĳ ssÊĮf
ĠvÊ²ËĪiru s
ĠÉªspÊĮÉŃ nÊ²ËĪenÊ²ijÉª
tÊ² nÊ²ËĪÉµ
É²i w
ĠkÊĮmËĪÉĳ nt
xÊĮ rËĪo
ĠÊĮsnËĪo vÊĮj
vÊ²i kËĪof
ĠnËĪo rma
ĠpÊ²ËĪe tÊĥÊ²in
ĠÊĥ ÉŃÊ²ËĪÉĳ
ĠvÉ¨ b
ĠdÊĮÉ¡ÊĮvËĪo rÊ²i
ĠkÊĮma ndÊ²ËĪi
ĠprÊ²idÊ²ËĪe ÉŃÊĮmÊ²Éª
ĠnÊ²i kÊ²ËĪi
Ġzap rÊ²ËĪet
stvÊ²i nnymÊ²Éª
ĠÉ¡rËĪÉĳÊĴdÊĮ nÊĮm
ĠrÊ²ËĪi a
Ġp ÉŃÊ²ËĪit
ĠkfËĪÉĽ st
ĠrÊĮspÊĮ ÉŃÊĮÊĴËĪÉĽnÊ²ija
ĠÊĮkÊĮntÊĥÊ²ËĪÉĳ tÊ²iÉŃnÊĮ
ÉŃÊ²ËĪi k
ĠzdÊĮrËĪov jjim
ĠsÉŃËĪo ÊĴnyj
ĠbaktÊ²ËĪÉĽ rÊ²ij
Ġts ËĮÉ¨
ĠtsËĪÉĽ nÉ¨
I P
ĠpÉŃÊĮÉķËĪÉĳ dka
ĠprËĮÉĶ stÉ¨tËĪu
ĠÉ¡ Ê²ËĪÉĽr
ĠpÉĶ trËĪa
Ġa strÊĮ
ĠkÊĮrËĪot kÊ²ij
ĠÊĳ ÉĽ
ĠpËĪÉĳ s
ĠpÊĮnÊ²imËĪÉĳ jut
ĠkÊ²ÉĽ rËĪÉĶ
Ġs kËĪÉĳzy
ĠprÊĮdËĪoÉŃÊĴy tÊ²
ĠÊĮsËĪoby j
ĠnÊ²iiz bÊ²ËĪe
tÉĻtÊĥÊ²Éª tËĪyrÊ²Éª
ĠpÊĥËĪÉ¨ Êĥ
ĠmËĪo jim
ĠM i
ĠsÊĮËĪju s
ru ÊĴ
i zËĪo
ĠaÉŃÊ²i mÊ²ËĪentÊĮf
ĠÊĮtÉŃÊ²ËĪi tÊĥÊ²nÊĮja
na r
dÊ²i m
Ġpu tÊ²ËĪina
ĠkËĪopÊ²i Éª
tÊ²i rÊĮ
ĠkÊĮrpÊĮ ratÊ²ËĪiv
ÊĳËĪi tÊ²sÊ²ÊĮ
ĠÉ¡ÊĮtËĪo vnÊĮsÊ²tÊ²Éª
ĠpÊĮ ÉŃËĪom
ĠpÊĮstÊĮnÊĮ vÉŃÊ²ËĪenÊ²ija
rÊĮvÊĮ na
ĠnÊĮkazËĪÉĳ nÊ²ija
ĠÉªnvÊ²isÊ²tÊ²ËĪi tsyÉª
l ÉĽr
ĠnaËĪu ka
ĠpÊĮ pËĪoÉŃ
ĠÉ¡ËĪu by
ntsy m
ĠÊĮrÉ¡ËĪÉĳ nÊĮm
ĠÉªÉķËĪe z
ĠÉªmmu nÊĮ
ĠtsËĪÉĽ nnÊĮstÊ²
ĠznËĪÉĳ ÉŃÊ²Éª
ĠrÊ²iÊĳ u
ËĪa lÉĽ
ĠpÉŃËĪÉĳ tu
É²Ê²ËĪÉĽ É²tÉķa
wËĪÉĶ n
ĠdÊ²ipartËĪÉĳ mÊ²inta
ĠnasÉŃÊ²ËĪe dstvÊ²i
ĠËĪu trÊ²i
Ġ2 10
ĠspÊĥÉĽdËĪa ÊĴÉ¨
ĠtabÉŃÊ²ËĪi tsa
ĠÉªspËĪoÉŃzÊĮvÊĮ nÊ²iju
ĠpÉŃa nÊ²ËĪety
ĠÊĴyvÊĮ tÊ²ËĪe
ĠdÊ²iËĪÉĳmÊ²it rÊĮm
ĠnÊĮvÊ²i É¡ËĪÉĳ
Ġfru ktËĪo
ĠaktÊ²ËĪiv nyx
Ġs my
tÊ²i ËĪÉĳ
ĠfËĪÉĳ brÊ²i
ĠnaÉŃËĪoÉ¡ÊĮ vÊĮvÊĮ
ĠkustËĪÉĳ r
ĠrÊĮz bÊ²irÊ²ËĪe
ĠzËĪÉĳ É¡ÊĮrÊĮ
ĠstÊĮrÊĮ nËĪoj
ĠdvÊ²ËĪiÉ¡ÊĮ tÊ²sÊ²ÊĮ
ĠdÊ²i Êĳin
ĠN a
n É¡ÊĮ
Ġsm Ê²ak
ĠprÊ²i sÊ²i
ĠrÊĮzrabËĪo tkÊ²i
ĠÊĥkËĪÉĶ wÉ¨
nÊĮ zna
ĠfÊ²iÉ¡ËĪu ry
tsÉ¨ jnËĪÉĽÉ¡ÉĶ
ËĮÉĽ ÉŃ
ĠkÊĮmmÊ²intËĪÉĳ rÊ²ijif
Ġ* **
zÊĮ sÊ²tÊ²Éª
Ġraz rÊ²ËĪe
Ġs jji
ĠÉĽÉŃÊ²iktrÊĮÉĽnÊ²ËĪerÉ¡Ê²i Éª
ĠakadÊ²ËĪe mÊ²iÉª
Ġ4 6
j mÉ¨
ĠrÊ²i putËĪÉĳ
Ġru ka
ĠkÊĮ rËĪÉĳ
ĠÉĽÉŃÊ²iktrËĪo nnyx
tËĪÉĽr ja
ĠdËĪÉĳ nnÊĮmu
ĠpÊĮtrÊ²i bÉŃÊ²ËĪenÊ²ija
ĠÊĮtkryvËĪÉĳ jitsÊĮ
ĠvÊ²i tËĪÉĳ
ĠkËĮÉĶ mpu
ĠtÊĥÊ²ËĪÉĳ t
ĠfËĪo rÊ²iks
ĠtËĪÉ¨ lÉĽ
ĠdËĪu Êĥ
ĠprÊĮ vËĪo
ĠprÊĮ tÊĮk
fÊ²i rÊ²i
ĠdÉĶ pÊ²ËĪÉĽ
sku f
ĠusÉŃËĪovÊ²i jÉª
Ġ3 50
ĠprÉĶdËĪu ktu
tÊĥÊ²i vËĪyjÉª
Ġb É¨
ĠbÉŃÊĮÉ¡ÊĮ tvÊĮrÊ²ËĪi
Ġa tËĪÉĳ
ĠprÊ²i dËĪÉĳtÊ²
Ġ0 4
vÊ²i kÊ²ËĪÉª
rÊĮvÊĮ ÉŃa
ĠsËĪÉĶ bÉĶ
ĠustanËĪÉĳvÉŃÊ²i vÊĮjutsÊĮ
ĠvËĪÉĳ nny
ĠznËĪa tÊĥÉ²Ê²ÉĽ
ĠsÊ²in tÊ²abrÊ²ËĪe
ĠdaÉŃnÊ²ËĪej ÊĥyjÉª
bÊĮ mÊ²Éª
ĠprÊĮjËĪe ktÊ²i
tÊĥÊ²ËĪÉĳ jim
ĠtËĪo nkÊ²i
ĠdËĪÉĶ ÉķtÉķ
É² skÊ²ÉĽj
Ġu jtÊ²ËĪÉª
201 1
ĠdÊ²ipÊĮÊĳËĪi t
ĠvÊ²i ktËĪo
ĠmuÊĳËĪe ja
ĠpÊ²ËĪesÊ² nÊ²u
ĠstËĪu ÉŃ
ĠnÊ²ËĪe ÊĴyÉŃÊ²Éª
Ġba É¡ËĪÉĳ
ĠsÊĮÊĮpÉķËĪi tÊ²
Ġtsy pËĪo
ĠkËĪo jÉª
brËĪÉĳ ÉŃÊ²Éª
nÊ²ËĪÉĳ ÉŃ
vÉŃÊ²ËĪe n
ĠmuÉŃ t
fËĪu r
fÉĽr ËĪÉĽ
pÊĮ tÊ²
ktÊĮ rËĪof
ĠkËĮÉĶ mÉĽnt
ĠpÊĥËĮÉĽtÉķi v
Ġu dÉŃÊ²i
ĠvÊ²ËĪe tÊ²ir
ĠnÊ²ivy sËĪo
Ġvak tsËĪy
Ġnaj tÊĥËĪÉĽÉ²ÉķtÉķÉĽj
ĠÃ§ ËĪi
ĠpÊĮd xËĪoda
mËĪÉĽ ntuf
ĠpÊĮs ËĪoÉŃ
ĠÉ¡ rËĪy
Ġk Êĥt
ĠusÉŃËĪu É¡u
ĠstËĪÉĳrÊĥy j
ĠÉķËĪe tu
] ,
Ġka ÉŃ
ĠtÊĥÊ²i rtËĪy
Ġraz ËĪum
ĠsÊĮbrËĪÉĳ nÊ²ija
ĠmÊ²ixËĪÉĳ j
! )
xÊĮdÊ²ËĪi ÉŃÊ²Éª
ĠstrÊĮxÊĮ vËĪoj
ĠÉķËĪÉĳ stÊ²jju
Ġum ËĪÉĶvÉ¨
ĠmÊ²ikrÊĮ ÊĮrÉ¡anÊ²ËĪiz
prÊĮ dËĪu
Êĥ taw
ĠnapÊ²ËĪi tkÊĮf
ÊĴy na
D A
ĠsÊĮÊĮp ÉķËĪenÊ²iÉª
ĠpÊĮra ÊĴËĪÉĽnÊ²ijÉª
xÊĮ nd
ĠmÊĮ sÊ²tÊ²ir
ĠkÊĮnÊ²ËĪeÊĥ nÊĮm
Ġvy jasÊ²
ĠrÊĮzmÊ²i ÉķËĪenÊ²ijÉª
ĠÉĶ brËĪa
!! !!
ÉķËĪi k
ĠpÉĶvËĪÉĶ du
ĠzakËĪo ny
rËĪa mi
É¡ËĪÉĳ tÊ²sÊ²ÊĮ
ĠËĪa rt
ĠprÊĮbÉŃÊ²ËĪe mÊĮmÊ²Éª
ĠzÊĮrÊ²iÉ¡Ê²istrÊ²ËĪirÊĮvÊĮ tÊ²sÊ²ÊĮ
ĠsÊĮvÊ²irÊĥËĪÉĽn stvÊĮ
ĠdÊ²ËĪeÉŃÊĮ ÉŃÊ²Éª
ËĪa p
ĠuspÊĮ kËĪÉĳi
T A
ÊĴ nËĪÉĶÉķtÉķi
ËĪal nÉĶ
bËĪÉĳ nk
ĠÊĮ zvËĪu
ÊĴ ËĮÉ¨
ĠÊĮrÉ¡anÊ²ËĪiz mu
Ġa ÉŃÊ²ËĪi
ĠÉ¡Ê²i É¡ËĪÉĳ
ĠprÊĮs mËĪÉĳtrÊ²i
fu nk
ĠÊĥto nÊ²ibËĪutÊ²
Ġka tËĪu
ĠtsyÉŃÊ²isÊĮÊĮbrËĪÉĳ znÊĮ
fÉĶ rt
ma r
Ġna É¡ÉŃÊ²ËĪÉĳ
ĠvËĪy pusk
j ËĪÉĽr
Êĥ sÊ²ÊĮ
Å Ĥ
ĠvmÊ²iÊĥËĪÉĳ tÊ²iÉŃstva
ĠÊĮ ku
ĠnÊ²iÊĮdnÊĮ krËĪÉĳtnÊĮ
ĠnÊ²iÉ¡a tÊ²ËĪivnÊĮ
ĠprÊ²idnaznËĪÉĳtÊĥÊ²i ny
ĠsÊĮstËĪÉĳ vÊ²iÉŃ
ĠaÊĳËĪi nÊĮ
ĠrÊĮÊĥÊĥy rÊ²ËĪenÊ²ija
ĠÊĳirkËĪÉĳ ÉŃa
w it
ĠtÊ²ËĪe nÊ²Éª
ĠnËĪÉĳÊĥy mu
ĠËĮad mi
Ġna pËĪo
ĠËĪÉĳ r
ĠpÊĮÉŃÊ²i ÉĽ
ĠnÊ²ivÊ²i rÊĮËĪja
wËĪÉĶ bÉ¨
Ġru ÊĥnËĪoj
ĠnÊ²ËĪi skÊĮja
st ËĪÉĽr
ĠspÊĮrtÊ²ËĪi vnyjÉª
ĠprÊ²idÊĮ x
ĠÊĮbrabËĪo tku
ĠpÊĮd jjËĪem
rmÊ²i nÊ²ËĪi
ĠÉŃÊ²i j
ĠkrËĪup nyj
ĠkÊĮntsyntrËĪÉĳ tsyÉª
ĠP o
ĠmËĪu É¡w
on g
ĠprÊ²idprÊ²inÊ²imËĪÉĳ tÊ²iÉŃÊ²ij
ĠzËĮa wÉĶ
ĠpÊ²ËĪÉĳtÊ²nÊ²i tsu
Ġv natÊĥÊ²ËĪÉĳÉŃÊ²i
t É¨m
ĠvrÊ²ËĪe mÊ²innÊĮ
rËĪu juÉķij
n tÊĥÊ²ËĪÉĳ
Ġsu m
ĠÉ¡Ê²i pa
ĠpÉŃÊĮÉķËĪÉĳ tkÊ²i
ĠmÊ²i ÉŃ
ĠmuÉŃt fÊ²ËĪiÉŃ
ĠtsvÊ²ËĪe tÊĮm
ĠkËĪaÊĴd ÉĽj
ĠavËĪÉĳ rÊ²iÉª
ĠbÊ²iÉŃ jËĪja
ĠkËĪÉĳ Êĥ
ĠtÉĽ x
ĠprÊĮ tÊ²ËĪÉĽ
ĠtÊĥ ËĪu
ĠÉĽÉŃÊ²iktrËĪo nnyj
ĠdËĪu xa
mÊ²i k
Ġraz rÊ²ËĪÉĳ
ĠËĮÉĽ v
ĠnÊ²ipÊĮ ftÊĮrÊ²ËĪi
ĠkakËĪoj ÉŃÊ²ËĪibÊĮ
ĠmÊ²i nÊ²ËĪet
ĠT o
ĠspËĪor tÊĮm
fÉĶ rm
vËĮÉĽ ËĪÉĽs
ĠktËĪÉĶ Éķ
j ku
stup ÉŃÊ²ËĪenÊ²iÉª
ĠrasÉķËĪi tÊĮ
Ġpra kt
ĠmËĪoÉķ nyj
É¡ËĪÉĳ r
ĠukrËĪÉĳ sÊ²itÊ²
tÊĥÊ²i nËĪÉĳ
ĠprÊ²idmÊ²ËĪe tÊĮm
ĠaÉŃkÊĮ É¡ÊĮÉŃÊ²ËĪi
ĠprÉĶ mËĪÉĶ
ĠsÊ²irtÊ²ifÊ²ikËĪÉĳ t
ĠmËĪi nut
ĠÊĴËĪy r
ĠdËĪumÊĮ ÉŃ
ĠmÊ²itaÉŃÉŃÊ²ËĪi tÊĥÊ²iskÊ²ijÉª
ĠkÊĮÉŃÉŃÊ²ËĪe É¡Ê²Éª
dËĪÉĳ ÉŃÊ²ijÉª
É¡rÊĮ fÊ²i
ĠvÊ²ËĪepsËĪÉĳ j
ĠÊĮrËĪÉĳ nÊĴy
ĠtabÉŃÊ²ËĪe tÊĮk
ĠpËĪu bÉŃÊ²i
Ġb ËĪÉĶvÊ²ÉĽm
R O
ĠpËĪÉĳ rkÊ²i
ĠpapÊ²ËĪi ÉŃÉŃÊĮ
ĠÊĮd dËĪÉĳ
ĠÊĮp rËĪÉĳv
tÊĥËĪÉĶ na
ĠkÊĮnkrÊ²ËĪe tnÊĮ
ĠprÊĮ tËĪo
ĠzËĪÉĳpu ska
ĠsÊ²ËĪe ÉŃa
bËĪu jÉĽ
ËĪÉª s
d i
Ġna rÊ²ËĪe
ĠmÊĮÊĥËĪÉĽ nnÊ²i
ji n
sÊ²tÊ²i rËĪo
ĠtËĮÉĽ mpÉĽ
ĠprÊĮ kËĪÉĳ
ĠpÊĮÉŃÊ²ik ÉŃÊ²ËĪi
ĠËĮu kra
ĠpÊĮdmÊĮ skËĪo
mËĪÉĳ xi
ĠtsËĪyk ÉŃ
ĠsÊĮvÊ²ËĪetu jut
nÊ²i nËĪÉĳ
ĠtÊĥÊ²u ÊĴËĪy
rËĪu tÉķitÉķ
ĠËĮa ntÉ¨
ĠÉ¡Ê²irËĪo ja
5 1
ĠÉŃÊ²ËĪe ta
ĠprÊ²idstavÊ²ËĪi tÊ²iÉŃÊ²ÊĮ
Ġand rÊ²ËĪe
ĠmËĪÉĳ ttÊĥÊ²i
ĠÉªzvÊ²ËĪe sÊ²tÊ²in
fÊĥÊĮja sÊ²ÊĮ
Ġu rËĪÉĳ
ĠudÊ²ivÊ²ËĪi tÊ²iÉŃnÊĮ
ĠpËĪa n
Ġ4 1
nÊĮ s
ts kÊ²ijÉª
ĠtÊ²irrÊĮ rÊ²ËĪi
ĠprËĪa vÊ²ÉĽ
ĠS h
ĠvÊĮzmËĪo ÊĴyn
Êĳ n
f kÉĽ
ĠnaËĪu tÊĥÊ²nyx
ĠprÊĮstËĪo jÉª
z vÉĶ
Êĥy nnyx
ÉŃÊĮ vÊĮtÊ²
ja tÊ²
ĠI nter
ĠpÊ²ÉĽ É²Ê²ËĪÉĽ
ĠmÊ²inÊ²ËĪi stra
ĠzadËĪÉĳ nÊ²ijÉª
ĠxËĪo du
ĠvÊĮj nÊ²ËĪe
ĠpÉĶ tk
nÊĮ vÊ²itÊĥÊ²
tÊĥÊ² nÊ²ikÊ²Éª
Â ®
Ġnaj lËĪÉĽpÊ²ÉĽj
ĠpÊĮnÊ²imËĪÉĳ jit
ĠbÊ²ispÉŃËĪÉĳtnÊĮ jÉª
ĠdÉĶpÊ²ËĪÉĽ rÉĶ
ĠfËĪor mÊĮj
Ġk ËĪi
Ġsm ËĪa
ĠdÊĮba vÉŃÊ²ËĪÉĳ
rÊ²ËĪi Éª
vÊ²ËĪidÊ²i Ê
vÊ²ËĪidÊ²iÊ Į
ĠrËĪÉĳdÊĮ sÊ²tÊ²Éª
ĠpÊĮstÊĮËĪja nnÊĮjÉª
ĠkÊĮnsuÉŃtËĪÉĳ tsyju
ĠrÊĮdÊ²i kËĪÉĳ
8 7
ĠpÊĥÉ¨ tÊĥËĪÉ¨
ĠÊĮs vËĪo
Ġvy sypËĪÉĳ
ĠmÊ²ËĪÉĳx kÊĮj
ĠsÊ²nÊ²imËĪÉĳ jit
) ||
Ġ200 1
Êĥy nÊĮ
ĠakkËĪÉĳu nt
Ġe x
ĠdvËĪÉĳ dtsÊĮtÊ²
ba jd
ĠÉŃÊĮ tÊ²i
ĠtÊĥw ÉĶvÊ²ËĪÉĽ
ĠvvÊ²i dÊ²ËĪitÊ²i
ĠrËĪa ÊĳÉĽ
ĠdÊ²iputËĪÉĳ t
n dÊ²ËĪin
ÊĴdËĪÉĳ jut
ĠpÊ²ËĪensÊ²i ju
k ËĪÉĶvÉĽ
ndÊ²i r
tÊĮm Ê²ËĪi
Ġza vÊ²ËĪerÊ²i
ĠdÉĶ rËĪÉĶ
ĠtsËĪÉĽ pÊ²Éª
ĠpÊĥËĮÉ¨ pÉĶ
ĠÊĴy nËĪu
ĠmËĪÉĳ mÊ²i
ĠjËĪe xÊĮtÊ²
ĠsÊ²nÊ²ËĪi zu
ĠtrÊ²ina ÊĴËĪÉĽ
ĠsÊĮÊĮp ÉķËĪenÊ²ij
ĠstËĮan ÉĶvËĪi
z ino
ĠzÊĮmÊ²i d
v nËĪÉĽÉ¡ÉĶ
ĠpÊ²ËĪe tÊĥÊ²
sÊĮ vÊ²irÊĥ
xËĪo jÉª
ĠÉªspÊĮÉŃ nÊ²ËĪenÊ²iÉª
ĠbËĪÉĶ É²tÉķ
ĠËĮu tÊĥÉ¨m
sp uw
ĠznËĪÉĳ nÊ²ijÉª
ĠdËĪÉĳ nnymÊ²Éª
ĠkrasÊ²ËĪi vyx
ĠsudÊ²ËĪeb nyx
ĠvÊ²i brËĪÉĳ
ĠpÊĥ ÉĽm
ĠÊĮsnÊĮ vËĪÉĳnÊ²ijim
ĠÉŃand ÊĥËĪÉĳ
ĠÉŃÊ²i Ê
ĠÉŃÊ²iÊ Į
ĠmÊ²i É¡rËĪÉĳ
Ġm É¨
ĠzÊĮbÊĮÉŃÊ²ivËĪÉĳnÊ²ija mÊ²Éª
ĠÊĮbraÉķËĪÉĳ jtÊ²isÊ²
ĠÉªz ËĪu
pr o
ĠsÉŃa vÊ²ËĪÉĳ
ĠbÉŃÊ²ËĪi skÊĮ
ĠÉĽÉŃÊ²iktrËĪo nnyjÉª
tsËĪyÊĮ nnÊĮvÊĮ
ĠprÊĮda vËĪÉĳtÊ²
ĠkËĪo ÊĴÊĮ
ĠX V
nÊ²ËĪi ja
kÊĮm mu
Éķi ku
tÊĥÊ²i vËĪyx
ĠÊĮtÊ²ËĪe ÉŃÊ²ÊĮ
bÊ²ËĪi tÊ²iÉŃÊ²Éª
Ġupra vÉŃÊ²ËĪenÊ²ijim
ĠznËĪÉĳ jiÊĥ
ĠsvÊĮ ËĪÉµm
ĠpËĪÉĳ vÊ²iÉŃ
ĠnËĪÉĳ trÊ²i
lËĪÉĽ t
ĠzÊĮpÊĮ mÊ²inËĪÉĳ
m nÊ²ËĪe
tÊĮtÊĥÊ²nÊĮ vÊĮ
st ranÊ²ËĪi
ĠsuÉķistvÊĮ vËĪÉĳnÊ²ija
É¡rÊ²ËĪe va
Ġuda ÉŃÊ²ËĪe
ĠtÊĥÊ²ËĪuv stvujit
ĠvÊ²ËĪe rÊ²i
ĠzanÊ²ËĪÉĳ tÊ²ijÉª
ĠrÊĮstvÊĮ rÊ²ËĪi
ĠrËĪodstvÊ²i nnÊ²ikÊĮf
rËĪÉĽd É²Ê²ÉĶ
ĠmËĪÉĳÉŃÊ²in kÊĮja
ĠnÊĮtÊĥÊ²a ÉŃËĪosÊ²
Ġraz bÊ²ËĪi
tf Ê²ÉĽr
ĠxËĪÉ¨ ba
ĠsÊĮvrÊ²imÊ²ËĪe nnÊĮja
ĠÉ¡ rËĪÉĽ
rÊĴa vÊ²ËĪe
É¡ ÉŃÊ²ËĪÉª
ĠÉª nËĪojÉª
ĠsvÊ²a tËĪovÊĮ
ĠzËĪÉĳftrÊĮ k
ĠstrËĪo i
Ġx tsËĪÉĶ
ĠstrËĪÉĳ xa
ĠdËĪotÊĥÊ²i rÊ²Éª
Ġpr ËĪy
ĠxÊĮrÊĮktÊ²irÊ²ËĪisÊ²tÊ²i ka
ĠkÊĮmpÉŃÊ²ik tËĪu
ĠzÊĮra ÊĴËĪÉĽnÊ²ija
ĠÉŃÊ²i pÊ²i
ĠuÉ¡ ÉŃËĪom
ĠÉªndÊ²ivÊ²idu ËĪÉĳÉŃnyj
ĠvysËĪo kÊĮm
ĠpÊĮdËĪo brÊĮ
ĠtÉĽrËĪÉĽ É²Ê²ÉĽ
v dÊĮ
ĠÉĽkspÉŃua tËĪÉĳtsyju
Éķa j
izËĪo ÉŃÊ²ÊĮ
ĠmÊĮksÊ²imËĪÉĳ ÉŃnÊĮj
Ð¾ Ð½
ĠÉŃÊ²ËĪe sa
Ġku zËĪo
mÊ²i ÉŃ
ĠÊĥkËĪoÉŃ nÊ²ikÊĮf
vÊ²idÊ²ËĪe nÊ²ij
kËĪÉĳzÊĮ nÊĮ
stËĪÉ¨tÊĥ nÉĽ
ĠskËĪorÊĮ stÊ²jju
ĠtsÉĶ ËĪÉĶ
ĠjËĪÉĽd nÉĽj
ĠtÊĥ Ê²ËĪÉµm
ĠmÊ²a s
ÉŃËĪo j
Ġtsy ntrÊĮ
Ġr ÉĽk
Éķi na
Ġf ËĮÉĽ
ĠfÊ²idÊ²irËĪÉĳ ÉŃnÊĮj
nÊ²ËĪi ka
Ġy our
ĠpÊĮtÊ²i rÊ²ËĪÉĳtÊ²
ĠYou Tube
ĠprÊĮda vÊ²ËĪets
Ġ5 7
m ÉĽj
ĠprÊ²ËĪe mÊ²iÉª
ĠdÊĮ srËĪo
ĠrÊ²iÉ¡Ê²iËĪo n
ĠsÊĮtrËĪudnÊ²i tÊĥÊ²istvÊĮ
ĠspÊ²ËĪi ny
ĠÉ¡Ê²ipsÊĮ kar
ĠmËĪusÊĮ ra
ĠrÊĮsÊ²sÊ²ËĪij skÊĮja
Ġra ÉķËĪÉµ
ĠusÉŃËĪu É¡ÊĮmÊ²Éª
ĠÉĽpÊ²i zËĪo
t rÉĶ
ÉŃ tÊĮ
kËĪo vyj
ĠzÊĮ nÊ²i
ĠtÊĥÊ²ËĪÉĳst nÊĮvÊĮ
ĠrÊĮ tsyÊĮnËĪÉĳ
zÊĮ pËĪÉĳ
ĠsÊ²nÊ²ËĪe k
ĠmajnkrËĪÉĳ ft
Ġ1 10
tÊĥÊ²ËĪÉĳ k
tËĪu jÉĽ
zÊĮvÊĮ ja
ĠnÊ²itÊĥÊ² tËĪo
da r
ĠzapËĪÉĽv É²Ê²a
i ve
ĠbÊ²ËĪe ÉŃ
j skÊĮja
ĠpÉĶtstËĪa vÊ²ÉĽ
ĠfÊ²ËĪiÉŃ mÊ²i
Ġnaj dÊ²ËĪitÊ²i
ĠÊĮÊĴy dËĪÉĳtÊ²
T E
n Ê²ËĪÉµm
jjËĪe ru
t nËĪo
Ġkam nÊ²ËĪej
rËĪo za
tÊ²i na
ĠmÊ²itÊĮ ÉŃÉŃÊĮ
8 9
ĠprÊĮsmËĪo tr
ĠprÊ²ËĪintsy pu
ĠÉªndÊ²ivÊ²idu ËĪÉĳÉŃnyx
ĠÉª ËĪo
ĠvÉŃËĪÉĳ ÊĴnÊĮstÊ²
ĠpËĪÉĶt ÉĽm
ĠÉŃÊ²ËĪitÊĥÊ²nÊĮ m
ÉŃÊ²i ny
ĠprÉ¨ vËĪat
Ġs wu
ÉķËĪe nnyjÉª
bÊĮk tÊ²ÉĽ
ĠprËĮÉĶfÉĽ sjÉĶnËĪa
ĠdÊĮÉ¡ÊĮvËĪo rÊĮm
ĠpÉĶvÊ²ËĪÉĽ dÊĳaw
ĠÉĽffÊ²ËĪe ktÊĮf
ĠprÊ²ËĪesssÉŃËĪuÊĴ bÊ²i
Ġc asino
Ġras stËĪÉĳ
nÊ²ËĪi f
ĠvËĮÉ¨kÉĶ nÉ¨
ĠnÊĮxÊĮdÊ²ËĪi ÉŃsÊ²ÊĮ
ĠÉ¡ÊĮ spÊ²i
Ġvi dËĪÉĽÉĶ
rÊĮ sÊ²tÊ²Éª
s ÉĽk
ĠrËĪÉĳ nnÊ²ij
vÊ ĳ
ĠrÊĮ ÊĴdÊ²ËĪenÊ²iÉª
ĠtÊ²iÉŃÊ²ivÊ²ËĪizÊĮ r
ÊĴËĪÉĳ nÊ²ijÉª
ĠÊĳim ÉŃÊ²i
stËĪo vÊĮ
ĠÉªzrËĪÉĳ i
ĠspÊ²itsy ËĪÉĳÉŃnym
juÉķi mÊ²isÊ²ÊĮ
ĠmËĪu kÊ²Éª
ĠvÉ¨ mjËĪa
ËĪo b
pÊ²i tsÊĮ
ĠvËĪÉĳ n
ĠdËĪo rÊĮvÊĮ
ĠspÊ²ËĪekt r
ow n
kÉŃËĪÉĳdy vÊĮjut
ĠnËĪovÊĮ stÊ²
ĠprËĪÉĳvÊ²iÉŃÊĮ mÊ²Éª
ĠnÊ²i xvËĪÉĳ
ĠrÊ²iÊĮÉŃÊ²i zËĪovÊĮ
ĠvÉ¨stËĪar tÊĥÉ¨
ÉŃ tÊ²ËĪe
ĠÉĽffÊ²iktÊ²ËĪiv nym
ĠkËĪÉĶ É²Ê²ÉĽts
ĠvËĪo in
ĠdÊĮsÊ²tÊ²ËĪi k
ĠtÊĥÊ²ËĪÉĳst nyjÉª
r p
ĠpÊ²irsÊĮ nËĪÉĳÉŃ
ĠpÊĮÉŃ É¡ËĪoda
ĠÊĴËĪÉĳ rÊ²i
Ġa ÉŃtËĪÉĳ
ĠprÊĮ ÊĮnÊĮÉŃÊ²i
ĠÉĽÉŃÊ²i mÊ²ËĪenta
ĠrÊ²i ÊĥËĪÉĳjit
Ġza dÊ²ËĪerÊĴy
ĠsvÊĮbËĪo dnÊĮvÊĮ
ĠÊĮs ÉŃa
ĠpÊĮtsyjËĪe nty
vËĪo k
ĠvÊ²ËĪÉĽÅĭkÊĥÉĶ ÉķtÉķ
ĠpÊĮÉŃÊĮvÊ²ËĪi na
ĠpÊĮbËĪo tÊĥÊ²nyjÉª
ĠbÊ²iÉŃÊĮ rËĪu
e y
Ġak tÊ²ËĪer
ĠpÊĮzvËĪo ÉŃÊ²ÊĮt
8 6
ËĮÉĽ nËĪÉĽr
ĠsÊĮmÊĮu pra
ĠpÉŃÊ²ËĪi tka
Ġvy stupÉŃÊ²ËĪenÊ²ija
Ð¾Ð º
Ġ9 00
ĠdÊĮ stavÉŃÊ²ËĪÉĳ
dÊĳ ËĪawu
ĠrÊĮzvÊ²i vËĪÉĳtÊ²
f in
ĠkÊĮ ka
ĠËĪa d
at e
nÊĥ ËĪy
b Ê²ÊĮtsÊĮ
ĠdÊĮpÊĮÉŃnÊ²ËĪi tÊ²iÉŃnÊĮjÉª
ĠÊĮts tu
nÊ²ËĪe nnyjÉª
ĠnÊ²ibÉŃÊĮÉ¡ÊĮ prÊ²iËĪja
kÊĮ ntËĪÉĳ
ĠsÉŃËĪÉĳ d
ĠsÊ²irÊ²ËĪe brÊ²ÊĮ
ĠpÊĮÉ¡ÊĮvÊĮrÊ²ËĪi m
ÉŃkÊĮ mÊ²Éª
ĠmÊ²inÊ²imËĪÉĳ ÉŃnyj
sk Ê²ËĪe
ĠdÊĮ kazËĪÉĳtÊ²
ĠvÊ²ËĪe ra
ĠkÊĮta ÉŃËĪoÉ¡Ê²i
st ËĪÉĶÉķtÉķi
ĠdÊĳÉĽf tÊĥËĪÉ¨
ĠmÊĮskËĪof skÊĮvÊĮ
ĠrÊĮsÊ²sÊ²iËĪja n
ĠÉ¡ÉŃÊĮ bËĪÉĳ
ĠËĮi ntÉĽrnËĪÉĽ
ĠËĪopy tnyjÉª
ĠÉ¡ÊĮ zdËĪu
ĠÊĮ sÊ²i
ÉŃÊĮÉ¡ÊĮ m
ĠdÊĳËĪi Éķaj
ĠÊĥa É¡Ê²ËĪÉª
ĠzÊĮsÊ²i dËĪÉĳnÊ²ija
ĠÉĶb jËĪa
ĠÉŃÊ²ËĪi trÊĮf
ĠsËĪu xÊĮ
tÊ²ËĪi tÊ²sÊ²ÊĮ
ĠnÊ²ËĪi skÊ²ij
ĠprÊ²ivÉŃÊ²i tÊĥÊ²ËĪenÊ²ija
ĠtÊ²i ra
ĠnÊĮru ÊĥËĪÉĽnÊ²ijim
ĠÉ¡Ê²ËĪi dra
ed ia
ĠvÊ²ËĪi dÊĮmÊ²Éª
pÊ²i dÊ²ËĪi
ĠxÊĮ dÊ²
dËĪa mi
ĠnÊ²ij rÊĮ
vÊ²i ÉŃsÊ²ÊĮ
tÊ² tÊ²Éª
Êĥ kÊ²ËĪe
ĠkÊĮn sÊ²isÊ²tÊ²ËĪe
Ġu sËĪÉĳ
ĠrÊ²i daktÊ²ËĪi
ĠmÊĮbÊ²ËĪi ÉŃnyj
Ġz zËĪÉĳ
ĠpÊĮdkËĪo rm
ĠrÊ²iÊĮÉŃÊ²i zÊĮvËĪÉĳtÊ²
ĠmËĪoÉķ nÊĮstÊ²jju
tu s
ĠtÊĮ tu
ĠÊĮbÊĮ snÊĮ
ĠzvÊĮ nÊ²ËĪitÊ²i
ĠnÊ²isÊĮmnÊ²ËĪe nnÊĮ
ĠdËĪumÊĮ jitÊ²i
ĠznËĪajdÊĳÉĽ Êĥ
sÊ²ËĪe ÉŃ
ĠÉ¡ubÊ²irnËĪÉĳ tÊĮr
É¡ËĪÉĳ n
Ġ9 9
ic al
ĠrÊĮsprÊĮstra nÊ²ËĪenÊ²ija
ĠprÊ²i t
ĠrËĮÉĶspÉĶ tÊĥËĪÉĽ
ĠdaÉŃnÊ²ËĪej ÊĥyvÊĮ
ĠËĮÉĶbÉĶv Ê²ËĪÉĶ
ĠvvÊ²i dËĪu
ĠbËĮÉĽspÊ²ÉĽtÊĥËĪÉĽ É²stfa
ĠkrÊĮ ji
ĠÊĮ ktÊ²ËĪÉĳbrÉª
ĠnÊĮpra vÉŃÊ²ËĪenÊ²ij
ĠpÊĮ sa
ku ÉŃy
Êĥy f
ĠkrÊĮsnÊĮËĪja r
Ġu kËĪu
ĠvËĪoj sk
tÊ²ËĪi tÊĥÊ²iskuju
ĠvËĪystÊĮ fkÊ²Éª
ĠmÊĮÉŃÊĮ dËĪÉĳja
Ġa kËĪu
Ġak tsyÊĮnÊ²ËĪe
ĠpÉĶ zvËĪÉĶ
bÊ²ËĪi tÊ²i
ĠrËĪu brÊ²i
tÊĥÊ²ËĪe nnyjÉª
Êĥ tËĪÉĳ
ĠsÊ²nÊ²ËĪi tsÊĮ
ĠÉ¡ ÊĴËĪÉĽ
fËĪo tÊĮ
ĠsÊĮÊĮru ÊĴËĪÉĽnÊ²ija
ĠÊĳËĪim nÊ²ijÉª
ĠtarÊ²ËĪi f
Ġna pËĪÉĳ
Ġvy dvÊ²i
ĠkrÊ²idÊ²ËĪi tÊĮf
ĠbËĪÉĳ nkÊĮm
ĠfÊĮrmÊ²irËĪu jitsÊĮ
ĠÉ²Ê²ÉĽzv ËĪÉ¨klÉĽ
ĠkrËĪÉĳ ju
Ġz rÊ²ËĪÉĳ
ĠpÊĮ kËĪoj
rËĪÉĳ tÊĥÊ²ivÊĮ
ĠËĮuÊĴÉĶn dÊĳËĪÉĽÉ²Ê²a
ĠvËĪyÊĥ ÊĥyvÊĮ
ĠrÊ²i ËĪÉĳÉŃnyx
ĠpËĮa ra
ĠvzÊĮimÊĮ ÊĮtnÊĮ
ĠtrÊ²i uÉ¡ËĪoÉŃ
vËĪÉĳ t
ĠÉªndÊ²ivÊ²iduËĪÉĳÉŃ kÊ²Éª
Ġu zËĪÉ¨
ĠÊĮtvÊ²i tÊĥÊ²ËĪÉĳtÊ²
ĠbÉĽÉ² dÊĳËĪÉĽmÉ¨
ĠrÊ²i ËĪÉĳÉŃnÊĮj
ĠpÉŃÊĮ dËĪof
ĠsvÊ²idÊ²ËĪe tÊ²iÉŃstva
ĠrÊ²ikÊĮmÊ²indËĪÉĳ tsyj
Ġvy xÊĮdÊ²ËĪitÊ²
Ġh a
kÊĮ tËĪo
ĠkaÉŃËĪo rÊ²ij
ĠÊĮptÊ²imËĪÉĳ ÉŃnyj
ĠÊĮbratÊ²ËĪi ÉŃsÊ²ÊĮ
ĠkÊ²itËĪÉĳ jÉª
nt rÊ²ËĪi
ĠustanËĪo vÊ²itÊ²i
Ġsu pÊ²i
ĠdyxËĪÉĳ nÊ²ija
ĠdvÊĮ rÊ²ËĪe
mÊĮ sk
ĠpËĪo vÊĮ
ĠtÉķ ËĪawa
ĠËĪopu xÊĮÉŃÊ²Éª
ĠÉªntÊ²ÉĽrfÊ²ËĪe js
ĠkÉŃÊ²ËĪe ja
ÉĶvËĪa wÉĶ
ĠÊĮbrÊĮzÊĮvËĪÉĳ tÊ²iÉŃnyx
ĠpÊĮdtvÊ²ir dÊ²ËĪitÊ²
ĠudËĪob nÊ²ijÉª
ĠnÊ²iprÊ²i d
Ñĭ Ð¹
ĠÊĮÉ¡rËĪom nyjÉª
ĠA u
pËĪa da
j nÊĮj
ĠÉķm Ê²ËĪÉĽ
ĠpÊ²i trËĪo
nÉĶ w
rÊĮ spÊĮ
ĠrÊ²i ÉŃjjËĪe
ĠprÉĶÉ¡rËĪa mu
f ja
ĠamÊ²ËĪerÊ²i kÊ²Éª
rËĪu juÉķijÉª
ĠprÉĶjËĪÉĽ ktu
ĠvËĪyj dÊ²it
Êĥy nËĪÉĳ
ĠpÉŃanÊĥËĪÉĽ t
ĠapÊ²iÉŃ sÊ²ËĪi
Ġza É¡
ĠmÊĮÉ¡Ê²i strËĪÉĳ
ĠdËĪa jÉĽ
ĠÉĶp ËĪiÉ²Ê²ÉĽ
ĠÊĮpÉķËĪestvÊ²i nnÊĮj
ĠkÊĮÉŃ kuÉŃÊ²ËĪÉĳ
ĠkÉŃÊ²ËĪi mÊĮ
tÊ²ËĪe ra
Ġpar tÊ²nÊ²ËĪÉµ
ĠÐ ł
ÉķÉĶ ÅĭÉ¡
sÊ²ËĪi ja
ĠsÊ²i ÉŃÊ²ikËĪo
ĠrazÉŃÊ²ËĪi tÊĥÊ²nym
ts ËĪami
ĠtÊ²iÉŃÊ²ifËĪo ny
ĠpÊĮsÉŃÊ²ËĪed nÊ²ÊĮja
ĠÊĮÉ¡ nÊ²ËĪe
ÊĴÊĮ ja
kÊĮ vyjÉª
ĠkrËĪÉĳ ska
ĠmÊ²ËĪenÊ²idÊĴy r
Ġna stËĪo
ĠstËĪÉĳtu sa
dnÊĮ mu
ĠS p
tsËĪyÊĮ nnyx
ĠbÊ²i zna
ĠbËĪÉĳ nku
ĠprÊ²idpÊĮtÊĥÊ² tÊ²ËĪi
m er
ĠsÊĮÊĮtvÊ²ËĪetst vuju
ĠkÊĮÉŃÊ²ËĪitÊĥÊ²i stvu
ĠÉ¡ÊĮtËĪo vÊ²ÊĮt
ĠÊĮbjjËĪe ktÊĮm
ĠkrÊĮ ssËĪo
ĠdËĪu Êĥu
ÊĴËĪy k
ËĪo t
Ġsna b
ĠvËĪa s
ĠpÊĮÊĮ Éķ
ĠpÊĮpuÉŃÊ²ËĪÉĳ rnym
ntsËĪÉĽ É¡ÉĶ
ĠvËĪÉĳ ÊĴnuju
ĠÊĮpÊ²irËĪÉĳ tsyju
ĠsÊĮ ÉŃÊ²i
ĠÊĮr tÊĮ
ĠnËĪa dal
ÊĴdÊ²i nËĪy
ĠÊĮtkrËĪy tÊĮ
ĠtÊĮ nËĪÉĳ
ĠuspÊĮ kËĪo
ĠmuÊĥ skËĪoj
ĠpÊĮbËĪo tÊĥÊ²nyx
ĠÊĮddÊĮx nËĪutÊ²
ĠsÊĮtrËĪudnÊ²i tÊĥÊ²ÊĮ
ĠzbËĪor kÊ²Éª
ĠaÊĳir bajd
j p
ku s
ĠmÉĶÊĴlËĪi vÉĽ
al ËĮi
Ñĩ Ð°
ĠvËĪoÉŃ ny
nÊĮstÊĮËĪja Éķimu
ĠÊĮbËĪo jif
ĠdËĮÉĶtÉ¨tÊĥËĪÉĶ ntsÉĽ
v nÉĽj
ĠvÊ²itamÊ²ËĪi na
tÊĥËĪÉĽ É²Ê²ÉĽm
k tsjÉĽ
ĠzËĮa ÉĶ
ĠnÊ²ËĪe bÊĮ
ĠÉªzmÊ²inÊ²ËĪi ÉŃÊĮsÊ²
Ġska ÊĴËĪu
pÊ²i tËĪÉĳ
ĠprÊĮpÊ²ËĪi sÊĮ
Ġm in
ĠnÊ²i z
ĠprËĪo tÊĥÊ²nÊĮsÊ²tÊ²Éª
ĠÊĮ tÊĥÊ²ÊĮrÊĮ
ĠËĪuÉŃÊ²i tsu
ĠuvÊ²idÊĮm ÉŃÊ²ËĪenÊ²ija
ĠprÊ²imÊ²jjËĪe rmÊ²inÊ²ËĪi
ĠprÊ²isËĪutstvÊ²i jÉª
ĠÊĮstavÉŃÊ²ËĪÉĳ tÊ²
ĠdÊĮ ktËĪora
ĠtÊĥÊ²u ÊĴËĪo
vid w
ĠkËĮÉĶ lÉĽ
Ġzm Ê²ÉĽ
ĠÉŃËĪutÊĥÊ² ÊĥÊĮja
Ġtru d
ĠpÉŃËĪo skÊĮ
ĠÉķ ËĪil
kËĪo vÊĮvÊĮ
pËĪÉĶ l
ĠsËĪÉĳnktpÊ²itÊ²irbËĪu rÉ¡a
ĠstÊĮ rÊ²i
ĠzËĪoÉŃÊĮ tÊĮ
ĠfÊĮ nta
ĠprÊĮfÊ²ËĪessÊĮ r
ĠÊĮsuÉķist vÉŃÊ²ËĪÉĳjit
ĠzvÊ²ÉĽ Åĭk
ĠrËĮÉĽ prÉĽ
ĠprÊ²i zyvËĪÉĳ
to n
ĠbÉŃÊ²ËĪi ÊĴ
ĠaktÊ²ËĪivnÊĮ vÊĮ
ĠzaÉ¡rËĪu skÊ²Éª
ĠspÉĶtkËĪa É²Ê²a
ĠpËĪÉĶ mÉĶts
ĠÉĽvÊĮ ku
ĠukËĪÉĳzÊĮ nnyjÉª
ĠkÊĮnkrÊ²ËĪet nyx
É¡r ËĮa
ĠÊĮbratÊ²ËĪi tÊ²isÊ²
ĠËĮÉĽÅĭ kËĪÉĳ
n nÉ¨x
ĠtÊĮ ÉŃkÊĮ
ĠprÊ²i dÊ²ËĪet
Ġsup sÊ²ËĪi
ËĮi k
Ġpa sÊ²sÊ²ËĪi
ĠprÊ²imÊ²i nÊ²ËĪitÊ²
rÊ²ËĪen tsyja
ĠËĪÉĳftÊĮ rÊĮf
Ġd Ê²u
ĠkÊĮn fÊ²ËĪe
ĠËĮÉĶ tÊĥÉĽ
ĠvybÊ²irËĪÉĳ jim
ĠsËĪozdÊĮ na
ĠpÊĮ stËĪu
Ġ5 2
ĠsÊ²ËĪi nÊ²ij
c tion
ĠnÊ²i i
ĠkÉĶlËĪÉĽj nÉĽ
ĠËĪÉªÉķu t
sÊ²tÊ²ËĪi t
Ð½ Ñı
mÊ²i É¡rËĪÉĳ
ĠspÊ²i rt
ÉĽ Éķ
ĠÊĮ skÊĮr
ĠÉªmmunÊ²i tÊ²ËĪeta
ĠpËĪo tÊĥÊ²i
ĠusÉŃËĪu É¡a
ĠtÊ²ËĪi pu
ĠdÊĮkazËĪÉĳ tÊ²iÉŃstva
ĠkÊĮbÊ²i nÊ²ËĪetÊ²i
ĠdÊ²ijstvÊ²ËĪi tÊ²iÉŃnÊĮsÊ²tÊ²Éª
ÊĥËĪÉĳ jutsÊĮ
ĠprÊ²iËĪja tnyj
ĠudÊĮ brÊ²ËĪenÊ²ija
ĠvÊĮ ÊĥÉŃÊ²ËĪÉª
ĠpÊĥËĮÉĽ ka
ĠÊĥ pit
ĠËĪÉĽ l
sÊ²tÊ²i t
Ġva rtËĪÉĶÉķtÉķi
fÊĥy mÊ²Éª
ĠÊĮtnËĪosÊ²ÊĮ t
ĠudËĪobnÊĮ jÉª
ĠsÊĮprÊĮtÊ²i vÉŃÊ²ËĪenÊ²ijÉª
tsËĪÉ¨j nÉĽj
ĠprÉĶdËĪu ktsji
p ÊĥÉ¨
ĠuspÊ²ËĪe ÉŃ
ĠkËĪupÉŃÊ²Éª prÊĮdËĪÉĳÊĴÉª
ĠzÊĮvÊĮ d
ĠkËĪÉĳ bÊ²iÉŃ
ĠÊĮdnÊĮznËĪÉĳ tÊĥÊ²nÊĮ
ĠprÊ²idÊ²ËĪe ÉŃy
stËĪÉĶ mpi
mËĪÉĳ ja
ĠÉªn jjËĪe
ĠpÊĮnËĪÉĳdÊĮ bÊ²ÊĮtsÊĮ
ĠÉŃËĪo Êĥku
ĠsÉŃËĪutÊĥÊ²ÊĮ ja
Ġtsy tËĪÉĳ
ĠËĪi lÉĶÉķtÉķ
Êĳ ÉĶm
ĠvÊ²ËĪe tra
[...]
