{"!":0,"\"":1,"#":2,"$":3,"%":4,"&":5,"'":6,"(":7,")":8,"*":9,"+":10,",":11,"-":12,".":13,"/":14,"0":15,"1":16,"2":17,"3":18,"4":19,"5":20,"6":21,"7":22,"8":23,"9":24,":":25,";":26,"<":27,"=":28,">":29,"?":30,"@":31,"A":32,"B":33,"C":34,"D":35,"E":36,"F":37,"G":38,"H":39,"I":40,"J":41,"K":42,"L":43,"M":44,"N":45,"O":46,"P":47,"Q":48,"R":49,"S":50,"T":51,"U":52,"V":53,"W":54,"X":55,"Y":56,"Z":57,"[":58,"\\":59,"]":60,"^":61,"_":62,"`":63,"a":64,"b":65,"c":66,"d":67,"e":68,"f":69,"g":70,"h":71,"i":72,"j":73,"k":74,"l":75,"m":76,"n":77,"o":78,"p":79,"q":80,"r":81,"s":82,"t":83,"u":84,"v":85,"w":86,"x":87,"y":88,"z":89,"{":90,"|":91,"}":92,"~":93,"¡":94,"¢":95,"£":96,"¤":97,"¥":98,"¦":99,"§":100,"¨":101,"©":102,"ª":103,"«":104,"¬":105,"®":106,"¯":107,"°":108,"±":109,"²":110,"³":111,"´":112,"µ":113,"¶":114,"·":115,"¸":116,"¹":117,"º":118,"»":119,"¼":120,"½":121,"¾":122,"¿":123,"À":124,"Á":125,"Â":126,"Ã":127,"Ä":128,"Å":129,"Æ":130,"Ç":131,"È":132,"É":133,"Ê":134,"Ë":135,"Ì":136,"Í":137,"Î":138,"Ï":139,"Ð":140,"Ñ":141,"Ò":142,"Ó":143,"Ô":144,"Õ":145,"Ö":146,"×":147,"Ø":148,"Ù":149,"Ú":150,"Û":151,"Ü":152,"Ý":153,"Þ":154,"ß":155,"à":156,"á":157,"â":158,"ã":159,"ä":160,"å":161,"æ":162,"ç":163,"è":164,"é":165,"ê":166,"ë":167,"ì":168,"í":169,"î":170,"ï":171,"ð":172,"ñ":173,"ò":174,"ó":175,"ô":176,"õ":177,"ö":178,"÷":179,"ø":180,"ù":181,"ú":182,"û":183,"ü":184,"ý":185,"þ":186,"ÿ":187,"Ā":188,"ā":189,"Ă":190,"ă":191,"Ą":192,"ą":193,"Ć":194,"ć":195,"Ĉ":196,"ĉ":197,"Ċ":198,"ċ":199,"Č":200,"č":201,"Ď":202,"ď":203,"Đ":204,"đ":205,"Ē":206,"ē":207,"Ĕ":208,"ĕ":209,"Ė":210,"ė":211,"Ę":212,"ę":213,"Ě":214,"ě":215,"Ĝ":216,"ĝ":217,"Ğ":218,"ğ":219,"Ġ":220,"ġ":221,"Ģ":222,"ģ":223,"Ĥ":224,"ĥ":225,"Ħ":226,"ħ":227,"Ĩ":228,"ĩ":229,"Ī":230,"ī":231,"Ĭ":232,"ĭ":233,"Į":234,"į":235,"İ":236,"ı":237,"Ĳ":238,"ĳ":239,"Ĵ":240,"ĵ":241,"Ķ":242,"ķ":243,"ĸ":244,"Ĺ":245,"ĺ":246,"Ļ":247,"ļ":248,"Ľ":249,"ľ":250,"Ŀ":251,"ŀ":252,"Ł":253,"ł":254,"Ń":255,"¾Ð":256,"Ð¾Ð":257,"Ñģ":258,"ÑĢ":259,"½Ð":260,"µÐ":261,"°Ð":262,"ÐµÐ":263,"Ð°Ð":264,"¸Ð":265,"ĤÐ":266,"ÑĤÐ":267,"Ñĥ":268,"Ð¿":269,"Ð¸Ð":270,"Ð½Ð":271,"Ð²":272,"Ñı":273,"Ñĭ":274,"Ðº":275,"Ð»":276,"ĠÐ¿":277,"ÑĮ":278,"ÑĢÐ":279,"ĠÑģ":280,"ĠÐ²":281,"Ð´":282,"ĠÑ":283,"Ð¼":284,"¸Ñ":285,"°Ñ":286,"ĠÐ½Ð":287,"Ð¾Ð²":288,"µÑ":289,"ĠÐº":290,"¾Ñģ":291,"¾Ñ":292,"Ð¸Ñ":293,"ÐµÐ½Ð":294,"Ð°Ñ":295,"ĠÐ´":296,"Ð¾Ð»":297,"ĤÑĮ":298,"Ð±":299,"½Ñĭ":300,"ÑĢÐ°Ð":301,"Ð¾Ð´":302,"³Ð":303,"ÐµÑ":304,"Ð¾Ð¼":305,"Ð·":306,"ÑĢÐµÐ":307,"ĠÐ¼":308,"ÑĤÐ¾":309,"µÑģ":310,"ÑĥÑ":311,"ÐµÐ»":312,"Ð¾Ñ":313,"Ð¾Ñģ":314,"Ð¾Ð±":315,"³Ð¾":316,"ÐµÑģ":317,"Ð¾Ð¹":318,"ĠÐ±":319,"Ð°Ð½Ð":320,"Ð°Ð»":321,"ĠÑĤ":322,"°Ñģ":323,"¸Ñı":324,"ĠÐ¸Ð":325,"ĠÐ·":326,"Ð°Ðº":327,"ÐµÑĤ":328,"Ñħ":329,"Ð¶":330,"ÑĤÐ²":331,"Ð»Ð":332,"ÐºÐ":333,"ÑģÑı":334,"¸Ñģ":335,"Ð³":336,"µÑĢ":337,"Ð½Ñĭ":338,"ĠÑĩ":339,"ĠÑĥ":340,"ÐµÐ½":341,"ie":342,"ÐµÐ¼":343,"ĠÐ¿Ð":344,"ĠÐ½Ð°":345,"ĠÐ¿ÑĢ":346,"Ð¾Ð³Ð¾":347,"Ð°Ð¼":348,"İÑ":349,"ºÐ":350,"Ð¾ÑĤ":351,"Ð¾Ð¶":352,"Ð½Ð¾":353,"ÑĢÑĥ":354,"µÑĢÐ":355,"Ð»Ñı":356,"Ð¸Ñģ":357,"Ð¾Ð½Ð":358,"Ð¸ÑĤ":359,"ÐŁ":360,"Ð°Ð²":361,"ÐĴ":362,"ĠÑį":363,"ĠÐ¿ÑĢÐ":364,"Ð¹":365,"Ð¾Ðº":366,"Ð¾Ð³":367,"ÐµÑĢ":368,"ÑĤÐ¸Ð":369,"Ð¸Ð»":370,"ÑĤÐ¸":371,"µÑĤ":372,"Ð¸Ð¼":373,"ÑĪ":374,"ÑĤÑĮ":375,"ĠÐ½Ðµ":376,"ĠÐŁ":377,"ĠÐ³":378,"°Ñı":379,"ĠÐ»":380,"ÑģÑĤÐ²":381,"Ð¡":382,"ĠÐĴ":383,"Ð°ÑĤÑĮ":384,"Ð¾Ð»ÑĮ":385,"Ġp":386,"¸Ðµ":387,"Ð¾Ð¿":388,"âĢ":389,"ĠÐ¾Ð±":390,"¾ÑĢ":391,"ÐµÐ¹":392,"ĠÑĢÐ°Ð":393,"Ð°Ñģ":394,"ÐµÐ»ÑĮ":395,"Ð¾Ð½":396,"ÑĢÐµÐ´":397,"ÑĤÐ°":398,"¾ÑĢÐ":399,"Ð¸Ð½Ð":400,"ĠÐ²Ñĭ":401,"ĠÑģÑ":402,"Ġ-":403,"ÐµÐ´":404,"Ð¾Ð·":405,"Ñİ":406,"Ð°ÑĤ":407,"ÑĤÐµ":408,"Ð¸Ð²":409,"°ÑĢ":410,"Ġw":411,"ĨÐ":412,"ĠâĢ":413,"Ðļ":414,"ÑĤÐ¾ÑĢ":415,"ĠÐ¡":416,"Ð¾ÑĢ":417,"¾ÑĤÐ":418,"ÑģÑ":419,"ÅĤ":420,"Ðŀ":421,"ÐĿ":422,"ÐµÑĢÐ":423,"Ð¾ÑĢÐ":424,"ÑģÐº":425,"ÐµÐ½Ð¸Ñı":426,"Ð¸Ð¸":427,"½Ð¾Ð¹":428,"Ġs":429,"ÑĥÑĩ":430,"ĠÐ½Ð°Ð":431,"ĠÑģÑĤ":432,"ÑģÑĤ":433,"İÑĤ":434,"Ð°Ð½":435,"na":436,"ÐµÐº":437,"Ð¸Ñħ":438,"Ð°ÐµÑĤ":439,"Ð¾Ðµ":440,"ow":441,"Ð¾ÑĤÐ":442,"Ð°Ð·":443,"ĠÐļ":444,"ĠÑĢÐ":445,"Ġz":446,"Ñĩ":447,"Ð°ÑĢ":448,"ĠÐ¸Ð·":449,"Ð½Ð¸Ð":450,"½Ð¾Ð³Ð¾":451,"ĠÐĿ":452,"ÑĢÐ¾Ð²":453,"Ð°Ð´":454,"Ð»Ð¸":455,"Ð¼Ð":456,"ĠÐ¶":457,"ĩÐµÑģ":458,"ÄĻ":459,"ni":460,"Ð¸ÑĤÑĮ":461,"Ð¸Ð¹":462,"Ð¸Ð½":463,"Äħ":464,"cz":465,"ÐºÐ¸":466,"ÑĢÐ°Ñ":467,"Ð¸Ðµ":468,"ĠÐ½ÐµÐ":469,"ĠÑĦ":470,"ÑģÐ":471,"Ð´Ð":472,"ĠÑĩÑĤÐ¾":473,"ĠÐ¿Ð¾":474,"ch":475,"Ð¸Ð´":476,"Ðľ":477,"st":478,"Ġ1":479,"ĠÐŀ":480,"ĠÐ¿Ð¾Ð´":481,"ÐĶ":482,"ÑıÑ":483,"ÐµÐ½Ð¸Ðµ":484,"ra":485,"ÐĲ":486,"nie":487,"Ð¾Ñĩ":488,"ĠÐ´Ð»Ñı":489,"ĠÑĢÐ°Ð·":490,"rz":491,"Ð¾ÑģÑ":492,"Ġd":493,"Ðł":494,"Ðĺ":495,"ĠÐ¾ÑĤ":496,"Ð½Ð¾Ñģ":497,"ĠÑģÐ²":498,"Ð°Ð»ÑĮ":499,"Ð¾ÑģÑĤ":500,"ĠÐºÐ":501,"Å¼":502,"Ð¢":503,"ĠÐ±Ñĭ":504,"Ð¾Ð´Ð":505,"ÑĢÐ°Ð²":506,"»Ð":507,"Ã³":508,"Ġo":509,"ÑĥÐ´":510,"Ġt":511,"ÑĥÑİ":512,"ÐµÐ²":513,"Ð¸Ð·":514,"ÑĥÑĤ":515,"ÐµÐ³Ð¾":516,"Ð½ÐµÐ":517,"ĠÑĢÐµÐ":518,"ĠÑĤÐ°Ðº":519,"ĠÑģÐ»":520,"ĠÐ¿Ð¾Ð»":521,"Ġ2":522,"ÑĭÐ":523,"ĠÐľ":524,"ĠÐ¾ÑĤÐ":525,"ÑĤÐ¸Ñ":526,"ºÐ°":527,"Ð°Ð¶":528,"ĠÐĶ":529,"ÐµÐ½Ñ":530,"Ð°Ð»Ð":531,"ĠÐºÐ¾":532,"Ġ(":533,"ĠÂ":534,"Ð°Ð¹":535,"ÑĭÐµ":536,"ro":537,"ĠÐºÐ°Ðº":538,"Ð°Ð¼Ð":539,"ĠÑħ":540,"Â»":541,"ĠÂ«":542,"Ð½ÑĭÑħ":543,"Ð¼Ð¸":544,"Ð½ÑĭÐ":545,"ÑģÑĤÐ²Ð":546,"Ð½ÑĭÐµ":547,"Ġm":548,"ÑĭÐ²":549,"ÐµÐ½Ð½Ð":550,"ºÐ¸":551,"Ð¸Ðº":552,"ne":553,"ĠÐł":554,"ĠÐ¼Ð¾Ð¶":555,"»Ð¸":556,"ÑĨ":557,"Ġk":558,"ÐºÐ°":559,"ÑĢÐ°":560,"ĨÐ¸":561,"ÑĦ":562,"½Ð¾Ð²":563,"ÐµÐ·":564,"ĠÐ¸Ñģ":565,"İÑī":566,"ĠÐ¢":567,"ĠÐºÐ¾ÑĤÐ¾ÑĢ":568,"Ð³Ð":569,"Ġi":570,"ĠÐĺ":571,"ĤÐ¾Ð²":572,"ÅĽ":573,"ĠâĢĵ":574,"ĠÑģÐ¿":575,"ĤÐ¾Ð¼":576,"Ð°Ñı":577,"Ð°Ð½Ð¸Ñı":578,"ĠÐ¿ÑĢÐµÐ´":579,"ĠÑı":580,"sz":581,"Ð½Ð¾Ð³Ð¾":582,"Ġna":583,"ÐµÐ½Ð½Ñĭ":584,"Ð½Ð¾Ð¹":585,"ĠâĢĶ":586,"ÑĭÑħ":587,"ĩÐµÑģÐº":588,"ÑĢÐµÐ¼":589,"ĠÐĲ":590,"Ðķ":591,"ĠÑĢÐ°Ñģ":592,"Ð°Ð¼Ð¸":593,"ÑĤÐ°Ñ":594,"ĠÐ´Ð":595,"ÐºÐ¾":596,"Ð°Ð¿":597,"Ð°ÑİÑĤ":598,"Ðĳ":599,"ÑĢÑĭ":600,"le":601,"Ð°Ð½Ð¸Ð":602,"ĤÑĥ":603,"Ð½ÑĭÐ¹":604,"½Ð¾Ðµ":605,"ÑĤÐ¾Ð¼":606,"ÐµÑĩ":607,"Ġpo":608,"je":609,"Ð¸Ñĩ":610,"Ð´Ð°":611,"ĠÐ¸Ð»Ð¸":612,"ÑĢÐ¸":613,"ÑĥÐ¶":614,"ÐµÐ½ÑĮ":615,"ĠÐ½Ð°Ñ":616,"ÐºÑĥ":617,"ÐµÐ½Ð¸Ð":618,"Ð½Ð°Ð":619,"li":620,"ÐµÐµ":621,"ĠÐ¿Ð¾Ñģ":622,"ÐµÐ»Ð":623,"½Ð¾Ð¼":624,"ÑĭÐ¹":625,"¾Ñĩ":626,"Ð½Ð¾Ð²":627,"Ð¶Ð":628,"ny":629,"ar":630,"Ð°Ð³":631,"Ð¾ÐµÐ":632,"Ð°Ð±":633,"ĠÐ¾Ñģ":634,"dz":635,"ĠÑĨ":636,"Ð°Ñħ":637,"ÑĤÐ½Ð":638,"ÑĤÐ¸Ð²":639,"ĠÑĤÐ":640,"ÑıÑĤ":641,"Ðĵ":642,"¸ÑĤ":643,"Äĩ":644,"re":645,"µÑĢÐµÐ":646,"ÐµÑĤÑģÑı":647,"ĠÑĪ":648,"ĠÐ·Ð":649,"Ð²Ð":650,"ĠÐ·Ð°":651,"¼Ð":652,"ĠÐºÐ¾Ð¼":653,"ĠÐ¿ÑĢÐ¸":654,"ĠÐ¾Ð¿":655,"ĠÐĳ":656,"Ð¶Ðµ":657,"go":658,"ĠÐ¸Ð½":659,"Ð£":660,"ia":661,"Ġb":662,"ÑħÐ¾Ð´":663,"ĤÑĭ":664,"Ð°ÐµÑĤÑģÑı":665,"Ð»Ð°":666,"ĨÐ¸Ð¸":667,"»ÑĮ":668,"ĠÑįÑĤÐ¾":669,"ÑģÐµ":670,"ĠÐ¼Ð":671,"iÄĻ":672,"Ñī":673,"ĠÐ²Ñģ":674,"Ð°ÑĪ":675,"ĠÐ²Ð¾Ð·":676,"ÑĥÐ¿":677,"ÑĢÐ°Ð½Ð":678,"Ð°Ð½Ð¸Ðµ":679,"rze":680,"00":681,"Ð¾Ð¸Ð":682,"ÐĹ":683,"Ð»Ðµ":684,"ÑĢÐ°Ð·":685,"ÐµÐ¶":686,"ka":687,"Ð¸Ð»Ð":688,"ĠÐĿÐ":689,"Ð¾Ð»ÑĮÐºÐ¾":690,"ĠÐķ":691,"½Ñı":692,"er":693,"ĠÐ¿ÑĢÐ¾Ñ":694,"ĠÐ¸Ð¼":695,"ÑĥÐ¼":696,"Ð¸ÑĤÐµÐ»ÑĮ":697,"Ð¸Ð¼Ð":698,"ÑĥÐ»":699,"ĠÑĢÐ°Ð±":700,"ÑĢÐ¾Ñģ":701,"ÐµÑģÑĤÐ²":702,"Ð½Ð°Ñ":703,"ĠÐµÑģ":704,"ÐµÐ³":705,"Ġdo":706,"ÐµÐ±":707,"ÑĤÐµÑĢÐ":708,"ĠP":709,"Ð½Ð¾ÑģÑĤÑĮ":710,"ÐĽ":711,"ĠÐ¾Ð½Ð":712,"ÐµÑī":713,"Ð¾Ð»ÑĮÐ·":714,"ĠÐĵ":715,"ÑĥÑĪ":716,"la":717,"ÑĪÐ":718,"Ð½Ð°Ñı":719,"ÐµÐ¿":720,"Ġza":721,"ÐŃ":722,"ÑĤÑĥ":723,"½ÑĭÑħ":724,"½ÑĭÐ":725,"½ÑĭÐµ":726,"Ð°ÑĤÐµÐ»ÑĮ":727,"Ã³w":728,"ĠÑĢ":729,"Ð½Ð°":730,"ÑģÐ»":731,"ÑĥÑī":732,"ĠÐ±ÑĥÐ´":733,"Ð»Ð°Ñģ":734,"Ġa":735,"Ð¾Ð±Ñĭ":736,"ÑĢÑĥÐ³":737,"ĠÐ£":738,"ki":739,"ĠÐ»Ñİ":740,"½ÑĥÑİ":741,"owa":742,"ÑĢÐ°Ñģ":743,"ĠÐ¿Ð»":744,"Ð¾Ð»Ð":745,"Ð¾Ð´Ð°":746,"ta":747,"ÐµÐ½ÑĤ":748,"ÑĤÐµÑĢ":749,"Ð¾ÑģÑĤÐ°Ð²":750,"ĠÐ²Ð":751,"ĠÐĹ":752,"ÑĥÑģ":753,"Ð¸Ð»ÑĮ":754,"nia":755,"ĠÐµÐ³Ð¾":756,"ĠÐ½Ð¾":757,"ĠÐ¸ÑģÐ¿":758,"Ð¤":759,"ĠÐ¿Ð¾Ð¼":760,"ci":761,"ÅĤa":762,"ĠÑĤÐ¾":763,"or":764,"Ð§":765,"¸ÑĢÐ¾Ð²":766,"ĠÐŃ":767,"ĠÐ³Ð":768,"ĠÐºÐ¾Ð½":769,"Ð¸Ð±":770,"Ð¾Ð²Ð":771,"Ð½Ð¾ÑģÑĤÐ¸":772,"ĠÑĢÑĥ":773,"Ð½Ð¸Ðº":774,"ĠÐ¼Ð¾Ð¶Ð½Ð¾":775,"Ð½ÑĭÐ¼":776,"ĠÑģÐ¼":777,"ÑİÑ":778,"Ð°Ñĩ":779,"ĠÐ½Ð°Ñģ":780,"ĠÐ±Ð¾Ð»ÑĮ":781,"Ġ3":782,"°ÑĢÐ":783,"ĠÑģÐ°Ð¼":784,"ce":785,"½ÑĭÐ¹":786,"ĠS":787,"Ð½Ð¾Ðµ":788,"Ð½Ð¸Ñ":789,"Ñĳ":790,"Ð³Ð¾":791,"µÐ¼":792,"Ð¸ÑģÑ":793,"ĨÐ¸Ñı":794,"ko":795,"ÑģÑĤÐ²Ð°":796,"ÑĪÐµ":797,"ÐµÑĢÐ¶":798,"µÑĩ":799,"ĠÑģÐº":800,"¸Ñİ":801,"ĠÐ²ÑĢÐµÐ¼":802,"Ð½Ð¸":803,"Ġu":804,"wa":805,"ÑĥÑħ":806,"Ð»Ð¾":807,"ÑĥÐ±":808,"ja":809,"ĠÑĥÑĩ":810,"Ð°Ð»Ð¸":811,"µÑĪ":812,"ĠÑĩÐ°Ñģ":813,"Ġwy":814,"ÐµÐ½Ð¸":815,"no":816,"ĠÐ²ÑģÐµ":817,"Ð¾Ð³Ð´Ð°":818,"Ġje":819,"ÐµÐ½Ð½Ð¾":820,"Ð°Ð½Ð¾Ð²":821,"Ð½Ð¾Ð¼":822,"ĠÐ´Ð¾Ð»":823,"ĠÐ¿ÑĢÐ°Ð²":824,"¸Ð¼":825,"ÑıÐ·":826,"ĠÐĽ":827,"Ð¸Ñİ":828,"ÐºÐµ":829,"ĠÐ§":830,"Ð¾ÑĢÐ¼":831,"ĠÐ²Ð¸Ð´":832,"ĠW":833,"ty":834,"ĠĊ":835,"¸ÑĢ":836,"ĠÐ·Ð°Ðº":837,"ĠÐ¿ÑĢÐ¾Ñģ":838,"Ð¾Ñħ":839,"Ð»ÐµÐº":840,"ĩÐµÑģÑĤÐ²":841,"ĠÐ´Ð¾":842,"ĤÐ¾Ð±Ñĭ":843,"ÑĤÐ¾Ð±Ñĭ":844,"Ð°Ð»Ð°":845,"Ð¸ÑĩÐµÑģÐº":846,"Ġ20":847,"rzy":848,"da":849,"µÑĤÐµ":850,"mi":851,"ÐµÐ½Ð¸Ð¸":852,"Ð¾Ñī":853,"ĠÑįÑ":854,"ĠÑįÑĤ":855,"Ð´ÐµÐ»":856,"Ð»ÐµÐ½Ð¸Ñı":857,"ºÐ¾":858,"ÑİÑĩ":859,"Ð»Ð°Ð´":860,"ĠÐ¾Ð´":861,"ĠÐ¾Ðº":862,"¾ÑĤÐ²":863,"Å¼e":864,"ÐºÐ¾Ð²":865,"ĠÐ¼ÐµÑģ":866,"¾ÑĪ":867,"ÑģÐ¿":868,"te":869,"ĠÐ´ÑĢÑĥÐ³":870,"ĠÐ¶Ð":871,"Ð¾Ð´Ñĥ":872,"¸Ñĩ":873,"µÑħ":874,"ĠÐ¼Ð¾Ð¶ÐµÑĤ":875,"ĠÐ°Ð²":876,"ÑĢÐ°Ð¶":877,"Ġnie":878,"Ð»ÑİÑĩ":879,"ÑĢÐµ":880,"jÄħ":881,"ÐµÐ»Ð¸":882,"ÑĥÑĢ":883,"ĠsiÄĻ":884,"ĠÐ¾Ñĩ":885,"ĠÐ¿ÑĢÐµÐ":886,"Ð¸ÑģÑĤ":887,"ĠÐ¿Ð¾Ðº":888,"ĠÐºÐ¾Ð¼Ð¿":889,"ĠÐ¿Ð¾Ð²":890,"ĠÐ±ÐµÐ·":891,"ĠÑģÐ":892,"on":893,"Ð½Ð°Ñĩ":894,"ĠÐ¿ÐµÑĢ":895,"Ð°ÑİÑī":896,"ÐµÐ»Ñı":897,"Ð°ÑĤÑĮÑģÑı":898,"Ð¸Ð³":899,"¸ÑģÑ":900,"ĠM":901,"ĤÑĢ":902,"Ð¾Ð»ÑĮÐ·Ð¾Ð²":903,"ĠÑĤÐ¾Ð»ÑĮÐºÐ¾":904,"..":905,"Ð½Ðµ":906,"ĠÐ¿Ð¾Ð»ÑĥÑĩ":907,"µÐ½Ð":908,"ĨÐ¸Ð¾Ð½Ð":909,"¾ÑĤ":910,"ĠÑĥÑģÑĤ":911,"ĠÐ¸Ñħ":912,"ĠC":913,"Ð½ÐµÐ½Ð":914,"ĠÐ½Ð°Ð¿":915,"Ð°ÐµÐ¼":916,"ÑĢÑı":917,"ĠÐ±Ð¾Ð»":918,"ÑĢÐ°Ð½":919,"Ð¸Ð½Ð°Ð":920,"ĠÐ¿ÑĢÐ¾Ð²":921,"ma":922,"ÑĥÐ»ÑĮ":923,"ÑĬ":924,"ĠÐ¾Ð½":925,"ÑĥÑİÑī":926,"ĠÐ³Ð¾":927,"ĠÑģÐ¾Ð±":928,"Ð¸Ð¿":929,"ÑĢÐµÐ±":930,"¸Ñħ":931,"ĠÐ¾ÑĢÐ":932,"Ð¾Ð´Ð¸ÑĤ":933,"ĠÐķÑģ":934,"en":935,"Ð²Ð»Ñı":936,"µÑĢÐµÐ´":937,"ĠÐ¶Ðµ":938,"ĠÐ»ÑİÐ±":939,"ÑĭÐ¼":940,"·Ð²":941,"Ġ\"":942,"ĠÑĩÑĤÐ¾Ð±Ñĭ":943,"½ÑĥÐ¶":944,"ÑĢÐ°Ð¼":945,"ĨÐ°":946,"¸Ðº":947,"ÑĤÑĢ":948,"¼Ð¸":949,"ĠÑĥÐ´":950,"Ð°Ð¶Ð":951,"ÑĤÐ¾Ð²":952,"ÑĤÑĭ":953,"Ð¾Ð³Ð":954,"ÑĤÐ¾Ñĩ":955,"ĠÐ¼Ñĭ":956,"Ð½ÑĥÐ¶":957,"Ġprze":958,"ĠÐ¤":959,"ĠÐ±ÑĥÐ´ÐµÑĤ":960,"Ð¸ÑĪ":961,"ĠÐ½Ð°Ñĩ":962,"ĠÐ½Ð¾Ð²":963,"ĠA":964,"ĠÑģÑĢÐµÐ´":965,"ÑģÑĤÐ²Ð¾":966,"ĠÐ´Ð²":967,"ÑĢÐ°Ðº":968,"ĠÑĢÐ°Ð±Ð¾ÑĤ":969,"ĠÐ¿Ð¾ÑĤ":970,"ÑģÑĤÐ°Ð²":971,").":972,"Ð¸ÑĨ":973,"ĠÐ±Ð»":974,"ĠÐ°Ðº":975,"ku":976,"ĠT":977,"ĠÐ½ÑĥÐ¶":978,"ÑĥÐµÑĤ":979,"cy":980,"Ð¸Ð½Ð°":981,"ÑģÐºÐ¾Ð¹":982,"ÐµÐ¼Ñĥ":983,"Ð¾Ð¼Ñĥ":984,"sta":985,"ĠÐ¸Ð³":986,"ĠÐºÐ¾ÑĤÐ¾ÑĢÑĭÐµ":987,"ĠÑĤÐ°ÐºÐ¶Ðµ":988,"Ġ5":989,"ĠÐ·Ð°Ð¿":990,"ĠÑģÐ¾Ð²":991,"Ð¾Ð¾Ð":992,"¸ÑĤÑĮ":993,"czy":994,"¾ÑĤÐ¾Ð²":995,"Ð¾Ð¼Ð":996,"ĠÐµÑģÐ»Ð¸":997,"ºÐµ":998,"´Ð":999,"ÐµÐ½Ð°":1000,"ÐµÑħ":1001,"ĠÑįÐº":1002,"Ð°ÑĨÐ¸Ð¸":1003,"¸ÑĤÐµ":1004,"ry":1005,"ÐµÐ½Ñĭ":1006,"ÐµÑĢÐµÐ":1007,"ÑĢÐ°Ð±":1008,"Ð¸ÑģÑĮ":1009,"ĠÐķÑģÐ»Ð¸":1010,"ĠÐºÐ¾Ð»":1011,"ÑıÑī":1012,"ĠÐ´Ð¾Ð»Ð¶":1013,"ÐµÑģÐ¿":1014,"ĠÐ¿Ð¾Ð·":1015,"ĠÐ¾ÑĢÐ³":1016,"°Ð»ÑĮ":1017,"¸ÑģÑĤ":1018,"ĠÐ²ÑĢÐµÐ¼Ñı":1019,"ĠÐļÐ°Ðº":1020,"Ġ4":1021,"ÑĥÐ½Ð":1022,"Ð¼Ð¾Ð¶":1023,"Ð¸Ð»Ð¸":1024,"cze":1025,"İÑĤÑģÑı":1026,"ĠÐ³Ð»":1027,"ÑĤÐ¾ÑĢÐ":1028,"Ġc":1029,"ĠÐ¿ÐµÑĢÐ":1030,"Ð¯":1031,"ĩÐµÑģÑĤÐ²Ð":1032,"ÐµÐ¼Ð":1033,"Ð¾Ð¾Ð±":1034,"ĠD":1035,"ÅĤo":1036,"ĠÑįÑĤÐ¾Ð¼":1037,"µÑĤÐ":1038,"in":1039,"Ð°Ð½Ð¸Ð¸":1040,"ÑĥÑīÐµÑģÑĤÐ²":1041,"ÐµÐ½Ð½Ð¾Ñģ":1042,"Ð¾Ð±ÑħÐ¾Ð´":1043,"Ð¥":1044,"ÐµÑĪ":1045,"ĠN":1046,"ÐµÐ½Ð¸Ð¹":1047,"ĠÐ¼Ð¾Ð³":1048,"ĠÐ½ÐµÑģ":1049,"tu":1050,"po":1051,"kie":1052,"ÐµÐ»Ð¾Ð²":1053,"ĠÐ¾Ñ":1054,"ĠÑģÐ»ÑĥÑĩ":1055,"ºÐ¾Ð¼":1056,"Ð¸Ð¼Ð¸":1057,"wo":1058,"ĠÐ±ÑĭÑĤÑĮ":1059,"ĠÑģÐ»ÐµÐ´":1060,"Ð¸Ð½Ñĭ":1061,"Ð»ÐµÐ½Ð¸Ðµ":1062,"ĠÐ²ÑĭÐ¿":1063,"Ð¾ÑģÑĤÐ¸":1064,"ÑĢÑĥÐ´":1065,"¸ÑĤÐµÐ»ÑĮ":1066,"Ð½Ð¸Ð¼":1067,"ÑıÑĤÑĮ":1068,"ÑĤÐ½Ð¾":1069,"ĠB":1070,"to":1071,"ĠÐ¿Ð¾ÑĢ":1072,"Ð»ÐµÐ´":1073,"Ġg":1074,"ĠÐ·Ð°Ð²":1075,"ru":1076,"my":1077,"ĠÐ½ÐµÐ¾Ð±ÑħÐ¾Ð´":1078,"ĠÐ¿ÐµÑĢÐµÐ":1079,"ĠÐ¸Ð½Ð":1080,"ĠÑĥÐ¿":1081,"ÅĽci":1082,"ÑģÐ°":1083,"Ð½ÑĥÑİ":1084,"ÐºÐ¾Ð¹":1085,"Ð°Ñī":1086,"ĠÐ¿ÑĢÐ¾Ð¸Ð":1087,"Ð½ÐµÐ¹":1088,"ĠÐ½Ð°ÑĪ":1089,"ÐµÐ½Ð½ÑĭÑħ":1090,"Ð¼Ð°":1091,"Ð¸Ð¶":1092,"ÐºÐ°Ñı":1093,"Ð¾ÑģÑĤÑĮ":1094,"Ġmo":1095,"ÑģÐºÐ¾Ð³Ð¾":1096,"ÑĮÑİ":1097,"Ð±Ð":1098,"lu":1099,"Ð´Ðµ":1100,"ÑĨÐ¸Ð¸":1101,"Ð°ÑİÑĤÑģÑı":1102,"ĠÑıÐ²Ð»Ñı":1103,"Ð°Ð½Ð¸Ð·":1104,"ÑĤÐ¸Ñı":1105,"ĠÐ¿Ð¾Ð¿":1106,"dy":1107,"Ð½ÑĭÐ¼Ð¸":1108,"ÑĤÐ°ÑĤÑĮ":1109,"ĠÐ¢Ð°Ðº":1110,"ĠÐ±Ð¾Ð»ÑĮÑĪ":1111,"ÑĤÐ¸ÑĤÑĮ":1112,"Ð°Ð¶Ð´":1113,"ĠÐ¾ÑĤÐº":1114,"ÑĭÑĪ":1115,"ĠÐ¾ÑģÐ½Ð¾Ð²":1116,"ÑĤÐ¾Ñı":1117,"Ð¾ÑģÐ¾Ð±":1118,"Ð°Ð½Ð°Ð":1119,"Ġf":1120,"nych":1121,"ĠÐµÑģÑĤÑĮ":1122,"ĨÐ¸Ð°Ð»ÑĮ":1123,"Ð¾ÑĤÐ²":1124,"ÑĢÐ¾Ð´":1125,"ÑĢÐµÑģ":1126,"Ð¼Ð¾ÑĤ":1127,"Ð¾ÑģÑĮ":1128,"Ð¿Ð":1129,"ÐµÐ»ÐµÐ¹":1130,"ÐµÐ½Ð½ÑĭÐ":1131,"ÐµÐ½Ð½ÑĭÐµ":1132,"Ġod":1133,"ĠÐ¿ÑĢÐ¸Ð¼":1134,"Ð¾Ð¶Ð":1135,"ĠÑĥÑģÐ»":1136,"½Ð¾Ð³":1137,"ĠÑĤÐµÐ¼":1138,"ĠÐ¿ÑĢÐ¾Ð´":1139,"ĠÐ¿ÐµÑĢÐ²":1140,"ĠÐ½ÐµÐ´":1141,"cie":1142,"Â».":1143,"ÑĢÐ°ÑĤÑĮ":1144,"ÑĤÐ¸ÑĩÐµÑģÐº":1145,"ĠK":1146,"Ġto":1147,"ĠÑĥÐº":1148,"wi":1149,"Ġro":1150,"ĠÐĿÐ°":1151,"ĠÑĥÐ²":1152,"ĠÐĴÑĭ":1153,"ĠÐ¾Ð½Ð¸":1154,"ĠÐ±Ð¾Ð»ÐµÐµ":1155,"ĠÐ´ÐµÐ»":1156,"ĠÐ²Ð·":1157,"ĠÑĩÐµÐ»Ð¾Ð²":1158,"ĠÐ¿ÑĢÐ¾ÑĨ":1159,"ĠÐ¿ÑĢÐ¸Ð²":1160,"ĠÐ¼Ð°Ñģ":1161,"ĠÐ¾Ð±ÑĢÐ°Ð·":1162,"ĠÐ´Ð°Ð½Ð":1163,"Ð¾Ð»Ð¾Ð³":1164,"»Ð¸Ñĩ":1165,"ĠÑģÐµÐ±":1166,"Ġ201":1167,"ĠÑģÑĩ":1168,"Ð¾Ð·Ð´":1169,"as":1170,"owe":1171,"lo":1172,"ÐµÐ½Ð´":1173,"cj":1174,"Ð¾Ð½Ð°":1175,"Ġte":1176,"Ð°Ð½Ð´":1177,"Ġko":1178,"owy":1179,"ĠÐ¿ÑĢÐ¾":1180,"ĠÐ¾ÑĩÐµÐ½ÑĮ":1181,"Ð¸ÑĤÑĮÑģÑı":1182,"ĠÐ¸ÑģÐ¿Ð¾Ð»ÑĮÐ·Ð¾Ð²":1183,"ÅĦ":1184,"ĠÐ¿Ð¾ÑģÐ»Ðµ":1185,"ÐºÐ»ÑİÑĩ":1186,"ĠÑĤÐ¾Ð³Ð¾":1187,"ÑģÐºÐ¸Ð¹":1188,"ĠÐŁÐ":1189,"ĠÐ¥":1190,"Ð¸ÑĤÑģÑı":1191,"ĠÑĥÐ¶Ðµ":1192,"ĠÐµÑī":1193,"ĠÐ¾Ð´Ð":1194,"dzie":1195,"ĠÐĶÐ»Ñı":1196,"ÐµÐ½Ð¸ÐµÐ¼":1197,"ĠÐłÐ¾Ñģ":1198,"ĠÑģÐ¾":1199,"ĠÑĢÐµÑĪ":1200,"ĠÐ¯":1201,"Ð¨":1202,"ĠÐ²Ð¾Ñģ":1203,"ÑĢÐ¾":1204,"Ð»Ñİ":1205,"ĠÐŃÑĤÐ¾":1206,"ĠÐµÐµ":1207,"Ð°Ð¹ÑĤÐµ":1208,"ĠÑįÑĤÐ¾Ð³Ð¾":1209,"ĠÐ·Ð°Ð±":1210,"ĠÐ½ÑĥÐ¶Ð½Ð¾":1211,"½ÑĭÐ¼":1212,"ĠÐ²Ð¾Ð·Ð¼Ð¾Ð¶":1213,"ĠR":1214,"ĠÑĢÐ°ÑģÐ¿":1215,"ĠÐŁÑĢ":1216,"ĠÐ¾ÑĤÐ²":1217,"ÑĤÐº":1218,"ĠÑģÐ´ÐµÐ»":1219,"ĠÐĿÐ¾":1220,"Ġjest":1221,"ÑĤÐµÑĢÐ¸":1222,"ÐµÐ½Ð¸Ñİ":1223,"ÐµÐ½Ð½Ð¾Ð¹":1224,"ĠÐ¾Ð±ÑĬ":1225,"ĠÐ³Ð¾Ð´Ð°":1226,"tÃ³":1227,"ĠÐ´ÐµÑĤ":1228,"ÐµÐ¹ÑģÑĤÐ²":1229,"Ð¾ÑĪ":1230,"Â»,":1231,"Ð°Ð¶Ðµ":1232,"ĠÐ¾Ð±Ñī":1233,"ÑĤÐ¸Ð¼":1234,"Ð¸Ð¼Ð¾":1235,"ÑıÐ²":1236,"ÑģÐ¸Ð¸":1237,"ĠI":1238,"ĠÐ²ÑĭÑģ":1239,"ĠÑĢÐµÐ·":1240,"Ð¾Ñį":1241,"Ð²Ð°":1242,"Ð¾Ð´Ñĭ":1243,"ĠÐ¼Ð°":1244,"³Ð¸":1245,"Ð¸Ñī":1246,"ĠÑģÐ¸ÑģÑĤ":1247,"ÐµÑĢÐ°":1248,"ĠÑĤÐ¾Ð¼":1249,"ĠÐ¾ÑĤÐ´":1250,"ĠÐ²Ð°ÑĪ":1251,"de":1252,"ĠÑĩÐµÐ¼":1253,"ÑĢÐ°Ñī":1254,"½Ñĥ":1255,"ĠÐ·Ð´":1256,"20":1257,"ĠÐ¾ÑĢÐ³Ð°Ð½Ð¸Ð·":1258,"ĠÑģÐ¿ÐµÑ":1259,"ĠÐºÐ¾Ð³Ð´Ð°":1260,"Å¼y":1261,"),":1262,"ĠÐ²Ð¾":1263,"ÑĢÐ¾Ð":1264,"Ð»ÐµÐ¼":1265,"ĠÐ·Ð½Ð°Ð":1266,"ĠO":1267,"ÑĢÑĥÐ¿":1268,"ĠG":1269,"ĠÐ´ÐµÐ½ÑĮ":1270,"ĠÑĤÐµÑħ":1271,"ĠÐ¸Ð½ÑĦ":1272,"ĠÐŁÑĢÐ¸":1273,"ÑĢÐµÑ":1274,"Ð°Ð½Ð¸":1275,"ĠÐ¿ÑĢÐ¾Ð¸Ð·Ð²":1276,"szy":1277,"Ġja":1278,"ĠÐ±ÑĭÐ»Ð¾":1279,"ĠÐºÐ°Ñ":1280,"Ð¸Ð»Ð°":1281,"ÐµÐ½Ð½ÑĭÐ¹":1282,"ĠÑģÐ¿Ð¾ÑģÐ¾Ð±":1283,"ÑĢÑĥÐ¶":1284,"ĠÑģÐ¾Ñģ":1285,"ĠÑģÐ²Ð¾ÐµÐ":1286,"an":1287,"ÑĢÑĥÐº":1288,"ĠÐŀÐ±":1289,"ÐµÑĢÐ°Ñ":1290,"ĠktÃ³":1291,"Ð°ÑĢÐ":1292,"Ġ6":1293,"ĠÑģÐ¾ÑģÑĤÐ°Ð²":1294,"ĠÐ¾ÑģÑĤ":1295,"ĠÐ¼Ð¾Ð³ÑĥÑĤ":1296,"Ð¸Ð·Ð":1297,"ÐµÐ¶Ð´":1298,"am":1299,"ĠÐºÐ¾ÑĤÐ¾ÑĢÑĭÐ¹":1300,"ĠÐ»ÑĥÑĩ":1301,"Ġpro":1302,"ÑıÐ´":1303,"ÑĤÐºÐ¸":1304,"Ġin":1305,"ĠÐ¼ÐµÑĤ":1306,"ĠÐ´Ð¾Ñģ":1307,"ÑĥÑİÑĤ":1308,"ĠÐ¿ÑĢÐµÐ´ÑģÑĤÐ°Ð²":1309,"ÅĤy":1310,"ÐµÐ½Ñı":1311,"ĠÐ¾ÑĤÐ½Ð":1312,"||":1313,"ĠJ":1314,"ĠÐ·Ð°Ð´":1315,"Ð¾ÑĢÐ¾ÑĪ":1316,"ÐµÐ½ÐµÐ":1317,"µÑĤÐ°":1318,"ÑĢÐ¸Ñı":1319,"ĤÑı":1320,"Ð°Ð½Ð°":1321,"Ġe":1322,"ĠÐ³Ð¾Ñģ":1323,"Ð¾Ð¶Ð´":1324,"ÐµÐ½ÑĤÐ°":1325,"ĠÐºÐ°ÑĢ":1326,"Ġprzy":1327,"Ð¾Ð²Ð°":1328,"ĠÐºÐ°Ð¶Ð´":1329,"ÑĥÐ·":1330,"ĠÐ¿Ð¾Ñĩ":1331,"wie":1332,"Ð½Ñı":1333,"ÑĢÐ¾Ð¹":1334,"ÑĥÐ»Ñı":1335,"ĠÐ¿ÐµÑĢÐµÐ´":1336,"ĠÐ¿ÑĢÐ¾Ð±":1337,"ĠÑĥÑĩÐ°Ñģ":1338,"Ð°ÑģÑĮ":1339,"ĠÐºÐ¾Ð½Ð":1340,"ĠÐ¶ÐµÐ»":1341,"ĠÐ»ÐµÑĤ":1342,"ĠÐ½ÐµÐ¿":1343,"ÐµÐ½Ð½Ð¾Ð³Ð¾":1344,"Ð¾Ð²Ð°Ð½Ð¸Ñı":1345,"ÑĢÐ°Ð´":1346,"ÑĥÑĤÑĮ":1347,"ÐµÑģÑĮ":1348,"ĠÐµÑīÐ":1349,"zy":1350,"ĠÐµÑīÐµ":1351,"ÐµÑĤÑģÑĤÐ²":1352,"Ġma":1353,"ÑģÑĭ":1354,"ĠÐ¾Ð½Ð°":1355,"ĠÑģÐ»ÑĥÑĩÐ°Ð":1356,"ÑĥÐº":1357,"Ð²Ð¾Ð»":1358,"ĠÐ¿Ð¾Ð¼Ð¾Ñī":1359,"Ð»Ð¸Ð²":1360,"Ð¼ÐµÑĢ":1361,"ĠÐ°Ð²ÑĤÐ¾Ð¼":1362,"ĠÐ²ÑĭÐ±":1363,"ob":1364,"ĠÑģÐ¾Ð·Ð´":1365,"ĠÑıÐ²Ð»ÑıÐµÑĤÑģÑı":1366,"ÑģÐ¾Ð²":1367,"ĠZ":1368,"sze":1369,"Ð¾Ð¾Ð±Ñī":1370,"ÐµÑĤÐµ":1371,"Ð¦":1372,"ĠÐ´Ð¾Ðº":1373,"ÑĤÐ¾ÑĤ":1374,"ÑĤÐµÑģ":1375,"Ð¸ÑĢ":1376,"ÑģÐ¸":1377,"ÑĢÐ°ÑĦ":1378,"ÐµÑĢÑħ":1379,"ÑĥÑĢÐ":1380,"ÑĢÐµÐ´ÐµÐ»":1381,"ÑĤÐ¸Ðº":1382,"ÑĢÐ°Ð»ÑĮ":1383,"Ġty":1384,"Ð¾Ð¿ÑĢÐ¾Ñģ":1385,"ĠÐºÐ»":1386,"ga":1387,"ĠÐ´Ð¾Ð±":1388,"ÐµÑĤÑĮ":1389,"ĠÐ½ÐµÑģÐº":1390,"¸ÑĨ":1391,"om":1392,"ĠÐ½Ð°Ð·":1393,"Ð¸Ð½Ð¸Ð¼":1394,"ÑĤÐ¸Ð»":1395,"Ð»ÑĮ":1396,"ĨÐµ":1397,"ca":1398,"ÐµÑĢÐµÐ·":1399,"Ġ7":1400,"ÐµÑĢÐ²":1401,"Ġ10":1402,"ĠL":1403,"ÑĢÐ¾Ð¼":1404,"ĠÐºÐ¾ÑĢ":1405,"ĠÐ·Ð°Ð¼":1406,"ĠÐ½Ð°Ð´":1407,"ÑĤÐ¾Ð¼Ñĥ":1408,"ĠÐ¼Ð°ÑĤÐµÑĢÐ¸":1409,"Ð°Ð·ÑĭÐ²":1410,"ÑģÐºÐ¸Ñħ":1411,"du":1412,"ÑĢÐµÐ²":1413,"ĠÐ¿Ð¾ÑģÑĤ":1414,"Ð¸Ñı":1415,"ĠÐºÑĢÐ°Ñģ":1416,"ak":1417,"cji":1418,"ĠÐ²Ð°Ð¼":1419,"ÐµÐ¼Ð°":1420,"Ġ19":1421,"ĠÐ³Ð¾Ð»":1422,"ÑĤÐ¸Ð½Ð":1423,"Ðĸ":1424,"Ð¾Ð¸ÑĤ":1425,"½ÑĥÑĤ":1426,"is":1427,"ÑĭÑĩ":1428,"ĠÐ´Ð°Ð¶Ðµ":1429,"ĠPo":1430,"za":1431,"Ð¾ÑįÑĤÐ¾Ð¼Ñĥ":1432,"ĠÅ¼e":1433,"Ð²Ð¸":1434,"ÑĢÐ¸Ð¼":1435,"Ð¾Ð³Ð¾Ð²":1436,"ĠÐ±ÑĭÐ»":1437,"Ð¸ÐºÐ°":1438,"ĠÐ¿Ð°ÑĢ":1439,"ĠÐ»Ð¸":1440,"ĠÑĢÑĥÐ±":1441,"Ġ|":1442,"Ġsp":1443,"ÐµÐ½ÑĤÐ¾Ð²":1444,"ÑĤÐ¸ÑĤ":1445,"ĠÐ¾ÑĦ":1446,"Ð°ÑĨÐ¸Ñı":1447,"Ð°ÑĨ":1448,"ĠÐŁÐ¾Ñģ":1449,"Ð»Ð¾Ð¶":1450,"Ð¾Ð²Ð°ÑĤÑĮ":1451,"ĠF":1452,"Ð°Ð¹Ð":1453,"Ñį":1454,"ÑıÑĤÐµÐ»ÑĮ":1455,"ĠÑģÐ¾Ð":1456,"em":1457,"ÐµÐ½ÐµÐ½Ð":1458,"Ð¾ÑĢÐ°":1459,"ĠÐ²ÑģÐµÐ³Ð¾":1460,"ĠÑħÐ¾ÑĢÐ¾ÑĪ":1461,"ÐµÑĢÑĮ":1462,"Ð¸ÑĦ":1463,"ÑĥÐµÑĤÑģÑı":1464,"Ð°Ð½Ñĭ":1465,"ÐµÐºÑģ":1466,"Ð¾Ð¸Ñģ":1467,"Ġh":1468,"ĠÑĤÑĭ":1469,"ĠÐ½Ð¸Ð":1470,"ÑĤÐ¾ÑıÐ½Ð":1471,"ĠÑģÐ²ÑıÐ·":1472,"³Ð°":1473,"ÑĢÐ¾Ñ":1474,"ĠÐ²Ð¾Ð¿ÑĢÐ¾Ñģ":1475,"ĠÑħÐ":1476,"ĠÐ´Ð¾Ð¼":1477,"ÐºÐ¾Ð¼":1478,"Ð¸ÐºÐ¸":1479,"Ð°Ð»Ð¾":1480,"ÑĦÑĦ":1481,"ÑĢÑĥÐ·":1482,"ÐµÐ»Ð°":1483,"ÑĥÐ²":1484,"raz":1485,"ĠÐ¾ÑģÐ¾Ð±":1486,"Ð¸Ð±Ð":1487,"Ð¼ÐµÑģ":1488,"ĠÑģÑĤÐ°":1489,"Ð¾ÑĢÐ¾Ð²":1490,"by":1491,"ÑĤÐ¸Ðµ":1492,"Ð¾Ð½Ñĭ":1493,"ÐµÐ½Ð½Ð¾ÑģÑĤÐ¸":1494,"ÑĮÑı":1495,"Ð°Ð¹Ð½":1496,"Ġ8":1497,"ĠÐ¿ÑĢÐ¾Ð³":1498,"¸ÑĩÐµÑģÐº":1499,"ĠÐ¿ÑĢÐµÐ´Ð¿":1500,"Ð½ÐµÑģ":1501,"ĠÐ¾Ð³":1502,"ĠÑĤÑĢÐµÐ±":1503,"ÑĤÑı":1504,"Ð¾ÐºÐ°":1505,"ÐµÐµÑĤ":1506,"si":1507,"Ð»ÑıÑ":1508,"ÐµÑĤÑĭ":1509,"ĠÐĿÐµ":1510,"ĠÐŁÐ¾":1511,"Ð¸Ð½Ðµ":1512,"Ð¾ÑĢÐ¼Ð":1513,"ºÑ":1514,"Ġdz":1515,"ĤÐµÐ¹":1516,"Ð¾Ð´ÑĥÐº":1517,"ÑĨÐ°":1518,"Ð¾Ð½Ð¾Ð¼":1519,"ÐµÑĢÑĪ":1520,"ĠÐ¼Ð¾Ð»":1521,"ÐµÑĦ":1522,"ÑĢÐ°Ñħ":1523,"il":1524,"Ð»Ð¸Ñĩ":1525,"Ð¾Ð¿Ð¾Ð»":1526,"ĠÐ±ÐµÑģÐ¿":1527,"ÐµÐ½Ð¾":1528,"ĠÑĦÐ":1529,"ÅĽÄĩ":1530,"ĠÐ±Ð":1531,"ĠÐ³Ð¾ÑĢ":1532,"ĠÑģÐ²Ð¾Ð":1533,"dzi":1534,"ĠÑģÐ»ÑĥÑĩÐ°Ðµ":1535,"ĠÑĥÑģÑĤÐ°Ð½Ð¾Ð²":1536,"ÐºÐ°Ð¼Ð¸":1537,"Ð»Ð°Ð³":1538,"ĠÐºÐ²":1539,"½ÑĮ":1540,"Ð¸ÑĤÐµ":1541,"ĠÑĩÐµÑĢÐµÐ·":1542,"ĠÑĢÐ¾Ñģ":1543,"ÑĤÐ½ÑĭÐµ":1544,"ÑĤÐµÐ¹":1545,"ÑĢÐµÐ¿":1546,"Ð¾Ð´Ðµ":1547,"Ð¾Ð²Ð¾Ð¹":1548,"ÑĭÐ¼Ð¸":1549,"ĠÐ¼Ð½Ð¾Ð³":1550,"ÑĤÐ½ÑĭÑħ":1551,"µÑĨ":1552,"ĠÐ´ÐµÐ¹ÑģÑĤÐ²":1553,"ĠÐ½ÐµÐ¼":1554,"Ð³Ð¸":1555,"ĠÐ³Ð´Ðµ":1556,"ĠÐ·Ð½Ð°Ñĩ":1557,"ĠÐ¿ÑĢÐ¸Ð½":1558,"Ð°Ð·Ð":1559,"Ð¾Ð¸Ð¼":1560,"ÑĥÐ³":1561,"ĠE":1562,"ÑĤÐµÑĢÐµÑģ":1563,"ĠÑģÐµÐ±Ñı":1564,"ĠÐ¸Ð´":1565,"Ġby":1566,"Ð¾Ñİ":1567,"ĠÑģÑĤÐ¾ÑĢ":1568,"pa":1569,"ĠÐ¾Ð¿ÑĢÐµÐ´ÐµÐ»":1570,"Ð¾Ð¼Ð°":1571,"ÐµÐ½ÑĤÑĭ":1572,"ĠÐ¿Ð¾ÑģÐ»ÐµÐ´":1573,"ĠÐ¨":1574,"ĠÐ½ÐµÑĤ":1575,"½Ð¾":1576,"ÑģÐºÐ¸Ðµ":1577,"ĠÑĤÐµÐ»":1578,"ÑĦÑĦÐµÐº":1579,"ĠÐ¼ÐµÐ´":1580,"ÑĩÐ°Ñģ":1581,"ĠÐ¿Ð¾Ð·Ð²Ð¾Ð»":1582,"ĠÑģÐµÐ¼":1583,"Ð½Ð¾ÑģÑĤÑĮÑİ":1584,"ĠÐ¿ÑĢÐ¾ÑģÑĤÐ¾":1585,"ĠÐ³Ð¾Ð²":1586,"ĠÐ½ÐµÐ¾Ð±ÑħÐ¾Ð´Ð¸Ð¼Ð¾":1587,"ÅĤu":1588,"Ð¸ÑĤÐµÐ»ÑĮÐ½Ð¾":1589,"ĠÐ¿ÑĢÐ¾ÑĨÐµÑģ":1590,"ĠÐ»ÐµÑĩ":1591,"ÑĢÐ¾Ðº":1592,"ÑıÑĤÑģÑı":1593,"Ð½ÐµÐµ":1594,"Ð°Ð½Ð¸Ð¹":1595,"Ð¸Ð±Ð¾":1596,"ÑģÐºÐ°Ñı":1597,"Ð¼Ñĭ":1598,"ÑĤÐ¸ÑĢÐ¾Ð²":1599,"ĠÐ´ÐµÐ²":1600,"ÑĩÐ":1601,"ĠÐŀÐ´":1602,"ĠÐ¾Ð±Ð»Ð°Ñģ":1603,"Ð°ÑĤÐµÐ»ÑĮÐ½Ð¾":1604,"ter":1605,"ÐµÑģÑĤÐ²Ð":1606,"ĠÐ½Ð°Ñħ":1607,"ĠÐ±Ð¾Ð»ÑĮÑĪÐµ":1608,"ĠÐ¸ÑģÐ¿Ð¾Ð»ÑĮÐ·":1609,"ĠÐ¾ÑĤÐ»Ð¸Ñĩ":1610,"ĠÑĢÐµÐ±":1611,"al":1612,"Ġcz":1613,"ĠÑĢÐ°Ð±Ð¾ÑĤÑĭ":1614,"ÐµÐºÐ°":1615,"ĠÐ¿ÑĢÐ¸Ñĩ":1616,"Ġpod":1617,"ĠÐ²Ð°Ñģ":1618,"ĠÐ¼ÑĥÐ¶":1619,"ĠÐ²ÑģÐµÑħ":1620,"ĠÐ¿ÑĢÐ¾Ð´ÑĥÐº":1621,"ÑĢÑĥÑĪ":1622,"ĠÐ¼Ð°Ð»":1623,"Ð¾Ð½Ð°Ð":1624,"Ð°ÑĤÑĭ":1625,"ÐµÐ½Ñī":1626,"Ġre":1627,"ĠÐ¸Ð·Ð¼":1628,"Ð»Ð°Ð²":1629,"ĠÐ¦":1630,"°ÑĢÐ¸":1631,"ĠÑĥÐ³":1632,"ÑĢÐ°Ð¸Ð":1633,"Ð°Ð·Ð°Ð»":1634,"ĠÐ¶Ð¸Ð·":1635,"ÑģÐ¸Ð¹":1636,"ĠH":1637,"ĠÐ¸Ð½ÑĦÐ¾ÑĢÐ¼":1638,"ÑĢÐ°Ð±Ð¾ÑĤÐ":1639,"Ð¾ÐµÐ½Ð":1640,"ĠÐ¾Ð±ÑıÐ·":1641,"ĠÑĤÐµÐ¿":1642,"ºÑĥ":1643,"ĠÐ³Ð¾Ð´Ñĥ":1644,"Ð¸Ð½Ñĥ":1645,"rÃ³":1646,"¿Ð":1647,"ĠÐ²ÑģÑĤ":1648,"ĠÐ½ÐµÑģÐºÐ¾Ð»ÑĮÐºÐ¾":1649,"Ġ0":1650,"ĠÐ²Ð¾Ð»":1651,"ĠÐ½Ð¸Ñħ":1652,"ĠÐ´Ð¾ÑģÑĤ":1653,"ĠÐ°Ð´":1654,"ÐµÑģÑĤÐ¸":1655,"ĠÐ¼ÐµÐ¶Ð´":1656,"ÑĢÑĭÐ²":1657,"ÑĢÐµÐ·":1658,"ĩÐµÑģÑĤÐ²Ð¾":1659,"Ð¼Ñĥ":1660,"ĠÐ¡Ñ":1661,"ĠÐ¡ÑĤ":1662,"ĠÑĢÐµÐ·ÑĥÐ»ÑĮ":1663,"...":1664,"ÑĢÐ°ÑĤ":1665,"ĠÐ»ÐµÐ³":1666,"nej":1667,"Ð´ÐµÑĢÐ¶":1668,"Ð¾Ð´ÐµÑĢÐ¶":1669,"ĠÐ¸Ð½ÑĤÐµÑĢ":1670,"owie":1671,"ĠÑĢÑĭ":1672,"Ð¾Ð»ÑĮÑĪ":1673,"Ġch":1674,"ĠÐ¿ÑĢÐ¾ÑĦ":1675,"¾ÑĤÐ²ÐµÑĤÑģÑĤÐ²":1676,"Ð´Ð¸":1677,"mu":1678,"ĠÐºÐ¾Ð»Ð¸Ñ":1679,"ĠÐ´Ð¸":1680,"wia":1681,"ĠÐ¼ÐµÐ½Ñı":1682,"ĠÐ°ÑĢ":1683,"ÑĢÐ°Ð»":1684,"ĠÐłÐ¾ÑģÑģÐ¸Ð¸":1685,"ĠÑĢÐ°Ð±Ð¾ÑĤÐ":1686,"¸ÑĢÑĥ":1687,"ÑģÑĤÐ²Ð¸Ñı":1688,"Ð¾Ð»ÐµÐ²":1689,"ĠÐĸ":1690,"âĢ¦":1691,"Ð¾Ð¼Ðµ":1692,"ĠÐŁÐ¾Ð´":1693,"Ð½Ð¸ÐºÐ°":1694,"ÑĢÐµÑĤÑĮ":1695,"Ġ9":1696,"»Ð°":1697,"et":1698,"ĠÐ²ÐµÐ´":1699,"mie":1700,"nego":1701,"ºÐ¾ÑĤÐ¾ÑĢ":1702,"ĠÑĥÐ»":1703,"ĠÑįÐ»ÐµÐº":1704,"ÑĥÑģÐº":1705,"ĠÐ¶Ð¸Ð²":1706,"Ð°ÑıÐ²":1707,"Ð¾Ð½Ðµ":1708,"ÑĢÐµÐ¶":1709,"ĠÅĽ":1710,"nÄħ":1711,"Ð»ÑıÐµÑĤ":1712,"ĠÐ½Ð¸Ðº":1713,"ĩÐµÑģÐºÐ¸":1714,"ĠÑįÑĦÑĦÐµÐº":1715,"»Ð°Ð¹Ð½":1716,"ÑĢÐ°Ñĩ":1717,"ÑĤÐ¾ÑĢÐ°Ñı":1718,"ÐµÐ»Ð¾":1719,"ĠÐ´Ð¾ÐºÑĥÐ¼":1720,"Ð°Ð½Ñ":1721,"ĠÐ¿ÑĢÐ¾ÑĤÐ¸Ð²":1722,"ĠÐ»ÑİÐ´":1723,"ÐºÐ°Ñħ":1724,"ĠÑĩÐ¸Ñģ":1725,"Ð²Ðµ":1726,"ÑĢÐ¾Ð±":1727,"ĠÑģÐ¾Ð¾Ð±Ñī":1728,"Ð·Ð":1729,"ÑĤÐ½ÑĭÐ¹":1730,"Ð¾ÑģÐº":1731,"°Ñħ":1732,"Ð°ÑĩÐ":1733,"gi":1734,"ĠÐ¼Ð¾Ð´":1735,"ĠÐ²Ð¿":1736,"Ġob":1737,"ĠÐ¾Ð´Ð¸Ð½":1738,"ÑĥÐ":1739,"ÑģÑĮ":1740,"ĠÑģÐ°Ð¹":1741,"ĠÐ±ÑĭÐ»Ð¸":1742,"Ġpra":1743,"ĠÑģÐ¸ÑģÑĤÐµÐ¼":1744,"ÑĥÐ´Ð°ÑĢ":1745,"ĠÐ¸Ð¼ÐµÐµÑĤ":1746,"Ð°ÑģÑ":1747,"ĠÐ³Ð¾Ð´":1748,"ĠÐ½ÐµÐ¾Ð±ÑħÐ¾Ð´Ð¸Ð¼":1749,"ÐµÐºÐ":1750,"ĠÐ±ÑĭÑģÑĤ":1751,"Ð°ÑģÑĤ":1752,"ĠÑģÑĥÐ´":1753,"ÑĤÐ°ÑĤÐ¾Ñĩ":1754,"ĠÐ³Ð»Ð°Ð²":1755,"Ð½Ð¸ÑĤÐµÐ»ÑĮ":1756,"Ġsz":1757,"¿Ð°":1758,"Ð½Ð°ÐºÐ¾":1759,"ÑĤÐµÑģÑĮ":1760,"¾ÑĤÐ¾":1761,"ĠÑĩÐµÐ»Ð¾Ð²ÐµÐº":1762,"nd":1763,"ĠÐ¶ÐµÐ½Ñī":1764,"Ð½ÐµÑĤ":1765,"ĠÑģÑĤÐ°ÑĤÑĮ":1766,"Ð¾Ð´Ð¸ÑĤÑģÑı":1767,"Ð²ÐµÑĤ":1768,"³Ð¸ÑģÑĤ":1769,"ĠÐ»Ð¸ÑĪ":1770,"ti":1771,"ĠÑįÑĤÐ¾ÑĤ":1772,"ÑĤÐ½Ð¾Ð¹":1773,"ĠÑģÐ¾Ð¾ÑĤÐ²ÐµÑĤÑģÑĤÐ²":1774,"Ð»ÐµÐ¹":1775,"pe":1776,"ĠÐ¿ÑĢÐ¾ÐµÐ":1777,"ĠÑįÑĤÐ¾Ð¹":1778,"âĢĿ":1779,"cja":1780,"Ð±Ñĭ":1781,"ĠÑĢÐ°Ð·Ð²":1782,"½Ð°Ñı":1783,"ÑĤÐ°ÑĤ":1784,"ĠÑģÑĤÑĢÐ°Ð½Ð":1785,"ĠÐ¿ÑĢÐ¸Ð·":1786,"Ð¾Ð½Ñ":1787,"ĠÐ¿ÑĢÐ¸Ñģ":1788,"ÑĥÑģÑĤ":1789,"½ÑĭÐ¼Ð¸":1790,"¸ÑĢÐ":1791,"ÑĮÐ":1792,"nym":1793,"ÐµÑĢÐ´":1794,"Ð¸Ð²Ð°ÑĤÑĮ":1795,"ÐµÐ³Ð´Ð°":1796,"Ð¸Ð½Ð¾":1797,"°ÑĢÐ°Ðº":1798,"ÑĤÐ¾ÑĢÐ°":1799,"ĠÐ¿ÑĢÐ¾Ð³ÑĢÐ°Ð¼":1800,"Ð°Ð½Ð¾":1801,"ĠÐ·Ð°ÑıÐ²":1802,"ĠÐ´Ðµ":1803,"Ð¾Ð½ÑĤ":1804,"ĠÑģÐ´ÐµÐ»Ð°ÑĤÑĮ":1805,"ÐµÐ½Ð½ÑĭÐ¼":1806,"ĠÑĥÑĢÐ¾Ð²":1807,"ĠÐ²Ð¾ÑģÐ¿":1808,"ĠÐ²Ð°Ð¶":1809,"ÑģÑĤÑĢÑĥÐº":1810,"ĠÑĢÐ°Ð·Ð»Ð¸Ñĩ":1811,"Ð½ÐµÐ²":1812,"ÑĢÐ¸Ð¼ÐµÑĢ":1813,"ĠU":1814,"ĠÐ¿Ð°":1815,"Ð°Ð½Ð°Ð»":1816,"Ð°Ð½Ð¸Ñİ":1817,"ÑĤÐ¸ÐºÐ¸":1818,"ÑĢÐ¾Ð¿":1819,"ĠÑĤÐµÑĢ":1820,"µÑĢÐµÐ¼":1821,"ĠÐºÐ¾Ð½Ñ":1822,"½ÑĥÑĤÑĮ":1823,"Ð¼Ðµ":1824,"ĠÐ¿ÑĢÐ¾Ð¸Ð·Ð²Ð¾Ð´":1825,"ĠÑģÐ²Ð¾Ð¹":1826,"ÑģÐ»ÐµÐ´":1827,"ĠÐ¾Ð½Ð»Ð°Ð¹Ð½":1828,"ĠÐ¸Ð½ÑĤÐµÑĢÐµÑģ":1829,"Ð¾Ð´Ð½Ñı":1830,"ĠÐŀÐ":1831,"Ð°Ð½Ðº":1832,"ĠÐĺÐ·":1833,"ÐµÐ½Ð½Ð¾Ðµ":1834,"¾ÑģÑĤÑĮ":1835,"ĠÐŀÐ½":1836,"Ð¾Ð»Ð¶":1837,"¾ÑģÑĤÐ¸":1838,"ĠÑĦÐ¾ÑĢÐ¼":1839,"Ġ15":1840,"ÑĢÐµÐ»":1841,"ÑĢÐ°Ð¶Ð´":1842,"ĠÐ²Ð½Ð¸Ð¼":1843,"ĠÐ²ÑĭÑģÐ¾Ðº":1844,"¸Ð¹":1845,"Ġroz":1846,"ĠÐ¼Ð¸Ð½":1847,"ĠÑĢÐ°ÑģÑģ":1848,"ĠÐºÐ¾ÑĤÐ¾ÑĢÐ°Ñı":1849,"wy":1850,"ĠÑĥÑģ":1851,"ĠÑĢÐ°Ð·Ð²Ð¸":1852,"ÐºÐ¸Ñħ":1853,"ĠÐ²Ð¾Ð·Ð´":1854,"Ð¾Ð»Ð¸":1855,"ĠÐ¶Ð¸Ð·Ð½Ð¸":1856,"ĠÐ¼Ð°ÑĤÐµÑĢÐ¸Ð°Ð»":1857,"Ð³Ð¾ÑĤÐ¾Ð²":1858,"ĠÐºÑĢÐ¾Ð²":1859,"Ð°Ð½Ð¸ÐµÐ¼":1860,"ĠÑģÐ¾Ð±ÑģÑĤÐ²":1861,"¾Ñı":1862,"ĠÑİ":1863,"ÑĤÐ°Ñħ":1864,"ĠÑģÐ»ÐµÐ´ÑĥÑİÑī":1865,"ÑħÐ¾Ð´Ð¸ÑĤ":1866,"ĠÑĤÐ¾Ñĩ":1867,"ĠÐ·Ð°Ñī":1868,"ĠÐ²Ð¾Ð´":1869,"Ð¾ÑĢÑ":1870,"Ġ200":1871,"pie":1872,"Ð½Ð¸ÐºÐ¸":1873,"ĠÐ³Ð¾ÑĤÐ¾Ð²":1874,"Ð¸ÑĤÑĥ":1875,"ĠÑģÐ¾Ð´ÐµÑĢÐ¶":1876,"ĠÐ¼Ð¾Ð¶ÐµÑĤÐµ":1877,"ĠÐ±ÑĭÐ»Ð°":1878,"Ð¾Ð·Ð":1879,"ÐµÐ»Ð¸Ñĩ":1880,"Ð°Ð»ÑĮÐ½Ð¾":1881,"¾ÑĤÐ°":1882,"ÐµÑģÐ¿ÐµÑĩ":1883,"ĠÑĥÐ·":1884,"Ð°ÑĤÐµÐ»Ñı":1885,"ÑĪÐ¸Ñħ":1886,"µÐ²":1887,"ĠÐ±ÑĥÐ´ÑĥÑĤ":1888,"ÐµÑĢÐµ":1889,"ĠÐ°Ð¿":1890,"Ð²ÐµÑģ":1891,"ÐµÐ½Ð½Ð°Ñı":1892,"ĨÐ¸Ð°Ð»":1893,"ÑĤÐ½Ð¾Ð³Ð¾":1894,"ĠÐ½ÐµÐ±":1895,"ÐµÐ½Ð½Ð¾ÑģÑĤÑĮ":1896,"ÐµÐ³Ð¾Ð´Ð½Ñı":1897,"Ġdla":1898,"ĠÐ·Ð°Ð²Ð¸Ñģ":1899,"Ð°Ñİ":1900,"ĠÐµÐ´":1901,"ĠÐºÑĤÐ¾":1902,"Ð¾Ð»Ð½ÐµÐ½Ð":1903,"Ð¾Ð²Ð¸Ñı":1904,"ez":1905,"Ð½ÐµÐ¼":1906,"owo":1907,"ĠÑįÐºÑģÐ¿":1908,"mo":1909,"ĠÐ·Ð°ÑĤ":1910,"ĠÐĺÐ":1911,"ĠÐ²Ð¸Ð´Ð":1912,"bi":1913,"ÑĭÐ²Ð°ÑĤÑĮ":1914,"ĠÑĢÐµÐ°Ð":1915,"ĠÐ·Ð²":1916,"he":1917,"Ð±Ð¸":1918,"su":1919,"Ġco":1920,"ĠÐ½Ð°Ð¼":1921,"ĠÐĺÐ½":1922,"Ð°Ð½ÑĤ":1923,"¸Ð¸":1924,"Ð¾Ð²ÑĭÐµ":1925,"ĠÑĦÐ°Ðº":1926,"ski":1927,"Ð½Ð¸Ð¹":1928,"ĠÐ°ÐºÑĤÐ¸Ð²":1929,"ĠÐ½ÐµÐ²":1930,"ÑĨÐ¸Ñı":1931,"ÐµÐ¾":1932,"ĠÐ¸Ð¼ÐµÑ":1933,"ĠÐ¿ÑĢÐ¾Ð±Ð»ÐµÐ¼":1934,"ĠÐºÐ¾ÑĤÐ¾ÑĢÑĭÑħ":1935,"Ð°Ð·Ð°ÑĤÑĮ":1936,"ĠÐºÑĥÐ¿":1937,"ÑĤÐ¾ÑıÑī":1938,"ĠÑĦÑĥÐ½Ð":1939,"ĠÐ½Ð°Ðº":1940,"ÑĢÐ°Ð½ÐµÐ½Ð":1941,"ĠÑĥÐ¼":1942,"Ð¸ÐºÐ¾Ð²":1943,"ĠÑģÑĤÐ¾Ð¸ÑĤ":1944,"Ġwie":1945,"Ġst":1946,"ĠÐ³Ð¾ÑģÑĥÐ´Ð°ÑĢ":1947,"ĠÐ±ÐµÑģÐ¿Ð»Ð°":1948,"ĠÐĶÐ":1949,"ĠÑħÐ°ÑĢÐ°Ðº":1950,"Ġmie":1951,"ĠÐ²ÐµÑī":1952,"ĠÐ¾Ð±ÐµÑģÐ¿ÐµÑĩ":1953,"ĠÐ²ÑģÐµÐ³Ð´Ð°":1954,"ĠÐ´Ð¾ÑĢ":1955,"ĠÐºÐ°ÑĩÐµÑģÑĤÐ²Ð":1956,"Ð»Ð¸Ñģ":1957,"ĠÐ´Ð°Ð²":1958,"ĠÑģÑĥÑīÐµÑģÑĤÐ²":1959,"ÐµÑĨ":1960,"ĠÐ½ÐµÐºÐ¾ÑĤÐ¾ÑĢ":1961,"ĠÐ²Ð°ÑĢÐ¸":1962,"Ð¾Ð²Ð°Ð½Ð¸Ðµ":1963,"ĠÐ½Ð¸":1964,"ĠÐ¿ÑĢÐ¸Ð´":1965,"Ð¾Ð²ÑĭÑħ":1966,"ĠÐ½Ð°Ð»":1967,"ĠÑģÐ¸Ð»":1968,"cia":1969,"ĠÐ²Ð½ÑĥÑĤ":1970,"ĠÐ¾ÑĤÐ½Ð¾ÑĪ":1971,"ĠÐ½Ð°Ð±":1972,"ĠÐ¼ÐµÐ¶Ð´Ñĥ":1973,"ĠÐ´Ð»":1974,"ÐµÑĤÐ":1975,"Ġczy":1976,"ĠÐ¼Ð¾Ð¼":1977,"Ð¾Ð¶Ðµ":1978,"ÐºÑĥÑģ":1979,"ĠÑĤÑĢ":1980,"ºÐ¾Ð¼ÐµÐ½Ð´":1981,"Ð¸Ð»ÑģÑı":1982,"Ð°ÑĢÑı":1983,"ĠÐ¿Ð¾Ð»Ð":1984,"Ð·Ð°":1985,"Ð¾ÑĢÑĤ":1986,"ĠÑģÐ»ÐµÐ´ÑĥÐµÑĤ":1987,"Ð°Ð¸Ð":1988,"Ð°Ð»ÑģÑı":1989,"ĠÐ²ÐºÐ»ÑİÑĩ":1990,"ĠÐ¿Ð¾ÑįÑĤÐ¾Ð¼Ñĥ":1991,"ĠÐ¾ÑĤÐºÑĢÑĭ":1992,"Ð¸Ð½Ð°Ñ":1993,"Ð°Ð½Ð½ÑĭÐµ":1994,"Ð¾Ð½Ð¾Ð²":1995,"Ð¾Ð½Ð°Ð»ÑĮ":1996,"ĠÐ´Ð¾Ð±Ð°Ð²":1997,"Ð¸Ð²Ð°ÐµÑĤ":1998,"ĠÐ¿ÑĢÐ°Ðº":1999,"ĠÑģÐ»Ð¾Ð¶":2000,"ĠÐ¡Ð¿":2001,"ĠÐ¼Ð½Ðµ":2002,"ĠÐ³ÑĢÑĥÐ¿":2003,"ĠÐ¼Ð°ÑĢ":2004,"ĠÐ¼Ð½Ð¾Ð³Ð¾":2005,"Ġlu":2006,"ĠÐ¿Ð¾Ð½":2007,"ĠÐ¼ÐµÑģÑıÑ":2008,"ĠÐ¿ÑĢÐ¾ÑģÑ":2009,"ĠÐ»ÑĥÑĩÑĪÐµ":2010,"ĠÐ¿ÑĢÐ¾ÑģÑĤ":2011,"ĠÐ½Ð°Ð¿ÑĢÐ°Ð²":2012,"Ð°Ð»Ð¸ÑģÑĮ":2013,"Ġ,":2014,"ĠÑĥÑģÐ»Ð¾Ð²Ð¸Ñı":2015,"ÐºÐ¾ÑĢÐ":2016,"ĠÐ°Ð²ÑĤÐ¾Ð¼Ð¾Ð±":2017,"ÑĢÐµÐ´Ð":2018,"ÑĥÐ¹":2019,"ĠNa":2020,"ÑģÐºÐ¾Ð¼":2021,"niu":2022,"ĠÐ°Ð»":2023,"ÑĤÐ¸Ñħ":2024,"ĠÐ¾Ð±Ð»Ð°ÑģÑĤÐ¸":2025,"ĠÐ¾ÑĤÐ¿":2026,"Ð³Ð°":2027,"Ð½Ð¸ÐºÐ¾Ð²":2028,"Ġâ":2029,"Ġjak":2030,"ÑıÐµÑĤ":2031,"ĠÐ¿Ð¾ÐºÑĥÐ¿":2032,"ÑıÐ¼":2033,"ĠÐ·Ð°Ð±Ð¾Ð»ÐµÐ²":2034,"ÑĤÐ²Ð¾ÑĢ":2035,"ÑĢÐ³":2036,"ĠÑħÐ¾ÑĤ":2037,"ĠÐ´Ð¾Ð²":2038,"ĠÐ´ÑĢÑĥÐ³Ð¸Ñħ":2039,"ĠÐĴÑģÐµ":2040,"ĠÐ¾Ð±ÑĭÑĩ":2041,"kÃ³w":2042,"ĠÐ²ÐµÑĢ":2043,"ĠÐ§ÑĤÐ¾":2044,"ĠÐ²ÑĭÐ·":2045,"ĠÐ¿Ð¾Ð»Ð¾Ð¶":2046,"ÐµÐ¹ÑĩÐ°Ñģ":2047,"ĠÐ½Ð°Ð¹":2048,"ĠÑĤÐ¸Ð":2049,"ĠÑĢÐ¸Ñģ":2050,"ÑĭÑ":2051,"ÑĤÐºÐ°":2052,"ĠÐ¿Ð¾ÑĤÑĢÐµÐ±":2053,"Ð½Ð¸Ðµ":2054,"ĠÑĥÐ±":2055,"ĠÐ¿ÐµÑĢÐ¸":2056,"ĠÑĦÐ¾ÑĢÐ¼Ð":2057,"ÑĭÑĤ":2058,"bie":2059,"ĠÑģÐ¿ÐµÑĨÐ¸Ð°Ð»ÑĮ":2060,"Ð»ÑıÑĤÑĮ":2061,"ÐµÐ»Ðµ":2062,"ÑĪÐ¸Ð¹":2063,"ĠÐ¸ÑģÐ¿Ð¾Ð»ÑĮÐ·Ð¾Ð²Ð°ÑĤÑĮ":2064,"ĠÑĨÐµÐ½ÑĤ":2065,"10":2066,"ĠÐ¿Ð¾ÑıÐ²":2067,"ĠÐ¿Ð¾Ð±":2068,"ĠÑģÑĥ":2069,"Ð°ÐºÐ":2070,"ĠÐ²ÐµÑģ":2071,"ÑĢÐµÑĩ":2072,"ĠÐ¿ÑĢÐ¸Ð±":2073,"Ġ.":2074,"ĠÑĪÐº":2075,"ĠÐŁÐ¾ÑģÐ»Ðµ":2076,"es":2077,"ek":2078,"ĠÑĢÐµÐºÐ¾Ð¼ÐµÐ½Ð´":2079,"ÑıÐ¶":2080,"Ġsta":2081,"Ð¸Ð»ÑĮÐ½Ð¾":2082,"ÐµÐ½ÐºÐ°":2083,"ĠÐ½Ð¾ÑĢÐ":2084,"Ġr":2085,"ÑĥÐ±Ð»":2086,"ĠÐ²ÑĢÐµÐ¼ÐµÐ½Ð¸":2087,"Ġ12":2088,"Ð¿Ð°":2089,"Ð½Ð´":2090,"Ð°Ð´Ð":2091,"ĠÑģÐ¾Ð³":2092,"ÑĢÐ°Ð¹":2093,"ÑĢÐ¾Ð¼Ðµ":2094,"ÑĢÐµÐº":2095,"½Ð¾Ð¼Ñĥ":2096,"ĠÐľÑĭ":2097,"ĠÑĨÐ²ÐµÑĤ":2098,"ÑĤÐ°ÑĤÐ¾ÑĩÐ½Ð¾":2099,"skie":2100,"ĠÑĩÐµÐ»Ð¾Ð²ÐµÐºÐ°":2101,"Ð½Ð¸ÑĨ":2102,"¼Ðµ":2103,"pi":2104,"ĠÑĤÑĢÑĥ":2105,"ÑıÑİÑĤ":2106,"ĠÑĢÐ°Ð·Ð¼":2107,"owych":2108,"´Ð°":2109,"ĠÐ¿Ð¾Ð¼Ð¾ÑīÑĮÑİ":2110,"ĠÐ½ÐµÐ³Ð¾":2111,"ĠÑģÑĥÐ¼":2112,"ĠÑĥÐ¿ÑĢÐ°Ð²":2113,"Ð¸Ð·Ð½ÐµÑģ":2114,"ÑĥÑĤÑģÑĤÐ²":2115,"ĠÑģÑĤÐ¾Ð»":2116,"Ð»ÑıÐ´":2117,"Ð°ÑĨÐ¸Ñİ":2118,"ĠÑģÐ¾Ñ":2119,"ĠÑĨÐµÐ»":2120,"Ġnaj":2121,"ĠV":2122,"ur":2123,"ĠÐ´Ð¾Ð¿Ð¾Ð»":2124,"ĠÐ¿ÑĢÐ¸Ð":2125,"ÑĤÐ¸Ð¹":2126,"ĠÐłÐ°Ð·":2127,"ĠÑģÐµÐ±Ð":2128,"Ð»ÐµÐ½":2129,"ba":2130,"Ð°Ð·Ð°":2131,"000":2132,"un":2133,"Ð»ÑİÐ´":2134,"ĠÐ¿Ð¾Ð´Ð´ÐµÑĢÐ¶":2135,"ÐµÐ´ÐµÐ½Ð¸Ñı":2136,"gra":2137,"ĠÐ¿ÑĢÐ¾ÑĪ":2138,"±Ð¾Ð»":2139,"ÑĤÐ¸ÐºÐ°":2140,"ĠÑģÐµÐ±Ðµ":2141,"ĠÐ¿Ð¾Ð»ÑĮÐ·Ð¾Ð²":2142,"ĠÑĥÑģÐ¿":2143,"Ð®":2144,"Ð»Ð¾Ð²":2145,"ĠÑģÑĤÐ°Ð²":2146,"owi":2147,"ĠÐºÐ»Ð°Ñģ":2148,"ÑĤÐ¸Ñĩ":2149,"ĠÐ¼Ð°Ð³":2150,"µÑĢÐµÐ²":2151,"ĠÐ²ÐµÑĢÐ":2152,"ĠÐ¾Ð±ÑĢÐ°":2153,"ĠÐ»Ð¸Ñĩ":2154,"Ð¾Ð»Ð¾Ð³Ð¸ÑĩÐµÑģÐº":2155,"ĠÐ¿ÑĢÐ¾Ð¸Ñģ":2156,"Ð¾Ð»Ð¾Ð¶":2157,"noÅĽci":2158,"Ð½Ð¾Ð³":2159,"ÑĨÑĭ":2160,"ĠÑģÐ±":2161,"ĠÐºÐ²Ð°ÑĢ":2162,"ĠÐ¿Ð¾Ð½Ð":2163,"ĠÑĤÐ°ÐºÐ¾Ð¹":2164,"ĠÑģÐ¾ÑĤ":2165,"ĠÑģÑĢÐµÐ´ÑģÑĤÐ²":2166,"ÑģÐ¸Ñı":2167,"½Ð¾Ð¶":2168,"Ð¾Ð¿Ð°Ñģ":2169,"ĠÑĢÐ°ÑģÑģÐº":2170,"ÑĢÐµÐ´Ð¸":2171,"Ð¸Ð»Ð¾":2172,"ÑĤÐ¾ÑĢÐ¸Ð¸":2173,"Ð°Ð½Ð¸Ð¼":2174,"ĠÑģÐ»ÑĥÐ¶":2175,"Ð½Ð¸Ñħ":2176,"ÐºÐ¸Ð¹":2177,"ÑĤÐ¸ÑĤÐµ":2178,"ÐµÐ´Ð":2179,"ĠÑĤÐµÑĩ":2180,"ĠÑģÐ¸Ð¼":2181,"Ð°ÐºÑģ":2182,"¸ÐµÐ¼":2183,"ĠÐ´ÐµÐ²ÑĥÑĪ":2184,"ĠsÄħ":2185,"ĠÐºÐ°Ð¿":2186,"ĠÐ»ÑİÐ´ÐµÐ¹":2187,"niej":2188,"ĠÑĤÑĢÐ°Ð½":2189,"Åº":2190,"sy":2191,"ĠÐ´Ð¾Ð»Ð¶Ð½Ñĭ":2192,"ÑĢÐ°ÑĨÐ¸Ð¸":2193,"Ġn":2194,"Ġta":2195,"ĠÐ´Ð¾ÑģÑĤÑĥÐ¿":2196,"ĠÐ¾ÑģÑĤÐ°Ð²":2197,"ÑĢÐ°ÑĪ":2198,"ĠÑģÐµÐº":2199,"³Ð¾ÑĤÐ¾Ð²":2200,"ÑģÑĤÐ²Ðµ":2201,"Ð»ÐµÐºÑģ":2202,"Ġni":2203,"ÐµÐ½Ðµ":2204,"ÐµÑĢÑĭ":2205,"Ġ18":2206,"ĠÐ¼Ð¸":2207,"ĠÐ½Ð°Ð²":2208,"ri":2209,"ĠÑĢÐµÑģ":2210,"sty":2211,"ĠÑĤÑĢÑĥÐ´":2212,"fi":2213,"ĠÑģÐ²Ð¾Ð¸":2214,"ĠÐ¸Ð½Ð´":2215,"ĠÐ¿Ð¾Ð³":2216,"men":2217,"ĠÑģÐ²Ð¾ÐµÐ¹":2218,"ĠÑģÐ¾Ð²ÐµÑĢÑĪ":2219,"bo":2220,"ĠÐ¿Ð¾Ð¼Ð¾Ð³":2221,"Ð¾Ð³ÑĢÐ°ÑĦ":2222,"ĠÑģÑĤÐ°ÑĢ":2223,"Ð°Ð½Ð½ÑĭÑħ":2224,"ĠÑĩÐ°ÑģÑĤÐ¾":2225,"ĠÐ¼Ð°ÑĪ":2226,"ĠktÃ³re":2227,"ĠÐ´ÐµÑĤÐµÐ¹":2228,"ĠÐ¿Ð¾ÐºÐ°Ð·":2229,"ÑĪÐ¸Ðµ":2230,"ĠÑģÐ²Ð¾Ñİ":2231,"ĠÐ·Ð°ÐºÐ¾Ð½":2232,"ÐºÐ¸Ðµ":2233,"Ġtak":2234,"ÑĤÑĥÐ¿":2235,"Ð°ÑĨÐ¸":2236,"µÐµ":2237,"Ġoraz":2238,"ĠÐ¸Ð¼ÐµÐ½Ð½Ð¾":2239,"ÑĢÐ¾Ñĩ":2240,"Ġkon":2241,"ĠÑĥÐ²ÐµÐ»Ð¸Ñĩ":2242,"ĠÐ°Ð½":2243,"ĨÐ¸Ð¾Ð½Ð°Ð»ÑĮ":2244,"Ġspo":2245,"Ð½Ð°ÑĤÑĮ":2246,"ĠÑįÑĤÐ¸":2247,"Ġ30":2248,"ĠÐ¿ÑĢÐ°Ð²Ð":2249,"ÐµÑĢÐµÐ´":2250,"ĠÐºÐ¾Ð¼Ð¿Ð°Ð½Ð¸Ð¸":2251,"ĠÑĢÐ°ÑģÑ":2252,"ĠÑĢÐ°ÑģÑĤ":2253,"ĠÑģÐ¸ÑĤÑĥ":2254,"ĠÐ´Ð¾Ð»Ð¶ÐµÐ½":2255,"ĠÐºÐ°Ð·":2256,"ĠÐºÐ¾Ð½ÑĤ":2257,"ÑĢÐµÐ¶Ð´":2258,"Ð½Ð¸ÑĤÑĮ":2259,"ĠÑģÑĤÑĢÐ¾Ð":2260,"ĠÐ³ÑĢÐ°Ð¶Ð´":2261,"ĠÐ»Ð¸ÑĨ":2262,"Ð¸Ð½Ð¾Ð¹":2263,"ÑıÑģ":2264,"Ġjed":2265,"ĠÐ£Ðº":2266,"ÑĢÐµÑĤ":2267,"ĠÐ´ÐµÑĢÐµÐ²":2268,"ÑĢÐ°Ð¼Ð¸":2269,"ÑĢÐ¾ÑģÑ":2270,"ÑĢÐ¾ÑģÑĤ":2271,"ÑĢÐ¸Ñģ":2272,"ĠÑĩÐ°ÑģÑĤÑĮ":2273,"ĠÐ¾Ð±Ð":2274,"ed":2275,"ĠÐ²Ð²":2276,"ĠÐµÐ¼Ñĥ":2277,"tÃ³w":2278,"ĠÐŀÐ´Ð½Ð°ÐºÐ¾":2279,"ĠÐ½ÐµÐ·":2280,"ĠÐĴÐ":2281,"ĠÐ²Ð¸Ð´Ðµ":2282,"ĠÐłÐ¤":2283,"pra":2284,"ĠÐ·Ð´Ð¾ÑĢÐ¾Ð²":2285,"pu":2286,"¸ÑĢÐ¾Ð²Ð°ÑĤÑĮ":2287,"ÑĤÐ¸ÑĩÐµÑģÐºÐ¸":2288,"Ġgo":2289,"ĠÐºÑĥÑĢ":2290,"ĠÐ´Ð¸Ñģ":2291,"ÑĤÐ¾ÑıÑĤÐµÐ»ÑĮ":2292,"ĠÐ²Ð¸Ð´ÐµÐ¾":2293,"¾ÑĤÐµ":2294,"Ð»ÐµÐ½Ð¸Ð¸":2295,"ĠÐ´Ð¾Ð¼Ð°":2296,"Ð¾ÐµÐ´":2297,"ĠÑĢÐ°Ð±Ð":2298,"Ð°Ð»Ð¾ÑģÑĮ":2299,"ĠÐ¿ÑĢÐµÐ´Ð¾ÑģÑĤÐ°Ð²":2300,"Ġpa":2301,"Ġprzez":2302,"ĠÑģÐ¿ÐµÑĨÐ¸Ð°Ð»":2303,"ÑĥÑİÑĤÑģÑı":2304,"ĠÐ·ÐµÐ¼":2305,"ÑĢÐµÐ¹":2306,"Ð¿ÐµÑĢÐ°Ñ":2307,"sza":2308,"Ġka":2309,"ĠÐ¿Ð¾Ñħ":2310,"ÑĢÐ°Ð½Ð¸Ñĩ":2311,"ĠÐ¼ÑĥÐ¶Ñĩ":2312,"Ð¸Ð²Ð°ÐµÑĤÑģÑı":2313,"Ð°Ð½Ð½ÑĭÐ¹":2314,"dze":2315,"ĠÐ»Ð¸Ñ":2316,"ÑİÑĤÑģÑı":2317,"ĠÐ·Ð°Ñģ":2318,"ĠÐ¿ÑĢÐ¾Ñĩ":2319,"ĠÐ¸Ð·Ð±":2320,"¶Ð":2321,"ĠÐ²ÑĭÐ³":2322,"ĠÐ½Ð°Ð³":2323,"Ð¾Ð³Ð¸":2324,"ĠÐ±Ð¸Ð·Ð½ÐµÑģ":2325,"ĠÑĦÐ¾ÑĤÐ¾":2326,"ĠÑĢÐ¾Ð´":2327,"ĠÐ¿ÑĢÐ¾Ð²Ð¾Ð´":2328,"ĠÑĢÐµÐ³":2329,"ĠÐ¼ÐµÐ½ÐµÐ":2330,"Ð»Ð¸Ñı":2331,"ju":2332,"ÐµÐ¹ÑģÑĤÐ²Ð¸Ñı":2333,"ĠÐ·Ð°Ð½Ð¸Ð¼":2334,"ĠÐºÐ°Ð¼":2335,"ĠÐ¿Ð¾Ð²ÑĭÑĪ":2336,"ĠÐ¿ÑĢÐ¾Ñħ":2337,"ĠÑĥÑĤ":2338,"³Ðµ":2339,"ĠÐ²ÑĤÐ¾ÑĢ":2340,"ĠÑģÐ»Ð¾Ð²":2341,"Ð½ÐµÑĢÐ":2342,"ĠÐ³Ð¾ÑĢÐ¾Ð´":2343,"ĠÑĥÑħ":2344,"ĠÐ¸Ð·Ð²ÐµÑģ":2345,"ĠÑĩÑĥÐ²":2346,"ĠÐ¼Ð¸Ð½ÑĥÑĤ":2347,"Ð¾ÑĦ":2348,"ĠÑĢÐ°Ð¹":2349,"ĠÐ½Ð°Ð»Ð¸Ñĩ":2350,"Ð½ÐµÑĪ":2351,"ĠÐ³ÑĢ":2352,"ĠÐ¾ÑĤÐ½Ð¾Ñģ":2353,"Ð½Ð°Ð»":2354,"´Ð¾":2355,"ĠÐ°Ð½Ð°Ð»":2356,"ĠÐ¿ÑĢÐµÑģ":2357,"Ð¾ÐºÐ":2358,"ĠÐ·Ð°Ð³":2359,"ĠÐ´ÑĢÑĥÐ³Ð¸Ðµ":2360,"os":2361,"ÑĮÑĤÐµ":2362,"ĠÐ¾ÑĤÑģ":2363,"ĠÐ½Ð°ÑĢÑĥÑĪ":2364,"Ð½Ð¾Ð¼Ñĥ":2365,"ÑĤÐ½Ð°Ñı":2366,"ĠÐ¼ÐµÑģÑĤÐ¾":2367,"½Ñ":2368,"Ð¸Ð½Ð¾Ð²":2369,"ĠÐ¿ÑĢÐµÐ¿Ð°":2370,"jÄĻ":2371,"ĠÑįÐ»ÐµÐºÑĤÑĢ":2372,"ĠÐ¿ÑĢÐ¾Ð´Ð¾Ð»Ð¶":2373,"ÐµÑĢÑģ":2374,"Ð¾Ð²Ð¾":2375,"ĠÐŀÑĤÐ":2376,"ĠÐ¾Ð±ÑĢÐ°Ð·Ð¾Ð¼":2377,"one":2378,"ĠÑĤÐ°Ð¼":2379,"ĠÐ²Ð¾Ð»Ð¾Ñģ":2380,"Ð°Ð»ÑĮÐ½ÑĭÐµ":2381,"Ġli":2382,"201":2383,"ĠÑģÐ¾ÑĤÑĢÑĥÐ´":2384,"ĠÑĥÐ´Ð¾Ð±":2385,"Ð¾Ð¹Ð´":2386,"ºÑĤ":2387,"Ð¸Ð»Ð¸ÑģÑĮ":2388,"ĠÑģÐ¸ÑģÑĤÐµÐ¼Ñĭ":2389,"Ð¾Ð¶ÐµÑĤ":2390,"ol":2391,"ĠÐ²ÑĢÐ°Ñĩ":2392,"ÑĥÑĤÐ":2393,"ĠÐľÐ¾ÑģÐº":2394,"ÑĨÐµÐ²":2395,"ÑıÐ²Ð»Ñı":2396,"ĠÐ²Ð¼ÐµÑģ":2397,"ĠÐ´Ð²Ð°":2398,"ĠÐ¿Ð¸Ñģ":2399,"Ð¸Ð¼Ð¾ÑģÑĤÐ¸":2400,"ĠÐ¿Ð¾Ð»ÑĥÑĩÐ¸ÑĤÑĮ":2401,"Ð°ÑģÑģ":2402,"ĠÑħÐ¾Ð»":2403,"ĠÐ¿ÑĢÐ¾ÐµÐº":2404,"Ġle":2405,"Ġzna":2406,"ĠÐ¿Ð¾Ð¼ÐµÑī":2407,"ĠÑĢÑĥÐ±Ð»ÐµÐ¹":2408,"ĠÐ´ÐµÑıÑĤÐµÐ»ÑĮ":2409,"ĠÐ§ÑĤÐ¾Ð±Ñĭ":2410,"ĠÐ²Ð¾ÑĤ":2411,"Ð¿ÐµÑĢÐ°ÑĤÑĥ":2412,"¸ÐºÐ¾Ð²":2413,"ĠÑģÐ¼Ð¾ÑĤ":2414,"Ð¼Ð¸Ð½Ð":2415,"ĠÐ¾ÑĦÐ¾ÑĢÐ¼":2416,"ĠÐŁÐ¾Ð»":2417,"ĠÐºÐ²Ð°ÑĢÑĤÐ¸":2418,"cza":2419,"Ð¸Ð½ÐµÐ½Ð":2420,"ĠÑĤÐµ":2421,"ĠÐ²Ð¾Ð·Ð¼Ð¾Ð¶Ð½Ð¾ÑģÑĤÑĮ":2422,"ĠÑĤÐµÐ»ÐµÑĦ":2423,"ĠÑĢÐ°Ð±Ð¾ÑĤÐ°Ñ":2424,"ĠÐ¾Ð·":2425,"ĠÐ¿ÑĢÐ¸Ð»":2426,"Ġwi":2427,"ÑĤÐ¾ÑĢÑĭ":2428,"ĠÐ´Ð¾ÑģÑĤÐ°ÑĤÐ¾ÑĩÐ½Ð¾":2429,"ĠÐ¿Ð¾Ð´Ð¾Ð±":2430,"ÑĥÐ´Ð°":2431,"ÑĢÐ°Ð·Ñĥ":2432,"ĠÑħÐ¾ÑĢÐ¾ÑĪÐ":2433,"ÑıÐ":2434,"ska":2435,"Ð»Ð¾Ð¼":2436,"ĠÐºÐ¾Ð»Ð¸ÑĩÐµÑģÑĤÐ²Ð¾":2437,"°ÑĤÐ":2438,"ier":2439,"Ð°ÑĤÑĢ":2440,"ĠÐ½ÐµÐ±Ð¾Ð»ÑĮÑĪ":2441,"ĠÐ±Ð»Ð°Ð³":2442,"ĠÑģÐ½Ð¸Ð":2443,"ĠÐ·Ð´ÐµÑģÑĮ":2444,"ĠÐ¿ÐµÑĢÐ¸Ð¾Ð´":2445,"\".":2446,"¸ÑĪ":2447,"ĠÐ´Ð²ÑĥÑħ":2448,"ĠÐ²Ð¾Ð·ÑĢÐ°Ñģ":2449,"ĠÐ¿ÑĢÐ¾ÑĦÐµÑģ":2450,"Ð°Ð»ÑĮÐ½ÑĭÐ¹":2451,"kÅĤa":2452,"ĠÐ½Ð°ÑħÐ¾Ð´":2453,"Ð¾Ð½Ñĥ":2454,"ĠÐ³Ð¾Ð²Ð¾ÑĢÐ":2455,"ĠÐ´Ð¾Ð¿Ð¾Ð»Ð½Ð¸ÑĤÐµÐ»ÑĮ":2456,"ÐµÑĩÐ":2457,"ĠÐŀÐ½Ð¸":2458,"ĠÐ»Ð¸Ð±Ð¾":2459,"ĠÐºÐ°ÑĤ":2460,"Ð°ÑİÑīÐ¸Ñħ":2461,"ĠÐ±ÐµÐ»":2462,"ĠÐ¿Ð¾Ð²ÐµÑĢÑħ":2463,"ĠÐ´ÐµÐ»Ð°ÑĤÑĮ":2464,"ĠÑĢÐµÐ³Ð¸ÑģÑĤ":2465,"ĠÑģÐµÐºÑģ":2466,"ĠbÄĻ":2467,"ĠÐºÐ¾ÑĤÐ¾ÑĢÐ¾Ð¹":2468,"Ð¸ÑĤÐµÐ»Ñı":2469,"ÑĢÐ°Ð±Ð¾ÑĤ":2470,"ÐµÐ½Ð½ÑĥÑİ":2471,"ĠÐ¢Ð°ÐºÐ¶Ðµ":2472,"Ð°Ð»ÑĮÐ½Ð¾Ð¹":2473,"Ð¸Ð»Ð°ÑģÑĮ":2474,"Ð¾Ð²Ð°ÑĢ":2475,"Ð¾Ð·Ð¼Ð¾Ð¶":2476,"Ġof":2477,"Ð¸Ð½Ð³":2478,"ÑĭÐ²Ð°ÑİÑĤ":2479,"ĠÑģÐµÐ³Ð¾Ð´Ð½Ñı":2480,"ÑģÑĳ":2481,"½Ð°":2482,"ĠÐ¿ÑĢÐ¾Ð¿":2483,"ĠÐ»Ð¸ÑĪÑĮ":2484,"Ð¸Ð²Ð°ÑİÑĤ":2485,"ĠÐ³Ð¾ÑģÑĥÐ´Ð°ÑĢÑģÑĤÐ²":2486,"ĠÐºÐ½Ð¸Ð":2487,"ĠÐ¿Ð¾ÑģÑĤÐ¾ÑıÐ½Ð":2488,"ĠÑįÑĦÑĦÐµÐºÑĤÐ¸Ð²":2489,"ÑĢÐ°Ð¿":2490,"½Ð¾Ðº":2491,"sa":2492,"ĠÐ¼Ñı":2493,"ÑģÑĤÐ°Ð½Ð¾Ð²":2494,"ĠÐ´Ð¾Ð³Ð¾Ð²":2495,"ĠÐ¿ÐµÑĢÐµÐ²":2496,"ĠmoÅ¼e":2497,"dni":2498,"owaÄĩ":2499,"Ġdzie":2500,"ÑĤÐ²ÐµÑĢÐ¶":2501,"ĠÑıÐ·":2502,"ÑĭÐ²Ð°ÐµÑĤ":2503,"ĠÐºÐ»Ð¸":2504,"Ð°Ð»ÑĮÐ½ÑĭÑħ":2505,"ĠÐ½ÐµÐ¹":2506,"ĠÐ²Ð½ÑĥÑĤÑĢ":2507,"ing":2508,"ĠÐ±ÐµÐ·Ð¾Ð¿Ð°Ñģ":2509,"Ð»ÐµÑĩ":2510,"ĠÐ¾ÑģÑĥÑīÐµÑģÑĤÐ²":2511,"ĠÑĢÐ°Ð´":2512,"ĠÐ±ÑĢ":2513,"ĠÐ¿Ð¾Ð¿ÑĥÐ»Ñı":2514,"ĠÑĤÐ°ÐºÐ¸Ðµ":2515,"ÑĤÐ¸Ð¸":2516,"ÑĥÑħÐ":2517,"ĠÐĿÐ°Ð¿":2518,"ĠÑĢÑĥÑģ":2519,"Ġra":2520,"stÄĻ":2521,"ĠÐ½Ð¾ÑĢÐ¼":2522,"ÑĤÐ¾ÑĢÐ¾Ð²":2523,"ĠÐļÐ":2524,"Ð²Ð¸Ð¶":2525,"ÑĤÐ²ÐµÑĢÐ¶Ð´":2526,"ĠÑħÐ¾ÑĢÐ¾ÑĪÐ¾":2527,"Ð°ÐºÑģÐ¸Ð¼":2528,"Ð°Ð»Ð°ÑģÑĮ":2529,"ÐµÐ»Ñİ":2530,"ĠÐ¸ÑģÑģÐ»ÐµÐ´":2531,"ĠÐ¿ÑĢÐµÐ´Ð»Ð¾Ð¶":2532,"Ð°ÐµÑĤÐµ":2533,"50":2534,"ĠÑģÐ¾Ñħ":2535,"ÐµÑĢÐ¼":2536,"ĠÑĢÑıÐ´":2537,"Ð»ÑıÐµÑĤÑģÑı":2538,"ĠÐ¾ÑĨ":2539,"we":2540,"ĠÐ¿Ð¾ÑģÑĤÐ°Ð²":2541,"ĠktÃ³ry":2542,"Ð¸Ð²Ð°Ð½Ð¸Ñı":2543,"Ð½ÐµÐ³Ð¾":2544,"ĨÐ¸Ñİ":2545,"ÑĥÐ»Ð¸":2546,"ĠÐ¡Ðº":2547,"\",":2548,"ĠÑĤÐµÐ¼Ð¿ÐµÑĢÐ°ÑĤÑĥ":2549,"ĠÐ´ÐµÐ½ÑĮÐ³Ð¸":2550,"Ð¸Ð½Ð°Ð½":2551,"tor":2552,"ĠÑĥÑģÑĤÑĢÐ¾Ð¹":2553,"ÐµÑĢÑ":2554,"ĠÐ¸Ð·Ð¼ÐµÐ½ÐµÐ½Ð":2555,"ÑĥÐ¶Ð´":2556,"ĠÑĢÐµÐ³Ð¸":2557,"Ð²Ñĭ":2558,"ĠÐ³ÑĢÑĥÐ¿Ð¿":2559,"ĠÐ¼ÐµÑģÑıÑĨ":2560,"ĩÐµÑģÐºÐ°Ñı":2561,"ÐµÑĤÐ¾Ð²":2562,"Ġda":2563,"ĠÐºÐ°ÑĩÐµÑģÑĤÐ²Ðµ":2564,"ÑĮÐµ":2565,"Ð½ÐµÐ½Ð¸Ñı":2566,"ĠÐºÑĢÑĥÐ¿":2567,"ĠÐ´Ð½ÐµÐ¹":2568,"ĠÐ²Ð½Ð¸Ð¼Ð°Ð½Ð¸Ðµ":2569,"ĠÑĢÐ°Ð²":2570,"ĠMa":2571,"ĠÑģÐ¾Ð²ÑĢÐµÐ¼":2572,"ĠÑįÐºÐ¾Ð½Ð¾Ð¼":2573,"Ð°Ð»Ðµ":2574,"ĠÑģÐ¾Ð±Ð¾Ð¹":2575,"ÐµÑĢÑĤ":2576,"ĠÐ½Ð°Ð·Ð²":2577,"ĠÑģÐµÐ¹ÑĩÐ°Ñģ":2578,"ĠÑĤÐµÑĩÐµÐ½Ð¸Ðµ":2579,"ÑĥÐµÐ¼":2580,"Ð½Ð¸Ð²":2581,"ĠÐ¿ÑĢÐ¸Ð¾Ð±":2582,"ÑĢÐ¸ÑĤ":2583,"ĠÑĢÐµÐ¶":2584,"Ð°ÑĤÐµÐ»ÐµÐ¹":2585,"ĠÑĦÐ¸Ð»ÑĮ":2586,"ĠÐ²ÑĭÐ²":2587,"ĠÐºÐ¾ÑĢÐ":2588,"ĠÐŀÐ¿":2589,"ĠÐ·Ð½Ð°ÐºÐ¾Ð¼":2590,"ĠÐ¿ÑĢÐ¾ÑĨÐµÑģÑģ":2591,"ÑĤÐ°ÑĨÐ¸Ð¸":2592,"ona":2593,"Ð¾Ð»Ð½Ñı":2594,"ÐµÑģÑ":2595,"cho":2596,"Ġ/":2597,"Ð¸ÑģÐ":2598,"ÐºÐ¾Ð»ÑĮ":2599,"½ÑĥÐ»":2600,"Ð°ÑīÐ":2601,"ĠÐ°Ð½Ð":2602,"ĠÐ²ÑģÑĤÑĢÐµÑĩ":2603,"ĠÐ½Ð°ÑģÑĤÐ¾ÑıÑī":2604,"Ð¾Ð»Ðµ":2605,"ĠÐ·Ð°ÐºÐ»ÑİÑĩ":2606,"ĠÑī":2607,"Ġmi":2608,"ÐµÑģÑĤ":2609,"ÅĤe":2610,"ÐµÐ´Ñĥ":2611,"Ġtym":2612,"ÑĨÐ¸Ñİ":2613,"Ð¾Ð½ÐµÐ":2614,"°ÑĤÐ°":2615,"ÑĭÐº":2616,"ÑĩÐµÑģ":2617,"ĠÐ¿ÑĢÐ¸Ð½Ð¸Ð¼":2618,"µÑĤÑģÑı":2619,"ĠÐ½Ð°Ð¸Ð":2620,"osta":2621,"Ð¾Ð»Ð¾":2622,"sp":2623,"Ð½Ð¸Ñĩ":2624,"Ð¸ÑģÐ»":2625,"ĠÐŁÐ¾ÑįÑĤÐ¾Ð¼Ñĥ":2626,"Ġ11":2627,"ĠÑĤÐ°ÐºÐ¸Ñħ":2628,"ĠÑĤÐ¾Ð¶Ðµ":2629,"ĠÐ®":2630,"ÑĩÐ¸Ðº":2631,"ng":2632,"ĠÐ±ÑĭÑģÑĤÑĢÐ¾":2633,"Ð°Ð»Ð»":2634,"ir":2635,"ĠÑģÐ¾Ð¿":2636,"ĠÐºÐ°Ð¶Ð´ÑĭÐ¹":2637,"ĠÐĹÐ":2638,"uje":2639,"ĠÐ²ÑĭÐ´":2640,"ĠÐ¿ÑĢÐµÐ´Ð»Ð°Ð³":2641,"ĠÐ¿ÑĢÐµÐº":2642,"Ð¸ÑĤÐµÐ»ÐµÐ¹":2643,"Ð¾Ð¾Ð±ÑĢÐ°Ð·":2644,"ĠÑħÐ¾Ñĩ":2645,"ĠÐ¼Ð¾Ð»Ð¾Ð´":2646,"ĠÐ¿Ð¾ÑĤÐ¾Ð¼Ñĥ":2647,"Ð°ÑĦ":2648,"ÑĳÐ½Ð":2649,"Ð¸Ð²Ð":2650,"Ð°ÑĩÐ°ÑĤÑĮ":2651,"Ð¾Ð²Ð¾Ð³Ð¾":2652,"ĠÐ´Ð²Ð¸Ð¶":2653,"ÐµÐ½Ð°Ð":2654,"ÑģÐ¸Ñħ":2655,"ĠÑĥÐºÐ°Ð·":2656,"Ð»Ð°Ð¼":2657,"Ð¸ÑĤÑĭ":2658,"ĠÐ¿ÑĢÐ¸Ð¼ÐµÐ½ÐµÐ½Ð":2659,"ĠÑįÑĤÐ¸Ñħ":2660,"µÐ¹":2661,"ĠÑĩÐµÐ³Ð¾":2662,"ÑĢÐ°Ð½Ñĭ":2663,"ĠÑĤÐµÑĢÑĢÐ¸":2664,"ÐµÐ²Ð":2665,"¼Ð°":2666,"ĠÑĢÐµÐº":2667,"Ð¾Ð³Ð°":2668,"ĠÑģÑĢÐ°Ð·Ñĥ":2669,"ĠÐ±Ð¾Ð»ÐµÐ·":2670,"ĠÐļÐ¾Ð³Ð´Ð°":2671,"Ġ14":2672,"ĠÐ·Ð°Ð½":2673,"Ð°ÑĪÐ":2674,"ÑģÑĤÐ²Ð¾Ð¼":2675,"ÑİÐ´":2676,"ĠÐ¾Ð±ÑĬÐµÐº":2677,"ÑĢÐ¼":2678,"ĠÑģÐ²Ð¾Ð¸Ñħ":2679,"ÑĤÐ°Ñı":2680,"Ð°Ð»ÑĮÐ½Ð¾Ð³Ð¾":2681,"Ġla":2682,"ĠÐļÐ¾Ð¼":2683,"Ġ100":2684,"ĠÑģÑĢÐµÐ´ÑģÑĤÐ²Ð°":2685,"Ġze":2686,"ĠÐ¿ÑĢÐ¸Ð·Ð½Ð°Ð":2687,"ĠÑģÐ°Ð¹ÑĤÐµ":2688,"ĠÐ¸Ð½Ð²":2689,"ĠÐĹÐ°":2690,"ĠÐ¿Ð°Ñģ":2691,"ÐµÐ»ÐµÐ¼":2692,"ÑĢÑĥÐ¼":2693,"ĠÑĢÐµÐ¼":2694,"ĠÐ²Ð¾Ð·Ð½Ð¸Ðº":2695,"ĠÑĩÐ°ÑģÑĤÐ¸":2696,"ĠÐ½Ð¾Ñģ":2697,"ĠÐ£ÐºÑĢÐ°Ð¸Ð":2698,"ÑĪÐµÐ³Ð¾":2699,"ĠÑįÐ»ÐµÐ¼":2700,"ĠÑĢÐ°Ð·Ð":2701,"Ð°ÑĨÐ¸Ð¾Ð½Ð":2702,"Ð°Ð½Ð½Ð¾Ð¹":2703,"ĠÑģÑĤÐ¾ÑĢÐ¾Ð½Ñĭ":2704,"Ð°Ð¼Ð°":2705,"ĠÐ²Ð¾Ð´Ñĭ":2706,"Ð°ÑĩÐ¸":2707,"ĠÐ¿Ð¾ÑĢÑıÐ´":2708,"ĠÐ¿Ð¾ÐºÐ°":2709,"__":2710,"ĠÑĢÐ°Ð·Ð¼ÐµÑĢ":2711,"ĠÐ¼Ð¸Ð»":2712,"ÐµÐ½Ð½Ð¾Ð¼":2713,"ĠÐºÑĢ":2714,"ĠÐ¾Ñħ":2715,"ÐµÑģÑĤÐ²Ð°":2716,"ĠÐ³Ð¾Ð»Ð¾Ð²":2717,"ĠÐ¿ÑĢÐ¸Ðº":2718,"µÑĩÐ½Ð¾":2719,"ĠÐ½Ð°Ð´Ð¾":2720,"Ð¾Ð½Ð½Ð":2721,"ĠÐ¼Ð°Ð³Ð°Ð·":2722,"ĠÑĪÐ¸ÑĢ":2723,"tycz":2724,"ĠÐ¾Ð±ÑĢÐ°Ñī":2725,"Ġlub":2726,"ĠÐ¿ÑĢÐµÐ²":2727,"ĠÐ½Ð¾Ð¼":2728,"ĠÐ¿ÑĢÐ¸Ð¼ÐµÑĢ":2729,"Ġde":2730,"ĠÐ²ÑģÐµÐ¼":2731,"ĠÐ³Ð¾Ð²Ð¾ÑĢ":2732,"ĠÑĤÐµÐ±":2733,"ĠÐºÐ¾Ð½ÑĤÑĢ":2734,"ĠÐ·Ð°Ð»":2735,"±Ð¾Ð»ÐµÐµ":2736,"Ð¾ÑĢÑĤÐ°":2737,"Ð»Ð¾ÑĤÐ":2738,"Ð°Ð½Ð°Ð²":2739,"Ġbez":2740,"ĠÐ¼ÐµÐ½ÐµÐµ":2741,"ĠÑģÑĤÑĢÐ¾Ð¸ÑĤÐµÐ»ÑĮ":2742,"µÑģÑı":2743,"ÐµÑģÑĤÐ²Ð¾":2744,"ĠÐ½Ð°Ð·Ð½Ð°Ñĩ":2745,"ĠÐ¼ÐµÑĢ":2746,"¸ÑĤÐ°ÑĤÑĮ":2747,"ĠÐ¿Ð¸ÑĤ":2748,"ĠÐ¿Ð»Ð¾Ñī":2749,"Ð±ÑĢÑı":2750,"ĠÐºÐ°Ð·Ð¸Ð½Ð¾":2751,"ĠÑĢÑĥÐºÐ¾Ð²":2752,"res":2753,"ĠÐļÑĢÐ¾Ð¼Ðµ":2754,"Ħĸ":2755,"ĠÑĢÐ°Ð±Ð¾Ñĩ":2756,"ĠÑģÑĭ":2757,"ad":2758,"ÑģÐºÐ¾Ðµ":2759,"ÑĪÐµÐ¹":2760,"¾ÑĢÑĥÐ´":2761,"ĠÐ¡Ð²":2762,"Ġ16":2763,"ÑĨÐ¸Ð¹":2764,"ĠÑģÑĤÐ¾Ð¸Ð¼":2765,"ĠÐºÐ¾Ñģ":2766,"ĠÑģÐ¾Ð³Ð»Ð°Ñģ":2767,"ĠÑĢÑĭÐ½Ð":2768,"ĠÑĨÐ²Ð":2769,".,":2770,"Ð°ÑİÑīÐ¸Ðµ":2771,"ĠÐ±ÐµÑģÐ¿Ð»Ð°ÑĤÐ½Ð¾":2772,"ÑĳÑ":2773,"Ð±Ð°":2774,"ÑĳÑĤ":2775,"ÐµÑģÐ":2776,"owej":2777,"ĠÐ¿Ð¾Ð·Ð²Ð¾Ð»ÑıÐµÑĤ":2778,"ĠÐ¼Ð¾ÑĢ":2779,"ÐµÐ¼Ðµ":2780,"ĠÐ¼Ð¾Ð¼ÐµÐ½ÑĤ":2781,"ĠÐºÐ¾Ð½Ðº":2782,"ĠÐ´ÐµÐ½ÐµÐ":2783,"ĠÑģÑĤÐ°Ð½Ð¾Ð²":2784,"Ġos":2785,"Ð¾Ð½Ð´":2786,"ĠÐĿÐ¾Ð²":2787,"ĠÐŀÑģ":2788,"Ð¸Ð»Ð¾ÑģÑĮ":2789,"ĠÐ°Ð¼":2790,"»Ðµ":2791,"ÑĤÐ¸Ð·":2792,"ĠâĢŀ":2793,"ĠÐ¼ÐµÑĤÐ¾Ð´":2794,"ĠÐ¿Ð¾Ð¶":2795,"ĠÐ¶Ð¸Ð·Ð":2796,"us":2797,"el":2798,"ĠÐ¿ÑĢÐ¾Ð¼":2799,"Ð¾ÑĢÐµ":2800,"ĠÐ¾Ð´Ð½Ð¾Ð¹":2801,"ÑĢÐµÑĪ":2802,"ĠÑģÑĩÐ":2803,"ran":2804,"Ġce":2805,"ĠÐ¡Ð°Ð¼":2806,"ĠÐ°ÑĢÐ":2807,"ĠÐ¾ÑĩÐµÑĢÐµÐ´":2808,"Ð»ÐµÐ½Ñĭ":2809,"Ð¾Ð·Ñı":2810,"owanie":2811,"ĠÑĢÐµÐ±ÐµÐ½ÐºÐ°":2812,"ĠÐ¸ÑģÐºÐ»ÑİÑĩ":2813,"ĠÐºÐ¾ÑĤÐ¾ÑĢÐ¾Ðµ":2814,"ĠÑĩÐ":2815,"ĠÑĢÐ°Ð½Ð":2816,"ĠÐ»ÑİÐ´Ð¸":2817,"ĠÑģÐ¾ÑĨÐ¸Ð°Ð»ÑĮ":2818,"ĠÑħÐ°ÑĢÐ°ÐºÑĤÐµÑĢÐ":2819,"Ð¾Ð»Ð¾Ð³Ð¸Ð¸":2820,"Ð°Ð½Ð½Ð":2821,"ĠÐ¿Ð¾Ð´Ð³Ð¾ÑĤÐ¾Ð²":2822,"zna":2823,"ĠÐ½Ð¸Ñĩ":2824,"ÑĢÐµÑħ":2825,"Ð½Ñĥ":2826,"ĠÐ´Ð°Ð»ÑĮ":2827,"ÐµÐ½Ð·":2828,"tt":2829,"ÑĢÐ¸ÑĢÐ¾Ð²":2830,"for":2831,"sto":2832,"Ð¸ÑĨÐ¸":2833,"ĠÐŁÑĢÐµÐ´":2834,"ĠÑĥÐ´Ð°Ð»":2835,"ĠâĢľ":2836,"ºÐ¾Ð²":2837,"ĠÐ´Ð¾ÑģÑĤÐ¸Ð":2838,"ĠÐ±ÑĭÐ²":2839,"·ÑĭÐ²":2840,"ĠÐ¿ÑĢÐ¸Ñħ":2841,"ÐµÐ½Ð½ÑĭÐ¼Ð¸":2842,"ĠÐºÐ¾Ð½Ñģ":2843,"Ð¸ÑĩÐµÑģÐºÐ¸Ñħ":2844,"ĠÐ³ÑĢÑĥ":2845,"ÐµÑĢÐº":2846,"jÄħcy":2847,"Ð¾Ð¸Ð¼Ð¸":2848,"Ð¿Ð¸":2849,"ĠÐ¾ÑĤÐ¼":2850,"ĠâĦĸ":2851,"Ã³ÅĤ":2852,"ĠÐ¿Ð¾ÑĢÐ½Ð¾":2853,"Ð°ÑĢÑ":2854,"ÑģÑĤÑĥÐ¿":2855,"Ð¸Ð·Ð°ÑĨÐ¸Ð¸":2856,"szyst":2857,"ĠÑģÑĩÐµÑĤ":2858,"Ð°ÑĢÑĤ":2859,"ĠÑĪÑ":2860,"ĠÑĪÑĤ":2861,"21":2862,"ĠmoÅ¼":2863,"Ġswo":2864,"ĠÐ»Ð¸Ð½Ð":2865,"ĠÐķÐ²":2866,"ĠNie":2867,"ĠÑģÑĩÐ¸ÑĤ":2868,"ĠÑĦÐ¸Ð·":2869,"ĠJe":2870,"tk":2871,"ĠÐ¿ÐµÑĢÐµÑģ":2872,"ÐµÐ·Ð´":2873,"ĠÑĢÐ¾ÑģÑģÐ¸Ð¹":2874,"ĠÑĢÐ°Ð±Ð¾ÑĤÑĥ":2875,"ĠÐ¾ÑĤÐ´ÐµÐ»":2876,"ĠÐ¿ÑĢÐ¾Ð²ÐµÑĢ":2877,"ÑĤÐ½ÑĭÐ¼":2878,"Ð¾ÐµÐ²":2879,"Ð¸ÑĨÐ¸Ð°Ð»ÑĮ":2880,"ĠÑĢÐµÐ·ÑĥÐ»ÑĮÑĤÐ°":2881,"Ð¾ÑĢÑĭ":2882,"ĠÐ½Ð°Ð¿ÑĢÐ¸Ð¼ÐµÑĢ":2883,"Ġ13":2884,"ĠÐŀÑ":2885,"ĠÐŀÑĤ":2886,"ĠZa":2887,"ĠÐµÑ":2888,"ĠÑĤÐµÑħÐ":2889,"ĠÐ¾Ð³ÑĢÐ°Ð½Ð¸Ñĩ":2890,"Ð¿Ð»":2891,"ĠÐºÐ°Ñģ":2892,"ÑĥÑĩÑĪ":2893,"Ð¸Ð´Ñĥ":2894,"ĠÐĺÐ¼":2895,"ĠÑĤÐµÑħÐ½":2896,"ĠÑģÐ²Ð¾ÐµÐ³Ð¾":2897,"ĠÑģÐ¿ÑĢÐ°Ð²":2898,"um":2899,"ĠÐŀÐ½Ð°":2900,"ĠÑĤÐµÐ¿Ð»":2901,"Ġ50":2902,"ĠÐ²ÑģÑĳ":2903,"ĠÐ¼ÑĥÐ·":2904,"ul":2905,"ĠÐ¿Ð¾Ð½Ð¸Ð¼":2906,"ĠÐ´Ð½Ñı":2907,"Ð»ÑıÑİÑĤ":2908,"ÑĤÐ½Ð¾Ðµ":2909,"ĠÐ¿Ð¾Ð´ÑħÐ¾Ð´":2910,"Ð¾Ð½Ð¸Ð":2911,"Ð¸ÑīÐ":2912,"Ġbar":2913,"Ġale":2914,"ĠÑģÑĤÑĢÐ°Ñħ":2915,"ĠIn":2916,"µÑĦ":2917,"cyj":2918,"iaÅĤa":2919,"ÑĨÐ¸Ð¿":2920,"½ÑĤ":2921,"Ð´Ð¾":2922,"ĠÐ²Ð½ÐµÑĪ":2923,"iÄĻk":2924,"Ð¾Ð¿ÑĢÐ¸Ñı":2925,"ĠÑĢÐµÐ´":2926,"rowa":2927,"ĠÑıÐ²Ð»ÑıÑİÑĤÑģÑı":2928,"Ð¾Ð´Ð°ÑĢÑı":2929,"co":2930,"°ÑĤ":2931,"ĠÐºÐ»Ð°ÑģÑģ":2932,"Ð¾Ð¶Ð´ÐµÐ½Ð¸Ñı":2933,"Ð°Ð½Ð°Ð²Ð»Ð¸Ð²":2934,"ĠÐ½Ð°Ð¹ÑĤÐ¸":2935,"ĠÐºÐ¾ÑĤÐ¾ÑĢÐ¾Ð³Ð¾":2936,"ĠÐ¾ÑģÐ²":2937,"ĠÑĢÐ°ÑģÐ¿Ð¾Ð»Ð¾Ð¶":2938,"cje":2939,"ck":2940,"ĠÐºÐ°ÑĩÐµÑģÑĤÐ²":2941,"ÐµÐ½Ð¸ÑĤÑĮ":2942,"ĠÑĢÐ°Ð·Ð´":2943,"µÑĤÐ¸":2944,"ÑĢÐ¾ÑĦ":2945,"ĠÑĢÐ°Ð·Ð²Ð¸ÑĤÐ¸Ñı":2946,"ĠÐ¿Ð¾Ð»Ð½Ð¾ÑģÑĤÑĮÑİ":2947,"Ð¾ÑĤÑĭ":2948,"ĠÐºÐ¾Ð½ÑģÑĤÑĢÑĥÐº":2949,"ÑĥÑīÐµÑģÑĤÐ²Ð":2950,"ÐµÑĢÐ°ÑĨÐ¸Ð¸":2951,"ĠÑģÐ¸Ð»ÑĮ":2952,"ĠÐ¼Ð¸Ðº":2953,"ĠÐ´Ð¾Ð»Ð¶Ð½Ð°":2954,"ĠÐ´Ð¸Ð·":2955,"ĠÐ¾ÑĤÐ¿ÑĢÐ°Ð²":2956,"Ð°ÑĤÐµÐ»Ð¸":2957,"ĠÐ¿Ð¾Ð»ÐµÐ·":2958,"ĠÐºÑĥÐ»ÑĮ":2959,"ĠÑĦÐ¸Ð½Ð°Ð½":2960,"ĠÑĢÐµÐ°Ð»ÑĮ":2961,"ĠÐŁÑĢÐ":2962,"ÐºÐ¾Ð»ÑĮÐºÑĥ":2963,"Ð¼Ð¾ÑĤÑĢ":2964,"ÑĭÐ²Ð°ÐµÑĤÑģÑı":2965,"Ð°Ð½Ðµ":2966,"ĠÑģÑħ":2967,"Ġprzed":2968,"rzÄħ":2969,"ĠÑģÐ²Ð¾Ð¸Ð¼Ð¸":2970,"12":2971,"ĠÑģÑĢÐ¾Ðº":2972,"ĠÐ¿Ð¾Ð»Ð¸":2973,"ĠÑģÑĤÐ°ÑĤÑĮÐ":2974,"ĠÐ½Ð°Ð½Ð":2975,"ĠÑģÐµÑĢÐ´":2976,"ĠÑĤÑĭÑģÑı":2977,"ÑģÑĭÐ»":2978,"ĠÐºÐ¾Ð½ÑĨ":2979,"iaÅĤ":2980,"ÐµÑĢÐ³":2981,"ĠÐ¾ÐºÐ¾Ð»Ð¾":2982,"°Ñĩ":2983,"ĠÐ¿Ð»Ð°ÑĤ":2984,"ĠÑģÑĦ":2985,"ĠÐ°Ð²ÑĤÐ¾Ð¼Ð¾Ð±Ð¸Ð»":2986,"ĠÐ²Ð¾Ð¹":2987,"ĠÐ¸Ð¼ÐµÑİÑĤ":2988,"ĠÐ²Ð»Ð¸Ñı":2989,"ÅĽli":2990,"ĠÐ²Ð¾Ð·Ð²":2991,"½Ñİ":2992,"ĠÐŁÑĢÐ°Ð²":2993,"do":2994,"ĠÐºÑĥÐ¿Ð¸ÑĤÑĮ":2995,"ĠÐ¿Ð¾ÑĤÐ":2996,"ĠÐ¼Ð°ÐºÑģÐ¸Ð¼":2997,"ĠÑĤÐ¾Ð»":2998,"Ð¾Ð»ÑĮÐ½Ð¾":2999,"ĠÑĤÐ¾Ð²Ð°ÑĢ":3000,"ÑĢÑıÐ´":3001,"owania":3002,"ÐµÑĢÐ¸":3003,"ĠÑĤÐ°ÐºÐ¾Ðµ":3004,"ĠÑĤÑĢÐ°Ð½ÑģÐ¿":3005,"ĠÐ¶Ð¸Ð·Ð½ÑĮ":3006,"ĠÐ¾ÑĤÐ´ÐµÐ»ÑĮ":3007,"ĠÑĢÐ°ÑģÐ¿ÑĢÐ¾ÑģÑĤ":3008,"ÑĩÐ¸Ð²":3009,"ÑıÑħ":3010,"ĠÐ¿ÑĢÐ¾ÑĦÐµÑģÑģÐ¸":3011,"dza":3012,"ĠÑģÐ¾ÑģÑĤÐ¾Ñı":3013,"ÑĢÐµÐ´Ð¸ÑĤ":3014,"ĠÐ¼ÐµÐ´Ð¸ÑĨ":3015,"ÑĢÑĮ":3016,"ÑĢÐ¾Ð¸Ð":3017,"ĠÐ²Ð°ÑĢÐ¸Ð°Ð½":3018,"ĠÑĤÐ²":3019,"ĠÑģÐ¾ÑģÑĤÐ¾ÑıÐ½Ð":3020,"Ð°Ð³Ð":3021,"Ð¸Ð½Ð¸Ð":3022,"ĠÐ¿ÑģÐ¸Ñħ":3023,"Ð¼Ð¾":3024,"Ð¾ÑģÑĤÐ¾ÑıÑĤÐµÐ»ÑĮ":3025,"ĠÐ²ÑĭÐ´ÐµÐ»":3026,"ĠÐ´Ð°Ð»":3027,"Ġ25":3028,"Ġ[":3029,"Ġ17":3030,"ĠÑĤÑıÐ¶":3031,"ĠÑģÑĢÐµÐ´Ð":3032,"ĠÐ²ÐµÐ»":3033,"Ð¾ÑĤÑĢÐµÐ±":3034,"ĠÐĲÐ²":3035,"ÑĢÑĥÐµÑĤ":3036,"ĠÐ¸Ð³ÑĢÑĭ":3037,"lko":3038,"ÐµÐ½Ñģ":3039,"ÑģÐµÐ¼":3040,"ĠÐ¿ÑĢÐ¸Ð³Ð¾ÑĤÐ¾Ð²":3041,"Ð¸ÑĢÐ¾Ð²":3042,"ĠÑĤÑĢÐ¸":3043,"ĠÑĤÐ¾ÑĢÐ³":3044,"ĠÐ¼ÐµÐ½ÑĮ":3045,"dzo":3046,"kt":3047,"ĠÐ´Ð¾Ð¼Ð°ÑĪ":3048,"ĠÑĤÐº":3049,"ĠÐ°Ð³":3050,"ĠÑįÐ½ÐµÑĢÐ":3051,"nt":3052,"Ð¼Ð¸Ð½Ð¸ÑģÑĤ":3053,"Ð·Ñı":3054,"Ð»ÐµÐ½Ð¸ÐµÐ¼":3055,"ĠÑĤÐµÐº":3056,"ĠÐ»ÑİÐ±Ð¾Ð¹":3057,"ĠÐ¸Ð·Ð´":3058,"Ð¾Ð½Ñĩ":3059,"ÑĢÑĥÐºÑĤÑĥ":3060,"ĠÐĲÐ»ÐµÐºÑģ":3061,"ĠÐµÑĳ":3062,"ĠÐ±Ð°Ð½Ðº":3063,"¸ÑĤÐ°Ñ":3064,"ĠÐ¸Ð½ÑģÑĤ":3065,"ĠÑĥÑģÐ»Ð¾Ð²Ð¸ÑıÑħ":3066,"stÄĻp":3067,"jÄħc":3068,"¾ÑĦ":3069,"ĠÐ¿Ð»Ð°Ñģ":3070,"ĠÅ":3071,"ĠÐºÐ°ÐºÐ¾Ð¹":3072,"ÑıÑİÑī":3073,"Ð¾Ð´Ð½Ð¾Ð¹":3074,"ĠÐ°Ð±":3075,"ĠÐ¾Ð±Ð»Ð°Ð´":3076,"Ð¿ÑĤÐ¾Ð¼":3077,"Ð»ÑıÑİÑī":3078,"19":3079,"ĠÐ¿ÑĢÐ¸Ð½Ñı":3080,"ĠÐ¸Ð´ÐµÐ":3081,"ĠÐĶÐ¶":3082,"ĠÐ¼Ð¸Ð½Ð¸Ð¼":3083,"ĠÐºÐ¾Ð¼Ð¿Ð»ÐµÐº":3084,"ĠÐ¿Ð¾Ð´Ð¿":3085,"at":3086,"ĠÐ¾Ð±Ð¾ÑĢÑĥÐ´":3087,"Ð¾Ð¶Ð½Ð¾":3088,"Ð½Ð°ÐºÐ¾Ð¼":3089,"ÑģÐºÐ¸Ð¼":3090,"!!":3091,"ĠX":3092,"ÑıÐ½Ð":3093,"´Ðµ":3094,"ĠÐ´ÐµÐ¹ÑģÑĤÐ²Ð¸Ñı":3095,"ĠÐ±ÑĥÐº":3096,"ÅĤÄħ":3097,"so":3098,"ÑĤÐ¸Ñģ":3099,"ĠÐ¿Ð¾Ð´Ð²":3100,"ĠÐ´Ð¾Ð¿":3101,"ÑĤÐµÑĤ":3102,"ĠÐ¿Ð¾ÑĤÐ¾Ð¼":3103,"ĠÑģÑĤÐ°Ð»":3104,"ÑĭÐ»":3105,"ÑģÐ»ÑĥÐ¶":3106,"ĠÐ±Ð¾ÑĢ":3107,"Ð¼Ð°ÑĤÑĢ":3108,"ÑĤÐ½Ð¾ÑģÑĤÐ¸":3109,"Ð¾Ð¶Ð¸":3110,"ĠÐ²Ð¼ÐµÑģÑĤÐµ":3111,"ĠÑĤÐµÑģ":3112,"Ð¾Ð±ÑĢÐ°Ð¶":3113,"ÑĤÐ¸Ð½":3114,"ĠÑģÑĤÑĢ":3115,"ĠÐ½Ð°ÑģÑĤÑĢ":3116,"´Ð¸":3117,"ĠÐ²ÐµÐ´ÑĮ":3118,"ĠÐ²ÑĭÑĪÐµ":3119,"ĠÐ¿ÑĢÐ¾Ðº":3120,"ĠÐ´ÐµÑģ":3121,"ĠÑĩÑĥÐ²ÑģÑĤÐ²":3122,"dow":3123,"Ð¸ÑĩÐµÑģÐºÐ¸Ðµ":3124,"ĠÐĺÑģ":3125,"ĠÐ³Ð°":3126,"ĠÐ¸Ð³ÑĢÐ¾Ð²":3127,"ĠÑģÐ°Ð¹Ñ":3128,"ĠÐ½Ð°ÑģÑ":3129,"ĠÑģÐ°Ð¹ÑĤ":3130,"ĠÐ½Ð°ÑģÑĤ":3131,"ÑİÐ±":3132,"ĠÑĤÐ¾ÑĤ":3133,"Ð°ÑİÑīÐ¸Ð¹":3134,"ĠÐ½ÐµÐ´Ð¾Ñģ":3135,"Ð°ÑīÐµ":3136,"ĠÑģÐ²Ð¾Ð±":3137,"ĠÐ¸Ñİ":3138,"ÑĭÑģ":3139,"ĠÑĦÐ¾ÑĤ":3140,"ĠÑģÐ°Ð¼ÑĭÑħ":3141,"owego":3142,"ÐºÐ¾ÑģÑĤÑĮ":3143,"ÑĢÐ¸Ð¸":3144,"Ð½Ð¸ÑĤÐµ":3145,"ĠÐ±ÐµÑģ":3146,"ĠÐ¿Ð¾Ð¼Ð¾ÑīÐ":3147,"ĠÐ¿Ð¾Ð¼Ð¾ÑīÐ¸":3148,"ĠÑĤÐ¸Ð¿":3149,"Ð»ÐµÐ½Ð°":3150,"ĠÑĤÑĢÐ°Ð²":3151,"ĠÐĹÐ°Ðº":3152,"ĠÐ¸ÑĤ":3153,"ĠÑģÐµÑĢ":3154,"ĠÐ¾Ð±Ñģ":3155,"ÐºÐ¾Ð³Ð¾":3156,"ĠÐ³Ð¾ÑĢÐ¾Ð´Ð°":3157,"ĠÑģÐ¾Ñĩ":3158,"ĠÑĥÑģÐ»ÑĥÐ³":3159,"ĠÐ¿Ð¾Ð¸Ñģ":3160,"ĠÐ±Ð°Ð½Ð":3161,"ĠÐ±ÐµÑĢÐµÐ¼":3162,"Ġop":3163,"ĠÑģÐ¾Ð»":3164,"ĠÐ½Ð¾Ð³":3165,"¶Ðµ":3166,"ĠÐ¸Ð½ÑĤÐµÑĢÐ½ÐµÑĤ":3167,"Ġwszyst":3168,"ĠÐ½Ð¸ÐºÐ°Ðº":3169,"Ð¾Ð¶Ð¸Ð´":3170,"ĠÐĹÐ´":3171,"Ð¸ÐµÑģÑı":3172,"ĠÐ¿ÑĢÑı":3173,"ĠÑģÐ²ÑıÐ·Ð":3174,"ĠÑģÐ²ÑıÐ·Ð¸":3175,"ĠÐºÑĢÑĭ":3176,"ĠÑĢÐµÐ°Ð»":3177,"ĠÐ½Ð¸Ð¼":3178,"¸ÑĨÑĭ":3179,"ĠÐºÑĥÐ»ÑĮÑĤÑĥ":3180,"Ð¸Ð²Ð¸Ð´Ñĥ":3181,"ĠÐ½Ð°ÑĢ":3182,"ĠÐ»ÐµÑĩÐµÐ½Ð¸Ñı":3183,"ĠÐ´ÑĢÑĥÐ³Ð¾Ð¹":3184,"ĠÐ·Ð°Ð±Ð¾Ð»ÐµÐ²Ð°Ð½Ð¸Ñı":3185,"Ġthe":3186,"ĠÐĵÐ»Ð°Ð²":3187,"Ð¼Ð¾ÑĤÑĢÐµÑĤÑĮ":3188,"Ð»Ð°ÑĪ":3189,"ĠÑģÐ°Ð¼Ð¾ÑģÑĤÐ¾ÑıÑĤÐµÐ»ÑĮ":3190,"Ġczas":3191,"ĠÐľÐ":3192,"ĠÐ»ÐµÐ³ÐºÐ¾":3193,"Ð¾Ð¸":3194,"µÑĢÐ°":3195,"ĠÐ²ÐµÑģÑĮ":3196,"ÐµÐ²Ð¾Ð¹":3197,"ÑıÐ½":3198,"ĠÐ¾ÑĤÐ¼Ðµ":3199,"Ġsy":3200,"ĠÐ¿Ñı":3201,"ĠÐ¼Ð°ÑĤ":3202,"ÐĻ":3203,"ĠÑģÐºÐ¾ÑĢÐ":3204,"ĠÑģÐ¾Ðº":3205,"wiÄħ":3206,"ĠÐ·Ð°ÑĤÐµÐ¼":3207,"ĠÐ½Ð°ÑĪÐ":3208,"Ġpoz":3209,"ĠÐ½Ð¸Ð·":3210,"ĠÐ½Ð°ÑĩÐ¸Ð½Ð°Ð":3211,"ĠÑĥÐ²Ð¸Ð´":3212,"ĠÐ²Ð´":3213,"ĠÐ¿Ð°ÑĨÐ¸":3214,"ttp":3215,"Ð¾ÐºÑģ":3216,"Ð¾Ð»Ð¾Ð²":3217,"rza":3218,"ĠÐ´Ð²Ð¸Ð³":3219,"ĠÐĴÐ¾":3220,"ĠÑģÐ½Ð¸Ð¶":3221,"ĠÐŁÐµÑĢÐ²":3222,"nika":3223,"ĠÐ´Ð¾ÑģÑĤÐ°Ð²":3224,"ĠÐ¿Ð¾Ð½Ñı":3225,"ĠÐ²Ð°ÑĪÐ":3226,"ĠÐ½Ð¾Ñĩ":3227,"ĠÐ¾Ð¿Ð°Ñģ":3228,"ÑĢÐµÐµ":3229,"ve":3230,"ĠÐ¼ÑĭÑĪ":3231,"ĠÑĤÐ¾Ð³Ð´Ð°":3232,"Ð½Ð¸ÑĩÐµÑģÐº":3233,"ĠÐ³Ð°Ð·":3234,"Ð½Ð¾ÑģÑĤÐµÐ¹":3235,"ĠÐ¾Ð´Ð½Ð¾Ð³Ð¾":3236,"30":3237,"gu":3238,"Ð¼ÐµÐ½":3239,"ĠÐ¿ÑĢÐ¸Ð»Ð¾Ð¶":3240,"ĠbÄĻdzie":3241,"ĠÐ¿ÑĢÐ¾Ð¸Ð·":3242,"ĠÐ¾ÑĦÐ¸ÑĨÐ¸Ð°Ð»ÑĮ":3243,"ÑĤÐ¸ÑĤÐµÐ»ÑĮ":3244,"ĠÐ³Ð»ÑĥÐ±":3245,"ĠÐłÐ°Ñģ":3246,"ĠÐ½Ð°Ð¸Ð±Ð¾Ð»ÐµÐµ":3247,"ĠÐ¾Ð±Ð»":3248,"ĠÐ´ÐµÑıÑĤÐµÐ»ÑĮÐ½Ð¾ÑģÑĤÐ¸":3249,"Ð¾ÑĩÐºÐ¸":3250,"Ð»ÐµÐ¶":3251,"Ð¾Ð´Ð¾Ð²":3252,"ĠÐºÑĢÐ°ÑģÐ¸Ð²":3253,"ÑĢÐµÑģÑģ":3254,"ĠÐ³ÑĢÐ°Ð¶Ð´Ð°Ð½":3255,"ĠÐ¿ÑĢÐ¾Ð¸ÑģÑħÐ¾Ð´Ð¸ÑĤ":3256,"--":3257,"Ð½ÐµÐ½Ð¸Ðµ":3258,"ĠÐºÑĢÐµÐ¿":3259,"ĠÐ²Ð»Ð°Ð´":3260,"ĠÐ¢Ð":3261,"ĠÐ¾Ð²":3262,"Ð¾Ð»Ð°":3263,"ÐµÐºÐ°ÑĢ":3264,"//":3265,"ĠÐ²Ð½ÑĥÑĤÑĢÐµÐ½Ð½Ð":3266,"ĠÐ¿ÐµÑģ":3267,"ĠÐ¿ÑĢÐµÐ·":3268,"ĠÑįÐ»ÐµÐºÑ":3269,"ĠÑįÐ»ÐµÐºÑĤ":3270,"Ð¨ÐĲ":3271,"ĠÐ¾ÑĢÐ³Ð°Ð½Ð¸Ð·Ð°ÑĨÐ¸Ð¸":3272,"js":3273,"ĠÐ²ÑĭÐ¿Ð¾Ð»Ð½ÐµÐ½Ð":3274,"Ð¾ÐºÐ¸":3275,"Ġtego":3276,"Ð¾Ð´Ð¸ÑĤÑĮ":3277,"ĠÐ´ÑĥÐ¼":3278,"ÐµÐ³Ð":3279,"ĠÑįÑĤÐ¸Ð¼":3280,"ÑĭÐ²Ð°ÐµÐ¼":3281,"ĠÐ»Ð¸Ñģ":3282,"ĠMi":3283,"ÑĢÐµÐ½":3284,"ĠÐ¿ÑĢÐ¸ÑĪ":3285,"ĠÐ¾ÑĪ":3286,"ÐºÐ¾ÑĢ":3287,"ĠÐ¿ÑĢÐµÐ´Ð¿ÑĢÐ¸Ñı":3288,"ĠÑĩÐ¸ÑģÐ»Ðµ":3289,"ĠÑģÐµÑĢÐ²":3290,"Ð¸ÑĩÐµÑģÐºÐ¾Ð¹":3291,"Ġpe":3292,"ĠÐ³Ð»Ð°Ð·":3293,"ÅĽcie":3294,"com":3295,"ĠÐ±Ð¾Ð»ÑĮÑĪÐ¸Ð½":3296,"ĠÐ´Ð¾Ð»Ð³":3297,"Ð°Ð»ÑĮÐ½Ð°Ñı":3298,"ĠÐ¿ÐµÑĩ":3299,"ĠrÃ³w":3300,"ĠÐ´ÑĥÑĪ":3301,"Ð¸ÑĤÐµÐ»Ð¸":3302,"ÑģÐ½Ð¾Ð²":3303,"Ð±Ð»":3304,"ĠÑģÑĥÐ¿":3305,"ĠÐ¿ÑĢÐ¾Ð²ÐµÐ´":3306,"ÑģÑĩ":3307,"¾ÑģÑ":3308,"ĠTo":3309,"ĠÐ¾ÑģÐ¾Ð±ÐµÐ½Ð½Ð¾":3310,"ĠÐ½Ð¸ÑĩÐµÐ³Ð¾":3311,"ĠÑħÐ¾Ð·Ñı":3312,"ĠÐ¡Ð¾Ð²":3313,"¾ÑģÑĤ":3314,"ĠÐ´ÐµÐº":3315,"Ð¾ÐºÐ¾":3316,"jÄħce":3317,"ÐºÐ¸Ð¼":3318,"Ð°ÑĤÑĥ":3319,"ĠÐ±ÑĥÐ´ÑĥÑī":3320,"ÑĥÐ¹ÑĤÐµ":3321,"ĠÐ¼Ð¾Ñī":3322,"Ġzosta":3323,"ĠÐºÐ°Ð±":3324,"Ð±Ñĥ":3325,"¸ÐºÐ¸":3326,"ĠÐ¾Ñī":3327,"¾ÑĨ":3328,"ĠÐ³Ð¾Ð²Ð¾ÑĢÐ¸ÑĤ":3329,"ÑĤÐ¸Ð»ÑĮ":3330,"ĠÑįÑĤÑĥ":3331,"Ð¸ÐºÐ°Ð½":3332,"ÑĢÐ¸Ð´":3333,"ĠÑģÐ¿Ð¸Ñģ":3334,"ĠÑģÐ²Ð¾Ðµ":3335,"mia":3336,"ĠÐºÐ¾Ð¶":3337,"ÑĢÐ°Ð·Ð´":3338,"ĠÐ¿Ð»Ð¾ÑīÐ°Ð´":3339,"ĠMo":3340,"ĠÐ´ÐµÐ¿":3341,"ÑĳÐ¼":3342,"Ð¾Ð·Ð°":3343,"ĠÑģÐ²Ð¾ÐµÐ¼":3344,"Ð¾Ð»Ð°Ð³":3345,"ĠÑĤÐ°Ð±":3346,"ĠÐ¼Ð°Ð»ÐµÐ½ÑĮ":3347,"ÑıÑİÑĤÑģÑı":3348,"Ð°Ð½Ð½Ð°Ñı":3349,"ĠÐ½Ð°ÑħÐ¾Ð´Ð¸ÑĤÑģÑı":3350,"ÐµÑģÑĤÑĮ":3351,"ĠÐ¿ÑĢÐ¾ÑĨÐµÐ´Ñĥ":3352,"ĨÐ¸ÐµÐ¹":3353,"Ð¸ÑģÑĤÑĭ":3354,"ĠÐ²ÑĭÑģÑĤÑĥÐ¿":3355,"ÑĢÐ°Ð±Ð°ÑĤ":3356,"ĠÐ¼ÐµÑħ":3357,"ĠÑıÑĢ":3358,"ĠÐ±Ð°Ð»":3359,"ĠÑĤÐ¾Ð½Ð":3360,"ĠÐĴÐ°Ð¼":3361,"ĠÐ¾ÑĤÑģÑĥÑĤÑģÑĤÐ²":3362,"ĠÐ²ÐºÑĥÑģ":3363,"Ð°Ð¼Ðµ":3364,"ge":3365,"Ð¸Ð½Ð°Ð¼":3366,"ĠÑħÐ¾ÑĤÑı":3367,"://":3368,"noÅĽÄĩ":3369,"ĠÐ½ÐµÐ¼Ð½Ð¾Ð³Ð¾":3370,"ĠÐºÐ°ÐºÐ¸Ðµ":3371,"ĠÑįÐ¼":3372,"ĠÐ´Ð°":3373,"ĠÐ´Ð¾Ñħ":3374,"ub":3375,"ĠÑĢÐ¾Ð´Ð¸ÑĤ":3376,"ĠÐµÐ¶":3377,"Ġspra":3378,"tion":3379,"ĠÑĢÐ°Ð±Ð¾ÑĤÐµ":3380,"ÐµÐ½ÑıÑĤÑĮ":3381,"ĠÑĥÐ»ÑĥÑĩÑĪ":3382,"ĠÑĦÑĥÐ½ÐºÑ":3383,"ĠÐ¾Ð¿Ð¸Ñģ":3384,"ĠWy":3385,"art":3386,"ĠÑįÑĤÐ°Ð¿":3387,"ĠÐ¼ÐµÐ»":3388,"niem":3389,"ÑĢÐ¸Ñ":3390,"ĠÐ¾ÑĤÐ·ÑĭÐ²":3391,"Ð¾ÐµÐ¼":3392,"ĠÐ²Ð°ÑĢÐ¸Ð°Ð½ÑĤ":3393,"¾ÑĢÑĥ":3394,"ĠCh":3395,"ĠDo":3396,"Ġ24":3397,"Ġsam":3398,"Ð¸ÑĨÐ¸Ð¾Ð½Ð":3399,"ĠÐ¡Ð¨ÐĲ":3400,"ĠÐºÐ¾Ð¼Ð¿ÑĮÑİ":3401,"ĠÐ²Ð»Ð°Ñģ":3402,"ÐµÑĤÐ°":3403,"ĠÐ¸Ð½Ð´Ð¸Ð²Ð¸Ð´Ñĥ":3404,"Ð¾Ð²Ð°Ñı":3405,"ĠÑģÐµÑĢÑĮ":3406,"ĠÑĢÐ°Ð¼":3407,"ĠÐ¿Ð¾ÑĩÑĤÐ¸":3408,"ĠÐ¿Ð¾ÑģÑĤÑĥÐ¿":3409,"cha":3410,"ĠÑĢÐµÑĪÐµÐ½Ð¸Ðµ":3411,"ĠÐºÑĢÐ¾Ð²Ð":3412,"me":3413,"ÐµÑĢÐ¾Ð²":3414,"ĠÐ½Ð°ÑĥÑĩ":3415,"11":3416,"Ð°Ð»ÑĮÐ½Ð¾Ðµ":3417,"ĠÐ¼ÐµÑģÑĤÐµ":3418,"gl":3419,"Ð¾Ð³Ðµ":3420,"Ġsk":3421,"ĠÐ²ÐµÑĩ":3422,"ÑĦÐ":3423,"Ġju":3424,"ĠÐ¾Ð±ÑıÐ·Ð°ÑĤÐµÐ»ÑĮÐ½Ð¾":3425,"ÑĤÐºÐ¾Ð²":3426,"ĠÐ¼ÐµÑģÑĤÐ°":3427,"ĠÐ¿ÑĢÐ¾Ð±Ð»ÐµÐ¼Ñĭ":3428,"Ġpow":3429,"ÑģÑĥ":3430,"Ð¾Ð´Ð°ÑĤÐµÐ»ÑĮ":3431,"ÐºÐ°Ð¼":3432,"ÑģÐºÑĥÑİ":3433,"ÐµÑĤÐ¾Ð¼":3434,"ĠÐºÐ¾Ð½ÑĦ":3435,"ĠÐ²ÑĭÐ±ÑĢÐ°ÑĤÑĮ":3436,"ĠÐ¶Ð¸Ð»":3437,"ĠÐ³Ð¸Ð¿":3438,"Ġwar":3439,"Ð¸ÑĨÐ¸Ð¸":3440,"ĠÐ¿ÑĢÐ°Ð²Ð¸Ð»ÑĮÐ½Ð¾":3441,"ĠÐĴÐ¾ÑĤ":3442,"ĠÑĥÑĩÐ°ÑģÑĤÐ½Ð":3443,"±ÑĥÑĢÐ":3444,"Ġme":3445,"ĠÐ¾Ð±ÑĭÑĩÐ½Ð¾":3446,"°ÑĤÐ¸Ð²":3447,"ĠÑıÐ·Ñĭ":3448,"ĠÐ¿ÐµÐ½":3449,"rak":3450,"ĠÑĢÐµÑĨ":3451,"ĠÐ·ÑĥÐ±":3452,"ÑĢÐ¾Ð·":3453,"ÐµÐ½Ð¾Ðº":3454,"ĠÐ·Ð°Ð²Ð¸ÑģÐ¸Ð¼Ð¾ÑģÑĤÐ¸":3455,"Ð»ÐµÐ½Ð¸Ñİ":3456,"ÑĥÐ³Ð¸":3457,"ÑģÑĤÐ°":3458,"ĠÐ»Ð¸ÑĨÐ°":3459,"½Ð¾Ð·":3460,"ĠÐ¿Ð¾ÐºÑĢÑĭ":3461,"ĠÑĤÐµÐ¿ÐµÑĢÑĮ":3462,"ĠÐ¾Ð±ÑĥÑĩ":3463,"Ð»Ð°Ð¶":3464,"ĠÐ´ÐµÐ»Ð¾":3465,"ĠÑģÐ»ÑĥÑĩÐ°Ñı":3466,"ĠÐ²Ð¾ÐµÐ½Ð":3467,"ĠÐ²ÑĭÑħÐ¾Ð´":3468,"ÐµÐ´Ðµ":3469,"ĠÐ»ÐµÑģ":3470,"ÐµÐ½Ð¸ÑıÑħ":3471,"ÑĥÑİÑīÐ¸Ñħ":3472,"czne":3473,"ĠÐŀÑģÐ½Ð¾Ð²":3474,"Ð°Ð·ÑĭÐ²Ð°ÐµÑĤ":3475,"Ð»ÑıÐµÐ¼":3476,"Ð¾Ð²Ð°ÑĤÐµÐ»ÑĮ":3477,"Ð¸Ð½Ð°Ð»ÑĮ":3478,"ĠÅ¼y":3479,"ĠÑĢÐ°Ð·Ð»Ð¸ÑĩÐ½ÑĭÑħ":3480,"ĠÑģÐ²Ð¾Ð¸Ð¼":3481,"ĠÐ²Ð°Ð¶Ð½Ð¾":3482,"ĠÑģÐ¸Ð¼Ð¿ÑĤÐ¾Ð¼":3483,"ĠÐłÐ¾ÑģÑģÐ¸Ð¹":3484,"ĠÐºÐ¾ÑĤÐ¾ÑĢÐ¾Ð¼":3485,"ÐµÐºÑ":3486,"Ġhttp":3487,"ĠÐ¸ÑģÑĤÐ¾ÑĢÐ":3488,"Ð¾ÑħÐ":3489,"Ð¸Ð²Ð°Ð½Ð¸Ðµ":3490,"th":3491,"ĠwÅĤa":3492,"ÑĥÑİÑīÐ¸Ðµ":3493,"Ð°Ð½ÐµÑĤ":3494,"ĠÐ·Ð°Ð²Ð¸ÑģÐ¸ÑĤ":3495,"¸ÑĢÐ¾Ð²Ð°Ð½Ð¸Ñı":3496,"szcze":3497,"Ð¸Ð²Ð°ÐµÐ¼":3498,"ĠÐ¸Ð½ÑģÑĤÑĢÑĥÐ¼":3499,"Ð¸ÑĩÐµÑģÐºÐ¾Ð³Ð¾":3500,"Ð¸Ð¼Ð°":3501,"Ġwyko":3502,"ĠPa":3503,"ĠÐ½Ð°Ð±Ð»ÑİÐ´":3504,"ĠÐĺÑģÐ¿":3505,"ĠÑĢÐµÐ·ÑĥÐ»ÑĮÑĤÐ°ÑĤÐµ":3506,"ÑĤÐ¸ÑĩÐµÑģÐºÐ¸Ñħ":3507,"ĠÐ¸Ð½Ñ":3508,"ĠÐ¸Ð½ÑĤ":3509,"ĠÐ±Ð¾Ð»ÑĮÑĪÐ¾Ð¹":3510,"22":3511,"ĠÐ¿Ð¾ÑģÐºÐ¾Ð»ÑĮÐºÑĥ":3512,"ĠÐ²ÐµÑĢÑħ":3513,"ÑĤÐ¾ÑĩÐ½Ð¸Ðº":3514,"ĠÐ¿ÑĢÐ°ÐºÑĤÐ¸ÑĩÐµÑģÐºÐ¸":3515,"ĤÐ¾Ðº":3516,"Ġbo":3517,"ĠÐļÐ¾Ð½":3518,"ÑģÑĤÐ²Ñĥ":3519,"ĠÐ¶ÐµÐ»ÐµÐ·":3520,"Ġ+":3521,"ĠÐ¸Ð·Ð³Ð¾ÑĤÐ¾Ð²":3522,"ĠÐ¿Ð¾Ð»ÑĮÐ·":3523,"ĠÐ±ÑĥÐ¼":3524,"Ġmu":3525,"ĠÐ¼Ð½Ð¾Ð³Ð¸Ðµ":3526,"bu":3527,"ĠÑĤÑĭÑģÑıÑĩ":3528,"ĠÐĴÐ»Ð°Ð´":3529,"ĠÑĥÐ¶":3530,"rÃ³Å¼":3531,"ÑĢÐ°Ð³":3532,"ÐµÐ½ÑĮÑĪ":3533,"ĠÑģÑĢÐ°Ð²":3534,"ÑĥÐ°":3535,"Ġzd":3536,"¾Ñħ":3537,"ĩÐµÑģÑĤÐ²Ð°":3538,"tem":3539,"Ġca":3540,"ÑĢÐ°Ð½ÐµÐ½Ð¸Ñı":3541,"ww":3542,"ĠÐ¿ÑĢÐ¸Ð³":3543,"ÐĿÐ":3544,"ĠÐ·Ð°Ð½Ñı":3545,"ĠÐ¶Ð¸Ð²Ð¾ÑĤÐ":3546,"ĠÑĢÐ°Ð±Ð¾ÑĤÐ½Ð":3547,"ĠÑĢÑĥÐºÐ°Ð¼Ð¸":3548,"ĠÐ¿Ð°ÑĤ":3549,"ĠÐ¾ÑģÐ½Ð¾Ð²Ð":3550,"ÑĢÐ°ÑĤÐ°":3551,"Ð°ÐºÐ¸":3552,"ĠÑĤÐ¾Ð¼Ñĥ":3553,"ĠÐ´Ð¾Ð»Ð¶Ð½Ð¾":3554,"ĠÑĢÐ°Ð·ÑĢÐµÑĪ":3555,"Ġprodu":3556,"ĠÐŃÑĤÐ¾ÑĤ":3557,"ĠÑģÑĢÐµÐ´Ð¸":3558,"ĠÐ¾ÑĤÐ²ÐµÑĤÑģÑĤÐ²":3559,"ĠÐ´Ð¾Ð²Ð¾Ð»ÑĮÐ½Ð¾":3560,"ĠÐ²Ð¾Ð·Ð¼Ð¾Ð¶Ð½Ð¾":3561,"Ð°Ð½Ð½Ð¾Ð³Ð¾":3562,"kÄħ":3563,"ĠÑĢÐ°Ð·Ð´ÐµÐ»":3564,"ĠÑĢÐ°Ð·Ð½ÑĭÑħ":3565,"Ð°ÑĨÐ¸Ð¹":3566,"ĠÐŁÐ¾Ð¼":3567,"nÄĻ":3568,"di":3569,"Ã³b":3570,"ĠÐµÐ²":3571,"ĠÐĿÐ¸Ðº":3572,"Ġbu":3573,"ĠÐ¾ÑĢ":3574,"Ð¸ÐºÐµ":3575,"Ð¾Ð·Ð¼Ð¾Ð¶Ð½Ð¾":3576,"Ð½Ð¸Ð¸":3577,"Ð¾ÑģÐ¿":3578,"Ð¾Ð´Ð½Ð¾Ð³Ð¾":3579,"Ð»Ñĭ":3580,"ĠÐ¿ÐµÑĢÑģ":3581,"ĠÐ¶Ð¸Ð´":3582,"ĠÐ¾Ð±ÑıÐ·Ð°ÑĤÐµÐ»ÑĮ":3583,"Ð°Ð½Ð´Ð°ÑĢ":3584,"Å¼a":3585,"ĠÐºÐ¾ÑĤÐ¾ÑĢÑĥÑİ":3586,"ĠÐĶÐ°":3587,"ÑĤÐ¸Ð»Ð¸":3588,"ĠÐ¿Ð¾Ð¿ÑĥÐ»ÑıÑĢÐ":3589,"ĠÐ²ÑĭÐ±Ð¾ÑĢ":3590,"ĠÐ·Ð°ÑģÑĤ":3591,"ĠÑĢÐ°Ð·Ð³":3592,"ĠÐ¿ÐµÑĢÐ²ÑĭÐ¹":3593,"ÑĢÑĥÐ³Ð°":3594,"ĠÑįÐºÑģÐ¿ÐµÑĢ":3595,"ĠÐ½Ð°ÑĪÐµÐ¹":3596,"ĠÐ¼Ð½Ð¾Ð¶":3597,"ÑĥÐ½Ð°ÑĢ":3598,"nieÅ¼":3599,"kÄĻ":3600,"ÑĤÐ¸ÐºÐµ":3601,"Ġsto":3602,"ĠÑĤÐ°":3603,"ĠÐºÐ°ÑĤÐµÐ³Ð¾":3604,"ĠÑģÑĤÑĢÐ°Ð½Ñĭ":3605,"Ġwz":3606,"ÑħÐ":3607,"ÑıÐ¼Ð¸":3608,"ĠÐ¾Ð´Ð½Ð¾":3609,"ĠÐ¸Ð½ÑĦÐ¾ÑĢÐ¼Ð°ÑĨÐ¸Ð¸":3610,"Ð°Ð¸Ð¼":3611,"ĠÑĢÐµÐ³Ð¸ÑģÑĤÑĢÐ°ÑĨÐ¸Ð¸":3612,"ĠÐ½Ð°Ð¿Ð¸Ñģ":3613,"ĠÐ°Ð´ÑĢÐµÑģ":3614,"Ã³r":3615,"ĨÐ¸Ð¹":3616,"Ð¾Ð»Ð½":3617,"ĠÐ½ÐµÑģÐºÐ¾Ð»ÑĮ":3618,"âĢĵ":3619,"ĠÐ¿ÑĥÑĤ":3620,"ĠÐ¸ÑģÐº":3621,"ĠÐ»ÐµÐºÐ°ÑĢ":3622,"¸ÑĤÐ°":3623,"»ÑĮÐ·Ñı":3624,"ĠÐµÑīÑĳ":3625,"ĠÐ°Ð²Ñ":3626,"ĠÐ·Ð°ÐºÐ°Ð·":3627,"ĠÑĤÐ°ÐºÐ¾Ð³Ð¾":3628,"ĠÐ¾ÑĪÐ¸Ð±":3629,"ÑĪÐ¸Ð¼":3630,"ĠÑĢÐ°ÑģÐº":3631,"Ð¸ÑĨÐµ":3632,"ĠÑĤÐ°ÐºÐ¸Ð¼":3633,"ĠÑĥÐ´Ð¾Ð²":3634,"Ð¾Ð¾Ð±ÑīÐ":3635,"Ġodp":3636,"ĠÐĴÐ°Ñģ":3637,"ĠÐ¼Ð¼":3638,"ĠÑĤÑĥÑĤ":3639,"Ð¾Ð¾Ð±ÑīÐµ":3640,"Ġ40":3641,"ĠÑģÑģÑĭÐ»":3642,"ÑĤÐµÑĢÐ°":3643,"Ð¾Ð±Ð¸Ð»ÑĮ":3644,"ste":3645,"ÑĤÐ¸ÑĩÐµÑģÐºÐ¸Ðµ":3646,"ĠÐ½ÐµÐ»ÑĮÐ·Ñı":3647,"Ð²Ð°ÑĢÐ":3648,"oo":3649,"ĠÐ°Ð´Ð¼Ð¸Ð½Ð¸ÑģÑĤ":3650,"ĠÐ¤ÐµÐ´":3651,"ĠRe":3652,"ĠÑĩÐ°ÑģÐ¾Ð²":3653,"ĠÑįÐ»ÐµÐºÑĤÑĢÐ¾Ð½Ð":3654,"ĠtakÅ¼e":3655,"ĠÐ¿ÑĢÐµÐ´ÑĥÑģ":3656,"ĠÑĥÑģÐ»Ð¾Ð²":3657,"ĠÑĤÐµÑĢÑĢÐ¸ÑĤÐ¾ÑĢÐ¸Ð¸":3658,"ÐµÐ½ÐºÐ¸":3659,"ĠÐ´Ð°Ð½Ð½ÑĭÑħ":3660,"»Ð¸Ð²":3661,"Ð½Ð¸ÑĤ":3662,"ÑĢÐ°ÑĤÑĭ":3663,"ĠÐ¿ÑĢÐµÐºÑĢÐ°Ñģ":3664,"ÑİÑĤ":3665,"ĠÐ¼Ð¸Ð½Ð":3666,"ĠÐ¿ÐµÑĢÐµÐ¼":3667,"Ġtylko":3668,"ĠPro":3669,"ĠÑģÐºÐ°Ð·":3670,"ĠÐ·Ð°Ñħ":3671,"15":3672,"cjÄĻ":3673,"ĠÑĦÐ¸Ð½Ð°Ð½ÑģÐ¾Ð²":3674,"pis":3675,"Ð¾ÐºÐ¾Ð¹":3676,"Ð¾Ð»Ñı":3677,"ĠÑĢÐ°Ð±Ð¾ÑĤÐ°ÐµÑĤ":3678,"ÑĮÐ¸":3679,"Ð¸Ð¾":3680,"ĠÐ¿ÑĢÐ¾Ð±Ð»":3681,"ÑĤÐºÑĥ":3682,"ĠÐ¸Ð½Ð²ÐµÑģ":3683,"Ð¸ÑĪÐºÐ¾Ð¼":3684,"ĠÑĨÐµÐ»ÑĮ":3685,"Ð°Ð²Ð°ÑĤÑĮ":3686,"ÑıÐ±ÑĢÑı":3687,"czÄħ":3688,"Ð¼ÐµÑĤ":3689,"ÐµÑĢÐ±":3690,"ĠÐ¼Ð¾":3691,"ĠÐ¶ÐµÐ½":3692,"kiem":3693,"ĠÐ¿ÑĢÐ°Ð²Ð¸Ð»ÑĮ":3694,"ĠÐ¿Ð°Ð¼":3695,"ĠÐºÑĢÐµÐ´Ð¸":3696,"ĠÐ¼ÐµÐ´Ð¸ÑĨÐ¸Ð½":3697,"ĠÑĢÑĥÐºÐ¾Ð²Ð¾Ð´":3698,"ĠÐķÐ³Ð¾":3699,"Ð°ÑģÑĤÑĮ":3700,"¾ÑĤÐ¸ÑĤÐµ":3701,"ĠÑģÑĥÐ±":3702,"Ð±Ð¾ÑĢ":3703,"ĠÐ¿ÑĢÐ°Ð·Ð´":3704,"ĠÐ¿ÑĥÐ½Ð":3705,"ĠÐºÐ¾Ð¼Ð°Ð½Ð´":3706,"ĠÑģÐºÐ°Ð·Ð°Ð»":3707,"ĠÐľÐ¾Ð¶Ð½Ð¾":3708,"Ð¸ÑĨÑĭ":3709,"ĠÐ½Ð°ÑĩÐ°Ð»Ð°":3710,"ĠÐµÐ¹":3711,"ĠÑĤÐ¾Ð¿":3712,"ĠÑĩÐµÑĢÐ":3713,"ct":3714,"ĠÑģÐ¾ÑģÑĤÐ°Ð²Ð»ÑıÐµÑĤ":3715,"ºÐ¾Ð¹":3716,"ĠÑģÐ¸ÑģÑĤÐµÐ¼Ð°":3717,"ÑĤÐ¸Ð½Ð³":3718,"ĠÑģÐ¾ÐµÐ´":3719,"ĠÑģÑĤÐ¾Ð¸Ð¼Ð¾ÑģÑĤÑĮ":3720,"ĠÐ½Ð°Ð·Ð°Ð´":3721,"ÑĢÑĥÑĩ":3722,"·Ð´":3723,"ĠÐ¿Ð¾Ð´ÐºÐ»ÑİÑĩ":3724,"½Ð¾Ð¿":3725,"ÑĢÐ¸Ð½Ð¸Ð¼":3726,"ĠÐ¸Ð·ÑĥÑĩ":3727,"ĠÐĴÑģ":3728,"ÑĢÐ°Ñı":3729,"ĠÐ½ÐµÐºÐ¾ÑĤÐ¾ÑĢÑĭÐµ":3730,"Ð»Ð°ÑģÑĮ":3731,"ĠrÃ³wnieÅ¼":3732,"kich":3733,"ĠÐ²ÑĭÐ³Ð»ÑıÐ´":3734,"ĠÐ²ÑĭÐ¿Ð¾Ð»Ð½Ñı":3735,"Ð°Ð³Ð¾":3736,"ĠÐ¾Ð³ÑĢÐ¾Ð¼":3737,"ĠÑħÐ°ÑĢÐ°ÐºÑĤÐµÑĢ":3738,"Ð»ÐµÐ½Ð¾":3739,"ĠÐ¾Ð¿Ð»":3740,"Ð½Ð°Ð½Ð":3741,"ĠÐ¾Ð±ÑīÐµÑģÑĤÐ²":3742,");":3743,"ÑĢÐµÑī":3744,"ĠÐ½Ð°Ð¿ÑĢÑı":3745,"ĠÐ¿ÑĢÐ¸Ð½ÑĨÐ¸Ð¿":3746,"ÑĢÐµÐ½Ð¸Ñı":3747,"ÑĤÐ½Ð¾ÑģÑĤÑĮ":3748,"ĠÑĢÐµÑĪÐµÐ½Ð¸Ñı":3749,"ĠÐļÑĢÐ°Ñģ":3750,"ĨÐ¾":3751,"ÐµÐ²Ð°":3752,"Ġmiejs":3753,"ĠÐ½ÐµÐµ":3754,"ĠÑĤÑĢÐ°Ð½ÑģÐ¿Ð¾ÑĢ":3755,"ĠÐĹÐ°Ð¿":3756,"ĠÑĢÐ°Ð±Ð¾ÑĤÐ°ÑĤÑĮ":3757,"ĠÑĥÑĢÐ¾Ð²ÐµÐ½ÑĮ":3758,"ĠÑģÐ¾Ð²ÐµÑĤ":3759,"ĠÐ²Ð¾Ð¿ÑĢÐ¾ÑģÑĭ":3760,"ĠÐºÑĢÐµÐ´Ð¸ÑĤ":3761,"ĠÐºÑĢÑĥÐ³":3762,"ÑĢÐ¾ÑģÐ»":3763,"ĠÐĲÐº":3764,"ĠÐ¿ÑĢÐ°Ð²Ð¸Ð»Ð¾":3765,"Ð¾Ð²ÑĭÐ¹":3766,"ĠÐ¼ÐµÑĢÐ¾Ð¿ÑĢÐ¸Ñı":3767,"ĠÑĦÐ¾ÑĤÐ¾Ð³ÑĢÐ°ÑĦ":3768,"nik":3769,"ĠÑģÐ¼Ð¾Ð³":3770,"im":3771,"ĠÐ´Ð°Ð½Ð½ÑĭÐµ":3772,"Ġon":3773,"ĠÑģÑĤÐ°Ð»Ð¸":3774,"Ð°Ð¶Ð°":3775,"ÑĤÐ½ÑĥÑİ":3776,"ÐµÑĢÐ¾Ð¼":3777,"ÑĢÐ°Ð½Ñı":3778,"ĠÑĥÑģÐ¸Ð»":3779,"ĠÐ¿ÑĢÐ¾ÑĦÐµÑģÑģÐ¸Ð¾Ð½Ð°Ð»ÑĮ":3780,"ĠÐĴÐ°ÑĪ":3781,"¸ÐºÐ°":3782,"ĠÑĨÐ²ÐµÑĤÐ°":3783,"Ð¾Ð»Ð³Ð¾":3784,"ĠÐ¾Ð¿Ñĭ":3785,"ĠjuÅ¼":3786,"cu":3787,"ĠÐºÐ¾Ð¼Ð¿Ð°Ð½Ð¸Ñı":3788,"ĠÑģÐ°Ð¹ÑĤÐ°":3789,"ĠÐ²Ð¾ÑģÑģÑĤÐ°Ð½Ð¾Ð²":3790,"Ð¿ÑĢÐ°Ð²":3791,"ĠwiÄĻ":3792,"ĠÐ¼Ð½Ð¾Ð³Ð¸Ñħ":3793,"ĠbyÄĩ":3794,"ĠÑģÐ»ÑĥÑĩÐ°ÑıÑħ":3795,"Ð¾Ð´ÑıÑĤ":3796,"ĠÑģÑĤÐµÐ¿":3797,"ĠÐ²ÑĭÑĪ":3798,"ÑĥÑħÐ°":3799,"ĠÐ¾Ð´Ð½Ð°":3800,"Ð¾Ð½ÑĥÑģ":3801,"ĠÑĦÑĥÐ½Ðº":3802,"ĠÐ¿ÑĢÐ°Ð²Ð°":3803,"ÑĢÐ¸ÑĤÐµ":3804,"ĠÐ¿ÐµÑĢÐµÑħ":3805,"ĠÑĤÐ²Ð¾ÑĢ":3806,"ĠÑģÐ¿Ð¾ÑĢ":3807,"ĠÐŁÐ¾Ñĩ":3808,"ĠÐ½Ð°ÑĩÐ¸Ð½Ð°Ñ":3809,"ĠÐ½Ð¾Ð²ÑĭÐµ":3810,"ÑĩÐµ":3811,"Ð½Ð²":3812,"Ð½Ð°ÑĢÑĥÐ¶":3813,"Ġmog":3814,"ÑĤÐ¸ÑĤÑĮÑģÑı":3815,"Ġroku":3816,"ĠÐ¿ÑĢÐ¾Ð¸Ð·Ð²Ð¾Ð´Ð¸ÑĤ":3817,"ÑĥÐ»Ð¸ÑĢÐ¾Ð²":3818,"Ġwe":3819,"ÐµÑĢÑĥ":3820,"Ð¸Ð´Ð":3821,"ĠÐ¸ÑģÐ¿Ð¾Ð»ÑĮÐ·Ð¾Ð²Ð°Ð½Ð¸Ñı":3822,"Ġ21":3823,"ple":3824,"ĠÐ¾ÑĤÑ":3825,"Ð°ÑĩÐ°":3826,"ĠÐ¾Ð½Ð¾":3827,"ĠÐľÐ°ÑĢ":3828,"ĠÐºÐ¸Ñģ":3829,"ĠÑĥÐ¿ÑĢÐ°Ð²Ð»ÐµÐ½Ð¸Ñı":3830,"ĠÐ¾ÑģÐ½Ð¾Ð²Ðµ":3831,"ĠÐ³ÑĢÐ°Ð½Ð":3832,"ÑĢÑĥÐµÑĤÑģÑı":3833,"ÑĤÐµÑģÑĤÐ²":3834,"Ð¸Ð°Ñ":3835,"ĠÐ²ÑģÑı":3836,"ĠÑģÐ°Ð¼Ð":3837,"ĠÐĿÐ°Ð¿ÑĢÐ¸Ð¼ÐµÑĢ":3838,"ĠÐºÐ»ÑĥÐ±":3839,"Ð¾ÑĤÑĮ":3840,"war":3841,"ĠÐºÐ¾Ð¿":3842,"ĠÑĢÐµÐ·ÑĥÐ»ÑĮÑĤÐ°Ñ":3843,"ble":3844,"ĠÐ¢ÐµÐ¿":3845,"Ġ:":3846,"ĠÐ³Ð°ÑĢÐ°Ð½":3847,"ÐµÑĤÑĢÐ¾Ð²":3848,"dnie":3849,"ĠÐ»ÑİÐ±Ð¸Ð¼":3850,"Ð¾Ð¹ÑĤÐ¸":3851,"sÅĤu":3852,"ÑĢÐ´":3853,"cznie":3854,"Ð¸ÑĤÐ°Ð¼":3855,"zu":3856,"ĠÐ¼ÐµÐ½ÑĮÑĪÐµ":3857,"ĠÐ¶Ð´":3858,"Ġwo":3859,"ĠÐ¸Ð¼ÐµÑĤÑĮ":3860,"ĠÐ¾ÐºÑĢÑĥÐ¶":3861,"Ġpot":3862,"ĠÐ¿ÑĢÐ°Ð²Ð¾":3863,"Ð°Ð±Ð":3864,"ĠÑģÑĤÑĢÑĥÐºÑĤÑĥ":3865,"ĠÐ¿Ð¾Ð»Ð¾Ð²":3866,"ĠÑĢÐµÑĨÐµÐ¿":3867,"Ð»Ð¸ÑģÑĮ":3868,"ĠÑģÐµÑĢÑĮÐµÐ·":3869,"Ð¾ÑĩÑĮ":3870,"ĠÑģÐ°Ð¼Ð¾Ð¼":3871,"Ð½Ð¾Ð²Ð":3872,"ÑĢÐ¸Ð¹":3873,"ĠÐ²Ð¾Ð·Ð¼Ð¾Ð¶Ð½Ð¾ÑģÑĤÐ¸":3874,"ĠÐ½Ð¸Ð¶Ðµ":3875,"Ð¸ÑĩÐµÑģÐºÐ¸Ð¹":3876,"ĠÑģÑĥÑħ":3877,"Ð»ÐµÐ½Ð¸Ð¹":3878,"ÐµÐ½ÐºÐ¾":3879,"Ð¸Ð´ÐµÑĤ":3880,"µÑĢÐ¾Ð²":3881,"ĠÑĥÐ¼ÐµÐ½ÑĮÑĪ":3882,"ĠÑģÐ»Ð¸ÑĪÐºÐ¾Ð¼":3883,"ĠÐĲÐ»ÐµÐºÑģÐ°Ð½Ð´":3884,"ÑĦÐ¾ÑĢÐ¼":3885,"ĠÐºÐ¾Ð¶Ð¸":3886,"szych":3887,"ĠÑģÐ¾Ð±Ñĭ":3888,"ĠÐ°Ñģ":3889,"ĠÐ¸ÑģÐºÑĥÑģ":3890,"Ġfor":3891,"ĠÑĤÑĥ":3892,"ĠÐ±Ð»Ð¸Ð·":3893,"Ð¡Ð¢":3894,"ĠÑģÐ´":3895,"ĠÐ¿ÑĢÐµÐ¸Ð¼":3896,"Ð°ÐºÐ¾Ð²":3897,"ĠÐ°Ð²ÑĤÐ¾Ð¼Ð":3898,"Ġstro":3899,"ĠÐŀÑģÐ¾Ð±":3900,"ĠÑĢÐ°ÑģÑħÐ¾Ð´":3901,"Ð¾Ð¹Ð´ÐµÑĤ":3902,"ĠÑįÑĤÐ°":3903,"Ġba":3904,"ĠÑĤÐµÐ":3905,"ĠÐĺÐ³":3906,"ĠÑģÐ°Ð»":3907,"Ġv":3908,"ĠÐ¿Ð¾ÑĤÐµÑĢ":3909,"ou":3910,"Ġ000":3911,"ĠÐ°Ð²ÑĤ":3912,"ĠÐ·Ð°ÑīÐ":3913,"nak":3914,"ĠÐĲÑĢ":3915,"dÄħ":3916,"ĠÑģÐ°Ð´":3917,"ĠÐ´Ð²Ðµ":3918,"ĠÐ¿ÐµÑĢÐµÐº":3919,"Ġ22":3920,"ÑĤÐ¸ÑĩÐµÑģÐºÐ¾Ð¹":3921,"ĠÐŁÑĢÐ¸Ð¼":3922,"Ġwa":3923,"ĠÐ¾Ð´Ð½Ð°ÐºÐ¾":3924,"ĠÐºÑĥÑħ":3925,"ĠÑĤÐ¸Ð¿Ð°":3926,"ĠÑģÐ½Ñı":3927,"ĠÐ¼Ð¾Ð½Ð":3928,"ciÄħ":3929,"ĠÐºÐ¾Ð»Ð»ÐµÐº":3930,"ÑĢÐµÐ¼ÐµÐ½Ð½Ð¾":3931,"Ð½Ð¾Ð²Ð°":3932,"ĠÐµÐ´Ð¸Ð½":3933,"ĠÐ¿ÑĢÐ¸Ñı":3934,"ĠÐ¾ÑīÑĥÑī":3935,"ÑīÐ":3936,"ĠÐ¾ÑĤÐ´ÑĭÑħ":3937,"bra":3938,"ĠÐ²ÑĭÐ¿Ð»":3939,"ĠÐºÐ°Ð¶Ð´Ð¾Ð³Ð¾":3940,"ÐµÐ´ÐµÑĢÐ°Ð»ÑĮ":3941,"ÑĤÐ¾ÑĢÐ¾Ð¼":3942,"ĠÐŀÑĩ":3943,"Ġjako":3944,"ĠÑģÑĤÐµÐº":3945,"ĠÐºÑĢÐ°Ð¹":3946,"lej":3947,"ÑĢÐ¾Ð½Ð":3948,"Ð¾Ð³Ð¸Ñı":3949,"ĠÑģÐ¾Ð²ÑģÐµÐ¼":3950,"ĠÐ·Ð¸Ð¼":3951,"ĠÐ¿Ð¾ÑĩÐµÐ¼Ñĥ":3952,"ĠÐ¾ÑĤÑĤ":3953,"ĠPol":3954,"ĠÑģÐ¾Ð±Ð":3955,"Ð°Ð½Ñģ":3956,"Ð½Ð¸Ð»":3957,"ĠÐ¾Ð±Ð½Ð°ÑĢÑĥÐ¶":3958,"ÑĢÐ°Ð½Ð¸ÑĤÑĮ":3959,"ktu":3960,"Ð¼ÐµÐ½ÑĤÐ°":3961,"ĠÐ²ÑģÐµÐ¹":3962,"ĠÑıÐ²":3963,"Ġdu":3964,"Ð°Ð³Ð¸":3965,"Ð»ÑĥÐ¶":3966,"Ã³l":3967,"ÑĤÐ¸ÑĦ":3968,"ĠÐ¿Ð¾ÑıÐ²Ð»Ñı":3969,"Ð½Ð°Ð·":3970,"ĠÐ¿Ð¸ÑģÑĮ":3971,"ĠÐ¼Ñĥ":3972,"ĠÐ´Ð¾ÑĢÐ¾Ð³":3973,"ĠÑĥÑĩÐ¸ÑĤ":3974,"Ð»Ð¸Ð±Ð¾":3975,"¾ÑĢÑĥÐ¶":3976,"Ġlo":3977,"ĠÐ·ÐµÐ»":3978,"Ġbardzo":3979,"ĠÑĥÐ¿Ð¾ÑĤÑĢÐµÐ±":3980,"ÐºÐ»Ð°Ð´":3981,"ĠÐ¸Ð·Ð¼ÐµÐ½ÐµÐ½Ð¸Ñı":3982,"ĠÐ¼Ð¸ÑĢÐ°":3983,"µÑĪÑĮ":3984,"ĠÐºÐ¾Ð½ÐµÑĩÐ½Ð¾":3985,"ĠÐ»Ð¾Ð¶":3986,"ĠÐ±ÐµÐ·Ð¾Ð¿Ð°ÑģÐ½Ð¾ÑģÑĤÐ¸":3987,"ĠÑģÐ½Ð¸Ð¼":3988,"ĠÐ½Ð¾Ð²ÑĭÑħ":3989,"ers":3990,"ĠÑĤÑĢÐ°Ð´":3991,"ĠÐ¿ÑĢÐµÐ¶":3992,"ĠÐ½Ð°Ð´ÐµÐ¶":3993,"ĠÐ½Ð°ÑģÐµÐ»":3994,"ĠÑģÑĤÐ°Ñ":3995,"Ð»ÐµÑĤÐ½Ð":3996,"Ð¸Ð²Ð°Ñı":3997,"ĠÐ²ÑĭÐ±Ð¸":3998,"ÑĪÐµÐµ":3999,"rod":4000,"Ġpla":4001,"ÑĢÐ°ÑĤÑĮÑģÑı":4002,"ĠÐºÑĢÐ¾Ð²Ð¸":4003,"ĠÐ²ÑħÐ¾Ð´":4004,"ĠÐ½ÐµÐºÐ¾ÑĤÐ¾ÑĢÑĭÑħ":4005,"Ð°Ð´Ð¸":4006,"ĠÐ´ÐµÑĢÐ¶":4007,"ĠÐ¿ÑĢÐ¸ÐµÐ¼":4008,"ĠÐ¿Ð¾Ð´ÑĢÐ¾Ð±":4009,"ĠÑģÐºÐ°ÑĩÐ°ÑĤÑĮ":4010,"ĠÐ±Ð°Ð·":4011,"ÑĥÑīÐµÑģÑĤÐ²Ð°":4012,"ĠÑģÑĤÐ°Ð½Ð¾Ð²Ð¸ÑĤÑģÑı":4013,"ĠÐļÐ¾Ð½Ð":4014,"ĠÑĩÐµÑĤÑĭ":4015,"ĠÐ¸Ð½ÑĦÐ¾ÑĢÐ¼Ð°ÑĨÐ¸Ñİ":4016,"ĠÑģÐ°Ð¼Ð¾ÑģÑĤÐ¾ÑıÑĤÐµÐ»ÑĮÐ½Ð¾":4017,"ĠÑĩÐ°ÑīÐµ":4018,"Ð¸Ð²Ð°ÑİÑĤÑģÑı":4019,"ÅĽmy":4020,"Ð¾Ð»Ð¾Ð³Ð¸Ñı":4021,"µÑĢÐ¼":4022,"Ð¬":4023,"ÑģÐ¸ÑĢÐ¾Ð²":4024,"ÑĭÐ¿":4025,"ĠÐ¿Ð»Ð°Ð½":4026,"ĠÐ¿ÑĢÑıÐ¼":4027,"°ÑĢÐ°":4028,"ĠÐ½Ð¾Ð²ÑĭÐ¹":4029,"Ð¾Ð²Ð°Ð»":4030,"ĠÐ¼ÐµÑĤÐ°Ð»Ð»":4031,"Ð²ÐµÑĤÐ":4032,"ĠÐ¾ÑĩÐµÑĢÐµÐ´ÑĮ":4033,"ĠmoÅ¼na":4034,"ĠÐ·Ð°Ð¹":4035,"ÑģÑĤÐ²Ð¸Ðµ":4036,"ĠÐ·Ð½Ð°Ñ":4037,"ĠÑĢÐµÑĩ":4038,"ÐĿÐĺ":4039,"ĠÐºÐ¾Ð½ÐºÑĢÐµ":4040,"ĠKo":4041,"ĠÑĤÑĢÐµÑħ":4042,"ĠÐ¿Ð¾Ð»ÑĥÑĩÐµÐ½Ð¸Ñı":4043,"ĠÐ²Ð¾Ð¾Ð±ÑīÐµ":4044,"ĠÐºÐ¾ÑĢÐ¿":4045,"ĠÑĢÐ¾Ð·":4046,"Ð°Ð¼Ð¿":4047,"ÐµÐ½Ð¸ÑıÐ¼Ð¸":4048,"ĠÑģÐ¾Ð±Ð¸":4049,"ĠÑħÐ°ÑĢÐ°ÐºÑĤÐµÑĢÐ¸Ñģ":4050,"ÐµÑĪÑĮ":4051,"ĠÐ¸Ð·Ð¾Ð±ÑĢÐ°Ð¶":4052,"owym":4053,"ÑĭÑĪÐ»":4054,"ĠÑģÐ¾Ð¾ÑĤÐ²ÐµÑĤÑģÑĤÐ²Ð¸Ð¸":4055,"ĠÐ¾Ð¶Ð¸Ð´":4056,"Ð¾Ð´Ð½Ð¾":4057,"ĠÐ¿ÐµÑĢÐµÐ¿":4058,"ÑĢÐ°ÑĨÐ¸Ñı":4059,"Ð½ÐµÐ½Ð¸Ñİ":4060,"ĠÑģÐ¾ÑģÑĤ":4061,"Ġpre":4062,"ĠÐĲÐ»":4063,"Ð½Ð¸Ð·":4064,"ĠÐ¿Ð»Ð°Ð½Ð":4065,"ĠÑģÐ¸ÑĤÑĥÐ°ÑĨÐ¸Ð¸":4066,"ĠÐ¿Ð¸Ñī":4067,"ÑĥÐ½":4068,"ĠÐºÐ¾Ð½ÑĤÐ°Ðº":4069,"ĠÐ¿Ð¾Ð¼Ð¾Ð¶ÐµÑĤ":4070,"ony":4071,"ĠÐ½ÐµÐ¶":4072,"ĠÐ¾Ð±Ð¼":4073,"ĠÐ¤Ð":4074,"ĠÑģÐºÐ°Ð·Ð°ÑĤÑĮ":4075,"ÑĥÑĢÑģ":4076,"ĠÐ¿Ð»Ð°":4077,"ĠÐ¿ÑĢÐ¾ÑģÑĤÑĢÐ°Ð½":4078,"Ġ199":4079,"ĠÑĥÑģÑĤÐ°Ð½Ð°Ð²Ð»Ð¸Ð²":4080,"Ð°Ð»ÑĮÐ½ÑĭÐ¼":4081,"net":4082,"ĠÐ°Ð²ÑĤÐ¾Ð¼Ð°":4083,"ĠÑģÐµÑĤÐ¸":4084,"Ð²Ð°ÑĤ":4085,"ĠÐ³ÑĢÑĥÐ¿Ð¿Ñĭ":4086,"Ð°ÑİÑīÐµÐ¹":4087,"ĠÑĥÐ½Ð¸Ð²":4088,"ÐµÐ½ÑĤÐ¾Ð¼":4089,"ĠÐºÐ°Ð»":4090,"ĠÐ»ÐµÑĩÐµÐ½Ð¸Ðµ":4091,"siÄħ":4092,"ent":4093,"ĠÐĳÐ¾Ð»ÑĮÑĪ":4094,"ĠÐ¿Ð¾ÑģÑĤÐ¾ÑıÐ½Ð½Ð¾":4095,"ĠÐ¼Ð¸ÑĢ":4096,"Ð¸Ð½Ð´":4097,"ĠÐ±Ð»Ð°Ð³Ð¾Ð´Ð°ÑĢÑı":4098,"ÑĥÐºÐ¾Ð²":4099,"Ð°Ð½ÐµÐ":4100,"Ġok":4101,"owane":4102,"ĠÐ¾Ð´Ð½Ð¸Ð¼":4103,"ĠâĢ¢":4104,"ÑĪÐ¸ÑģÑĮ":4105,"Ð±Ðµ":4106,"ĠÑģÐ²ÐµÑĤ":4107,"ut":4108,"ÑĤÐ¸ÑĤÑĥ":4109,"ĠÐ¶ÐµÐ½ÑīÐ¸Ð½":4110,"ĠÐ¼ÐµÑģÑıÑĨÐµÐ²":4111,"ĠÐ¸Ð¼ÐµÑİÑī":4112,"ĠÐ¿Ð¾Ð´ÑĤÐ²ÐµÑĢÐ¶Ð´":4113,"Ð¾Ð»Ñĭ":4114,"ĠdziaÅĤa":4115,"µÑĤÐ²":4116,"Ð¾Ð¸Ð½":4117,"ĠÐ²Ð·ÑĢÐ¾ÑģÐ»":4118,"Ð°Ð¶Ð¸":4119,"ĠÑĤÑĢÐµÐ½Ð":4120,"ĠÐŁÑĢÐ¾Ñģ":4121,"ĠÐ¼Ð°ÑĤÐµÑĢÐ¸Ð°Ð»Ð¾Ð²":4122,"Ġich":4123,"Ġaby":4124,"Ð»Ð¸Ðº":4125,"pad":4126,"ĠÑĤÑĢÐµÐ±Ð¾Ð²Ð°Ð½Ð¸Ñı":4127,"ĠÐ¿ÑĢÐ¾Ð³ÑĢÐ°Ð¼Ð¼Ñĭ":4128,"ĠÐ²Ð·Ð°Ð¸Ð¼":4129,"ĠÑģÑĤÑĥÐ´":4130,"ĠÐĹÐ´ÐµÑģÑĮ":4131,"ĠÐºÐ¾ÑĤÐ¾ÑĢÑĭÐ¼":4132,"ĠÑģÐ°Ð¼ÑĭÐµ":4133,"ĠÐ¼Ð¾Ð´ÐµÐ»Ð¸":4134,"40":4135,"Ġpier":4136,"dzy":4137,"ĠÐ½Ð°Ð³ÑĢÑĥÐ·":4138,"ĠÐ·Ð½Ð°ÑĩÐ¸ÑĤ":4139,"ĠÐ¿ÑĢÑıÐ¼Ð¾":4140,"id":4141,"Ð¸Ð²Ð°ÑĤÑĮÑģÑı":4142,"py":4143,"ĠkaÅ¼":4144,"ĠÐŁÐ»":4145,"ÐµÐºÐ¾Ð¼":4146,"ĠÑĤÐµÐ±Ñı":4147,"Ð°ÑĢÐ¾Ð²":4148,"ĠJa":4149,"ÑİÑİ":4150,"ÑĤÐ¸Ñİ":4151,"ĠÐ¾ÐºÐ°Ð·Ð°Ð»":4152,"Ð°Ð½ÑĮ":4153,"ĠÐķÑģÑĤÑĮ":4154,"ÑĤÐ¸ÑĢÐ¾Ð²Ð°ÑĤÑĮ":4155,"ĠÐ¼Ð°ÑģÑģ":4156,"Ð¼Ð¾Ð²":4157,"ÐµÐ´ÐµÐ½Ð¸Ðµ":4158,"ĠÐ¾Ð±ÑĬÐµÐ¼":4159,"ĠÐ´ÑĢÑĥÐ·":4160,"ĠÐ²ÑĤÐ¾ÑĢÐ¾Ð¹":4161,"ĠÐĽÐ":4162,"Ġbi":4163,"ĠÐ±Ñĥ":4164,"ali":4165,"Ð»ÑĥÐ°":4166,"ĠÐ·Ð°ÐºÐ¾Ð½Ð¾Ð´Ð°ÑĤÐµÐ»ÑĮ":4167,"Ð¾Ð²Ð¾ÑĢ":4168,"ĠÐ±ÑİÐ´":4169,"ĠÐ¿ÑĢÐ¾Ð¶":4170,"kty":4171,"ÐºÐ¾ÑģÑĤÐ¸":4172,"Ð¾Ð±ÑĢÐ°Ð·":4173,"Ð»ÐµÑĢÐ":4174,"ĠÐ²Ð°ÑĪÐµÐ³Ð¾":4175,"ĠÑĢÐµÐ³ÑĥÐ»Ñı":4176,"ĠÐ¡Ð":4177,"ÐµÐ´ÑĮ":4178,"Ð¾Ð¶ÐµÑĤÐµ":4179,"ÑĢÐ¾Ð¶":4180,"ĠÐļÐ¾Ð¼Ð¿":4181,"ÐµÐ½Ñĥ":4182,"ĠÐĶÐ¾Ð±":4183,"ĠÑģÐµÐ·":4184,"ĠÐ¼ÑıÐ³":4185,"ĠÐ¶ÐµÐ½ÑīÐ¸Ð½Ñĭ":4186,"ÑīÐµ":4187,"Ð´ÐµÑĤÐµ":4188,"ĠÑįÑĤÐ¾Ð¼Ñĥ":4189,"ĠÐ²Ð·Ð³":4190,"ĠÐ²ÑĭÐ·Ð²":4191,"niÄĻ":4192,"ĠÐ¼Ð¸ÑĢÐµ":4193,"Ð°Ð½Ð½Ð¾Ðµ":4194,"ĠÐ¾ÑĤÐ¼ÐµÑĩ":4195,"Ð¾ÑģÐºÐ¾Ð²":4196,"ÑĪÐ°Ñı":4197,"ÑģÐ¾Ð»":4198,"ĠÑĢÐ°Ð·Ð¼ÐµÑī":4199,"ĠÐ¿Ð¾Ð´Ð°ÑĢ":4200,"ner":4201,"czas":4202,"ÅĦst":4203,"ĤÐ°Ðº":4204,"Ð¸ÑĤÐµÐ»ÑĮÐ½ÑĭÐµ":4205,"Ġfir":4206,"ĠÐĺÑ":4207,"Ð½ÑıÑı":4208,"ĠÐ¸Ð³ÑĢÐ°ÑĤÑĮ":4209,"ĠCo":4210,"Ð¾Ð²Ð°Ð½Ð¸Ð¹":4211,"ĠÑĦÐ¾ÑĢÐ¼Ñĭ":4212,"½ÑİÑİ":4213,"ĠÐ¡Ð»ÐµÐ´":4214,"Ð¾ÑĨ":4215,"Ð¸ÑģÑĤÐ¾Ð²":4216,"ÐºÐ¸Ð¼Ð¸":4217,"ĠÐ¿Ð¾Ð´Ð¿Ð¸Ñģ":4218,"Ð¾Ð½ÐµÐ½":4219,"ĠÐĲÐ½Ð":4220,"ÑĪÐ°":4221,"ĠÐ´ÐµÐ½ÐµÐ³":4222,"ĠÐ´ÐµÐ¼":4223,"ĠÐ¿Ð¾ÑĢÑ":4224,"³Ð»":4225,"ÅĤat":4226,"ĠÐĴÐ¸Ð´":4227,"se":4228,"ĠÑĤÐµÑħÐ½Ð¸ÑĩÐµÑģÐº":4229,"trzy":4230,"ĠÑģÐ²ÐµÐ¶":4231,"ĠÑĥÑĢÐ¾Ð²Ð½Ñı":4232,"ĠÑģÐ°Ñħ":4233,"Ġand":4234,"ĠÑģÑĢÐ¾Ð":4235,"Ð¾Ð¿Ð":4236,"ÑĤÐºÐµ":4237,"ĠÑĢÐµÐ·ÑĥÐ»ÑĮÑĤÐ°ÑĤ":4238,"Ġar":4239,"Ġog":4240,"ĠÑĢÐ°Ð·Ð°":4241,"ĠÑĥÐ·Ð½Ð°ÑĤÑĮ":4242,"Ð¾Ð°Ð":4243,"ĠÐºÐ°ÑĩÐµÑģÑĤÐ²Ð°":4244,"ĠÐ¿Ð¾Ð·Ð´":4245,"Ð»ÐµÑĢ":4246,"ĠÐ±Ð»Ð¸Ð¶":4247,"ÑģÐ¸Ð¾Ð½Ð":4248,"ĠÑģÐ¾Ð²Ð¼ÐµÑģ":4249,"ĠÐ¸Ð½ÑģÑĤÑĢÑĥÐº":4250,"ĠÐ½Ð°Ð»Ð¾Ð³Ð¾Ð²":4251,"Ð¸Ð·Ð°":4252,"ÑĤÐ¸Ð½Ð°":4253,"ĠÐ¢ÐµÐ¿ÐµÑĢÑĮ":4254,"Ġosob":4255,"ĠÑģÐ°Ð¼ÑĭÐ¹":4256,"ĠÐ¿Ð¾ÑĢÐ°Ð¶":4257,"Ð¼Ð¾ÑĤÑĢÑı":4258,"ÑĥÑı":4259,"skiego":4260,"ĠÐ¿Ð¾Ð²ÑĢÐµÐ¶Ð´":4261,"ĠÐ¼Ð»":4262,"ĠÐ´Ð¸Ð°Ð³":4263,"ĠÐķÐ²ÑĢÐ¾Ð¿":4264,"ÑĤÐ°ÑĢ":4265,"ĠÑģÐ¿Ð°Ñģ":4266,"ĠÐ±Ð¸":4267,"Ġno":4268,"ĠÐ¿ÑĢÐ¸Ð²Ð»ÐµÐº":4269,"ĠÐ´ÐµÐ¹ÑģÑĤÐ²Ð¸ÑĤÐµÐ»ÑĮÐ½Ð¾":4270,"Ġ2018":4271,"ĠÑģÐ¸Ð´":4272,"Ġ23":4273,"ĠÐ¾Ð±ÑĢÐ°Ð±Ð¾ÑĤÐ":4274,"ĠÐ½Ð¸ÐºÐ¾Ð³Ð´Ð°":4275,"ĠÑħÑĥÐ´":4276,"ĠÑĥÑģÐ»ÑĥÐ³Ð¸":4277,"wÃ³":4278,"Ð»ÐµÐ²":4279,"ÑĢÑĭÐ¹":4280,"ÑĪÐ¸ÑĢ":4281,"ÑĤÐ¸ÑĢ":4282,"Ð½Ð¸ÐºÐ":4283,"ĠÐ¾ÐºÐ¾Ð½Ñĩ":4284,"Ð°Ð²Ð¸Ñģ":4285,"ÑĢÐµÐ´ÐµÐ»Ñı":4286,"ÑıÑĩ":4287,"ĠÐ²Ð°Ð»":4288,"ĠÑįÐºÑģÐ¿Ð»ÑĥÐ°":4289,"ĠczÄĻ":4290,"ĠÐłÐ¾ÑģÑģÐ¸Ð¹ÑģÐºÐ¾Ð¹":4291,"ĠÐ·Ð°ÑĢ":4292,"ĠteÅ¼":4293,"ĠÐ¿ÑĢÐ¸Ð½Ð":4294,"ĠÐ¼ÐµÐ½":4295,"ĠÐ¿Ð¾ÑĪ":4296,"½ÑĢÐ°Ð²":4297,"ĠTe":4298,"ĠÐ²Ð¾ÑģÐ¿Ð°Ð»":4299,"ĠÑĤÐµÐ»Ð°":4300,"ÐµÐ¼Ð¸":4301,"ĠÑįÐ¿":4302,"ĠÐ½Ð°ÑĢÐ¾Ð´":4303,"ĠÐ·Ð°ÐºÑĢÑĭ":4304,"ĠÐºÐ»ÑİÑĩ":4305,"Ġsie":4306,"ÑĢÐ¸ÑĩÐµÑģÐº":4307,"ĠÑĤÑĢÐµÐ±ÑĥÐµÑĤÑģÑı":4308,"ĠÐ¾Ð¿ÐµÑĢÐ°":4309,"ÑĥÑģÐ»":4310,"ĠÐºÐ¾ÑĪ":4311,"ÑĪÐµÐ¼":4312,"ji":4313,"ĠÐ¤ÐµÐ´ÐµÑĢÐ°ÑĨÐ¸Ð¸":4314,"ĠÐ²Ð¾Ðº":4315,"ÑĢÐ¾ÑĤÐ¸Ð²":4316,"ÐºÐ¾Ð³":4317,"Ð½ÑĢÐ°Ð²":4318,"ĠÐ´ÑĥÑħ":4319,"ĠÐ°ÐºÐºÑĥ":4320,"ĠÐ½Ð°ÑĪÐµÐ¼":4321,"ĠÑĢÐ°Ð±Ð¾ÑĤÐ°":4322,"ĠÐ´ÑĢÐµÐ²":4323,"ĠÐ´ÐµÐ»Ðµ":4324,"ĠÐ¿Ð¾ÑĢÑĤ":4325,"Ð¹ÑĤÐµ":4326,"Ġkom":4327,"ĠÐ´Ð¾ÐºÑĥÐ¼ÐµÐ½ÑĤÐ¾Ð²":4328,"18":4329,"Ð»Ð°ÑĢ":4330,"µÑĤÐµÑĢÐ":4331,"Ġdob":4332,"Ð¸ÑĨÐ°":4333,"ĠÐ¿ÐµÑĢÐµÑĩ":4334,"rÄĻ":4335,"Ð½Ð°Ð·Ð½Ð°Ñĩ":4336,"szÄħ":4337,"Ġgra":4338,"½Ð¾Ð¾Ð±ÑĢÐ°Ð·":4339,"ĠÑģÐ¼Ð¾ÑĤÑĢÐµÑĤÑĮ":4340,"ĠÐ¿ÑĢÐµ":4341,"ĠÐ²ÑĢÐµÐ´":4342,"ÑĥÐ´ÑĮ":4343,"ĠÐĳÐ¾Ð»":4344,"ÑĭÐ²Ð°Ñı":4345,"ÅĤem":4346,"ÑĢÐ¾ÑĨ":4347,"ÑĤÐ½Ð¾Ð¼":4348,"ĠÑģÐ²Ð¸Ð´ÐµÑĤ":4349,"ĠÐ¿Ð¾ÑģÐ":4350,"ĠÐ¸Ð´ÐµÐ°Ð»ÑĮ":4351,"ĠÐ¶ÑĥÑĢ":4352,"ĠÐ¿ÑĢÐ°Ð²Ð¸Ð»":4353,"Ġ60":4354,"¸ÑģÑĤÐ¾Ð²":4355,"ĠÑħÐ¾ÑĤÐ¸ÑĤÐµ":4356,"Ð°Ð½Ð½ÑĭÐ¼":4357,"ĠÐ¿ÑĢÐµÐ´Ð¿Ð¾Ñĩ":4358,"ĠÐ¿Ð°ÑĢÑĤÐ½Ð":4359,"Ð»ÐµÐ":4360,"Ð¸ÑĩÐµÑģÐºÐ°Ñı":4361,"ĠÐ²ÑĭÑĢÐ°Ð¶":4362,"ĠÑģÐ¾Ð±Ð»ÑİÐ´":4363,"ĠÑĢÐµÐ¹":4364,"ĠÐ¼Ð¾Ð±Ð¸Ð»ÑĮ":4365,"Ð¾Ð¼Ð¸Ð½Ð°Ð":4366,"ĠÑĤÐ¾ÑĢ":4367,"forma":4368,"Ð¾Ð³ÑĢÐ°Ð¼":4369,"ĠÐ¿Ð¾ÑģÐµ":4370,"Ð°Ð´Ð°":4371,"ÐµÐºÐ¾ÑĢÐ":4372,"ot":4373,"ĠÐºÐ¾Ð¼Ð½Ð°Ñ":4374,"ÑĩÐµÑĤ":4375,"ĠuÅ¼y":4376,"ĠÑĢÑĥÐºÐ¸":4377,"ĠÐ»ÑİÐ±Ð¾Ð²":4378,"ĠÐ¿Ð¾Ð²ÐµÑĢÑħÐ½Ð¾ÑģÑĤÐ¸":4379,"ĠÑĥÑĩÐµÐ±":4380,"kim":4381,"ĠDz":4382,"Ð½Ð°ÑĩÐ°Ð»Ð°":4383,"ĠÑĦÐ¾ÑĢÐ¼Ðµ":4384,"ĠÐŁÑĢÐ¸Ñĩ":4385,"ÑīÐ¸Ðº":4386,"nymi":4387,"cÃ³w":4388,"ĠÐ¡ÐµÐ³Ð¾Ð´Ð½Ñı":4389,"ĠÑģÐµÐ¼ÐµÐ¹":4390,"ĠÑĪÐ¸ÑĢÐ¾Ðº":4391,"czÄĻ":4392,"ĠÑģÐ¾ÑģÑĤÐ¾ÑıÐ½Ð¸Ðµ":4393,"Ġ2017":4394,"ĠÐ½ÐµÑģÐºÐ¾Ð»ÑĮÐºÐ¸Ñħ":4395,"ÑĢÐ°Ð»Ð¸":4396,"ÑģÐ¿ÐµÐº":4397,"ÐµÐ´Ð½ÐµÐ²":4398,"Ġ2019":4399,"ÑĢÐ°ÑĤÐ¸ÑĤÑĮ":4400,"ĠÑĥÑĤÐ²ÐµÑĢÐ¶Ð´":4401,"ĠÐĿÑĥ":4402,"ĠÐ¶Ð°Ð»":4403,"ĠÑĥÑģÐ¿ÐµÑĪ":4404,"60":4405,"Ð¸ÑĤÐµÐ»ÑĮÐ½ÑĭÐ¹":4406,"Ġsob":4407,"ĠÐ´Ð¸Ð·Ð°Ð¹":4408,"ĠÐ¸Ð·Ð±Ð°Ð²":4409,"ĠÐºÐ°Ð¶":4410,"ĠÐºÑĥÑģ":4411,"ĠÑĢÐ°ÑģÑģÑĩ":4412,"Ð»Ð¸Ð":4413,"ĠÐ¿ÑĢÐµÐ·Ð¸Ð´":4414,"ĠÐ²ÑģÑİ":4415,"Ð¸ÑĦÐ¸Ðº":4416,"ĠÑĢÐ°Ð·ÑĢÐ°Ð±Ð¾ÑĤ":4417,"ĠÐ¸ÑģÐ¿Ð¾Ð»ÑĮÐ·ÑĥÐµÑĤÑģÑı":4418,"ĠÐºÐ°Ð¿Ð¸ÑĤ":4419,"ĠÐĹÐ°ÑĤ":4420,"ĠÐŃÐº":4421,"ĠÐ¿Ð¾Ð´Ñĩ":4422,"ÑĢÑĥÑģ":4423,"ĠÐ½ÑĢÐ°Ð²":4424,"ĠÐ¾Ð±ÑĢÐ°Ð·Ð¾Ð²Ð°Ð½Ð¸Ñı":4425,"ĠÐ½Ð°Ð¶":4426,"ĠÑģÐ»ÐµÐ´ÑĥÑİÑīÐ¸Ðµ":4427,"ÑĭÑģÐº":4428,"Ġry":4429,"Ġser":4430,"Ð¾ÑĢÐ¾ÑĤ":4431,"spo":4432,"ĠÐºÐ¾Ð¼ÑĦ":4433,"ĠÑĦÐ¾ÑĢÐ¼Ñĥ":4434,"ĠÑĥÐ´Ð¸Ð²":4435,"ĠÐ·Ð°Ð²ÐµÑĢÑĪ":4436,"ĠÐ¾Ð¿ÐµÑĢÐ°Ñ":4437,"ĠÐļÐ¾Ð»":4438,"ĠÐ¿ÑĢÐ¾ÑĦÐ¸Ð»":4439,"Ð½Ð¸ÑĨÐ°":4440,"ĠÑĤÐµÐºÑģÑĤ":4441,"ĠÐ²Ð¾Ð·Ð½Ð¸ÐºÐ":4442,"¸ÑĤÐ°ÑĤ":4443,"ÑĢÐ°ÑĤÐ¾Ð²":4444,"ĠÐºÐ°ÑĢÐ":4445,"ĠÑģÑĤÐ°Ð½Ð´Ð°ÑĢ":4446,"ĠÐ¿ÑĢÐ¸Ð´ÐµÑĤÑģÑı":4447,"ÑıÐ³":4448,"Ġpi":4449,"ÑĥÑİÑīÐ¸Ð¹":4450,"ĠÐŁÐ¾ÑĤ":4451,"ĠÑĢÐµÐ¼Ð¾Ð½":4452,"ĠÐ½Ð°Ð½ÐµÑģ":4453,"ĠÐĿÐµÑģ":4454,"cznych":4455,"ok":4456,"ĠÑģÐ¼Ð¾Ð¶ÐµÑĤÐµ":4457,"ĠÐ¿Ð°Ð»ÑĮ":4458,"¸ÑĤÐµÑģÑĮ":4459,"ĠÐ²ÑģÐ¿":4460,"ĠÐ£ÐºÑĢÐ°Ð¸Ð½Ñĭ":4461,"Ð°ÐºÐ°":4462,"Ð¸Ð¼Ð¾ÑģÑĤÑĮ":4463,"ĠÑģÐ¾ÑģÑĤÐ¾Ð¸ÑĤ":4464,"ĠÐ¿ÑĢÐ¾Ð¸Ð·Ð²Ð¾Ð´ÑģÑĤÐ²Ð°":4465,"ĠÑģÐ¿Ð¾ÑģÐ¾Ð±ÑģÑĤÐ²":4466,"ĠÐ·Ð°ÑīÐ¸":4467,"Ġau":4468,"ÑĤÐ¸ÑĩÐµÑģÐºÐ¾Ð³Ð¾":4469,"ĠÑıÐ½Ð²":4470,"µÑĤÐµÑĢÐ±ÑĥÑĢÐ":4471,"ĠÐ·Ð½Ð°Ð½Ð":4472,"ĠÐ¿ÑĢÐµÐ¿":4473,"sia":4474,"ĠÑģÑĤÐ°Ð½ÐµÑĤ":4475,"ĠÐľÐ¾ÑģÐºÐ²Ðµ":4476,"ĠÐ¿ÐµÑĢÐµÐ½Ð":4477,"Ġor":4478,"Ñĸ":4479,"it":4480,"25":4481,"ĠÐ±Ð¾Ð³":4482,"cej":4483,"ĠÑģÐºÐ¾Ð»ÑĮÐºÐ¾":4484,"ĠÑħÐ¾Ð»Ð¾Ð´":4485,"ĠÐ·Ð°Ð¼Ðµ":4486,"200":4487,"sie":4488,"ĠÐ¿Ð¾Ð¼Ð¾ÑīÑĮ":4489,"nu":4490,"ĠÑħÐ¾Ð·ÑıÐ¹":4491,"ĠÐ³ÑĥÐ±":4492,"ĠÑĤÐµÑĢÐ¼":4493,"ĠÑģÐ¼ÐµÑĢ":4494,"ÑģÑĤÐ²Ð¸ÐµÐ¼":4495,"Ð¾Ð»Ð½Ðµ":4496,"ĠÐ¾Ð±ÑĬÑıÐ²":4497,"Ð¾ÑĢÐ¾Ð¶":4498,"ĠÐļÐ°Ð·":4499,"praw":4500,"ÑĤÐ½ÑĭÐ¼Ð¸":4501,"ĠÐºÐ¾Ð½ÑĨÐµ":4502,"ĠÐ³Ð¾Ð»Ð¾Ñģ":4503,"ÑĥÐ½Ð´":4504,"ĠÐ°Ð²ÑĤÐ¾Ð¼Ð¾Ð±Ð¸Ð»ÑĮ":4505,"ÑĤÐ¸Ð²Ð½ÑĭÑħ":4506,"ĠÐ½Ð¸Ð¶":4507,"ec":4508,"ĠÑģÑĤÑĢÐ°Ð½":4509,"ĠÐ´Ð°Ð»ÑĮÐ½ÐµÐ¹":4510,"ort":4511,"ĠÐ¿Ð¾Ð¿Ð°Ð´":4512,"ĠÑģÐ½Ð¾Ð²Ð°":4513,"ÑĢÐ¾ÐµÐ":4514,"ÑĢÑıÑĩ":4515,"Ġcie":4516,"czenia":4517,"Ð¸ÑĢÑĥ":4518,"ĠÑĦÐ°Ð¹":4519,"ĠÐľÐ½Ð¾Ð³":4520,"ĠÐ½ÐµÐ¾Ð±ÑħÐ¾Ð´Ð¸Ð¼Ð¾ÑģÑĤÐ¸":4521,"rzysta":4522,"Ġ2016":4523,"Ð½Ð¸ÑĨÑĭ":4524,"ĠÐ²ÑĭÐ¿Ð¾Ð»":4525,"Ð»Ð½":4526,"ĠÐ¢ÐµÐ¼":4527,"ÑģÑĤÐ²ÐµÐ½Ð½Ð¾":4528,"ĠÐ°Ð¿Ð¿Ð°":4529,"ĠÑģÐ¸Ð»ÑĮÐ½Ð¾":4530,"ÐµÑĢÐ¸ÑĤÑĮ":4531,"ĠÑģÐ»Ð¾Ð²Ð°":4532,"ĠÐ·Ð½Ð°ÑĤÑĮ":4533,"ĠÐ±Ð¸Ð·Ð½ÐµÑģÐ":4534,"Ð¿Ð¾Ð´":4535,"ĠÑĢÑĭÐ±":4536,"ÐŁÐ":4537,"ĠÐŁÐµÑĢÐµÐ´":4538,"ÐµÐ½Ð¸ÑĤ":4539,"ĠÐĽÑİÐ±":4540,"ÑĤÐ¸ÐµÐ¼":4541,"ĠÐ½Ð°ÑĤÑĥ":4542,"ĠÐ¾ÑĢÐ³Ð°Ð½Ð¸Ð·Ð¼Ð°":4543,"ly":4544,"ĠÐĿÐµÐ":4545,"ĠÑģÐ°Ð¼Ð¾Ðµ":4546,"ho":4547,"ĠÐ±Ð¾Ð½ÑĥÑģ":4548,"tego":4549,"ral":4550,"Ð¸ÑĤÐµÐ»ÑĮÐ½Ð¾ÑģÑĤÑĮ":4551,"ĠÐĲÐ½Ð´":4552,"ĠÑĤÑıÐ¶ÐµÐ»":4553,"ĠÐ°Ð»ÑĮ":4554,"ÑĥÑĪÐºÐ¸":4555,"ÐºÐ¾Ðµ":4556,"ĠÐ½Ð°ÑģÐ»ÐµÐ´":4557,"ĠÑĢÐµÐºÐ¾Ð¼ÐµÐ½Ð´ÑĥÐµÑĤÑģÑı":4558,"ĠÑĢÐ°Ð¼ÐºÐ°Ñħ":4559,"ĠÐ¿ÑĢÐµÐ´Ð½Ð°Ð·Ð½Ð°Ñĩ":4560,"ĠÑĥÑĩÐ°ÑģÑĤÐ¸Ðµ":4561,"ĠÑģÑĨ":4562,"ĠÐºÐ¾ÑĢÐ¾ÑĤÐ":4563,"ĠPrze":4564,"¸ÑĢÐ¾Ð²Ð°Ð½Ð¸Ðµ":4565,"siÄĻ":4566,"ÑĢÐ¾ÐµÐ½Ð":4567,"ĠÐ¿ÑĢÐ¸ÑģÑĥÑĤÑģÑĤÐ²":4568,"II":4569,"ĠÐķÑīÐµ":4570,"ĠÐ´Ð¾ÑģÑĤÐ¸Ð³":4571,"ĠÐ¼Ð¾Ð·":4572,"ĠÐ´Ð¾ÐºÑĥÐ¼ÐµÐ½ÑĤÑĭ":4573,"ĠÐ¸ÑģÐ¿ÑĭÑĤ":4574,"Ġcho":4575,"line":4576,"ĠÐ¸Ð½Ð¾Ð³Ð´Ð°":4577,"ĠÐ¾Ð±ÑģÐ»ÑĥÐ¶":4578,"Ġodpowie":4579,"ĠÐ¸ÑģÐ¿Ð¾Ð»":4580,"ĠÐ¼Ð¾Ñĩ":4581,"ÅĽnie":4582,"ĠÐ¿Ñĭ":4583,"ĠÐ¼ÐµÐ¶Ð´ÑĥÐ½Ð°ÑĢ":4584,"ĠÐ¼Ð°ÑĤÐµÑĢÐ¸Ð°Ð»Ð°":4585,"ĠÐ¿ÑĢÐ¸Ð¾Ð±ÑĢÐµÑĤ":4586,"ÑĤÐ½Ð¸Ðº":4587,"ĠÐ¾ÑĤÐ²ÐµÑĤ":4588,"°Ñĥ":4589,"ĠÐ³ÑĢÐ°ÑĦ":4590,"ĠrÃ³Å¼":4591,"ĠÐµÑģÑĤÐµÑģÑĤÐ²":4592,"ĠÐ³ÑĢÐ°Ð¼":4593,"Ð°Ð¸Ð²":4594,"skiej":4595,"ĠÑĥÑĩÑĢÐµÐ¶Ð´":4596,"ĠÐ»ÑĮ":4597,"ĠÐ´ÐµÑĦ":4598,"ĠÐŀÐº":4599,"ĠÐºÐ½Ð¾Ð¿":4600,"ÑĢÐµÐ³Ð¸ÑģÑĤ":4601,"ĠKa":4602,"ÑĤÐ¸ÑĩÐµÑģÐºÐ¸Ð¹":4603,"ÑĩÐ°":4604,"ĠÐ°Ð²ÑĤÐ¾Ð¼Ð¾Ð±Ð¸Ð»Ñı":4605,"ĠÐºÐ¾Ð½ÑģÑĥÐ»ÑĮ":4606,"ĠÑģÐ¾Ð·":4607,"ĠÑģÑĤÐ°ÑĤÑĮÐ¸":4608,"ÑĩÐ¸ÑĤ":4609,"ĠRo":4610,"ĠÐ¸Ð´ÐµÑĤ":4611,"°ÑĤÑĮ":4612,"ĠÐ¸ÑģÑĤÐ¾ÑĢÐ¸Ð¸":4613,"ĠÑģÐ°Ð¼ÑĭÐ¼":4614,"ĠÐĺÐ½ÑĤÐµÑĢ":4615,"Ð¾Ð½Ð°Ñħ":4616,"ÑĩÐ¸ÐºÐ°":4617,"ĠÐ²ÐµÑĢÐ¾Ñı":4618,"ÑĢÑĥÐ±":4619,"Ġjego":4620,"Ð¸Ð·Ð¾Ð²":4621,"ÐĿÐŀ":4622,"ĠÐ°Ð²ÑĤÐ¾":4623,"owÄħ":4624,"µÐ³Ð¾":4625,"µÑĢÑĭ":4626,"Ð¡Ð¡":4627,"ĠÅĽwia":4628,"ĠÐ²ÑĭÐ¸Ð³":4629,"ĠÐ¾Ð¿ÑĤÐ¸Ð¼":4630,"ĠÐ¿Ð¾ÑĢÐ":4631,"ery":4632,"ary":4633,"°ÑĤÐ»":4634,"ĠÐ¿Ð°Ð¿":4635,"ĠÐ¼Ð°ÑģÑĤÐµÑĢ":4636,"Ð°ÑİÑīÐ¸Ð¼":4637,"¸ÑĨÐ°":4638,"ĠÐ¾Ð±Ð½Ð¾Ð²":4639,"ĠÐ´Ð¾Ð³Ð¾Ð²Ð¾ÑĢ":4640,"ĠÐ¿Ð¸ÑĤÐ°Ð½Ð¸Ñı":4641,"ĠÐ²ÐµÑīÐµÑģÑĤÐ²":4642,"ĠÑĥÐ½Ð¸Ðº":4643,"ĠÑĢÑıÐ´Ð¾Ð¼":4644,"ĠÑįÐ½ÐµÑĢÐ³":4645,"Ð¸Ð½ÐºÐ¸":4646,"Ð²Ð°ÑĢÐ¸ÑĤÐµÐ»ÑĮ":4647,"ĠÐ¢Ð°ÐºÐ¸Ð¼":4648,"ĠÐ¸ÑģÐ¿Ð¾Ð»ÑĮÐ·ÑĥÑİÑĤ":4649,"ĠÐ¼ÐµÐ±":4650,"Ġwsp":4651,"Ġdoda":4652,"ĠÐ³ÑĢÑĥÐ·":4653,"ĠÐ²Ð¸ÑĤÐ°Ð¼":4654,"Ð¸Ð°":4655,"ĠÑģÑĩÐ¸ÑĤÐ°Ñ":4656,"ÐµÐ¶Ð":4657,"ĠÐ¿Ð°Ð¼Ñı":4658,"ĠÐĺÐ¼ÐµÐ½Ð½Ð¾":4659,"ĠÐ³Ð¸Ð´":4660,"ĠÐ´Ð°ÐµÑĤ":4661,"ĠÐļÐ°ÑĢ":4662,"ĠÑĢÐ°ÑģÐ¿ÑĢÐ¾ÑģÑĤÑĢÐ°Ð½ÐµÐ½Ð":4663,"ĠÐ²Ð¸Ð·":4664,"ĠÐ´Ð°Ð½Ð½Ð¾Ð¹":4665,"ĠÑģÐµÐ½ÑĤ":4666,"ÑĢÐ°ÐµÑĤ":4667,"Ð¸ÑģÐ¸":4668,"Ġofer":4669,"ĠÐĿÐ°Ñģ":4670,"Ð»Ð¾ÑģÑĮ":4671,"Ġtra":4672,"ĠÑĩÐµÑĢ":4673,"Ġjednak":4674,"ĠÐ¼Ð¸ÑĢÐ¾Ð²":4675,"ĠÑģÐ»ÑĥÑĩÐ°Ð¹":4676,"fe":4677,"ĠÐºÐ°":4678,"ĠÐĹÐ°ÑĤÐµÐ¼":4679,"ĠÐ¼Ð½Ð¾Ð¶ÐµÑģÑĤÐ²Ð¾":4680,"ÐµÐ»Ð¸Ñı":4681,"ĠÐ·Ð°Ñĩ":4682,"ÑģÐºÐµ":4683,"Ġfi":4684,"Ð°ÑĤÐ¾Ð²":4685,"tka":4686,"ÐµÑĢÐ¸ÐºÐ°Ð½":4687,"ĠÐ¼Ð¸Ð»Ð»Ð¸":4688,"ÅĤÃ³w":4689,"½Ð¾Ð³Ð":4690,"ĠÑĤÐµÑĢÐ°Ð¿":4691,"Ð»ÐµÐ½Ð½ÑĭÐµ":4692,"Ġsu":4693,"ÑĤÐ°ÑĨÐ¸Ñı":4694,"ĠÐ°ÑĤ":4695,"ĠÑİÑĢÐ¸Ð´":4696,"ĠÑģÐ¾ÑģÑĤÐ°Ð²Ð":4697,"ĠÐ¿ÑĢÐ¾Ð²ÐµÐ´ÐµÐ½Ð¸Ñı":4698,"szka":4699,"ĤÑıÐ¶":4700,"ĠÑĩÐ»ÐµÐ½":4701,"ĠÐ½ÐµÐ´Ð²Ð¸Ð¶":4702,"ĠÑĨÐµÐ½Ñĭ":4703,"ĠÐ¿ÑĥÐ½Ðº":4704,"Ð¸ÑģÐ°":4705,"ĠÐ¼Ð»Ð½":4706,"ÑĤÐ¸ÐºÑĥ":4707,"ĠÐ¾Ð·Ð½Ð°Ñĩ":4708,"ĠÑģÐ¿ÑĢÐ¾Ñģ":4709,"ĠÑĤÐµÐ±Ð":4710,"ĠÑĤÑĥÑĢ":4711,"ĠÑĤÐµÐ±Ðµ":4712,"ÐłÐŀ":4713,"ĠÐ´Ð¸ÑĢÐµÐº":4714,"ÑģÐ¼":4715,"Ġku":4716,"Ð¾ÑģÑĢÐµÐ´":4717,"ĠÐ¼Ð¾Ð¹":4718,"ĠÐ½ÐµÑĢ":4719,"ĠLi":4720,"ĠÐ¿ÑĢÐ¸Ð±Ñĭ":4721,"ÑĤÐ¸Ð²Ð½ÑĭÐµ":4722,"ĠÐ³ÑĢÐ¸Ð±":4723,"ĠÐ°ÑĢÑħ":4724,"ĠÐŃÑĤÐ¸":4725,"ĠÐ±ÐµÑĢÐµÐ¼ÐµÐ½Ð½Ð¾ÑģÑĤÐ¸":4726,"Ġ*":4727,"âĢĶ":4728,"Ð¸ÑĤÐµÐ»ÑĮÐ½ÑĭÑħ":4729,"ien":4730,"ĠÐĲÐ´":4731,"pro":4732,"ĠÐ¾ÑĤÐ½Ð¾ÑĪÐµÐ½Ð¸Ñı":4733,"¸ÑĨÑĥ":4734,"Ð»ÐµÐ³":4735,"ĠÐ¸Ð¼Ð¿":4736,"ĠÐ´Ð°Ð½Ð½ÑĭÐ¹":4737,"Ġswoje":4738,"ĠÑĢÐ°Ð·Ð½Ð¾Ð¾Ð±ÑĢÐ°Ð·":4739,"ĠÑĤÑĢÐµÑĤÑĮ":4740,"ĠÐĴÐ°Ð¶":4741,"ĠÐ°Ð»ÐºÐ¾Ð³":4742,"ĠÐ¿Ð°Ð»":4743,"ĠÐ¸Ð³ÑĢÐ¾Ðº":4744,"¸ÑĤÑĮÑģÑı":4745,"ĠÐ¾ÑģÑĤÐ°Ð½Ð¾Ð²":4746,"ĠÑģÑĤÐ°Ð»Ð¾":4747,"ĠÐŁÐ¾Ðº":4748,"Ĥ¬":4749,"80":4750,"ÑĥÐ±Ð»Ð¸Ðº":4751,"ĠÑĤÐ¾ÑĩÐ½Ð¾":4752,"Ð¸Ð½Ñı":4753,"ÐºÐ¾Ð»ÑĮÐºÐ¾":4754,"Ð¾Ð´Ð¾Ð¼":4755,"Ð¾ÑĩÐºÐ°":4756,"Ð¸Ð¼Ðµ":4757,"Ð¾Ð²Ð°Ð»Ð¸":4758,"ĠÐ¿Ñĥ":4759,"Ġznaj":4760,"sko":4761,"ĠÐ´ÐµÐ»Ð°":4762,"ĠÐ´Ð¾ÐºÑĥÐ¼ÐµÐ½ÑĤ":4763,"Ð°ÑĨÐ¸ÐµÐ¹":4764,"ĠÐ½Ð°ÑĪÐ¸Ñħ":4765,"ĠÐ¾ÑĢÐ¸Ð³":4766,"Ð¸ÑĩÐµÑģÐºÐ¸":4767,"____":4768,"Ġpowie":4769,"ĠÐ¿ÑĢÐ¾Ð¸Ð·Ð¾ÑĪ":4770,"ĠÑģÑĬ":4771,"ÑģÐ»Ð¸":4772,"ÐµÑĤÑĢ":4773,"°Ð»":4774,"ĠÐ¿ÐµÑĢÐ²ÑĥÑİ":4775,"rzÄĻ":4776,"ĠÑģÐ¾Ð·Ð´Ð°ÑĤÑĮ":4777,"17":4778,"ĠÐ²Ð¿Ð¾Ð»Ð½Ðµ":4779,"ns":4780,"ĠÐ¿ÑĢÐµÐ´Ð¿ÑĢÐ¸Ð½Ð¸Ð¼":4781,"Ð°ÐµÐ²":4782,"ĠÐ´ÐµÐºÐ°Ð±":4783,"ĠÐ¿Ð¾Ð¼Ð¾Ð³Ð°ÐµÑĤ":4784,"Ð¸ÑĤÐ°ÑĤÑĮ":4785,"ĠÑĢÐ°Ð·Ð»Ð¸ÑĩÐ½ÑĭÐµ":4786,"ĠÑģÑĥÐ´ÐµÐ±":4787,"ĠÐ´ÑĢÑĥÐ³Ð¸Ð¼Ð¸":4788,"ĠÐŁÐ¾ÑĢ":4789,"dzenia":4790,"ÑĩÐ¸":4791,"Ġpierw":4792,"ÑĭÐ´":4793,"ÑĤÐ¼":4794,"gram":4795,"ĠÐ¸Ð½Ñģ":4796,"ĠÐ¿Ð¾ÐµÐ":4797,"ÑĢÐµÐ¼Ñı":4798,"ĠÐ½Ð¾Ð²Ð¾Ð³Ð¾":4799,"ĠÐ´ÐµÐºÐ¾ÑĢÐ":4800,"ĠÐ²Ð¾Ð²":4801,"ĠÐ»Ð":4802,"Ð¸ÑĨÐ¸ÑĢÐ¾Ð²":4803,"ĠÑĦÐ¾ÑĢÐ¼Ð°":4804,"ĠÐ·Ð°ÑĢÐ°Ð±Ð¾ÑĤÐ":4805,"Ð²Ð¾Ð½Ð":4806,"Ġal":4807,"Ġwyda":4808,"szej":4809,"ze":4810,"szym":4811,"ĠÑģÐ°Ð¼Ð¸":4812,"ĠÐ´ÐµÐ½ÐµÐ¶":4813,"ĠÐ¿Ð»Ð¾ÑĤÐ":4814,"ĠÐ¾ÑĤÐºÑĢÑĭÐ²":4815,"ĠÑģÐ°Ð¼Ð¾Ð³Ð¾":4816,"Ð»ÑģÑı":4817,"ĠÐºÐ¾Ð¼Ð½Ð°":4818,"ĠÐ²Ð¾Ð´Ð¾Ð¹":4819,"ĠÑģÐ¾Ð·Ð´Ð°Ð½Ð¸Ñı":4820,"ÑģÐºÐ¾Ð¼Ñĥ":4821,"Ð½Ñİ":4822,"14":4823,"ĠÐ¾ÑĢÐ³Ð°Ð½Ð¾Ð²":4824,"ÐµÐ½Ð½Ð¸Ðº":4825,"16":4826,"ĠÐ²ÑĭÑģÑĤÐ°Ð²":4827,"Ġpie":4828,"ÑĨÐ¾Ð²":4829,"ĠÐĳÐ»Ð°Ð³":4830,"Ð»ÐµÑĤ":4831,"tek":4832,"ĠÑĨÐ¸ÑĦ":4833,"ĤÐ°Ð¼Ð¸":4834,"liwo":4835,"ĠÐ¸Ð½ÑĤÐµÑĢÑĮ":4836,"ĠÐ´Ð¾Ð»Ð»Ð°ÑĢ":4837,"Ð¾Ð¹ÑĩÐ¸Ð²":4838,"ĠÐ¾Ð´Ð½Ñĥ":4839,"ĠÑĤÑĢÑĥÐ´Ð°":4840,"ĠÐ³ÐµÑĢ":4841,"ĠÑģÑĥÑīÐµÑģÑĤÐ²ÑĥÐµÑĤ":4842,"ÑħÐ¾Ð´Ð°":4843,"ĠÐĵÐ¾Ñģ":4844,"ĠÑģÑĤÐ°Ð»Ð°":4845,"ment":4846,"ĠÐ¿ÑĢÐ¸Ð¼ÐµÑĢÐ½Ð¾":4847,"ĠÑĦÐ¸ÑĢÐ":4848,"ĠÐ±Ð¾ÑĢÑĮ":4849,"ĠÑĤÑĢÐµÐ±ÑĥÐµÑĤ":4850,"wiÄħza":4851,"ĠÐ³Ð¾Ð´Ñĭ":4852,"ÑĤÑıÐ¼Ð¸":4853,"ĠÐ¼Ð°ÑĤÐµÑĢÐ¸Ð°Ð»Ñĭ":4854,"ĠÐļÐ¸":4855,"ĠÐ¾ÐºÐ°Ð·ÑĭÐ²":4856,"ĠÐ¶Ð¸Ð»ÑĮ":4857,"glÄħ":4858,"ĠÑĤÑĢÑĥÐ±":4859,"âĢĿ.":4860,"ĠÐºÐ»Ðµ":4861,"Ð»Ð¾Ð½Ð":4862,"ĠÐ³Ð¾ÑĢÑıÑĩ":4863,"ÑĢÐ°Ð½Ð°":4864,"ĠÐºÐ¾Ð³Ð¾":4865,"ĠÑģÑİ":4866,"Ð¾ÑĤÑı":4867,"ĠÑĢÐ°Ð½ÐµÐµ":4868,"ĠÐŁÑĢÐ¾Ð´":4869,"cÄħ":4870,"ĠÑĨÐµÐ½Ð°":4871,"ĠÐ¿Ð¾ÑĢÑıÐ´ÐºÐµ":4872,"ÐµÐ½ÑĤÑĥ":4873,"ÐµÐ¶Ð°ÑĤÑĮ":4874,"ĠÑĢÐµÐºÐ»Ð°Ð¼":4875,"ĠÐ¿ÑĢÐµÐ´ÑģÑĤÐ°Ð²Ð»ÑıÐµÑĤ":4876,"Ð¿Ðµ":4877,"ĠÐ´Ð»Ð¸Ð½Ð":4878,"ĠÐ½Ð°ÑĪÐ¸":4879,"Ġ27":4880,"ĠÐ°ÑģÑģ":4881,"ĠÐ¾Ð¿ÑĢÐµÐ´ÐµÐ»Ñı":4882,"ÑĤÑĮÑģÑı":4883,"Ð°ÑĢÑĭ":4884,"Ġ2020":4885,"ĠY":4886,"ĠÐ¼ÐµÑģÑ":4887,"dziej":4888,"ĠÑħÐ»":4889,"ĠÐ²Ð½ÐµÐ":4890,"Ð¾Ð½Ð°Ð»":4891,"ĠÐ¼Ð°Ð¼":4892,"ÑģÐ¾Ð»Ñİ":4893,"ÑĢÐ¾Ð´Ðµ":4894,"jÄħcych":4895,"ĠÑĦÑĥÑĤÐ":4896,"ĠÑģÐ»Ð°Ð±":4897,"ft":4898,"ĠÑĢÑĭÐ½ÐºÐµ":4899,"ĠÐ¿ÑĢÐ¾ÐµÐºÑĤÐ°":4900,"ÐµÐ½ÐºÑĥ":4901,"Ð¾Ð½Ð°Ð´":4902,"ĠÐ½Ð°Ð»Ð¸ÑĩÐ¸Ðµ":4903,"ĠÐ°Ð·":4904,"ĠÐ½ÐµÐ¸Ð":4905,"ĠÐ¡Ð»":4906,"ĠÐ±Ð°Ðº":4907,"uro":4908,"Ð¾ÑģÑĦ":4909,"ĤÐµÐº":4910,"ÑĤÐ¸ÑĨ":4911,"Ð¾ÑĤÑĥ":4912,"ĠÐ´Ð²Ð¸Ð¶ÐµÐ½Ð¸Ñı":4913,"ĠÑģÐ¾Ð²ÐµÑĢÑĪÐµÐ½Ð½Ð¾":4914,"Ð°Ð¹Ð´":4915,"ĠÐ¾Ð´Ð½Ð¾Ð¼":4916,"ĠÐºÐ³":4917,"ĠÑįÐ¼Ð¾Ñ":4918,"Ġsa":4919,"ĠÐ¿ÑĢÐµÐ´Ñģ":4920,"Ð¼Ð¸ÑĤÐµ":4921,"ĠÐ¾ÑĤÐ²ÐµÑĩ":4922,"Ð¿Ð¾ÑģÐ¾Ð±":4923,"Ð¸Ð½Ð°Ð´":4924,"Ð¾Ð¿Ð»":4925,"ĠÐ²Ð½ÑĥÑĤÑĢÐ¸":4926,"ĠÐ²Ð»Ð°ÑģÑĤÐ¸":4927,"ĠÑģÑĢÐµÐ´ÑģÑĤÐ²Ð¾":4928,"ĠÑģÐ²Ð¸Ð´ÐµÑĤÐµÐ»ÑĮ":4929,"ÑĪÐ¸":4930,"ĠÐ¾ÐºÑĤÑı":4931,"ĠÐ½Ð°Ð»Ð¸ÑĩÐ¸Ð¸":4932,"ĠÐ¿Ð¾ÑĤÐ¾Ð»":4933,"ĠÐ½Ð°Ð¿ÑĢÑıÐ¶":4934,"gani":4935,"ĠÐºÑĢÐ¸":4936,"ĠÐ¿ÑĢÐ¾ÑĨÐµÑģÑģÐµ":4937,"ĠWin":4938,"ÑıÑĤÑĮÑģÑı":4939,"ĠSt":4940,"Ð°ÑĢÑĮ":4941,"ĠÑĤÑĭÑģ":4942,"ĠÑĥÐºÑĢÐ°Ð¸Ð":4943,"±ÑĥÐ´ÑĮ":4944,"ĠÑĤÑĥÑĢÐ":4945,"ĠÐ¢Ð¾":4946,"ĠÐ¸Ð½ÑĦÐ¾ÑĢÐ¼Ð°ÑĨÐ¸Ñı":4947,"ĠÐ²Ð°ÑĪÐµÐ¹":4948,"Ġdy":4949,"prze":4950,"Ð¾Ð³Ð»Ð°Ñģ":4951,"ĠÑģÑĤÑĢÐµÐ¼":4952,"ĠÐ¸ÑģÑģÐ»ÐµÐ´Ð¾Ð²Ð°Ð½Ð¸Ñı":4953,"rÄħ":4954,"ĠÐ¼Ð¾Ð½ÑĤ":4955,"ĠÑĤÐ°ÐºÐ°Ñı":4956,"ĠÑģÑĤÐ°ÑĤÑĮÐµ":4957,"ĠÐ´Ð¾Ð¼Ðµ":4958,"ĠÑģÐ¸ÑģÑĤÐµÐ¼Ñĥ":4959,"Ð°Ð½Ð¸ÑĩÐµÑģÐº":4960,"¸ÑĨÐµ":4961,"ĠÐ·Ð°Ð´Ð°Ñĩ":4962,"ĠÐ¿ÑĢÐ¾Ð³ÑĢÐ°Ð¼Ð¼":4963,"ĠÑĢÐ°ÑģÑĪÐ¸ÑĢ":4964,"ĠÐ´ÐµÑģÑı":4965,"Ġspe":4966,"Ð¾Ð¶Ð°Ð»":4967,"czenie":4968,"¾ÑĤÑĭ":4969,"Ð°Ð·Ðµ":4970,"tni":4971,"ÑĤÐ¾Ðº":4972,"Ġele":4973,"ĠÐ·Ð´Ð¾ÑĢÐ¾Ð²ÑĮÑı":4974,"Ð¸ÑĤÐµÐ»ÑĮÐ½Ð¾Ð¹":4975,"Ð¸ÑĤÐµÐ»ÑĮÑģÑĤÐ²Ð°":4976,"ÑĤÐ¸Ð»Ð°":4977,"ĠÐ²Ð¸Ð´Ð¾Ð²":4978,"gle":4979,"ĠÐ²Ð½ÐµÑģ":4980,"Ġ28":4981,"ÑĳÐ»":4982,"ĠÐ¼ÐµÑģÑıÑĨÐ°":4983,"ÐµÐ²ÑĭÐµ":4984,"unk":4985,"ĠÐ¾Ð²Ð¾Ñī":4986,"ĠÑģÑĤÐ°Ð½":4987,"ĠÐ³Ð»Ð°Ð·Ð°":4988,"Ð½Ð°Ñģ":4989,"īÐ":4990,"hi":4991,"ĠÐ´ÐµÑĪ":4992,"ÑģÐºÐ°":4993,"ĠÐºÑĢÐµÑģ":4994,"ÐºÐ¾Ð¿":4995,"Ð¸ÑĤÐ°Ð¹":4996,"ĠÑĤÐ¾ÑĢÐ³Ð¾Ð²":4997,"Ð»Ð°Ð¶Ð´":4998,"ÐµÐºÐ¾":4999,"ĠÐ²ÑĭÐ¿ÑĥÑģÐº":5000,"ÑĤÐ¾ÑĢÐ¸Ñı":5001,"ĠÐ±Ð¸Ð·Ð½ÐµÑģÐ°":5002,"ÐµÐ²Ð¸Ð´":5003,"ĠÐ¿Ð¾ÑĤÐµÐ½Ñ":5004,"Ð¾Ð»ÑıÑ":5005,"ĠÐ½ÐµÐ¿ÑĢÐ¸Ñı":5006,"ĠÐ¿Ð¾Ð´ÑħÐ¾Ð´Ð¸ÑĤ":5007,"ĠÐļÐ°Ð¶Ð´":5008,"ĠÑĢÐ°Ð·Ð²Ð¸ÑĤÐ¸Ðµ":5009,"Ġtu":5010,"ĠÑĢÐµÐ¶Ð¸Ð¼":5011,"ĠÑģÐµÑĤ":5012,"ĠÐ½Ð¸Ð¼Ð¸":5013,"ĠÐŀÑĩÐµÐ½ÑĮ":5014,"ĠÐ²ÐµÐ»Ð¸Ðº":5015,"ĠÐ¿Ð¾Ð±ÐµÐ´":5016,"ĠÐ»Ð¾Ðº":5017,"ÐµÑİ":5018,"ÐµÑħÐ":5019,"Ð°ÑĪÐ°":5020,"Ð°ÑĤÐµÐ»ÐµÐ¼":5021,"ÑĢÐµÐ³":5022,"Ð°ÑĪÐ¸":5023,"ĠÑģÐµÑĢÐ²Ð¸Ñģ":5024,"ĠÑĢÐ¾Ð»ÑĮ":5025,"µÑģÑĮ":5026,"ÑĤÑıÑħ":5027,"Ð¾Ð²Ðµ":5028,"ĠÐŀÐ±Ñī":5029,"Ġzw":5030,"ory":5031,"ĠÑģÐºÐ»Ð°Ð´":5032,"ĠÐ³Ð¾ÑĢÐ¾Ð´Ðµ":5033,"ÑĢÐ¾Ð²Ð":5034,"ĠÐ´ÐµÐ»Ð°ÐµÑĤ":5035,"ĠÐ¸Ð½Ð¾ÑģÑĤ":5036,"ĠÐºÐ¸ÑĪ":5037,"Ð»Ð°ÑģÑģ":5038,"Ġkil":5039,"13":5040,"Ð¸Ð·Ð¼":5041,"ĠÑĢÐ¾Ð¼":5042,"ÐµÐµÐ²":5043,"tel":5044,"ĠÐ¿ÑĢÐ¾Ð´ÑĥÐºÑĤÐ¾Ð²":5045,"ÐºÐ¾ÑĢÐµÐµ":5046,"ĠÐ²Ð·Ð³Ð»ÑıÐ´":5047,"ĠÐºÐ°Ð½Ð°Ð»":5048,"ĠÑĢÑĥÑĩ":5049,"Ġspos":5050,"Ð¾ÑĢÐ´":5051,"³Ñĥ":5052,"kÅĤad":5053,"ĠÐĴÐµÐ»":5054,"ÑĥÑģÐºÐ°":5055,"ĠÐ¿ÑĢÐµÑģÑĤÑĥÐ¿":5056,"Ð¸Ð²Ð¾":5057,"%.":5058,"ĠÑĢÐ°ÑģÑĤÐ²Ð¾ÑĢ":5059,"ĠÐ¿Ð°ÑĢÐ°Ð¼":5060,"Ð¾Ð½ÑģÑĤ":5061,"ÑĥÑģÐ¾Ð²":5062,"Ð¾Ð´Ð½ÑĭÐµ":5063,"ĠÐºÐ°ÑĩÐµÑģÑĤÐ²Ð¾":5064,"dzia":5065,"ĠÑģÐ»Ð¾Ð²Ð°Ð¼":5066,"ÑĢÐ°ÑģÑ":5067,"ard":5068,"ĠÐ¾ÑĤÐ²Ð":5069,"Ġ26":5070,"Ġsamo":5071,"ĠÑĢÐ°Ð·Ð½ÑĭÐµ":5072,"Ð¢Ðŀ":5073,"ĠÐ±Ð¾Ð»ÐµÐ·Ð½Ð¸":5074,"ĠÐ²Ð·ÑıÑĤÑĮ":5075,"ĠÐ¢Ð¾Ð»ÑĮÐºÐ¾":5076,"ĠÑģÐ¾Ð¿ÑĢÐ¾Ð²":5077,"ÑıÑīÐ¸Ñħ":5078,"ÑĢÐ°ÑģÑĤ":5079,"ĠÐ¼Ð°ÑģÐ»Ð¾":5080,"ĠÐŁÑĢÐ¾Ð²":5081,"ÑĢÐ°ÑİÑĤ":5082,"ĠÐ´ÐµÑĢÐµÐ²Ð":5083,"ĠÐŁÐ¾ÑĩÐµÐ¼Ñĥ":5084,"Ð°Ð»ÑĮÐ½ÑĥÑİ":5085,"Ð²Ð°Ð»":5086,"ÑĢÐ¸Ðº":5087,"ĠÐŃÑĤÐ°":5088,"ĠÐ¿Ð¸ÑĪ":5089,"dows":5090,"ĠLe":5091,"Ð¸Ð·Ð¸":5092,"ĠÑģÑĥÑģÑĤÐ°Ð²":5093,"ÑĩÐ¸ÐºÐ¾Ð²":5094,"ĠÐ½Ð°ÑĪÐµÐ³Ð¾":5095,"24":5096,"ÑĬÐµÐ¼":5097,"ĠÐ²ÐµÐ½":5098,"ĠÐ¿ÑĢÐ¾ÑĪÐ»":5099,"ĠÐ°Ð¼ÐµÑĢÐ¸ÐºÐ°Ð½":5100,"ĠÐ´ÑĢ":5101,"ĠÑģÐ¾ÑģÑĤÐ¾ÑıÐ½Ð¸Ð¸":5102,"ha":5103,"ĠÑģÐµÐ¼ÑĮÐ¸":5104,"ĠÐ½Ð°ÑĩÐ°Ð»":5105,"Ð¾Ð½ÐµÑĨ":5106,"ĠÐºÐ¾Ð´":5107,"ĠÐ¿ÑĢÐ¸ÑĢÐ¾Ð´":5108,"ĠÐ¿ÑĢÐ¾ÑıÐ²":5109,"ĠÐ°ÐºÑĤÑĥ":5110,"ĠÂ»":5111,"ÑĥÑģÐ°":5112,"ĠÐºÑĥÐ´Ð°":5113,"ss":5114,"ĠÐ£Ð´":5115,"ÑĭÐ²Ð°ÑİÑĤÑģÑı":5116,"ÑĢÐ°Ð¸Ð²":5117,"ÐłÐĲ":5118,"Ð¾ÑĩÐ½ÑĭÐµ":5119,"ĠÑģÐ¿ÐµÑĨ":5120,"ĠÐ½Ð°ÑĤÑĥÑĢÐ°Ð»ÑĮ":5121,"ĠÐ¿ÑĢÐ¸Ð¼ÐµÐ½ÐµÐ½Ð¸Ñı":5122,"iÄĻki":5123,"ĠÐ·Ð°ÑīÐ¸Ñī":5124,"Ð½ÐµÐ½Ð¸Ð¹":5125,"ĠÑĢÐ°ÑģÑģÑĩÐ¸ÑĤ":5126,"Ð²Ð¸Ð´":5127,"ĠÑĥÐ¿ÑĢÐ°Ð¶":5128,"Ġy":5129,"rem":5130,"lep":5131,"ĠÐ²Ð»Ð°Ð´ÐµÐ»ÑĮ":5132,"ĠÑĥÑĢÐ¾Ð²Ð½Ðµ":5133,"ĠÑĢÐ°Ð·ÑĢÐ°Ð±Ð¾ÑĤÐ":5134,"ĠÐ¿Ð°Ð½ÐµÐ":5135,"ĠÐºÐ²Ð°ÑĢÑĤÐ¸ÑĢÑĭ":5136,"ĠÐ´ÐµÑĤÐ¸":5137,"ĠÑĢÐ°ÑģÑģÐ¼Ð°ÑĤÑĢ":5138,"Ð¾Ð±ÑĭÑĩ":5139,"maga":5140,"ĠÑģÐ¾ÑĩÐµÑĤ":5141,"Ð¸ÑĤÐµÐ»ÑĮÐ½Ð¾Ðµ":5142,"ĠÐ¿ÑĢÐµÐ´Ð²Ð°ÑĢÐ¸ÑĤÐµÐ»ÑĮ":5143,"per":5144,"Ð¸ÑĤÐ¾Ð²":5145,"ĠÐ½ÐµÐº":5146,"ĠÐ°Ð²ÑĤÐ¾Ð¼Ð°ÑĤÑĭ":5147,"ÑĢÐ¾ÑĪ":5148,"ĠÑĥÑģÑĤÑĢÐ¾Ð¹ÑģÑĤÐ²Ð°":5149,"Ð¸ÑĩÐ":5150,"ĠÐ³ÑĢÑĥÐ":5151,"nikÃ³w":5152,"bli":5153,"ĠÑĤÐ°ÐºÐ¾Ð¼":5154,"ĠÐ·Ð°Ð¼ÐµÑĩ":5155,"ĠÐĽÑĥÑĩ":5156,"Ð»ÑıÑİÑĤÑģÑı":5157,"ĠÐ°Ð½ÑĤÐ¸Ð":5158,"ĠÐºÐ¾Ð¼Ð°Ð½Ð":5159,"ĠÐ¡ÐµÐ¹ÑĩÐ°Ñģ":5160,"Ġwp":5161,"Ð½Ð¸ÐºÐ¾Ð¼":5162,"ĠÑģÐ°Ð¼Ð¾Ð¹":5163,"ÑĨÐ¸Ð¾Ð½Ð":5164,"Ð¸Ð³Ð¸":5165,"Ð¾Ð±Ð":5166,"Ð¾ÑĤÐ½Ð":5167,"ĠÐ½ÐµÐ¿Ð¾ÑģÑĢÐµÐ´":5168,"ĠÑħÐ¸Ð¼":5169,"ÐµÐ½ÐµÐ¼":5170,".)":5171,"ĠÐ¼Ð¾Ð´ÐµÐ»ÑĮ":5172,"ĠÐ§ÐµÐ¼":5173,"ĠÐ»Ð¸Ð¼":5174,"ĠÑģÐ»ÑĥÐ¶Ð±Ñĭ":5175,"ĠÐ²Ð¾ÐºÑĢÑĥÐ³":5176,"ĠÑģÑĩÐ¸ÑĤÐ°ÐµÑĤÑģÑı":5177,"wet":5178,"ĠÐĳÐµÐ·":5179,"Ð½Ð¾Ð¶":5180,"ĠÐ¼Ð°Ñı":5181,"Ġjej":5182,"dzÄħ":5183,"ĠÐ´Ð¾Ð¼Ð°ÑĪÐ½Ð¸Ñħ":5184,"ĠÑģÐ¸Ð³":5185,"ĠÐ²Ð¾Ð»Ð¾ÑģÑĭ":5186,"ÑĥÑģÑĤÑĮ":5187,"23":5188,"½Ð¾Ð´":5189,"ÑĤÐ¸Ð²Ð½Ð¾":5190,"ĠÐĺÑħ":5191,"Ð¸ÑĤÐµÐ»ÑĮÐ½Ð¾Ð³Ð¾":5192,"ÐµÐ²ÐµÑĢÐ":5193,"Ð»Ð¸Ð½Ð":5194,"stem":5195,"ĠÐ·Ð½Ð°ÑĩÐ¸ÑĤÐµÐ»ÑĮÐ½Ð¾":5196,"gie":5197,"ĠÐ¾Ð±ÑĢÐ°Ð·Ð¾Ð²":5198,"ĠÑĥÑĪ":5199,"ÐµÐ´Ð¾Ð¼":5200,"ht":5201,"ĠÐ¼ÐµÑĩ":5202,"ĠÐľÐ¸Ð½Ð":5203,"Ġten":5204,"Ġraz":5205,"Ð»ÐµÑĢÐ³":5206,"Ð°Ð¸Ð½":5207,"Ð½Ð¸Ð±ÑĥÐ´ÑĮ":5208,"ĠÐ²ÐµÐ±":5209,"ÑĭÐ²Ð°Ð½Ð¸Ñı":5210,"Ð»Ñĥ":5211,"ĠÐ´Ð¾Ð»Ð³Ð¾":5212,"Ġrze":5213,"ĠÐ¾ÑĤÐºÐ°Ð·":5214,"dziaÅĤ":5215,"Ġ2021":5216,"ĠWi":5217,"ĠÐºÐ¾ÑĢÐ¼":5218,"ĠÑĢÐ°Ð·Ð±":5219,"ĠÑģÐ¸Ð»Ñĥ":5220,"ĠÐĳÑĭ":5221,"ĠÐĴÐµÐ´ÑĮ":5222,"ÐµÐ²ÑĭÑħ":5223,"czo":5224,"ĠÐ¼Ð°ÑģÐ»Ð°":5225,"Ġprac":5226,"ĠÑģÐ¾Ð³Ð»Ð°ÑĪ":5227,"ĠÑĥÐºÑĢÐ°ÑĪ":5228,"ĠÑĩÐµÐ»Ð¾Ð²ÐµÑ":5229,"ĠÐ»ÑİÐ±Ð¾Ð¼":5230,"ĠÐ´Ð°Ð²Ð½Ð¾":5231,"ĠÐ´Ð¾Ð³Ð¾Ð²Ð¾ÑĢÐ°":5232,"Ð¾Ð´Ð¸":5233,"....":5234,"ĠÐ¿ÐµÑĢÐ²Ð¾Ð³Ð¾":5235,"ĠÐ¿Ð¾Ð¼Ð¾ÑĩÑĮ":5236,"ĠÐ¿ÐµÑĢÐ²Ð¾Ð¹":5237,"ĠÐ¿Ð¾Ð´Ñģ":5238,"ĠÑĥÑģÑĤÐ°Ð½Ð¾Ð²Ð¸ÑĤÑĮ":5239,"ĠÐ¾ÑĤÐºÑĢÑĭÑ":5240,"ĠÐ¾ÑĤÐºÑĢÑĭÑĤ":5241,"Ð¾Ð´Ð½ÑĭÑħ":5242,"ĠÑģÑĤÑĢÐ°Ð½Ðµ":5243,"Ð¸Ð½ÐµÐ½Ð¸Ñı":5244,"ĠÐ¿ÑĢÐµÐ´Ð¿ÑĢÐ¸ÑıÑĤÐ¸Ñı":5245,"ÐµÐ½Ð¸Ð²":5246,"ĠÑĥÐ·Ð½Ð°Ð":5247,"waÄĩ":5248,"ÑĨÐµ":5249,"ĠÐľÐ¸Ð½":5250,"Ð°Ð²Ð½Ð¾":5251,"ĠÑģÐ¼ÐµÑĪ":5252,"ĠÑģÐ°Ð¼Ð¾":5253,"ÑģÐ¸Ñİ":5254,"ĠÐ¼ÐµÑĢÐµ":5255,"ĠÐ¿ÑĢÐ¾ÐµÐºÑĤ":5256,"Ð¾Ð¹ÐºÐ¸":5257,"ĠktÃ³ra":5258,"ĠÐ»ÐµÐºÐ°ÑĢÑģÑĤÐ²":5259,"ÑıÑģÐ":5260,"ĠÐºÐ°Ð´":5261,"ÐµÐ½Ð½Ð¾Ð¼Ñĥ":5262,"Ð¸Ð²Ð°":5263,"ĠÐ²Ð¾Ð´Ñĥ":5264,"ĠÐ¼ÐµÑħÐ°Ð½Ð¸Ð·":5265,"ĠÐ¡Ð¼":5266,"ĠÑĢÐ°ÑģÑģÐºÐ°Ð·":5267,"ĠÐ°Ð±ÑģÐ¾Ð»Ñİ":5268,"leÅ¼y":5269,"Ð²ÐµÑĢÐµÐ":5270,"ÑĢÐµÐ³Ð¸ÑģÑĤÑĢÐ¸ÑĢÐ¾Ð²":5271,"nku":5272,"ĠÑĪÐ°Ð³":5273,"ĠÑģÐ²ÐµÑĤÐ":5274,"va":5275,"vi":5276,"Ġpor":5277,"Ð¸Ð·Ð¸ÑĢÐ¾Ð²":5278,"ĠÐ·Ð°Ð´ÐµÑĢÐ¶":5279,"Ð°Ð½Ð½ÑĥÑİ":5280,"Ġinter":5281,"ĠÐ½Ð°Ð»Ð¾Ð³":5282,"ĠÐ·Ð°ÑīÐ¸ÑĤÑĭ":5283,"âĤ¬":5284,"ÑĩÐ°ÑĤ":5285,"sk":5286,"ĠWar":5287,"ĠÐ¿ÑĢÐ¸Ð¼ÐµÐ½Ñı":5288,"ĠÐ¾ÑĢÐ³Ð°Ð½Ð¸Ð·Ð¼":5289,"ÑĢÐ¸Ð½":5290,"ĠÐ·Ð½Ð°ÑĩÐµÐ½Ð¸Ðµ":5291,"ĠÅ¼":5292,"Ð°Ð»ÐµÐµ":5293,"ĠÑĢÐ°ÑģÑĤÐµÐ½Ð¸Ñı":5294,"ĠÑĩÑ":5295,"ĠÑĤÑī":5296,"ĠÑĩÑĤ":5297,"Ð»ÐµÐ½Ð½ÑĭÑħ":5298,"ĠÐ²Ð¸Ð´Ñĭ":5299,"ĠÑĦÐµÐ²":5300,"ĠÐ¿Ð¾ÑģÐ°Ð´":5301,"ĠÐ¸Ð½Ð²ÐµÑģÑĤÐ¸Ñ":5302,"Ð°Ð¹ÑĤÐµÑģÑĮ":5303,"Ġ2015":5304,"ĠÑĪÐ":5305,"ĠÐ°Ð²Ð³":5306,"ĠÐŀÑĤÐº":5307,"ĠÐĺÐ²":5308,"Ġru":5309,"ĠÐ¿Ð¾Ð¿ÑĥÐ»ÑıÑĢ":5310,"ĠÑģÐ¸Ð½":5311,"ĠÑĢÐ¾Ð¶Ð´ÐµÐ½Ð¸Ñı":5312,"Ð°ÑİÑīÐ°Ñı":5313,"ºÐ°Ð¼Ð¸":5314,"ĠÐ»Ð¸ÑĨÐ¾":5315,"ÑĥÑĤÐµÑĪ":5316,"»Ð¾":5317,"Ġpraw":5318,"ĠÐºÐ°Ð¶Ð´Ð¾Ð¹":5319,"ĠÐ·Ð°ÑģÑĤÐ°Ð²":5320,"Ġgdy":5321,"Ð°Ñį":5322,"ĠÐºÐ¾Ð¼Ð¸Ñģ":5323,"ĠÐ±Ð°Ð½ÐºÐ¾Ð²":5324,"ĠÐľÐ½Ð¾Ð³Ð¸Ðµ":5325,"ĠÐ±ÐµÑĤ":5326,"ĠÐ¿ÑĢÐ¾Ð´ÑĥÐºÑĤÑĭ":5327,"stra":5328,"Ð¾Ð½Ð°Ð´Ð¾Ð±":5329,"ĠÐŁÐ¾Ð»ÑĥÑĩ":5330,"ĠÑħÑĥÐ´Ð¾Ð¶":5331,"ĠÅļ":5332,"ĠÐ²Ð¾Ð·Ð²ÑĢÐ°Ñī":5333,"ĠÑģÐ¸ÑĤÑĥÐ°ÑĨÐ¸Ñı":5334,"ĠÐ¶ÐµÑģ":5335,"staw":5336,"ĠÐ¼Ð¾ÐµÐ":5337,"ÑĪÑĥÑİ":5338,"Ð¶Ð¸":5339,"))":5340,"ÑĢÑĥÐµÐ¼":5341,"ĠÐ²Ð¸Ð´Ð°":5342,"ĠÐ¿Ð¾ÑģÐµÑī":5343,"onal":5344,"lar":5345,"ĠÐ¾Ð±ÑĢÐ°ÑĤÐ¸ÑĤÑĮÑģÑı":5346,"waÅ¼":5347,"ĠÐ¿ÐµÐ´":5348,"Ġ500":5349,"czyÄĩ":5350,"ĠÑĩÐ¸ÑģÑĤ":5351,"ĠÐ¿ÑĢÐ¾Ð´ÑĥÐºÑĨÐ¸Ð¸":5352,"Ð¾ÑģÑĤÐ¾Ð²":5353,"Ð¾ÑĢÐ¼Ð°":5354,"ĠÑģÐ»ÑĥÑĩÐ°ÐµÐ²":5355,"ĠÐŁÐ¾Ð²":5356,"dÅº":5357,"Ġdru":5358,"Ð½ÐµÑĩ":5359,"ĠÐ´Ð¾Ð»Ð»Ð°ÑĢÐ¾Ð²":5360,"Ð´Ñĭ":5361,"ĠÑģÑĤÐ¾ÑĢÐ¾Ð½Ñĥ":5362,"ĠÐĴÐ¾Ð·":5363,"ĠmogÄħ":5364,"Ð«":5365,"ÑģÑĤÐ°Ð½":5366,"ĠÐºÐ°ÐºÐ¸Ñħ":5367,"ĠÑĩÐ°ÑģÐ":5368,"ĠÐ¿ÑĢÐµÐ¶Ð´Ðµ":5369,"ĠÐ¸ÑģÐ¿Ð¾Ð»ÑĮÐ·Ð¾Ð²Ð°Ð½Ð¸Ðµ":5370,"¾ÑĤÐ½Ð":5371,"Ġnad":5372,"ĠÐ½Ð°ÑģÑĤÑĥÐ¿":5373,"ĠÐ²ÑĭÑıÐ²":5374,"ĠÐĲÐ":5375,"Ð¾Ð´Ð½ÑĭÐ¹":5376,"Ð»Ð¸Ð²Ð":5377,"ĠÐºÐ¾Ð¼Ð¼Ñĥ":5378,"ĠÐ²ÑĢÐ°ÑĩÐ":5379,"ĠÐ¿ÑĢÐ¸Ð½Ð¸Ð¼Ð°ÑĤÑĮ":5380,"ÑĥÑĪÐºÐ°":5381,"ÑĢÐµÑģÑĤÐ¸":5382,"ĠÐ¾Ð´ÐµÐ¶Ð´":5383,"ĠÑĦÐ¸Ð³":5384,"ĠÐļÑĥÐ¿":5385,"Ġspraw":5386,"ĠÐºÐ¾Ð¼Ð¼ÐµÐ½ÑĤÐ°":5387,"ĠÐ¿ÑĢÐ°Ð²Ð¸Ð»Ð°":5388,"ĠÐ¼ÐµÑģÑĤ":5389,"ĠÑĢÐµÐ²":5390,"Ð¼ÐµÐºÐ":5391,"ĠÐ½Ð¾Ð¼ÐµÑĢ":5392,"ÐºÐ¾Ð½":5393,"ÑĢÐ½ÑĭÑħ":5394,"ĠÐ¿ÑĢÐµÑģÑģ":5395,"ĠÐ¿Ð°ÑĢÐ":5396,"ÑĢÐ½ÑĭÐµ":5397,"ĠÑĩÐ°ÑģÐ°":5398,"ĠÑĥÐ²ÐµÑĢ":5399,"Ġkie":5400,"Ð°ÑĤÐ":5401,"ĠÑĨÐµÐ»Ð¾Ð¼":5402,"ÑĬÐµÐº":5403,"ĠÑģÐ¾Ð¾ÑĤÐ²ÐµÑĤÑģÑĤÐ²ÑĥÑİÑī":5404,"ÑĤÐ»Ð¸Ð²":5405,"ÑĤÐ¸Ð»Ðµ":5406,"ĠÐ±Ð¾Ðº":5407,"ĠÐ³ÑĢÐ°Ð´":5408,"ĠÐ´ÐµÐ²ÑĥÑĪÐºÐ¸":5409,"ĠÐ·Ð°Ð¿ÑĢÐ¾Ñģ":5410,"ĠÐ´Ð°Ð½Ð½Ð¾Ð³Ð¾":5411,"ĠÑįÐºÑģÑĤ":5412,"tal":5413,"ĠÐ¿ÑĢÐ¾Ð´ÑĥÐºÑ":5414,"ĠÑģÑĤÑĢÐ°ÑĤ":5415,"Ġ29":5416,"ĠÐºÑĢÐµÐ¼":5417,"Ġtej":5418,"ĠÑĩÐµÑĤÐ²":5419,"Ð¸Ð½Ð°Ð´Ð»ÐµÐ¶":5420,"ĠÐºÐ¾Ð¼Ð¿Ð¾Ð½ÐµÐ½":5421,"ĠÐºÐ°ÑģÐ°ÐµÑĤÑģÑı":5422,"Ð½ÐµÑĤÐµ":5423,"Ġpomo":5424,"skich":5425,"ĠÐĳÐ»":5426,"ĠÐ¾Ð±ÑĬÐµÐ´":5427,"ÑĢÐ¸Ñĩ":5428,"ĠÑģÑĤÐµÐ½":5429,"½ÑĥÑĤÑĮÑģÑı":5430,"ĠÐ·ÐµÑĢÐº":5431,"ĠÐ½ÐµÐ´ÐµÐ»Ð¸":5432,"ĠÐļÐ¾ÑĢ":5433,"ĠÐ¾ÑĩÐ¸Ñģ":5434,"ĠÐ¶ÐµÐ½ÑīÐ¸Ð½Ð°":5435,"ĠÑĥÐ³Ð¾Ð»":5436,"czu":5437,"ÑĤÐ¾Ñģ":5438,"ĠÐ¿ÑĥÑĤÐ¸":5439,"ĠÐ½Ð°ÑĨÐ¸Ð¾Ð½Ð°Ð»ÑĮ":5440,"ĠÐ¼Ð½Ð¾Ð³Ð":5441,"ÑĤÐ¸ÐºÐ¾Ð²":5442,"ĠÐ²Ð¸ÑĢÑĥ":5443,"Ð°Ð½Ð³":5444,"ĠÑģÐ±Ð¾ÑĢ":5445,"ino":5446,"ĠÐ¿Ð°ÑģÐ¿":5447,"ÐļÐŀ":5448,"ĠÐ¸ÑģÐ¿Ð¾Ð»Ð½ÐµÐ½Ð":5449,"ĠÐ¿ÑĢÐµÐ¼":5450,"ĠÐ¿Ð¾Ð¶Ð°Ð»":5451,"ÑĥÑĤÐµÑĪÐµÑģÑĤÐ²":5452,"ĠÐ¸Ñī":5453,"Ð¾Ð½Ð¸Ð¸":5454,"Ġ...":5455,"owany":5456,"ĠÐ²Ð¾Ð·Ð´ÐµÐ¹ÑģÑĤÐ²":5457,"ĠÐ¶ÑĥÑĢÐ½Ð°Ð»":5458,"trzyma":5459,"ĠÐ¾Ð´Ð½Ð¾Ð²":5460,"ÑĤÐ°ÑĤÑĮÑģÑı":5461,"ĠÑįÐºÐ·":5462,"ĠÐ»ÑİÐ±Ð¾Ð³Ð¾":5463,"ĠÐ¾ÑĤÐ²Ðµ":5464,"ĠÐ»Ð¸ÑģÑĤÑĮ":5465,"ĠÐ¿Ð¾Ð¿ÑĢÐ¾Ð±":5466,"ĠÐ¿ÑĢÐ¾Ð¼ÑĭÑĪÐ»":5467,"Ð¸ÑĩÐµÑģÐºÐ¾Ðµ":5468,"Ġinforma":5469,"ĠÐºÑĢÐ¾Ð¼Ðµ":5470,"ĠÐ¸Ð½ÑĦÐµÐº":5471,"ĠÐĲÐ·":5472,"ÑĩÐ¸ÐºÐ¸":5473,"ĠÐ¾Ð·Ð½Ð°ÑĩÐ°ÐµÑĤ":5474,"ĠDe":5475,"Ġ80":5476,"ĠÐĿÐ°Ñĩ":5477,"Ð¾Ð½Ñı":5478,"ĠÐŁÐ¾Ð¿":5479,"ĠÑĦÐ¸Ðº":5480,"ĠÐ¿ÑĢÐµÐ´Ð»Ð°Ð³Ð°ÐµÑĤ":5481,"ĠÑĢÐ°Ð½ÑĮ":5482,"ÑĢÐ¸ÑĦ":5483,"ÑĢÐµÐ»Ñı":5484,"Ð½Ð¸ÐºÐµ":5485,"ĠÑĤÐ¾ÑĩÐºÐ¸":5486,"ĠÑĤÐ¾Ð²Ð°":5487,"µÑģÑ":5488,"ĠÐ½Ð¾Ð¶":5489,"ÐµÑĩÐ°":5490,"ĠÐŀÐŀ":5491,"Ð¾Ð³Ð¸Ñĩ":5492,"ĠÑģÐ¾ÑģÑĤÐ¾ÑıÐ½Ð¸Ñı":5493,"ĠÑĢÐ°Ð½ÑĮÑĪÐµ":5494,"Ð°ÐµÑĪÑĮ":5495,"ÑĤÐ¸Ð²Ð":5496,"ĠÑĢÑĥÐº":5497,"ĠÐ¿Ð¾Ð½Ð°Ð´Ð¾Ð±":5498,"Ð´Ð°Ñı":5499,"ĠÐ¿ÑĢÐµÐ´Ð¿Ð¾Ð»Ð°Ð³":5500,"ĠÐ½ÐµÐ²Ð¾Ð·Ð¼Ð¾Ð¶Ð½Ð¾":5501,"ĠÑģÐ¾Ð¿ÑĢÐ¾Ð²Ð¾Ð¶Ð´":5502,"ĠÐ½Ð°ÑĩÐ°ÑĤÑĮ":5503,"ÐµÐ½ÑĨ":5504,"Ð°ÑĢÐº":5505,"Ġim":5506,"Ð°Ð½ÐºÐ°":5507,"ĠMar":5508,"rÃ³d":5509,"Ġmar":5510,"ĠÐºÐ¾ÑĢÐ¾ÑĤÐº":5511,"ÑĥÐºÐ°":5512,"owia":5513,"ÑĢÐ¸ÑĨ":5514,"ĠÐ¾ÑģÐ¾Ð±ÐµÐ½Ð½Ð¾ÑģÑĤÐ¸":5515,"ĠÐ¿ÑĢÐ¸Ð½Ð°Ð´Ð»ÐµÐ¶":5516,"ĠÑģÑĤÐ°Ð´":5517,"wania":5518,"Ġgru":5519,"Ð¸Ð·Ð°ÑĨÐ¸Ñı":5520,"ĠÐ²Ð°Ðº":5521,"ÐµÑĩÐ°ÑĤÐ»":5522,"ĠSz":5523,"Ð½ÑĮ":5524,"ĠÐ´ÐµÐ¹ÑģÑĤÐ²Ð¸Ð¹":5525,"µÑģÑĤ":5526,"ĠÐ¼Ð°ÑĪÐ¸Ð½Ñĭ":5527,"ÑİÑģ":5528,"ĠÐ¸ÑģÑĩ":5529,"ĠÐ²Ð¸Ð½":5530,"ĠÐ¿Ð¾Ð·Ð²Ð¾Ð»Ð¸ÑĤ":5531,"Ġlat":5532,"Ð»Ð°ÑĤÐ°":5533,"ĠÐĴÐ»Ð°Ð´Ð¸Ð¼Ð":5534,"ĠÐ½ÐµÐ´ÐµÐ»Ñİ":5535,"ĠÐ¿ÑĢÐ¾ÑıÐ²Ð»Ñı":5536,"ÑĥÑģÑĤÐ°":5537,"Ð¾ÑĩÐ½ÑĭÑħ":5538,"ÑĢÐ½Ð¾":5539,"ĠÐ²Ð¾Ð·Ð´ÑĥÑħÐ°":5540,"ĠÐ´ÑĥÑĪÐ":5541,"Ð¸ÐºÐ":5542,"ĠÐ¾ÑĤÐ½Ð¾ÑĪÐµÐ½Ð¸Ð¸":5543,"ĠÑģÑĤÐµÐ¿ÐµÐ½Ð¸":5544,"ĠÐ¿ÑĢÐ¾ÑĤÑıÐ¶":5545,"kiej":5546,"ĠÐ±Ð¾Ð»ÑĮÑĪÐ¾Ðµ":5547,"ĠÑĩÐ°Ð¹":5548,"ĠÑıÐ½Ð²Ð°ÑĢÑı":5549,"ĠÐ¿Ð¾Ð´ÑĢÐ°Ð·":5550,"Ð¸Ð·Ð¼Ð°":5551,"ÐµÑĢÐµÐ¶":5552,"ÑĥÑĦ":5553,"ĠÑĨÐµÐ»ÑĮÑİ":5554,"ĠÐ²ÐºÐ»Ð°Ð´":5555,"liÅĽmy":5556,"ĠÐ°ÑĢÐ¼":5557,"°ÑĤÑĥ":5558,"ĠÑĥÑģÑĤÐ°Ð½Ð¾Ð²ÐºÐ¸":5559,"ĠÐ¿ÑĢÐµÐ´ÐµÐ»":5560,"ĠÐ´ÐµÑĢÐµÐ²ÑıÐ½Ð":5561,"ĠÐ½Ð°ÑĩÐ°Ð»Ðµ":5562,"ÑĭÐ±":5563,"mÃ³w":5564,"ĠÐ¿ÑĢÐ¾Ð²ÐµÑģÑĤÐ¸":5565,"³Ð»Ð¸Ð¹":5566,"ĠÐ²Ð°ÑĪÐ¸":5567,"ĠÐļÐ¾Ð½ÐµÑĩÐ½Ð¾":5568,"ĠÑĤÐ¾Ð²Ð°ÑĢÐ¾Ð²":5569,"77":5570,"ĠÐ±Ð»Ð¾Ðº":5571,"ĠÐ²Ð¾Ð·Ð±":5572,"ĠÐ´Ð¾ÑģÑĤÐ¸Ð¶":5573,"¸ÐµÐ½":5574,"ÑĭÑģÐ»":5575,"ĠÐ¦ÐµÐ½ÑĤ":5576,"Ð°Ð½Ñĥ":5577,"tnie":5578,"Ġsobie":5579,"Ð¾Ð¸Ð·":5580,"ĠÐ¿Ð»Ð¸":5581,"ĠÑħÐ¾ÑĩÐµÑĤ":5582,"ĠÐ¼Ð°Ð»Ð¾":5583,"ĠÐĿÐµÐºÐ¾ÑĤÐ¾ÑĢ":5584,"Ġ90":5585,"ĠÑģÑĥÐ¼Ð¼Ñĥ":5586,"ĠÐ¿ÐµÑĢÐµÐ³":5587,"İÑīÐ¸Ñħ":5588,"ĠWindows":5589,"ĠÐ²Ð¾Ð·Ð½Ð¸ÐºÐ°ÐµÑĤ":5590,"ĠÐ·ÑĢÐµÐ½Ð¸Ñı":5591,"ÑĥÑĤÑģÑı":5592,"ĠÐ¾Ð±Ð²":5593,"ĠÑĤÐ¾Ð¹":5594,"ÐļÐĲ":5595,"ĠÐ¾ÐºÐ°Ð·":5596,"Ð²Ð¸Ð³":5597,"ÐµÐ½ÑĤÐ°Ð¼Ð¸":5598,"ĠÐľÐ°":5599,"ii":5600,"ĠÐ²Ð¾Ð·ÑĢÐ°ÑģÑĤÐ°":5601,"ĠÑģÐ¿Ð¸ÑģÐ¾Ðº":5602,"ĠÑģÐµÐ»ÑĮ":5603,"ÑģÐºÐ¸Ð¼Ð¸":5604,"ÑĢÐµÐ½ÑĮ":5605,"Ð°Ð»ÑĮÐ½Ð¾Ð¼":5606,"ĠÑĥÐ´Ð¾Ð²Ð¾Ð»ÑĮ":5607,"ĠÐ±ÑİÐ´Ð¶Ðµ":5608,"ĠThe":5609,"ĠÑģÐ¸Ð¼Ð²Ð¾Ð»":5610,"ĠÐ½Ð°ÑģÑĤÐ¾ÑıÑīÐµÐµ":5611,"ĠÐ½ÐµÐ·Ð°Ð²Ð¸Ñģ":5612,"ĠÐ¿Ð¾Ð²ÑĤÐ¾ÑĢ":5613,"kach":5614,"ĠÐ¿ÑĢÐ¾Ð±Ð»ÐµÐ¼Ð°":5615,"Ð¾Ð»ÑĮÑĪÐµ":5616,"ĠÐºÐ»Ð¸ÐµÐ½ÑĤÐ¾Ð²":5617,"ÑĢÐ¾Ð½":5618,"ĠÑĢÐµÐ°Ðº":5619,"ĠÐ¾ÑĤÐ¼ÐµÑĤÐ¸ÑĤÑĮ":5620,"ĠÑĦÐ¸ÑĢÐ¼":5621,"ĠÐ¿Ð¾ÐµÐ·Ð´":5622,"½Ð³":5623,"ĠÐ¾ÑĤÐ·ÑĭÐ²Ñĭ":5624,"ĠÑĤÐºÐ°Ð½Ð¸":5625,"ĠÐºÐ¾Ð½ÑģÑĤÑĢÑĥÐºÑĨÐ¸Ð¸":5626,"ĠÐ´ÐµÐ»Ð°ÑİÑĤ":5627,"ĠÐ¿ÑĢÐµÐ²ÑĭÑĪ":5628,"ĠÐ¡Ð¾Ð³Ð»Ð°Ñģ":5629,"ĠÑħÐ¾Ð´":5630,"ĠÑģÑĤÐ°Ð±":5631,"ĠÑģÑĤÐ¸Ð»ÑĮ":5632,"ĠÐ¿ÑĢÐ¸Ð²Ð¾Ð´Ð¸ÑĤ":5633,"ĠÑģÐ¿Ð¾ÑĢÑĤ":5634,"ĠÐ¸Ð·Ð²":5635,"Ð¾ÑħÐ¾":5636,"Ġ2014":5637,"Ġhttps":5638,"ĠÐ±Ð¾Ð»Ð¸":5639,"½Ðµ":5640,"ĠÐ´Ð°Ð½Ð½ÑĭÐ¼":5641,"ĠÐ¸Ð·Ð´ÐµÐ»Ð¸Ñı":5642,"dÄĻ":5643,"Ð½Ð¸ÐºÑĥ":5644,"ĠÑĢÐµÐ¿":5645,"ĠÐ¿Ð¾Ð¼ÐµÑīÐµÐ½Ð¸Ñı":5646,"ĠÐ¿Ð¾Ð½ÑıÑĤÑĮ":5647,"omo":5648,"ĠÑģÐ¿Ð¾ÐºÐ¾Ð¹":5649,"ĠÐ¼ÑĥÐ·Ñĭ":5650,"ĠÐ¾Ð±Ð¾ÑĢÑĥÐ´Ð¾Ð²Ð°Ð½Ð¸Ñı":5651,"ÐµÐºÐµ":5652,"ĠÐ¿ÑĢÐ¾ÑĨÐµÑģÑģÐ°":5653,"ĠÐĶÐ°Ð¶Ðµ":5654,"ĠÐ¼Ð¾Ð³Ñĥ":5655,"ĠÐºÐ¾Ð¼Ð¿Ð»ÐµÐºÑģ":5656,"ĠÑĢÐµÐ±ÐµÐ½Ð¾Ðº":5657,"ĠÐĿÐµÑĤ":5658,"ĠÐ¿Ð°ÑĢÑĥ":5659,"ĠÑĨÐµÐ½":5660,"ĠÐ¢Ñĭ":5661,"ĠÐĳÐ":5662,"ĠÐ´Ð¶":5663,"µÑı":5664,"ĠÐ¿Ð¾Ð½ÑĢÐ°Ð²":5665,"tyw":5666,"Ð¾Ð´Ð°Ð²":5667,"ĠÑĤÐ¾Ð½Ðº":5668,"ĠzÅĤ":5669,"ÐºÑĥÑİ":5670,"ĠÐ´Ð°Ð½Ð½Ð¾Ð¼":5671,"ĠÐ²ÑģÑĤÑĢÐµÑĩÐ":5672,"ĠÐ´Ð¾Ð±Ð°Ð²Ð¸ÑĤÑĮ":5673,"ĠÐ°Ð½Ð°Ð»Ð¸Ð·":5674,"ĠÐľÐ°Ñģ":5675,"ĠÑĪÑĤÑĥ":5676,"ĠÑĢÐ°Ð²Ð½Ð¾":5677,"ĠJak":5678,"ĠÐ¼Ð°ÐºÑģÐ¸Ð¼Ð°Ð»ÑĮÐ½Ð¾":5679,"and":5680,"Ð¾Ð¸Ñħ":5681,"ĠÐ·Ð°Ð±Ð¾Ð»ÐµÐ²Ð°Ð½Ð¸Ð¹":5682,"ÑĤÐ°ÑĨÐ¸Ñİ":5683,"ĠÐŀÑĤÐ²":5684,"ĠÑĤÑĢÐ°Ð´Ð¸ÑĨÐ¸Ð¾Ð½Ð":5685,"cznej":5686,"nek":5687,"ĠÐ´ÑĢÑĥÐ³Ð°":5688,"fa":5689,"Ð°Ð³Ð°Ð·":5690,"ĠÐ´Ð°Ð»ÐµÐµ":5691,"Ġszy":5692,"Ð¾Ñĳ":5693,"ÑĪÑ":5694,"ĠÐ¾ÑĤÐ±":5695,"ĠÐ¿ÑĢÐµÐ´Ð¼":5696,"ĠÐ¿ÑĢÐ¾Ð³Ð":5697,"ÑıÑīÐ¸Ð¹":5698,"ĠÑħÐ¾ÑĤÐµÐ»":5699,"Ð¸ÑĨÐ¸Ñı":5700,"ĠÐ¿ÑĢÐ¾ÑĦÐ¸Ð»Ð°Ðº":5701,"ĠÐºÐ¾ÑĦ":5702,"ĠÐ¾ÑģÐ½Ð¾Ð²Ð½Ð¾Ð¼":5703,"ÑĪÑĤ":5704,"Ð°Ð»Ñĭ":5705,"ÑĤÐµÑħ":5706,"ĠÐ½ÐµÐ³Ð°":5707,"ĠÐ¼ÑĥÐ¶ÑĩÐ¸Ð½":5708,"ĠÐ¾Ð¿ÑĢÐµÐ´ÐµÐ»Ð¸ÑĤÑĮ":5709,"Ð¾Ð»Ð¾ÑĤ":5710,"ĠÑįÑĦÑĦÐµÐºÑ":5711,"logi":5712,"ĠÐµÐ´Ð¸Ð½ÑģÑĤÐ²":5713,"ĠÐ¿Ð¾ÑģÑĤÐ°Ð½Ð¾Ð²":5714,"ĠÑĥÐºÑĢÐ°Ð¸Ð½":5715,"ÑĢÐ°Ð·Ð´Ð¾":5716,"ĠÐ½Ð¸ÐºÑĤÐ¾":5717,"ÐµÐ²Ð¾Ð³Ð¾":5718,"ĠÐ¥Ð¾ÑĤÑı":5719,"tki":5720,"Ð¾Ð¶Ð°":5721,"ÑĢÐ°ÑĤÐ½Ð¾":5722,"ĠÐ´Ð¸Ð°Ð³Ð½Ð¾Ñģ":5723,"Ð¾Ð²ÑĭÐ¼":5724,"ĠÐ¿Ð¾Ð²ÐµÑĢÑħÐ½Ð¾ÑģÑĤÑĮ":5725,"ĠÐ¼ÑĥÐ»ÑĮ":5726,"ver":5727,"ĠÐ²Ð¾Ð·Ð½Ð¸ÐºÐ½Ð¾Ð²":5728,"ÑĢÐ¸ÑģÑĤ":5729,"Ġcze":5730,"ĠÐºÐ¾Ð¼Ð±":5731,"ĠÐ³Ð¾Ð²Ð¾ÑĢÐ¸ÑĤÑĮ":5732,"ĠÐºÐ¾Ð»Ð¸ÑĩÐµÑģÑĤÐ²Ð°":5733,"ÑĤÐ¸Ð²Ð½Ð¾Ð¹":5734,"Ð¸ÑīÐµ":5735,"ÑįÐº":5736,"ÑĢÐ°Ð²Ð":5737,"ĠÐ¿Ð¾ÑħÑĥÐ´":5738,"Ġpew":5739,"kiego":5740,"ĠÐ³Ð»Ð°Ð²Ð½Ð¾Ðµ":5741,"ĠÑģÐ¼Ð¾Ð¶ÐµÑĤ":5742,"Ġ70":5743,"ĠÐ¶ÐµÐ»ÑĥÐ´":5744,"ĠÐ¾ÑĢÐ¸Ð³Ð¸Ð½Ð°Ð»ÑĮ":5745,"Ð°ÑİÑīÐµÐ³Ð¾":5746,"Ð¿ÑĢ":5747,"ren":5748,"Ð¸Ð³Ð":5749,"ĠÐ´ÑĢÑĥÐ·ÑĮÑı":5750,"ÐµÐºÐ¸":5751,"ĠÑĥÐºÐ»Ð°Ð´":5752,"ĠÑģÐ¸Ð»Ñĭ":5753,"ĠÑģÐ»Ð¾Ð¶Ð½Ð¾":5754,"ĠÑĥÐºÑĢÐµÐ¿":5755,"ĠÑģÑĤÐ°Ð²ÐºÐ¸":5756,"µÑĤÐºÐ¸":5757,"Ġnas":5758,"ĠÐ´ÑĢÑĥÐ³Ð¸Ð¼":5759,"Ð¾ÑģÐ":5760,"ĠÐĳÐ»Ð°Ð³Ð¾Ð´Ð°ÑĢÑı":5761,"ĠÑģÐ¸ÑģÑĤÐµÐ¼Ðµ":5762,"Ð¾ÑĩÐµÐº":5763,"ĠÐºÐ¾Ð¼ÑĦÐ¾ÑĢ":5764,"ĠÐ¿ÑĢÐ¾Ð´Ð°Ð²":5765,"ĠÐ¾Ð¿ÑĭÑĤ":5766,"stu":5767,"ĠÐ¡ÐµÑĢÐ³":5768,"ĠÐºÐ¾Ð»Ð¸ÑĩÐµÑģÑĤÐ²":5769,"ĠÐ»Ðµ":5770,"ÑĥÑĤÐ¾Ðº":5771,"ĠÑĢÐ°Ð¹Ð¾Ð½Ðµ":5772,"Ð½ÑĥÑĤ":5773,"ĠÑĢÐµÑģÑĥÑĢ":5774,"ÑĢÐ°Ð½ÑĨ":5775,"Ð´Ñĥ":5776,"czny":5777,"Ġwarto":5778,"ĠÐ¿ÑĢÐ¸Ð³Ð¾ÑĤÐ¾Ð²Ð»ÐµÐ½Ð¸Ñı":5779,"ĠÐ´ÑĥÑħÐ¾Ð²":5780,"ĠÅĽwie":5781,"ĳÑ":5782,"ĳÑĤ":5783,"ĠBo":5784,"ĠÐ¾ÑĤÑĩ":5785,"ÐºÐ°Ñģ":5786,"ÑĥÐ·Ñĭ":5787,"ĠÐ½ÐµÑĦ":5788,"ĠÐ¾Ð»":5789,"ĠÐ¡ÑĥÑīÐµÑģÑĤÐ²":5790,"ĠÐ»Ð¸Ð´":5791,"ĠÐ²Ð°Ð¼Ð¸":5792,"ĠÐ½Ð°ÑģÐµÐ»ÐµÐ½Ð¸Ñı":5793,"ĠÐ°Ð²ÑĤÐ¾ÑĢ":5794,"ĠÑĢÐµÐ¼Ð¾Ð½ÑĤ":5795,"ĠÐ¾ÑĤÐ»Ð¸ÑĩÐ°ÐµÑĤÑģÑı":5796,"ĠÐ¾ÑģÐ½Ð¾Ð²Ð½ÑĭÑħ":5797,"ĠÐ²Ð°ÑĢ":5798,"´Ð¶":5799,"ĠÐĴÐ¾Ð»":5800,"Ð»ÑĥÑĪ":5801,"ĠÐºÑĥÑĢÐ":5802,"ĠÐ±ÑĭÐ²Ð°ÐµÑĤ":5803,"ĠÐ¿Ð¾ÑģÐ²":5804,"ĠÑĪÑĤÑĢÐ°ÑĦ":5805,"ĤÐ°Ð»":5806,"ĠÑĨÐ²ÐµÑĤÐ¾Ð²":5807,"ĠÐ¸Ð³ÑĢÐ¾Ð²ÑĭÐµ":5808,"ĠÐ¸ÑģÑĤÐ¾Ñĩ":5809,"ĠÑģÑĤÐ¾ÑĢÐ¾Ð½":5810,"ÑĥÑīÐ¸Ñħ":5811,"ster":5812,"ĠÐ¸Ð½Ð¾ÑģÑĤÑĢÐ°Ð½Ð":5813,"ĠÐ¾ÑģÑĤÐ°ÐµÑĤÑģÑı":5814,"ĠÐ·Ð°ÑĢÐµÐ³Ð¸ÑģÑĤÑĢÐ¸ÑĢÐ¾Ð²":5815,"Ġpotrze":5816,"ĠÐ¿ÑıÑĤÑĮ":5817,"ĠÐ¼ÐµÑĪ":5818,"ĠÑĥÑĩÐ°ÑģÑĤÐ²":5819,"Ġprzypad":5820,"ĠÐĴÐ°Ð¶Ð½Ð¾":5821,"ĠÐ½Ð¾Ð²Ð¾Ð¹":5822,"ÑĤÐ¸Ð¿":5823,"°ÑĢÐ´":5824,"ĠÐ¼Ð¾Ð³Ð»Ð¸":5825,"----":5826,"ĠÐ²ÑĭÑģÐ¾ÐºÐ¾Ð¹":5827,"ĠÐ±Ð»Ð¸Ð¶Ð°Ð¹":5828,"ĠÐ¿ÑĢÐ¸ÑĩÐ¸Ð½Ñĭ":5829,"ĠÐ²Ð·Ñı":5830,"ÐµÑģÐ°":5831,"ÑĥÐ±Ð»Ð¸ÐºÐ¸":5832,"¸ÑģÑĤÑĭ":5833,"ÑĢÐ°Ð½Ð¸Ð":5834,"ĠÑĩÐ°ÑģÑĤÐ½Ð¾ÑģÑĤÐ¸":5835,"ĠÐ´Ð°Ð»ÑĮÑĪÐµ":5836,"ĠÑĢÐ°Ñ":5837,"ĠÐĶÑĢÑĥÐ³":5838,"ÑĭÐ³":5839,"ĠOd":5840,"ÐµÑĢÐ½Ð¾Ðµ":5841,"ĠÐ·Ð°Ð¶":5842,"Ð´Ð¸ÑĤÐµ":5843,"ĠÐ¾Ð±Ð»Ð°Ð´Ð°ÐµÑĤ":5844,"ĠÐ¿ÑĥÑĤÐµÐ¼":5845,"ĠÐ³Ð¸Ð±":5846,"now":5847,"Ġmy":5848,"ĠÐ²Ð»Ð°Ð¶":5849,"Ð°ÑĩÐµÑģÑĤÐ²":5850,"ĠÐºÐ¾Ð¼Ð¿ÑĮÑİÑĤÐµÑĢ":5851,"dziÄĩ":5852,"Ð¸ÑĪÑĮ":5853,"ĠÑģÐ¾Ð¼":5854,"ĠÑģÐ½Ð¸Ð·":5855,"qu":5856,"Ð¾ÑģÐ½Ð¾Ð²":5857,"ĠÐ¿ÑĢÐ¸Ñ":5858,"Ð¾Ð´Ð½Ð¾Ðµ":5859,"ĠÐ½ÐµÐ´Ð¾ÑģÑĤÐ°":5860,"ĠÑģÐ¾Ð¾Ð±ÑīÐ°ÐµÑĤ":5861,"ĠÑĢÐ¾Ð»":5862,"lÄĻ":5863,"ĠÐ¸ÑģÐ¿Ð¾Ð»ÑĮÐ·ÑĥÑİÑĤÑģÑı":5864,"ĠÑħÐ¾ÑĩÑĥ":5865,"ÑĥÑģÐ»Ð¾Ð²":5866,"ĠÑħÐ¾Ð´Ðµ":5867,"ÑģÑĤÐ°ÑĤÐ¸":5868,"ĠÐłÐ°Ð±":5869,"ĠÐ²ÑģÑĤÑĥÐ¿":5870,"ĠÐ¾ÑĤÑĢÐ°Ð¶":5871,"ĠÐ·Ð°ÐºÑĢÐµÐ¿":5872,"ĠÐ¿ÑĭÑĤ":5873,"ĠÐ¿ÑĢÐ¸ÑģÑĤÑĥÐ¿":5874,"ĠÐ´ÐµÐºÐ°Ð±ÑĢÑı":5875,"âĢĻ":5876,"ĠÑĢÐ°Ð´Ð¸":5877,"ĠÑįÑĦÑĦÐµÐºÑĤ":5878,"µÑĤÐµÑģÑĮ":5879,"Ġszcze":5880,"pew":5881,"ĠÐŁÐµÑĢÐµÐ":5882,"Ð»ÐµÐ½Ð½ÑĭÐ¹":5883,"¾ÑģÑı":5884,"ĠÑĤÑĢÐµÐ½Ð¸ÑĢÐ¾Ð²":5885,"ĠÐĴÐµÐ»Ð¸Ðº":5886,"ÑĢÐ½ÑĭÐ¹":5887,"ĠÐľÐ½Ðµ":5888,"ĠÐºÐ¾Ð½ÐºÑĥ":5889,"ĠÐ°Ð´Ð¼Ð¸Ð½Ð¸ÑģÑĤÑĢÐ°":5890,"ĠÐ§Ð°Ñģ":5891,"ĠÐĳÑĥÐ´":5892,"ÑĤÐµÑĢÐ°ÑĤÑĥ":5893,"io":5894,"ĠÐ¼Ð°ÑĢÑĤÐ°":5895,"ĠÑĦÑĥÐ½ÐºÑĨÐ¸Ð¸":5896,"ks":5897,"ĠÐ´ÐµÐ¹ÑģÑĤÐ²Ð¸Ðµ":5898,"ĠÑĦÐ»":5899,"ÅĤam":5900,"ĠÑģÐµÐ½ÑĤÑıÐ±ÑĢÑı":5901,"Ð½Ð¾ÑĨ":5902,"ĠÐ·Ð°Ð¿ÑĢÐµÑī":5903,"Ð»Ð¾ÑĢ":5904,"Ð½ÑĥÐ»":5905,"ÐµÑĢÐ¸ÑĤÐµ":5906,"Ġhi":5907,"ĠÑĥÐ²Ð¸Ð´ÐµÑĤÑĮ":5908,"ĠÐ¿ÑĢÐ¾ÑĨÐµÐ´ÑĥÑĢÑĭ":5909,"ĠÐºÐ¼":5910,"ÐµÐ¼Ñĭ":5911,"ĠÑĩÑĥÑĤÑĮ":5912,"ĠÐºÐ¸ÑģÐ»":5913,"ĠbyÅĤo":5914,"ĠÐ·Ð°Ð¿Ð°Ñħ":5915,"ĠTa":5916,"ĠÐ±ÐµÐ´":5917,"Ġpracy":5918,"Ð°Ð²Ð»Ð¸Ð²":5919,"ĠRa":5920,"ĠÑĢÐµÑĦ":5921,"Ġse":5922,"Ð°Ð¶Ñĥ":5923,"ÑĤÐ°ÑİÑĤÑģÑı":5924,"Ð¾Ð¼ÐµÑĤ":5925,"ĠÑĢÑĥÐºÐ¾Ð²Ð¾Ð´Ð¸ÑĤ":5926,"ĠÐºÐ°ÑĤÐµÐ³Ð¾ÑĢÐ¸Ð¸":5927,"ÐµÑģÑģ":5928,"Ð¾Ð²Ð°ÑĢÐ":5929,"ĠÐŁÐŀ":5930,"ÑĥÐºÐ¸":5931,"ÑĤÐ¸Ð²Ð½Ð¾Ð³Ð¾":5932,"ĠPod":5933,"ĠÐ¿ÑĢÐ¸Ð²ÐµÐ´":5934,"ĠÐ²Ð¾ÑģÐ¿Ð¾Ð»ÑĮÐ·Ð¾Ð²":5935,"ĠÐ°Ð»Ð»ÐµÑĢÐ³":5936,"ĠÐºÐ¾Ð¶Ñĥ":5937,"ĠÑģÑĩÐ°ÑģÑĤÑĮ":5938,"ÑĭÑī":5939,"ĠÐ¿ÑĢÐµÐ´Ð¾ÑĤÐ²":5940,"ĠbÄĻdÄħ":5941,"ĠÑģÑĤÑĢÐ°Ð´":5942,"ĠÐ½Ð°ÑĩÐ¸Ð½Ð°ÐµÑĤ":5943,"ĠÐ²Ð¾Ð·ÑĢÐ°ÑģÑĤÐµ":5944,"ĠÐ¡ÐºÐ°ÑĩÐ°ÑĤÑĮ":5945,"Ġszko":5946,"ĠÐ¸ÑģÑħÐ¾Ð´":5947,"Ð¾ÑģÑĤÑĮÑİ":5948,"ĠÐĿÐ¸ÐºÐ¾Ð»":5949,"ĠÐ¼Ð°Ðº":5950,"ĠÐ·Ð°ÑıÐ²Ð¸Ð»":5951,"ĠÐłÐµÑģÐ¿":5952,"ĠÑģÑĤÐ¾Ð¸Ð¼Ð¾ÑģÑĤÐ¸":5953,"90":5954,"ĠÑĢÐ°Ð·ÑĢÑĥÑĪ":5955,"ĠÑģÐ¾ÑģÑĥÐ´":5956,"ĠÐºÐ°ÑĢÑĤÑĭ":5957,"ĠÐ²ÐµÑģÑĮÐ¼Ð°":5958,"ĠÐ¿ÐµÑĢÐµ":5959,"Ġnawet":5960,"mal":5961,"ĠÐ¿ÑĢÐ¸Ð¼ÐµÐ½":5962,"µÑĩÐµÑģÑĤÐ²":5963,"ĠÐłÐ¾ÑģÑģÐ¸Ñı":5964,"ĠÐ·Ð°ÑıÐ²Ð»ÐµÐ½Ð¸Ðµ":5965,"ĠÐºÐ¸Ð»":5966,"ÑĤÐ¸ÑĩÐµÑģÐºÐ°Ñı":5967,"īÐµ":5968,"ĠÐ¿ÑĥÑĤÐµÑĪÐµÑģÑĤÐ²":5969,"ĠÐ¡Ð¾Ð±":5970,"Ð°Ð½ÐºÑĤ":5971,"ĠÐ²Ð¾Ð·Ð´ÑĥÑħ":5972,"ÑĢÐ°ÐµÑĤÑģÑı":5973,"ÐµÐ¿Ð":5974,"ĠÐºÐ¾ÑĢÐ¾Ð±":5975,"ÑĥÐ¼Ð°":5976,"ĠÐ¾ÐºÑĤÑıÐ±ÑĢÑı":5977,"ĠÐ¿Ð¾ÑģÐ»ÐµÐ´Ð½Ð¸Ðµ":5978,"ĠÑĤÐµÐ¼Ð¿ÐµÑĢÐ°ÑĤÑĥÑĢÑĭ":5979,"ĠÐ³Ð¾ÑĢÐ°Ð·Ð´Ð¾":5980,"ĠÐ³ÑĢÑĥÐ´":5981,"ĠÐ¾ÑĤÐ²ÐµÑĢÑģ":5982,"ĠÑģÐºÐ¾ÑĢÐ¾ÑģÑĤÑĮ":5983,"Ð¾Ð¶Ð´ÐµÐ½Ð¸Ðµ":5984,"Ð¸Ð»Ð¸Ñı":5985,"ĠÐ¿Ð°Ð´":5986,"ĠÐ¾ÑģÑĥÑīÐµÑģÑĤÐ²Ð»ÑıÐµÑĤÑģÑı":5987,"ÑĤÐ²Ð¾ÑĢÐ":5988,"ĠÐºÑĢÐ°Ñı":5989,"Ð°ÑĢÑĤÑĦ":5990,"gro":5991,"ĠÐ°Ñį":5992,"ĠÐĿÐµÐºÐ¾ÑĤÐ¾ÑĢÑĭÐµ":5993,"Ð¼Ð¾ÑĤÑĢÐ¸Ð¼":5994,"ĠÐ¿ÑĢÐ¾Ð²Ð¾Ð´Ð¸ÑĤÑĮ":5995,"ĠÑģÑĤÐµÐ½Ñĭ":5996,"ÑĢÐ¾Ð²Ð°ÑĤÑĮ":5997,"Ġ35":5998,"Ð¸ÐºÐ»":5999,"ĠÐ¿ÑĢÐµÐ¸Ð¼ÑĥÑīÐµÑģÑĤÐ²":6000,"ĠÐºÐ°ÑĢÑ":6001,"ÑĢÐ¾Ð¸Ð·Ð²":6002,"ĠÐ¾Ð±Ð»Ð°ÑģÑĤÑĮ":6003,"ĠÐ¿ÑĢÐ¸Ð²Ð»ÐµÑĩ":6004,"ĠÑĢÐ¾ÑģÑĤÐ°":6005,"70":6006,"ĠÐºÐ¾ÑģÑĤ":6007,"Ð»Ð¸Ð¼":6008,"ĤÐ¾Ð¹":6009,"ĠÑĦÑĢÑĥÐº":6010,"¾Ñĥ":6011,"ĠÑģÑĤÐ¸Ð»":6012,"ÑĥÑģÑĤÐ¸ÑĤÑĮ":6013,"Ð°Ð»Ð¾Ð²":6014,"Ð¾ÐºÐ°Ñı":6015,"ĠÐ¾Ð±ÑıÐ·Ð°Ð½Ð½Ð":6016,"ĠÐ³ÐµÐ½Ðµ":6017,"ĠÐ»ÑĥÑĩÑĪÐ¸Ñħ":6018,"ĠÐ¿ÑĢÐ¸Ð²ÐµÑģÑĤÐ¸":6019,"ĠÐŀÐ±ÑĭÑĩ":6020,"µÐº":6021,"ĠÑĢÐ°Ð¹Ð¾Ð½Ð°":6022,"ĠÐ¿ÑĢÐ¾Ð¸ÑģÑħÐ¾Ð´":6023,"ĠÐ¸Ð¼Ñı":6024,"ĠÑģÐºÐ¾ÑĢÐµÐµ":6025,"ĠÐ²Ð»":6026,"ĠÐ¿Ð»Ð°ÑĤÐµÐ¶":6027,"ĠÐ¸Ð·Ð²ÐµÑģÑĤÐ½Ð¾":6028,"ĠÐ¸ÑģÑĤÐ¾ÑĩÐ½Ð¸Ðº":6029,"ĠdÅĤu":6030,"ĠÐľÐ¾Ð»":6031,"ĠmiÄĻ":6032,"ĠÐ´Ð²ÑĥÐ¼":6033,"ĠÐ½Ð°Ð¹Ð´":6034,"ĠÐļÐ°Ð¶Ð´ÑĭÐ¹":6035,"ĠÐ»Ð¸Ð½Ð¸Ð¸":6036,"ĠÑĥÑģÐ»Ð¾Ð²Ð¸Ð¹":6037,"tach":6038,"ĠCzy":6039,"ĠÐļÐ°Ð»":6040,"Ð½Ð¾Ð´":6041,"Ð¾Ð²ÑĥÑİ":6042,"ÑĤÐ¾ÑĦ":6043,"ĠÐ¾ÑģÐ²ÐµÑī":6044,"got":6045,"ĠÐ¿Ð¾ÑģÐ¼Ð¾ÑĤÑĢÐµÑĤÑĮ":6046,"ÐµÑĩÐµÐ½Ð¸Ðµ":6047,"ÑĨÑĥ":6048,"Ð¸Ð½Ð°Ð¼Ð¸":6049,"ĠÐŁÐ¾ÑģÐ»ÐµÐ´":6050,"ÑĢÐ°ÑīÐµÐ½Ð¸Ñı":6051,"ĠÐŁÐ°ÑĢ":6052,"ĠÐ¤Ð¾ÑĤÐ¾":6053,"ĠÑģÐ²ÐµÑĢÑħ":6054,"ĠÐ»ÑİÐ´ÑıÐ¼":6055,"ÐµÐ»ÑıÑħ":6056,"ĠÐ¿ÑĢÐµÐ¿Ð°ÑĢÐ°ÑĤ":6057,"ĠÐ·Ð½Ð°ÐºÐ¾Ð¼ÑģÑĤÐ²Ð°":6058,"ĠÐ±Ð¾Ð³Ð°ÑĤ":6059,"ĠÐ¿Ð»Ð°Ð½Ð¸":6060,"ĠÐłÐµÐ":6061,"Ð°Ñĥ":6062,"ĠÐ¡ÑĢÐµÐ´":6063,"Ð°Ð´Ñĭ":6064,"be":6065,"ĠÑģÑĤÐ°ÑĤÑĥ":6066,"ĠÑģÑĦÐµÑĢÐµ":6067,"ĠÐ¸Ð½ÑĦÐ¾ÑĢÐ¼Ð°ÑĨÐ¸Ð¾Ð½Ð":6068,"ĠÐ½Ð°Ð·Ð²Ð°Ð½Ð¸Ðµ":6069,"Ġfa":6070,"ĠÐ¾ÑĤÐ»Ð¸ÑĩÐ½Ð¾":6071,"ÑĢÐ°ÑĤÑĥ":6072,"Ġdro":6073,"Ġsko":6074,"Ġwyso":6075,"ÐµÑĢÐ²ÑĭÐµ":6076,"Ð¾Ð¿ÑĢÐ¾Ð²":6077,"ĠÐºÐ¸ÑĢ":6078,"Ð°Ð´ÑĮ":6079,"ĠÐ¸Ð·Ð´ÐµÐ»":6080,"owaÅĤ":6081,"ĠÐ¾Ð±ÑģÑĤÐ¾ÑıÑĤÐµÐ»ÑĮ":6082,"ÐµÐ»ÑıÐ¼Ð¸":6083,"ĠÐ¿Ð¾Ð»Ð°":6084,"ĠÑįÑĤÐ°Ð¿Ð":6085,"Ð¸ÐºÑĥ":6086,"ĠÐĺÑģÑĤÐ¾ÑĩÐ½Ð¸Ðº":6087,"dÃ³w":6088,"Ð¾ÐºÐ°Ð·":6089,"Ġkolej":6090,"Ð¾Ð¿Ð°":6091,"ÑĤÐ¸Ð½Ñĭ":6092,"ĠÐºÑĥÐ»ÑĮÑĤÑĥÑĢÑĭ":6093,"Ð½Ð¾Ð²Ð¸Ð´":6094,"ĠÐ¿ÑĢÐ¸Ð¼ÐµÐ½ÑıÑĤÑĮ":6095,"Ġjeszcze":6096,"ĠÐºÑĥÑĢÑģ":6097,"ĠÐ¿ÑĢÐµÐ¿Ð°ÑĢÐ°ÑĤÑĭ":6098,"ÑİÐ´Ð°":6099,"ĠÐ±Ð°Ð±":6100,"ĠÐ³Ð¾ÑģÑĥÐ´Ð°ÑĢÑģÑĤÐ²Ð°":6101,"ÑİÐº":6102,"Ð¾ÑĤÐ°":6103,"ĠÑĢÐµÐ´Ð°Ðº":6104,"ÐµÐ½ÑĤÐ°Ð¼":6105,"ĠÐ´Ð½Ð¸":6106,"ĠÐ¿ÑĢÐ¾ÑĤÑıÐ¶ÐµÐ½Ð¸Ð¸":6107,"ÐµÐ»ÑıÐ¼":6108,"ciu":6109,"ĠosÃ³b":6110,"ĠÐ²Ð¾Ð´Ð°":6111,"ĠÑıÐ¹":6112,"ÑĥÐ±Ð»Ð¸ÐºÐ¾Ð²":6113,"ĠÐ·Ð°Ð¿Ð¸Ñģ":6114,"ÑĤÐ¸Ð²Ð½ÑĭÐ¹":6115,"den":6116,"ĠÐ²Ð¿ÐµÑĩÐ°ÑĤÐ»":6117,"ĠÐ´ÐµÑıÑĤÐµÐ»ÑĮÐ½Ð¾ÑģÑĤÑĮ":6118,"ĠÐ´Ð¾ÑĢÐ¾Ð¶":6119,"ĠÑģÐ½ÐµÐ":6120,"ĠÑĪÐºÐ¾Ð»ÑĮ":6121,"Ð¾Ð²Ð¾Ðµ":6122,"ĠÐ¢Ð¾Ð³Ð´Ð°":6123,"ĠÑģÐ²Ð¾Ð¹ÑģÑĤÐ²":6124,"Ð·Ð¾ÑĢ":6125,"ĠÑģÐ¾Ð³Ð»Ð°ÑģÐ½Ð¾":6126,"ĠÑģÐ¾Ð´ÐµÑĢÐ¶Ð¸ÑĤ":6127,"ĠÐ·Ð°ÐºÐ»ÑİÑĩÐ°ÐµÑĤÑģÑı":6128,"ĠÐ¿ÑĢÐ¾Ð·":6129,"ĠÐ¼Ð°Ð»ÑĮ":6130,"âĢĿ,":6131,"Ð¸Ð½Ð°Ñħ":6132,"ÑıÐ±":6133,"ĠÐ¥Ð":6134,"ĠÐ¾Ð´Ð½Ð¾Ð²ÑĢÐµÐ¼ÐµÐ½Ð½Ð¾":6135,"min":6136,"Ð°ÑīÐ¸Ñħ":6137,"Ð¸ÑĩÐ°":6138,"ÑĥÑīÐµÑģÑĤÐ²Ð¾":6139,"ĠÐ±ÑĥÐºÐ¼ÐµÐºÐ":6140,"ĠAnd":6141,"ĠÐºÑĢÑĭÑĪ":6142,"ÐµÐ¸":6143,"ĠÐĲÐ»ÐµÐºÑģÐ°Ð½Ð´ÑĢ":6144,"ĠÐ¿Ð°ÑģÑģ":6145,"ĠÑĦÐµÐ´ÐµÑĢÐ°Ð»ÑĮ":6146,"°ÑģÑ":6147,"ĠÐ½ÐµÐ¿ÑĢÐ°Ð²":6148,"Ð¼Ð¾ÑĤÑĢÐ¸ÑĤÐµ":6149,"ĠÐºÐ½Ð¸Ð³Ð¸":6150,"ĠÐ¿ÑıÑĤÐ½Ð":6151,"Ð¸Ð½Ð°ÑĢÐ":6152,"Å¼Äħ":6153,"ÐľÐĺ":6154,"ĠÑĢÐµÑĩÑĮ":6155,"ĠÐ¿Ð¾Ð´ÐµÐ»":6156,"ĠÐ¼Ð¸Ð½Ð¸Ð¼ÑĥÐ¼":6157,"Ð°ÐµÐ¼ÑĭÐµ":6158,"ÑĢÐ¾Ð¿ÐµÐ¹":6159,"ĠÐ±Ð»Ð°Ð³Ð¾":6160,"ĠÐľÐ¸Ñħ":6161,"Ð¸ÑīÐ°":6162,"ord":6163,"ĠÐºÐ°ÑĢÑĤÐ¸Ð½Ð":6164,"ĠÐ²ÐµÐºÐ°":6165,"ĠÑģÐµÐºÑģÐ°":6166,"ĠÐ¾ÑĢÐ³Ð°Ð½Ð¸Ð·Ð°ÑĨÐ¸Ñı":6167,"ĠÐ¾Ð¿ÐµÑĢÐ°ÑĨÐ¸Ð¸":6168,"ÑĤÐ¸ÑĦÐ¸Ðº":6169,"ÐµÑĢÐ½Ð¾":6170,"Ð¿ÐµÑĢÐµÐ´":6171,"ÑıÐµÑĤÑģÑı":6172,"ĠÐ¢Ð°Ð¼":6173,"ĠÐ²ÑģÑĤÑĢÐµ":6174,"ĠÐ²ÐµÑīÐµÑģÑĤÐ²Ð°":6175,"ĠÐ¿Ð¾Ð¼Ð¾Ð³ÑĥÑĤ":6176,"ĠÐ¿ÐµÑĢÐµÐ¶":6177,"ĠÑĥÑģÑĤÐ¾Ð¹ÑĩÐ¸Ð²":6178,"ĠÐľÐ¾ÑģÐºÐ²Ñĭ":6179,"oba":6180,"ĠÐ´Ð¸Ð²":6181,"Ġmia":6182,"Ġpol":6183,"ĠÐ½ÐµÑĥÐ´":6184,"ĠÐ¿ÑĢÐ¸Ð¾Ð±ÑĢÐµÑģÑĤÐ¸":6185,"°ÑģÑĤ":6186,"ĠÐ¥Ð¾ÑĢÐ¾ÑĪ":6187,"ÐµÐ³Ð¾ÑģÑı":6188,"Ð¸ÑĩÐµÑģÐºÐ¸Ð¼":6189,"ĠÑĢÐ°ÑģÐ¿Ð¾Ð»Ð°Ð³":6190,"ÐµÐ»ÑĮÐ½Ð¾":6191,"ĠÐĶÐ¾":6192,"ĠÐ°Ð¿ÑĢÐµÐ»Ñı":6193,"jem":6194,"szego":6195,"ĠÐ·Ð°Ð":6196,"Ð¼Ð¸ÑĤ":6197,"¸ÑģÑĤÐµÑĢ":6198,"ĠÐ¼ÐµÐ¶":6199,"ĠÐļÑĤÐ¾":6200,"ÐµÑĢÐ½Ð°":6201,"ĠÐ¿ÑĢÐ¸Ð¿":6202,"ĠÐ¾ÑĤÐ´ÑĭÑħÐ":6203,"ĠÑĢÐµÐ·ÑĥÐ»ÑĮÑĤÐ°ÑĤÑĭ":6204,"ĠÑĤÐµÑħÐ½Ð¾Ð»Ð¾Ð³Ð¸Ð¸":6205,"ĠÐ¿ÑĥÐ±Ð»Ð¸Ðº":6206,"sti":6207,"ĠÐ¾Ð·Ð½Ð°ÐºÐ¾Ð¼":6208,"ĠÐ¾Ð±ÑģÑĥÐ¶Ð´":6209,"ÑĢÐ°ÐµÐ¼":6210,"ĠÑĩÐµÐ¼Ð¿Ð¸":6211,"ĠÐ»ÐµÐ¶":6212,"ĠÑįÐºÑģÐ¿Ð»ÑĥÐ°ÑĤÐ°ÑĨÐ¸Ð¸":6213,"ĠÐ²Ð¼ÐµÑģÑĤÐ¾":6214,"Ð¾Ð½ÑĮ":6215,"Ð¸Ð½ÐºÐ°":6216,"ĠÐ±ÑĥÐ´ÐµÑĤÐµ":6217,"pli":6218,"ĠÐ¿Ð¾Ð·Ð²Ð¾Ð½Ð":6219,"wiÄĻ":6220,"ÑģÑĤÑĢÐ¾Ð¹":6221,"Ð»ÐµÐ½Ð½Ð¾":6222,"ĠÐ²Ð¾Ð¹Ð½Ñĭ":6223,"ĠÑĤÐµÐ»ÐµÑĦÐ¾Ð½":6224,"ÑĢÐ½Ð¾Ð³Ð¾":6225,"ĠÐľÐµÐ´":6226,"ĠÑĢÐµÐ¶Ð¸Ð¼Ðµ":6227,"ĠÐ¸Ð·Ð±ÐµÐ¶Ð°ÑĤÑĮ":6228,"Ð²ÐµÐ´":6229,"ÐµÐ½Ð½Ð¸ÐºÐ¾Ð²":6230,"ĠGoo":6231,"Ð¾Ð½Ð¾Ñģ":6232,"Ġkra":6233,"45":6234,"Ð°Ð¹Ñ":6235,"Ġtrze":6236,"ĠÐĶÐ¸":6237,"ĠÐ¸ÑİÐ»Ñı":6238,"ĠÑĥÐ¼ÐµÑĢ":6239,"ĠÑĤÐ¾Ð²Ð°ÑĢÐ°":6240,"ĠÐ³Ð¾ÑĢÐ¼":6241,"ĠÑģÐ¸Ð¼Ð¿ÑĤÐ¾Ð¼Ñĭ":6242,"ĠÑģÐ½Ð°ÑĩÐ°Ð»Ð°":6243,"ĠÐĿÑĥÐ¶":6244,"ĠÑĨÐµÐ½ÑĤÑĢ":6245,"ĠÐ¿Ð»Ð¾Ñħ":6246,"ĠÐ½ÑĥÐ¶Ð´":6247,"ÑĨÐ°Ð¼Ð¸":6248,"ĠÐµÐ¶ÐµÐ´Ð½ÐµÐ²":6249,"ĠÐ°ÑĢÐµÐ½Ð´":6250,"rzu":6251,"ĠÐ²ÐµÑīÐ":6252,"taj":6253,"ĠÐ½ÐµÑĢÐ²":6254,"ĠÑĥÐ´Ð°Ð»Ð¾ÑģÑĮ":6255,"ĠÐ½Ð°Ð½Ð¾Ñģ":6256,"ĠÐĿÐµÐ´":6257,"ĠÐ²ÐµÑīÐ¸":6258,"ĠÐļÐ°ÐºÐ¸Ðµ":6259,"ĠÐ´Ð°ÑĤÑĮ":6260,"ĠwiÄĻcej":6261,"ĠÐ¾ÑĤÐ½Ð¾ÑģÐ¸ÑĤÐµÐ»ÑĮÐ½Ð¾":6262,"ĠÐºÑĢÑĥÐ³Ð»":6263,"ĠÐ¿ÑĢÐµÐ´ÑĥÐ¿":6264,"tra":6265,"ĠÐ½Ð°ÑħÐ¾Ð´ÑıÑĤÑģÑı":6266,"ĠÐ¾ÑĩÐ¸Ñī":6267,"ÐµÑĢÑĤÐ²":6268,"ĠÐºÐ¸ÑĢÐ¿":6269,"µÑĤÑĮ":6270,"Ġuwa":6271,"strze":6272,"ÐµÑĢÐµÐ½":6273,"ĠÐĳÐ¾Ð»ÐµÐµ":6274,"ĠÑģÐ¸Ð³Ð½Ð°Ð»":6275,"ĠÑģÐ¾ÑĢ":6276,"ĠÐ±ÑĢÐ¾Ñģ":6277,"ÑĤÐºÐ¾Ð¹":6278,"Ġproduk":6279,"ĠÐºÐ°Ð¶ÐµÑĤÑģÑı":6280,"ĠÐ¸Ð³ÑĢ":6281,"ĠÐ¿ÑĢÐ¾ÑģÑĤÐ¾Ð¹":6282,"ĠÐ°ÑĤÐ":6283,"ĠÐ¿ÐµÑĢÐ²ÑĭÑħ":6284,"ĠÐ´ÑĭÑħ":6285,"ĠÐ¸ÑİÐ½Ñı":6286,"ĠÐ¸Ð½Ð³":6287,"Ġ300":6288,"ĠÑĢÐ¾ÑģÑ":6289,"ĠÑĢÐ¾ÑģÑĤ":6290,"Ð¶ÐµÑĤ":6291,"ĠÐ½ÐµÐ±Ð¾Ð»ÑĮÑĪÐ¾Ð¹":6292,"ĠÑĪÐ¿":6293,"pre":6294,"Ð¾ÑĩÐ½Ð¾Ð¹":6295,"ĠÐ´Ð¸Ð":6296,"ĠÑģÐ°Ð¼Ð°":6297,"ĠÐĴÐ»Ð°Ð´Ð¸Ð¼Ð¸ÑĢ":6298,"ĠÐ¸ÑĤÐ¾Ð³Ðµ":6299,"Ġpoda":6300,"01":6301,"ĠÑĥÐ´Ð¾Ð²Ð»Ðµ":6302,"ĠÐ²Ð½Ð¸Ð¼Ð°Ð½Ð¸Ñı":6303,"ĠÐ¿ÑĢÐ¸ÑģÑĤ":6304,"Ð²ÐµÑĢ":6305,"ĠÑĢÐ°Ð±Ð¾ÑĤÐ°ÑİÑĤ":6306,"ĠniÅ¼":6307,"ÑĢÐ°Ð½ÐµÐµ":6308,"ĠDa":6309,"ÐĴÐĲ":6310,"ig":6311,"ĠÐ»Ð°Ðº":6312,"ĠÐ°Ð±ÑģÐ¾Ð»ÑİÑĤÐ½Ð¾":6313,"ÐµÐ½Ð½Ð¾ÑģÑĤÑĮÑİ":6314,"ten":6315,"ĠÐ¿ÑĢÐ¸Ð²ÑĭÑĩ":6316,"Ð¾ÑģÐ¾Ð±Ñĭ":6317,"ĠÐ¼Ð¾Ð¼ÐµÐ½ÑĤÐ°":6318,"ĠÐ²Ð¾ÑģÐ¿Ð¸ÑĤ":6319,"ĠÐ¿ÐµÑĢÐ²ÑĭÐµ":6320,"ĠÑĦÐ°ÐºÑ":6321,"Ð°Ð¹ÑĤ":6322,"ÐºÐ°Ð½":6323,"ÑĥÑİÑīÐ¸Ð¼":6324,"ĠÑĢÐ¸ÑģÐº":6325,"Ġmieszka":6326,"ÐŁÐµÑĤÐµÑĢÐ±ÑĥÑĢÐ":6327,"ĠÐľÐµÐ¶Ð´":6328,"ĠÐ¾ÑĤÐ¾Ð¿":6329,"ÑĤÐ²ÐµÑĢÐ´":6330,"ĠÐ£Ñĩ":6331,"ĠÐ¿Ð¾ÑģÑĤÐµÐ¿":6332,"ĠÐ·Ð½Ð°Ñİ":6333,"ĠÐ¡Ð¾Ð³Ð»Ð°ÑģÐ½Ð¾":6334,"¾ÑĢÐ´":6335,"owiÄħ":6336,"ÑĢÐ°ÑĨÐ¸Ñİ":6337,"ĠÑĥÐºÐ°Ð·ÑĭÐ²":6338,"ĠÐ³ÐµÑĢÐ":6339,"Ð¸Ð½Ð°Ð»":6340,"ĠÑħÐ¾ÑĤÑĮ":6341,"ĠÐ¾Ð±Ð¾Ð·":6342,"ÐµÐ´Ð°":6343,"Ð½Ð¸ÑĨÐ¸Ð¿":6344,"Ð»ÑĥÐ±":6345,"ĨÐ°ÑĢ":6346,"ĠÐ¾Ð±ÑĬÑıÑģ":6347,"ĠÑĢÐ¾Ð´Ð¸ÑĤÐµÐ»ÐµÐ¹":6348,"ĠÐ´ÐµÐ²ÑĥÑĪÐºÐ°":6349,"Â«":6350,"ÑıÑīÐ¸Ðµ":6351,"ĠÐºÐ¾Ð¼Ð¿Ð°Ð½Ð¸Ð¹":6352,"ĠÐ´ÑĢÑĥÐ³Ð¾Ðµ":6353,"ĠÐ¿ÑĢÐ¸ÑħÐ¾Ð´Ð¸ÑĤÑģÑı":6354,"Ġga":6355,"ĠÐ¾ÑģÐ½Ð¾Ð²Ð½ÑĭÐµ":6356,"ĠÐĴÐ¿":6357,"ÑģÑĤÐ²ÐµÐ½Ð½Ð¾Ð¹":6358,"wiad":6359,"ÐµÐ½Ð¸Ð»":6360,"ĠÐ³Ð¾Ð²Ð¾ÑĢÑıÑĤ":6361,"pl":6362,"ĠÑĨÐµÐ½ÑĤÑĢÐµ":6363,"ĠÐ½Ð¾ÑıÐ±ÑĢÑı":6364,"ĠÐ°Ð½Ð³Ð»Ð¸Ð¹":6365,"ĠÐ²ÑĢÐµÐ¼ÐµÐ½ÐµÐ¼":6366,"ĠÐºÐ»Ð°Ð´":6367,"½ÑıÑı":6368,"ĠÐ¸Ð¼ÐµÐ½Ð¸":6369,"ĠÑģÐ²Ð¾ÐµÐ¼Ñĥ":6370,"ĠÐ¾ÑĤÐ½Ð¾ÑģÐ¸ÑĤÑģÑı":6371,"Ð¾Ð¸Ð´":6372,"ĠÐºÐ¸ÑĪÐµÑĩ":6373,"ĠdostÄĻp":6374,"ces":6375,"Ð½Ð¸Ñı":6376,"Ð³Ðµ":6377,"ÑĢÐ±":6378,"ĠÑģÐ²Ð":6379,"ĠÑģÐ¾ÑģÑĤÐ°Ð²Ðµ":6380,"ĠÐ·Ð½Ð°Ð¼":6381,"ĠÐ¼ÐµÑĢÐ¾Ð¿ÑĢÐ¸ÑıÑĤÐ¸Ñı":6382,"ĠÐĶÐ°Ð»ÐµÐµ":6383,"log":6384,"ĠÐ¿ÑĢÐµÐ´ÑĥÑģÐ¼Ð¾ÑĤÑĢ":6385,"ĠÑĢÐ°Ð½Ð½Ð":6386,"ĠÐĵÐ¾ÑĢ":6387,"ĠÐĶÐ¾Ð±Ð°Ð²":6388,"ÑıÑģÑĮ":6389,"ĠÐ³Ðµ":6390,"Ð¾Ð¾Ñħ":6391,"Ð¾Ð´ÐµÐ¹ÑģÑĤÐ²":6392,"ĠÐ¿Ð¾Ð¿Ñĭ":6393,"ĠÑĢÐµÐ»":6394,"Ð½Ð°Ð±":6395,"ÐµÐ»ÑĮÐ½ÑĭÑħ":6396,"µÑĢÐ°Ð¼":6397,"peÅĤ":6398,"ÑĢÐ¾Ð½Ð¸ÑĩÐµÑģÐº":6399,"Ð¾ÑĩÐ½ÑĭÐ¹":6400,"ĠÐ¿ÑĢÐµÐ´ÑĭÐ´":6401,"ĠÑģÐ»ÑĥÑĪ":6402,"ĠFa":6403,"Ð¸ÑĤÐ°Ð¹ÑĤÐµ":6404,"Ð¸ÑģÑģ":6405,"Ġfil":6406,"ĠÐĿÐ°Ð´":6407,"ÑĢÐ°Ð»ÑĮÐ½Ð¾Ð¹":6408,"ĠÐ½Ð°ÑģÑĤÑĢÐ¾ÐµÐ½Ð":6409,"Ð¾Ð»ÐµÑĤÐ½Ð":6410,"ĠJeÅĽli":6411,"ĠÑģÐ¼Ð°ÑĢÑĤÑĦ":6412,"ĠÐºÐ¾Ð½ÐµÑĩ":6413,"Ð°Ð¼ÐµÐ½ÑĤ":6414,"szu":6415,"ĠÑĥÑģÑĤÑĢÐ¾Ð¹ÑģÑĤÐ²Ð¾":6416,"ĠÐ²ÐµÑĩÐµÑĢ":6417,"ĠÐ´ÑĢÑĥÐ³Ð¾Ð¼":6418,"ĠsposÃ³b":6419,"ĠÑģÐ»Ð°Ð´":6420,"ĠÐĳÐµÐ»":6421,"µÑģÑĤÐ¸":6422,"ĠÐ¿Ð¾Ð´Ð½Ñı":6423,"ĠÐ¼ÑĥÐ¶ÑĩÐ¸Ð½Ñĭ":6424,"Ġproble":6425,"ĠÐ¡Ð¿Ð°Ñģ":6426,"Ð¶Ð°":6427,"ĠÐ½ÐµÐ¾Ð±ÑĭÑĩ":6428,"ĠÑĥÐ½Ð¸Ð²ÐµÑĢ":6429,"ĠÐ»Ð¸ÑĤÐµÑĢÐ°ÑĤÑĥ":6430,"ĠÐ³Ð»Ð°Ð²Ð":6431,"Ġwiele":6432,"ĠÑĤÐ°Ð»":6433,"Ð¾Ð¸ÑĤÑĮ":6434,"ĠÑģÑĤÑĢÐ°ÑĤÐµÐ³":6435,"Ð¸Ð»Ðµ":6436,"ĠÑĢÐ°Ð·Ð¼ÐµÑĢÐ°":6437,"Ġorgani":6438,"kaz":6439,"ĠÐ¸ÑģÐ¿ÑĢÐ°Ð²":6440,"ke":6441,"ĠÑĢÐµÑģÐ¿":6442,"ĠÑģÑĤÐ¾":6443,"ĠÐ´Ð¾Ð²ÐµÑĢ":6444,"Ġth":6445,"Ð¸Ð½Ð³Ð°":6446,"Ð°ÑĩÐµ":6447,"ĠÐºÐ¾Ð½ÑĨÐ°":6448,"ĠÐ±Ð¾Ð»ÑĮÑĪÐ¸Ð¼":6449,"Ġproje":6450,"ĠÐ¿ÑĢÐ¾Ð´ÑĥÐºÑĤ":6451,"Ġusta":6452,"ĠÑĨÐ¸":6453,"°ÑĩÐ":6454,"ĠÑģÑĤÐ¸Ð¼":6455,"Ð¼ÐµÑī":6456,"ÑĨÐµÐ¼":6457,"ĠÐ¸Ð³ÑĢÐ°":6458,"ÑĢÐ°Ð»Ñı":6459,"¸ÑĢÑĥÑİÑĤ":6460,"Ð°Ð½Ð½Ð¾":6461,"nad":6462,"Ð½ÐµÐ¼Ñĥ":6463,"ĠÑģÐµÐ³Ð¾Ð´Ð½ÑıÑĪ":6464,"Ð¸Ð¼ÑģÑı":6465,"ĠÐ±Ð¾Ð»ÑĮÑĪÐ¸Ð½ÑģÑĤÐ²Ð¾":6466,"ĠÐ¢Ð°ÐºÐ¸Ðµ":6467,"ĠÐ¿Ð¾Ð»Ð¾Ð¶ÐµÐ½Ð¸Ðµ":6468,"ĠÑĦÐ°ÐºÑĤ":6469,"tro":6470,"ĠÐĵÐµÑĢÐ¼":6471,"ĠÑģÑĥÐ´Ð°":6472,"°ÑĩÐµ":6473,"½Ð¾ÑģÑĤÑĮ":6474,"ÑĤÐ¾ÑĢÐ¸":6475,"ÑĢÐ¾Ñħ":6476,"ĠÐ¸Ð½Ð°ÑĩÐµ":6477,"ÐµÐ»ÑĮÐ½ÑĭÐ¹":6478,"ĠÐ¿Ð¾ÑģÐ²ÑıÑī":6479,"ÑĤÐµÑĩ":6480,"ĠBa":6481,"¾ÑĤÐ¸ÑĩÐµÑģÐº":6482,"Ð°Ð±Ð»":6483,"ÐµÑĤÐ¾Ðº":6484,"Ð¾ÑĩÐºÑĥ":6485,"Ð¾ÑİÐ·":6486,"04":6487,"Ð¸Ð½Ð°Ñı":6488,"ĠÐ¿Ð¾Ð»ÑĥÑĩÐ¸Ð»":6489,"ĠÑĦÐ°Ñģ":6490,"ĠÑĤÐµÐ¼Ð°":6491,"ĠÐ¿Ð¾Ð»Ñĥ":6492,"ĠÐ¾ÑĢÐ¸ÐµÐ½":6493,"ĠÑĤÐ°Ð¹":6494,"ĠÐ½Ñĥ":6495,"Ġniez":6496,"ĠÐ¿ÑĢÐ¾ÑħÐ¾Ð´Ð¸ÑĤ":6497,"ĠÐĶÐµÐ²":6498,"ĠÐ±Ð¾Ð»ÑĮÑĪÐ¸Ðµ":6499,"ĠÑıÐ³":6500,"ÐµÐ½Ð´Ð°":6501,"ĠÐ°ÐºÑ":6502,"ĠÐ´Ð¾ÑħÐ¾Ð´":6503,"Ð°ÐµÐ¼ÑĭÑħ":6504,"ĠÐ¶Ð¸Ð²Ð¾ÑĤÐ½ÑĭÑħ":6505,"ĠÐ³ÑĢÐ°Ð¶Ð´Ð°Ð½Ð¸Ð":6506,"od":6507,"Ð¾Ð½Ð¸":6508,"ĠÐºÐ¸Ð¿":6509,"ĠÑģÐ¾Ð¶Ð°Ð»":6510,"ÑĢÑĭÐ¼":6511,"ĠÑģÐ¾ÑģÐµÐ´":6512,"ĠÐ¿Ð¾ÑĤÑĢÐµÐ±ÑĥÐµÑĤÑģÑı":6513,"sh":6514,"Ð¾Ð·Ñĭ":6515,"ser":6516,"Ð¸ÑģÐ°Ð½Ð¸Ðµ":6517,"niÄĩ":6518,"ÑĢÐ¾ÑĤ":6519,"gÄĻ":6520,"Ġ=":6521,"kre":6522,"ĠÐ¾ÑĤÑģÑĥÑĤÑģÑĤÐ²Ð¸Ðµ":6523,"Ð»Ð¸Ð·":6524,"ÑĢÐ¾Ñį":6525,"Ð°ÑĤÐµÐ»ÑĮÐ½ÑĭÐ¹":6526,"ĠSta":6527,"ĠÐ´Ð°Ð»ÐµÐºÐ¾":6528,"ĠmajÄħ":6529,"Ð¸ÑĤÐµÐ»ÑĮÐ½Ð¾ÑģÑĤÐ¸":6530,"ĠÐ¾Ð±ÐµÐ·":6531,"ĠÑģÑĤÐ°Ðº":6532,"asy":6533,"Ð¸ÐºÐ¾Ð¼":6534,"Ð°Ð²Ð":6535,"ĠÐ·Ð°ÐºÐ¾Ð½Ñĩ":6536,"Ð¾Ð½Ð¸Ð¼":6537,"ĠÑģÐ¿Ð¾ÑģÐ¾Ð±Ð¾Ð¼":6538,"ĠÑĢÐµÐ³ÑĥÐ»Ð¸ÑĢÐ¾Ð²":6539,"Ġ2013":6540,"ĠÑĩÐµÑĤÐ":6541,"ĠÐ¼Ð°ÑĢÑĪ":6542,"ĠÑģÐµÐºÑģÑĥ":6543,"ĠÑĤÐµÐºÑĥÑī":6544,"Ð²Ð¾Ð·":6545,"ĠÐĿÐ°ÑĢ":6546,"ĠÐ²ÐºÐ»ÑİÑĩÐ°Ñı":6547,"ĠÐ¡Ð°Ð½ÐºÑĤ":6548,"ĠÐ¿ÐµÑĢÐµÐ½Ð¾Ñģ":6549,"ĠÐĿÐµÐ¾Ð±ÑħÐ¾Ð´":6550,"ĠÐ°Ñĥ":6551,"Ð¸ÑĤÐµÐ»ÑĮÐ½ÑĭÐ¼":6552,"ĠÐ¾ÑĤÐ½Ð¾ÑĪÐµÐ½Ð¸Ð¹":6553,"ĠÐ¾ÑĤÐ´ÑĭÑħÐ°":6554,"ĤÐ¾Ð¶":6555,"Ð¼ÑĥÐ»Ñı":6556,"ĠÐ±ÑĭÑģÑĤÑĢÐµÐµ":6557,"ÑĤÐ¾Ð¶":6558,"ĠÑĢÐ¾Ð²":6559,"ĠÐ¼Ð°Ð»ÑĭÑĪ":6560,"ĠÐ¿ÑĢÐ¾ÑħÐ¾Ð´":6561,"ĠPi":6562,"ĠÐ½ÐµÐ¼Ñĥ":6563,"Ð¾Ð¼Ð°ÑĤ":6564,"ĠÐ²Ð¾Ð´Ð¸ÑĤ":6565,"ĠÐ¾ÑģÐ²Ð¾Ð±":6566,"ĠÐ²ÑĭÐ³Ð»ÑıÐ´Ð¸ÑĤ":6567,"ÑĤÐ¸ÑĩÐµÑģÐºÐ¾Ðµ":6568,"ĠÐ¿ÑĢÐ¾Ð²Ð¾Ð´Ð¸ÑĤÑģÑı":6569,"ÑĢÐµÐ²Ð":6570,"ĠÐ¾ÑĤÐ½Ð¾ÑģÑıÑĤÑģÑı":6571,"ĠÐ±Ð»Ð¾ÐºÐ¸":6572,"ĠÑĥÐ´ÐµÑĢÐ¶":6573,"ĠÑĢÐµÐ°Ð»Ð¸Ð·Ð°ÑĨÐ¸Ð¸":6574,"Ġpowo":6575,"siada":6576,"Ð°ÑıÑģÑĮ":6577,"ĠÐ¼ÐµÑĤÑĢÐ¾Ð²":6578,"ĠbyÅĤ":6579,"ĠÑĤÐµÑħÐ½Ð¸ÐºÐ¸":6580,"ĠÐĸÐµÐ»":6581,"zacji":6582,"Ð°Ð½Ð½ÑĭÐ¼Ð¸":6583,"Ġpoja":6584,"Ġsku":6585,"skim":6586,"mail":6587,"ÐµÑĢÐ¾Ñı":6588,"liz":6589,"ĠÑĨÐµÐ»Ð¸":6590,"ĠÑĨÐ²ÐµÑĤÐ":6591,"ĠWie":6592,"ĠAr":6593,"ÐµÐ¸Ð":6594,"ĠÐ¼ÐµÐ½Ñİ":6595,"ÑİÑĪ":6596,"ĠÐ½Ð¸ÐºÐ°ÐºÐ¸Ñħ":6597,"ĠÐĳÐ¾Ð³":6598,"ÐµÐºÑĤ":6599,"ĠGoogle":6600,"ÐµÐ½Ð¾Ð²":6601,"ĠÐ´Ð¾ÐºÐ°Ð·":6602,"35":6603,"ĠÑģÑĥÑĤÐºÐ¸":6604,"Ð¾Ð»Ð¾Ð³Ð¸ÑĩÐµÑģÐºÐ¸Ñħ":6605,"chni":6606,"ĠÐ¿ÑĢÐ¸Ð½ÑıÑĤÑĮ":6607,"dem":6608,"Ġprowa":6609,"ĠÐ·Ð°Ð¿Ð°Ñģ":6610,"mat":6611,"ber":6612,"ĠÐºÐ¾ÑĤ":6613,"ĠÑĢÐµÐ³Ð¸Ð¾Ð½Ð°Ð»ÑĮ":6614,"ĠÐ²ÑģÐ¿Ð¾Ð¼":6615,"ĠÐ±ÑĢÐ°":6616,"kaza":6617,"tych":6618,"ĠÐ¿ÑĢÐ¸Ð¼ÐµÑĢÑĥ":6619,"ĠÑĦÐ¸Ð»ÑĮÐ¼":6620,"ĠÐ¿ÐµÐ½ÑģÐ¸Ð¾Ð½Ð":6621,"ĠÑĤÑĢÐ°Ñħ":6622,"ĠÐ²ÑģÐµÐ¼Ñĥ":6623,"ÐķÐł":6624,"ĠÐłÑĥÑģ":6625,"ĠÐľÐ°Ð»":6626,"dar":6627,"ĠÐ¿Ð¾Ð»Ð¾Ñģ":6628,"Ð¸Ð½Ð¾Ð¼":6629,"ÐµÐ½ÑĤÐµ":6630,"ĠÐĿÐ°Ð»":6631,"Ġwykona":6632,"ich":6633,"ĠÑĩÐ¸ÑģÐ»Ð¾":6634,"ĠÐ±ÑĥÐºÐ²":6635,"ĠÐºÐ°ÑĪ":6636,"ĠÑģÐ°Ð½":6637,"Ð°Ð³Ð°":6638,"ĠÐĵÐ´Ðµ":6639,"ĠÑĥÐ²Ð°Ð¶":6640,"ĠÐ±Ð¸Ð»":6641,"Ð©":6642,"ĠÐºÐ°Ð±Ð¸Ð½Ð":6643,"ÑĢÐ½Ð¾Ð¹":6644,"ĠÐ³ÑĢÑĥÐ½":6645,"Ð¾Ð³Ð¾Ð²Ð¾ÑĢ":6646,"star":6647,"ĠÑĢÑĭÐ½ÐºÐ°":6648,"ĠÑģÑĤÑĢÐ¾Ð¸ÑĤÐµÐ»ÑĮÑģÑĤÐ²Ð°":6649,"Ġzro":6650,"ĠÑĤÐµÐ»ÐµÐ²":6651,"ĠÐºÐ°ÑĢÑĤÑĥ":6652,"Ġ#":6653,"ĠÐ¿ÐµÑĢÐ²Ð¾Ð¼":6654,"ĠÐ¿Ð¾Ð»ÑĮÐ·Ð¾Ð²Ð°ÑĤÐµÐ»ÐµÐ¹":6655,"ĠÑĦÐµÐ²ÑĢÐ°Ð»Ñı":6656,"ĠÐ¿Ð¾ÑıÑģ":6657,"ĠÑįÐ»ÐµÐ¼ÐµÐ½ÑĤÐ¾Ð²":6658,"ĠÐ¼ÑĥÐ·ÑĭÐº":6659,"ÐµÑĩÐ¸":6660,"°ÑĢÐ¼":6661,"Ð¼ÐµÑĪ":6662,"ĠÂ·":6663,"Ã³wi":6664,"ĠÐºÐ¾Ð½ÑĤÑĢÐ¾Ð»ÑĮ":6665,"ĠÐ½ÐµÐ¿Ð¾ÑģÑĢÐµÐ´ÑģÑĤÐ²ÐµÐ½Ð½Ð¾":6666,"ĠÐ¿Ð¾Ð»Ð½Ð¾Ð¼":6667,"½Ð°Ð":6668,"ĠâĢ¦":6669,"Ð°Ð¶Ð¸ÑĤÐµ":6670,"ĠTwo":6671,"ĠÐ¾ÑĦÐ¾ÑĢÐ¼Ð»ÐµÐ½Ð¸Ñı":6672,"ĠÐ¸ÑģÐ¿Ð¾Ð»ÑĮÐ·Ð¾Ð²Ð°Ð½Ð¸Ð¸":6673,"ĠÐ¶Ð¸ÑĤÑĮ":6674,"ĠÐ½Ð°ÑĢÑĥÑĪÐµÐ½Ð¸Ñı":6675,"ĩÐµÑģÑĤÐ²Ðµ":6676,"Ġ45":6677,"ĠÐ²ÐºÐ»ÑİÑĩÐ°ÐµÑĤ":6678,"ĠÑĢÐ°Ð·Ð¾Ð±":6679,"ÐµÐ»ÑĮÐ½Ð¾Ð³Ð¾":6680,"ÑĤÐ¾ÑĢÐ¾Ð½Ð½Ð":6681,"ÐµÑĤÑĢÐ°":6682,"ĠÑįÐ»ÐµÐ¼ÐµÐ½ÑĤÑĭ":6683,"ĠÑģÐºÐ¸Ð´":6684,"ĠÐºÐ²Ð°Ð»":6685,"ĠÐ»ÑİÐ±Ð²Ð¸":6686,"ĠÐ°ÑĤÐ¼":6687,"ĠÐľÐ¾ÑģÐºÐ²Ð°":6688,"ĠÐ¿Ð¾Ð³Ð¸Ð±":6689,"Ġpodczas":6690,"ĠÐ¡Ð¾Ð²ÐµÑĤ":6691,"ÑĥÐ²ÑģÑĤÐ²":6692,"ĠÑĦÑĥÑĤÐ±Ð¾Ð»":6693,"ÐĲÐĹ":6694,"ĠÑĩÐµÑĤÑĭÑĢÐµ":6695,"ĠAu":6696,"ĠÑĦÑĥÐ½ÐºÑĨÐ¸Ð¾Ð½Ð":6697,"ER":6698,"ĠÑĥÑĩÐ°ÑģÑĤÐ½Ð¸ÐºÐ¾Ð²":6699,"ĠÑģÐµÐºÑĥÐ½Ð´":6700,"ĠÑĥÐ¿Ð°ÐºÐ¾Ð²":6701,"Ð°ÑİÑīÐµÐµ":6702,"dzenie":6703,"ĠÐ·Ð½Ð°ÐµÑĤ":6704,"Ð¸ÑĤÐµÐº":6705,"99":6706,"ĠÐ¿Ð¾Ð»ÑĮÐ·Ð¾Ð²Ð°ÑĤÐµÐ»Ñı":6707,"ĠÑĤÐ°ÐºÑĥÑİ":6708,"ĠÐ²ÑĭÑĢÐ°Ñī":6709,"ĠÐ¼Ð½ÐµÐ½Ð¸Ñİ":6710,"ĠÑģÐ¾ÑħÑĢÐ°Ð½Ñı":6711,"ĠÐĿÐ¸Ð¶":6712,"ĠÐŀÐŀÐŀ":6713,"ĠÐ¿Ð¾ÐºÐ¾Ð»":6714,"ĠÐ·Ð»":6715,"ĠÐĴÑĭÑģ":6716,"ĠÑįÐ»ÐµÐºÑĤÑĢÐ¸ÑĩÐµÑģÐº":6717,"ĠÐ²ÑĭÐ·ÑĭÐ²Ð°ÐµÑĤ":6718,"ĠÐ¸Ð¿":6719,"ĠÐ³Ð¾ÑĤÐ¾Ð²Ñĭ":6720,"Ð°Ð»ÑĮÐ½ÑĭÐ¼Ð¸":6721,"ĠÐ´ÑĢÑĥÐ³Ð¾Ð³Ð¾":6722,"ĠÐŁÐ¾Ð¼Ð¸Ð¼Ð¾":6723,"mina":6724,"Ġak":6725,"ĠÐĴÑĭÐ¿":6726,"ĠÐ¿ÑĢÐ¸ÐµÐ¼Ð°":6727,"OS":6728,"ĠÐŀÑģÑĤ":6729,"ĤÐ°ÐºÐ¸":6730,"ĠÑģÐ»ÑĭÑĪ":6731,"Ð¾ÐºÐµ":6732,"Ð¾ÑĨÐ¸":6733,"ĠÑĤÐµÑħÐ½Ð¾Ð»Ð¾Ð³":6734,"ĠÐĵÐ¾Ð»":6735,"lien":6736,"ĠÑģÐµÑĢÐ´ÐµÑĩ":6737,"ĠÐ¾ÑĤÐ»Ð¸ÑĩÐ¸Ðµ":6738,"Ð¾Ð½Ð½ÑĭÑħ":6739,"Ð³Ð°Ð»":6740,"Ð¼ÐµÑĢÑĩÐµÑģ":6741,"ĠÑĪÐºÐ¾Ð»Ñĭ":6742,"niÄħ":6743,"Ġjedno":6744,"ĠwiÄĻc":6745,"ubli":6746,"ĠÐ¸ÑģÐºÐ»ÑİÑĩÐ¸ÑĤÐµÐ»ÑĮÐ½Ð¾":6747,"rom":6748,"Ð°ÑĤÐµÐ»ÑĮÐ½ÑĭÐµ":6749,"µÑĢÑĭÐ²":6750,"ĠÐºÐ¾Ð½Ð´":6751,"ÐµÐ°Ð":6752,"ĠÐĺÑĤÐ°Ðº":6753,"Ð°ÑĩÑĥ":6754,"ĠwiÄĻk":6755,"ÑĤÐ°ÐºÐ¸":6756,"ĠÐ¼Ð¾Ð½":6757,"gÃ³l":6758,"ĠÐ¿ÑĢÐ¾Ð³ÑĢÐ°Ð¼Ð¼Ð°":6759,"ĠÐ¸Ð¼Ð¼Ñĥ":6760,"Ð¾Ð²ÐµÑĤÐ°":6761,"Ð½Ð°Ð¿":6762,"ĠÐ¼ÑĥÐ¶ÑĩÐ¸Ð½Ð°":6763,"ĠÐ´ÐµÐºÐ¾ÑĢÐ°ÑĤÐ¸Ð²":6764,"ĠÑģÑĭÐ":6765,"ĠÐ½Ð°Ð·ÑĭÐ²Ð°ÐµÐ¼":6766,"ĠÐ¿Ð°Ðº":6767,"ĠÐ¾Ð´Ð¸Ð½Ð°Ð":6768,"ĠÐ»Ð¾Ð²":6769,"ĠÐºÐ°ÐºÐ¸Ð¼":6770,"ĠÐ²Ð¾ÑģÐ¿Ð¾Ð»ÑĮÐ·Ð¾Ð²Ð°ÑĤÑĮÑģÑı":6771,"kÅĤada":6772,"ĠPrzy":6773,"ĠÐ¼ÐµÑģÑĤÐ°Ñħ":6774,"ĠUS":6775,"ÑĤÐ°ÑĤÑĭ":6776,"wier":6777,"ÑĤÐ°Ñģ":6778,"ĠÐ²Ð½Ð¸Ð·":6779,"ej":6780,"½Ð¾Ð³Ð¸":6781,"ĠÑģÐºÑĢÑĭ":6782,"ĠÐ²ÑģÐµÐ¼Ð¸":6783,"ĠÐ¿Ð¾Ð·Ð²Ð¾Ð»ÑıÑİÑĤ":6784,"ĠÐ¼ÑĥÐ½Ð¸ÑĨÐ¸Ð¿":6785,"Ð½Ð°ÑĤ":6786,"cznego":6787,"ÐµÑĢÐ¸Ñı":6788,"ÑĤÑĭÐ¼":6789,"ĠÐ¡ÑĢÐµÐ´Ð¸":6790,"ĠÑĥÐ»Ð¸ÑĨÐµ":6791,"ĠÐºÐ¾Ð½ÑĤÑĢÐ¾Ð»Ð":6792,"ĠÐ½ÑĢÐ°Ð²Ð¸ÑĤÑģÑı":6793,"ĠÐ°ÑĤÐ¼Ð¾ÑģÑĦ":6794,"ĠÐ¸Ð¼Ð¸":6795,"ÑĢÐµÐ·Ð¸Ð´":6796,"Ð°Ð½Ð¾Ð¼":6797,"Ð¸ÑĨÑĥ":6798,"ĠÑĩÐµÐ»Ð¾Ð²ÐµÑĩÐµÑģÐº":6799,"ĠÑĤÑīÐ°ÑĤÐµÐ»ÑĮÐ½Ð¾":6800,"Ð½Ð¾Ð³Ð¸":6801,"ĠÐĴÐ°Ð»":6802,"ÑģÑĤÐ²ÐµÐ½Ð½Ð¾Ð³Ð¾":6803,"Ð¾Ð½Ð½ÑĭÐµ":6804,"ĠÐ´Ð²ÐµÑĢÐ¸":6805,"ĠPla":6806,"ÑĳÑĢ":6807,"ĠÐ¸Ð¼ÑĥÑīÐµÑģÑĤÐ²Ð°":6808,"rywa":6809,"Ð½Ð°Ð²":6810,"ĠÐºÐ¾Ð½ÐºÑĥÑĢ":6811,"ĠÑģÐ½ÑıÑĤÑĮ":6812,"ĠÐ²ÑģÑĤÐ°Ð²":6813,"ÐµÑĢÐµÑĩ":6814,"Ġ31":6815,"ĠÐ¿ÑĢÐ¸ÑĩÐ¸Ð½":6816,"ĠÐľÐ¾Ð¶ÐµÑĤ":6817,"ĠÐµÐ²ÑĢÐ¾Ð¿ÐµÐ¹":6818,"ĠÑĥÑĤÐµÐ¿":6819,"ĠÐľÐ¾ÑģÐºÐ¾Ð²":6820,"ĠÑģÐ¾Ð±ÑĭÑĤÐ¸Ñı":6821,"ĠÐ¢Ð°ÐºÐ¾Ð¹":6822,"Ð¾Ð½Ð½ÑĭÐ¹":6823,"ĠÐ¿ÑĢÐ¾ÑĤÐ¸Ð²Ð¾Ð¿":6824,"ĠÐ¿ÑĢÐ¸ÑĩÐ¸Ð½Ð¾Ð¹":6825,"ÐŀÐ±":6826,"ĠÐ¿Ð»Ð°ÑģÑĤÐ¸Ðº":6827,"Ð¼Ð°Ð³Ð°Ð·":6828,"ÑĥÐ»Ñĭ":6829,"ĠÐ¿ÐµÑĢÑģÐ¾Ð½Ð°Ð":6830,"ĠÐŀÐ±ÑĭÑĩÐ½Ð¾":6831,"ĠÐ¾ÑģÐ½Ð¾Ð²Ð°Ð½Ð¸Ð¸":6832,"ĠÐ´Ð¾Ð³":6833,"ĠÐ¾Ð±ÐµÑģÐ¿ÐµÑĩÐµÐ½Ð¸Ñı":6834,"Ġdzieci":6835,"Ġszyb":6836,"):":6837,"ĠÐľÐµÑĤ":6838,"Ġtych":6839,"Ð²Ð°ÑĢ":6840,"ÐĿÐĲ":6841,"ĠÐ°Ð³ÐµÐ½ÑĤ":6842,"Ġx":6843,"ĠÐ´ÐµÐ¿Ñĥ":6844,"Ð³Ð¾ÑĤ":6845,"ĠÑĨÐµÐ½Ðµ":6846,"ÐµÐ½ÑģÐ¸Ð²":6847,"ĠÐ¿Ð¾Ð´Ð¾Ð·":6848,"ĠÐĺÐ½Ð¾Ð³Ð´Ð°":6849,"ĠÐºÐ¾Ð½ÐºÑĥÑĢÐµÐ½":6850,"ĠÑĢÐµÐ°Ð»Ð¸Ð·":6851,"ĠÐºÐ¾Ð¼Ñĥ":6852,"ĠÐ½Ð¾Ð³Ð¸":6853,"ĠÐ·Ð²ÐµÐ·Ð´":6854,"ĠÐĶÐ¼Ð¸ÑĤ":6855,"ÑģÐ¾":6856,"ĠÑģÐ¼ÐµÑĢÑĤÐ¸":6857,"ĠÐ¸ÑģÐ¿Ð¾Ð»ÑĮÐ·Ð¾Ð²Ð°Ð½Ð¸ÐµÐ¼":6858,"Ð½Ð°Ð´":6859,"ÑĳÐ":6860,"Ð¾Ð²Ð°Ð»Ð°":6861,"ĠÑĢÐ°ÑģÑģÐ¼Ð¾ÑĤÑĢ":6862,"ĠÐ½ÐµÐ´Ð²Ð¸Ð¶Ð¸Ð¼Ð¾ÑģÑĤÐ¸":6863,"ĠnaleÅ¼y":6864,"ÑĢÐµÐ»ÑĮ":6865,"].":6866,"Ð°ÑĢÐ¼":6867,"ĠÑĦÑĥÐ½Ð´":6868,"ÑĥÑİÑīÐµÐ³Ð¾":6869,"ĠÑģÐ¾Ð±ÑģÑĤÐ²ÐµÐ½Ð½Ð¾ÑģÑĤÐ¸":6870,"ÑĢÐ¸Ð»":6871,"ÑĤÐ°ÑİÑĤ":6872,"ĠÐ°Ð²Ð³ÑĥÑģÑĤÐ°":6873,"AN":6874,"ĠÐ²ÑĭÐ¿Ð¾Ð»Ð½ÐµÐ½Ð¸Ñı":6875,"ÐµÐ»ÐµÐ½":6876,"Ð¾ÐºÐ¾Ð»":6877,"!!!":6878,"ĠÑĥÑĤÐ¾Ñĩ":6879,"ĠÐ¿ÑĢÐ¾ÑģÐ¼Ð¾ÑĤ":6880,"ÑĮÐµÑĢ":6881,"ĠÐ¿Ð¾ÑĢÑıÐ´Ð¾Ðº":6882,"ĠÑħÐ°ÑĢÐ°ÐºÑĤÐµÑĢÐ¸ÑģÑĤÐ¸ÐºÐ¸":6883,"Ð»Ð°Ð½Ð":6884,"ĠÐ¾Ð±ÐµÑģÐ¿ÐµÑĩÐ¸Ð²Ð°ÐµÑĤ":6885,"¼Ð¾":6886,"ĠÐĿÐµÑģÐ¼Ð¾ÑĤÑĢÑı":6887,"ÑĢÐ°Ð»Ð°":6888,"ĠÐ¿Ð¾Ð»ÑĥÑĩÐ°ÑĤÑĮ":6889,"Ġbe":6890,"ÐµÐµÐ¼":6891,"szta":6892,"ÑģÑĦ":6893,"ĠÐ´Ð¾Ð¼Ð¾Ð²":6894,"ĠÑĤÐ¾Ð»Ñī":6895,"ĠÐ½Ð¾ÑĢÐ¼Ð°":6896,"26":6897,"ĠÑģÐ¾ÑĤÑĢÑĥÐ´Ð½Ð¸ÐºÐ¾Ð²":6898,"ĠÑĢÐ¾Ð´ÑģÑĤÐ²":6899,"ĠÐ±ÑĥÐ´ÐµÐ¼":6900,"ĠÐ´Ð¸Ð·Ð°Ð¹Ð½":6901,"ÐµÐºÐ¾Ð¼ÐµÐ½Ð´":6902,"pera":6903,"ÐĵÐŀ":6904,"glÄħda":6905,"ÐµÐ·Ð¶":6906,"ÑİÑī":6907,"Ð¸Ð±Ð¸ÑĢ":6908,"ĠÐ´Ð²Ð¸Ð³Ð°ÑĤÐµÐ»Ñı":6909,"ĠÑħÑĢÐ¾Ð½Ð¸ÑĩÐµÑģÐº":6910,"ĠÐºÐ¾ÑĢÑĢÐµÐº":6911,"ĠÐ°ÐºÑĤÐ¸Ð²Ð½Ð¾":6912,"ĠÐ¸ÑģÐ¿Ð¾Ð»ÑĮÐ·ÑĥÐµÐ¼":6913,"ÐļÐ°Ðº":6914,"ĠÐ½Ð°Ð¼Ð½Ð¾Ð³Ð¾":6915,"ĠÐ²Ð°ÑĢÐ¸Ð°Ð½ÑĤÑĭ":6916,"ĠÐ±ÑĭÑģÑĤÑĢ":6917,"ĠÑĥÑĩÐµÑĤÐ¾Ð¼":6918,"ÐµÐ½ÑĮÑİ":6919,"ÐĴÐĶ":6920,"ĠiP":6921,"ĠÐ³Ð»ÑĥÐ±Ð¾Ðº":6922,"Ð½Ð¸ÐºÐ°Ð¼Ð¸":6923,"ĠÑĢÐ°Ð·Ð¼ÐµÑĢÐµ":6924,"ÑĤÐ»":6925,"ÐºÐ°ÑĤ":6926,"kami":6927,"ĠÐ½Ð¾ÑĩÑĮ":6928,"ĠÑģÐ²ÐµÑĤÐ»":6929,"ĠÐ½Ð°Ð¿Ð":6930,"kona":6931,"ĠÐłÐµÐ·":6932,"ĠÐ¿ÑĢÐ¾Ð²ÐµÑĢÐ¸ÑĤÑĮ":6933,"ÐµÐ½ÑĭÐµ":6934,"gen":6935,"ĠÐºÐ²Ð°Ð´":6936,"stru":6937,"Ġso":6938,"ĠÐĿÐ°Ð¸Ð":6939,"Ð½ÐµÑĢ":6940,"Ġek":6941,"ĠÐ¿ÑĥÑĤÑĮ":6942,"ĠÐĲÐ¼ÐµÑĢ":6943,"Å¼ej":6944,"ĠÐ¿ÑĢÐµÐ¿Ð°ÑĢÐ°ÑĤÐ¾Ð²":6945,"ĠÐ¾ÑĤÑĢÐ°Ñģ":6946,"fek":6947,"ĠÐ²ÑĭÐ¹":6948,"Ð¾Ð·Ð¸":6949,"cjal":6950,"ÑģÐ¾Ð¼":6951,"ĠÐ½Ð°Ð²Ñĭ":6952,"ĠÐ°Ð²Ð":6953,"ĠÐ³Ð¾Ð»Ð¾Ð²Ñĥ":6954,"ĠÐ¸Ð·Ð±Ð°Ð²Ð¸ÑĤÑĮÑģÑı":6955,"ĠÑģÑĢÐ¾ÐºÐ¸":6956,"Ġ2012":6957,"ÑĢÐ°Ð½ÑĨÑĥÐ·":6958,"ĠÐ·Ð°Ð½Ð¸Ð¼Ð°ÑĤÑĮÑģÑı":6959,"ĠÐ±Ð¾Ð»ÑĮÑĪÑĥÑİ":6960,"Ð»ÑıÑĤÑĮÑģÑı":6961,"ĠÐ£ÐºÑĢÐ°Ð¸Ð½Ðµ":6962,"ĠÐ±ÐµÑĢÐµÐ":6963,"ĠÐ¡Ð¿ÐµÑ":6964,"ĠÐĿÐĲ":6965,"ĠÐ»ÑİÐ±Ð¾Ð²ÑĮ":6966,"rzenia":6967,"Ð¾Ð¸Ð¼Ð¾ÑģÑĤÑĮ":6968,"ĠÑĢÐµÐºÐ»":6969,"ÑĢÐµÑĨ":6970,"ÑĥÑį":6971,"ĠÐ´ÑĢÑĥÐ¶":6972,"ĠzÅĤo":6973,"cjÄħ":6974,"ĠÑħÐ¾ÑĩÐµÑĤÑģÑı":6975,"ĠÐĶÐ¾Ð¼":6976,"ĠÐ±Ð¾Ð»ÑĮÑĪÐ¸Ñħ":6977,"ĠÐŁÑĥ":6978,"ĠÐ½Ð°Ð¿Ð¸":6979,"Ġzapew":6980,"ĠÑģÐ²Ð¾Ð¹ÑģÑĤÐ²Ð°":6981,"ĠÐ¾Ð±Ð»ÐµÐ³":6982,"ĠÐ³ÐµÐ¼":6983,"ĠÐ´Ð¸Ð°Ð¼":6984,"Ġonline":6985,"ÑĭÐ½Ð¾Ðº":6986,"ĠÐ²ÐµÐ»Ð¸Ñĩ":6987,"rek":6988,"¾ÑĤÐ½Ð¾ÑĪ":6989,"ĠLa":6990,"ĠÐ¤ÐµÐ´ÐµÑĢÐ°Ð»ÑĮ":6991,"ĠÐ»Ð¸ÑĨÐµÐ½Ð·":6992,"ĠÐºÑĥ":6993,"chu":6994,"ÑĤÑĢÐ¾Ð¹":6995,"ĠÐ¾ÑģÐ½Ð¾Ð²Ð½Ð¾Ð¹":6996,"ĠÐ¿Ð¸ÑĤÑĮ":6997,"ĠÐºÐ»Ð¸Ð½Ð":6998,"ĠÑĢÐ°Ð·Ð´ÑĢÐ°Ð¶":6999,"ĠÐ¿Ð»Ð°Ð²":7000,"ĠÐ·Ð°ÑĢÐ°Ð½ÐµÐµ":7001,"ĠÐŁÑĢÐ¾ÑĨ":7002,"ĠÐ¾ÑĤÐºÐ»ÑİÑĩ":7003,"ĠÐĴÐ¾Ð·Ð¼Ð¾Ð¶Ð½Ð¾":7004,"Ġ$":7005,"ĠÑģÑĩÐ°Ñģ":7006,"ĠÑģÐ»Ð¾Ð¹":7007,"ĠmoÅ¼liwo":7008,"ĠCz":7009,"ÅĤÄĻ":7010,"ÑıÑģÐ½Ñı":7011,"ĠÑĢÐ¾Ð¶Ð´":7012,"Ġtwo":7013,"ĠÐºÐ¾Ð¼Ð½Ð°ÑĤÑĭ":7014,"ĠÑĢÐ°ÑģÑĩ":7015,"ĠÐ´Ð¾Ð¿ÑĥÑģÐº":7016,"ĠÐĴÐ¸Ðº":7017,"Ð¾Ð½Ñģ":7018,"ĠÑģÐ¿ÐµÑĨÐ¸Ð°Ð»Ð¸ÑģÑĤ":7019,"ĠÑģÑĤÐ¾Ñı":7020,"sÅĤa":7021,"rwa":7022,"ĠÐ±Ð°Ð½ÐºÐ°":7023,"ĠÐ¿Ð¾Ð¿ÑĢÐ¾Ñģ":7024,"ĠÐ´ÐµÑĤÐ°Ð»":7025,"ĠÐ¿Ð¾Ð»ÑĥÑĩÐ°ÐµÑĤÑģÑı":7026,"ĠÐ§ÐµÑĢÐµÐ·":7027,"ĠÑĤÐµÐ»Ð¾":7028,"ĠÐ¾Ð±Ð¾ÑĢÑĥÐ´Ð¾Ð²Ð°Ð½Ð¸Ðµ":7029,"ĠÐĴÑĤÐ¾ÑĢ":7030,"Ð¸ÑĤÐ°Ð»":7031,"arÃ³w":7032,"Ð½ÑĥÑĤÑĮ":7033,"ĠÐ±ÑĥÑĤ":7034,"ĠÐ»Ð¸ÑĤ":7035,"ÅĽwiad":7036,"jemy":7037,"Ð½Ð¸ÑĩÑĤÐ¾Ð¶":7038,"ĠÐ¾ÑģÐ¾Ð±ÐµÐ½Ð½Ð¾Ñģ":7039,"ĨÐ¸Ð¾Ð½Ð½Ð¾Ð¹":7040,"ĠpeÅĤ":7041,"god":7042,"Ð¸ÑīÐ¸":7043,"ĠÐ½Ñĭ":7044,"ÑĤÐµÐº":7045,"Ð¾Ð´Ð°ÑĢ":7046,"Å¼o":7047,"Ġad":7048,"ÑĤÐ¾Ð¹":7049,"ĠÑĥÑģÑĤÑĢÐ¾Ð¹ÑģÑĤÐ²":7050,"ÑīÐ¸ÐºÐ°":7051,"ĠÐ¼Ð¸Ð½Ðµ":7052,"ĠÐ¿ÑĢÐ¾Ð¹ÑĤÐ¸":7053,"ĠÐºÐ¾Ð¼Ð°Ð½Ð´Ñĭ":7054,"ĠÑįÐºÑģÐº":7055,"ĠÑģÑĤÐ¸Ð»Ðµ":7056,"ĠÐĹÐ°Ð¼":7057,"Ð½Ð°Ð±Ð¶":7058,"ĠÐ±Ð¾Ð»ÑĮÑĪÐ°Ñı":7059,"ĠÐ½ÐµÐ¾Ð±ÑħÐ¾Ð´Ð¸Ð¼ÑĭÐµ":7060,"ĠÐ¿Ð¾Ð´Ð´ÐµÑĢÐ¶ÐºÐ¸":7061,"ĠÐ¡ÐµÑĢÐ³ÐµÐ¹":7062,"ĠÐ¿ÑĢÐµÑĤ":7063,"ĠÐ´Ð²ÑĥÐ¼Ñı":7064,"¾Ñī":7065,"ĠÑħÑĢÐ°Ð½ÐµÐ½Ð¸Ñı":7066,"ĠNaj":7067,"05":7068,"ĠÐ¿Ð¾Ð´Ð½Ð¸Ð¼":7069,"ĠÑĪÐºÐ¾Ð»":7070,"ĠÐ¿Ð¾ÑģÐ»ÐµÐ´ÑģÑĤÐ²Ð¸Ñı":7071,"Ġne":7072,"ĠÅĤa":7073,"Ġosta":7074,"ĠÑģÐ¾Ð¶Ð°Ð»ÐµÐ½Ð¸Ñİ":7075,"ÐºÐ°ÑĢ":7076,"ĠÐ¡Ð¸Ð¼":7077,"Ð¾ÑĢÑĥ":7078,"ĠÐ¾Ð±ÑĥÑĩÐµÐ½Ð¸Ñı":7079,"ĠÑĪÐ°ÑĢ":7080,"ĠÐºÐ°ÑĦ":7081,"ĠÑģÐ»Ð¸Ð·":7082,"Ð¿Ð¾":7083,"ĠÐĺÐ½Ð´":7084,"Ð°Ð¶ÐµÐ¼":7085,"¸ÑģÑĤÑĢ":7086,"ĠÐ·Ð°ÑģÐµÐ´":7087,"Ð¸ÑģÑĤÐ°":7088,"ĠÐºÐ°Ð½Ð´":7089,"ĠAl":7090,"ĠÐ¼ÑĥÑģ":7091,"ĠÑĤÐµÐ»ÐµÑĦÐ¾Ð½Ð°":7092,"ĠmÃ³wi":7093,"ĠÐ±ÑĢÐ°ÑĤÑĮ":7094,"Ġposta":7095,"ĠÐ½Ð°ÑĩÐ¸Ð½Ð°ÐµÑĤÑģÑı":7096,"ĠÐºÐ¾Ð»ÑĮ":7097,"Ġsprze":7098,"Ð¾ÑĢÐ¾Ð¼":7099,"ĠÐ¾ÑĤÐ¼ÐµÑĤÐ¸Ð»":7100,"Ð°ÑĤÐµÐ»ÑĮÑģÑĤÐ²Ð°":7101,"ĠÐºÐ°ÑĤÐ°Ð»":7102,"ĠÐ²Ð¾Ð¿ÑĢÐ¾ÑģÐ¾Ð²":7103,"Ð°ÑĤÐµÐ»ÑĮÐ½ÑĭÑħ":7104,"ĠÐ¼Ð°Ð½Ð¸Ð":7105,"ÑģÑĤÐ²ÐµÐ½Ð½ÑĭÑħ":7106,"Ġpoli":7107,"ĠÐ¾Ð±ÑīÐµÐ³Ð¾":7108,"czywi":7109,"ex":7110,"ĠÐ·ÐµÐ¼Ð»Ð¸":7111,"ĠktÃ³rych":7112,"ÑĤÐºÐ°Ñħ":7113,"ÑĢÐ¾Ð²Ð°":7114,"ĠÐ¿Ð¾ÑģÑĤÐµÐ¿ÐµÐ½Ð½Ð¾":7115,"ĠÐ·Ð´Ð¾ÑĢÐ¾Ð²ÑĮÐµ":7116,"Ð½Ð°Ñī":7117,"Ð¾ÑĤÐ¾Ð²":7118,"ĠÑģÐ¿ÐµÑĨÐ¸Ð°Ð»Ð¸ÑģÑĤÐ¾Ð²":7119,"ĠÐ¿ÐµÑĢÑģÐ¿ÐµÐº":7120,"ĠÑħÐ¾Ð»Ð¾Ð´Ð¸Ð»ÑĮ":7121,"ĠÐķÐ´":7122,"ĠÐłÐµÐºÐ¾Ð¼ÐµÐ½Ð´":7123,"ĠÐ²ÑĭÐ´ÐµÑĢÐ¶":7124,"¸ÑĢÑĥÐµÑĤ":7125,"ÑĢÐµÐ·Ð°ÑĤÑĮ":7126,"ĠÐ²Ðµ":7127,"ĠÐ¾ÐºÐ½Ð°":7128,"ÐµÐ»ÑĮÐ½ÑĭÐµ":7129,"ĠÐ±Ð¾ÐµÐ²":7130,"ĠÐ¼ÐµÑĤÐ¾Ð´Ñĭ":7131,"ĠÐļÑĥÐ¿Ð¸ÑĤÑĮ":7132,"ĠÐ¿ÐµÑĢÐµÑģÑ":7133,"ĠÐ²ÐµÑĢÑģÐ¸Ð¸":7134,"ĠÐ½Ð°ÑĩÐ°Ð»ÑĮ":7135,"ĠÑĢÐµÑģÑĤÐ¾":7136,"ĠÐ¿Ð°Ð¼ÑıÑĤÐ¸":7137,"bÄĻ":7138,"ĠÑģÐ¾Ð»Ð½ÐµÑĩ":7139,"onu":7140,"hone":7141,"Ġkla":7142,"ÐµÐ±Ð":7143,"ĠÐŁÐ¾Ð´ÑĢÐ¾Ð±":7144,"ĠÑģÐ¿ÐµÑĨÐ¸Ð°Ð»Ð¸ÑģÑĤÑĭ":7145,"Ð¢ÐĲ":7146,"ĠÐ·Ð°Ð´ÑĥÐ¼":7147,"ĠÐ±Ð¾Ð»ÑĮÑĪÐ¸Ð½ÑģÑĤÐ²Ðµ":7148,"27":7149,"ĠÐ¡ÐµÐ¼":7150,"Ð¸Ð»Ð»":7151,"Ð°Ð²ÑĪÐ¸Ñħ":7152,"ĠÐ¶Ð¸Ð´ÐºÐ¾ÑģÑĤÐ¸":7153,"Ð¾ÑĢÐ¾ÑĤÐ":7154,"03":7155,"ĠÐ²Ð·ÑĢÐ¾ÑģÐ»ÑĭÑħ":7156,"ĠÐºÐ¾Ð½ÑĨÐµÐ½ÑĤ":7157,"ĠÐ¸Ð¼ÐµÐµÑĤÑģÑı":7158,"ĠÐ¾Ð±ÐµÑģÐ¿ÐµÑĩÐ¸ÑĤÑĮ":7159,"ĠÑĨÐµÐ½ÑĤÑĢÐ°":7160,"Ð¾Ð½Ð°Ð¼Ð¸":7161,"Ġnau":7162,"ĠÐºÐ°ÑĢÑĤ":7163,"trz":7164,"ĠÐºÐ¾Ð½ÑĦÐ»Ð¸Ðº":7165,"Ġfunk":7166,"ĠÐ¿Ð»Ð°ÑĤÑĮ":7167,"ĠQ":7168,"ĠÐ·Ð°Ð³ÑĢÑĥÐ·":7169,"ĠAp":7170,"ĠÑģÑĭÑĢ":7171,"ĠÐ²ÑĭÑıÑģ":7172,"Ð¾ÑģÑĤÑĥÐ¿":7173,"ÑĭÑĤÑĮ":7174,"ĠÐ½ÐµÑ":7175,"ĠÐĺÐ»Ð¸":7176,"ĠÐĺÑĢ":7177,"ÅĤoÅĽci":7178,"ºÑĨÐ¸Ñı":7179,"ĠÑĢÐ°ÑģÑĤÐµÐ½Ð¸Ð¹":7180,"ĠÐŀÐ´Ð¸Ð½":7181,"Ð»ÑıÑı":7182,"ĠÐ¿Ð¾Ð¶Ð°Ð»ÑĥÐ¹":7183,"ĠÐ°ÐºÑĤ":7184,"ĠÐ£Ð·":7185,"ĠÐ»ÑİÐ±ÑĭÐµ":7186,"ĠÑĦÐ¾ÑĤÐ¾Ð³ÑĢÐ°ÑĦÐ¸Ð¸":7187,"ĠÑĢÐ°ÑģÑĤÐ¸ÑĤÐµÐ»ÑĮ":7188,"Ġinnych":7189,"ĠÐµÐ¼":7190,"ĠÐ´Ð¾Ð¶Ð´":7191,"ĠÑģÑĥÐ¼Ð¼Ñĭ":7192,"ĠÐ²ÐºÑĥ":7193,"ĠÐ¿Ð¾Ð´ÑĥÐ¼":7194,"ĠÐ¿Ð¾ÑıÐ²Ð»ÑıÐµÑĤÑģÑı":7195,"ĠÑģÐ¾Ð±ÑĢÐ°Ð½Ð":7196,"Ġzach":7197,"dej":7198,"ĠÑĥÑĩÐ¸ÑĤÑĭÐ²Ð°ÑĤÑĮ":7199,"nii":7200,"ĠÑĥÑģÐ¿ÐµÑħ":7201,"ĠÐ²Ð°ÑĪÐ¸Ñħ":7202,"ĠÐ½Ð°Ð·ÑĭÐ²Ð°ÑİÑĤ":7203,"ĠÐ¿Ð¾ÑģÐµÐ»":7204,"fo":7205,"che":7206,"ĠDla":7207,"ĠusÅĤu":7208,"ÑĢÐ°Ð»ÑĮÐ½ÑĭÐ¹":7209,"ÑĪÐµÑģÑĤÐ²":7210,"ĠÑģÐ½Ð°":7211,"ĠÐ°ÑĥÐ´Ð¸":7212,"ĠÑıÐ±Ð»":7213,"Ð¾Ð»ÐµÑĤ":7214,"ĠÐ´Ð°Ð²Ð»ÐµÐ½Ð¸Ñı":7215,"ĠÑģÐ¾ÑĤÑĢÑĥÐ´Ð½Ð¸Ñ":7216,"ĠÐºÐ°Ð¶Ð´Ð¾Ð¼":7217,"ĠÑĥÐ½Ð¸Ð²ÐµÑĢÑģ":7218,"ĠÐ¿Ð¾Ð»ÑĮÐ·Ð¾Ð²Ð°ÑĤÑĮÑģÑı":7219,"ĠII":7220,"ĠÑĩÐ¸ÑĤÐ°ÑĤ":7221,"ĠÐ¼ÐµÑĢÑĭ":7222,"ĠÐ¾Ð±Ð¾Ð·Ð½Ð°Ñĩ":7223,"Ð¾ÑĢÐ¾Ð³":7224,"cen":7225,"Ġzale":7226,"ÑĥÑģÑĤÑı":7227,"ĠÐ¸ÑģÑĩÐµÐ·":7228,"ÐĽÐ¬":7229,"Ġkre":7230,"ĠÐ¿ÑĢÐµÐ¿Ð°ÑĢÐ°ÑĤÐ°":7231,"ĠÐ½Ð°Ð¿ÑĢÐ°Ð²Ð»ÐµÐ½Ð¸Ñı":7232,"ĠÐ½Ð°Ð¼Ð¸":7233,"Ð°ÑĤÐµÐ»Ñİ":7234,"ĠÑģÐµÑĢÐµÐ´":7235,"czki":7236,"ĠÐ³Ð¾ÑģÑĥÐ´Ð°ÑĢÑģÑĤÐ²ÐµÐ½Ð½Ð¾Ð¹":7237,"Ð½ÑİÑİ":7238,"ĠÑĤÐ²ÐµÑĢÐ´":7239,"ĠÐ½ÐµÐ´ÐµÐ»ÑĮ":7240,"ĠÐ´Ð°Ð²Ð»ÐµÐ½Ð¸Ðµ":7241,"wÃ³j":7242,"28":7243,"ĨÐ¸Ð¾Ð½Ð½ÑĭÑħ":7244,"½ÑĥÐ»ÑģÑı":7245,"oru":7246,"ĠÐ±ÑĥÑħ":7247,"ĠÐ¾ÑģÐ»Ð¾Ð¶":7248,"ĠÐ²Ð¿ÐµÑĢÐ²ÑĭÐµ":7249,"ĠÑĤÐ²Ð¾ÑĢÑĩÐµÑģ":7250,"ĠÐ»ÑĥÑĩÑĪÐ¸Ðµ":7251,"owanych":7252,"Ġnich":7253,"ĠÐ¸Ð·Ð¼ÐµÑĢ":7254,"ĠÐ¿Ð¾ÐºÐ°Ð·ÑĭÐ²":7255,"ĠÐŀÑĢ":7256,"roid":7257,"Ġkobie":7258,"ĠÐ´Ð°ÑĤ":7259,"ĠÐłÐ°ÑģÑģ":7260,"ĠÐºÐ¾ÑĤÐ¾ÑĢÐ¾Ð¼Ñĥ":7261,"ĠÑįÐ½ÐµÑĢÐ³Ð¸Ð¸":7262,"AR":7263,"ĠÐ¿Ð¾ÑģÑĢÐµÐ´":7264,"Ġsi":7265,"ÑĤÑıÐ¼":7266,"ĠÐ¿Ð¸ÑīÐ¸":7267,"ĠÐ³ÑĢÐ°Ð´ÑĥÑģÐ¾Ð²":7268,"ĠÐ¾Ð±ÑīÐµÐ¼":7269,"ĠÑĤÐµÐ¼Ð¿ÐµÑĢÐ°ÑĤÑĥÑĢÐ°":7270,"ĠÐ¼Ð°Ð»Ñĭ":7271,"ÑĮÐ¼Ð¸":7272,"ĠCa":7273,"Ð¸Ð²Ð°Ð»":7274,"ÑĤÐ¾ÑĢÐ¾Ð¶":7275,"ĠÐ¸Ð³ÑĢÑĥÑĪ":7276,"Ð¸Ð½ÐµÐ½Ð¸Ðµ":7277,"Ð»ÐµÐ½Ð½Ð¾Ð¹":7278,"Ġgdzie":7279,"Ġkilka":7280,"Ġ>":7281,"ĠÐ´ÐµÑĤÐ°Ð»Ð¸":7282,"ĠÑĦÐ¾Ð½Ð´":7283,"Ð¾ÑĢÐ°Ñĩ":7284,"Ð°ÑİÑīÐ¸Ð¼Ð¸":7285,"czna":7286,"ÐµÑĢÐ°Ñħ":7287,"ĠÐ¾Ð±ÑīÐµÑģÑĤÐ²Ð°":7288,"Ġauto":7289,"ĠÑģÐµÑĢÐ´ÑĨÐ°":7290,"ĠÐĵÐ":7291,"ĠÐ¿Ð¾ÑħÐ¾Ð¶":7292,"ĠÐ°Ð½Ð°Ð»Ð¾Ð³Ð¸Ñĩ":7293,"ĠÑĩÐµÑģ":7294,"ĠÐĺÐ½Ð":7295,"Ġat":7296,"ÑĢÐ¾ÐºÐ¸":7297,"ĠÑĤÐ¾Ð²Ð°ÑĢÐ":7298,"ĠÐ½ÑĥÐ¶ÐµÐ½":7299,"ÐºÐ¸Ð½":7300,"ĠÐ²ÑĭÐ¿Ð¾Ð»Ð½ÑıÑĤÑĮ":7301,"ĠÐ²Ð¾Ð·Ð´ÑĥÑĪ":7302,"ĠÐ²ÐµÐ½ÑĤÐ¸Ð»":7303,"ĠJed":7304,"ĠÐĴÐ¼ÐµÑģ":7305,"Ġ2022":7306,"ÑĤÐµÑĢÐ½Ð°":7307,"ĠÐ¸Ð·Ð»":7308,"ĠÐ¿ÑĢÐ¾ÑģÑĤÐ¸ÑĤÑĥ":7309,"ĠÐĺÐ½ÑĤÐµÑĢÐ½ÐµÑĤ":7310,"ĠÑĤÐµÐ¼Ñĥ":7311,"ĠÑģÐ»Ð¸Ð²":7312,"¸ÑĢÐ°":7313,"ĠÐºÐ°ÐºÐ¾Ðµ":7314,"Ð¾Ð¼Ð¿":7315,"ĠÑģÐ¾ÐºÑĢÐ°Ñī":7316,"Ð¸Ð´Ð°":7317,"Ð¾ÑĢÑĤÐ¸Ð¼":7318,"ĠÑĢÑı":7319,"ĠÐ´Ð¸Ð½Ð°Ð¼":7320,"ĠÐ½ÐµÑĩ":7321,"ĠÐĳÐµÑģÐ¿":7322,"dzin":7323,"ÑĢÐ¸Ð¿":7324,"ĠÑĢÐ°ÑģÑģÐºÐ°Ð·ÑĭÐ²":7325,"ĠÐ¼Ð»Ð°Ð´":7326,"amiÄĻ":7327,"ĠÑĢÐ¸ÑģÑĥÐ½Ð":7328,"ĠÑıÐ·ÑĭÐº":7329,"ĠÑģÑĥÐ¼Ð¼Ð°":7330,"ĠÐ¿Ð»Ð¾ÑīÐ°Ð´Ð¸":7331,"ĠÑĪÐºÐ°ÑĦ":7332,"ĠÐŁÑĢÐ¸Ð²":7333,"Ġinternet":7334,"ĠÐ²ÑħÐ¾Ð´Ð¸ÑĤ":7335,"ĠÐ¾Ð¿Ð»Ð°ÑĤÑĭ":7336,"ĠÐ¼Ð°ÑĤÐµÑĢ":7337,"ĠÑĢÐµÑĪÐ¸ÑĤÑĮ":7338,"Ð¾Ð½Ð°Ñĩ":7339,"Ġzdr":7340,"ĠÑĤÐ°Ð±Ð»":7341,"ĠÐ¿ÑĢÐ°Ð²Ð¸ÑĤÐµÐ»ÑĮ":7342,"**":7343,"wsze":7344,"ĠÐºÐ¾Ð²":7345,"ĠÑģÐ¿Ð¾ÑģÐ¾Ð±ÑģÑĤÐ²ÑĥÐµÑĤ":7346,"ÐµÐ½Ð°Ð¼Ð¸":7347,"ĠÐ²ÐµÑģÐ":7348,"Ġnam":7349,"Ð¸Ð±Ð»Ð¸Ð":7350,"Ð½Ð¸ÑĨÑĥ":7351,"ĠÐ¿Ð¾Ð":7352,"¸ÑĦ":7353,"ĠÐ¿Ð¾Ð·Ð½Ð°ÐºÐ¾Ð¼":7354,"Ð°Ð¸Ð½ÑĤÐµÑĢÐµÑģ":7355,"%,":7356,"ĠÑģÐ²ÐµÐ´ÐµÐ½Ð¸Ñı":7357,"ĠÐ·Ð°ÑıÐ²Ð»ÐµÐ½Ð¸Ñı":7358,"ĠÐ£Ð²":7359,"ezpie":7360,"Ġkar":7361,"ĠÑĩÐµÐ¼Ñĥ":7362,"ĠÐ¿Ð°ÑĢÐ°Ð¼ÐµÑĤ":7363,"ĠÐ¼ÑĭÑģÐ»":7364,"owana":7365,"Ġsze":7366,"stÄħ":7367,"ĠÑģÑĤÐ¸Ñħ":7368,"Ð¾Ð²Ð°ÑĤÑĮÑģÑı":7369,"ĠÐ°Ð²Ð¸":7370,"Ð»Ð°ÑĤÐ¸ÑĤÑĮ":7371,"ĠÑĢÐ°ÑģÐ¿ÑĢÐµÐ´ÐµÐ»":7372,"ĠÑģÑĤÑĢÐ°ÑĪ":7373,"ĠÐ¾ÑĦÐ¾ÑĢÐ¼Ð¸ÑĤÑĮ":7374,"ĠÐ¿ÑĢÐ¾ÑĤÐ":7375,"ĠÐ¿Ð»Ð¾ÑħÐ¾":7376,"ĠÐ¼Ð°Ð¹":7377,"Ġ150":7378,"ĠÐ¿Ð¾ÑģÐ¾Ð±":7379,"ĠÐ²Ð°ÑĢÐ¸Ð°Ð½ÑĤÐ¾Ð²":7380,"ĠÑĩÐµÐ»Ð¾Ð²ÐµÐºÑĥ":7381,"Ð°Ð»Ð¸Ð´":7382,"ĠÐ½Ð°ÑĢÑĥÐ¶":7383,"³Ð¾ÑĢÐ¾Ð´":7384,"ĨÐ¸Ð¾Ð½Ð½Ð¾Ð³Ð¾":7385,"ĠÐ¾ÑĢÐ³Ð°Ð½Ð¸Ð·Ð°ÑĨÐ¸Ð¹":7386,"ĠÐ´Ð°ÑİÑĤ":7387,"ĠÐ¾ÑĤÐ²ÐµÑĤÑģÑĤÐ²ÐµÐ½Ð½Ð¾ÑģÑĤÐ¸":7388,"ĠÑģÐ¼Ð¾Ð³ÑĥÑĤ":7389,"ĠÐ¶Ð¸ÑĤÐµÐ»ÐµÐ¹":7390,"ÐµÐ¶Ð¸":7391,"ĠÐ¿Ð¸":7392,"Ð±Ð¾Ð»":7393,"Ð°Ð½ÐºÐ¸":7394,"ĠÐ¿ÐµÑĢÐµÐ²Ð¾Ð·":7395,"ĠÐ±ÑĢÐ°ÑĥÐ·":7396,"ÐµÐ½ÐµÑĢÐ":7397,"tua":7398,"ĠÐ¼Ð°Ð³Ð°Ð·Ð¸Ð½":7399,"ĠÑĥÐ½Ð¸ÑĩÑĤÐ¾Ð¶":7400,"ĠÐ»ÑİÐ±Ð¾Ðµ":7401,"ĠÐĿÑĥÐ¶Ð½Ð¾":7402,"ĠÑģÑĢÐ°Ð²Ð½ÐµÐ½Ð¸Ñİ":7403,"ĠÐ¿ÑĢÐ¾Ð¿Ð¸Ñģ":7404,"ĠÐ¿Ð¾Ð»Ðµ":7405,"ĠÐ¸ÑģÑĤÐ¾ÑĢÐ¸Ñı":7406,"Ð½Ð¾Ð²ÑĮ":7407,"ĠÐ½ÑĥÐ¶Ð½Ñĭ":7408,"ĠÐ¾Ð¿ÑĥÐ±Ð»Ð¸ÐºÐ¾Ð²":7409,"ĠÐ¿Ð¾ÑģÑĤÐ°Ð²Ð¸ÑĤÑĮ":7410,"Ġprzypadku":7411,"ĠÐ´ÐµÑĤÑıÐ¼":7412,"ÐµÑĢÐºÐ":7413,"ÑĢÐ°Ð½ÐµÐ½Ð¸Ðµ":7414,"Ġmnie":7415,"ĠÐ±ÑĥÐºÐ¼ÐµÐºÐµÑĢ":7416,"tku":7417,"vo":7418,"ĠÑĤÑĢÐµ":7419,"ĠÑĥÐ±ÐµÐ´":7420,"ĠÐºÐ²Ð°ÑĢÑĤÐ¸ÑĢÐµ":7421,"ĠÐ¾ÑĢÐ³Ð°Ð½Ð¸Ð·Ð¼Ðµ":7422,"Ð½Ð°Ð»ÑĮ":7423,"ĠÐ¾Ð±ÑĬÐµÐºÑĤÐ¾Ð²":7424,"ĠÐĲÐ»ÑĮ":7425,"czni":7426,"ÐµÐ²Ð°Ñı":7427,"ĠÐºÐ¾ÑĤÐ¾ÑĢÑĭÐ¼Ð¸":7428,"ĠÐ´ÐµÑĢÐµÐ²Ð°":7429,"ÑīÐ¸ÐºÐ¾Ð²":7430,"ĠÐ°ÑĢÑħÐ¸ÑĤÐµÐº":7431,"ĠÐ²Ð¿ÐµÑĢÐµÐ´":7432,"ÑħÐ¸":7433,"ĠÐ½Ð°ÑģÐºÐ¾Ð»ÑĮÐºÐ¾":7434,"ÑĨÐ°ÑĤÑĮ":7435,"ĠÐĶÐµÐ½ÑĮ":7436,"ĠÐ·Ð´Ð°Ð½Ð¸Ñı":7437,"±Ð":7438,"ĠÐ¡Ð¾Ð´ÐµÑĢÐ¶":7439,"ĠÐ¾ÑĦÐ¸Ñģ":7440,"ĠÐ¸Ð½ÑĤÐµÐ½ÑģÐ¸Ð²":7441,"ĠÐ¸Ð³ÑĢÑĥ":7442,"ĠÐ¦ÐµÐ½Ð°":7443,"Ð¾Ð»Ð¾Ð³Ð¸":7444,"ĠÐ¾ÑģÐ½Ð°Ñī":7445,"ĠÐ¾Ð±ÑīÐµÐ¹":7446,"ĠÐ²Ð¾Ð´Ðµ":7447,"ĠÐºÐ°Ð»ÑĮ":7448,"ÑĪÐ¸Ð¼Ð¸":7449,"ĠÐ°Ð²ÑĤÐ¾Ð¼Ð¾Ð±Ð¸Ð»ÐµÐ¹":7450,"Ð²Ð¸Ð½":7451,"ĠÐĺÑģÐ¿Ð¾Ð»ÑĮÐ·":7452,"Ġmusi":7453,"ÑİÐ¼":7454,"ĠÑıÐ´":7455,"Ð¿Ð¾Ð½":7456,"ÑĤÐ²Ð":7457,"ĠÑħÐ²":7458,"Ð¸ÑĨÐµÐ¹":7459,"Ð¾Ð½ÑĤÐ°Ðº":7460,"www":7461,"ĠktÃ³rzy":7462,"ÑĤÐ¾ÑıÐ½Ð¸Ðµ":7463,"ÑĨÐµÐ½ÑĤ":7464,"Ġpar":7465,"ĠÐ²ÑıÐ·":7466,"ĠÑĤÐ¾Ð¿Ð»Ð¸Ð²Ð":7467,"ĠÐ·Ð½Ð°Ð½Ð¸Ñı":7468,"rud":7469,"ĠÑĦÑĥÐ½ÐºÑĨÐ¸Ð¾Ð½Ð°Ð»ÑĮ":7470,"ĠÐ½ÐµÑģÐ¼Ð¾ÑĤÑĢÑı":7471,"Ð¾Ð»Ð¾Ð³Ð¸ÑĩÐµÑģÐºÐ¸Ðµ":7472,"ĠÐ½ÐµÐ¸Ñģ":7473,"ÑĦÐ°":7474,"ÑĨÐ¸":7475,"ĠkaÅ¼dy":7476,"mach":7477,"ĠÑĢÐµÑĪÐ¸Ð»Ð¸":7478,"ron":7479,"Ġdzi":7480,"ÑĢÐ¸Ð":7481,"ĠÐĶÐ°Ð²":7482,"ÑĥÐ»ÐºÐ°Ð½":7483,"Ġoko":7484,"Ġtre":7485,"Ð½Ð¸Ð¼Ð¸":7486,"ĠÐ¼Ð¾Ð¶ÐµÐ¼":7487,"Ġcy":7488,"ÑĢÑĥÑĤ":7489,"Ð¾Ð½Ð½Ð¾Ð¹":7490,"ÑĤÐ¸Ð»ÑģÑı":7491,"Ð¼Ð½Ð¾Ð¶":7492,"lan":7493,"ĠÑĢÐ°Ð±Ð¾ÑĤÐ½Ð¸Ðº":7494,"ĠÐ²Ð¸Ð´Ñĥ":7495,"ĠÐ¿Ð¾Ð»Ð½Ð¾Ð¹":7496,"pisa":7497,"bar":7498,"Ð²Ñĥ":7499,"ĠÐ¿ÑĢÐ¾Ð³Ð½Ð¾Ð·":7500,"ĠÐºÑĢÐ°Ð¹Ð½Ðµ":7501,"Ð°Ð·Ð°Ð»Ð¾ÑģÑĮ":7502,"ĠÐ¿Ð¾Ñį":7503,"ĠjeÅĽli":7504,"ĠÐ¼Ð¸Ñģ":7505,"ĠÐ´Ð¾Ð¿Ð¾Ð»Ð½Ð¸ÑĤÐµÐ»ÑĮÐ½ÑĭÐµ":7506,"ÐºÐ°Ð·":7507,"ĠÑģÐ»Ð¾":7508,"Ġsystem":7509,"ĠÐ¿Ð»Ñı":7510,"ĠÐ³ÑĢÑıÐ·":7511,"ĠÐºÐ¸ÑĤÐ°Ð¹":7512,"ĠÑģÑĩÐ¸ÑĤÐ°ÑİÑĤ":7513,"ĠÐ¸Ð´Ðµ":7514,"ĠÐ¸Ð½ÑĤÐ¸Ð¼":7515,"ĠÐ¾Ð±ÑģÐ»ÐµÐ´":7516,"ĠÐ°ÐºÐºÑĥÐ¼ÑĥÐ»Ñı":7517,"ĠWe":7518,"biera":7519,"ĠwÅĤas":7520,"Ð¾ÑĩÐ½Ð¾Ð³Ð¾":7521,"ÑĭÐ²Ð°ÑĤÑĮÑģÑı":7522,"ĠÐ¿ÑĢÐ¸Ð¼ÐµÐ½ÐµÐ½Ð¸Ðµ":7523,"zd":7524,"ĠSp":7525,"ĠÐ¿ÑĢÐµÐ´ÑĭÐ´ÑĥÑī":7526,"ĠÑħÐ²Ð°ÑĤ":7527,"Ð¾Ð¹Ð´ÑĥÑĤ":7528,"ĠÐ²ÑĢÐ°ÑĩÐ°":7529,"ÑĢÐµÐ·Ð²":7530,"ÐµÐ·Ð":7531,"ĠÑĥÑĩÐ°ÑģÑĤÐºÐ°":7532,"ðŁ":7533,"Ġpowin":7534,"ĠÐ¿ÑĢÐ¾ÑīÐµ":7535,"ÑĢÐ¸Ð²":7536,"ÑĥÑİÑīÐµÐ¹":7537,"ÑĢÑıÐ·":7538,"ĠkoÅĦ":7539,"nal":7540,"ĠÑģÐ²ÐµÑĤÐ°":7541,"ÑĥÑĤÐ¾Ñĩ":7542,"ĠÑĤÐµÐºÑģ":7543,"ĠÐ¾ÑģÐ½Ð¾Ð²Ð°Ð½Ð¸Ñı":7544,"ĠÐ¹":7545,"ĠÐ²Ð¸Ð·Ñĥ":7546,"°ÑĢÐ°Ð±":7547,"ĠÐ½ÑĥÐ¶Ð½Ð°":7548,"ĠÐ·Ð²Ð¾Ð½Ð":7549,"Ð¾Ð¸Ð·Ð²":7550,"Ð¾Ð¾ÑĢÑĥÐ¶":7551,".|":7552,"ÑĮÐµÐ²":7553,"ĠÑĦÐ¾Ð½Ðµ":7554,"ĠÐļÐ¾":7555,"ĠÐºÐ²Ð°ÑĢÑĤÐ¸ÑĢÑĥ":7556,"ĠÑģÐ¼ÑĭÑģÐ»":7557,"µÑĤÑĭ":7558,"Ð¿Ð¾Ð»":7559,"Ġposiada":7560,"ĠÐĹÐµÐ¼":7561,"tami":7562,"Ġbra":7563,"ÐłÐĺ":7564,"ĠÐ¿Ð¾Ð´Ð¾Ð¹Ð´ÐµÑĤ":7565,"¸ÑĤÑģÑı":7566,"ĠÐŀÐ³":7567,"ĠÑģÐ¸Ñħ":7568,"ĠCi":7569,"ĠÑĤÑĥÐ´Ð°":7570,"ÑĤÐºÐ°Ð¼Ð¸":7571,"ĠÐ°Ð½Ð°Ð":7572,"ÑĥÑģÑĤÑĢÐ¾Ð¹":7573,"ÑĪÐ¸ÐµÑģÑı":7574,"ºÐ°Ñħ":7575,"ĠÑģÐ¿Ð¾ÑģÐ¾Ð±Ñĭ":7576,"chi":7577,"ĠÐ¿ÑĢÐ¸Ð½ÑĨÐ¸Ð¿Ð":7578,"ĠÐ¼ÐµÐ½ÐµÐ´Ð¶":7579,"ĠÐ¿ÑĢÐµÐ´Ð»Ð¾Ð¶ÐµÐ½Ð¸Ñı":7580,"ÑĢÐµÐ½Ð¸Ðµ":7581,"ĠÐ¶ÐµÑģÑĤÐº":7582,"ĠÐºÐ¾Ð¼Ð¿ÑĮÑİÑĤÐµÑĢÐ":7583,"ĠÑĥÐ²ÐµÑĢÐµÐ":7584,"¸ÐµÐ¹":7585,"ĠÐ½Ð¾Ð²ÑĥÑİ":7586,"Ð¾ÑĤÐµÑĩ":7587,"Ð°ÑİÑīÐ¸ÑħÑģÑı":7588,"ĠÐľÑĥÐ¶":7589,"ÑĤÐ¸Ð²Ð°":7590,"ĠÑģÐ¾Ð¾Ð±ÑīÐ¸Ð»":7591,"ĠÐ²ÐµÐº":7592,"ĠÑģÐºÐ¾ÑĢ":7593,"ÐĽÐĲ":7594,"Ð°Ð½ÑĤÑĭ":7595,"kar":7596,"der":7597,"Ð°ÑĤÐµÐ»ÑĮÐ½Ð¾Ð¹":7598,"ĠÐ¼Ð¾ÐµÐ¹":7599,"ÐºÐ°ÑĤÐµÑĢ":7600,"ĠÑģÐ¾Ð»ÑĮ":7601,"ĠÑģÐ¿Ð¾ÑģÐ¾Ð±Ð¾Ð²":7602,"ÑĤÐ¸ÑģÑĮ":7603,"ĠÑħÐ¸ÑĢÑĥ":7604,"ĠÑģÐ»ÐµÐ´ÑĥÑİÑīÐ¸Ð¹":7605,"ĠÐ¿Ð°ÑĢÑĤÐ½ÐµÑĢ":7606,"ĠÐ¿ÑĢÐµÐ´ÑģÐµÐ´":7607,"ĠÐ¿Ð¾Ð»ÑĥÑĩÐ¸Ð»Ð¸":7608,"ÐµÑģÑĤÐ¸Ð²":7609,"ĠÐ¿ÐµÑĢÐµÐ¹":7610,"ĠÑģÐ¿ÐµÑĨÐ¸Ð°Ð»ÑĮÐ½ÑĭÐµ":7611,"ĠÐ·Ð°Ð¸Ð½ÑĤÐµÑĢÐµÑģ":7612,"ĠAd":7613,"ĠÐ°ÐºÑĨÐ¸Ð¸":7614,"ĠEuro":7615,"ĠÐ¿Ð¾Ð²Ð¾Ð´Ñĥ":7616,"ĠÑĢÐµÐ´ÐºÐ¾":7617,"ÑĢÑıÑģ":7618,"ĠÐ¾ÑĤÑĢÐ¸ÑĨ":7619,"ĠÐ¿Ð¾ÑģÑĤÑĢÐ°Ð´":7620,"ÑĢÐ¾Ð¸ÑĤÑĮ":7621,"ĠÐ¿ÑĢÐ¸Ð»Ð¾Ð¶ÐµÐ½Ð¸Ðµ":7622,"ĠÐ¿ÑĢÐ¸Ð³Ð¾ÑĤÐ¾Ð²Ð¸ÑĤÑĮ":7623,"02":7624,"Ð°ÑĳÑĤ":7625,"ĠÐ´Ð¸ÑģÑĤ":7626,"ĠÐ¿ÑĢÐ¾Ð´Ð°Ð¶":7627,"ĠÐ±Ð°ÑĤÐ°":7628,"owni":7629,"ĠÑģÐ¾Ð±Ð°Ðº":7630,"ĠÐ¿Ð¾Ð»ÑĮÐ·Ñĥ":7631,"ĠÐ¢ÑĥÑĢ":7632,"ĠÐĿÐ°Ðº":7633,"Ġtele":7634,"ÑĤÐ¸Ð²Ñĭ":7635,"ĠÐ¸Ð·Ð¼ÐµÐ½Ð¸ÑĤÑĮ":7636,"ÐĿÐ«":7637,"ĠÐ½Ð°Ð¿Ð¾Ð¼":7638,"ĠÐ¾ÑĢÐ³Ð°Ð½Ñĭ":7639,"ĠÑģÐ¼ÐµÑģÑĮ":7640,"Ġspotka":7641,"ĠÐ¿Ð¾ÑıÐ²Ð»ÐµÐ½Ð¸Ñı":7642,"ĠÑģÑĥÐ±ÑĬÐµÐº":7643,"07":7644,"ĠÑįÑĤÐ°Ð¿Ðµ":7645,"prowa":7646,"55":7647,"ĠÑģÐ¾ÑĨ":7648,"ÑĤÐ¸ÑĩÐ½Ð¾":7649,"Ð¸ÑĨÐ¸Ñİ":7650,"ĠÐ²Ð½Ð¾Ð²ÑĮ":7651,"ĠÐ¿ÑĢÐ¸ÑĩÐ¸Ð½Ðµ":7652,"ĠÐ²Ð½ÐµÐ´":7653,"man":7654,"ĠÑģÑĢÐ¾ÐºÐ°":7655,"ĠÐ·ÑĢÐµÐ»":7656,"ĠÑģÐ¿Ð¸ÑĢ":7657,"ĠÐ½Ð°ÑĩÐ¸Ð½Ð°ÑİÑĤ":7658,"ĠÑģÐ³":7659,"Ð¾ÑĢÐ¼Ð¸":7660,"IE":7661,"ĠÐ¿ÑĢÐ¾Ð²ÐµÑĢÐºÐ¸":7662,"ĠÐ´ÐµÐ²ÑĥÑĪÐµÐº":7663,"Ð¾Ð²Ð°Ð½Ð¸Ð¸":7664,"Ġ198":7665,"ĠciÄħ":7666,"ĠÑĢÐ°ÑģÑĤÐµÐ½Ð¸Ðµ":7667,"ÐĲÐŀ":7668,"ÑĩÐµÑĤÐ°":7669,"Ġprzygot":7670,"ĠTy":7671,"ĠÐ»Ð°Ð¼Ð¿":7672,"Ð¸ÑĦÐ¸ÑĨÐ¸ÑĢÐ¾Ð²":7673,"szcza":7674,"ĠÐļÐ¾Ð¼Ð¿Ð°Ð½Ð¸Ñı":7675,"ĠÐ¿ÑĢÐ¸Ð±ÑĭÐ»ÑĮ":7676,"ĠÑĤÑĢÑĥÐ´Ð½Ð¾":7677,"ĠÑģÑĩÐ°ÑģÑĤÐ»Ð¸Ð²":7678,"ĠÐ¾Ð±ÑĢÐ°Ð·Ð¾Ð²Ð°ÑĤÐµÐ»ÑĮ":7679,"ĠÑģÑĥÐ´ÑĮ":7680,"sku":7681,"ĠÐ±ÑĢÐµÐ½Ð´":7682,"ĠÑģÐ¾Ð´ÐµÑĢÐ¶Ð°Ð½Ð¸Ðµ":7683,"Ġzmia":7684,"ĠwspÃ³ÅĤ":7685,"ĠÑĦÐ°ÐºÑĤÐ¾ÑĢÐ¾Ð²":7686,"ĠÐŀÑĢÐ³":7687,"ĠÐĹÐ°Ð´":7688,"wanie":7689,"100":7690,"ĠÐ³Ð»Ð°Ð´":7691,"ĠÐŀÑĤÐ´":7692,"Ġnajlep":7693,"ĠÐ²ÑĭÐ²Ð¾Ð´":7694,"ĠNe":7695,"Ġ2011":7696,"ÅĦstwa":7697,"33":7698,"ĠÐ¿ÑĢÐ¾ÑģÑĤÑĢÐ°Ð½ÑģÑĤÐ²Ð¾":7699,"ĠÐĹÐ°Ð²":7700,"ĠÐ¿Ð¾ÐºÑĥÐ¿ÐºÐ¸":7701,"ĠÑģÐ¾ÑħÑĢÐ°Ð½Ð¸ÑĤÑĮ":7702,"ĠÐ¿ÑĢÐ¾Ð±Ð»ÐµÐ¼Ñĥ":7703,"ÑĤÐ¸Ð²Ð½Ð¾Ðµ":7704,"glÄĻ":7705,"ĠÐ²Ð¾Ð·ÑĢÐ°ÑģÑ":7706,"ĠÐ¼Ð»ÑĢÐ´":7707,"ĠÑģÐºÐ°Ñĩ":7708,"ĠÐ¿ÑĢÐ¾ÑĨÐµÐ½ÑĤÐ¾Ð²":7709,"IN":7710,"ĠÐ¿Ð¸ÑģÑĮÐ¼":7711,"ĠÐºÐ¾Ð½ÑĤÑĢÐ°Ðº":7712,"ĠÐŀÑĤÐ»Ð¸Ñĩ":7713,"ĠÐ³ÑĢÐ¾Ð¼":7714,"ĠÐ¿ÑĢÐ¸Ð½Ð¾Ñģ":7715,"Ð°ÑĢÐ´":7716,"ĠÐµÐ´Ð¸Ð½Ð":7717,"ĠÐ¡ÑĤÐ¾Ð¸ÑĤ":7718,"ÑĥÐ³Ð°":7719,"ĠÑģÑĤÑĢÐ°Ð½Ð¸ÑĨÐµ":7720,"ĠÐ¿Ð°ÑĨÐ¸ÐµÐ½ÑĤÐ¾Ð²":7721,"ĠÐĲÐ±":7722,"duje":7723,"Ġzmie":7724,"ÑĥÑģÑĭ":7725,"ĠÐ¿Ð¾Ð»ÑĥÑĩÐ¸ÑĤÑģÑı":7726,"Ð»ÐµÑĤÐºÐ¸":7727,"Ð¸Ð±Ð»Ð¸Ð¾ÑĤ":7728,"ĠÐ¿Ð¾Ð»Ð½Ð¾ÑĨ":7729,"ĠÐ²Ð¾Ð·ÑĢÐ°ÑģÑĤ":7730,"ĠÑģÑĤÐ°Ð½Ð¾Ð²ÑıÑĤÑģÑı":7731,"ĠÐ½Ð¾Ð²Ð¾ÑģÑĤÐ¸":7732,"tÄĻ":7733,"ÑĤÐ¸ÑĢÑĥÐµÑĤ":7734,"ĠÐ¿ÑĥÑģÑĤ":7735,"ĠÑĢÐµÐ³Ð¸Ð¾Ð½Ð°":7736,"ĠÐ»ÐµÑĤÐ½Ð":7737,"ĠwaÅ¼":7738,"ĠÐ¿ÐµÐ´Ð°Ð³":7739,"ĠÐºÐ¾ÑģÐ¼Ðµ":7740,"ĠÐ¾Ð±Ð»ÐµÐ³Ñĩ":7741,"ĠÑĥÐ´ÐµÐ»":7742,"Ð¾Ð¿Ñĭ":7743,"ĠÐ¼Ð°Ð³Ð°Ð·Ð¸Ð½Ðµ":7744,"Ð°Ð½Ð°Ð¼Ð¸":7745,"Ġstra":7746,"ĠSa":7747,"sce":7748,"Ð¸Ð°ÑĤÐ¸Ð²":7749,"ĠÐĿÐ°Ð·":7750,"ĠÑĥÑĩÐ°ÑģÑĤÐ½Ð¸Ðº":7751,"ĠdziÄĻki":7752,"ĠÐ¸ÑģÑĤÐ¾ÑĢÐ¸ÑĩÐµÑģÐº":7753,"ÑĭÐ²Ð°Ð»Ð¸":7754,"ĠÐ²Ð»Ð¾Ð¶":7755,"29":7756,"ÐµÐ²Ð¾":7757,"ĠÐ¿Ð¾ÑģÐµÑĤÐ¸ÑĤ":7758,"ĠÐ½Ð¾Ð²Ð¾Ðµ":7759,"ÐµÐ½ÑĨÐ¸Ð¸":7760,"ĠÑģÐ¾ÑĨÐ¸Ð°Ð»ÑĮÐ½ÑĭÑħ":7761,"ĠÐŁÐµÑĢÐ²ÑĭÐ¹":7762,"ĠÐ²ÑĭÑģÐº":7763,"ĠÐ¼Ð°ÑģÑģÐ¾Ð²":7764,"ÑĢÐ½":7765,"ÐµÑĢÐ½ÑĭÐ¹":7766,"ĠÐ±ÑĭÑĤÐ¾Ð²":7767,"ĠÐºÐ»Ð°ÑģÑģÐ°":7768,"asino":7769,"ÐķÐĿ":7770,"ĠÐ¸Ð½Ð¶":7771,"ĠÑĤÐºÐ°Ð½Ð":7772,"ĠÐ½Ð°ÑģÑĤÐ¾Ð»ÑĮÐºÐ¾":7773,"ĠÑįÐºÑģÐ¿ÐµÑĢÐ¸Ð¼":7774,"Ð°Ð¶ÐµÑĤ":7775,"ĠÐ²Ð¾Ð·Ð´ÐµÐ¹ÑģÑĤÐ²Ð¸Ñı":7776,"ĠÐ²Ð»Ð¸ÑıÐ½Ð¸Ðµ":7777,"ĠÐ¿ÑĢÐ¸Ð³Ð»Ð°ÑĪ":7778,"ld":7779,"ĠÑħÐ¾ÑĤÑıÑĤ":7780,"ĠÑģÑĩÐ¸ÑĤÐ°ÐµÑĤ":7781,"Ð¾ÑĢÐ½Ð¾Ð¹":7782,"ĠÐĲÐ½":7783,"Ġtakie":7784,"Ð¸ÑĤÐµÐ»ÑĮÐ½Ð°Ñı":7785,"ÑĥÐ³Ð¾Ð»ÑĮ":7786,"ĠÐ¿ÑĢÐµÐºÑĢÐ°ÑģÐ½Ð¾":7787,"lÄħ":7788,"nÄħÄĩ":7789,"ĠÑģÐ»Ð¾Ð²Ð¾":7790,"ÐµÐ½Ð½":7791,"ĠÐ¿ÑĢÐ¾ÑĦÐµÑģÑģÐ¸Ð¾Ð½Ð°Ð»":7792,"wu":7793,"ĠÐ°Ð½ÑĤÐ¸Ð±":7794,"ĠÐĶÐ²":7795,"ĠÑĢÐ°ÑģÑģÐºÐ°Ð·Ð°Ð»":7796,"ĠÐ·Ð°Ð²Ñ":7797,"½ÑĥÐ²":7798,"ĠÐĲÐ²ÑĤÐ¾ÑĢ":7799,"Ġwielu":7800,"ĠÐ·Ð°Ð²ÑĤ":7801,"ÑĢÐµÐ½Ð½Ð":7802,"ÐµÐ»ÑĮÐ½Ð¾Ð¹":7803,"ĠÐ¿ÑĢÐµÐ´ÑģÑĤÐ°Ð²Ð»ÐµÐ½Ñĭ":7804,"ĠÐ²ÑĭÐ¿Ð¾Ð»Ð½Ð¸ÑĤÑĮ":7805,"daw":7806,"Ġbardziej":7807,"Ð¾Ð±Ð¾ÑĢÐ¾ÑĤ":7808,"ĠÑģÐµÐ¼ÑĮÑı":7809,"Ð°ÑĢÑĤÐ°Ð¼":7810,"ÑĢÐ¾Ð²Ð¾Ð¹":7811,"ĠÑģÑĩÐ¸ÑĤÐ°ÑĤÑĮ":7812,"ĠÐŁÑĢÐµÐ´ÑģÑĤÐ°Ð²":7813,"Ð½Ð°Ð¶":7814,"ÑģÑĤÐ²ÐµÐ½Ð½ÑĭÐ¹":7815,"Ġklien":7816,"Ìģ":7817,"06":7818,"Ð¸ÑĩÐµÑģÐºÑĥÑİ":7819,"ĠÐ±ÑĥÐ¼Ð°Ð³Ð¸":7820,"Ġmiejsce":7821,"ĠÐºÑĢÑĥ":7822,"ĠÐ¾Ð±ÑĢÐ°Ð±Ð¾ÑĤÐºÐ¸":7823,"ÑĢÐ°Ð½Ðµ":7824,"wyk":7825,"ĠÑģÑĤÐ°ÑĤÐ¸Ñģ":7826,"ÐºÐ°Ðº":7827,"ĠÐ½Ð°ÐºÐ°Ð·":7828,"ĠÐķÐ":7829,"ĠÐ²Ð²ÐµÐ´":7830,"ĠÐ³ÑĢÑĥÐ¿Ð¿Ð°":7831,"ĠÐ¾ÑģÑĤÐ°Ð²Ð¸ÑĤÑĮ":7832,"Ð¾ÑįÑĦÑĦ":7833,"ÐµÐ½Ð°Ð¼":7834,"ĠÐ·Ð°ÐºÐ¾Ð½Ð°":7835,"ĠÐ¼Ð°ÑĢÐºÐ¸":7836,"ĠÑģÐ¾ÑĨÐ¸Ð°Ð»ÑĮÐ½Ð¾Ð¹":7837,"Ð¾ÑĩÐ½Ð¾":7838,"Ġkiedy":7839,"ĠÐ¼ÐµÑĤÐ°Ð»":7840,"Ð°ÑĢÐ°":7841,"ĠSo":7842,"Ġpy":7843,"³Ð¸Ñı":7844,"ĠÐļÐ°ÑĤ":7845,"ĠÐ¸Ð½ÑĤÐµÑĢÐ½ÐµÑĤÐµ":7846,"ĠÐ¾Ð±ÑĢÐ°Ð·Ð¾Ð²Ð°Ð½Ð¸Ðµ":7847,"Ġrozpo":7848,"Ð¾ÑģÐ¸Ð¿":7849,"ÑĢÐµÑģÑģÐ¸Ð²":7850,"ÑıÑīÐµÐ¹":7851,"ĠÐĽÐµÑĩÐµÐ½Ð¸Ðµ":7852,"ĠÐ±Ð¾Ð»ÑĮÑĪÐ¾Ð³Ð¾":7853,"ÐµÐºÑģÐ°":7854,"Ð»ÐµÐ½Ð½Ð¾Ð³Ð¾":7855,"Ġdnia":7856,"ĠÑģÑĥÑĤÐ¾Ðº":7857,"ĠÐ¿Ð¾Ð´ÑĢÐ¾Ñģ":7858,"bior":7859,"Ð¸ÑĤÐµÑģÑĮ":7860,"ĠÑĦÐ¾Ð½Ð":7861,"ĨÐ¸Ð¾Ð½Ð½ÑĭÐµ":7862,"Ð¾ÑįÑĦÑĦÐ¸ÑĨÐ¸":7863,"ĠÐ²ÑĭÐ±Ð¾ÑĢÐµ":7864,"ĠÑĦÐ¸Ð³Ñĥ":7865,"ĠÑĢÑĭÐ½Ð¾Ðº":7866,"Ð¾ÐºÐ°ÑĢ":7867,"ÑĢÐ°Ð»ÑĮÐ½Ð¾Ð³Ð¾":7868,"ĠÑĥÑĩÐ°ÑģÑĤÐ¾Ðº":7869,"ÐµÐ½Ð¾Ð¼":7870,"ĠÐ½Ð°ÑĢÑĥÑĪÐµÐ½Ð¸Ðµ":7871,"ĠÑĦÐ¸":7872,"ĠÑĤÐ¾Ð»ÑģÑĤ":7873,"ĠÐ¡ÑĤÐ¾Ð¸Ð¼Ð¾ÑģÑĤÑĮ":7874,"ÑĤÐ¾ÑĢÐ°Ð¼Ð¸":7875,"ĠÐ²Ð°ÑĪÐµÐ¼":7876,"Ð°Ð±Ð¾ÑĢÐ°":7877,"Ð¾Ð±Ð»":7878,"ĠÐ¿Ð¾Ð´ÑĢÐ°Ð·Ð´ÐµÐ»":7879,"ĠÐ¡Ð¿Ð°ÑģÐ¸Ð±Ð¾":7880,"ĠÐ³Ð¾ÑģÐ¿":7881,"ĠÑħÐ¾ÑĢÐ¾ÑĪÐ¸Ð¹":7882,"ĠÑĢÐ¾Ð´Ð°":7883,"ÑģÐ¸ÑĤÐµ":7884,"ÅĤym":7885,"Ð°Ðµ":7886,"Ð°ÑģÑĤÑĥÑİ":7887,"ĠMe":7888,"ÑĤÐ½Ñĭ":7889,"ĠÑģÐ¼ÑĭÑģ":7890,"Ġbezpie":7891,"ĠÑħÐ°ÑĢÐ°ÐºÑĤÐµÑĢÐ¸ÑģÑĤÐ¸Ðº":7892,"ĠÑĢÐµÐ³ÑĥÐ»ÑıÑĢÐ½Ð¾":7893,"mniej":7894,"ĠÐ·Ð½Ð°ÑĩÐµÐ½Ð¸Ñı":7895,"ĠmiÄĻdzy":7896,"ĠÐ½Ð°ÐºÐ¾Ð¿":7897,"Å¼enia":7898,"ĠÐ·Ð°Ð½Ð¸Ð¼Ð°ÐµÑĤ":7899,"ĠÐ¿ÑĤÐ¸ÑĨ":7900,"¾ÑĩÐ¸ÑģÐ»":7901,"Ð¾Ð¼Ð½Ð¸Ð¼":7902,"Ð°Ð½ÑģÐºÐ¾Ð¹":7903,"ĠÐ¤ÑĢÐ°Ð½":7904,"ĠÐ´ÐµÑĪÐµÐ²":7905,"Ð±Ð¾Ð¹":7906,"ĠÐ¿ÑĢÐ¾Ð¸Ð·Ð²Ð¾Ð´Ð¸ÑĤÑģÑı":7907,"ÑĳÐ·":7908,"Ð¾Ð½Ð½Ð¾Ð³Ð¾":7909,"ĠÐ¡ÑĥÐ´":7910,"ÑĢÐµÐ»Ð¸":7911,"ĠÐ°ÑģÑģÐ¾ÑĢÑĤÐ¸Ð¼":7912,"ĠÑĤÐ¾ÑĢÐ¼":7913,"ĠÐ²ÐµÑĢÑģÐ¸Ñı":7914,"ĠÐ±Ð¾":7915,"ĠÐķÐµ":7916,"ĠÐłÐ°Ð·Ð¼ÐµÑĢ":7917,"ĠÐ»ÑİÐ±ÑĭÑħ":7918,"ĠÑĩÑĥÐ´":7919,"ĠÐ¾ÑĤÐ²ÐµÑĤÑģÑĤÐ²ÐµÐ½Ð½Ð¾ÑģÑĤÑĮ":7920,"Ð¾Ð·Ðµ":7921,"ĠÐ¡Ð¾Ð·Ð´":7922,"ĠÑĥÐ´Ð¾Ð±Ð½Ð¾":7923,"ĠBe":7924,"ĠÐłÐµÑĪ":7925,"ĠÐ¶ÐµÐ»Ð°Ð½Ð¸Ðµ":7926,"jÄĻcia":7927,"ĠÐ¸Ð·Ð³Ð¾ÑĤÐ¾Ð²Ð»ÐµÐ½Ð¸Ñı":7928,"ÐµÑģÑģÑĥ":7929,"ĠÑĤÐ¾Ð²Ð°ÑĢÑĭ":7930,"ĠÐ¿Ð¾Ð´Ð¾Ð±ÑĢÐ°ÑĤÑĮ":7931,"ĠÐĴÐµÑģ":7932,"Ġzap":7933,"ÑĢÑĥÑİÑĤ":7934,"Ġpozy":7935,"ĠÐ¿ÐµÑĢÐµÑģÑĤ":7936,"ĠÐ³Ð¾Ð»Ð¾Ð²Ñĭ":7937,"ĠÑĥÑī":7938,"Ð»Ð°ÑĤÐµ":7939,"ĠÑĢÐµÑĪÐ¸Ð»":7940,"ĠÑĤÑĢÐ°Ðº":7941,"ĠÐŀÑģÐ¾Ð±ÐµÐ½Ð½Ð¾":7942,"ÑĭÐ²Ð°Ð½Ð¸Ðµ":7943,"ĠÐ¾ÑĤÐ»":7944,"Ð¿ÐµÑĢÐ²":7945,"ĠÐ²ÑĢÑĥÑĩ":7946,"nowi":7947,"ĠÐ¿ÑĢÐ¾Ð¸Ð·Ð¾ÑĪÐ»Ð¾":7948,"ĠÑģÑĤÐ°Ð´Ð¸Ð¸":7949,"ĠÐ¶Ð¸Ð·Ð½ÐµÐ½Ð":7950,"ĠÑģÐ²Ð¸Ð´ÐµÑĤÐµÐ»ÑĮÑģÑĤÐ²":7951,"ĠÐ²Ð°ÑĪÐµ":7952,"Ġkosz":7953,"ÑĤÐ¸ÑĩÐµÑģÐºÐ¸Ð¼":7954,"ÑĢÐ°ÑİÑĤÑģÑı":7955,"bezpie":7956,"ĠÐ¼Ð³":7957,"ĠÐ½ÐµÐ¼ÐµÑĨ":7958,"ĠÐ¾ÑĤÐºÑĢÑĭÑĤÑĮ":7959,"ĠWa":7960,"ted":7961,"Ġzda":7962,"ÅĤych":7963,"ĠÐ¿Ð¾Ð»ÑĥÑĩÐ°ÐµÑĤ":7964,"ĠÐ²Ð»Ð¸ÑıÐµÑĤ":7965,"Ġ2010":7966,"ĠÐ²ÑĭÐ¿Ð»Ð°ÑĤÑĭ":7967,"Ġan":7968,"ĠÐŁÐ¾ÑģÑĤ":7969,"ĠGa":7970,"ĠÐ²Ð¾Ð²ÑģÐµ":7971,"ĠÐ´Ð¾ÑģÑĤÐ¾Ð¸Ð½":7972,"ĠÑģÑĤÑĢÐ°Ð½Ð°Ñħ":7973,"ÑĢÐµÐ²Ð°":7974,"ĠÑģÑĤÑĥÐ¿":7975,"ĠNo":7976,"ĠÐ²Ð¾ÑģÑĤ":7977,"ĠÐºÐ¾Ð½ÑĤÑĢÐ¾Ð»Ñı":7978,"ÐĴÐŀ":7979,"ĠÐ»Ð¸Ðº":7980,"ĠÐ¿Ð¾Ð´Ð³Ð¾ÑĤÐ¾Ð²ÐºÐ¸":7981,"ĠPra":7982,"ĠÐ¾ÑĤÐ»Ð¸ÑĩÐ°ÑİÑĤÑģÑı":7983,"stos":7984,"ĠÐ¿Ð¾ÑĤÐµÑĢÑı":7985,"ĠÐ¸Ð·Ð¼ÐµÐ½ÐµÐ½Ð¸Ð¹":7986,"ĠÐºÑĥÐ±":7987,"Ð¸ÑĤÐµÐ»ÐµÐ¼":7988,"ĠÐĵÐ¾ÑģÑĥÐ´Ð°ÑĢ":7989,"ĠÐ·Ð°Ð±Ð¾Ð»ÐµÐ²Ð°Ð½Ð¸Ðµ":7990,"ÑĤÐ¾ÑĢÑĥ":7991,"ĠÐ¿Ð¾Ð½Ð°Ð´Ð¾Ð±Ð¸ÑĤÑģÑı":7992,"ciw":7993,"ÑģÐ²":7994,"75":7995,"ĠÐ¿Ð¾ÑıÐ²Ð»ÑıÑİÑĤÑģÑı":7996,"ĠÑĢÐ¾ÑģÑģÐ¸Ð¹ÑģÐºÐ¸Ñħ":7997,"ĠktÃ³rym":7998,"ler":7999,"ĠÑģÐ²ÑıÐ·Ð°Ð½Ð¾":8000,"ĠÐŁÐ¾Ð·":8001,"ĠÐ¼Ð°Ð»ÑĭÑĪÐ°":8002,"ÑĢÑĭÑĪ":8003,"ĠÑģÐ¾Ð²ÑĢÐµÐ¼ÐµÐ½Ð½ÑĭÑħ":8004,"ÑĤÐ¸ÑĢÐ¾Ð²Ð°Ð½Ð¸Ñı":8005,"ĠÐĴÐ·":8006,"ÐµÐ·Ð´Ð°":8007,"09":8008,"Ð¡Ð¡Ðł":8009,"ĠÑģÑĢÐµÐ´ÑģÑĤÐ²Ð°Ð¼Ð¸":8010,"ĠÐ·Ð°Ð¼ÐµÑģ":8011,"ĠÑĩÐ°ÑģÑĤÑĮÑİ":8012,"¶Ð°":8013,"ĠÐ¿Ð¾ÐºÐ°Ð·ÑĭÐ²Ð°ÐµÑĤ":8014,"Ġponie":8015,"ĠÑĥÑĢÐ¾Ð¶":8016,"AT":8017,"Ð°ÐµÐ¼ÑĭÐ¹":8018,"ĠÐºÐ¾Ðº":8019,"ĠÐ¸ÑģÐ¿Ð¾Ð»Ð½Ð¸ÑĤÐµÐ»ÑĮ":8020,"Ð¾Ð´Ð¸ÑĤÐµ":8021,"ĠÐľÐ°Ð¹":8022,"ĠÐ·Ð°Ð¿Ð¸ÑģÐ¸":8023,"ĠÐ¿Ð¾Ð»ÑĥÑĩÐµÐ½Ð¸Ðµ":8024,"ĠÐĴÐ¸Ð´ÐµÐ¾":8025,"ĠÐ¿ÑĢÐ¸Ð¼ÐµÐ½ÑıÐµÑĤÑģÑı":8026,"ĠÑĦÐ¸Ð»":8027,"ĠÑģÐ¸ÑĤÑĥÐ°ÑĨÐ¸Ñİ":8028,"ĠÐºÐ°ÐºÐ°Ñı":8029,"ĠÐĿÐ°Ð²":8030,"stor":8031,"ĠÐ¸Ð½Ð¸ÑĨ":8032,"ĠÐŁÐ°Ð²":8033,"¾ÑĢÐ³":8034,"ĠÑĢÐµÑĨÐµÐ¿Ñ":8035,"Ð¸ÑģÑĤÐ¾Ð¹":8036,"ĠÅģ":8037,"ĠÐ·Ð½Ð°ÐµÑĤÐµ":8038,"Ġis":8039,"ĠÐ¿Ð°ÑĨÐ¸ÐµÐ½ÑĤÐ°":8040,"ĠÐĶÐµÑĤ":8041,"Ð°Ð»ÐºÐ¸":8042,"ÐµÐ½ÑĭÐ¹":8043,"ĠÑĤÐµÐ°ÑĤ":8044,"ĠÐ±ÑĥÐ´ÑĤÐ¾":8045,"ĠÐŁÑĢÐ¾Ð¸Ð·Ð²":8046,"Ð°Ð¸Ð»":8047,"Ð¾ÑģÐ°":8048,"ĠÐ¼ÐµÐ±ÐµÐ»ÑĮ":8049,"Â°":8050,"ĠÐ´Ð¾ÐºÑĥÐ¼ÐµÐ½ÑĤÐ°":8051,"ĠÐĽÑİ":8052,"ĠÐ²ÐµÑĢÐ¾ÑıÑĤÐ½Ð¾ÑģÑĤÑĮ":8053,"ĠÐ½Ð°ÑĩÐ°Ð»Ð¸":8054,"ĠÐ¸Ðº":8055,"ĠÑģÐµÑĢÐ¸Ð¸":8056,"ÅĽcia":8057,"ĠÐºÑĢÐ°":8058,"ÐµÑĢÐ½Ð¾Ð¹":8059,"ĠÑĢÐ¾Ð´Ð¸ÑĤÐµÐ»Ð¸":8060,"ĠÐŁÐ°":8061,"ĠÐ·Ð°Ð´Ð°ÑĩÐ¸":8062,"ĠÐ¼Ð¸Ð»Ð»Ð¸Ð¾Ð½Ð¾Ð²":8063,"ĠÐ¡Ð´ÐµÐ»":8064,"ĠÑĢÐ°ÑģÑģÐ»":8065,"ĠÐ²ÐµÑģÑĤÐ¸":8066,"ÐµÑģÐ¸":8067,"įÐº":8068,"oby":8069,"ciÄĩ":8070,"Ġwymaga":8071,"ĠÑĢÐ°ÑģÐ¿Ð¾ÑĢ":8072,"ĠÑĪÐ»":8073,"ĠÑĢÐ°Ð±Ð¾ÑĤÐ¾Ð´":8074,"ĠÑģÑĢÐµÐ´Ð½ÐµÐ¼":8075,"ĠÐ¿Ð¾Ð»Ñı":8076,"ĠÐ¼Ð¾Ñı":8077,"ĠÐ¼ÑĭÑĪÑĨ":8078,"ĠÐ¾Ð±Ð¾ÑĢ":8079,"ĠÐ¿Ð¾Ð´ÑĩÐµÑĢÐºÐ":8080,"Ġci":8081,"Ð½Ð°Ð¼":8082,"ĠÐºÐ½Ð¾Ð¿ÐºÑĥ":8083,"are":8084,"Ã³j":8085,"roni":8086,"ĠÑģÐµÐ¼ÑĮÐµ":8087,"ĠÐ²Ð²ÐµÑĢÑħ":8088,"ĠÐ¿Ð¸ÑīÐµÐ²":8089,"ĠÐľÐ°ÑĤÐµÑĢÐ¸":8090,"2018":8091,"ĠÐļÐ°Ð¼":8092,"ĠÐ¿ÑĢÐµÐ´Ð¼ÐµÑĤ":8093,"ÑĥÑĢÐ³":8094,"ĠÐ¾Ð¼":8095,"ÑģÐ½Ð¾Ð¹":8096,"ĠÐºÐ¾ÑģÐ¼":8097,"ĠÐ±Ð¾Ð¹":8098,"Ð²ÐµÑĤÑĭ":8099,"ĠÑģÐ¾Ð¾ÑĤÐ²ÐµÑĤÑģÑĤÐ²ÐµÐ½Ð½Ð¾":8100,"Ð¢Ðķ":8101,"95":8102,"ĠÑĨÐµÐ»ÐµÐ¹":8103,"ĠÐ²Ð¾Ð·Ð±ÑĥÐ¶Ð´":8104,"Ġbie":8105,"ĠsÅĤu":8106,"ĠÐ¼ÐµÑģÑĤÑĥ":8107,"ĠÐŁÑĢÐ¾ÑĦ":8108,"Ġmater":8109,"ĠÐ½ÐµÐ´Ð°Ð²Ð½Ð¾":8110,"ĠrozwiÄħza":8111,"ĠÐ°ÐºÑģ":8112,"Ð¸ÑĦÐ¸ÐºÐ°ÑĨÐ¸Ð¸":8113,"ĠÑĤÑİ":8114,"ĠÐ½Ð°ÑģÑĭÑī":8115,"ÐµÑĢÐºÐ¾Ð²":8116,"ĠÑģÐ¶":8117,"ĠÑĢÐ°Ð·Ð´ÐµÐ»Ðµ":8118,"ĠÑģÐ¿ÐµÑĨÐ¸Ð°Ð»ÑĮÐ½Ð¾":8119,"Ġha":8120,"ĠÐĵÐ»Ð°Ð²Ð½Ð¾Ðµ":8121,"ĠÐ´Ð¾ÐºÑĥÐ¼ÐµÐ½":8122,"ĠÐ·Ð½Ð°ÑİÑĤ":8123,"ĠÑĨÐµÐ»ÑıÑħ":8124,"ĠÐ»ÑİÐ´ÑĮÐ¼Ð¸":8125,"Ð°ÑİÑīÑĥÑİ":8126,"ĠÐ¼Ð°ÑģÑĪÑĤ":8127,"ĠÐ¿ÑĢÐµÐ¿ÑıÑĤ":8128,"ĠÐŁÐ¾Ð±":8129,"ĠÐ¿ÑĢÐ¾ÑĤ":8130,"ÐµÑĢÐ½Ð¾Ð³Ð¾":8131,"ĠÑİÐ±":8132,"ÐļÐĺ":8133,"ĠÐ±ÑĥÐ´Ñĥ":8134,"Ð¾Ð½Ð¸Ñı":8135,"ĠÐ²Ð·ÑĭÑģÐº":8136,".:":8137,"ĠÐ¡ÑĥÑīÐµÑģÑĤÐ²ÑĥÐµÑĤ":8138,"Ð¾Ð¿Ð¾Ð»Ð¾Ð¶":8139,"kro":8140,"ĠÐ°Ð´Ð°Ð¿":8141,"ĠÐ¾ÑĩÐµÐ²Ð¸Ð´":8142,"ĠÑįÑģ":8143,"ĠÐ°Ð²ÑĤÐ¾Ð±":8144,"ĠÐ¾ÑģÐ»":8145,".).":8146,"ĠÑģÑĩÐµÑĤÐ°":8147,"Ġsty":8148,"ÑĤÑıÐ¶":8149,"ĠÐ§Ð°ÑģÑĤÐ¾":8150,"ĠÐłÐ°ÑģÐ¿":8151,"czes":8152,"Ð¾ÑĢÐ¾ÑĤÐ°":8153,"Ġrodzi":8154,"Ð¾Ð»ÑİÑ":8155,"ĠÐ±ÐµÐ³":8156,"ĠÑĢÐ°Ð±Ð¾ÑĩÐ¸Ñħ":8157,"noÅĽciÄħ":8158,"Ð¾Ð´Ð½Ð°Ñı":8159,"ĠÑĢÑĥÐºÐ°Ñħ":8160,"ĠÑħÐ°ÑĢÐ°ÐºÑĤÐµÑĢÐ°":8161,"Ð¼ÑĥÐ½Ð":8162,"ĠÅĽrod":8163,"ĠÑĤÐµÐ½Ð´":8164,"ĠÐ¾Ð±Ð¾Ð»":8165,"ĠÐ¿ÑĢÐ¾Ð¸Ð·Ð²Ð¾Ð´ÑģÑĤÐ²Ð¾":8166,"ĠÐ¾Ð´ÐµÐ¶Ð´Ñĭ":8167,"ĠÑĤÐµÑĢÐ°Ð¿Ð¸Ð¸":8168,"lem":8169,"ĠÐ¾Ð±ÐµÑī":8170,"ĠwÅĤaÅĽci":8171,"Ð¾Ð³ÑĢÐ°Ð´":8172,"cych":8173,"ĠÐ·Ð´ÑĢÐ°Ð²":8174,"ÑģÐºÐ¾":8175,"ĠÑĦÑĢÐ°Ð½ÑĨÑĥÐ·":8176,"ĠÐ¿ÑĢÐ¾Ð³ÑĢÐ°Ð¼Ð¼Ñĥ":8177,"ĠÑĥÐ´Ð¾ÑģÑĤÐ¾Ð²":8178,"ĠÐĲÐ¼":8179,"Ð½Ðº":8180,"ÑĪÐµÐ¼Ñĥ":8181,"ĠÑģÐ²Ð¾Ñĳ":8182,"ĠÐ¿Ð¾Ð¶Ð":8183,"ws":8184,"ĠÑģÐµÑĢÐ´ÑĨÐµ":8185,"·Ð²ÐµÑģ":8186,"ĠÑģÐ»ÐµÐ´ÑĥÑİÑīÐ¸Ñħ":8187,"Ġchce":8188,"Ð½Ð¾ÑģÑĤÑıÐ¼Ð¸":8189,"ĠÐľÐ°Ðº":8190,"ĠÐ·Ð°Ð¿Ð¾Ð»":8191,"ĠÐºÑĢÑĥÐ¿Ð½ÑĭÑħ":8192,"ĠÐ²ÐµÐ´ÑĥÑī":8193,"ĠÐ¼Ð½ÐµÐ½Ð¸Ðµ":8194,"ĠÑıÐ·ÑĭÐºÐ°":8195,"ĠÐ²ÐµÑĢÑĤÐ¸Ðº":8196,"lenia":8197,"ĠÐ´ÑĢÐµÐ²ÐµÑģ":8198,"ĠÑĢÐ°Ð±Ð¾ÑĤÐ½Ð¸ÐºÐ¾Ð²":8199,"ĠÐ¸Ð½ÑĤÐµÑĢÐµÑģÐ½Ð¾":8200,"Ġprez":8201,"ĠÐ¿Ð¸Ð»":8202,"ĠÐ¿Ð¾Ð¼Ð¾Ð³Ð°ÑİÑĤ":8203,"½Ð¾ÑģÑĤÐ¸":8204,"Ġdziec":8205,"ĠÐ²ÐµÑĢÐ½ÑĥÑĤÑĮ":8206,"dowa":8207,"Ġjakie":8208,"ĠÑĤÐµÐ»ÐµÑĦÐ¾Ð½Ñĥ":8209,"ĠÑģÐ°Ð¼Ð°Ñı":8210,"ÑĢÐ¸Ð·":8211,"ĠSu":8212,"ĠÐŀÐ±ÑĢÐ°":8213,"ĠÐĿÐ°Ð¸Ð±Ð¾Ð»ÐµÐµ":8214,"ĠÐ±ÑĭÐ²Ð°ÑİÑĤ":8215,"ĠÐ¿ÐµÑĩÐµÐ½Ð¸":8216,"ĠÐ¿Ð¾Ð´Ð´":8217,"ĠAle":8218,"Ġmin":8219,"Ġwszystkich":8220,"ĠÑĥÐ´Ð¾Ð²Ð»ÐµÑĤÐ²Ð¾ÑĢ":8221,"ĠÑĥÐ²ÐµÐ´Ð¾Ð¼":8222,"ÐµÐ½Ð¸ÑıÐ¼":8223,"nach":8224,"ĠÐŀÑģÐ½Ð¾Ð²Ð½ÑĭÐµ":8225,"ÐºÐ½Ð¾Ð²":8226,"36":8227,"ĠÑĢÐ¾Ð¼Ð°Ð½":8228,"ĠÑģÐ¾Ð·Ð´Ð°Ð½Ð¸Ðµ":8229,"ÑģÐºÐ¸":8230,"Ð¾ÑĢÐ¸":8231,"ĠÑĤÐ°ÐºÐ¸Ð¼Ð¸":8232,"ÐµÐ½Ð½Ð¸ÐºÐ¸":8233,"szo":8234,"ĠÑĥÑħÐ¾Ð´":8235,"ĠÐ³Ð¾ÑĢÐ¸Ð·":8236,"Ð¸ÑĤÐµÐ»ÑıÐ¼Ð¸":8237,"Ð°Ð½ÑĤÐ¾Ð²":8238,"ĠÑĥÐ´Ð°Ð»Ð¸ÑĤÑĮ":8239,"ĠÐ¿Ð¾Ð´Ð°Ð²":8240,"ĠÐ»ÑİÐ±Ð¸ÑĤ":8241,"Ð¸Ð½Ð°ÑĨÐ¸Ð¸":8242,"ĠÐ±Ð°ÑĢ":8243,"ĠÐŁÑĢÐ¾ÑģÑĤÐ¾":8244,"ĠÐ´ÐµÐ¼Ð¾Ð½ÑģÑĤ":8245,"dra":8246,"ĠÐ¾Ð¿ÑıÑĤÑĮ":8247,"ÑĤÐµÑĢÐ¸Ð¸":8248,"Ð¾Ð½Ð°Ð²":8249,"ĠÑģÑĢÐ¾Ñĩ":8250,"ĠÐ²ÑĭÐ±Ð¾ÑĢÐ°":8251,"ÑĢÐ°Ð½Ð´":8252,"ĠÑĢÐµÐ·ÑĥÐ»ÑĮÑĤÐ°ÑĤÐ¾Ð²":8253,"ĠÐ¼Ð°ÑĤÑĩ":8254,"ĤÐ¾Ð³Ð¾":8255,"ĠÐ¾ÑģÐ¾Ð±Ð":8256,"ĠÐ²ÑĭÐ±Ð¸ÑĢÐ°ÑĤÑĮ":8257,"ĠÐ½Ð°Ð·ÑĭÐ²Ð°ÐµÑĤÑģÑı":8258,"tÄħ":8259,"ĠÐ¿Ð¾Ð·Ð´ÑĢÐ°Ð²":8260,"Ð¾ÑģÑĤÐµÐ¹":8261,"ĠÐĵÐ¾ÑģÐ¿":8262,"Ð¸Ð²Ð°Ð»Ð¸":8263,"ÑĭÐ²Ð°Ð»":8264,"Ð°Ð½Ð½Ð¾Ð¼":8265,"ĠÐ´ÐµÑĤÑĮ":8266,"ĠJest":8267,"stÄĻpu":8268,"ĠÑĦÐ¾":8269,"Ð¾ÑĢÐ¼Ð¸ÑĢÐ¾Ð²":8270,"ĠÐĿÐ°Ð¿Ð¾Ð¼Ð½Ð¸Ð¼":8271,"ĨÐ¸Ð¾Ð½Ð½ÑĭÐ¹":8272,"ĠÑģÑĤÑĢÐµÐ»":8273,"ĠÐ²ÑĭÐ·Ð²Ð°ÑĤÑĮ":8274,"ÑİÐ¹":8275,"szko":8276,"ĠÐºÐ¾Ð¼Ð¼ÐµÑĢÑĩÐµÑģ":8277,"miast":8278,"Ð½Ð°Ð¿ÑĢÐ¸Ð¼ÐµÑĢ":8279,"ĠÐºÐ¾ÑĦÐ":8280,"zi":8281,"ĠÐ·Ð°ÐºÐ¾Ð½Ð¾Ð¼":8282,"ĠÐ¸Ð½ÑĤÐµÐ»":8283,"ĠÐºÐ¾ÑĦÐµ":8284,"ĠÑģÑĤÐ¾Ð¹":8285,"ĠÐ¸Ð½Ð³ÑĢÐµÐ´Ð¸":8286,"Ð¾ÑĤÐµ":8287,"Ð¼Ð°Ð½":8288,"ĠÐ¸Ð³ÑĢÐ¾ÐºÐ¾Ð²":8289,"ĠÑĥÐ¿ÑĢÐ°Ð¶Ð½ÐµÐ½Ð¸Ñı":8290,"ĠÐĿÐµÐ¿":8291,"ÑĢÐ°Ñİ":8292,"ON":8293,"ĠÑĤÐµÐ¼Ðµ":8294,"Ġpotrzeb":8295,"ĠÐ·Ð½Ð°ÐºÐ¾Ð¼ÑģÑĤÐ²":8296,"ÐµÐ»ÑĮÑĩ":8297,"ĠÐ´ÑĥÐ¼Ð°Ñİ":8298,"stwa":8299,"Ð¾Ð½Ð°Ð¼":8300,"ĠÐ´Ð¸ÑĢÐµÐºÑĤÐ¾ÑĢ":8301,"Ð¾ÑĢÐ¸ÑĤÑĮ":8302,"ĠÐ±ÑĢÐ°Ð":8303,"ĠÐ½Ð°Ð¾Ð±Ð¾ÑĢÐ¾ÑĤ":8304,"ĠÐ¿ÑĢÐ¸Ð½ÐµÑģ":8305,"08":8306,"ĠÐ·Ð°Ð²Ð¾Ð´":8307,"ĠÐ»ÐµÑĩÐµÐ±":8308,"Ð³Ð¾Ñģ":8309,"ĠwpÅĤy":8310,"ĠÑģÑĤÐ¸":8311,"µÑĢÐµÐ±":8312,"Ġsytua":8313,"ĠÐ¼Ð°ÑģÑģÐ°Ð¶":8314,"cro":8315,"ĠÑıÐ·ÑĭÐºÐµ":8316,"ĠÐ²Ð¼ÐµÑĪ":8317,"ĠÑĢÐµÐ¼Ð¾Ð½ÑĤÐ°":8318,"ĠÐ³Ð°ÑĢÐ¼":8319,"ĠÐºÐ°Ð¶Ð´Ð¾Ð¼Ñĥ":8320,"ĠÐ½ÐµÐ»":8321,"ĠÐ¼Ð¸Ð³":8322,"Ġ36":8323,"redni":8324,"ĠÐķÐºÐ°ÑĤÐµÑĢ":8325,"ĠÐ£ÑģÐ»":8326,"ĠÐ´Ð¾ÑģÑĤÐ°ÑĤÐ¾Ñĩ":8327,"ĠÐ²ÑĭÐºÐ»ÑİÑĩ":8328,"ĠÐ¿ÑĢÐ¸Ð·Ð½Ð°Ð½Ð":8329,"kry":8330,"ÑĪÐ¸Ð¹ÑģÑı":8331,"ĠÐ²ÑĭÑħ":8332,"ĠÐ¡ÐµÐºÑģ":8333,"wala":8334,"ĠÐ»Ð¾Ð³":8335,"ÑĢÐ°Ð½Ð¸Ð»":8336,"ĠÑĥÐ³Ð¾Ð»Ð¾Ð²":8337,"ÑģÑĤÐ²ÐµÐ½Ð½ÑĭÐµ":8338,"ĠÑĪÑĥÐ¼":8339,"ĠÐ¡Ð¡Ð¡Ðł":8340,"Ð¸Ð¼ÑĭÑħ":8341,"wiet":8342,"ĠEx":8343,"ĠÐ·Ð°Ð½ÑıÑĤÐ¸Ñı":8344,"ÑıÑīÐµÐ³Ð¾":8345,"ÑĢÐµÐ¶Ð´Ðµ":8346,"ĠÐ¿ÑĢÐ¸ÑĢ":8347,"ÐµÐ·Ð´Ðµ":8348,"ĠÐ¿Ð¾ÐºÑĢÐ°Ñģ":8349,"grani":8350,"ĠÐ²Ð°ÑĪÐ°":8351,"szcz":8352,"ĠÐ¿Ð¸ÑĤÐ°Ð½Ð¸Ðµ":8353,"Ð½ÐµÐ¿":8354,"Ð¾ÑĤÐ»":8355,"Ġarty":8356,"ĠÐľÐ°ÐºÑģÐ¸Ð¼":8357,"ĠÑĤÐµÑĢÐ¿":8358,"44":8359,"ĠÐ±ÐµÑģÑģ":8360,"ÐµÐ½ÐµÑĢÐ°":8361,"ĠÑĢÐ°Ðº":8362,"ÑĢÐ¾ÑĩÐµÐ¼":8363,"ĠÐ¿Ð¾ÑĤÐµÐ½ÑĨÐ¸Ð°Ð»ÑĮ":8364,"ĠÐĿÐ°ÑĪ":8365,"rÃ³w":8366,"Ð¾Ð¸Ð·Ð¾Ð»ÑıÑ":8367,"ĠÑĥÑģÐ¿ÐµÑĪÐ½Ð¾":8368,"ÐµÐ¹Ñģ":8369,"ĠÐļÑģÑĤÐ°ÑĤÐ¸":8370,"ÑĢÐ°Ð±Ð°ÑĤÑĭÐ²Ð°ÑĤÑĮ":8371,"stytu":8372,"Ð°ÑĤÑģÑı":8373,"ĠÐ¾ÑģÐ¾Ð·":8374,"Ð¾ÑĢÐ¾Ñ":8375,"Ġtran":8376,"ĠÐ¸Ð³ÑĢÐµ":8377,"ĠÐ»Ð¸ÑģÑĤ":8378,"ĠÑģÑĤÐ¾Ð»ÑĮÐºÐ¾":8379,"Ð¸Ð½Ð¾Ðº":8380,"ĠÑĢÐµÑĨÐµÐ¿ÑĤ":8381,"ĠÐ¿ÑĢÐ¸ÑĩÐµÐ¼":8382,"ĠÐ¿ÑĢÐ¾Ð¸Ð·Ð²ÐµÐ´":8383,"ĠÐ¼Ð¾Ð´ÐµÐ»ÐµÐ¹":8384,"ÐµÐ¹ÑģÑĤÐ²Ð¸ÐµÐ¼":8385,"ĠÑģÐµÐ³Ð¾Ð´Ð½ÑıÑĪÐ½Ð¸Ð¹":8386,"ĠÐŁÑĢÐµÐ·Ð¸Ð´":8387,"ĠÐ¿ÑĢÐµÐ´ÑĥÑģÐ¼Ð°ÑĤÑĢ":8388,"ĠÐĴÐ¾Ñģ":8389,"ĠÑĤÐ¾ÐºÑģ":8390,"ĠÐ¸Ð½Ð²Ð°Ð»Ð¸Ð´":8391,"ĠÐ³Ð¾Ð²Ð¾ÑĢÑı":8392,"ÐºÑĥÐ¿":8393,"ĠÐĶÐ¾Ðº":8394,"ĠÐ¿ÑĢÐµÐ´ÑĥÐ¿ÑĢÐµÐ¶Ð´":8395,"ÐµÐ»Ð°ÑĢÑĥ":8396,"ĠÐ¿ÑĢÐ¾ÑĪÐ»Ð¾Ð¼":8397,"ĠÐ¼Ð°ÑĪÐ¸Ð½Ñĥ":8398,"ĠKon":8399,"ĠÐ¿Ð»ÑİÑģ":8400,"ĠÐ¶ÐµÑĢÑĤÐ²":8401,"ĠÑĨÐµÐ¿":8402,"ĠÑģÐ»ÐµÐ´Ð¾Ð²":8403,"Ð½Ð¸ÐºÐ°Ð¼":8404,"ĠÐ¿ÑĢÐ¾Ð´ÑĥÐºÑĤÐ°":8405,"ĤÑĭÐµ":8406,"ĠÐ¼ÐµÐ±ÐµÐ»Ð¸":8407,"ĠÑģÐµÐ»":8408,"ĠÐ½ÐµÐ´Ð¾ÑģÑĤÐ°ÑĤÐ¾Ñĩ":8409,"ĠÑįÐ½ÐµÑĢÐ³Ðµ":8410,"Ð»ÑĮÑ":8411,"ĠÑģÑĤÑĢÐ¾Ð¸ÑĤÐµÐ»ÑĮÑģÑĤÐ²Ð¾":8412,"ĠÐĲÑĦ":8413,"ĠÐ¾ÑĤÐ´ÐµÐ»ÑĮÐ½ÑĭÑħ":8414,"ĠÐ¶Ð¸Ð»ÑĮÑı":8415,"ĠÐ²Ð¸Ð´ÐµÑĤÑĮ":8416,"ID":8417,"ĠÐŁÐ¾ÑģÐºÐ¾Ð»ÑĮÐºÑĥ":8418,"ĠÐĴÑĭÐ±":8419,"ĠÐºÐ°Ð½Ð´Ð¸Ð´":8420,"ĠÐ¿ÑĢÐµÐ·Ð¸Ð´ÐµÐ½ÑĤ":8421,"ĠÐ¿ÑĢÐ¸ÑĪÐ»Ð¾ÑģÑĮ":8422,"ĠÐ¿ÑĢÐ¾Ð´Ð°Ð¶Ð¸":8423,"ĠÐ¿Ð¾ÑĢÑĥÑĩ":8424,"ĠÑĢÑĥÐºÑĥ":8425,"ĠÑĢÐµÐºÐ¾Ð¼ÐµÐ½Ð´Ð°ÑĨÐ¸Ð¸":8426,"ĠÐºÐ°ÑĢÑĤÐ¾ÑĦ":8427,"ĠÑĤÐ°ÑĢÐ¸ÑĦ":8428,"ĠÐ´Ð°ÑĢ":8429,"ĠÐ²Ð»Ð°Ð³":8430,"·Ð":8431,"ÑĢÐµÐ²Ð½Ð¾Ð²":8432,"Ð¡ÐŁ":8433,"Ġfina":8434,"ÑĤÐ¸Ð½Ñĥ":8435,"ĠÑģÑĤÐ°Ð±Ð¸Ð»ÑĮ":8436,"ĠÐļÐ¾Ð½Ñģ":8437,"ĠÐ²Ð´ÑĢÑĥÐ³":8438,"ĠÐ¿ÑĢÐ¸Ð»Ð¾Ð¶ÐµÐ½Ð¸Ñı":8439,"nki":8440,"ĠSe":8441,"Ġokre":8442,"ĠÐ½ÐµÐ¸Ð·":8443,"ÐµÐ½ÑĮÐ":8444,"ĠgÅĤÃ³w":8445,"ÑĤÐ¾ÑĩÐºÐ¸":8446,"ĠÐ±ÑĥÐ´ÑĥÑīÐµÐ¼":8447,"ÐµÐ½ÑģÑĤÐ²":8448,"Ð¾ÑģÑĤÐ°":8449,"ĠÑģÑĢÐµÐ´Ñĭ":8450,"our":8451,"ĠÐ·Ð°ÐºÑĥÐ¿":8452,"ĠbyÅĤa":8453,"Å¼enie":8454,"ĠÐĺÑģÐ¿Ð¾Ð»ÑĮÐ·Ð¾Ð²":8455,"ĠÐ¼Ð¾Ð¸":8456,"ĠÐ¸ÑģÑĤÐ¾ÑĢÐ¸Ñİ":8457,"ĠÐĿÐµÐ¾Ð±ÑħÐ¾Ð´Ð¸Ð¼Ð¾":8458,"Ð°ÑİÑīÐ¸ÐµÑģÑı":8459,"ĠÐ¿ÑĢÐ¸ÑħÐ¾Ð´":8460,"Ð»Ð¾Ð½Ð½Ð":8461,"Ġ%":8462,"ĠÐ´ÐµÑĤÑĮÐ¼Ð¸":8463,"ĠÐ²Ð¸ÑĢ":8464,"ĠÐ¼ÐµÐ½ÑıÑĤÑĮ":8465,"ĠÐ¿ÑĢÐµÐ´ÑģÑĤÐ°Ð²Ð¸ÑĤÐµÐ»ÑĮ":8466,"Ð³Ð¾ÑĤÐ°Ð²Ð»Ð¸Ð²":8467,"ĠÐłÐµÑģÐ¿ÑĥÐ±Ð»Ð¸ÐºÐ¸":8468,"ĠÐ¿ÐµÑĢÐ²ÑĭÐ¼":8469,"ĠÐ¼Ð¾Ð·Ð³Ð°":8470,"ĠÐ¿ÑĢÐµÐ±":8471,"ĠBu":8472,"Ð¾ÑĤÐ¾Ð¹":8473,"ĠÐ£Ð¿":8474,"ĠÐ´Ð¸Ð¿":8475,"ĠÐĳÐµÑģÐ¿Ð»Ð°":8476,"ĠÐ´Ð¾Ð±Ð¸ÑĤÑĮÑģÑı":8477,"czej":8478,"ĠÑĥÑĩÐµÑĤÐ°":8479,"Ð¾ÑĢÐ³":8480,"Ð¾Ð·Ð¸ÑĤ":8481,"38":8482,"ĠÐ¸Ð´ÐµÐ¸":8483,"ĠÐ¿Ð¾ÐºÑĢÑĭÑĤÐ¸Ñı":8484,"Ð¾Ð´Ð¸ÑĤÐµÐ»ÑĮ":8485,"ĠÐĴÐµÑĢÑħ":8486,"ĠÐŀÐ´Ð":8487,"Ð¸Ð½ÑģÑĤÐ²Ð¾":8488,"ĠÑĢÐ°Ð·Ð±Ð¸":8489,"ĠÐ¸ÑģÐ¿Ð¾Ð»ÑĮÐ·ÑĥÑı":8490,"ÑĤÑĭÐµ":8491,"ĠÐ¿Ð¾Ð¶ÐµÐ»":8492,"ĠÐºÐ°Ð½Ð°Ð":8493,"ĠÐĽÑĥÑĩÑĪÐµ":8494,"âĢ¦âĢ¦":8495,"Ð»Ð¸Ð½":8496,"ĠÐ¿ÑĢÐ°Ð²Ð´Ð°":8497,"wiera":8498,"ĠÐ·Ð°ÐºÐ°Ð·Ð°ÑĤÑĮ":8499,"ĠÐ²Ð½ÑĥÑĤÑĢÐµÐ½Ð½Ð¸Ñħ":8500,"ĠÐ²Ð¾Ð·Ð½Ð¸ÐºÐ½Ð¾Ð²ÐµÐ½Ð¸Ñı":8501,"ĠÐ²Ð¾ÑģÐº":8502,"ĠÐ·Ð¾Ð»Ð¾ÑĤ":8503,"ÑĤÐ¸ÑĤÑĥÑ":8504,"ÑĤÐ¾ÑĢÐµ":8505,"ÑĥÑĤÐ±":8506,"ĠÑħÐ¸ÑĢÑĥÑĢÐ³":8507,"Ð¾Ð»Ð¾Ð³Ð°":8508,"ÑĭÐ²Ð°Ð¹ÑĤÐµ":8509,"ĠÐ±Ð¸Ð±Ð»Ð¸Ð¾ÑĤ":8510,"tery":8511,"ĠÐ¿Ð¾Ð»ÑĥÑĩÐ¸ÑĤÐµ":8512,"ÑĢÐ¾Ñī":8513,"ĠÐ¿Ð»Ð¾ÑīÐ°Ð´ÑĮ":8514,"ĠÐ±ÐµÐ½Ð·":8515,"ĠÐ¿Ð¾ÑĢÑıÐ´ÐºÐ°":8516,"ĠuÅ¼ytk":8517,"ÐºÐ¾Ð²Ð¾Ð¹":8518,"ĠÑĥÐ»ÑĭÐ±":8519,"Ð°ÐµÐ¼Ð¾Ð³Ð¾":8520,"Ġzawo":8521,"ĠÑĩÑĥÐ¶":8522,"ĠÐ£ÑģÑĤÐ°Ð½Ð¾Ð²":8523,"ĠÐ½Ð°Ð±Ð¾ÑĢ":8524,"ĠÑģÑĤÑĢÐ°ÑħÐ¾Ð²":8525,"¸ÑĩÐ½ÐµÐ²":8526,"cyjne":8527,"ÅĤowie":8528,"ĠÐ§Ð°ÑīÐµ":8529,"ĠAndroid":8530,"Ð¸ÑĩÐµÑģÐºÐ¸Ð¼Ð¸":8531,"ĠÐ¶Ð°ÑĢ":8532,"ÐºÑĥÐ»ÑĮ":8533,"Ġ?":8534,"ĠÐĶÐµÐ»":8535,"ĠÐ¿Ð¾Ð·Ð²Ð¾Ð»ÑıÑİÑī":8536,"ĠÐ¿ÑĢÐµÐ´ÑĬ":8537,"ĠÑĤÐµÑħÐ½Ð¾Ð»Ð¾Ð³Ð¸Ð¹":8538,"¿ÑĢÐ°Ð²":8539,"ÑİÑĢ":8540,"cznym":8541,"tera":8542,"ĠÐ¿Ð»Ð¾ÑģÐº":8543,"Ġsprzeda":8544,"ĠÐ¿Ð¾Ð¿ÑĢÐ¾Ð±Ð¾Ð²Ð°ÑĤÑĮ":8545,"ĠÐ¿ÐµÑĢÐ¸Ð¾Ð´Ð°":8546,"Ð¸Ð°ÑĤ":8547,"ÑĤÐ¸Ð²Ð½Ð°Ñı":8548,"ÐµÑĢÐ·":8549,"Ð°Ð´ÐºÐ¸":8550,"ĠÐ¼Ð¾Ð½ÑĤÐ°Ð¶":8551,"ÑĢÐ¸Ñħ":8552,"ĠmÅĤo":8553,"ĠÐ¿ÑĢÐ¾Ð½Ð":8554,"ĠÐ´ÐµÐ¹ÑģÑĤÐ²ÑĥÐµÑĤ":8555,"ĠÐ¾Ð¿Ð»Ð°Ñĩ":8556,"ÑĤÑĮÑİ":8557,"ĠÐ½ÐµÐ¾Ð±ÑħÐ¾Ð´Ð¸Ð¼Ð¾ÑģÑĤÑĮ":8558,"ÑĢÐµÐ¸":8559,"Ð¾Ð¶Ð¸ÑĤÐµ":8560,"ĠÐ·Ð°Ð¼ÐµÐ½Ð¸ÑĤÑĮ":8561,"ĠÑĩÐµÑĤÑĭÑĢÐµÑħ":8562,"ĠÐ¿Ð¾Ð²ÑĤÐ¾ÑĢÐ":8563,"ÅĤego":8564,"ĠÐ·Ð°Ð¿Ð¾Ð»Ð½ÐµÐ½Ð":8565,"ĠÐºÐ»ÑĥÐ±Ð":8566,"ĠÐ½ÐµÐ¾Ð±":8567,"Ġ1000":8568,"ĠÐ¿ÐµÑĢÐµÐ»":8569,"ĠÐ¿Ð¾ÑģÑĤÐ°":8570,"Ġot":8571,"ĠSam":8572,"ĠÑĥÐ´Ð°ÑĢ":8573,"Ð¾Ð¾Ð¿":8574,"ĠurzÄħ":8575,"ĠÐ²ÑĭÑģÐ":8576,"ĠÐ¿ÑĥÐ·Ñĭ":8577,"ĠÑĢÐ°ÑģÑħÐ¾Ð´Ñĭ":8578,"arm":8579,"ĠÐ°Ð´Ð¼Ð¸Ð½Ð¸ÑģÑĤÑĢÐ°ÑĨÐ¸Ð¸":8580,"ĠÑĢÐ°Ð·Ð²Ð¸ÑĤÐ¸Ñİ":8581,"Ð°Ð´ÐµÐ¼":8582,"ĠÐ¢ÐµÐ»":8583,"ĠÐĽÐµÐ½Ð¸Ð":8584,"ÑĤÐ½Ð¾Ð¼Ñĥ":8585,"ĠÑģÐ¾Ð¾ÑĢÑĥÐ¶":8586,"ĠÑĥÐ¶Ð°Ñģ":8587,"ĠÐ¸Ð½ÑģÑĤÑĢÑĥÐºÑĨÐ¸Ñı":8588,"ĠÑĪÐµÐ»":8589,"ĤÑĭÐ¹":8590,"ĠÐ³Ð¾Ð´Ð¾Ð²":8591,"asa":8592,"ĠÐ²ÑĭÐ±ÑĢÐ°Ð½Ð":8593,"ĠÐ¸ÑĤÐ¾Ð³":8594,"ĠÐ¿Ð¾Ð´Ð»ÐµÐ¶":8595,"ĠÐ¿Ð¾Ð·Ð¶Ðµ":8596,"ÅĽciÄħ":8597,"czego":8598,"ÑĢÐ¾Ð²ÑĭÐµ":8599,"ĠÐ¼ÐµÑĢÐ¾Ð¿ÑĢÐ¸ÑıÑĤÐ¸Ð¹":8600,"ÑĢÐ¾Ñı":8601,"ĠÐ¸ÑģÐºÐ°ÑĤÑĮ":8602,"ÑĢÐ°ÑīÐµÐ½Ð¸Ðµ":8603,"ĠÐ¿Ð¾Ð¼Ð½Ð¸ÑĤÑĮ":8604,"ĠÑģÐµÑĤÑĮ":8605,"ĠÐ´Ð¾Ð¿Ð¾Ð»Ð½Ð¸ÑĤÐµÐ»ÑĮÐ½ÑĭÑħ":8606,"ĠÐ±Ð°Ð·Ðµ":8607,"ĠFi":8608,"ĠÐ¿ÑĢÐµÐ´Ð¿Ð¾ÑĩÑ":8609,"ĠÐ¿ÑĢÐµÐ´Ð¿Ð¾ÑĩÑĤ":8610,"ºÐ°Ð¼":8611,"ĠÐłÐ°Ð½Ð":8612,"Ġstrony":8613,"Ð¾Ð»ÐµÐ¿":8614,"ĠÐ´Ð²Ð¸Ð¶ÐµÐ½Ð¸Ðµ":8615,"ĠÑĥÐ²ÐµÐ»Ð¸ÑĩÐ¸ÑĤÑĮ":8616,"ĠÐ¿ÑĢÐ¾Ð·ÑĢÐ°Ñĩ":8617,"ĠÐļÐ°Ð·Ð°Ñħ":8618,"ĠÐ¿ÑĢÐ¾ÑĨÐµÑģÑģÑĭ":8619,"Ð¾ÑĤÐ½Ð¾":8620,"ĠÑĦÐµÑĢÐ¼":8621,"ĠÐ¾ÑĤÐ¿ÑĥÑģÐº":8622,"ĠÐ¾ÑĨÐµÐ½ÐºÐ¸":8623,"ĠÐ±ÑĥÑħÐ³Ð°Ð»":8624,"Ð¾Ð¿Ð¾Ð»Ð½Ð¸ÑĤÐµÐ»ÑĮ":8625,"Ð¸ÑĤÐµÐ»ÑıÐ¼":8626,"ĠÐºÐ½Ð¸Ð³":8627,"ĠÑģÐ²ÐµÑĢÑħÑĥ":8628,"Ð°ÑĤÐµÐ»ÑĮÐ½Ð¾Ð³Ð¾":8629,"ĠÐ¼Ð½Ð¾Ð³Ð¾ÑĩÐ¸ÑģÐ»":8630,"ĠÐ¢Ð°ÐºÐ°Ñı":8631,"Ã³d":8632,"ĠÐ¡Ð¾Ð´ÐµÑĢÐ¶Ð°Ð½Ð¸Ðµ":8633,"ĠÐ·Ð°Ð¼Ð":8634,"ÐĽÐĺ":8635,"ĠÐ²ÐµÐ»Ð¾ÑģÐ¸Ð¿":8636,"cer":8637,"Ð°Ð½ÑģÑĭ":8638,"Ð¾Ð»Ð¾Ð³Ð¸ÑĩÐµÑģÐºÐ¾Ð³Ð¾":8639,"ĠÑĢÐ°Ð·Ð¼ÐµÑĢÑĭ":8640,"Ð¾ÑİÐ·Ð°":8641,"ÐµÐ¹Ñ":8642,"ĠÐ¿Ð¾ÐºÐ":8643,"nes":8644,"ĠÐºÐ¸ÑĢÐ¿Ð¸Ñĩ":8645,"OR":8646,"ĠÐºÐ¾ÑįÑĦÑĦÐ¸ÑĨÐ¸":8647,"ĠÐ¾ÑĨÐµÐ½Ð¸Ð²":8648,"biÄĩ":8649,"ĠÐºÐ¾Ð½Ð²":8650,"ĠÐ´Ð¾Ð¿ÑĥÑģ":8651,"ĠÐ¿ÑĢÐ¸Ð·Ð½Ð°ÐºÐ¸":8652,"ÐµÐ½ÑĮÐµ":8653,"ĠÐŁÑĢÐ¾Ð³ÑĢÐ°Ð¼":8654,"ĠÐ¸Ð½ÑĦÐµÐºÑĨÐ¸Ð¸":8655,"Ġtam":8656,"ĠPolsce":8657,"ÑĢÐ¸ÑĤÐµÐ»ÑĮ":8658,"ÐºÐ¾ÑģÑĤÑĮÑİ":8659,"¸ÑĢÐ°Ñı":8660,"Ð°Ð´Ð¾":8661,"ĠÑģÐ¾Ð±ÑĭÑĤÐ¸Ð¹":8662,"ÑģÑģ":8663,"ĠÑĤÑĢÐµÐ±Ð¾Ð²Ð°Ð½Ð¸Ð¹":8664,"ÐµÐµÑĤÑģÑı":8665,"ĠÐ¿Ð¾Ð´ÑĤÐ²ÐµÑĢÐ´":8666,"ĠÐ½ÐµÐ½Ð°Ð":8667,"fer":8668,"ÑĢÐµÑĤÐ°":8669,"ĠÐ¼ÐµÐ´Ð¸Ðº":8670,"Ġpole":8671,"ĠÐĴÐ¾Ð¿ÑĢÐ¾Ñģ":8672,"ĠÐŀÑĤÐ·ÑĭÐ²":8673,"ĠÐ¾ÑĢÐ³Ð°Ð½Ð¸Ð·Ð¾Ð²":8674,"ĠÐ¸Ð´ÐµÐ°Ð»ÑĮÐ½Ð¾":8675,"ĠÑĤÐ°Ð½":8676,"ÑĤÐ¸ÑĪ":8677,"ĠÐ¿ÐµÑģÐ½Ð¸":8678,"ĠÐ²Ð¾Ð´Ð¸ÑĤÐµÐ»ÑĮ":8679,"dek":8680,"48":8681,"ĠÐ¿Ð¾Ð´Ð±Ð¾ÑĢ":8682,"ĠÐ¿Ð¾Ð·Ð":8683,"ÑĥÐ´ÑĪ":8684,"Ð¾Ð´Ð½ÑĥÑİ":8685,"Ð¾Ð´Ð½Ð¾Ð¼":8686,"ĠÐ¾Ð¿ÑĥÑħ":8687,"ĠÐŁÑĢÐµÐ¶Ð´Ðµ":8688,"Ġinte":8689,"ÑĢÐ¶":8690,"ĠÐ¿ÑĢÐ¾Ð³ÑĢÐ°Ð¼Ð¼Ðµ":8691,"ÑĤÐ½Ð¸ÐºÐ¾Ð²":8692,"ĠÐ¼Ð¾ÑģÐº":8693,"Ġobec":8694,"ĠÐ¼Ð°Ð¼Ð°":8695,"ĠÐºÐ°ÑĢÐºÐ°Ñģ":8696,"Ġkonie":8697,"Ġdomu":8698,"tural":8699,"ĠÐ·Ð°Ð´Ð°ÑĩÐ°":8700,"ĠÑĦÐ¸Ð»ÑĮÑ":8701,"ĠÑĦÐ¸Ð»ÑĮÑĤ":8702,"Ġzak":8703,"ĠÑģÐ´ÐµÐ»Ð°Ð»":8704,"ĠÑģÐ»Ð°Ð²":8705,"ĠÐ»Ð¸ÑĩÐ½Ð¾ÑģÑĤÐ¸":8706,"ĠÑĢÐ°ÑģÑĤÐ²":8707,"ĠÐ¿ÑĢÐ¾ÑĤÐ¸Ð²Ð¾Ð¿Ð¾ÐºÐ°Ð·":8708,"ĠÐºÐ¾Ð¼Ð½Ð°ÑĤÐµ":8709,"Ð¾ÑģÐ»ÐµÐ´":8710,"ĠÐ¿Ð»Ð¾Ð´":8711,"ĠÐ¿Ð°Ð½ÐµÐ»Ð¸":8712,"Ð²ÐµÑĤÐ»":8713,"ĠÐ¿ÑĢÐ°ÐºÑĤÐ¸ÐºÐµ":8714,"ÑĢÐ°Ð¹ÑĤÐµ":8715,"ĠÐ´ÑĢÑĥÐ·ÐµÐ¹":8716,"ĠÐ·Ð°Ð³ÑĢÑıÐ·":8717,"ĠÐ½ÐµÐ¿Ð»":8718,"ĠÑģÐ¿Ð¾ÑģÐ¾Ð±Ð½Ñĭ":8719,"ÐµÐ´Ñĭ":8720,"nem":8721,"ĠÐ¿ÑĢÐ¾ÐµÐºÑĤÐ¾Ð²":8722,"ĠÐ¿Ð¾Ð´ÑħÐ¾Ð´ÑıÑĤ":8723,"ĠÐ²Ð¾Ð¿ÑĢÐ¾ÑģÐ":8724,"ya":8725,"ĠÐ¼ÐµÑħÐ°Ð½Ð¸ÑĩÐµÑģÐº":8726,"ĠÐ´Ð¾ÑģÑĤÑĥÐ¿Ð":8727,"ÐµÐºÑĥ":8728,"ÑĳÐ½":8729,"ĠÐºÑĥÑħÐ½Ð¸":8730,"Ð¸Ð½ÐºÑĥ":8731,"ĠÐ±ÐµÐ»ÑĮ":8732,"ÑĤÑĭÐ¹":8733,"ÑģÐºÐ°Ð·":8734,"ĠÐ³Ð»Ð°Ð²Ð°":8735,"ĠÑģÐ¾Ð·Ð½Ð°Ð½Ð":8736,"ĠÐµÐ²ÑĢÐ¾":8737,"ĠÐ°Ð·Ð°ÑĢ":8738,"stnie":8739,"ml":8740,"ĠÐ²ÐµÑģÐ°":8741,"ĠÐ¿Ð¾Ð»Ð½ÑĭÐ¹":8742,"Ġ400":8743,"ĠÑģÐ¾Ð´ÐµÑĢÐ¶Ð°Ñī":8744,"ĠÐ½Ð°ÐºÐ¾Ð½ÐµÑĨ":8745,"ĠÐŁÐ¾ÐºÐ°":8746,"ĠÐ¸Ð½ÑģÑĤÑĢÑĥÐ¼ÐµÐ½ÑĤ":8747,"ĠÐ¡ÑĤÑĢ":8748,"ĠÐºÐ°ÐºÑĥÑİ":8749,"ĠÐ¾ÑĤÐµÑĩÐµÑģÑĤÐ²":8750,"ĠÐ¿Ð¾Ð´Ð²ÐµÑĢÐ³":8751,"ĠÐ¼Ð¾ÑĤÐ¸Ð²":8752,"ÑĨÐ°Ð¼":8753,"ĠÑĩÑĥÐ²ÑģÑĤÐ²Ð¾":8754,"ank":8755,"ĠÑĢÐ°Ð·ÑĥÐ¼":8756,"ĠÐ¿Ð¾Ð»Ð¾Ð¶ÐµÐ½Ð¸Ñı":8757,"ĠÐļÐ°":8758,"ĠÐ¿Ð¾ÑģÐ»ÐµÐ´Ð½Ð¸Ð¹":8759,"ĠÐ¿Ð¸ÑĪÐµÑĤ":8760,"ĠÐ¿Ð¾ÑģÐ»ÐµÐ´Ð½ÐµÐµ":8761,"Ġpozosta":8762,"ĠÐ²Ð¾Ð¿ÑĢÐ¾ÑģÐ°Ð¼":8763,"cznÄħ":8764,"ĠÐ¿Ð¾Ð¸ÑģÐº":8765,"Ġczasu":8766,"ĠÐºÐ¾ÑĢÐ°Ð±":8767,"ĠÑģÐ¾ÑĢÑĤÐ°":8768,"ÐµÑħÐ°":8769,"ĠÐ¿Ð¾Ð½Ð¸Ð¼Ð°ÑĤÑĮ":8770,"ĠÑįÐ½Ð´":8771,"ĠÐĴÐ¾Ð·Ð¼Ð¾Ð¶":8772,"ÑĢÐ°Ð¼Ð°":8773,"ĠÐ·Ð¾Ð½Ñĭ":8774,"ĠÐ¿ÐµÑĢÑģÐ¾Ð½Ð°Ð»ÑĮ":8775,"Ð¸Ð½Ð¸ÑĢÐ¾Ð²":8776,"ĠÐ¿ÑĢÐµÐ·Ð¸Ð´ÐµÐ½ÑĤÐ°":8777,"ĠÐŁÐ¾ÑĤÐ¾Ð¼Ñĥ":8778,"ĠÑģÑĤÐ¾ÑĢÐ¾Ð½Ðµ":8779,"Ð¾Ð´Ð³Ð¾ÑĤÐ¾Ð²":8780,"ĠÐ¾Ð±ÑĢÐ°ÑĤÐ¸ÑĤÑĮ":8781,"ĠÐ°Ð½Ð°Ð»Ð¸Ð·Ð°":8782,"ĠÐ·Ð°ÐºÑĢÑĭÐ²":8783,"iom":8784,"ĠÑħÐ°ÑĢÐ°ÐºÑĤÐµÑĢÐ¸Ð·":8785,"Ġponad":8786,"Ð¾Ð²Ñĭ":8787,"Ġtemu":8788,"ĠÑĢÐ°Ð·Ð¼ÐµÑĢÐ¾Ð²":8789,"ĠÐ¿Ð¾Ð¼ÐµÑīÐµÐ½Ð¸Ðµ":8790,"ĠÐ¸Ð·Ð´ÐµÐ»Ð¸Ð¹":8791,"ĠÐ¾ÑħÐ»Ð°Ð¶Ð´":8792,"ÐµÐ½ÐµÐ½Ð¸Ðµ":8793,"ĠÐ´Ð²ÐµÑĢÑĮ":8794,"ĠÐ¿Ð¾Ð¼ÐµÑīÐµÐ½Ð¸Ð¸":8795,"Ð¾Ð½ÐºÐ¸":8796,"ĠÑĢÐ°Ð·Ð½Ð¾Ð²Ð¸Ð´":8797,"ĠÑįÐ»ÐµÐºÑĤÑĢÐ¾Ð½Ð½Ð¾Ð¹":8798,"ĠÐ°Ð²Ð°ÑĢ":8799,"ÑĥÐ¶Ð":8800,"ÑĥÑİÑīÐ°Ñı":8801,"ÑĢÑĥÐ³Ð":8802,"ĠHD":8803,"ĠÐ»Ð°Ð´":8804,"ĠÐ¿Ð¾Ð´Ð°ÑĢÐ¾Ðº":8805,"Ð°ÑģÑģÐµÐ¹":8806,"ĠÐ±ÑĥÐ¼Ð°Ð³":8807,"ĠÐľÐ¸Ð½Ð¸ÑģÑĤÐµÑĢ":8808,"ĠÐ¾Ð¿Ð¸ÑģÐ°Ð½Ð¸Ðµ":8809,"ĠÐ³Ð¾Ð²Ð¾ÑĢÐ¸ÑĤÑģÑı":8810,"ÐłÐķ":8811,"Ð»ÑĮÑĤ":8812,"Ġzapo":8813,"Ð¾ÑģÐ¾ÑĦ":8814,"Ð¸Ð·Ð¸ÑĢÐ¾Ð²Ð°ÑĤÑĮ":8815,"ĠÐ¡ÐľÐĺ":8816,"ĠÐ°Ð»ÑĮÑĤÐµÑĢÐ½Ð°":8817,"ĠÐ°ÑįÑĢÐ¾Ð¿":8818,"ĠÐ´Ð¾Ð»Ð³Ð¾Ð²":8819,"Ð¾ÑĤÐ¾Ñĩ":8820,"ĠÑĤÐ¾Ðº":8821,"wiÄħz":8822,"Ġwybra":8823,"ĠÐ¿Ð¾Ð¹":8824,"ĠÐ¿ÑĢÐ¾ÑĨÐµÐ´":8825,"ĠÐĹÐ°Ð±":8826,"bet":8827,"ĠÐ½Ñİ":8828,"ĠÐ³Ð¾ÑģÑĤÐµÐ¹":8829,"Ġkorzysta":8830,"ĠÐºÐ¾Ð¼Ð¿ÐµÐ½Ñģ":8831,"chy":8832,"ÐľÐĲ":8833,"ĠÑĥÐ´Ð¾ÑģÑĤÐ¾Ð²ÐµÑĢ":8834,"ĠÐ¾Ð±ÑĬÐµÐºÑĤÐ°":8835,"Ð¾ÐºÑĢÐ°":8836,"Ð»ÐµÐºÑĤÑĢ":8837,"ĠÐ¾Ð¶":8838,"Ð»Ð¸Ð¶":8839,"ĠÐ¾ÑĢÑĥ":8840,"ĠÐ·Ð°Ð¿ÑĥÑģÐº":8841,"Ð°Ð¶ÐµÑĤÑģÑı":8842,"ĠÐ´Ð¸Ðº":8843,"Ġzaku":8844,"ÐµÐ´Ð¸":8845,"Ð¸Ð²ÐºÐ¸":8846,"ĠÑĤÐºÐ°Ð½ÐµÐ¹":8847,"Ġbada":8848,"ĠÐ·Ð°ÐºÐ»Ð°Ð´":8849,"Ð¸Ð¼ÑĭÐµ":8850,"Ġdni":8851,"ĠÐ¿ÑĥÑģÑĤÑĮ":8852,"ĠÐ¿Ð¾Ð²ÑĭÑĪÐµÐ½Ð¸Ñı":8853,"ĠÐºÐ½Ð¸Ð¶":8854,"ĠÐ±ÑĥÑĤÑĭÐ»":8855,"ĠÑģÐ¾ÑģÑĤÐ°Ð²Ð»ÑıÑİÑī":8856,"ĠÑĢÐµÐ³ÑĥÐ»Ð¸":8857,"ĠmÄĻ":8858,"ĠÐ¿ÐµÑĢÐµÑħÐ¾Ð´":8859,"ĠÐ¸Ð´ÑĤÐ¸":8860,"ĠÐ¿ÐµÑĢÐµÐ´Ð°ÑĩÐ¸":8861,"ĠÑģÐ¾Ð¿ÑĢÐ¾ÑĤÐ¸Ð²":8862,"ÐµÑĩÑĮ":8863,"ĠÐ±ÐµÐ·Ð´":8864,"ĠÐ£Ð¶Ðµ":8865,"ĠÐ·Ð°Ð²ÐµÐ´":8866,"ÐµÐ¹ÑĤÐµ":8867,"ĠÐ¿ÑĢÐ¸Ð´ÑĥÐ¼":8868,"ĠÐ±Ð¾Ð»ÐµÐ·Ð½ÑĮ":8869,"ĠÐ´Ð½ÐµÐ¼":8870,"ĠÐ¿ÐµÑĢÐµÐ¼ÐµÑī":8871,"stro":8872,"ĠÐ²ÑģÐ»ÐµÐ´":8873,"ĠÐ¸Ð½Ð¸ÑĨÐ¸Ð°ÑĤÐ¸Ð²":8874,"ĠÐ¢Ð²":8875,"Ġprzeciw":8876,"ĠÐ¾Ð±ÑĬÐµÐºÑ":8877,"Ġreali":8878,"ĠÑĤÑĭÑģÑıÑĩÐ¸":8879,"Ġwszystkie":8880,"ĠÐĶÐ¾Ñģ":8881,"Ð¾Ð»Ð¾Ð³Ð¸ÑĩÐµÑģÐºÐ¾Ð¹":8882,"Ġ2000":8883,"ĠPre":8884,"ĠÑĤÑĢÐµÐ²":8885,"ĠÐ»Ð¸ÑĩÐ½Ð¾":8886,"ÑĢÐ¾ÐµÐº":8887,"ĠÐ½ÐµÑģÐ¾Ð²":8888,"ĠÑĩÑĤÐ¾Ð±":8889,"ĠÐ¼ÑĭÑģÐ»Ð¸":8890,"ÐĽÐŀ":8891,"ĠÐ»Ð¾Ð´":8892,"ĠÑģÑĤÐ¾Ð»ÑĮ":8893,"ĠÐ´Ð¾Ð¼Ð¾Ð¹":8894,"ĠÐ²Ð¾Ð·Ð½Ð¸ÐºÐ°ÑİÑĤ":8895,"ial":8896,"ĠÑģÐ¸Ð½Ð´":8897,"Ġwyb":8898,"ĠÐ²Ð¸ÑĢÑĤÑĥ":8899,"ÑģÑĤÐ°Ð½Ð°Ð²Ð»Ð¸Ð²":8900,"ÑĤÐ°Ð»":8901,"ĠÑģÐ¾ÑĤÑĢÑĥÐ´Ð½Ð¸ÐºÐ¸":8902,"Ð»Ð°Ð·":8903,"Ð¾Ð·Ð¸ÑĢÐ¾Ð²":8904,"ĠÐ´Ð¾Ñĩ":8905,"ĠÐ¡ÐŁ":8906,"ÑĢÐ°Ð¶Ð":8907,"ĠÑģÐºÐ°Ð·Ð°Ð»Ð°":8908,"¸ÑģÑı":8909,"ÑĥÑĩÐ":8910,"ĠÐ·Ð°ÐºÐ°Ð½":8911,"ĠÐŁÐµÑĢÐ":8912,"Ð¾Ð³Ð¾Ð´":8913,"ÑĤÐºÐ¾Ð¼":8914,"ĠÑĤÑĥÑĢÐ½Ð¸":8915,"ĠÑĩÐ¸ÑĤÐ°ÑĤÑĮ":8916,"ÐµÐ³ÐºÐ°":8917,"ĠÐ´Ð°Ð»ÑĮÐ½ÐµÐ¹ÑĪÐµÐ¼":8918,"ĠspoÅĤe":8919,"let":8920,"ĠczÄĻsto":8921,"ÑĤÐ¾ÑĢÐ¸Ñİ":8922,"ĠÐ²ÐµÐ´Ð¾Ð¼":8923,"ĠÐ¿Ð¾ÑģÑĤÑĢÐ¾ÐµÐ½Ð":8924,"ĠÑĪÐºÐ¾Ð»Ðµ":8925,"ĠÑģÐ¿Ð¾ÑĢÑĤÐ°":8926,"ĠÐ¿Ð¾Ð»ÑĥÑĩÐ°ÑİÑĤ":8927,"tury":8928,"32":8929,"ĠÐºÐ°ÐºÐ¾Ð³Ð¾":8930,"ĠÐ¿Ð¾Ð»Ð½Ð¾Ð³Ð¾":8931,"ĠÑģÐ¼ÐµÑģÐ¸":8932,"34":8933,"Ġwszystko":8934,"ĠÐ²ÑĭÐ¶":8935,"ĠÐ²ÑģÑĤÑĢÐµÑĩÐ¸":8936,"Ġpoprze":8937,"37":8938,"ĠÐ½Ð°Ð³ÑĢÑĥÐ·ÐºÐ¸":8939,"ĠÐ¿ÑıÑĤÐ¸":8940,"ĠÑĤÐ²Ð¾ÑĢÑĩ":8941,"ĠÑĥÑĩÐµÐ½Ð¸Ð":8942,"Ð¢Ðĺ":8943,"ÐµÑĢÐµÐ²":8944,"Ð¶ÐµÐ»":8945,"ÑĩÐµÑĤÐ":8946,"ĠÐ¾ÑģÑĤÑĢ":8947,"ĠÑĩÐµÐ»Ð¾Ð²ÐµÐºÐ¾Ð¼":8948,"ĠÐ¾Ð±Ð»Ð°Ð´Ð°ÑİÑĤ":8949,"owaniu":8950,"ĠÐĸÐļ":8951,"Ð½Ð¸Ð»Ð¸":8952,"ĠÐ´Ð¸Ð°Ð³Ð":8953,"ÑģÐ¸ÐµÐ¹":8954,"ĠÐ²ÑĢÐ°ÑĩÑĥ":8955,"Ð¿ÐµÐº":8956,"ĠÐ²ÑħÐ¾Ð´ÑıÑĤ":8957,"ĠÐĿÐ¾Ð²Ð¾ÑģÑĤÐ¸":8958,"ĠÐºÑĢÐ¸Ð·":8959,"Ġwww":8960,"ĠÐĺÐ½ÑĦÐ¾ÑĢÐ¼":8961,"Ġwska":8962,"ĠÐ¾ÐºÑĢÐ°ÑĪ":8963,"ĠÐ¾Ð±Ð¾Ð³":8964,"ĠÑģÑĥÑīÐµÑģÑĤÐ²ÐµÐ½Ð½Ð¾":8965,"ĠÐ²Ð¾ÑĪ":8966,"ĠÐ¾ÑĤÐ½Ð¾ÑĪÐµÐ½Ð¸Ðµ":8967,"ĠÐ½Ð°ÑĩÐ°Ð»Ð¾":8968,"ĠÐºÐ°ÑĢÑĮ":8969,"ĠÐ¶ÐµÐ»Ð°ÑĤÐµÐ»ÑĮÐ½Ð¾":8970,"Ġchwi":8971,"ĠÑħÐ»Ð¾Ð¿":8972,"ĠÑĩÐ¸ÑģÐ»Ð°":8973,"sÃ³w":8974,"ĠÐ»ÑĥÐº":8975,"ĠÐ¿ÑĢÐ¸Ð½ÑıÑĤÐ¾":8976,"Ð¿ÐµÑĢÐ²ÑĭÑħ":8977,"ĠÐ´Ð¸Ð°Ð±":8978,"ÑĤÐ°ÑĢÐ¸":8979,"tora":8980,"ÑĥÑħÐµ":8981,"ĠÐ¼Ð½Ð¾Ð³Ð¾Ðµ":8982,"ĠÐ½Ð°ÑĪÐ°":8983,"ĠÐķÐ²ÑĢÐ¾Ð¿Ñĭ":8984,"ÑİÐ¼Ð¸Ð½Ð":8985,"ĠÐ·Ð°ÑĢÐ°Ð¶":8986,"İÑīÐ¸Ðµ":8987,"ĠÐŀÐ±ÑıÐ·":8988,"ujemy":8989,"Ġpubli":8990,"ĠÐ¡ÐµÐ²ÐµÑĢÐ":8991,"ĠÑĥÑħÑĥÐ´ÑĪ":8992,"ĠÑĤÑĢÐµÐ±ÑĥÑİÑĤ":8993,"ĠÐĿÐ¾Ð²ÑĭÐ¹":8994,"ĠÐ¼ÑĭÑĪÑĨÑĭ":8995,"ÐµÑģÑĤÐµÑĢ":8996,"ĠÑģÐ»ÐµÐ³ÐºÐ°":8997,"°ÑĤÐ¸":8998,"ĠiPhone":8999,"ÐķÑģÐ»Ð¸":9000,"ĠÐºÐ¸Ð½Ð":9001,"ĠÐ²ÑĤÐ¾ÑĢÐ¾Ð³Ð¾":9002,"ĠÐ¿ÑĥÐ½ÐºÑĤ":9003,"ĠÐŁÐ¾ÑĢÐ½Ð¾":9004,"ĠÑĥÐ´Ð°Ñĩ":9005,"ĠÐ¿Ð¾Ð¼ÐµÑīÐµÐ½Ð¸Ð¹":9006,"ĠÐ¿ÑĢÐµÐ´Ð»Ð°Ð³Ð°ÑİÑĤ":9007,"ĠÑĨÐ²Ðµ":9008,"ĠÐ°Ð»ÐºÐ¾Ð³Ð¾Ð»ÑĮ":9009,"ĠÐĽÐµ":9010,"ĠÐ´Ð¸ÑģÐº":9011,"chno":9012,"ĠÑģÐµÑĢÐ¸":9013,"book":9014,"Ġsek":9015,"up":9016,"ĠÐ»Ð°Ð±Ð¾ÑĢÐ°":9017,"nic":9018,"Ġrodza":9019,"ĠÑģÑĭÐ³":9020,"ÅĽrÃ³d":9021,"Ð¾ÑĢÐ¸Ñģ":9022,"ĠÐ´Ð¾ÑģÑĤÐ¸Ð¶ÐµÐ½Ð¸Ñı":9023,"ĠÐ¿Ð¾Ð²ÑĭÑģ":9024,"ĠÐ½Ð°Ð¶Ð¼Ð¸ÑĤÐµ":9025,"________":9026,"muje":9027,"ĠÐ¾ÑĤÑĤÐµÐ½Ð":9028,"ĠÐ¿ÑĢÐµÐ´ÑģÑĤÐ°Ð²Ð¸ÑĤÐµÐ»Ð¸":9029,"ĠÐ²Ð°Ð½Ð½Ð¾Ð¹":9030,"ĠÑģÐ¾ÑĢÐµÐ²Ð½Ð¾Ð²":9031,"ĠÐ¼Ð¾ÑĢÐµ":9032,"Ð¾Ð¼Ð¸Ð½Ð°Ð½Ð":9033,"Ð¾Ð²ÑĭÐ¼Ð¸":9034,"ÐµÐ¹ÐºÐ¸":9035,"ĠÐľÐµÑģ":9036,"wiÄĩ":9037,"Ġpoziom":9038,"ĠÐ´ÑĢÑĥÐ³ÑĥÑİ":9039,"ĠÐ¡ÐºÐ¾Ð»ÑĮÐºÐ¾":9040,"ĠÐ·Ð²ÑĥÐº":9041,"ĠÐ¾Ð¿ÑĢÐµÐ´ÐµÐ»ÑıÐµÑĤÑģÑı":9042,"ĠÐ¾Ð±ÑģÑĤÐ¾ÑıÑĤÐµÐ»ÑĮÑģÑĤÐ²":9043,"ĠÐ²ÑĢÐ¾Ð´Ðµ":9044,"ĠÐ´Ð¾Ð·":9045,"ÅĤej":9046,"ĠÐĳÐµÐ»Ð°ÑĢÑĥ":9047,"ĠÐ¼Ð¾ÑĪ":9048,"Ð¾ÑĢÐ¾Ð·":9049,"Ġumie":9050,"ĠÐ³ÑĢÑĥÐ´Ð¸":9051,"owiada":9052,"Ð°Ð½Ð°Ð¼":9053,"ĠÐ¾ÑĤÐºÐ°Ð·Ð°ÑĤÑĮÑģÑı":9054,"ĠÑģÐ²ÑıÐ·ÑĮ":9055,"ĠÐ¡ÑĤÐ°":9056,"Ð¸Ð½Ð°ÑĢ":9057,"ĠÑįÐ¼Ð¾ÑĨÐ¸Ð¾Ð½Ð°Ð»ÑĮ":9058,"Ġwszystkim":9059,"ĠÐ¾Ð±Ð¼ÐµÐ½":9060,"ÑĢÐ¸Ð±":9061,"ĳÐ¼":9062,"ĠÐ¸ÑģÑģÐ»ÐµÐ´Ð¾Ð²Ð°Ð½Ð¸Ð¹":9063,"ĠktÃ³rej":9064,"ÑĢÐ¸ÑģÑĤÐ¸":9065,"ÑģÑĤÐ²ÐµÐ½Ð½Ð¾Ðµ":9066,"ĠÐĲÐ½Ð´ÑĢÐµÐ¹":9067,"ĠÐ»ÑĥÑĩÑĪÐ¸Ð¹":9068,"ĠÐ¿ÑĢÐµÐ´Ð¿ÑĢÐ¸ÑıÑĤÐ¸Ð¹":9069,"ĠÐ²Ð¸Ð´Ð½Ð¾":9070,"ÐµÑĢÐ²Ð°":9071,"ĠÐ²Ð¿ÑĢÐ°Ð²Ð":9072,"ĠÐķÐ²ÑĢÐ¾Ð¿Ð":9073,"Ð°ÐµÑĤÐµÑģÑĮ":9074,"ĠÐ¡Ð½Ð°ÑĩÐ°Ð»Ð°":9075,"nk":9076,"ĠÑĢÐ°ÑģÑģÐ»Ð°Ð±":9077,"ĠÐ¿Ð¾Ð»Ð¸ÑĤÐ¸ÐºÐ¸":9078,"ĠÐłÐ°Ð½ÐµÐµ":9079,"Ġ32":9080,"Ġ00":9081,"row":9082,"Ð»ÑİÐ·":9083,"lub":9084,"ÑĭÑĩÐ°Ð¹":9085,"ĠÑĤÐµÐ»ÐµÐ²Ð¸Ð·":9086,"ĠÐ²ÑĭÐº":9087,"cach":9088,"ĠÑĢÐµÐ±ÐµÐ½ÐºÑĥ":9089,"ĠÅ»":9090,"ĠÐ½ÐµÐ²ÐµÑĢÐ¾Ñı":9091,"pozy":9092,"ĠÐ»Ð°Ð·":9093,"ĠÐ½ÐµÐ¾Ð¶Ð¸Ð´":9094,"Ġfirmy":9095,"ĠÑģÐ°ÑħÐ°ÑĢ":9096,"ĠÐ´Ð¸Ðµ":9097,"ĠÐ¿ÑĢÐ¸ÑģÐ¾ÐµÐ´":9098,"Ð»Ð°Ð²Ð":9099,"Ð»ÐµÐºÑ":9100,"ĠÑĥÐ¿ÑĢÐ°Ð²Ð»ÐµÐ½Ð¸Ðµ":9101,"ÑĢÐµÐ·Ð²ÑĭÑĩÐ°Ð¹":9102,"ĠÐ¿Ð¾ÑĤÐµÑĢÐ":9103,"ĠÐ²Ð°ÐºÑĨ":9104,"ÑĤÐ¸Ð²Ð½ÑĭÐ¼":9105,"ĠÐ¿ÑĢÐ¾ÑĨÐµÐ´ÑĥÑĢÐ°":9106,"ĠÑģÑĢÐµÐ´Ð½ÐµÐ¹":9107,"ĠÐ¿ÑĢÐ¾Ð²Ð¾Ð´ÑıÑĤ":9108,"ĠÐĲÐ½Ð°Ð»":9109,"ĠÐĿÐ°ÑĤ":9110,"ĠÑģÑĥÑīÐµÑģÑĤÐ²ÑĥÑİÑĤ":9111,"Ð»ÐµÐºÑĤ":9112,"ĠÐ½Ð¾ÑĢÐ¼Ñĭ":9113,"ĠmoÅ¼esz":9114,"ÑĤÐ¸ÐºÐ¾Ð¹":9115,"Å¼eli":9116,"ĠÐ¢Ð°ÐºÐ¾Ðµ":9117,"ĠÐĿÐ°ÑĪÐ¸":9118,"ĠÐ¿Ð¾Ð²ÑĭÑĪÐµÐ½Ð¸Ðµ":9119,"ĠÑģÐ¸Ð½Ð":9120,"ĠÑįÐºÐ¾Ð½Ð¾Ð¼Ð¸ÐºÐ¸":9121,"ĠÐ¿Ð¾Ð·Ð¸ÑĨÐ¸Ð¸":9122,"ĠÐ°ÐºÐºÐ°":9123,"ĠÐ´Ð¾ÑģÑĤÐ¾Ð¹":9124,"ÑĥÑİÑīÐµÐµ":9125,"ÐµÐµÑģÑı":9126,"Ð´ÐµÑĤ":9127,"ĠÐŀÑĢÐ³Ð°Ð½Ð¸Ð·":9128,"ĠÑıÑī":9129,"ÅĽla":9130,"ÐµÑģÑĤÐ²Ðµ":9131,"ĠÑģÑĥÐ¿ÑĢÑĥÐ³":9132,"ĠÐ¼Ð¾Ð½Ð¸":9133,"ĠÐ¡Ð¾Ð²ÑĢÐµÐ¼":9134,"ĠÑĥÐ±Ð¸Ð¹":9135,"ĠÑĦÐ°ÑĢ":9136,"Å¼li":9137,"ÑĢÑĭÑĤÑĮ":9138,"ĠÐºÐ»Ð°Ð²":9139,"Ð°ÑĤÐ¾Ð¼":9140,"ĠÐ¾Ð¿ÑĢÐµÐ´ÐµÐ»ÐµÐ½Ð¸Ñı":9141,"ÐºÐ¾ÑĪ":9142,"ĠÐ¸ÑģÑ":9143,"ĠÐ¿ÑĢÐ¸ÑĤ":9144,"ĠÐ¸ÑģÑĤ":9145,"ĠÐ³ÑĢÑĥÐ¿Ð¿Ðµ":9146,"ĠWo":9147,"ĠÑĤÑĢÑĥÐ±Ñĭ":9148,"Ġgry":9149,"ĠÐºÐ»Ð°Ð¿":9150,"ĠÑģÐºÐ¾ÑĢÐ¾ÑģÑĤÐ¸":9151,"ĠÑĢÐµÑĪÐµÐ½Ð¸Ð¹":9152,"ĠÑıÑģ":9153,"ĠÑģÐ²Ðµ":9154,"ÐĶÐĶ":9155,"Ð»Ð°Ñĩ":9156,"Ġstos":9157,"Ġyou":9158,"ĠÑĨÐ¸Ðº":9159,"ĠÐ»ÐµÑģÑĤÐ½Ð":9160,"ĠÐ¸Ð´ÐµÐ½":9161,"ĠÐ¡Ð¾":9162,"ĠÑģÐ²Ð¾ÐµÐ²":9163,"ktyw":9164,"ĠÐŀÑģÐ¾Ð±ÐµÐ½Ð½Ð¾ÑģÑĤÐ¸":9165,"ĠÐŁÐ¾ÑĤÐ¾Ð¼":9166,"Ð³Ð½Ð¾Ð²":9167,"kra":9168,"ĠÐ·Ð°ÑĢÑıÐ´":9169,"ĠÑģÐµÐ·Ð¾Ð½":9170,"Ġczyli":9171,"ĠÑģÑĢÐµÐ´Ð½ÐµÐ³Ð¾":9172,"kacji":9173,"Ð¾Ð²Ð¾Ð»ÑĮ":9174,"ĠÑĥÑīÐµÑĢÐ±":9175,"ĠÐĺÐ½ÑĤÐµÑĢÐµÑģ":9176,"ÐºÐ¾Ð»":9177,"ĠÐ²ÑĭÐ½ÑĥÐ¶":9178,"ĠÐ¿ÐµÑĢÐ²Ð¾Ðµ":9179,"ĠÐ±Ð°ÑģÑģÐµÐ¹":9180,"Ð¾ÑĢÐ¸Ð¹":9181,"ĠÐ°ÑĢÑħÐ¸ÑĤÐµÐºÑĤÑĥ":9182,"ĠÐ³Ð°Ð·Ð°":9183,"ĠÐ»Ð°Ð¼":9184,"chodzi":9185,"Ġzawsze":9186,"ĠÑįÑĦÑĦÐµÐºÑĤÐ¸Ð²Ð½Ð¾":9187,"Ð½Ð°ÑĢ":9188,"ĠBy":9189,"Ð¾ÐºÑĥ":9190,"¾ÑĩÐ½Ð¾Ð¹":9191,"ĠÐ½Ð°Ð³ÑĢÐµÐ²":9192,"wczy":9193,"mp":9194,"ĠÐ¼Ð¾Ð»Ð¾Ð´ÑĭÑħ":9195,"ĠÐ¾ÑĤÐ´ÐµÐ»Ð°":9196,"ĠÑģÐ¿Ð¾ÑģÐ¾Ð±ÐµÐ½":9197,"ĠÐ²Ð½Ðµ":9198,"ĠÑģÐ¾Ð·Ð´Ð°Ð²":9199,"ĠÑħÐ²Ð°ÑĤÐ°ÐµÑĤ":9200,"ĠDu":9201,"ĠÐ¿ÐµÑĢÐµÑĩÐ¸ÑģÐ»":9202,"ĠÑĢÐ¾Ð»Ð¸":9203,"Ð¾Ð´Ð¾Ð»":9204,"ÐĴÐĺ":9205,"¸ÑĤÐµÑĤ":9206,"2017":9207,"ĠÐ¡Ð±":9208,"ĠÐºÑĢÐµÐ´Ð¸ÑĤÐ°":9209,"pular":9210,"ÑĢÐ¾Ð¸Ð´":9211,"ĠÐ¿Ð¾Ð´ÑĢÐ¾Ð±Ð½Ð¾":9212,"ĠÑģÐµÐ¼ÑĮ":9213,"twa":9214,"ĠÑĤÐµÐ¾ÑĢÐ":9215,"Ġ2009":9216,"ĠÑģÐµÑĢÑĤÐ¸ÑĦÐ¸Ðº":9217,"ĠzwiÄħza":9218,"ĠÑģÐ¾Ð·Ð´Ð°Ð²Ð°ÑĤÑĮ":9219,"ĠÑģÐ¿ÐµÑĨÐ¸Ð°Ð»ÑĮÐ½ÑĭÑħ":9220,"Å¼u":9221,"lenie":9222,"ĠÐ·Ð°Ð´Ð¾Ð»Ð¶":9223,"ÑĤÐ¸Ð»Ð¸ÑģÑĮ":9224,"Ð¸ÑĤÐ°Ñ":9225,"ĠÑĥÑĤÑĢÐ°":9226,"ĠÐ²ÑĭÐ¿Ð¸Ñģ":9227,"Ġefek":9228,"Ġ250":9229,"ĠÐ¿ÑĢÐ¾Ð´Ð°Ð¶Ðµ":9230,"ĠLo":9231,"cent":9232,"ĠÐ»ÑİÐ±ÑıÑĤ":9233,"ĠÐ»ÐµÐ³ÑĩÐµ":9234,"Å¼yÄĩ":9235,"ĠÐ¿ÑĢÐµÐ´ÐµÐ»Ð°Ñħ":9236,"ĠÐŀÑĦ":9237,"ĠÐ¼Ð°ÑĪÐ¸Ð½Ð°":9238,"Ð°Ð±Ð¾ÑĤÐ°":9239,"tar":9240,"ĠÐ¾ÑĤÐºÐ°Ð·ÑĭÐ²":9241,"ĠÐŁÑĥÑģÑĤÑĮ":9242,"ĠÑĢÐµÑģÑĥÑĢÑģ":9243,"ÑħÐ°":9244,"ĠÐºÑĢÐ°Ð":9245,"Ġdodatk":9246,"ĠÐľÐ°ÑĢÐ":9247,"inte":9248,"ĠÐµÐ¶ÐµÐ³":9249,"ĠÐ¿ÑĢÐ¸Ð´ÐµÑĢÐ¶":9250,"ĠÐ²ÑĭÐ½ÑĥÐ¶Ð´":9251,"ĠÑģÑĬÐµÐ¼":9252,"ÑĢÐµÐ½Ñĭ":9253,"ĠÐ²Ð½ÐµÑĪÐ½Ð¸Ð¹":9254,"Ð°Ð»Ñı":9255,"ĠÐ·Ð½Ð°Ðº":9256,"Ð°ÑīÐ¸":9257,"ÑĨÐ¾Ð¼":9258,"ĠÐ²Ð°ÑĪÑĥ":9259,"ĠÐ¼Ð°Ð½Ð":9260,"Ð²ÑĤÐ¾ÑĢ":9261,"39":9262,"!Â»":9263,"ĠÐµÐ·Ð´":9264,"isa":9265,"Ġtakich":9266,"mier":9267,"ĠÑģÐ»Ð¾Ð²Ð°Ð¼Ð¸":9268,"ĠÅ¼ycia":9269,"ÐĽÐķ":9270,"ĠÐ¶Ð¸ÑĢÐ":9271,"ĠÐ¿ÑĢÐµÐ´Ð²Ð°ÑĢÐ¸ÑĤÐµÐ»ÑĮÐ½Ð¾":9272,"ĠÑģÐ¾Ð±Ð»ÑİÐ´Ð°ÑĤÑĮ":9273,"ĠÐ¿ÐµÑĩÐ°":9274,"Ð°Ð½Ð¸ÐµÐ¹":9275,"ĠÐ¶ÐµÐ»ÐµÐ·Ñĭ":9276,"ĠÐ²ÑĭÐ¿Ð¾Ð»Ð½":9277,"ĠÐºÐ²Ð°Ð´ÑĢÐ°":9278,"ĠÐ²ÐµÑīÐµÐ¹":9279,"ĠÐ¿Ð¸ÑĢ":9280,"ĠÐ°Ð²ÑĤÐ¾Ð¼Ð°ÑĤÐ¸ÑĩÐµÑģÐºÐ¸":9281,"ĠÐ¼Ð½Ð¾Ð¹":9282,"ĠÐºÐ¾Ð¼Ð°Ð½Ð´Ð°":9283,"ĠÐ½ÐµÐ·Ð°Ðº":9284,"ĠÐľÐ¾Ð´":9285,"ĠVi":9286,"½ÑĳÐ¼":9287,"ĠÐ¿ÑĥÐ»ÑĮ":9288,"ĠÐ¾Ð±ÑĢÐ°ÑīÐµÐ½Ð¸Ñı":9289,"ĠÐ³Ð»Ð°Ð²Ð½ÑĭÐ¹":9290,"Ġge":9291,"Ð¸Ð°ÑĨÐ¸Ð¸":9292,"godnie":9293,"ÐµÑĤÑĥ":9294,"ĠInter":9295,"AS":9296,"ĠÐºÐµÑĢÐ°Ð¼":9297,"??":9298,"ĠÐ¿ÑĢÐ¾Ð¸ÑģÑħ":9299,"Ġcelu":9300,"ĠÐ¸Ð·Ð¾Ð±":9301,"nio":9302,"ĠÐºÐ¾Ð»Ð¸ÑĩÐµÑģÑĤÐ²Ð¾Ð¼":9303,"ĠÐºÑĢÑĥÐ¿Ð½ÐµÐ¹":9304,"ÐŃÑĤÐ¾":9305,"ĠÐ¾ÑĤÑģÑĥÑĤÑģÑĤÐ²Ð¸Ð¸":9306,"Ð»Ð°Ð½Ð´":9307,"ĠÐ·Ð°ÐºÐ°Ð·Ð°":9308,"ĠÑģÑĤÑĢÐ°Ð½Ð¸ÑĨÑĭ":9309,"ĠÐ´Ð²Ð¾Ð¹":9310,"leg":9311,"ĠÐ¿Ð¾Ð¿ÑĥÐ»ÑıÑĢÐ½ÑĭÑħ":9312,"ĠÐĶÐ°Ð½Ð½ÑĭÐ¹":9313,"ĠÑĥÐ³ÑĢÐ¾Ð·":9314,"ĠÐ½ÐµÑĢÐµÐ´":9315,"ĠÑģÑħÐµÐ¼Ð°":9316,"Ð¾ÐµÐ½Ð¸Ñı":9317,"ĠÐ¿Ð¾Ð»Ð°Ð³":9318,"ĠÑģÐ½Ðµ":9319,"Ġdecy":9320,"ĠÐ±Ð¾ÑĢÑĮÐ±Ñĭ":9321,"ĠÐ³Ð°Ð»":9322,"ĠÑģÐ°ÑħÐ°ÑĢÐ°":9323,"ÑıÑĢ":9324,"ĤÐ°Ð¶":9325,"ÑĤÐ°Ð¶":9326,"ĠÐ¿ÑĢÐ¸Ð½ÑıÑĤ":9327,"ĠÐłÐ¸Ñģ":9328,"ĠjÄħ":9329,"ĠÐºÑĥÐ»":9330,"ĠÐĹÐ°Ñĩ":9331,"Ð¢ÐŁ":9332,"ĠÐ¸Ð½ÑĤÐµÑĢÐ²":9333,"Ġter":9334,"ĠpÅĤy":9335,"mys":9336,"niejsze":9337,"ĠÑĥÑģÐºÐ¾ÑĢ":9338,"ÑĥÐ½Ð¾Ðº":9339,"ĠÐ£Ð¿ÑĢÐ°Ð²":9340,"ĠÑĢÑıÐ´Ð°":9341,"ÑĢÐµÐ»Ð°":9342,"ĠÐ¿ÑĢÐ¾Ð³ÑĥÐ»":9343,"Ð¼Ð¸Ð½":9344,"ĠÐĵÐµÑĢÐ¼Ð°Ð½Ð¸Ð¸":9345,"ĠÐ¿Ð¾Ð´Ð°ÑĩÐ¸":9346,"Ġcha":9347,"ĠÐŀÐ¿Ð¸ÑģÐ°Ð½Ð¸Ðµ":9348,"ĠÐ¿ÑĢÐµÐ´Ð»Ð¾Ð¶ÐµÐ½Ð¸Ðµ":9349,"ĠÐ²ÑĭÑĢÐ°Ð·":9350,"ĠÐ¿Ð¾Ð´ÑĬ":9351,"Ð°Ð»Ð¸Ñı":9352,"¸Ñī":9353,"Ġnowo":9354,"ĠÐ½Ð¾Ð¼ÐµÑĢÐ°":9355,"ĠÑħÑĥÐ´Ð¾Ð¶ÐµÑģÑĤÐ²":9356,"ĠÐ¾ÑģÐ¾Ð±Ð¾":9357,"ĠÐ¼Ð°ÑģÑģÑĥ":9358,"ÐºÑĥÐ»Ñı":9359,"ĠÐ¸Ð¼ÑĥÑīÐµÑģÑĤÐ²Ð¾":9360,"ĠÐ»ÐµÑĩÐµÐ½Ð¸Ð¸":9361,"ĠÑģÐ²ÑıÐ·Ð°Ð½Ð½ÑĭÐµ":9362,"ĠÑģÐ»ÐµÐ´ÑĥÑİÑīÐ¸Ð¼":9363,"ĠÐ¼Ð°ÑĢÐºÐµ":9364,"ĠÐ¡ÑĤÐ°Ð²":9365,"ÑıÑĤÐ°":9366,"ts":9367,"ÑĢÐ¾Ð³":9368,"tne":9369,"ĠÅĤat":9370,"ĠÐ¿Ð¾Ð½Ð¸Ð":9371,"ĠÐ¿Ð¾Ð·Ð²Ð¾Ð½Ð¾Ñĩ":9372,"ĠÐ²Ð½Ð¾Ñģ":9373,"ÑĤÐ¾ÑĩÐ½Ð¾Ð¹":9374,"ÑĤÑĮÑı":9375,"ĠÐ½ÐµÐ¸Ð·Ð²ÐµÑģ":9376,"ĠÑĢÐ¾ÑģÑģÐ¸Ñı":9377,"niki":9378,"EN":9379,"Ð¿Ñĭ":9380,"ĠÐ¾ÑĦÐ¸ÑĨÐ¸Ð°Ð»ÑĮÐ½ÑĭÐ¹":9381,"ĠÐ¿Ð¾Ð¸ÑģÐºÐ°":9382,"ĠÐ¡Ð¸ÑģÑĤ":9383,"ÑĪÐ¸ÑħÑģÑı":9384,"°Ð´":9385,"½ÑĥÐ»Ð°":9386,"ĠÐĴÑĤÐ¾ÑĢÐ¾Ð¹":9387,"ĠÐĶÐ¾Ð¿Ð¾Ð»Ð½Ð¸ÑĤÐµÐ»ÑĮ":9388,"ÑĥÐ¶Ðµ":9389,"piej":9390,"ĠÐ¿ÑĢÐ¸ÑĩÐ¸Ð½Ð°":9391,"ĠÐ¸Ð·Ð¾Ð±ÑĢÐ°Ð¶ÐµÐ½Ð¸Ñı":9392,"Ð¸ÑĩÐ½ÑĭÐ¹":9393,"ĠÐ½Ð°ÑģÑĤÑĢÐ¾Ð¹":9394,"ĠSy":9395,"ĠÐ¾Ð±ÑĥÑģÐ»Ð¾Ð²":9396,"ĠÐºÐ¾Ð»Ð¸ÑĩÐµÑģÑĤÐ²Ðµ":9397,"ĠÐ¿ÑĢÐ¾ÑĪÐ»Ð¾Ð³Ð¾":9398,"ĠðŁ":9399,"ĠÐ»Ð¸ÑģÑĤÑĮÑı":9400,"Ġprzedsta":9401,"Ġkol":9402,"uka":9403,"Ġstu":9404,"ĠrÄĻ":9405,"ÑĤÐ¸Ð·Ð":9406,"ÑĢÑĥÐ±ÐµÐ¶":9407,"Ġ75":9408,"ÐĶÐ":9409,"ĠÑģÑĤÐ°Ð²Ð¾Ðº":9410,"ÑĢÐ°Ð»Ð¸ÑģÑĮ":9411,"ÑĳÑĤÑģÑı":9412,"ĠÑģÐµÑģÑĤ":9413,"Ġ2008":9414,"ĠÐ¿ÑĢÐ°Ð·Ð´Ð½Ð¸Ðº":9415,"ĠÐºÐ°ÐºÐ¾Ð¼":9416,"wane":9417,"ĠÐ½Ð°Ð¹Ð´ÐµÑĤÐµ":9418,"Ð¾Ð·ÑıÐ¹":9419,"46":9420,"Ð½Ð°Ð¹":9421,"Ð°Ð½ÑĤÐ°":9422,"Ð°Ð½Ð½Ð¾ÑģÑĤÑĮ":9423,"ĠdoÅĽwiad":9424,"Ð¾ÑĢÐ°Ñħ":9425,"Ð°ÑİÑģÑĮ":9426,"ÐºÐ¾Ð²ÑĭÑħ":9427,"lne":9428,"Ġdobrze":9429,"ĠÑĢÐµÐºÐ¾Ð¼ÐµÐ½Ð´ÑĥÑİÑĤ":9430,"ĠÐ²ÑĭÑħÐ¾Ð´Ð°":9431,"ĠÐ½Ð¾Ð²ÑĭÐ¼":9432,"ÐµÐ»Ð¾ÑĢÑĥÑģ":9433,"ĠÐ¿ÑĢÐµÐ¸Ð¼ÑĥÑīÐµÑģÑĤÐ²Ð°":9434,"ĠÑĨÐ°ÑĢ":9435,"nienia":9436,"ĠÐ¿ÑĢÐ¸ÐµÑħ":9437,"ĠÐ¿ÑĢÐ¾ÑĨÐµÑģÑģÐ¾Ð²":9438,"ĠÐ±Ð¾Ð»ÑĮÑĪÐµÐ¹":9439,"ĠÐ¨Ð°Ð³":9440,"ĠÑĦÐµÑģÑĤÐ¸Ð²":9441,"kla":9442,"ĠÐ·Ð°Ð¿Ð°Ð´":9443,"ÐĶÐķ":9444,"ĠÐ¿Ð°ÑģÑģÐ°Ð¶Ð":9445,"Ð¸ÑĩÐµÑģÑĤÐ²Ð¾":9446,"bardziej":9447,"ĠÐļÑĢÑĭ":9448,"ĠÐ¢ÐµÑħ":9449,"ĠÑĥÑĤÑĢÐ¾Ð¼":9450,"ĠÐ±ÐµÑĢ":9451,"ps":9452,"ĠÐ¼ÐµÑħÐ°Ð½Ð¸Ð·Ð¼":9453,"Ġpyta":9454,"ĠÐ¼Ð°ÑģÑģÑĭ":9455,"ĠÐ¿Ð¾Ð¶Ð°Ð»ÑĥÐ¹ÑģÑĤÐ°":9456,"ĠÐ¿Ð¾ÐºÑĢÑĭÑĤÐ¸Ðµ":9457,"ĠÐ¾Ð±ÑĥÑĩÐµÐ½Ð¸Ðµ":9458,"ĠÐ¡Ð»ÐµÐ´ÑĥÐµÑĤ":9459,"ĠpoczÄħ":9460,"ĠÐ½Ð°ÑĪÐ¸Ð¼":9461,"Ġkonta":9462,"ĠÑģÐ¾Ð²ÐµÑĤÑĭ":9463,"ĠÐŁÑĢÐ¾Ð´Ð¾Ð»Ð¶":9464,"ĠÐ»Ð¾Ð¼":9465,"Ð¾Ð²Ð¾Ð¼":9466,"ÐµÐ½Ð¾Ð¹":9467,"ĠÐ²Ð·Ð½Ð¾Ñģ":9468,"ĠÑģÐ¾Ð¾Ð±ÑīÐ¸Ð»Ð¸":9469,"Ð°Ð¿Ð°Ð·":9470,"ĠÐĺÑģÐº":9471,"ĠÐ½Ð°Ð¿ÑĢÐ°Ð²Ð»ÐµÐ½Ð¸Ð¸":9472,"ĠÐ·ÐµÐ¼Ð»Ñı":9473,"ĠÐŁÐ¾Ñħ":9474,"ÑĤÐ¸ÑĢÐ¾Ð²Ð°Ð½Ð¸Ðµ":9475,"tyczÄħ":9476,"µÐ´":9477,"ĠÐĴÑĢÐµÐ¼Ñı":9478,"ĠBar":9479,"ĠÑĤÐ¾Ð¿Ð»Ð¸Ð²Ð°":9480,"ĠÐĳÐ¾Ð»ÑĮÑĪÐ¸Ð½ÑģÑĤÐ²Ð¾":9481,"Ð°ÐµÐ¼Ð¾Ð¹":9482,"ĠÑĤÑĢÐ°Ð½ÑģÑĦ":9483,"ĠÐ³Ð¾Ð»ÑĥÐ±":9484,"ĠÐºÐ½Ð¸Ð³Ñĥ":9485,"ĠÐ³Ð¾ÑģÑĤÐ¸Ð½Ð":9486,"ĠÑģÐ´ÐµÐ»ÐºÐ¸":9487,"ĠÐ·ÐµÐ¼Ð»Ñİ":9488,"ĠÐ·Ð°Ð¸Ð½ÑĤÐµÑĢÐµÑģÐ¾Ð²":9489,"Ð½Ð»Ð°Ð¹Ð½":9490,"ĠÐ¿ÑĢÐ¸Ð¼ÐµÐ½ÑıÑİÑĤ":9491,"ĠÐºÐ°ÑĢÐ¼":9492,"ĠÑıÐ¿Ð¾Ð½":9493,"Ġcom":9494,"ÐºÐ¾Ð½Ð":9495,"Ð¾Ð½Ð¾Ðº":9496,"mar":9497,"ĠÑĥÐ½Ð¸Ð²ÐµÑĢÑģÐ¸ÑĤÐµ":9498,"ĠÐ¿Ð°ÑĢÑĤÐ¸Ð¸":9499,"ĠÐ²ÑĭÑĩ":9500,"ĠÐ»ÑİÐ±ÑĥÑİ":9501,"Ð¾Ð²Ð°Ð½Ð¸Ñİ":9502,"sztaÅĤ":9503,"ĠÐ½Ð°Ð·Ð²Ð°ÑĤÑĮ":9504,"ĠÑĥÑħÐ¾Ð´Ð°":9505,"ÐºÐ°ÑĤÑĥÑĢ":9506,"ÑĤÐ°ÑĤÑĥ":9507,"Ð¸Ð¼Ð¾Ð¹":9508,"Ġfo":9509,"ÑĪÐ¸ÑĢÐ":9510,"ÐµÑĢÐ½ÑĭÐµ":9511,"¸ÑĢÑĥÐµÑĤÑģÑı":9512,"Ð»Ð¸Ð½Ð°":9513,"Ð°Ð»Ð¸Ð·":9514,"ĠÐ¿Ð¾ÑħÑĥÐ´ÐµÐ½Ð¸Ñı":9515,"Ġdanych":9516,"Ġwol":9517,"ĠÐ¿ÑĢÐ¾Ð¸Ð·Ð²Ð¾Ð´Ð¸ÑĤÐµÐ»ÐµÐ¹":9518,"ÑĤÐ¾Ð³Ð¾":9519,"ĠÐ°Ð»Ð¸Ð¼":9520,"ĠÐ¾Ð±Ð¶":9521,"ĠÐ½ÑĭÐ½ÐµÑĪ":9522,"Ġ38":9523,"ĠÐ´Ñĭ":9524,"ĠÑĪÐ²":9525,"ĠÑĩÐµÑģÐ":9526,"ÐµÑĤÐºÐ¸":9527,"ĠÐŃÐºÑģÐ¿":9528,"ĠÐ²ÑĭÑĢÐ¾Ñģ":9529,"Ġ)":9530,"Ġjaki":9531,"Ð½Ð¾ÑĪ":9532,"ĠÐ²Ð°ÑĪÐµÐ¼Ñĥ":9533,"ĠÐļÑĥÑĢ":9534,"Ð½ÐµÑĤÑģÑı":9535,"ĠÐ¿Ð¾ÑıÐ²Ð»ÐµÐ½Ð¸Ðµ":9536,"Ð°ÑĤÐµÐ»ÑıÐ¼":9537,"ÑĤÑıÐ³":9538,"ĠÐ¸Ð»":9539,"ĠÐ¿Ð¾ÑĤÐ¾Ðº":9540,"Ġho":9541,"ĠÐ¼Ð¾Ð³Ð»Ð°":9542,"ĠdotyczÄħ":9543,"ÑĨÐ¾":9544,"Ð°Ð½ÑģÐºÐ¾Ð³Ð¾":9545,"ÑĤÐ°ÑĤÐ¾Ðº":9546,"ĠÐ½Ð°Ð·Ð½Ð°ÑĩÐµÐ½Ð¸Ñı":9547,"ĠHo":9548,"ÑĢÐµÐ±Ð¾Ð²":9549,"Ð°Ð½ÑĨÐ¸Ð¸":9550,"ĠÐ½Ð°ÑĪÐµ":9551,"ĠÑģÐ²ÑıÑĤ":9552,"ĠÐ¾Ð´Ð¸Ð½Ð°Ðº":9553,"ĠÐ¿ÑĢÐ¸ÐºÐ°Ð·":9554,"ĠÐ¿ÑĢÐ¾Ð¼ÐµÐ¶":9555,"ĠÑĦÐ¸ÑĢÐ¼Ñĭ":9556,"Ġloka":9557,"ĠÐ¸Ð³ÑĢÐ°ÐµÑĤ":9558,"ÐµÑĢÐµÐ¿":9559,"ĠÐ¿ÑĢÐµÐ´ÑģÑĤÐ°Ð²Ð¸ÑĤÑĮ":9560,"ĠÑĪÑĤÐ°":9561,"ĠÐ¿Ð¾Ð´Ð¾ÑĪ":9562,"Ð¼ÑĥÑİ":9563,"zie":9564,"ĠÐ¿ÑĢÐ¾Ð¸Ð·Ð²Ð¾Ð´Ð¸ÑĤÐµÐ»Ñı":9565,"ĠÑĩÐµÑĢÑĤ":9566,"ĠÐ¿Ð¾ÐºÐ°Ð·Ð°ÑĤÐµÐ»Ð¸":9567,"wiÄĻk":9568,"ĠÐ¢ÑĥÑĤ":9569,"ĠÐ¿ÑĢÐ¾Ð¸Ð³":9570,"ĠÐ¿ÐµÑĢÐµÐ²Ð¾Ð´":9571,"Ġkasy":9572,"ĠÐŀÐ¡":9573,"ÑĢÐ°Ð»Ð»":9574,"ĠÑģÐ¿Ð°Ð»ÑĮ":9575,"ĠÐŀÐ»ÑĮ":9576,"ĠÐ²Ð°Ð³":9577,"ĠÐ³Ð¾ÑĢÐ¸Ð·Ð¾Ð½ÑĤ":9578,"ĠÐ¿ÐµÑĢÐµÐ¼ÐµÑĪ":9579,"ĠÐľÐµÐ¶Ð´ÑĥÐ½Ð°ÑĢ":9580,"ĠÐ¿ÑĢÐµÐ´ÑģÑĤÐ°Ð²Ð¸ÑĤÐµÐ»ÐµÐ¹":9581,"ĠÐºÑĢÑĥÐ¶":9582,"ĠÑĢÐµÐ°ÐºÑĨÐ¸Ð¸":9583,"ÐľÑĭ":9584,"ĠwÅĤo":9585,"ĠÐ½Ð¾ÑĥÑĤÐ±":9586,"ĠÐ¿ÑĢÐµÐ¿Ð¾Ð´Ð°Ð²":9587,"ĠÐ¾ÑīÑĥÑīÐµÐ½Ð¸Ñı":9588,"ĠÐ²Ð¾ÑģÑģÑĤÐ°Ð½Ð¾Ð²Ð»ÐµÐ½Ð¸Ñı":9589,"ĠÐ±Ð»ÑİÐ´":9590,"ĠÐ¿ÑıÑĤ":9591,"ktÃ³":9592,"ĠÑĢÐµÐ¹ÑĤÐ¸Ð½Ð³":9593,"iad":9594,"ĠÐ²Ð¸Ð½Ð¾Ð²":9595,"ĠÐºÐ¾Ð¼Ð¸ÑģÑģÐ¸Ð¸":9596,"ÑģÑĤÑĢÑĥÐºÑĨÐ¸Ñı":9597,"ÐµÐ³Ð¸":9598,"ĠÑĥÐ²Ð»ÐµÐº":9599,"Ġczasie":9600,"ĠÐ°Ð½Ð³":9601,"ĠÐºÐ¾Ð½Ñĩ":9602,"ĠÑįÑĦÑĦÐµÐºÑĤÐ¸Ð²Ð½Ð¾ÑģÑĤÑĮ":9603,"Ð»Ð¸ÑĤÑĮ":9604,"ĠÐ·Ð°ÑĢÐ¿Ð»":9605,"ÐµÐ½Ð´Ð":9606,"ĠÐ¿Ð¾ÑıÐ²Ð¸Ð»Ð¸ÑģÑĮ":9607,"ĠÑģÐ²Ð°Ð´ÑĮ":9608,"Ð¸ÑĩÐµÑģÐºÐ¾Ð¼":9609,"ĠÐ¿Ð¾Ð»Ð¾Ð¶ÐµÐ½Ð¸Ð¸":9610,"ĠÐ¶Ð´Ð°ÑĤÑĮ":9611,"ĠÐºÑĢÐ¾Ð²ÑĮ":9612,"ĠÑģÐ¿ÑĥÑģÑĤÑı":9613,"ÑĤÐ¸ÑĢÐ¾Ð²Ð°ÑĤÑĮÑģÑı":9614,"rzÄħd":9615,"ĠÐ¾Ð±ÑģÑĤÐ°Ð½Ð¾Ð²":9616,"ĠÐ²Ð°":9617,"ÑįÐ¹":9618,"Ð¾ÑģÐ»Ð°Ð²":9619,"Ð¹ÑĤÐµÑģÑĮ":9620,"ĠÑģÑĤÐµÐ½Ð":9621,"ĠOb":9622,"Ġone":9623,"ĠÑĥÐ²Ð¾Ð»ÑĮ":9624,"ĠÑĨÐ²ÐµÑĤÑĭ":9625,"Ð»ÐµÐ½Ð½ÑĭÐ¼":9626,"ĠOp":9627,"Ġuzy":9628,"ĠÐ¿Ð¾Ð´Ð¾Ð±Ð½ÑĭÑħ":9629,"Ð²ÑĥÑĩ":9630,"ĠJu":9631,"ian":9632,"ĠÅ¼eby":9633,"ĠÐ²Ð¾Ð¾ÑĢÑĥÐ¶":9634,"ĠÐĺÐ´":9635,"ĠÐ¾Ð¿ÑĭÑĤÐ°":9636,"wem":9637,"ĠwzglÄĻ":9638,"ĠÐ·Ð½Ð°Ð½Ð¸Ð¹":9639,"koÅĦ":9640,"ÐĺÐ":9641,"Ð½Ð´ÐµÐºÑģ":9642,"Ð¸Ð²Ð°Ð½Ð¸Ð¸":9643,"Ð°ÑĤÐµÐ»ÑĮÐ½ÑĭÐ¼":9644,"½ÑıÑĤ":9645,"ĠÐ³Ð¾ÑĤÐ¾Ð²Ð":9646,"ĠÐĶÑĥÐ¼":9647,"ĠÐ¼ÑıÑģÐ¾":9648,"Ð¸Ð½Ð¸ÑĤÑĮ":9649,"Ð°ÑħÐ":9650,"AC":9651,"ĠÐ¾Ð±ÑĬÑıÑģÐ½Ñı":9652,"ĠÑģÐ¿ÐµÑĨÐ¸Ð°Ð»Ð¸Ð·Ð¸ÑĢÐ¾Ð²":9653,"ĠÐ¸Ð½ÑģÑĤÑĢÑĥÐºÑĨÐ¸Ð¸":9654,"ĠÐ¡ÐµÐ²":9655,"ĠÑģÐµÑĢÐµÐ±":9656,"ĠÐºÐ»ÐµÑĤÐ¾Ðº":9657,"Ð½Ð¸ÑĨÐµ":9658,"Ġkto":9659,"ĠÐ·ÐµÑĢÐºÐ°Ð»Ð¾":9660,"Ð½Ð°Ð»Ð°":9661,"Ġide":9662,"ĠÐ¿Ð¾ÐºÑĥÐ¿ÐºÐµ":9663,"stÃ³w":9664,"ĠÐ¾Ð³ÑĢÐ¾Ð¼Ð½Ð¾Ðµ":9665,"Ġelekt":9666,"ĠÐ¾ÑĤÑģÑĥÑĤ":9667,"ÑĢÐ°Ð½Ð¸Ñı":9668,"ĠÑĢÐ°Ð·Ð²Ð»ÐµÑĩ":9669,"ĠÐŁÑĢÐ°Ð²Ð´Ð°":9670,"ĠÐ²ÑĭÑģÐ¾ÐºÐ¸Ð¹":9671,"ĠÑĪÑĥ":9672,"ĠÐ¼Ð³Ð½Ð¾Ð²":9673,"ÑĤÐ½Ð¸ÐºÐ¸":9674,"ĠÐ¸Ð³ÑĢÐ¾Ð²Ð¾Ð¹":9675,"resie":9676,"Ð°ÑĦÐ¸Ðº":9677,"cyjnych":9678,"Ġsiebie":9679,"ĠÐķÐ²Ð³":9680,"ĠÐ¿Ð¾Ð²Ñģ":9681,"Ġzde":9682,"ĠÑĥÑģÐ¿Ð¾Ðº":9683,"ĠSer":9684,"Ð¡Ñ":9685,"ĠÐ¿ÑĢÐ°Ð²Ð¸ÑĤÐµÐ»ÑĮÑģÑĤÐ²Ð°":9686,"dÅĤ":9687,"ĠÐ²Ð¾ÑĢ":9688,"zo":9689,"ÑĢÐ°ÑģÑĤÑĢÑĥÐºÑĤÑĥ":9690,"ĠÐ±Ð°Ð½ÐºÐ¸":9691,"ĠÐµÐ¶ÐµÐ´Ð½ÐµÐ²Ð½Ð¾":9692,"pt":9693,"ÑĩÐµÑĢÐ°":9694,"ĠÐ¿Ð»Ð°ÑĤÐ¸ÑĤÑĮ":9695,"ĠÐ¿Ð¾Ð´Ð´ÐµÑĢÐ¶ÐºÑĥ":9696,"ĠÑģÐ½Ð¸Ð¶ÐµÐ½Ð¸Ðµ":9697,"ĠÑģÐ¾Ð¾ÑĤÐ²ÐµÑĤÑģÑĤÐ²ÑĥÐµÑĤ":9698,"ĠÐ´ÐµÐ»Ñĥ":9699,"Ð°Ð´Ðµ":9700,"liza":9701,"ĠÑıÐ¹ÑĨÐ°":9702,"ĠÐ²Ð°Ð½Ð":9703,"ÑĩÑĤÐ¾":9704,"ĠÐ»ÐµÐ²":9705,"ĠÐºÐ¸Ð½Ð¾":9706,"65":9707,"ĠÐ¾ÑĢÐµÑħ":9708,"ĠÐ¾Ð¿ÑĢÐ°Ð²":9709,"ĠÑĤÐµÐ¿Ð»Ð¾":9710,"ĠÐ¿Ð»ÐµÑĩ":9711,"ĠÐ¸Ð½ÑĦÐµÐºÑ":9712,"Ð¾ÑĩÐ½Ð°Ñı":9713,"ĠÐ¿ÑĢÐµÐ´Ð¾ÑģÑĤÐ°Ð²Ð¸ÑĤÑĮ":9714,"ĠÑģÑĤÑĢÐ¾Ð¹":9715,"ĠDziÄĻki":9716,"nosi":9717,"ÑĤÐ¾ÑģÑĤÐ¸":9718,"ĠÑģÐ´ÐµÐ»Ð°Ð»Ð¸":9719,"ĠÐ¸Ð½Ð¾Ð¹":9720,"ÑĢÐµÐ¸Ð¼":9721,"Ð¸Ð½Ð¸Ð»":9722,"ĠÐ½Ð°ÑĪÑĥ":9723,"ĠÑĢÐµÐ±ÑĳÐ½Ð":9724,"ĠÑıÐ³Ð¾Ð´":9725,"ĠÐ°ÐºÐºÑĥÑĢÐ°ÑĤÐ½Ð¾":9726,"ÑĢÐ¾Ð»":9727,"ÐµÐ½Ð¾Ñģ":9728,"ĠÐ´ÐµÑĤÐ°Ð»ÐµÐ¹":9729,"Ð¸Ð»Ð¸Ð½Ð´":9730,"ÐµÑģÑıÑĩ":9731,"ĠÐºÐ¾Ð¼Ð¿Ð¾Ð·":9732,"ĠÐ¾ÑģÑĤÐ°Ð»ÑĮÐ½ÑĭÐµ":9733,"Ð¡ÑĤ":9734,"ĠMu":9735,"ĠÑĩÑĢÐµÐ·Ð²ÑĭÑĩÐ°Ð¹":9736,"ĠFace":9737,"ÑĢÐ¸ÑĢÐ¾Ð²Ð°ÑĤÑĮ":9738,"ĠÐ½Ð°ÑģÐ»Ð°Ð¶Ð´":9739,"pla":9740,"ÑĤÐ½Ð°":9741,"ÅĤoÅĽÄĩ":9742,"ress":9743,"ĠÐ¾ÑĪÐ¸Ð±ÐºÐ¸":9744,"ĠÐ·ÑĥÐ±Ð¾Ð²":9745,"ĠÐºÐ¾Ð¼Ð¿Ð»ÐµÐºÑ":9746,"ĠÐ¿ÑĢÐ¾ÑģÑĮ":9747,"ĠÑĥÑĩÐ°ÑģÑĤÐºÐµ":9748,"czka":9749,"ĠÐ»ÐµÑĤÐ¾Ð¼":9750,"ÐµÑĢÐ½ÑĭÑħ":9751,"szenia":9752,"ĠÐ¿Ð°Ð¼ÑıÑĤÑĮ":9753,"Ġpom":9754,"ĠÑģÑĥÑĤÐ¸":9755,"ĠÐºÐµÐ¼":9756,"ĠÑĢÐ°ÑģÑģÑĤÑĢÐ¾Ð¹":9757,"ĠÐ¿ÑĢÐ¾ÑĤÐµÐº":9758,"ĠÐ¿Ð¾Ð»Ð¸ÑĨÐ¸Ð¸":9759,"ĠÐ´Ð¾ÑģÑĤÐ°Ð²ÐºÐ¸":9760,"Ġpozwala":9761,"ĠÑĦÑĥÐ½ÐºÑĨÐ¸Ñı":9762,"Ġpas":9763,"ĠÐ¿Ð»Ð°Ð½Ð¸ÑĢÐ¾Ð²":9764,"ÐºÐ°Ð»":9765,"Ġzasa":9766,"Ġws":9767,"ĠÑĤÐ¾ÑĢÐ¶":9768,"ĠÐ·Ð°ÑģÐ»ÑĥÐ¶":9769,"ĠÐ¼Ð°ÑĤÑĮ":9770,"Ġmode":9771,"ĠÐ¿ÑĢÐ¾ÑģÑĤÑĢÐ°Ð½ÑģÑĤÐ²Ð°":9772,"ĠÐ¼Ð°ÑĪÐ¸Ð½":9773,"Ġwal":9774,".||":9775,"ĠÐ½Ð°ÑĢÑıÐ´":9776,"waÅĤ":9777,"ĠÐ¿Ð»Ð°Ð½Ðµ":9778,"ĠÐ·Ð²ÑĥÑĩ":9779,"ĠwÅĤaÅĽnie":9780,"ĠÐ½Ð°ÑĢÐºÐ¾":9781,"ll":9782,"ĠÐ¾Ð´ÐµÐ¶":9783,"ĠÐłÐ¾Ð¼":9784,"Ð¼Ð¾Ð¹":9785,"ĠÐŁÑĢÐ¸ÑĩÐµÐ¼":9786,"Ð»ÐµÐ½Ð½Ð°Ñı":9787,"Ġtrud":9788,"ĠÐ¿Ð¾ÐºÑĥÐ¿Ð°ÑĤÑĮ":9789,"ĠÐĶÐµÐ¹ÑģÑĤÐ²":9790,"Ð¾Ð³ÑĢÐ°ÑĦÐ¸Ñı":9791,"ÐµÑĢÐºÐ²Ð¸":9792,"ĠÐ¿ÑĢÐ°Ð·Ð´Ð½Ð¸Ñĩ":9793,"ies":9794,"ĠÑĢÐµÐºÐ»Ð°Ð¼Ñĭ":9795,"ĠÐ²Ð¾Ð·Ð´ÐµÐ¹ÑģÑĤÐ²Ð¸Ðµ":9796,"ĠÐ°ÐºÑģÐµÑģÑģÑĥ":9797,"Ð¾ÑģÐ¿Ð°Ð»":9798,"ĠÐŀÐ½Ð¾":9799,"ĠÐ½Ð°Ð·Ð²Ð°Ð½Ð¸ÐµÐ¼":9800,"Ð²Ð¾Ðº":9801,"ĠÑħÐ²Ð°":9802,"ĠÐ²ÐµÑĤÐµÑĢ":9803,"Ð¾Ð±Ñī":9804,"ĠÑĢÐ°Ð·Ð¾Ð±ÑĢÐ°ÑĤÑĮÑģÑı":9805,"Ð°ÐºÐµ":9806,"ĠÑģÑĥÑĪ":9807,"ĠÐ½ÐµÐ¿ÑĢÐ°Ð²Ð¸Ð»ÑĮ":9808,"ĠÐ´Ð¾ÑĢÐ¾Ð³Ð¸":9809,"ĠÐ¾Ð´Ð¸Ð½Ð":9810,"ĠÐ¡Ñħ":9811,"ĠÑģÐ¿ÐµÑĨÐ¸ÑĦ":9812,"ĠÑģÑĤÑĢÐ°Ñģ":9813,"Ð¿Ð°Ð´":9814,"Ð»Ð°Ð²Ð°":9815,"ÑĤÐµÑĢÐ¾Ð²":9816,"Ð½ÐµÐ½Ð¸Ð¸":9817,"ĠÐ¸Ð½ÑĭÑħ":9818,"ĠÐŀÐ±ÑĢÐ°Ð·":9819,"ÐµÐ½Ð°Ð¶":9820,"ĠÐ»ÐµÐºÐ°ÑĢÑģÑĤÐ²Ð°":9821,"ÐµÐ½Ð½Ð¾Ð»ÐµÑĤÐ½Ð":9822,"Ð»ÑĮÑı":9823,"ĠÑĢÐµÐ³Ð¸Ð¾Ð½Ðµ":9824,"Ð¾Ð´Ð½ÑĭÐ¼":9825,"ĠÑģÐµÐºÑĢÐµÑĤ":9826,"ĠÑģÐ¿Ð¾ÑģÐ¾Ð±Ð":9827,"ĠÐĲÑĢÐ¼":9828,"ĠÑģÐ¿Ð¾ÑģÐ¾Ð±Ð½Ð¾ÑģÑĤÑĮ":9829,"ĠÐºÐ¾Ð¼Ð¿Ð»ÐµÐºÑĤ":9830,"ĠÑģÑĤÑĢÐ¸Ð¶":9831,"Ġzes":9832,"ĠÐ±Ð»ÑİÐ´Ð°":9833,"ĠÐºÐ°Ð¿Ð¸ÑĤÐ°Ð»":9834,"ĠÐ¿Ð¾Ð´ÐºÐ»ÑİÑĩÐµÐ½Ð¸Ñı":9835,"ĠÐ´Ð¸ÑģÐ¿":9836,"ĠÐ¿Ð°ÑĢÐ½Ñı":9837,"ĠÐºÐ¾Ð½ÑĨÐµÐ¿":9838,"nios":9839,"Ð°Ð»ÑĮÑıÐ½":9840,"ĠÐ¸Ð½Ð½Ð¾Ð²":9841,"ĠÐ·ÑĢÐ¸ÑĤ":9842,"ÑĥÑħÐ¸":9843,"ĠÐ½ÐµÑĢÐµÐ´ÐºÐ¾":9844,"Ġwarun":9845,"ĠÐ¿ÑĢÐ¸ÑģÑĤÐ°Ð²":9846,"ĠÐ½Ð¾Ð²Ð°Ñı":9847,"ĠGra":9848,"ĠYou":9849,"ÐºÐ¾ÑĢÐµ":9850,"ÐĿÐ°":9851,"ĠÐºÐ¾Ð¶Ðµ":9852,"Ð°ÑĤÐµÐ»ÑĮÑģÑĤÐ²Ð¾":9853,"jÄħca":9854,"ĠWarsza":9855,"Ð¡Ð¿":9856,"ĠÐ²Ð´Ð¾Ñħ":9857,"ĠÐ¿Ð¾ÑĢÐ¾ÑĪ":9858,"ĠÐºÐ¾Ð½ÑĦÐµÑĢÐµÐ½":9859,"ĠÐĽÐ¸":9860,"ĠÐ´ÐµÐ»Ð¾Ð²":9861,"ĠÐ²ÑĭÑģÐ¾ÐºÐ¸Ð¼":9862,"Ð¢Ð¡":9863,"ĠÐ¡Ð¾ÑģÑĤÐ°Ð²":9864,"ĠÐ¾ÐºÐ°Ð·ÑĭÐ²Ð°ÐµÑĤ":9865,"ĠÐ¾ÑĤÐ´ÐµÐ»ÑĮÐ½Ð¾":9866,"½ÑĮÑİ":9867,"ĠÐºÐ»ÐµÑĤÐºÐ¸":9868,"·Ð°Ð¿":9869,"ĠÐ»Ð¸Ð½ÐµÐ¹":9870,"ĠÐ¾ÑģÐ¼Ð¾ÑĤ":9871,"ĠÐ½ÐµÐ³":9872,"Ð»Ð°Ð½Ð¸ÑĢÐ¾Ð²":9873,"ĠÐµÐ´Ñĭ":9874,"Ð°ÑĪÐºÐ¸":9875,"ĠÐ½ÐµÐ±Ð¾Ð»ÑĮÑĪÐ¸Ðµ":9876,"stwo":9877,"ºÐ°Ñı":9878,"Ð¾ÑĢÐ¾ÑĤÑĮ":9879,"Ð½ÐµÐ½":9880,"Ð¾ÐºÐ°ÑĩÐµÑģÑĤÐ²":9881,"ĠÐ¿Ð¸ÑĤÐ°ÑĤ":9882,"ĠÐ·Ð°Ð±Ð»":9883,"ĠÐ´Ð¾ÑģÑĤÑĥÐ¿Ð°":9884,"ĠÐ½Ð°Ð±Ð»ÑİÐ´Ð°ÐµÑĤÑģÑı":9885,"Ġprof":9886,"¾ÑģÑĤÐµÐ¹":9887,"ĠÐ²Ð½Ð¸Ð¼Ð°ÑĤÐµÐ»ÑĮÐ½Ð¾":9888,"ĠÐ¾ÑĢÑĥÐ¶Ð":9889,"Ð»Ð¾ÑĤÐ°":9890,"org":9891,"ĠÐ¿Ð¾ÐºÐ°Ð·Ð°ÑĤÑĮ":9892,"ĠÐ¸Ð·Ð±Ð¸":9893,"Ġucze":9894,"ÑģÑĤÐ²ÑĥÐ¹ÑĤÐµ":9895,"ĠÐ»ÐµÑĩÐ¸ÑĤÑĮ":9896,"ĠÐ´ÐµÐ²ÑĥÑĪÐºÑĥ":9897,"Ð¿ÑĢÐ¸":9898,"ĠÐŁÑĢÐ¸Ð½":9899,"ĠÐºÐ»Ð¸ÐµÐ½ÑĤÐ°":9900,"ĠÐ±Ð¾Ð»ÑĮÑĪÐ¸Ð½ÑģÑĤÐ²Ð°":9901,"ĠÅĽwiat":9902,"ĠÐ¼ÑĥÐ¶Ð":9903,"ĠÐ²ÑĭÑģÑĤ":9904,"ĠÐ²ÑĭÐ¿Ð»Ð°ÑĤ":9905,"ĠÐĺÐ³Ð¾":9906,"ĠÐ¾Ð±ÑĢÐ°ÑĤÐ½Ð¾":9907,"Ġnaszej":9908,"Ð°Ð²Ð°":9909,"ĠÑģÑħÐµÐ¼Ñĭ":9910,"ĠÑĩÐ°ÑģÑĭ":9911,"ĠÐ»Ð¸ÑĨÐµ":9912,"ÑĢÐµÐ¿Ð":9913,"Ġpowsta":9914,"ill":9915,"wen":9916,"ĠÑĥÐ±ÑĢÐ°ÑĤÑĮ":9917,"ĠÐĶÐ¼Ð¸ÑĤÑĢÐ¸Ð¹":9918,"ĠÐĴÑģÐµÐ³Ð¾":9919,"ĠÐ²Ð½ÑĥÑĤÑĢÑĮ":9920,"ĠÐ½Ð°Ð¿Ð¸ÑģÐ°ÑĤÑĮ":9921,"ĠÐ²ÑĭÐ¿ÑĥÑģ":9922,"ĠÐ¡Ð¿ÐµÑĨÐ¸Ð°Ð»":9923,"ĠÐ¼ÐµÐ´Ð":9924,"Ð¸Ð¼Ð¾Ðµ":9925,"ĠÐ¼Ð°ÑģÑĪÑĤÐ°Ð±":9926,"ĠÐ´Ð²Ð¾ÑĢ":9927,"tyczne":9928,"Ð¾Ð¿Ð¾Ð»ÑĥÑĩ":9929,"ĠÐ¿ÑĢÐ¾ÑĤÐ¾Ðº":9930,"ĠÑģÑĤÑĢÐ°Ð½Ð¸ÑĨ":9931,"ĠÑģÐ¾Ð±ÑĢÐ°ÑĤÑĮ":9932,"ĠÐ´Ð¾ÑĪ":9933,"Ð¾Ð½Ð¸Ð·":9934,"Ð»ÑıÐ½Ð":9935,"cki":9936,"Ð¸Ð½ÑģÐºÐ¸Ð¹":9937,"ĠÑĥÐ´Ð°Ð»ÐµÐ½Ð¸Ñı":9938,"ĠÐĶÐµÐ»Ð¾":9939,"Ġobie":9940,"ÑĢÐ°Ð±Ð¾ÑĤÐºÐ°":9941,"ĠzostaÅĤ":9942,"ĠÑĨÐ¸ÑĢ":9943,"ÑĥÐ·Ð":9944,"ĠÐ¾Ð¿ÑĢÐµÐ´ÐµÐ»ÐµÐ½Ð½ÑĭÐµ":9945,"Ġosoby":9946,"Ð¸Ð²Ð°Ð¹ÑĤÐµ":9947,"ĠÑĦÑĥÐ½ÐºÑĨÐ¸Ð¹":9948,"ĠÐ½Ð°ÐºÐ»Ð°Ð´":9949,"ua":9950,"ĠÑĪÐ¸ÑĢÐ¾ÐºÐ¾":9951,"ĠÑģÑĤÐ°ÑĤÑĮÑı":9952,"ÅĦstwo":9953,"Ð»Ð¾Ð½ÐµÐ½Ð":9954,"ĠÑĢÐµÐ¶Ð¸Ð¼Ð°":9955,"ÐµÐ¶Ð°":9956,"ÐºÐ¾Ð²Ð°":9957,"Ð°ÑĨÐ¸Ð¾Ð½Ð°Ð»ÑĮ":9958,"ĠÐ¿ÐµÑĪ":9959,"Â»:":9960,"ĠÐ²Ð¾Ð·Ð»Ðµ":9961,"ĠÑĢÐ°Ð·Ð²Ð¸Ð²Ð°ÐµÑĤÑģÑı":9962,"ĠÑĢÐ°Ð·Ð¼ÐµÑģ":9963,"Ð¸ÑĤÐ¾Ðº":9964,"Ð½Ð°ÑĩÐ°Ð»ÑĮÐ½Ð¾":9965,"ĠÐ½Ð°ÑĪÐ»Ð¸":9966,"ĠÐ¿ÑĢÐµÐ¾Ð±ÑĢÐ°Ð·":9967,"Ð¾Ð²Ð°Ð½Ð¸ÐµÐ¼":9968,"ĠÐ·Ð½Ð°Ð¼ÐµÐ½Ð¸ÑĤ":9969,"ÑĥÐ¼ÐµÐ²":9970,"ĠÐĲÐ¿":9971,"Ð¸ÐºÐ°Ð¼Ð¸":9972,"ĠÐ½ÐµÐ¸ÑģÐ¿ÑĢÐ°Ð²":9973,"ĠÐ½ÐµÐ·Ð°Ð¼":9974,"¾ÑĤÑĥ":9975,"ĠÐ¡ÑĤÐ°ÑĤÑĮ":9976,"ĠÐ¿ÑĢÐ¸Ð²ÑĭÐº":9977,"Ð°Ð·Ð¼":9978,"ÑĮÐµÐ¼":9979,"Ã³Åº":9980,"ĠÐĿÐµÐ¼":9981,"les":9982,"ĠÐĸÐµÐ½Ñī":9983,"ĠÐŁÐ¾Ð´Ð¾Ð±":9984,"Ð²Ð°ÑĢÑĤÐ¸":9985,"ĠMoÅ¼e":9986,"ĠÐ¾Ð±ÑĬÐµÐºÑĤ":9987,"ĠÐ£ÑĩÐ°Ñģ":9988,"ĠÐ¼Ð°ÑĤÐºÐ¸":9989,"Ġ55":9990,"ree":9991,"arÃ³wno":9992,"ĠszczegÃ³l":9993,"ĠÐĶÑĢÑĥÐ³Ð¸Ðµ":9994,"ĠÐ¿Ð°ÑĢÐ°":9995,"ĠÐ³Ð°Ð´":9996,"ĠÐ°Ð²ÑĤÐ¾Ð¼Ð°ÑĤ":9997,"ĠÑĢÐµÐºÐ¾Ð¼ÐµÐ½Ð´ÑĥÐµÐ¼":9998,"ĠÐłÐ°Ð±Ð¾ÑĤÐ°":9999,"ÑĤÐ¸ÑĤÑĥÑĤ":10000,"ĠÐ³Ð¾ÑģÑĥÐ´Ð°ÑĢÑģÑĤÐ²ÐµÐ½Ð½Ð¾Ð³Ð¾":10001,"ĠÑĩÐ»ÐµÐ½Ð¾Ð²":10002,"ĠÑĢÑĥÐºÐ¾Ð¹":10003,"ĠApple":10004,"ĠÐ¾ÑĤÑħÐ¾Ð´":10005,"ĠÐ½Ð¾ÑĤÐ°ÑĢÐ¸":10006,"ÑģÐµÑĢ":10007,"mon":10008,"ÑĤÐ½Ð¸ÐºÐ°":10009,"Ġtemat":10010,"ĠÐ·Ð°Ð¿Ð¸ÑģÑĮ":10011,"ĠbyÅĤy":10012,"ĠÐ²ÐµÑĢÑħÐ½ÐµÐ¹":10013,"por":10014,"US":10015,"ĠÐ¿Ð¸ÑĤÐ¾Ð¼":10016,"ĠÐ§ÐµÐ»Ð¾Ð²":10017,"edia":10018,"°ÑĨÐ¸Ð¸":10019,"ÑĢÐµÐ¹Ð´":10020,"ĠÑĩÑĥÐ²ÑģÑĤÐ²Ð°":10021,"ĠÑĥÐ¹":10022,"ĠÐłÐ¾Ð´":10023,"ĠÑģÐ°Ð¹ÑĤÐ¾Ð²":10024,"Ð¾Ð¼Ð¾":10025,"ĠÑģÐ¾Ð´ÐµÑĢÐ¶Ð°Ð½Ð¸Ñı":10026,"ĠÑģÐ¾ÐµÐ´Ð¸Ð½ÐµÐ½Ð¸Ñı":10027,"Ð¾Ð°Ð½Ð":10028,"ÐµÑĢÐ½Ñı":10029,"maty":10030,"ÑĤÐ¸ÑĩÐµÑģÐºÑĥÑİ":10031,"ĠÐ¾Ð±ÑģÐ»ÑĥÐ¶Ð¸Ð²Ð°Ð½Ð¸Ñı":10032,"ÑĢÐ°Ð»ÑĮÐ½ÑĭÑħ":10033,"ÅĤon":10034,"ĠÐºÐ¾ÑĢÐ¿ÑĥÑģ":10035,"ÑĢÐ¾ÐºÐ°":10036,"ÑĤÐ¸ÑĤÑģÑı":10037,"įÐºÐ¾Ð½Ð¾Ð¼":10038,"ĠÑģÑħÐ¾Ð´":10039,"ĠÐ»Ð¸ÐºÐ²Ð¸Ð´":10040,"Ð¾Ð¾ÑĤÐ²ÐµÑĤÑģÑĤÐ²":10041,"ĠÐĹÐ°ÐºÐ¾Ð½":10042,"ĠÑĤÐ¸Ñħ":10043,"land":10044,"Ġotrzyma":10045,"ÑĭÐ¶":10046,"Ð½Ð¸ÐµÐ¼":10047,"ĠÐ´Ð°Ð¼":10048,"ĠÐ²ÑĭÑģÐ¾ÐºÐ°Ñı":10049,"ĠÑģÐ»Ð¾Ð¶Ð½Ð¾ÑģÑĤÐ¸":10050,"ĠÐºÐ¾Ð¼Ð¼ÑĥÐ½Ð¸Ðº":10051,"ĠÐ¿Ð¾Ð»Ð¾ÑģÑĤÐ¸":10052,"Ð¾Ð»ÑĮÐ½ÑĭÐµ":10053,"ĠÐ½Ð°Ð¿ÑĢÑıÐ¼ÑĥÑİ":10054,"ĠÐ¸ÑģÐºÑĥÑģÑģÑĤÐ²Ð°":10055,"ĠÐ¿ÑĢÐµÐ²ÑĢÐ°Ñī":10056,"ĠFor":10057,"ĠÐ¿Ð¾ÑıÐ²Ð¸Ð»Ð°ÑģÑĮ":10058,"ĠÐ¿ÑĢÐµÐ´Ð¼ÐµÑĤÑĭ":10059,"ĠÐ½ÐµÑĳ":10060,"ĠÐ¼Ð¾Ð»Ð¾Ð´Ð¾Ð¹":10061,"ÑīÐ¸ÐºÐ¸":10062,"ĠÐ¾ÐºÐ¾Ð½ÑĩÐ°Ð½Ð¸Ñı":10063,"ĠÐ´ÑĢÑĥÐ³Ñĥ":10064,"ĠÐºÐ¾Ð¶Ð°":10065,"ĠÐ¸Ð¼ÐµÑİÑĤÑģÑı":10066,"Ġkli":10067,"ĠÐ¿Ð¾Ð½ÑıÑĤÐ½Ð¾":10068,"Ð¸Ð²ÑĪÐ¸ÑģÑĮ":10069,"ĠÑģÑĤÐ°Ð»Ðº":10070,"ĠÐ·Ð°Ð½Ð¸Ð¼Ð°ÐµÑĤÑģÑı":10071,"ĠÐ¿ÑĢÐ¾Ð´Ð²Ð¸Ð¶":10072,"ĠÐ±ÑĢÐ¾Ð½Ð":10073,"Ð³Ð°ÑĢ":10074,"ĠÐ©":10075,"ĠÐ·Ð¸Ð¼Ð¾Ð¹":10076,"ĠÑģÐ¾ÑģÑĤÐ°Ð²Ð°":10077,"ĠÑģÑĤÐµÑĢ":10078,"ÑģÑĤÐ²Ð¸Ð¹":10079,"ĠÑĥÑģÐ»ÑĭÑĪ":10080,"ĠÐ¿ÐµÑĢÐµÐºÐ»ÑİÑĩ":10081,"ĠÐ·Ð°ÑĢÑĥÐ±ÐµÐ¶":10082,"ome":10083,"ĠÐ¾ÑĤÐ²ÐµÑĢÑģÑĤÐ¸Ñı":10084,"ĠÐ½ÐµÐ¾Ð±ÑħÐ¾Ð´Ð¸Ð¼ÑĭÑħ":10085,"ĠÐ±Ð¾Ð»ÐµÐ·Ð½ÐµÐ½Ð":10086,"Ð¾Ð±Ð¾Ð¹":10087,"ĠÑħÐ¾ÑĤÐµÐ»Ð¾ÑģÑĮ":10088,"ĠÑĦÐ°ÐºÑĤÑĥ":10089,"Ð¾Ð³ÑĢÐ°ÑĦÐ¸Ð¸":10090,"ÑĩÐ¸ÐºÐ¾Ð¼":10091,"ĠPe":10092,"ĠÐ¿Ð¾ÑģÐ»ÐµÐ´Ð½Ð¸Ñħ":10093,"ĠÐ½ÐµÐºÐ¾ÑĤÐ¾ÑĢÐ¾Ðµ":10094,"ĠÐ±Ð¾Ñı":10095,"ph":10096,"ĠÑĩÐ°ÑģÑĤÐµÐ¹":10097,"ĠLu":10098,"trze":10099,"ĠobowiÄħ":10100,"ĠÑĢÐ°Ð·ÑĬ":10101,"ĠÐ¡Ð°Ð¼ÑĭÐ¹":10102,"ĠÑĥÑģÑĤÐ°Ð½Ð¾Ð²ÐºÐ°":10103,"kowa":10104,"ĠÐ²ÑĭÐ³Ð»ÑıÐ´ÐµÑĤÑĮ":10105,"ĠÑĦÐ¸Ð»Ð¾ÑģÐ¾ÑĦ":10106,"ĠÑĤÑĢÐµÑī":10107,"ĠÐ¼Ð°Ð·":10108,"Ġnim":10109,"ĠÐ¿Ð¾ÐºÐ°Ð·Ð°ÑĤÐµÐ»ÑĮ":10110,"rach":10111,"ĠGe":10112,"ĠÐ¸Ð¿Ð¾ÑĤ":10113,"ĠÐºÑĥÑĢÑģÐ°":10114,"Ġinne":10115,"ĠÐ¿ÑĢÐ¾ÑĨÐµÐ´ÑĥÑĢÑĥ":10116,"ĠÐ²ÐµÑĩÐµÑĢÐ¾Ð¼":10117,"31":10118,"ĠNi":10119,"ĠrÃ³Å¼nych":10120,"ĠÐ·Ð°ÑĢÐ°Ð±Ð¾ÑĤÐ°ÑĤÑĮ":10121,"ĠÐ´ÐµÐ½ÐµÐ¶Ð½ÑĭÑħ":10122,"ÐĺÐ½":10123,"Ð°ÐºÑĥ":10124,"ĠÐĿÐµÐ²":10125,"ĠÐ½Ð¾Ð²Ð¸Ñĩ":10126,"Ġkole":10127,"Ð¢Ð¬":10128,"ĠÐ¼Ð¾Ð·Ð³":10129,"ĠÐ³Ð¾ÑģÑĥÐ´Ð°ÑĢÑģÑĤÐ²ÐµÐ½Ð½ÑĭÑħ":10130,"ĠÐ¿Ð¾Ð»ÑĮÐ·Ð¾Ð²Ð°ÑĤÐµÐ»ÑĮ":10131,"ĠÐ´ÑĭÐ¼":10132,"ÑģÐ¸ÑĢÐ¾Ð²Ð°ÑĤÑĮ":10133,"ĠÐĹÐ½Ð°Ñĩ":10134,"ĠÐ³Ð»Ð°Ð²Ñĭ":10135,"ĠÑģÐ¾Ð¾Ð±ÑīÐµÐ½Ð¸Ðµ":10136,"Ġas":10137,"ÐºÐ¾Ð²ÑĭÐµ":10138,"ĠÑģÐ¸ÑģÑĤÐµÐ¼Ð¾Ð¹":10139,"Ð°Ð½Ð¸ÑıÑħ":10140,"ĠÐ¢Ðŀ":10141,"ĠÑģÐ°Ð¼Ð¾Ð»":10142,"ĠÑĢÐ°Ð·Ð³Ð¾Ð²":10143,"ÐĺÐĳ":10144,"ĠÑĤÑĢÐµÐ±Ð¾Ð²Ð°Ð½Ð¸ÑıÐ¼":10145,"ĠÑĤÐµÑħÐ½Ð¾Ð»Ð¾Ð³Ð¸Ñı":10146,"ĠÐ´Ð²Ð¸Ð³Ð°ÑĤÐµÐ»ÑĮ":10147,"owarzy":10148,"Ġmini":10149,"ĠÑĢÐ¾ÑĤ":10150,"Ġsamocho":10151,"ĠÐ²ÐµÐ½ÑĤÐ¸Ð»ÑıÑ":10152,"İÑīÐ¸Ð¹":10153,"¾Ñİ":10154,"Ð°Ð¼Ð±":10155,"ĠCon":10156,"ĠÐ¾Ð²Ð¾ÑīÐ":10157,"ĠÐ¼Ð¾ÑĢÑı":10158,"ĠÐ»Ð°Ð²":10159,"ĠÑģÐ»ÑĥÑĩÐ°Ð¸":10160,"ĠkaÅ¼de":10161,"ĠÑĥÑĩÐ°ÑģÑĤÐ¸Ñı":10162,"ĠÑģÐºÐ¾ÑĢÐ¾":10163,"Ð¸Ð¼ÑĭÐ¹":10164,"ĠÐ½ÐµÑģÐ¾Ð²ÐµÑĢÑĪ":10165,"ÑĥÑģÑĮ":10166,"ĠÐ¾Ð±ÑĢÐ°Ð·Ð":10167,"Ġ(Â«":10168,"Ð¸Ð½ÐµÐ":10169,"ĠÐ²ÑĤÐ¾ÑĢÐ¾Ð¼":10170,"Ð¾ÑĩÐ":10171,"tic":10172,"ĠÐ´Ð½ÐµÐ²":10173,"ĠÐ¿ÐµÑĢÐ²Ð¾Ð½Ð°Ñĩ":10174,"ĠÐ°Ð´ÑĢÐµÑģÑĥ":10175,"ĠÐºÑĢÐ¸Ð¿":10176,"ĠÐ¿ÑĢÐ¸Ð¶":10177,"ĠÐ¾Ð±ÑīÐµÐ½Ð¸Ñı":10178,"Ġtrzeba":10179,"ĠÐŁÑĢÐµÐ¸Ð¼":10180,"Ð¾ÑģÐ¸Ð±Ð¸ÑĢ":10181,"ĠÐ¼Ð°Ð³Ð°Ð·Ð¸Ð½Ð°":10182,"ÑĥÑīÐ¸Ðµ":10183,"ĠÐ¾Ð·Ð½Ð°ÐºÐ¾Ð¼Ð¸ÑĤÑĮÑģÑı":10184,"41":10185,"ĠÐĿÐĶ":10186,"ĠÐ²Ð·ÑĢÑĭÐ²":10187,"ĠÐ²Ð¾Ð·Ð¼Ð¾Ð¶Ð½Ð¾ÑģÑĤÐµÐ¹":10188,"ĠÐ¿ÑĢÐ¸Ð¾Ð±ÑĢÐµ":10189,"ÑĤÐµÑĢÑĭ":10190,"ĠÐ¸Ð½ÑģÐ¿ÐµÐº":10191,"ÑĳÐ¶":10192,"ĠÐ¾Ð±ÐµÑģÐ¿ÐµÑĩÐµÐ½Ð¸Ðµ":10193,"ĠÐŀÐ½Ð»Ð°Ð¹Ð½":10194,"ĠÅĽwiad":10195,"czywiÅĽcie":10196,"IA":10197,"cznoÅĽci":10198,"Ġzada":10199,"ĠÑĢÐ¾ÑģÑģÐ¸Ð¹ÑģÐºÐ¾Ð³Ð¾":10200,"Ð»Ð¾Ð¶Ð¸ÑĤÑĮ":10201,"ĠÑĥÑİ":10202,"Ð»Ð°Ñı":10203,"ĠÐºÑĢÑĥÐ¿Ð½ÑĭÐµ":10204,"ÐµÑİÑĤ":10205,"ĠÐ¾Ð´Ð½Ð¾Ð¼Ñĥ":10206,"Ð¸Ð´Ñĭ":10207,"ĠÐ¾Ð±Ð·":10208,"ĠÑģÐ»Ð¾Ñı":10209,"Ð¸ÐºÑģ":10210,"ÐµÑģÐ»Ð¸":10211,"deo":10212,"Ð¾Ð²ÐµÐ´":10213,"Ġzie":10214,"ĠÐ¾ÑĤÐµÑĨ":10215,"Ġtrzy":10216,"ĠÐ¿Ð¾Ð´Ð°ÑĤÑĮ":10217,"ĠÐ¿Ð¾ÑģÑĢÐµÐ´ÑģÑĤÐ²Ð¾Ð¼":10218,"ÑĢÐ°Ð½Ð¸ÑĤ":10219,"ĠÅ¼ad":10220,"ĠÐ¸ÑģÑģÐ»ÐµÐ´Ð¾Ð²Ð°Ð½Ð¸Ðµ":10221,"ĠÐ¿ÐµÑĢÐµÐ³Ð¾Ð²":10222,"ĠÐºÑĥÐ·":10223,"ĠÐ¾ÐºÐ°Ð·Ð°Ð»ÑģÑı":10224,"ĠÐ¿Ð¾ÑĩÑĥÐ²ÑģÑĤÐ²":10225,"ĠÐ¼Ð¸ÑĢÑĥ":10226,"ĠÑģÑĤÐ°ÑĤÑĥÑģ":10227,"ĠÐ¾ÐºÑĢÐ°Ñģ":10228,"ĠÐ¾ÑĤÐ¾Ð±ÑĢÐ°Ð¶":10229,"ĠÐ·Ð°ÑĦÐ¸Ðº":10230,"Ð¸Ð½ÑģÐºÐ¾Ð³Ð¾":10231,"ÑĦÐ¸":10232,"Ġener":10233,"ÑĨÐ¸ÐµÐ¹":10234,"ĠÐ¿ÑĢÐ¾ÑģÑĤÐ¸ÑĤÑĥÑĤÐºÐ¸":10235,"ÐµÐ½Ð½Ð¸ÐºÐ°":10236,"Ð¾Ð½Ð½Ð¸Ðº":10237,"ĠÐ·Ð°ÑĢÐ°Ð±Ð¾ÑĤ":10238,"ĠponiewaÅ¼":10239,"ĠÐ¼ÐµÑĤÐ¾Ð´Ð¾Ð²":10240,"ÑĤÐ¾ÑĢÐ¶":10241,"ÑģÑĤÐ²Ð¸Ð¸":10242,"ĠÐ²ÑĭÐ¿Ð°Ð´":10243,"gna":10244,"ĠÐ¸Ð·Ð³Ð¾ÑĤÐ°Ð²Ð»Ð¸Ð²":10245,"ÐĿÐ¡":10246,"Ġnada":10247,"ĠÐ²ÑĭÑģÐ¾ÐºÐ¾Ð³Ð¾":10248,"ĠÐ¼ÑĥÑĩ":10249,"ÐľÐŀ":10250,"ĠÑĤÐµÐ¼Ñĭ":10251,"ĠÑģÐ¾Ð¾Ð±ÑīÐµÐ½Ð¸Ñı":10252,"ĠÑĢÐµÐ³Ð¸ÑģÑĤÑĢÐ°ÑĨÐ¸Ñİ":10253,"47":10254,"Ġfirm":10255,"ĠRoz":10256,"ĠÐ²ÐµÐ»Ð¸ÐºÐ¾Ð»ÐµÐ¿":10257,"dzieÄĩ":10258,"ÑĥÐµÑĤÐµ":10259,"Ð¸Ð²Ð°ÑİÑīÐ¸Ðµ":10260,"ĠcoÅĽ":10261,"Ġnajbardziej":10262,"cal":10263,"tory":10264,"Ð°Ð»ÑĮÐ½Ð¾ÑģÑĤÑĮ":10265,"ÑĤÐ¸Ð·Ð°ÑĨÐ¸Ð¸":10266,"ĠÐ¿ÑĢÐ¸ÑĩÐ¸Ð½Ð°Ð¼":10267,"ĠÐºÐ¾Ð½ÑģÑĤÑĢÑĥÐºÑĨÐ¸Ñı":10268,"ĠÑĥÐ»ÑĮÑĤ":10269,"ĠÑĥÐ´Ð¾Ð²Ð¾Ð»ÑĮÑģÑĤÐ²Ð¸Ðµ":10270,"ÑĢÐµÐ´Ð¸ÑĤÑĮ":10271,"ĠÐļÐ°ÐºÐ¾Ð¹":10272,"ĠÑĦÐ¾ÑĢÑĥ":10273,"ĠÐºÐ¾Ð¼Ð¿Ð¾Ð½ÐµÐ½ÑĤÐ¾Ð²":10274,"ĠÐ¿ÑĢÐµÐ´Ð¿Ð¾Ð»Ð°Ð³Ð°ÐµÑĤ":10275,"Ð¾Ð½Ð¸Ñĩ":10276,"nicy":10277,"ĠÐ¿Ð¾Ð´ÑĢÑıÐ´":10278,"ĠÐľÐ¸Ð»":10279,"Ġinwe":10280,"ĠÑģÑİÐ´Ð°":10281,"ĠÐ¿ÑĢÐ¾Ð²ÐµÐ´ÐµÐ½Ð¸Ðµ":10282,"ĠHe":10283,"ĠÐ»ÐµÐ¿":10284,"ĤÐ¾Ð½":10285,"Fi":10286,"ĠÑĦÐ¸Ð»ÑĮÐ¼Ñĭ":10287,"ĠÑģÐ²ÑıÐ·Ð°Ð½Ð½ÑĭÑħ":10288,"ĠÑĢÐµÐ±ÐµÐ½Ð":10289,"ĠÐ°ÑĦ":10290,"ÑģÐ¿Ð¾ÑĢ":10291,"Ð¾Ð¼Ð¸Ð½Ð°ÐµÑĤ":10292,"Ð°ÑĪÐµ":10293,"ĠÐ±Ð»Ð°Ð³Ð¾Ð´Ð°ÑĢ":10294,"ĠÐ¿Ð¾Ð¼Ð¸Ð¼Ð¾":10295,"ĠÐ¿Ð¾Ð´Ð¾Ð±Ð½ÑĭÐµ":10296,"ĠÐĴÑģÑĳ":10297,"ĠÐ½Ð°Ð¸Ð¼":10298,"ĠÐ¸Ð½ÑĦÑĢÐ°ÑģÑĤÑĢÑĥÐºÑĤÑĥ":10299,"prez":10300,"49":10301,"ĠÐ·Ð°Ð·":10302,"ĠÐ¿ÑĢÐµÐ´Ð»Ð°Ð³Ð°ÐµÐ¼":10303,"try":10304,"Ġ&":10305,"ĠÐ¿Ð»Ð°ÑĤÑĭ":10306,"ĠÑįÑĦÑĦÐµÐºÑĤÐ¸Ð²Ð½Ð¾ÑģÑĤÐ¸":10307,"ĤÐ°Ð¿":10308,"ĠksiÄħ":10309,"ĠÐ·Ð°ÐµÐ¼":10310,"ĠÐ³ÑĢÐ½":10311,"Ð°ÐµÐ¼ÑģÑı":10312,"ĠÐºÐ¾Ð½ÑĤÑĢÐ¾Ð»":10313,"ĠÐ¿Ð¾ÐºÑĢÑĭÐ²":10314,"ĠÐ¾Ð±ÑĢÐ°ÑīÐ°ÑĤÑĮÑģÑı":10315,"ÑĤÐ°Ð¿":10316,"ownikÃ³w":10317,"ĠÐ²Ð·Ð°Ð¸Ð¼Ð¾Ð´ÐµÐ¹ÑģÑĤÐ²":10318,"ĠÐĹÐĲ":10319,"ĠÐ·Ð°ÑĩÐ°ÑģÑĤÑĥÑİ":10320,"ĠÐ´Ð¸Ð·Ð°Ð¹Ð½Ð°":10321,"nij":10322,"ĠÐļÐ°Ð¿":10323,"menta":10324,"ĠÐ¿Ð¾ÑģÑĥÐ´":10325,"ÑĢÐ¾ÑĤÐ¸ÑĩÐµÑģÐº":10326,"ĠÐŁÑĢÐ¸Ð":10327,"ĠÑģÐ¸Ð¼Ð¿ÑĤÐ¾Ð¼Ð¾Ð²":10328,"ÑĥÐ»Ð°":10329,"ĠÑģÐ¾Ð»Ð½":10330,"ĠÑĩÐµÑĤÐ²ÐµÑĢ":10331,"ĠÐ¿ÑĢÐ¸Ð½ÑıÐ»Ð¸":10332,"ĠkrÃ³":10333,"ĠÑĤÐµÐ¼Ð¿ÐµÑĢÐ°ÑĤÑĥÑĢÐµ":10334,"ĠÐ¼ÑĥÐ¶Ð°":10335,"ĠÐ·Ð¾Ð½Ðµ":10336,"Ġdom":10337,"czeÅĽ":10338,"ĠÐ¿ÑĢÐ¾ÑĦÐ¸Ð»ÑĮ":10339,"Ġwiel":10340,"ĠÐĵÐ»Ð°Ð²Ð":10341,"ĠÑĦÐ°Ð¹Ð»":10342,"ĠAn":10343,"ĠÑĪÐµÑģÑĤÑĮ":10344,"Ġ120":10345,"ĠÑĢÑĭÐ±Ñĭ":10346,"Ġcon":10347,"chro":10348,"½ÑĨÐµ":10349,"ĠÐ²Ð¾ÑģÐ¿ÑĢÐ¸Ð½Ð¸Ð¼":10350,"ÐĿÐĺÐķ":10351,"cenia":10352,"2016":10353,"ÑĢÑĥÐ³Ð°Ñı":10354,"wali":10355,"ĠÐ¿ÑĢÐµÐ´ÑģÑĤ":10356,"µÑĢÐ°Ð¼Ð¸":10357,"ÑĥÑīÐ¸Ð¹":10358,"ĠÑģÐ¾Ð»Ð¸":10359,"ĠÑĥÐ²ÐµÐ»Ð¸ÑĩÐµÐ½Ð¸Ðµ":10360,"ĠÑģÐµÐ·Ð¾Ð½Ð°":10361,"Ð¾ÐµÐ¼Ñĥ":10362,"ĠÐ´Ð¾Ð¿Ð¾Ð»Ð½Ð¸ÑĤÐµÐ»ÑĮÐ½Ð¾":10363,"ĠÐ¼Ð¾ÑĩÐ":10364,"Ġ2007":10365,"Ð¾ÑĢÐµÑĩ":10366,"ĠÑĥÑģÑĤÑĢÐ°Ð¸Ð²":10367,"ĠÐ´ÐµÑĢÐµÐ²Ð¾":10368,"ĠÐ¶Ð¸Ð´ÐºÐ¾ÑģÑĤÑĮ":10369,"ĠÐļÐ¸ÐµÐ²":10370,"ĠÐ°ÑĢÐ¾Ð¼Ð°":10371,"ĠÐ¥Ð¾Ñĩ":10372,"Ġuro":10373,"ĠÑĥÑģÑĤÑĥÐ¿":10374,"½Ð¾Ð·Ð½Ð°Ñĩ":10375,"ĠÐĴÑĭÐ±Ð¾ÑĢ":10376,"ĠÐŀÑĤÐ·ÑĭÐ²Ñĭ":10377,"ÑĢÐ°Ð²Ð½Ð¸Ð²":10378,"Ð°ÑĢÐµ":10379,"ÑĤÐ¸Ð½Ð³Ð°":10380,"ĠÐ²Ð¿ÑĢÐ°Ð²Ðµ":10381,"ĠÑĥÐ¿ÑĢÐ°Ð²Ð»ÑıÑİÑī":10382,"ĠÐ¸ÑģÐ¿Ð¾Ð»Ð½ÐµÐ½Ð¸Ñı":10383,"Ð°Ð·Ñĭ":10384,"ĠÐ·Ð°Ð¹Ð¼":10385,"Ġludzi":10386,"Ð¸ÐºÐ¾":10387,"ĠÐ±ÑĥÐºÐ²Ð°Ð»ÑĮÐ½Ð¾":10388,"ĠÐ¿Ð¾Ð¶Ð°ÑĢÐ":10389,"42":10390,"ĠÐ°Ð½ÑĤÐ¸Ð±Ð¸Ð¾":10391,"ĠÐ·Ð°ÐºÐ¾Ð½Ð¾Ð´Ð°ÑĤÐµÐ»ÑĮÑģÑĤÐ²Ð°":10392,"ĠmieÄĩ":10393,"Ð½ÐµÑĨ":10394,"ĠÐļÐ»Ð°ÑģÑģ":10395,"ĠÐ£Ð³":10396,"Ð¾ÐºÐ¸Ñģ":10397,"ÐĶÐĲ":10398,"len":10399,"Ġgospo":10400,"ĠÐ¸Ð½ÑĤÐµÑĢÑĮÐµÑĢÐ°":10401,"ĠÐºÐ¾Ð»Ð»ÐµÐ³":10402,"ĠÐ¾Ð¿ÑĢÐµÐ´ÐµÐ»ÐµÐ½Ð½ÑĭÑħ":10403,"ĠÐ½Ð°ÑħÐ¾Ð´Ð¸ÑĤÑĮÑģÑı":10404,"Ġokaz":10405,"ĠÑĢÐ°ÑģÐ¿Ð¾ÑĢÑıÐ¶":10406,"ÑĪÐµÐ¹ÑģÑı":10407,"Ġznale":10408,"ĠÐ¿ÑĢÐ¸ÑĢÐ¾Ð´Ñĭ":10409,"ĠÐ·Ð»Ð¾":10410,"Ġkilku":10411,"ÐµÑĢÐ²Ð¸Ñģ":10412,"ĠÐ¸Ð½ÑĤÐµÐ»Ð»ÐµÐº":10413,"tuje":10414,"Ġkredy":10415,"ĠÐ¿Ð¾Ð²ÐµÐ´ÐµÐ½Ð¸Ñı":10416,"ĠÐ¿Ð¸ÑģÑĮÐ¼Ð¾":10417,"ÑĢÐµÐ½ÑĤ":10418,"ĠÐ·Ð°Ð³Ð¾":10419,"Ġodpowiedni":10420,"ĠÑħÐ»ÐµÐ±":10421,"rum":10422,"ĠÐ²Ð½ÑĥÑĤÑĢÐµÐ½Ð½ÐµÐ¹":10423,"ÑĥÐ±Ð»Ð¸Ñĩ":10424,"ĠÐ´ÐµÐ»Ð°ÐµÑĤÑģÑı":10425,"Ð¾ÑĢÐ¾Ñĩ":10426,"ĠÐ¸Ð½ÑĤÐµÑĢÑĦ":10427,"ĠÐĲÐ»ÐµÐºÑģÐµÐ¹":10428,"ĠÐĵÐŀ":10429,"ĠÐ¾Ð±ÑıÐ·Ð°Ð½Ð½Ð¾ÑģÑĤÐ¸":10430,"Ð¿Ð¾Ð·":10431,"ÑĥÑĢÐ°ÑĤÑĥ":10432,"ĠÐĳÑĢ":10433,"Ð»Ð¾Ð¹":10434,"RO":10435,"ĠÐĺÐ·Ð¼":10436,"nÄĻtrz":10437,"Ġserwi":10438,"ĠÑģÐ¾Ð½":10439,"Ġhistor":10440,"ĠÐ¾Ð±Ð¾ÑģÐ½Ð¾Ð²":10441,"ÐµÐ³Ð°":10442,"ĠÐ¾ÑģÑĤÑĢÐ¾Ð²":10443,"ĠÐ´Ð¸Ð°Ð¿Ð°Ð·":10444,"ĠÐ¾ÑģÑĤÐ°":10445,"ĠciÄĻ":10446,"±Ð¾Ð»ÑĮÑĪ":10447,"Ð¾ÐµÐº":10448,"stawie":10449,"ĠÐºÐ¸ÑĪÐµÑĩÐ½Ð¸ÐºÐ°":10450,"Ġwypo":10451,"ĠÑĪÐ°Ð¼Ð¿":10452,"ĠÑĦÐ¾ÑĢÐ¼Ð¸ÑĢÐ¾Ð²Ð°Ð½Ð¸Ñı":10453,"ĠÐºÐ¸ÑģÐ»Ð¾ÑĤÑĭ":10454,"AM":10455,"Ð»ÐµÐ¸Ð":10456,"ĠÐĶÐ°Ð»ÑĮ":10457,"ÑĤÐ¾Ð½":10458,"ÑĢÑĥÑı":10459,"ÐµÐ¼Ð¿":10460,"ÑĤÐ¾ÑĢÐ¸Ð¹":10461,"ĠÐºÐ»Ð¸ÐµÐ½ÑĤ":10462,"Ġpu":10463,"Ð¸Ð½Ð¸":10464,"ĠÐ³Ð»Ð°Ð²Ð½ÑĭÐ¼":10465,"ĠÑģÑĤÑĢÐ¾Ð³":10466,"Ġstronie":10467,"ÑĢÐ°Ð½Ð¾Ð²":10468,"ĠpamiÄĻ":10469,"ĠÐ½ÐµÐ²Ð¾Ð·Ð¼Ð¾Ð¶":10470,"ĠÐĵÐ»Ð°Ð²Ð½Ð°Ñı":10471,"ÑĢÐ¾ÐºÐ":10472,"ĠÑĢÐ¸ÑģÐºÐ°":10473,"ĠÐķÐ´Ð¸Ð½":10474,"ĠÐĹÐ°Ð³":10475,"ĠÐ¿ÑĢÐµÐºÑĢÐ°Ñī":10476,"ĠÑĢÐ°ÑģÑħÐ¾Ð´Ð¾Ð²":10477,"ĠÐķÐ²ÑĢÐ¾Ð¿Ðµ":10478,"ÐµÑģÐµÐ´":10479,"Ġswoich":10480,"prac":10481,"Ġteraz":10482,"Ġ37":10483,"szenie":10484,"ĠÐºÑĢÑİÑĩ":10485,"ĠÑĢÐµÑģÑĥÑĢÑģÐ¾Ð²":10486,"ĠÐ¾ÑģÑĤÐ°Ð»ÑĮÐ½ÑĭÑħ":10487,"¸ÑıÐ¼Ð¸":10488,"ĠÐ´Ð¸ÑģÐºÐ¾Ð¼":10489,"ĠÑĤÑĢÐ°Ð½ÑģÐ¿Ð¾ÑĢÑĤÐ°":10490,"ĠÐ±ÑĥÐ¼Ð°Ð¶":10491,"ĠÐĲÐ²ÑĤÐ¾Ð¼":10492,"Ġjedy":10493,"ĠÐ¶ÐµÐ½Ð°":10494,"ĠÐ½ÐµÐ·Ð½Ð°Ñĩ":10495,"ÑĳÐ²":10496,"ĠÑģÐ½Ð¸Ð·Ð¸ÑĤÑĮ":10497,"bywa":10498,"ÐĺÐĲ":10499,"ĠÐ¿Ð¾Ð¿Ð°ÑģÑĤÑĮ":10500,"ĠÐ¿Ð¾ÑıÐ²Ð¸ÑĤÑģÑı":10501,"Ð¸Ð³Ñĥ":10502,"ĠskÃ³":10503,"Ð¾Ð»Ð¾Ð³Ð¸ÑĩÐµÑģÐºÐ¸Ð¹":10504,"·Ð´Ð°":10505,"ĠÑĥÐ±Ð¾ÑĢ":10506,"ĠÐ¼Ð¾Ð»Ð¸":10507,"ĠÑģÐµÐ²ÐµÑĢÐ":10508,"ĠÐ¿ÐµÐ´Ð°Ð³Ð¾Ð³":10509,"Ð¾Ð»Ð½ÑĨÐµ":10510,"Ð¾ÑĢÐ¾Ñģ":10511,"ÐľÐ¡":10512,"ÑĢÐµÐ´Ð°":10513,"ĠÐ¾ÑģÑĤÐ¾ÑĢÐ¾Ð¶":10514,"--------":10515,"ĠÐ¾ÑĤÐ¾Ð¿Ð»ÐµÐ½Ð¸Ñı":10516,"ĠÐłÐµÐ·ÑĥÐ»ÑĮ":10517,"ĠÑģÑĤÐ°Ð½ÑĥÑĤ":10518,"ĠÐ½Ð°ÑĩÐ¸Ð½Ð°Ñı":10519,"ÑıÐ½Ð°":10520,"ĠÐºÐ°Ð¶Ð´ÑĥÑİ":10521,"ĠÐ¿ÑĢÐ¾ÑģÑĤÐ°":10522,"ĠÐ¡Ð¿Ð¾ÑģÐ¾Ð±":10523,"Ð¸Ð¼Ð¾Ð³Ð¾":10524,"ÐµÐ½Ð³":10525,"ÐłÐ¾Ñģ":10526,"ĠÐ¿Ð°ÑĤÐ¾Ð»Ð¾Ð³Ð¸Ð¸":10527,"ÑĤÐ¸Ð»Ð°ÑģÑĮ":10528,"Ġczer":10529,"ĠÑģÐ¿Ð¾ÑģÐ¾Ð±Ð°Ð¼Ð¸":10530,"Ð¾Ð¾ÑĢÐ´":10531,"ĠÐŁÑĢÐ¸Ñģ":10532,"ĠÐ²Ð¸ÑĢÑĥÑģ":10533,"ÑĢÐ¸ÑĤÑĮ":10534,"ĠÑĦÐ¸Ð·Ð¸ÑĩÐµÑģÐºÐ¸Ñħ":10535,"ĠÐ½Ð°Ð»Ð¾Ð³Ð°":10536,"ÐµÑĢÑĮÑĤÐµ":10537,"kow":10538,"ĠÑĢÐ°Ð·Ð»Ð¸ÑĩÐ½ÑĭÐ¼Ð¸":10539,"ĠÐ²Ð°ÑĪÐ¸Ð¼":10540,"ĠÐ²ÑĢÐµÐ¼ÐµÐ½Ð°":10541,"Ġum":10542,"ĠÐĳÐ°Ð»":10543,"Î¿":10544,"ĠÐ¶Ð¸ÑĤÐµÐ»Ð¸":10545,"Ð³Ð»Ð°Ð²":10546,"Ġit":10547,"ĠÐºÐ°Ð¶Ð´ÑĭÐ¼":10548,"ĠÐ¿ÐµÑĤ":10549,"ĠÐ¢Ð¸Ð¿":10550,"ĠÐ·Ð°Ð³Ð¾ÑĤÐ¾Ð²":10551,"ĠÑģÐ¾Ð±ÑģÑĤÐ²ÐµÐ½Ð½Ð¾Ð¹":10552,"ĠÐºÑĢÐµÐ´":10553,"ĠÑĢÐµÐ·ÐºÐ¾":10554,"html":10555,"ĠÐ°ÑĢÐ±":10556,"ĠÑģÑĤÑĢÐ¾Ð³Ð¾":10557,"rÃ³b":10558,"ÐµÐ½Ð¸Ð¼":10559,"ĠÐ½Ð°ÑģÑĤÐ¾ÑıÑīÐ¸Ð¹":10560,"ĠBi":10561,"Ð¾Ð½Ð°Ð²Ð¸ÑĢÑĥ":10562,"ÑĢÐ°Ð»ÑĮÐ½ÑĭÐµ":10563,"ĠÐĹÐ´ÑĢÐ°Ð²":10564,"ĠÑĢÐ°ÑģÐ¿ÑĢÐ¾ÑģÑĤÑĢÐ°Ð½Ñı":10565,"ÑĢÐ¾Ð´ÑĥÐº":10566,"zji":10567,"°Ð¼Ð¸":10568,"ĠÐ»Ð¾Ð¶ÐºÐ¸":10569,"ĤÐµÐ¿":10570,"ÑĤÐµÐ¿":10571,"ĠÑĦÐ°Ð¼":10572,"ĠzwiÄħz":10573,"ÑģÐ¸ÑĤÐµÑĤ":10574,"ĠÐ¼Ð°ÑĢÑĪÑĢÑĥÑĤ":10575,"ĠÐ·Ð°Ð²Ð":10576,"ĠÐ¼Ð¾ÑīÐ½Ð¾ÑģÑĤÐ¸":10577,"ĠÐ½Ð¾ÑĩÑĮÑİ":10578,"ĠÐ¥Ð¾ÑĢÐ¾ÑĪÐ":10579,"ĠuwagÄĻ":10580,"ĠÐ¿ÑĢÑıÐ¼Ð¾Ð¹":10581,"ĠÑĩÐ¸ÑĤ":10582,"ĠÐĴÐ¾ÑĢ":10583,"Ð¾ÐµÐ½Ð¸Ðµ":10584,"ÑıÐ±ÑĢÐµ":10585,"ĠÐ´Ð°Ð²Ð°ÑĤÑĮ":10586,"ĠÐĴÐ¿ÑĢÐ¾ÑĩÐµÐ¼":10587,"ĠÐ»Ð¸Ð¿":10588,"ĠÐ½ÐµÐ·Ð°Ð²Ð¸ÑģÐ¸Ð¼Ð¾":10589,"ĠÐ¡Ð°Ð¼ÑĭÐµ":10590,"ĠÐ½Ð°ÑģÑĤÑĢÐ¾Ð¹ÐºÐ¸":10591,"Ġfak":10592,"ĠÐ¾ÑĦÐ¾ÑĢÐ¼Ð»ÐµÐ½Ð¸Ðµ":10593,"Ð°Ð¹Ð¼":10594,"ning":10595,"ĠÐ¿Ð»Ð°ÑĤÑĦÐ¾ÑĢÐ¼":10596,"stan":10597,"ĠÐ¿ÑĢÐ¸ÑıÑĤÐ½Ð¾":10598,"ĠÐ±ÑİÐ´Ð¶ÐµÑĤÐ°":10599,"ght":10600,"ĠÑĢÐ°Ð±Ð¾ÑĩÐµÐ³Ð¾":10601,"ĠÑĢÐµÐ·ÐµÑĢÐ²":10602,"ĠÐ¸ÑģÑĤÐ¸Ð½Ð":10603,"ĠÑĢÐ°ÑģÑģÐ»ÐµÐ´":10604,"Ġuda":10605,"ĠÑģÑĤÐµÐ¿ÐµÐ½ÑĮ":10606,"Ð°ÑĤÐµÐ»ÑıÐ¼Ð¸":10607,"ĠMie":10608,"ÑĪÐµÐ±":10609,"Ð¸ÑĤÐµÐ»ÑĮÐ½ÑĥÑİ":10610,"Ð¾ÐºÑĥÐ¿":10611,"ĠÐ¿Ð°ÑĤÑĢ":10612,"Ð±Ð¾":10613,"ĠÑĥÑĩÐ°ÑģÑĤÐºÐ¸":10614,"gÄħ":10615,"Ð»Ð¾Ð¿":10616,"ĠÐ¾Ð±ÑĬÐµÐ¼Ð°":10617,"Ġnp":10618,"Ð¸Ð¶Ñĥ":10619,"ĠÐ¿ÑĢÐ¾Ð¶Ð¸Ð²Ð°Ð½Ð¸Ñı":10620,"ĠÑĦÐ¸Ð»ÑĮÐ¼Ð°":10621,"ĠÐ¢Ð¾Ð»":10622,"pod":10623,"kowi":10624,"Ġostatni":10625,"ĠÐĽÑİÐ´Ð¸":10626,"ĠÐłÐµÐ±":10627,"ÐµÐ²Ð¸Ñĩ":10628,"ĠÐŀÑģÑĤÐ°Ð²":10629,"ÑĤÐ°Ðº":10630,"Ġstanie":10631,"ĠÐ¡Ð°":10632,"Ð°Ð²ÑĪÐ¸Ð¹":10633,"ĠÐ¼ÐµÐ´Ð»ÐµÐ½Ð½Ð¾":10634,"ÑĢÐ°Ð´Ð°":10635,"ĠÐ¿Ð¾Ð»ÑĥÑĩÐ¸Ð»Ð°":10636,"ĠÐĿÐ¸":10637,"ĠÐ¾Ð±Ð°":10638,"Ġkry":10639,"ĠÐŁÐ¾Ð´ÑĢÐ¾Ð±Ð½ÐµÐµ":10640,"mis":10641,"ÅĦski":10642,"lus":10643,"ĠÑĦÐ¾ÑĤÐ":10644,"ĠczÄĻÅĽci":10645,"ĠÐ¾ÑĨÐµÐ½Ð¸ÑĤÑĮ":10646,"ĠÐºÐ»Ð¸Ð½Ð¸ÑĩÐµÑģÐº":10647,"ĠÐ±ÐµÐ»ÑĭÐ¹":10648,"Ġozna":10649,"ÐŁÐŁ":10650,"Ð¸Ð½Ð±ÑĥÑĢÐ":10651,"ĠÐ¼Ð¾Ð½ÑĤÐ°Ð¶Ð°":10652,"µÑĤÐºÑĥ":10653,"ĠÐ¼Ð¸Ð½ÑĥÑĤÑĭ":10654,"ĠÐ¿Ð°ÑĢÑĭ":10655,"ĠÐ¿ÐµÑĢÐµÑĩÐµÐ½ÑĮ":10656,"ĠÐ±Ð»Ð°Ð³Ð¾Ð¿ÑĢÐ¸Ñı":10657,"ĠÑħÐ¾ÑĢÐ¾ÑĪÐµÐ¼":10658,"Ġuzyska":10659,"ĠÐ³Ð»Ð¾Ð±":10660,"ÐµÐ´Ð»Ð¸Ð²":10661,"Ð½ÐµÑĤÐ°":10662,"ĠÐ´Ð¾ÑĢÐ¾Ð³Ðµ":10663,"ĠÐ»Ð¸ÑĨÐ¾Ð¼":10664,"ĠÐ¸Ð·Ð¼ÐµÐ½ÐµÐ½Ð¸Ðµ":10665,"ĠÑģÑĤÑĥÐ´ÐµÐ½ÑĤÐ¾Ð²":10666,"ĠÐºÐ¾Ð¼Ð½Ð°ÑĤÑĥ":10667,"ĠÐ±ÐµÐ·Ð¾Ð¿Ð°ÑģÐ½Ð¾ÑģÑĤÑĮ":10668,"Ġkonku":10669,"ĠÑĪÐ¾ÐºÐ¾Ð»":10670,"Ð¸Ñį":10671,"ĠÑĢÑĥÐºÐ¾Ð²Ð¾Ð´Ð¸ÑĤÐµÐ»ÑĮ":10672,"ĠÑģÐ°ÑħÐ°ÑĢÐ":10673,"jÄħcego":10674,"ĠÐŀÑĤÑģ":10675,"Ð°Ð´ÐµÐ±":10676,"Ð¸ÑħÐ":10677,"ĠÐ¼Ð¾ÐµÐ³Ð¾":10678,"Ð°Ð½ÑĨÐ¸Ñı":10679,"ĠÑģÐ¼Ð¾ÑĤÑĢÐ¸ÑĤ":10680,"ÑĢÐ°Ð±Ð¾ÑĤÐºÐ¸":10681,"ĠÐºÐ¾Ð¼Ð¿Ð¾Ð½ÐµÐ½ÑĤÑĭ":10682,"Ð¿Ð¸Ð¹":10683,"ĠÑĤÐºÐ°Ð½ÑĮ":10684,"ĠzarÃ³wno":10685,"ĠÐºÐ°Ð¼Ð":10686,"ĠÐ¸Ð½ÑģÑĤÑĢÑĥÐ¼ÐµÐ½ÑĤÑĭ":10687,"ĠÐ¾Ð´Ð¾Ð±":10688,"Ġ65":10689,"Ð¾Ð½ÐµÐ½ÑĤ":10690,"¸ÑĩÐµÑģÐºÐ°Ñı":10691,"Ġcharak":10692,"ĠÐ¿ÑĢÐµÐ´ÑģÑĤÐ°Ð²Ð»ÑıÑİÑĤ":10693,"ÐµÑĢÐ¾":10694,"ĠÐľÐĴÐĶ":10695,"Ð¸Ð³Ð°":10696,"ĠÑĨÐµÐ½Ñĥ":10697,"ĠÐ¶Ð¸Ð»Ð¸Ñī":10698,"Ð°ÑĤÐµÐ»ÑĮÐ½Ð¾Ðµ":10699,"ĠÑĥÑĩÐ°ÑģÑĤÐºÐ¾Ð²":10700,"ÑĥÑĪÐºÑĥ":10701,"ĠÑģÐºÑĢÑĭÐ²":10702,"ĠÐ¿ÑĢÐ¾ÑħÐ¾Ð´ÑıÑĤ":10703,"ÑĤÐ°Ð¼Ð¸":10704,"ĠÑĥÐ¿Ð¾ÑĤÑĢÐµÐ±Ð»ÑıÑĤÑĮ":10705,"ÐµÑĢÐ½ÑıÐºÐ°":10706,"ĠÐ½Ð°ÑĩÐ¸Ð½Ð°ÑĤÑĮ":10707,"43":10708,"ĠÐ²Ð¸Ð´ÐµÐ":10709,"ĠÐ´Ð¾ÑģÑĤÑĥÐ¿Ð½Ñĭ":10710,"ĠÐ³Ð»Ð°Ð·Ð°Ð¼Ð¸":10711,"ĠÐ¾ÐºÐ°Ð·Ð°Ð»Ð¾ÑģÑĮ":10712,"ĠÐºÐ°ÑĢÑĤÐ¾Ñĩ":10713,"ĠÐ¶Ð¸ÑĢÐ¾Ð²":10714,"ĠÐ½ÐµÐ´Ð¾ÑģÑĤÐ°ÑĤÐºÐ¸":10715,"ĠÐ¿ÑĢÐ¸ÑģÐ¿Ð¾ÑģÐ¾Ð±":10716,"ĠÐ²Ð¸Ð´Ð¾Ð¼":10717,"ĠÑģÑĭÐ½":10718,"Ġdosko":10719,"ĠÐ¾Ð±ÑĥÐ²":10720,"ÐµÐ°Ð½":10721,"ĠÑĢÐ°Ð·Ð½ÑĭÐ¼Ð¸":10722,"Ġcu":10723,"ĠÐ²Ð¾ÑģÑĤÑĢÐµÐ±Ð¾Ð²":10724,"Ġczyn":10725,"Ð¾Ð½Ð°ÑĢ":10726,"ĠÐ»ÐµÐ´":10727,"ĠÐ·Ð°ÑĤÑĢÐ°ÑĤ":10728,"ĠÐ¼ÐµÑģÑĤÐ½Ð¾Ð³Ð¾":10729,"Ġlicz":10730,"ÑĢÐµÐ¿Ð°":10731,"ĠÐłÐµÐ¹":10732,"ĠÑħÑĢ":10733,"ĠÐ¿Ð¾Ð·Ð¸":10734,"ĠÐĵÐ»Ð°Ð²Ð°":10735,"ĠÑģÐ²Ð¾Ð±Ð¾Ð´Ñĭ":10736,"ĠgÅĤo":10737,"Ð»ÑİÐ±Ð»":10738,"ĠÐ¸Ð½Ð¾ÑģÑĤÑĢÐ°Ð½Ð½ÑĭÑħ":10739,"Ð¾Ð³Ð¾Ñģ":10740,"ĠÑħÑĢÐ°Ð½Ð¸ÑĤÑĮ":10741,"ĠÑįÐ»ÐµÐ¼ÐµÐ½ÑĤ":10742,"Ð¾Ð´ÐµÐ¹ÑģÑĤÐ²Ð¸Ñı":10743,"ĠÐ»Ð°Ñģ":10744,"ĠÐ²ÑģÑĤÑĢÐ¾ÐµÐ½Ð":10745,"ĠÐ¿ÑĢÐ¾Ð»":10746,"ĠÐ½ÐµÐ±Ð":10747,"ĠÑģÐ»ÐµÐ´Ð¸ÑĤÑĮ":10748,"ĠÐ¿ÑĢÐµÐ²Ð¾Ñģ":10749,"ĠÐŀÐ±ÑĬ":10750,"ĠÐ³ÑĢÐ°Ð½Ð¸ÑĨ":10751,"ÐµÐ½Ð¸Ñģ":10752,"Ġkur":10753,"ĠÑģÐ»Ð¾Ð²Ð½Ð¾":10754,"Ð°Ð½Ð°Ñħ":10755,"Ð°Ð¿Ð»Ð¸Ð²":10756,"ĠÐºÑĢÐ°ÑģÐºÐ¸":10757,"ĠÑģÐ¾Ð²ÑĢÐµÐ¼ÐµÐ½Ð½Ð¾Ð¹":10758,"ĠÑģÐ¾ÑģÑĥÐ´Ð¾Ð²":10759,"ÑĤÐµÑĢÐ¸Ð¹":10760,"ĠÐ¸Ð½ÑģÑĤÑĢÑĥÐ¼ÐµÐ½ÑĤÐ¾Ð²":10761,"ĠÑģÐ¿Ð¾ÐºÐ¾Ð¹Ð½Ð¾":10762,"ÑĥÐ±Ð":10763,"ĠÐ²Ð¾ÑģÑģÑĤÐ°Ð½Ð¾Ð²Ð¸ÑĤÑĮ":10764,"ĠÐ¢Ð¾Ð¼":10765,"ÑģÑĤÑĢÑĥ":10766,"ĠÐ¾ÑĨÐµÐ½Ð":10767,"scy":10768,"ĠÑĢÐ°Ð±Ð¾ÑĤÐ½Ð¸ÐºÐ°":10769,"ĠÐķÐ¶":10770,"ĠÐ¿ÑĢÐµÐ´Ð¾ÑģÑĤÐ°Ð²Ð»ÑıÐµÑĤ":10771,"Ð¸ÑģÐµ":10772,"ĠÐ²ÑĭÐ¹ÑĤÐ¸":10773,"nowa":10774,"ĠÑĢÐ°ÑģÑĩÐµÑĤ":10775,"ĠÐºÐ»Ð¸Ð½Ð¸Ð":10776,"ĠÐ±Ð»Ñİ":10777,"ĠÐ³ÐµÑĢÐ¼Ðµ":10778,"ÑĤÑĭÐ¼Ð¸":10779,"ĠÑģÑĤÐ¾ÑıÑĤ":10780,"ĠÐ²ÐµÐ´ÐµÑĤ":10781,"ĠÐºÑĢÐ°ÑģÐ¸Ð²ÑĭÐµ":10782,"ĠÐ´ÑİÐ¹":10783,"ĠCom":10784,"ÐµÐ½ÑĭÑħ":10785,"ĠÐ¿Ð¾Ð´Ð±Ð¸":10786,"ĠÐ¿ÑĢÐ¾ÑĨÐµÐ´ÑĥÑĢ":10787,"omoÅĽci":10788,"ĠÐ½Ð¾Ð²Ð¾Ð¼":10789,"wki":10790,"ĠÑĦÑĢÑĥÐºÑĤÐ¾Ð²":10791,"ĠTwoje":10792,"Ð½Ð¸Ð¶":10793,"ĠÐ¥Ð¾ÑĢÐ¾ÑĪÐ¾":10794,"ĠÐ´ÐµÑĢÐ¶Ð°ÑĤÑĮ":10795,"ĠÐ¿Ð°ÑĢÐ»Ð°Ð¼":10796,"ES":10797,"ĠÐ¿Ð°ÑģÐ¿Ð¾ÑĢÑĤ":10798,"ÑĤÐ¾Ð²Ð°Ð»":10799,"ĠÐ±Ð»Ð¾ÐºÐ¸ÑĢÐ¾Ð²":10800,"ĠÑģÐ¿Ð°ÑģÐ¸Ð±Ð¾":10801,"Ð¾ÑĢÐ¾Ð¶Ð´":10802,"ĠÑĦÑĥÐ½Ð´Ð°Ð¼":10803,"ĠÐ¿ÑĢÐ¾Ð½Ð¸Ð":10804,"ĠÐºÐ½Ð¸Ð³Ð°":10805,"³Ð¾ÑĢÐ¸":10806,"ÐµÐ»ÐµÑĨ":10807,"2019":10808,"ĠÐ¿Ñģ":10809,"ĠÐºÐ¸ÑģÐ»Ð¾ÑĢ":10810,"ĠÐ·Ð°ÑĩÐµÐ¼":10811,"ĠpiÄĻk":10812,"Ð¸Ð½ÑĮ":10813,"ĠÐŁÐ¾Ð´Ð³Ð¾ÑĤÐ¾Ð²":10814,"ĠÐ¿Ð¾Ð¶Ð¸Ð»":10815,"Ġ01":10816,"ĠÐ°Ð»ÑİÐ¼Ð¸Ð½Ð":10817,"ĠÐĲÐ½ÑĤ":10818,"ÑģÑĤÐ²ÐµÐ½Ð½Ð°Ñı":10819,"ĠÐ½Ð°Ð¿Ð°Ð´":10820,"ĠÐŁÑĢÐµÐ´Ð¿":10821,"naj":10822,"Ġfinans":10823,"ĠÐĵÐļ":10824,"ĠÐ¿Ð¾ÑıÐ²Ð¸Ð»ÑģÑı":10825,"ĠÐĿÐ°Ð¼":10826,"Ð»Ð¾Ð½":10827,"ÐµÐ³Ð°ÑĤÑĮ":10828,"ĠÐ¸Ð´ÑĥÑĤ":10829,"Ġelemen":10830,"ĠÑĢÐµÐ²Ð¾Ð»ÑİÑ":10831,"Ġdoskona":10832,"ĠswojÄħ":10833,"Ġspa":10834,"ĠÐ¾ÑģÑĤÐ°Ð½Ð":10835,"ĠÐ¸Ð½ÑĤÐµÑĢÐ²ÑĮÑİ":10836,"ĠÐ¼Ð¸ÑĢÐ¾Ð²Ð¾Ð¹":10837,"ĠÐ¿ÑĢÐ¾ÑıÐ²Ð»ÐµÐ½Ð¸Ñı":10838,"ÑĤÐ¸Ð½Ð¾Ð¹":10839,"ÑĳÑģ":10840,"ĠÐ°ÑĢÐ¾Ð¼Ð°ÑĤ":10841,"ĠÐ´ÐµÑĦÐµÐº":10842,"ĠÑģÐ¾ÑĩÐ":10843,"ĠÐ¾ÐºÐ½Ð¾":10844,"ĠÐ¿ÑĢÐµÐ²ÑĢÐ°":10845,"ĠÐ¾Ð¿ÐµÑĢÐ°ÑĨÐ¸Ð¹":10846,"onÄħ":10847,"ĠÐ½Ð¾ÑĢÐ¼Ð°Ð»ÑĮÐ½Ð¾":10848,"Ð¾ÑĢÑĥÐ¶":10849,"ĠÐ·Ð´ÑĢÐ°Ð²Ð¾Ð¾Ñħ":10850,"ĠÐ±Ð¸ÑĢÐ":10851,"ĠÐ½Ð¾ÑģÐ¸ÑĤÑĮ":10852,"ĠÑģÐ¼Ð¾ÑĤÑĢ":10853,"ĠÐ³ÑĥÐ±ÐµÑĢÐ½Ð°":10854,":.":10855,"ĠÐ¿Ð¾Ð½Ð¸Ð¶":10856,"Ð¿ÑĢÐ¾Ð´":10857,"Ð¸ÑĤÑĢÐ°Ð¶":10858,"Ġsza":10859,"ĠÑįÑģÑĤÐµ":10860,"ĠÐ·ÐµÐ¼Ð»Ðµ":10861,"ĠÐľÐŀ":10862,"gan":10863,"Ġwith":10864,"ĠÐ®Ð¶":10865,"ĠÐ³Ð¾ÑĢÑĪ":10866,"ĠÐºÐ¾Ð¼Ð¿ÑĮÑİÑĤÐµÑĢÐ°":10867,"ĠÑģÐ¾Ð²ÑĢÐµÐ¼ÐµÐ½Ð½ÑĭÐµ":10868,"ÑĢÐ½Ð¾Ðµ":10869,"mio":10870,"ĠÐ´ÑĥÑĪÐ¸":10871,"Ð»Ð¸ÑĤ":10872,"ĠÐ¿ÑĢÐ¸Ð±ÑĭÐ»Ð¸":10873,"ĠÑĥÑĩÑĢÐµÐ¶Ð´ÐµÐ½Ð¸Ñı":10874,"Ġkro":10875,"ĠÐĲÐ³":10876,"ĠÐ¸Ð·Ð¼ÐµÐ»ÑĮÑĩ":10877,"ĠÐ°Ð½Ð°Ð»Ð¸":10878,"ĠÑĤÑı":10879,":||":10880,"Ð½Ð¸Ñİ":10881,"ÐĲÐ¡":10882,"ĠÐ¡ÑĤÐ°ÑĢ":10883,"ĠÐ°Ð»ÐºÐ¾Ð³Ð¾Ð»":10884,"ĠÐ±ÑĥÐ´ÑĥÑīÐµÐ³Ð¾":10885,"ĠÐ¾ÑīÑĥÑīÐµÐ½Ð¸Ðµ":10886,"ĠÐ½Ð°ÑĥÐº":10887,"ĠÐ¾Ð³Ð¾":10888,"ĠÐŁÑĢÐ¸ÑĩÐ¸Ð½Ñĭ":10889,"ĠÐ·Ð°Ð»Ð¾Ð¶":10890,"Ġilo":10891,"Ġrynku":10892,"ĠÐ½Ð°ÑģÑĤÑĢÐ¾ÐµÐ½Ð¸Ðµ":10893,"ket":10894,"AL":10895,"ĠÐ¼Ð¾ÑģÐºÐ¾Ð²":10896,"ĠÑģÐ°Ð¼Ð¾Ð¼Ñĥ":10897,"ĠÐ¸Ð·Ð¼ÐµÐ½Ð¸Ð»":10898,"Ð°Ð²ÑĪÐ¸ÑģÑĮ":10899,"ĠÑģÐ°Ð¶":10900,"ĠÐ¿ÑĢÐ¸Ð½Ð¸Ð¼Ð°ÐµÑĤ":10901,"ĠÐºÐ°Ð¶Ð´Ð°Ñı":10902,"ĠÐ½ÐµÑĢÐ":10903,"ĠÐ²Ð°Ð»ÑİÑĤ":10904,"ĠÑģÐ¼ÐµÑģ":10905,"ĠÐ¿Ð°ÐºÐµÑĤ":10906,"ĠÐ¾Ð²Ð¾ÑīÐ¸":10907,"ÑĢÐ°Ð²Ð»ÐµÐ½Ð¸Ñı":10908,"kom":10909,"ĠÐ³Ð¾ÑģÑĤÐ¸":10910,"ĠCe":10911,"ĠÑģÐµÐ²":10912,"ÐµÐ½Ð´Ð°ÑĢÐ":10913,"ĠÐ·Ð°ÑıÐ²ÐºÑĥ":10914,"ĠÑģÐ¾Ð²Ð¼ÐµÑģÑĤÐ½Ð¾":10915,"ĠÐ²Ð°Ð¶Ð½ÑĭÑħ":10916,"Ð²Ð°ÑĤÑĮ":10917,"Ð¼ÑĭÑģÐ»":10918,"ĠÐ²ÐµÑĢÐ¾ÑıÑĤÐ½Ð¾":10919,"ÐµÑĢÐ½Ð°Ñı":10920,"ĠÐ¾Ð³ÑĢÐ°Ð½Ð¸ÑĩÐµÐ½Ð¸Ñı":10921,"ĠÑģÐ¾Ð¾ÑĤÐ½Ð¾ÑĪ":10922,"ĠÐ½Ð°Ð¼ÐµÑĢ":10923,"ĠÑĢÐµÐ°Ð»ÑĮÐ½ÑĭÐµ":10924,"Ð´Ð»Ñı":10925,"ĠÐ¾ÑĤÑģÑĤ":10926,"ĠÐ¼Ð¾Ð»Ð¾ÐºÐ¾":10927,"ĠÐ¡Ðŀ":10928,"Ð°ÑĢÐºÐ¸":10929,"Ġzapa":10930,"ĠÐ¸ÑģÐºÐ»ÑİÑĩÐµÐ½Ð¸ÐµÐ¼":10931,"ĠÐ¸Ð½ÑĤÐµÐ³":10932,"ĠÑĦÐ¾ÑĢÐ¼Ð°ÑĤÐµ":10933,"Ð²ÑĤÐ¾ÑĢÑĭÑħ":10934,"ĠÐ³Ð¾Ð²Ð¾ÑĢÐ¸Ð»":10935,"ĠÐ¿ÑĢÐµÐ´Ð¿Ð¾Ð»Ð¾Ð¶":10936,"ĠÐ¾Ð¿ÑĢÐ°Ð²Ð´":10937,"IS":10938,"ĠÐ¾Ð±ÑīÐ¸Ð¹":10939,"ĠÑĥÐ±ÐµÐ¶Ð´":10940,"ĠCO":10941,"ĠÐ²ÑģÐ»ÐµÐ´ÑģÑĤÐ²Ð¸Ðµ":10942,"ĠÑģÐ°Ð½ÑĤÐ¸Ð¼":10943,"Ð°ÑĢÐ¸ÑĤÑĮ":10944,"ĠÐ¿ÐµÑĢÐ²Ð°Ñı":10945,"ĠtÅĤu":10946,"Ð¼Ð¾ÑĢ":10947,"ĠÐ¦ÐµÐ»ÑĮ":10948,"ĠMicro":10949,"ĠÐ¿Ð¾Ð´Ðº":10950,"ĠÐ¿Ð°ÑĢÐµÐ½ÑĮ":10951,"ĠÐ¾ÑģÑĤÐ°ÑİÑĤÑģÑı":10952,"ÐµÐ½ÑĨÐ¸Ñı":10953,"ĠÐŀÐ¼":10954,"ĠÐ½Ð°Ð¿ÑĢÑıÐ¶ÐµÐ½Ð¸Ñı":10955,"Ð¾Ð²Ð½Ð¾Ðµ":10956,"Ð°Ð½ÑģÐºÐ¸Ð¹":10957,"ĠÑģÐ¿ÑĢÐ°Ð²Ð¸ÑĤÑĮÑģÑı":10958,"¾ÑĢÐ³Ð°Ð½Ð¸Ð·":10959,"ĠIP":10960,"ĠÑģÑįÐºÐ¾Ð½Ð¾Ð¼":10961,"ĠÐ£Ðļ":10962,"ĠÑĨÐµÑĢÐºÐ¾Ð²":10963,"wyÅ¼":10964,"¾Ñį":10965,"ĤÐµÐ½":10966,"ĠÑĨÐµÐ¼":10967,"ĠÑģÐ¾Ð·Ð´Ð°ÐµÑĤ":10968,"ĠÑĤÐ¾ÑĢÐ³Ð¾Ð²Ð»Ð¸":10969,"ĠÑģÐ¿Ð¾ÑģÐ¾Ð±Ð½Ð¾ÑģÑĤÐ¸":10970,"ĠÑĢÐ°Ð²Ð½Ð¾Ð¼":10971,"Ġmniej":10972,"ĠÑĢÐµÐ·ÑĥÐ»ÑĮÑĤÐ°ÑĤÐ°":10973,"ĠÐ±ÑĢÐ°Ðº":10974,"Ġwzro":10975,"ĠTak":10976,"ĠmoÅ¼emy":10977,"ÑĢÐ°Ð»ÑģÑı":10978,"Ð°ÑĤÐµÐ»ÑĮÐ½Ð°Ñı":10979,"pp":10980,"Ġdwa":10981,"Ġwyp":10982,"ÑĤÐµÐ½":10983,"ÑģÐ¸ÑĢ":10984,"ĠÐ¾ÑģÐ¾Ð±ÐµÐ½Ð½Ð¾ÑģÑĤÐµÐ¹":10985,"ĠÐ³Ð¾Ð»Ð¾Ð²Ðµ":10986,"ĠÐºÑĥÐº":10987,"ĠÐ¾ÑĤÐ»Ð¸ÑĩÐ½ÑĭÐ¹":10988,"ĠÐ¿ÑĢÐµÑģÑĤÑĥÐ¿Ð»ÐµÐ½Ð¸Ñı":10989,"Ġeksp":10990,"ĠÐ²Ð°Ð»Ñİ":10991,"88":10992,"Ġwprowa":10993,"ĠÐ¿Ð°ÑĢÐ°Ð¼ÐµÑĤÑĢÑĭ":10994,"Ð¾Ð½ÑĤÐ°Ð¶":10995,"ÑģÐ¸Ð´":10996,"Ð¾Ð»Ð¾Ð¼":10997,"ĠÐ¿Ð¾Ð´Ð²ÐµÑģ":10998,"Ġtro":10999,"nami":11000,"ĠÐ¿ÑĢÐ¾Ð´Ð¾Ð»Ð¶Ð°ÐµÑĤ":11001,"ĠÐĺÐ²Ð°Ð½":11002,"ĠÐ±Ð¾Ð»ÑĮÐ½ÑĭÑħ":11003,"ĠÐŀÐ´Ð½Ð¸Ð¼":11004,"ĠInsta":11005,"ÐµÑĢÐ¿":11006,"Ġdie":11007,"ĠÐºÐ¾Ð½ÐµÑĨ":11008,"ĠÐ¼Ð¾Ð»Ð¾ÐºÐ°":11009,"ĠÐ¾ÑģÐ»Ð°Ð±":11010,"Ġnaszych":11011,"Ð¼Ð°Ñħ":11012,"ĠÐĶÐ¢ÐŁ":11013,"ĠÐļÐ»":11014,"ĠÐºÐ¾ÑĢÐ¾Ð½Ð°Ð²Ð¸ÑĢÑĥ":11015,"ĠÐºÐ¾Ð¼Ð¿Ð»ÐµÐºÑģÐ°":11016,"ĠÐŁÐ¾ÐºÑĥÐ¿":11017,"ĠOr":11018,"ĠÑģÐ¿ÐµÑĨÐ¸Ð°Ð»ÑĮÐ½Ð¾Ð¹":11019,"½ÑĥÐ»Ð°ÑģÑĮ":11020,"ĠÐľÐ¸ÑħÐ°Ð¸Ð»":11021,"ĠÐĴÐµÑĢ":11022,"Ð¸ÑĤÐµÐ»ÑĮÐ½ÑĭÐ¼Ð¸":11023,"name":11024,"Ġklu":11025,"ÐµÐ²Ðµ":11026,"Ġbud":11027,"Ð¾ÑĢÐ¾Ð´":11028,"ĠÐ²ÑĢÐ°ÑĩÐ¸":11029,"ĠÑĤÐ°Ð±Ð»ÐµÑĤÐºÐ¸":11030,"Ġl":11031,"ÐŁÐ¾Ð´":11032,"ĠÐ»Ð°Ð¿":11033,"ĠÐłÐ°Ð´":11034,"ÐµÐ¼Ð¾":11035,"ĠÑĢÑĥÐºÐ¾Ð²Ð¾Ð´ÑģÑĤÐ²Ð¾":11036,"mini":11037,"ĠÐĿÐ°Ð±":11038,"ĠÑĦÐ°ÐºÑĤÐ¾ÑĢÑĭ":11039,"ĠÐ¼ÐµÑĤÑĢÐ¾":11040,"ÐµÐ¼ÐµÑģÑıÑĩ":11041,"ĠÐ¶ÐµÐ»ÐµÐ·Ð":11042,"ĠÐ³ÑĢÑĥÐ´Ð":11043,"ĠÐ¡Ð°Ð¼Ð":11044,"ĠÐ¿Ð¾Ð´Ð±":11045,"ĠÐ²ÑĭÐ¿Ð»Ð°Ñĩ":11046,"ĠPolski":11047,"Ð»Ð¾Ð¶ÐµÐ½Ð¸Ñı":11048,"ĠÑĢÐ°ÑģÑĤÐµÑĤ":11049,"Ð°Ð´ÐºÐ°":11050,"ĠÑĢÐ°ÑģÑĨ":11051,"ĠktÃ³rego":11052,"?Â»":11053,"Ð·Ð°Ðº":11054,"ĠÐ¿ÑĢÐ¸Ð²ÑıÐ·":11055,"ĠÐ½ÐµÐ¿Ð¾Ð´":11056,"ĠÑĢÐ°Ð·Ð²ÐµÐ´":11057,"ĠÑĢÐ°Ð·Ð²Ð¸ÑĤÐ¸Ð¸":11058,"ÑĳÑħ":11059,"ĠÐºÐ°Ð±Ð¸Ð½ÐµÑĤ":11060,"ĠÐºÑĢÐ°ÑģÐ¾ÑĤÑĭ":11061,"Ð°ÑĢÐºÐµ":11062,"ÐºÐ¸Ð½Ð°":11063,"ĠÐ½ÐµÐ¹Ñ":11064,"ĠÐ½ÐµÐ¹ÑĤ":11065,"ĠÐ·Ð°ÑĪ":11066,"ĠÐŁÐļ":11067,"ĠÐ´Ð²Ð°Ð´":11068,"Ð¾Ñı":11069,"ĠÑģÐ¾Ð±ÑģÑĤÐ²ÐµÐ½Ð½Ð¾Ð³Ð¾":11070,"gii":11071,"ĠÐ¾ÑĤÐ²ÐµÑĩÐ°ÐµÑĤ":11072,"gÅĤo":11073,"ĠÐºÑĥÑħÐ½Ðµ":11074,"Ð¾Ð´ÑģÑĤÐ²Ð¾":11075,"ĠÐ¿ÑĢÐ¾Ð¹Ð´ÐµÑĤ":11076,"Ð°Ð½Ð¸ÑıÐ¼Ð¸":11077,"ÐµÑĢÐ¾Ñģ":11078,"ÑĢÐ°Ð»ÑĮÐ½Ð°Ñı":11079,"Ð°Ð²ÑĪÐ¸Ðµ":11080,"ĠÑģÑĤÐµÐ½Ðµ":11081,"ĠÐºÐ°Ð¼Ð½Ñı":11082,"ĠGo":11083,"dnia":11084,"ĠCie":11085,"ĠÑĥÐ»ÑĥÑĩÑĪÐ¸ÑĤÑĮ":11086,"ĠÑĪÐ¾Ñĥ":11087,"ĠÐ¼ÐµÑĤÐ°Ð»Ð»Ð°":11088,"ĠÑĥÐºÐ°Ð·Ð°ÑĤÑĮ":11089,"ĠUni":11090,"ĠÑģÐ¾ÑģÑĤÐ°Ð²Ð¸ÑĤ":11091,"ĠÐļÐŀ":11092,"ĠÐ·Ð°Ð¿Ð¾Ð¼":11093,"Ð¾Ð±Ð°":11094,"ĠÐĿÐ°ÑĨÐ¸Ð¾Ð½Ð°Ð»ÑĮ":11095,"ĠÐ²Ð¾Ð·Ð±ÑĥÐ´":11096,"ĠÐ¼Ð¾ÑĢÐ¾Ð·":11097,"ĠPar":11098,"ĠÑĩÐµÐ¼Ð¿Ð¸Ð¾Ð½Ð°":11099,"ÑıÐµÐ¼":11100,"ĠÐ¿Ð¾ÐºÐ¾Ð»ÐµÐ½Ð¸Ñı":11101,"ĠÑĢÐ°Ð·ÑĢÐµÑĪÐµÐ½Ð¸Ñı":11102,"ĠÐ·Ð°ÑīÐ¸ÑĤÑĥ":11103,"ĠÐ¿ÑĢÐµÑĤÐµÐ½Ð·":11104,"ÑĢÑĭÐ·":11105,"½ÑĥÐ»Ð¸":11106,"ĠÐ¿Ð¾ÑģÐ»ÐµÐ´Ð¾Ð²Ð°ÑĤÐµÐ»ÑĮ":11107,"rzenie":11108,"ĠÑĢÐ°ÑģÑĩÐµÑĤÐ°":11109,"Ð¸ÑĦÑĦ":11110,"Ð·Ð¸":11111,"ÐĿÐµ":11112,"ĠÑĥÐ´Ð°":11113,"Ð¾Ð½Ð½Ð°Ñı":11114,"Ġ33":11115,"ĠÑģÑĤÐ°Ð½ÑĨÐ¸Ð¸":11116,"ÐµÑģÑģÐ¸":11117,"ĠÑĢÐ¾ÑģÐºÐ¾ÑĪ":11118,"ĠÐ¸ÑģÐ¿Ð¾Ð»ÑĮÐ·ÑĥÐ¹ÑĤÐµ":11119,"ĠÑĪÐ¸ÑĢÐ¾ÐºÐ¸Ð¹":11120,"66":11121,"ĠÐ²ÑĭÐ´ÐµÐ»Ð¸ÑĤÑĮ":11122,"Ġkam":11123,"czeniu":11124,"owymi":11125,"ĠÐ¼ÑĭÑĪÐµÑĩ":11126,"bia":11127,"ĠÐ¾ÑģÐ½Ð¾Ð²Ð½ÑĭÐ¼":11128,"wor":11129,"kol":11130,"ĠÐ¿Ð¾ÑģÐ»":11131,"ĠÐĺÑģÐ¿Ð¾Ð»ÑĮÐ·Ð¾Ð²Ð°Ð½Ð¸Ðµ":11132,"ĠÐºÐ¾Ð»ÐµÐ±":11133,"ĠÐ´ÐµÐ¹ÑģÑĤÐ²Ð¾Ð²Ð°ÑĤÑĮ":11134,"ĠÐ²ÑĭÐ½Ð¾Ñģ":11135,"ĠÐ±Ð»ÐµÑģ":11136,"ĠÐ´Ð¸ÑģÑĨÐ¸Ð¿":11137,"ĠÐ¿Ð¾Ð´Ð´ÐµÑĢÐ¶Ð¸Ð²Ð°ÑĤÑĮ":11138,"Ġtrwa":11139,"ĠÐ¡ÐĿ":11140,"Ð½Ð¸Ð»Ð¾ÑģÑĮ":11141,"Ð¼Ð¸ÑĢÐ¾Ð²":11142,"ĠÐ²Ð¾Ð»Ð¾Ðº":11143,"ĠÐ¿Ð¾ÑĤÑĢÑıÑģ":11144,"ĠÑĥÐ²ÐµÐ»Ð¸ÑĩÐ¸Ð²Ð°ÐµÑĤÑģÑı":11145,"ĠÐ³Ð»Ð°Ð²Ð½ÑĭÑħ":11146,"ĠÐļÐ¾Ð»Ð¸ÑĩÐµÑģÑĤÐ²Ð¾":11147,"czeÅĽniej":11148,"ĠÐ¾ÑĢÐ³Ð°Ð½Ð°":11149,"Ð½Ð¸ÑĤÑģÑı":11150,"ĠÐ²Ð¸Ð´ÐµÐ»":11151,"ĠÑģÐ¿ÐµÑĨÐ¸Ð°Ð»ÑĮÐ½ÑĭÐ¹":11152,"ĠÐ¸Ð¼ÑĥÑīÐµÑģÑĤÐ²":11153,"ĠÑĥÐ³Ð»ÐµÐ²":11154,"moÅ¼li":11155,"ĠÐ±ÐµÐ¶":11156,"ciÄĻ":11157,"ÑįÐ":11158,"ĠÐ²Ð»Ð°Ð³Ð¸":11159,"ĠÑĦÐ¸Ð½Ð°Ð½ÑģÐ¾Ð²ÑĭÑħ":11160,"ĠÐ³Ð¸Ð¼":11161,"ĠÑħÑĥÐ¶Ðµ":11162,"ÅĤÃ³":11163,"ower":11164,"ÑĢÐ°Ð·Ð²":11165,"Ð¸ÑĩÐ½ÑĭÐµ":11166,"ĠÐ½Ð°ÑģÐ¾Ñģ":11167,"ĠÐĳÐ°ÑĢ":11168,"ÑģÑĤÑĢÐµÑĩ":11169,"ĠÐ²ÐµÑģÐµÐ»":11170,"Ð¸Ð½ÑģÐºÐ¾Ð¹":11171,"ĠÐ½ÐµÐ±Ð¾Ð»ÑĮÑĪÐ¸Ñħ":11172,"ĠÐ¿Ð¾ÐºÑĥÐ¿Ð°ÑĤÐµÐ»ÐµÐ¹":11173,"Ð´Ð¾ÑĢÐ¾Ð²":11174,"ĠÐ¶Ð¸Ð²Ð¾ÑĤÐ°":11175,"ĠÐ´Ð¾Ð³Ð¾Ð²Ð¾":11176,"ĠÐºÑĢÐµÐ¿Ð»ÐµÐ½Ð¸Ñı":11177,"ĠÑĢÐ°ÑģÑģÐ¼Ð¾ÑĤÑĢÐ¸Ð¼":11178,"ĠÐ²ÑĭÐ½ÐµÑģ":11179,"ĠÐ³Ð¸Ð¿ÐµÑĢÑĤ":11180,"ĠÐ¸Ð´ÐµÑı":11181,"ĠÑģÐ¼Ð¾Ð³Ð»Ð¸":11182,"alne":11183,"Ð½Ð°Ð¶Ð´Ñĭ":11184,"Ð¸ÑģÐº":11185,"ÑĢÐ¾ÑĢÐ":11186,"leÅ¼":11187,"ĠmiaÅĤ":11188,"ĠÐ¼Ð¾ÑīÐ½Ð¾ÑģÑĤÑĮ":11189,"Ġinformacji":11190,"ĠÑĦÐ¾ÑĢÑĥÐ¼":11191,"ĠHa":11192,"ĠÐ´Ð°ÑģÑĤ":11193,"Ð¾ÑĢÐ¾ÑĤÑĮÑģÑı":11194,"ĠÐ´Ð¾Ð»ÑĮÑĪÐµ":11195,"ĠÐ°ÐºÑĤÐ¸Ð²Ð½Ð¾ÑģÑĤÐ¸":11196,"ĠÐ¸Ð·Ð²ÐµÑģÑĤÐ½ÑĭÑħ":11197,"kon":11198,"ĠÐ¿Ð°ÑĢÐ°Ð·":11199,"Ġzawiera":11200,"ĠÑģÑĤÐµÐºÐ»Ð°":11201,"ĠÐĺÐŁ":11202,"ĠÑĢÐ°Ð·ÑĢÑĭÐ²":11203,"ÑĤÐ¸ÑĩÐµÑģÐºÐ¾Ð¼":11204,"ĠÐ¿Ð¾Ð»ÐµÐ·Ð½ÑĭÑħ":11205,"ĠÐ±Ð¾Ð»ÑĮÐ½Ð¾Ð³Ð¾":11206,"ĠÑĪÐ»Ñİ":11207,"ÑĤÐ¸Ð¼Ð¸":11208,"ÑĤÐ¾ÑĪ":11209,"ĠjÄĻ":11210,"kowe":11211,"ĠÐ¼Ð¾Ð¼ÐµÐ½ÑĤÑĭ":11212,"ĠÐ¶Ð¸ÑĢ":11213,"ĠÐ³Ð¾ÑĢÐ¾Ð´Ð¾Ð²":11214,"ĠÐ¿ÑĢÐ¸Ð¼ÐµÐ½ÑıÑİÑĤÑģÑı":11215,"ger":11216,"ĠÐ¥Ð¾Ð»":11217,"ĠÐ¿ÑĢÐµÐ²ÑĭÑĪÐ°ÐµÑĤ":11218,"ĠÑĩÐµÑĢÐ½ÑĭÐ¹":11219,"king":11220,"ĠÑĢÐ¸":11221,"ĠÐ¿Ð¾Ð²Ð»Ð¸Ñı":11222,"ĠÐ±Ð¾ÑĢÑĮÐ±Ðµ":11223,"ĠÐ¥Ð°ÑĢÐ°Ðº":11224,"ĠÑĦÑĥÑĤÐ±":11225,"ĠÐ¼Ð¸Ð»Ð»Ð¸Ð":11226,"ĠÐºÐ»ÑĥÐ±Ð°":11227,"Ġnatural":11228,"ĠÑĦÐ¾ÑĢ":11229,"ĠÐºÐ°Ð¼ÐµÑĢÑĭ":11230,"ĠÐ²Ð´Ð¾Ð»ÑĮ":11231,"dio":11232,"°ÑģÑĤÑĭ":11233,"Ð»Ð¾ÑĢÐ":11234,"ĠÐ²ÑĭÑģÐ¾ÐºÐ¸Ðµ":11235,"ĠÑĩÐ¸Ð½Ð¾Ð²":11236,"ĠÑģÐ²ÑıÐ·Ð°Ð½Ñĭ":11237,"ĠÐ¿Ð¾Ð´Ð¾Ð·ÑĢÐµÐ²":11238,"ĠÑĥÑģÐ¸Ð»Ð¸Ñı":11239,"Ð¸ÐµÐ¼":11240,"Ð¾ÑģÑĤÐ¾Ð¹":11241,"Ġcieka":11242,"ĠÑĪÑĤÑĥÐºÐ°ÑĤÑĥÑĢ":11243,"ĠÐ¿ÑĢÐ¸Ð¼ÐµÐ½ÐµÐ½Ð¸Ñİ":11244,"Ð¿Ð¾ÑĢ":11245,"ÐºÐ¾Ð²Ð¾Ð³Ð¾":11246,"ĠÐ½Ð¸Ð¶Ð½ÐµÐ¹":11247,"ĠÐ¾ÑĤÐºÑĢÑĭÑĤÐ¸Ñı":11248,"ĠÐºÐ°Ð¼Ð¿":11249,"ÑıÑīÐ¸Ð¼":11250,"ĠÐºÐ¾Ð¼Ð¿Ð°Ð½Ð¸ÐµÐ¹":11251,"ĠÐ¼Ð°ÑĪÐ¸Ð½Ðµ":11252,"szÄĻ":11253,"ĠÐ²ÑĭÑħÐ¾Ð´Ð¸ÑĤ":11254,"ĠÐ¿Ð¾Ð´ÑĢÐ°Ð·ÑĥÐ¼ÐµÐ²":11255,"ĠÐ¿ÑĢÐ¾ÑĦÐ¸Ð»Ð°ÐºÑĤÐ¸ÐºÐ¸":11256,"ĠÐ´Ð¸ÑģÐºÐ¾Ð¼ÑĦ":11257,"ĠÐ¿ÑĢÐ°Ð²Ð¾Ð¼":11258,"Ġnaz":11259,"Ġdosta":11260,"ĠÑĦÐ¾ÑĢÐ¼Ð¸ÑĢÐ¾Ð²":11261,"Ġspecjal":11262,"ĠÑģÑĨÐµÐ½Ð":11263,"ĠÐĴÐ¼ÐµÑģÑĤÐµ":11264,"ĠÐ§Ð¸ÑĤÐ°Ð¹ÑĤÐµ":11265,"ĠÐºÐ¾Ð½ÑĤÑĥ":11266,"ĠÐºÐ¾Ð½Ð´Ð¸ÑĨÐ¸Ð¾Ð½Ð":11267,"czeÅĦ":11268,"ĠÐĳÑĭÑģÑĤ":11269,"ĠÐºÑĥÑĢÐ¾ÑĢ":11270,"ĠÐ²Ð¾Ð²ÑĢÐµÐ¼Ñı":11271,"ĠÐ°ÑĢÐ¼Ð¸Ð¸":11272,"ÑĢÐ¾Ð¹ÑĤÐµ":11273,"Ð¾ÑģÐ½Ð°Ð±Ð¶":11274,"ĠÑģÑĤÑĢÐµÑģ":11275,"ĠÐ¾ÑĢÐ³Ð°Ð½":11276,"ĠÑĢÑĥÑģÑģÐºÐ¸Ð¹":11277,"ĠÐ¢ÑĢÐµÐ±":11278,"ĠÑĥÐ³Ð»":11279,"ĠÑĥÐ²ÐµÐ»Ð¸ÑĩÐµÐ½Ð¸Ñı":11280,"Ġnapraw":11281,"ĠÐ½Ð°ÑĩÐ¸Ñģ":11282,"ĠÐ¿ÑĢÐµÐ´Ð¼ÐµÑĤÐ¾Ð²":11283,"ĠÐ¼Ð°ÑĤÐµÐ¼Ð°":11284,"ĠÐºÐ¾Ð¼Ð¿Ð°Ð½Ð¸Ñİ":11285,"ĠDi":11286,"ĠÐ¿ÑĢÐ¾Ð½Ð¸Ðº":11287,"Ġ600":11288,"ĠÐ»ÑİÐ±Ð»Ñİ":11289,"Ð¸Ð½Ðº":11290,"½Ð³ÑĢÐ°Ð´":11291,"Ġgro":11292,"ĠsÅĤo":11293,"ĠÐ¾ÑĢÑĥÐ¶":11294,"Ð°ÑĤÐ¾Ð¹":11295,"ĠÑįÐ":11296,"ĠÐ½ÐµÐ¼ÐµÐ´":11297,"ÑĢÐµÐ¶Ð½ÐµÐ¼Ñĥ":11298,"ĠÐ¿ÑĢÐ¸ÑĢÐ¾Ð´Ðµ":11299,"ĠÐ´ÑĢÑĥÐ·ÑĮÑıÐ¼Ð¸":11300,"ĠÑĨÐµÐ»ÑĭÐ¹":11301,"ĠÐ½Ð¸ÐºÐ°ÐºÐ¾Ð³Ð¾":11302,"Ð½ÐµÑĢÐ³":11303,"Ð°Ð½Ð½Ð¾ÑģÑĤÐ¸":11304,"ÐµÑĩÐºÐ¸":11305,"piÄĩ":11306,"Ð»ÑıÐ»":11307,"ĠÐŁÑĢÐ¸Ðº":11308,"ĠÐ»Ð¾ÑĪ":11309,"ĠÐ¿ÑĢÐ¸Ð½ÑıÑĤÐ¸Ñı":11310,"ĠÐ¾ÐºÑĢÑĥÐ¶Ð°ÑİÑīÐµÐ¹":11311,"ĠÐºÑĢÐ°ÑģÐ¸Ð²Ð¾":11312,"ĠÐŁÑĢÐ¾ÑĤÐ¸Ð²":11313,"ĠÐ¸Ð¼ÐµÑİÑīÐ¸Ñħ":11314,"ĠÐ¼Ð°ÑģÑģÐ°":11315,"ĠÑģÐ¿Ñĥ":11316,"ĠÐ²Ð¾ÑģÑģÑĤÐ°Ð½Ð°Ð²Ð»Ð¸Ð²":11317,"ĠÐĵÐ°Ð»":11318,"ĠÑįÑĦÑĦÐµÐºÑĤÐ°":11319,"ase":11320,"Ġskle":11321,"ĠÐ¼Ð¸ÐºÑĢÐ¾ÑĦ":11322,"ĠÐŃÑĦÑĦÐµÐº":11323,"soft":11324,"Ġorganiz":11325,"ĠÐľÐ¾Ð»Ð¾Ð´":11326,"Ġalbo":11327,"ĠÐŁÐ»Ñİ":11328,"±Ð¸Ð»Ð¸":11329,"ĠÐ¾ÑĤÑĨÐ°":11330,"ĠÐĲÐ»ÐµÐºÑģÐ°Ð½Ð´ÑĢÐ°":11331,"ĠÐ½Ð°Ð¿ÑĢÐ°Ð²Ð»ÐµÐ½Ð¸Ðµ":11332,"ĠÑĤÐ¾ÐºÐ°":11333,"ĠÐ¿Ð¸ÑģÐ°ÑĤÑĮ":11334,"ĠÐĴÐ½ÑĥÑĤ":11335,"Ð°Ð½Ð¸ÑĤÐ°":11336,"ĠÐ³ÑĢÑĥÐ¿Ð¿Ñĥ":11337,"ĠÑĢÐµÐ°Ð»ÑĮÐ½Ð¾":11338,"ÑĤÐ³":11339,"ÐµÑħÐ°ÑĤÑĮ":11340,"ĠÐ½Ð°ÑĢÐµÐ·":11341,"Ġfunkcj":11342,"ĠÐ¼ÐµÐ´Ð¸ÑĨÐ¸Ð½ÑģÐºÐ¾Ð¹":11343,"ĠÐ¿Ð¾Ð»Ð½Ð¾Ðµ":11344,"Ġ48":11345,"ĠÐ±ÑİÐ´Ð¶ÐµÑĤ":11346,"ĠÐ¦Ð²ÐµÑĤ":11347,"ĠÑĤÐ¸Ð¿Ð¾Ð²":11348,"ĠÐ¸ÑģÑĤÐ¾ÑĩÐ½Ð¸ÐºÐ¾Ð²":11349,"ĠÐ³Ð¾ÑĢÐ¾Ð´ÑģÐºÐ¾Ð¹":11350,"ĠÐ½Ð¾Ð²Ð¾ÑĢÐ¾Ð¶Ð´":11351,"ĠÑħÐ¾ÑĢÐ¾ÑĪÐ¸Ðµ":11352,"ÑĢÐ°Ð¹ÑĤÐµÑģÑĮ":11353,"waran":11354,"ÅĤowa":11355,"ĠÐ°ÐºÑĤÐ¸Ð²Ð½Ð¾ÑģÑĤÑĮ":11356,"ĠÐ±ÐµÑĢÐ":11357,"ĠpoÅ¼y":11358,"ĠÑħÑĢÐ¸ÑģÑĤÐ¸":11359,"OW":11360,"Ð¾ÑģÑĥÐ´":11361,"ĠÐ¾Ð±ÑıÐ·Ð°Ð½":11362,"form":11363,"ÐºÑĥÑĤ":11364,"ĠÑģÐ¾ÑĩÐµ":11365,"Ġdlatego":11366,"rzyÄĩ":11367,"ĠskÅĤa":11368,"ĠÐºÐ°ÑĦÐ":11369,"Ġmam":11370,"ĠÐ»Ð°":11371,"ĠÑģÑĤÑĢÑĥÐºÑĤÑĥÑĢÑĭ":11372,"Ð¿ÑĢÐµÐ¶Ð½ÐµÐ¼Ñĥ":11373,"ĠÐ½Ð°ÑģÐµÐºÐ¾Ð¼":11374,"ĠÑģÐ»ÐµÐ´ÑĥÑİÑīÐµÐ¼":11375,"ĠzwiÄĻk":11376,"ĠÑĩÑĢÐµÐ·":11377,"Ð¿Ð¸Ñģ":11378,"ĠÐ¡Ð°Ð»":11379,"ĠXX":11380,"ĠjakoÅĽci":11381,"ĠÐ¿ÐµÑĤÐ":11382,"Ġwykorzysta":11383,"jÄħcym":11384,"wykle":11385,"ĠÐŁÑĢÐ°Ðº":11386,"ĠÐ¿Ð¾Ð»ÑĥÑĩÐ¸Ð²":11387,"Ġkomu":11388,"ÑģÐµÐ³Ð´Ð°":11389,"ĠÐ¼Ð½Ð¾Ð³Ð¾Ð¼":11390,"ĠÐ²ÑĭÐ·Ð¾Ð²":11391,"ĠÑĩÐµÑĤÐºÐ¾":11392,"Ð¾Ð»Ð¾ÑĤÐ":11393,"ĠÐ¿ÑĢÐ¾Ð¸Ð·Ð²Ð¾Ð´ÑģÑĤÐ²Ðµ":11394,"ĠCho":11395,"Ġpowi":11396,"ĠÑģÐ¾ÑİÐ·":11397,"°ÑĢÑħ":11398,"ĠÐ²ÑĢÐ°ÑĩÐ¾Ð¼":11399,"ÐĳÐŀ":11400,"ĠÐ¼ÐµÐ´Ð¸ÑĨÐ¸Ð½ÑģÐºÐ¸Ñħ":11401,"ĠÐ¿Ð¾Ð»Ð¾Ð¼":11402,"ĠÐºÐ¾Ð¼Ð¼ÑĥÐ½Ð°Ð»ÑĮ":11403,"chodzÄħ":11404,"ĠÐ·Ð°ÑĢÑı":11405,"ĠÐ¾ÐºÑĢÑĥÐ³":11406,"ĠÑĩÑĳ":11407,"ĠÑĦÐ°Ð½ÑĤ":11408,"ĠÐ¼ÐµÑĤÐ¾Ð´Ð¾Ð¼":11409,"ĠÐºÐ»ÐµÐ¹":11410,"ĠÐ²Ð´Ð¾ÑħÐ½Ð¾Ð²":11411,"ĠÐĽÐµÐ³":11412,"ÐĴÑĭ":11413,"ÑĢÐ¾ÑģÐºÐ¾Ð¿":11414,"ÑĤÐ¾ÑıÑĤÑĮ":11415,"ĠÐ¿Ð¾Ð²ÑĢÐµÐ¶Ð´ÐµÐ½Ð¸Ñı":11416,"ĠPlay":11417,"ĠÐ¸Ð·Ð»Ð¸ÑĪ":11418,"ff":11419,"Ġmamy":11420,"ĠÑĢÐµÐ±ÐµÐ½ÐºÐ¾Ð¼":11421,"ĠÐºÐ°ÑĦÐµ":11422,"ĠÐ¿ÑĢÐ¾ÑģÑĤÑĭÑħ":11423,"ĠÐ·Ð°Ð²ÐµÐ´ÐµÐ½Ð¸Ñı":11424,"Ġ197":11425,"ĠÑģÑĤÑĢÐ°Ð½Ð¸ÑĨÑĥ":11426,"ĠÑģÑĥÑģÑĤÐ°Ð²Ð":11427,"ÑĢÐ¾ÑģÑĤÐ¸":11428,"ĠÐ¿ÑĥÐ±Ð»Ð¸Ñĩ":11429,"Ġzaba":11430,"ĠÐłÐµÐ³":11431,"Ġznajdzie":11432,"ĠÑģÐ¿Ð¾ÑģÐ¾Ð±Ð°":11433,"ĠÐ¿ÑĢÐµÐ·ÐµÐ½":11434,"ĠÐ¼ÐµÑģÑĤÐ½ÑĭÑħ":11435,"ĠÑĥÑģÐ»Ð¾Ð²Ð¸Ð¸":11436,"ĠÐ³Ð¸Ð³Ð¸":11437,"ĠÐ¿ÐµÑĢÐµÐ¹ÑĤÐ¸":11438,"ÑıÑīÐ°Ñı":11439,"ÐĲÐĿ":11440,"ÐµÐ½ÐµÑĢ":11441,"ĠÑįÐºÐ·Ð°Ð¼":11442,"ĠÐ»Ð¸ÑģÑĤÐ¾Ð²":11443,"Ġzamie":11444,"ĠÐ¾Ð±ÑĢÐµÐ·":11445,"ĠÑĨÐ¸Ð»Ð¸Ð½Ð´":11446,"ÑĤÐ¸ÑĩÑĮ":11447,"ĠÐ¿Ð¾Ð²ÑģÐµÐ´Ð½ÐµÐ²":11448,"ĠÐ¾Ð´ÐµÐ¶Ð´Ñĥ":11449,"ĠÐ´ÐµÑĤÑģÐºÐ¸Ñħ":11450,"ĠÐ¾ÐºÐ°Ð·ÑĭÐ²Ð°ÐµÑĤÑģÑı":11451,"¶Ð°Ð²":11452,"Ð¸ÑĪÐ":11453,"ĠÑĢÐ°Ð¹Ð¾Ð½":11454,"ĠÐºÐ¾Ð¼Ð¿Ð°Ðº":11455,"ÑĥÐ¹ÑĤÐµÑģÑĮ":11456,"ample":11457,"ÑĥÐ»ÑıÑĨÐ¸Ð¸":11458,"ĠÐ¿ÑĢÐ¾ÐºÑĥÑĢÐ°ÑĤÑĥ":11459,"ĠÐ¿ÑĢÐ¸ÐºÑĢÐµÐ¿":11460,"ĠÐ¸Ð¼ÐµÐ»":11461,"ĠÑĤÑĢÐ°Ð½Ñģ":11462,"ĠDzie":11463,"ĠÐ¿ÑĢÐ¾Ð½Ð¸ÐºÐ":11464,"Å¼czy":11465,"ĠÐ½Ð°Ð²ÐµÑĢÐ½Ð¾Ðµ":11466,"Ġskute":11467,"ĠÐ²ÑģÑĤÑĢÐµÑĩÐ°ÑİÑĤÑģÑı":11468,"Ð¸ÑĦÑĢÐ¾Ð²":11469,"ĠÐ´ÐµÐºÐ»Ð°":11470,"wÃ³r":11471,"ĠÐ½Ð°Ð¿ÑĢÑıÐ¶ÐµÐ½Ð¸Ðµ":11472,"raca":11473,"ĠÐ²ÐµÑģÐ½Ð¾Ð¹":11474,"ĠÐĹÐ´ÑĢÐ°Ð²ÑģÑĤÐ²ÑĥÐ¹ÑĤÐµ":11475,"ÐµÐ²ÑĭÐ¼":11476,"ĠÅ¼ycie":11477,"ĠÑįÐ½":11478,"ĠÑĤÑĥÑĢÐ¸Ñģ":11479,"ÑĥÑģÐµ":11480,"ĠÑĢÐ¾ÑģÑģÐ¸Ð¹ÑģÐºÐ¾Ð¹":11481,"ÑĳÐ½Ð½ÑĭÑħ":11482,"ĠÐ°ÑĢÑ":11483,"ĠÐ°ÑĢÑĤ":11484,"enta":11485,"ĠÐ³Ð¾ÑĢÐ´":11486,"ĠÐĺÐ²Ð°Ð½Ð¾Ð²":11487,"ĠÐ½Ð°Ð³ÑĢÐ°Ð´":11488,"Ġartyku":11489,"ĠmÃ³":11490,"ĠÐ½Ð°ÑĢÐ¾Ð´Ð°":11491,"Ġproce":11492,"ĠÐ¿ÑĢÐ¾ÑĤÐ¸Ð²Ð¾Ð¿Ð¾Ð»Ð¾Ð¶":11493,"Ð»ÑİÑĩÐµÐ½Ð¸Ðµ":11494,"ĠÐºÐ¸Ð»Ð¾Ð³ÑĢÐ°Ð¼":11495,"Ġpodej":11496,"ĠÐ¿Ð¾Ð»ÑĮÐ·ÑĥÑİÑĤÑģÑı":11497,"ĠÐ¾ÑĤÐ½Ð¾ÑĪÐµÐ½Ð¸ÑıÑħ":11498,"ÑĢÐ°ÑĨ":11499,"ĠÑģÑĢÐµÐ´ÑģÑĤÐ²Ð¾Ð¼":11500,"ĠÑĤÑĢÐ°Ð½Ð":11501,"ĠÐ¾Ð±ÑıÐ·Ð°ÑĤÐµÐ»ÑĮÑģÑĤÐ²":11502,"chÄĻ":11503,"ĠÑģÐµÑĢÐµÐ´Ð¸Ð½Ðµ":11504,"ĠÑĩÐµÑģÑĤÑĮ":11505,"ĠÐ¾ÑģÑĤÐ°Ð»Ð¾ÑģÑĮ":11506,"ĠTh":11507,"ĠÐ¸ÑģÑħÐ¾Ð´Ñı":11508,"ĠÐ·Ð°Ð½ÑıÑĤÐ¸Ð¹":11509,"ĠÐ½Ð¾Ð³ÑĤÐµÐ¹":11510,"Ġmoc":11511,"ĠÑģÑĥÑħÐ¾Ð¹":11512,"ĠÐ¿Ð¾Ð²ÑĭÑĪÐµÐ½Ð½Ð¾Ð¹":11513,"ĠÑĤÐ¾ÑĢÐ¼Ð¾Ð·":11514,"ĠÐ¶ÐµÐ»Ð°Ð½Ð¸Ñı":11515,"ĠÐĻ":11516,"Ġjeste":11517,"nÃ³w":11518,"ĠÐ¼Ð°ÑģÐ»Ð¾Ð¼":11519,"ĠÑĪÐ°Ð½Ñģ":11520,"Ð»ÐµÑĤÐ½Ð¸Ð¹":11521,"ĠÐłÑĥ":11522,"ĠÐ¾ÑĤÐ²ÐµÑĤÑĭ":11523,"ĠwyjÄħ":11524,"ĠÐ¿Ð¾ÑĤÐµÑĢÐ¸":11525,"ĠÑĢÐ°ÑģÑģÑĤ":11526,"czyna":11527,"ĠÐ¾Ð±Ð¼ÐµÐ½Ð°":11528,"ĠÑģÐ½ÐµÐ³":11529,"lacji":11530,"ĠÐ¿ÐµÑĢÐµÐ±":11531,"Ð¾Ð»Ð³":11532,"ĠÐ²ÑģÑĤÑĢÐµÑĩÐ°ÐµÑĤÑģÑı":11533,"ĠÐľÑĥÐ¶Ñĩ":11534,"Ġzaj":11535,"ĠÐ²ÑĢÑıÐ´":11536,"ĠÐ¿ÑĢÐ¸ÑħÐ¾Ð´Ð¸ÑĤ":11537,"Ð»ÐµÐ¸Ð²":11538,"ĠÑģÐµÐ³":11539,"¾ÑĤÐµÑĢÐ°Ð¿":11540,"Ð¾Ð±ÑĢÐ¸ÑĤ":11541,"ĠÐ³Ð³":11542,"ĠÐ¸ÑĤÐ°Ð»ÑĮÑıÐ½":11543,"Ð¿ÑĢÐµÐ´":11544,"ĠÐ¸Ð³ÑĢÐ¾Ð²ÑĭÑħ":11545,"ÑĢÑıÐ¼":11546,"ĠÐĳÐ¾ÑĢÐ¸Ñģ":11547,"ĠÐ¿Ð¾Ð³Ð°ÑĪ":11548,"ĠÐ´Ð¾Ð±ÑĢÐ¾Ð²":11549,"ÑĢÐ¸ÐµÐ²":11550,"ÐĹÐĺ":11551,"Ġlek":11552,"ĠÐ½ÐµÑģÐ¾Ð²ÐµÑĢÑĪÐµÐ½Ð½Ð¾Ð»ÐµÑĤÐ½Ð":11553,"ĠÐ¸ÑģÐ¿Ð¾Ð»ÑĮÐ·Ð¾Ð²Ð°ÑĤÑĮÑģÑı":11554,"ĠÑıÐ¸Ñĩ":11555,"ĠÐ¾Ð³Ð¾Ð½ÑĮ":11556,"Ð¾ÑħÐ½ÑĥÑĤÑĮ":11557,"ĠÐ¿Ð¸ÑīÑĥ":11558,"ĠÑĢÐ°ÑģÑĤÐ²Ð¾ÑĢÐ°":11559,"ĠÑģÐ¾Ð·Ð´Ð°Ð½Ð¸Ð¸":11560,"Ð¸Ð½ÑĦ":11561,"Ġani":11562,"ĠÑĦÐ¾ÑĢÐ¼Ð¸":11563,"ĠÑĥÑģÑĤÐ°Ð½Ð°Ð²Ð»Ð¸Ð²Ð°ÐµÑĤÑģÑı":11564,"Ð¾Ð¿Ð¸Ñģ":11565,"Ð¾ÑĩÐ½Ð¾Ðµ":11566,"Ġprzysz":11567,"ĠÐĴÐ½Ð¸Ð¼":11568,"Ð°Ð»Ð¸Ð·Ð°ÑĨÐ¸Ð¸":11569,"ĠpoÅĤÄħ":11570,"ĠÐ¯Ð¿":11571,"ĠÑģÐºÐ²Ð¾Ð·":11572,"ĠÑģÐ¿ÑĢÐ°ÑĪ":11573,"cÄĻ":11574,"ĠÐ²Ð¾ÑģÐºÑĢÐµÑģ":11575,"Ġstar":11576,"°ÑĢÐ¸ÑĤÑĮ":11577,"ĠÐ´Ð¾Ð»Ð¶Ð½Ð¾Ñģ":11578,"Ġjeden":11579,"Ð½Ð¸Ð»Ð°":11580,"ĠÐ¡ÑĢÐ¾Ðº":11581,"ĠÐ½ÐµÐ´Ð¾ÑģÑĤÐ°ÑĤÐ¾ÑĩÐ½Ð¾":11582,"ĠÐ½ÐµÐ´Ð²Ð¸Ð¶Ð¸Ð¼Ð¾ÑģÑĤÑĮ":11583,"ÐµÑĤÐ°Ð¼":11584,"ÑĢÐ°Ð½Ð¸ÑĤÐµÐ»ÑĮ":11585,"ĠÐ¾ÐºÐ¾Ð½":11586,"ĠÐ¿Ð»Ð°Ð½ÑĪ":11587,"ÑĳÐ³":11588,"ĠÐ±Ð¾Ð»ÐµÐ·Ð½ÐµÐ¹":11589,"ĠÐ¾ÑĤÐ½Ð¾ÑĪÐµÐ½Ð¸Ñİ":11590,"´Ð¸Ñı":11591,"Ġpan":11592,"ĠÐ¿Ð¾Ð²ÐµÐ´ÐµÐ½Ð¸Ðµ":11593,"ĠÑħÐ¾Ð·ÑıÐ¹ÑģÑĤÐ²Ð°":11594,"Ġpoko":11595,"ĠÐ»Ð¸ÑģÑĤÑĮÐµÐ²":11596,"ĠÐ¾Ð±ÑĬÑıÐ²Ð»ÐµÐ½Ð¸Ñı":11597,"ĠÑħÐ¾ÑĢÐ¾ÑĪÐµÐ³Ð¾":11598,"Ð¸ÑĤÐ¾Ð¹":11599,"ĠÐ±Ð»Ð¸Ð¶Ð":11600,"ĠÐ¾Ð±ÑģÐ»ÑĥÐ¶Ð¸Ð²Ð°Ð½Ð¸Ðµ":11601,"Ð¤ÐĹ":11602,"ĠÑĢÐ°Ð·Ð¼Ð½Ð¾Ð¶":11603,"ĠÐ±Ð»Ð¸Ð¶Ðµ":11604,"ĠÐ¿ÑĢÐ¸Ð²Ð¾Ð´":11605,"Ð¾Ð½ÑĤÐ°ÐºÑĤÐµ":11606,"ĠÐĶÐ°Ð²Ð°Ð¹ÑĤÐµ":11607,"ĠÐ´ÐµÑĪÐµÐ²Ð»Ðµ":11608,"ĠÐ´ÐµÑģÑıÑĤÑĮ":11609,"Ð¾Ð»Ñĩ":11610,"ĠÐĴÑĥÐ»ÐºÐ°Ð½":11611,"jo":11612,"ĠÑįÐ»ÐµÐ¼ÐµÐ½ÑĤÐ°":11613,"ĠÑĦÐ°ÐºÑĤÐ¸ÑĩÐµÑģÐºÐ¸":11614,"ÑĥÑģÐ»Ð¾Ð²Ð½Ð¾":11615,"ĠnastÄĻp":11616,"Ð»ÑİÐ±":11617,"ĠÑĥÑĢÐ¾Ðº":11618,"ĠÐ´Ð¸Ð°Ð¼ÐµÑĤ":11619,"ĠÐ°Ð½Ð°Ð»ÑĮ":11620,"ĠÑĤÑĢÐ°Ñģ":11621,"ruch":11622,"ĠÐ¿ÑĢÐ¸Ð¾ÑĢÐ":11623,"ĠÐ¾ÑĤÐ´ÐµÐ»ÐºÐ¸":11624,"raft":11625,"mer":11626,"ĠÐ¿ÑĢÐµÐ´Ð»Ð¾Ð¶Ð¸ÑĤÑĮ":11627,"ĠÐ½Ð°ÑĥÐºÐ¸":11628,"nienie":11629,"85":11630,"ĠÐ¿Ð°ÑĢÐ°Ð»Ð»":11631,"ĠÐ¾ÑĤÐºÐ°Ð·Ð°Ð»":11632,"Ð°Ð½Ñı":11633,"ĠÐ½Ð°Ð±Ð":11634,"ĠÐ¿Ð¾Ð»Ð¾ÑĤ":11635,"ÑĤÐ²Ñĭ":11636,"lia":11637,"ÑĤÐ¾ÑĤÑĭ":11638,"ĠÐ¿ÑĢÐ¾ÑĤÐ¸Ð²Ð¾ÑĢÐµÑĩ":11639,"ÑĪÐµÐ³Ð¾ÑģÑı":11640,"ĠÑįÑĤÐ°Ð¶":11641,"ĠÑĢÐ°Ð´Ð¸Ð°":11642,"ĠÐ°Ð½Ð´":11643,"Ġwspo":11644,"ĠÐ¿Ð¾Ð²ÐµÐ´":11645,"ĠÐłÐµÑĨ":11646,"ĠÐ½ÐµÐ¼Ð°Ð»Ð¾":11647,"ĠÐļÐ¾Ñģ":11648,"ĠÐ¿ÑĢÐ¾Ð²ÐµÐ´ÐµÐ½Ð¸Ð¸":11649,"ĤÑĭÑħ":11650,"ĠÐ±Ð°Ð»Ð°Ð½":11651,"ĠÐ°Ð²ÑĤÐ¾ÑĢÐ°":11652,"ĠÐ³ÐµÐ¹":11653,"ĠÑģÐ¾ÑģÑĤÐ°Ð²Ð¸ÑĤÑĮ":11654,"ĠÐ¾ÑĤÐ»Ð¾Ð¶":11655,"ĠSto":11656,"ĠÑĤÐµÐ¿Ð»Ð°":11657,"Ġgodzi":11658,"ĠÐ±Ð»ÑİÐ´Ð¾":11659,"sung":11660,"ĠÑĢÐ°ÑģÐ¿Ð¸Ñģ":11661,"Ð¸Ð²Ð°ÑİÑīÐ¸Ñħ":11662,"ÐµÑĢÐ½ÑĥÑĤÑĮ":11663,"ĠÐ²ÐµÑĤ":11664,"ĠÐ´ÐµÑĤÑģÐºÐ¾Ð¹":11665,"ĠÑįÑĤÐ¸Ð¼Ð¸":11666,"»Ñı":11667,"ĠÐ¼Ð°ÑģÑĤÐµÑĢÐ°":11668,"miar":11669,"ĠÃ":11670,"ĠÐºÐ¾Ð½ÐºÑĥÑĢÑģ":11671,"ĠÐŀÐ±ÑĢÐ°ÑĤÐ¸ÑĤÐµ":11672,"rea":11673,"ction":11674,"ĠÐ¿Ð¾ÑģÐ¼Ð¾ÑĤ":11675,"ĠmoÅ¼liwoÅĽÄĩ":11676,"ĠSÄħ":11677,"ĠÐµÐ±":11678,"all":11679,"ĠÐ¼Ð°Ð»Ð¾Ð³Ð¾":11680,"ED":11681,"Ġ09":11682,"ĠÐ¿Ð¾Ð¿ÑĭÑĤ":11683,"dne":11684,"ĠÐ¼Ð°ÑĢÐ":11685,"Ð¸Ð¼ÑĭÐ¼":11686,"ĠÐºÐ¾ÑĢÐ¸ÑĩÐ½ÐµÐ²":11687,"Ġwsze":11688,"ĠÑģÑĤÐ¾Ð»ÐºÐ":11689,"Ð½ÐµÐ½Ð¸ÐµÐ¼":11690,"Ð¾Ð¾Ð±ÑĢÐ°Ð¶":11691,"ĠÐ¸ÑģÐ¿Ð¾Ð»ÑĮÐ·ÑĥÐµÑĤ":11692,"ĠÐļÑĢÐµÐ¼":11693,"Ð¾Ð¼ÐµÑĤÑĢÐ¾Ð²":11694,"rew":11695,"Ġdoku":11696,"ĠÑģÐ¾Ð¿ÐµÑĢ":11697,"Ð°Ð´ÑĥÑĤ":11698,"ĠÐ¶ÐµÐ»ÑĥÐ´ÐºÐ°":11699,"ĠÐ¿Ð¾ÐºÑĢÐ¾Ð²":11700,"ĠÐļÐ¸ÑĢ":11701,"ĠÐ¡Ð¼Ð¾ÑĤÑĢÐµÑĤÑĮ":11702,"ĠÐ³ÑĢÐ°Ð½Ð¸ÑĨÑĭ":11703,"ĠÐ·Ð¾Ð»Ð":11704,"ĠÑģÐ¾ÑģÑĢÐµÐ´":11705,"ĠÐŀÐ¿ÑĢÐµÐ´ÐµÐ»":11706,"ĠÑĢÐµÑĩÐ":11707,"ĠÐ¼Ð¾Ðº":11708,"owaÅĤa":11709,"Ġstwo":11710,"Ġkier":11711,"ĠÐ¸Ð·Ð±Ð¸ÑĢÐ°ÑĤ":11712,"ĠWszyst":11713,"ĠÑįÐ»ÐµÐºÑĤÑĢÐ¾Ñį":11714,"ĠÑįÐ»Ð°Ñģ":11715,"ĠÑģÑĤÑĢÐ°ÑħÐ":11716,"TA":11717,"ĠÐ¿Ð¾ÑĩÐ²Ñĭ":11718,"Ð¸ÑĨÐ¸Ð¹":11719,"Ġdrugie":11720,".),":11721,"ÑĨÐ°ÑĤÐ¸":11722,"Ġuczest":11723,"Ġen":11724,"Ð°Ð¶Ð½ÑĥÑİ":11725,"ĠÐ¾ÑĤÑģÐ»":11726,"ĠÑīÐµÐ»":11727,"ĠÑĢÑĥÑģÑģÐºÐ¾Ð¼":11728,"67":11729,"ĠÑĦÐ°Ð½Ð":11730,"ĠwspÃ³l":11731,"czone":11732,"ĠÑĥÐ²ÐµÑĢÐµÐ½Ñĭ":11733,"ĠÐºÐ¾Ð»ÐµÑģ":11734,"ĠÑĥÑĩÐ°ÑģÑĤÐ½Ð¸ÐºÐ¸":11735,"Ð»ÑıÐ»Ð¸":11736,"Ġczym":11737,"ĠÐ³ÑĢÐ°Ð¼Ð¼":11738,"ĠÐ¿Ð¾ÑģÐµÑĤÐ¸ÑĤÑĮ":11739,"Ð¸Ð³Ð¸Ð¾Ð·":11740,"ĠÐ¿ÑĢÐ¸Ð½Ð¸Ð¼Ð°ÑİÑĤ":11741,"ĠÐ¿ÑĢÐ¾Ð±Ð»ÐµÐ¼Ð¾Ð¹":11742,"ÑĥÑģÐ¾Ð¼":11743,"ĠÐ²Ð¾ÑģÐ¿Ð°Ð»ÐµÐ½Ð¸Ðµ":11744,"ĠÐ°Ð³ÑĢÐµÑģÑģÐ¸Ð²":11745,"ĠÐ³Ð¾Ð»Ð¾Ð²Ð¾Ð¹":11746,"ĠÐ²ÐµÑĤÐµ":11747,"Ġ//":11748,"Ġzapewnia":11749,"ĠÐºÑĢÐ°Ð¹Ð½ÐµÐ¹":11750,"ĠÑģÑĭÐ½Ð°":11751,"ĠÐ¼Ð½Ð¾Ð³Ð¾Ðº":11752,"ÐŁÐļ":11753,"°Ð¼":11754,"Ð¾ÑĢÐ±":11755,"ĠÑĥÐºÑĢÐ°Ñģ":11756,"ĠÐ¿Ð°ÑĢÐºÐ¾Ð²":11757,"ĠÐ²Ð¾Ð·Ð´ÑĥÑħÐµ":11758,"ĠIII":11759,"ĠÐ¸Ð½ÑĤÐµÑĢÐµÑģÐ¾Ð²":11760,"ÐµÐ³Ð¸Ñı":11761,"ĠaÅ¼":11762,"ĠÐĿÐ°ÑĪÐ°":11763,"ĠÐ¿ÑĢÐ¾ÑģÐ¼Ð¾ÑĤÑĢÐ°":11764,"ĠÐ»ÐµÐ³ÐºÐ¸Ñħ":11765,"Ġbli":11766,"ĠÑģÐ°Ð¹ÑĤÑĭ":11767,"Ġistnie":11768,"Ġ39":11769,"ĠÐºÐ¾ÑĢÐ¿ÑĥÑģÐ°":11770,"Ð°Ð»Ð¾Ð³":11771,"ĠÐºÐ°Ð»Ð¾ÑĢÐ¸Ð¹":11772,"ĠÐ¿ÑĢÐ¸ÑĪÐ»Ð¸":11773,"ĠÑģÐ²ÐµÐ´":11774,"tom":11775,"ĠÑĥÐ¼ÐµÐ½ÑĮÑĪÐ¸ÑĤÑĮ":11776,"Ð¸Ð½ÐµÐº":11777,"ĠÐ±ÑĢÐ¾Ð½":11778,"pita":11779,"ĠÐĽÑĮ":11780,"ĠÐ¿ÑĢÐ¾Ð²Ð¾ÑĨÐ¸":11781,"Ġzwie":11782,"ÅĽredni":11783,"2020":11784,"Ġaktyw":11785,"ĠÐ´Ð°ÑĤÑĭ":11786,"Ġ2006":11787,"ĠÐ½Ð¾ÑģÐ¸ÑĤ":11788,"ÑıÑı":11789,"ĠÐ³ÑĢÑĥÐ·Ð¾Ð²":11790,"ĠÐ²Ð¸Ñģ":11791,"ĠÑĢÐµÑĪÐ¸Ð»Ð°":11792,
[...]
