{"!":0,"\"":1,"#":2,"$":3,"%":4,"&":5,"'":6,"(":7,")":8,"*":9,"+":10,",":11,"-":12,".":13,"/":14,"0":15,"1":16,"2":17,"3":18,"4":19,"5":20,"6":21,"7":22,"8":23,"9":24,":":25,";":26,"<":27,"=":28,">":29,"?":30,"@":31,"A":32,"B":33,"C":34,"D":35,"E":36,"F":37,"G":38,"H":39,"I":40,"J":41,"K":42,"L":43,"M":44,"N":45,"O":46,"P":47,"Q":48,"R":49,"S":50,"T":51,"U":52,"V":53,"W":54,"X":55,"Y":56,"Z":57,"[":58,"\\":59,"]":60,"^":61,"_":62,"`":63,"a":64,"b":65,"c":66,"d":67,"e":68,"f":69,"g":70,"h":71,"i":72,"j":73,"k":74,"l":75,"m":76,"n":77,"o":78,"p":79,"q":80,"r":81,"s":82,"t":83,"u":84,"v":85,"w":86,"x":87,"y":88,"z":89,"{":90,"|":91,"}":92,"~":93,"¡":94,"¢":95,"£":96,"¤":97,"¥":98,"¦":99,"§":100,"¨":101,"©":102,"ª":103,"«":104,"¬":105,"®":106,"¯":107,"°":108,"±":109,"²":110,"³":111,"´":112,"µ":113,"¶":114,"·":115,"¸":116,"¹":117,"º":118,"»":119,"¼":120,"½":121,"¾":122,"¿":123,"À":124,"Á":125,"Â":126,"Ã":127,"Ä":128,"Å":129,"Æ":130,"Ç":131,"È":132,"É":133,"Ê":134,"Ë":135,"Ì":136,"Í":137,"Î":138,"Ï":139,"Ð":140,"Ñ":141,"Ò":142,"Ó":143,"Ô":144,"Õ":145,"Ö":146,"×":147,"Ø":148,"Ù":149,"Ú":150,"Û":151,"Ü":152,"Ý":153,"Þ":154,"ß":155,"à":156,"á":157,"â":158,"ã":159,"ä":160,"å":161,"æ":162,"ç":163,"è":164,"é":165,"ê":166,"ë":167,"ì":168,"í":169,"î":170,"ï":171,"ð":172,"ñ":173,"ò":174,"ó":175,"ô":176,"õ":177,"ö":178,"÷":179,"ø":180,"ù":181,"ú":182,"û":183,"ü":184,"ý":185,"þ":186,"ÿ":187,"Ā":188,"ā":189,"Ă":190,"ă":191,"Ą":192,"ą":193,"Ć":194,"ć":195,"Ĉ":196,"ĉ":197,"Ċ":198,"ċ":199,"Č":200,"č":201,"Ď":202,"ď":203,"Đ":204,"đ":205,"Ē":206,"ē":207,"Ĕ":208,"ĕ":209,"Ė":210,"ė":211,"Ę":212,"ę":213,"Ě":214,"ě":215,"Ĝ":216,"ĝ":217,"Ğ":218,"ğ":219,"Ġ":220,"ġ":221,"Ģ":222,"ģ":223,"Ĥ":224,"ĥ":225,"Ħ":226,"ħ":227,"Ĩ":228,"ĩ":229,"Ī":230,"ī":231,"Ĭ":232,"ĭ":233,"Į":234,"į":235,"İ":236,"ı":237,"Ĳ":238,"ĳ":239,"Ĵ":240,"ĵ":241,"Ķ":242,"ķ":243,"ĸ":244,"Ĺ":245,"ĺ":246,"Ļ":247,"ļ":248,"Ľ":249,"ľ":250,"Ŀ":251,"ŀ":252,"Ł":253,"ł":254,"Ń":255,"²i":256,"Ê²i":257,"²Ë":258,"²ËĪ":259,"Ê²ËĪ":260,"ËĪ":261,"ËĪÉ":262,"ÉŃ":263,"ËĪÉĳ":264,"ËĪo":265,"tÊ":266,"Éª":267,"Ê²ËĪe":268,"Ġp":269,"Ê²":270,"ËĪÉĽ":271,"Ġv":272,"Ê²ËĪi":273,"Ġs":274,"Ġn":275,"É¡":276,"tÊĥ":277,"ĠÊ":278,"nÊ":279,"nÊĮ":280,"nÊ²i":281,"ÉĽ":282,"Ġk":283,"ts":284,"tÊ²":285,"jÉª":286,"rÊ²i":287,"ËĪu":288,"Ġd":289,"rÊ":290,"ja":291,"vÊ":292,"vÊĮ":293,"rÊĮ":294,"st":295,"ÊĴ":296,"Ê²Éª":297,"ËĪi":298,"Ġm":299,"tÊ²i":300,"ĠÊĮ":301,"tÊĮ":302,"Éķ":303,"Éĳ":304,"Êĥ":305,"ÉĶ":306,"ËĮ":307,"sÊ²":308,"ny":309,"Ġt":310,"ĠpÊ":311,"ĠpÊĮ":312,"Ġb":313,"ËĪy":314,"Ġz":315,"ĠvËĪÉĽ":316,"ĠËĪi":317,"ra":318,"Ê²ËĪÉĳ":319,"ÉŃÊ²i":320,"ju":321,"kÊ":322,"kÊĮ":323,"ËĪa":324,"ji":325,"É¨":326,"ÉŃÊ":327,"ËĪÉĶ":328,"ÉŃÊĮ":329,"rËĪÉĳ":330,"ĠËĪÉĽ":331,"vÊ²i":332,"tÊĥÊ²i":333,"Ġf":334,"ĠÉ¡":335,"ĠÉª":336,"ĠnËĪÉĳ":337,"rËĪo":338,"ĠkÊ":339,"ĠkÊĮ":340,"Ġu":341,"ÉŃÊ²ËĪe":342,"ËĪe":343,"tsy":344,"tÊĥÊ²":345,"ĠprÊ²i":346,"ÉŃÊ²":347,"rÊ²ËĪe":348,"Êĳ":349,"sk":350,"dÊ²i":351,"tËĪo":352,"ĠprÊĮ":353,"nÊ²ija":354,"ÉŃÊ²Éª":355,"ĠÊĥ":356,"Éķi":357,"ËĪÉª":358,"ĠpËĪo":359,"mÊ²i":360,"vËĪo":361,"ÊĴy":362,"ĠkËĪÉĳ":363,"dÊ²ËĪe":364,"ka":365,"tsÊ":366,"tsÊĮ":367,"ĠËĪÉª":368,"ĠsÊ":369,"ĠsÊĮ":370,"É²":371,"nÊ²ijÉª":372,"mÊ":373,"mÊĮ":374,"na":375,"jËĪe":376,"Ġa":377,"ÉŃÊ²ËĪi":378,"ĠËĪo":379,"ru":380,"nËĪÉĳ":381,"dËĪÉĳ":382,"mÊ²Éª":383,"nt":384,"âĢ":385,"vËĪÉĳ":386,"mÊ²ËĪe":387,"Ê²ËĪÉª":388,"dÊ":389,"dÊĮ":390,"ĠËĪÉĽs":391,"nnÊĮ":392,"ÉŃËĪÉĳ":393,"Ê²e":394,"ĠnÊ²e":395,"ĠnÊ²i":396,"ÉŃnÊĮ":397,"sp":398,"ËĮÉĽ":399,"ÉŃa":400,"kÊ²Éª":401,"tÊ²ËĪi":402,"nËĪo":403,"tËĪÉĳ":404,"ĠâĢ":405,"ĠÊĴ":406,"vÊ²ËĪe":407,"ËĪoÉŃ":408,"Ġna":409,"tÊĥÊ²ËĪÉĳ":410,"ta":411,"jit":412,"nÊ²ËĪe":413,"va":414,"ÉŃËĪo":415,"sÊ²i":416,"Ġra":417,"sÊ²Ê":418,"sÊ²ÊĮ":419,"rËĪu":420,"Êĥy":421,"nny":422,"ËĪja":423,"kËĪÉĳ":424,"ĠnÊ":425,"ĠnÊĮ":426,"ĠÊĮb":427,"Ê²ÉĽ":428,"stÊ²":429,"ry":430,"Ġza":431,"ĠrÊ²i":432,"ĠvÊ":433,"ĠdÊ":434,"ĠdÊĮ":435,"É¡Ê":436,"skÊĮ":437,"É¡ÊĮ":438,"ĠËĪÉĽtÊĮ":439,"ĠvÊĮ":440,"tÊ²Éª":441,"ĠrÊĮ":442,"xÊ":443,"xÊĮ":444,"tÊĥÊ²ËĪe":445,"ku":446,"nÊ²ËĪi":447,"to":448,"da":449,"ĠvËĪy":450,"ÉŃÊ²Éĳ":451,"ÉŃÊ²ËĪÉĳ":452,"ĠdÉŃÊ²Éĳ":453,"ËĪÉ¨":454,"dÊ²ËĪi":455,"ĠjÉª":456,"zÊ":457,"zÊĮ":458,"tÊ²ËĪe":459,"rÊ²ËĪi":460,"ĠÊĥto":461,"ËĮÉĶ":462,"bËĪo":463,"stÊĮ":464,"mËĪÉĳ":465,"ĠmÊ":466,"ĠsÊ²i":467,"kËĪo":468,"ĠmÊĮ":469,"pÊ":470,"pÊĮ":471,"ĠpÊ²i":472,"ÊĴnÊĮ":473,"du":474,"Ġ1":475,"ĠzÊ":476,"ĠzÊĮ":477,"pÊ²i":478,"kÊ²i":479,"ĠËĪÉĳ":480,"mu":481,"ĠÊĮt":482,"sÊ²tÊ²Éª":483,"ĠËĪu":484,"jitsÊĮ":485,"sÊ":486,"sÊĮ":487,"ty":488,"tÉķ":489,"nyx":490,"Ê²Ê":491,"Ê²ÊĮ":492,"ĠmÊ²i":493,"ĠdÊ²ËĪe":494,"nu":495,"vÊ²ËĪi":496,"Ġpr":497,"zËĪÉĳ":498,"skÊ²i":499,"vy":500,"nyjÉª":501,"sÊ²ËĪe":502,"bÊ²i":503,"jut":504,"Ġj":505,"Ġ2":506,"É²Ê²ÉĽ":507,"ĠÉĽ":508,"sta":509,"ÉŃÊ²u":510,"ĠdÊ²i":511,"Ġ(":512,"ĠÂ":513,"nyj":514,"ĠkËĪÉĳk":515,"ĠtËĪo":516,"stvÊ²i":517,"ËĮa":518,"ma":519,"tsËĪÉĽ":520,"ĠkÊĮtËĪo":521,"bÊ":522,"bÊĮ":523,"ÉŃËĪu":524,"Â»":525,"ĠÂ«":526,"ĠÉ¡Ê":527,"ĠÉ¡ÊĮ":528,"Ġst":529,"Ê²a":530,"ĠtËĪÉĳ":531,"ĠvÉ¨":532,"my":533,"É¡Ê²i":534,"tÊ²iÉŃ":535,"ÊĴËĪÉĽ":536,"ĠpÊĮd":537,"Ìĥ":538,"Ê²ËĪÉĽ":539,"stËĪÉĳ":540,"ÉķËĪe":541,"xËĪo":542,"ÊĥËĪÉĽ":543,"ĠËĪÉªs":544,"Ġo":545,"ĠtÊ²i":546,"ĠâĢĵ":547,"tsyÉª":548,"tÊ²sÊ²ÊĮ":549,"ËĮu":550,"mËĪo":551,"ĠâĢĶ":552,"sÊ²tÊ²i":553,"Ġr":554,"ĠzËĪÉĳ":555,"sÊ²ËĪi":556,"ĠvËĪÉĳ":557,"tu":558,"ĠmÊ²ËĪe":559,"Ġot":560,"juÉķi":561,"ĠÉªn":562,"Ġsp":563,"Ġvy":564,"ĠËĪÉªÉŃÊ²Éª":565,"tÊĥÊ²ËĪi":566,"nÊ²iÉª":567,"jim":568,"nÊ²ËĪÉĳ":569,"ËĮo":570,"ÉŃu":571,"tÊ²iÉŃnÊĮ":572,"ĠĊ":573,"nÉĽ":574,"ĠvÊ²i":575,"nÊ²ij":576,"ĠjËĪe":577,"Ġi":578,"ĠfsÊ²ËĪe":579,"ĠdËĪo":580,"ĠmËĪo":581,"stvÊĮ":582,"ĠdËĪÉĳ":583,"Ġx":584,"ĠbÊ²i":585,"vÉŃÊ²ËĪÉĳ":586,"ĠÊĴËĪÉĽ":587,"ĠvËĪo":588,"Ê²ËĪu":589,"nÊĮj":590,"ĠÊĮd":591,"Ġka":592,"ĠÊĮp":593,"Ê²ËĪer":594,"sËĪo":595,"dy":596,"ĠmËĮo":597,"ĠbÊ":598,"Ġta":599,"dÊĳ":600,"tËĪu":601,"ĠsËĪÉĳ":602,"ĠbÊĮ":603,"tÊĥÊ²nÊĮ":604,"nÉ¨":605,"vu":606,"ĠprÊ²id":607,"ĠtÊĮ":608,"ĠtÊĥÊ²i":609,"fÊ²i":610,"by":611,"rÊĮvÊĮ":612,"É¡ËĪÉĳ":613,"Ġno":614,"ss":615,"ĠprÊ²ËĪÉª":616,"ĠÉ¡ËĪo":617,"pËĪÉĳ":618,"ĠÉŃÊ²i":619,"ĠkÊĮtËĪory":620,"ÉĶv":621,"ĠÉķ":622,"ĠsvÊĮ":623,"sÉŃÊ²Éª":624,"É¡a":625,"Ġby":626,"ĠnËĪa":627,"rÊ²ËĪÉĳ":628,"ĠËĪja":629,"00":630,"ĠpÊ²irÊ²i":631,"ĠnÊ²ËĪe":632,"ÉŃÊ²Ê":633,"ÉŃÊ²ÊĮ":634,"ĠÊĳ":635,"ĠËĮÉĽ":636,"ĠxÊĮ":637,"ĠmËĪÉĳ":638,"vÉŃÊ²ËĪe":639,"Êĳi":640,"zy":641,"zu":642,"ĠjËĪesÉŃÊ²Éª":643,"ĠtÊ²ËĪe":644,"ĠrËĪÉĳ":645,"ĠsÊ²":646,"rt":647,"su":648,"ĠrabËĪo":649,"kt":650,"dËĪu":651,"É¡Ê²ËĪi":652,"É¡u":653,"dÊ²it":654,"jÉĽ":655,"stva":656,"ËĪÉĶv":657,"É¡ËĪo":658,"nym":659,"É¡ÉĶ":660,"nËĪu":661,"ĠÉªz":662,"ĠkËĪo":663,"ĠÉªsp":664,"tÊĮf":665,"jutsÊĮ":666,"É¡dËĪÉĳ":667,"ĠjÉªvËĪo":668,"ĠnËĪo":669,"ĠkÊĮm":670,"ĠtÊĥÊ²ËĪe":671,"nts":672,"snÊĮ":673,"ÊĴËĪÉĳ":674,"ĠÉŃÊ²ËĪi":675,"ĠmËĮoÊĴy":676,"ĠsËĪo":677,"sa":678,"ĠmËĪoÊĴnÊĮ":679,"ĠvÊ²ËĪi":680,"Ġts":681,"tÊĥÊ²iskÊ²i":682,"nnyx":683,"jju":684,"vnÊĮ":685,"ËĪÉĳÉŃ":686,"ĠstËĪÉĳ":687,"pa":688,"nnyjÉª":689,"li":690,"ĠbËĮu":691,"Ġja":692,"za":693,"bÊ²ËĪi":694,"nuju":695,"Ġraz":696,"kÊ²ËĪi":697,"nÊ²Éª":698,"nËĪy":699,"ĠÉĶ":700,"tÊĮm":701,"vÉŃÊ²i":702,"Įp":703,"ÊĮp":704,"nd":705,"Ġsu":706,"sËĪÉĳ":707,"ÉĽr":708,"ËĪoÉŃkÊĮ":709,"tÊĥÊ²Ê":710,"tÊĥÊ²ÊĮ":711,"Ġ3":712,"ĠrÊĮz":713,"ÊĳËĪi":714,"ĠËĮÉĶ":715,"ĠtÊĥÊ²ËĪÉĳ":716,"tnÊĮ":717,"nÊ²imËĪÉĳ":718,"ĠtÊĥ":719,"ĠprËĪo":720,"ĠprËĪÉĳ":721,"pÊ²ËĪi":722,"ĠËĪon":723,"prÊ²i":724,"rÊĴ":725,"tsyja":726,"ĠtËĪÉĳk":727,"ĠvrÊ²ËĪe":728,"ĠÊĴy":729,"Įr":730,"ÊĮr":731,"vÊĮtÊ²":732,"Åĭ":733,"ĠÉŃÊ²u":734,"ĠzÉ¨":735,"sÊ²tÊ²ËĪe":736,"pu":737,"ĠÊĮn":738,"stËĪo":739,"É²Ê²a":740,"mÊ²ËĪi":741,"rnÊĮ":742,"rÊĮf":743,"ĠÊĥtËĪo":744,"ĠtsËĪÉĽ":745,"kÊĮf":746,"tÊĥÊ²iskÊĮ":747,"ĠsÊ²ËĪe":748,"ĠbËĪo":749,"jtÊ²i":750,"sÉŃÊ²i":751,"ĠstÊĮ":752,"vËĪy":753,"ĠkÊĮn":754,"jjËĪe":755,"ĠpÊĥ":756,"ĠvÊĮz":757,"nnÊĮj":758,"rËĪy":759,"lÉĽ":760,"ËĮÉ¨":761,"ĠjËĪÉĽ":762,"tÊ²ËĪÉª":763,"ĠdËĪÉĶ":764,"nnyj":765,"nÊ²ÊĮ":766,"ĠvÊ²ËĪe":767,"ĠÉŃÊ²ËĪe":768,"nÊ²iju":769,"ĠpÉĶ":770,"ÊĴËĪy":771,"ĠÊĥtËĪoby":772,"stÊĮËĪja":773,"kËĪu":774,"Ġ20":775,"Ġma":776,"ÉŃÊĮsÊ²":777,"ĠmËĪy":778,"rËĪa":779,"ki":780,"Ġdru":781,"ĠÉªspËĪoÉŃ":782,"ĠmËĮoÊĴyt":783,"mËĪu":784,"mÊ²ÊĮ":785,"É¡rËĪÉĳ":786,"ÊĥËĪy":787,"xÊĮdÊ²ËĪi":788,"ÉŃy":789,"ĠtËĪoÉŃkÊĮ":790,"kÊĮm":791,"ĠfÊ²i":792,"la":793,"bËĪÉĳ":794,"Éµ":795,"Ê²ËĪÉµ":796,"dËĪo":797,"É¡ÊĴy":798,"ĠtËĪÉĳÉ¡ÊĴy":799,"tst":800,"sÊ²tÊ²ËĪi":801,"ÉŃÊ²ijÉª":802,"ĠÉķÉĽ":803,"ftÊĮ":804,"ktÊ²ËĪi":805,"ĠËĪÉªx":806,"trÊ²i":807,"ËĪju":808,"Ġku":809,"kazËĪÉĳ":810,"nÊ²ijim":811,"in":812,"ÉķËĪÉĳ":813,"Ġpa":814,"ĠnÊ²ËĪi":815,"ĠËĪop":816,"rÊĥ":817,"kÊĮj":818,"ĠbÊ²ËĪe":819,"..":820,"ËĪor":821,"rÊ²ËĪed":822,"bu":823,"Ġl":824,"ĠprÊĮi":825,"nÉĶ":826,"Ġru":827,"ĠÊĴËĪy":828,"ÉŃÊ²ËĪu":829,"sÊ²sÊ²ËĪi":830,"tsa":831,"nnÊĮvÊĮ":832,"ĠpÊĮÉŃu":833,"ÉŃÊ²ij":834,"ĠÊĳdÊ²ËĪe":835,"ĠsÉŃËĪu":836,"ĠnËĪu":837,"Ġsta":838,"wa":839,"rÊĮm":840,"jÉĶ":841,"ĠfsÊ²i":842,"kÉĶ":843,"É²ËĪ":844,"Ġ\"":845,"É²ËĪi":846,"nk":847,"ĠÊĮr":848,"pÊĮÉŃ":849,"ËĮy":850,"ÉķËĪi":851,"ËĪÉĽÉ¡ÉĶ":852,"ĠbËĮudÊ²it":853,"sy":854,"ĠËĪÉĶ":855,"ËĪÉĽm":856,"ĠbËĮy":857,"ÊĥËĪÉĳ":858,"ba":859,"ĠÉ¡Ê²i":860,"tÊĥÊ²in":861,"sÉŃÊ²ËĪe":862,"bÉŃÊ²ËĪe":863,").":864,"ÉĶvËĪa":865,"ĠpËĪosÉŃÊ²i":866,"ËĪÉĳÉŃnÊĮ":867,"ĠrËĪu":868,"vËĪoj":869,"ĠpËĪÉĶ":870,"stu":871,"ĠÉ²Ê²ÉĽ":872,"ĠkÊĮtËĪoryjÉª":873,"ĠpËĮÉĶ":874,"tkÊ²Éª":875,"ÉĽj":876,"ÉŃÊ²ËĪitÊĥÊ²i":877,"dnÊĮ":878,"Ġ5":879,"ĠÊĮnÊ²ËĪÉª":880,"É²i":881,"ĠÉªmÊ²ËĪe":882,"ÉĽm":883,"ĠpËĪÉĳ":884,"ĠvrÊ²ËĪemÊ²ÊĮ":885,"ĠbÊĮÉŃ":886,"ĠbËĪy":887,"vËĪod":888,"ska":889,"tÉķi":890,"skÊĮj":891,"nymÊ²Éª":892,"vÊ²ËĪer":893,"Ġ4":894,"zÊĮvÊĮ":895,"Ê²u":896,"ĠsÉŃÊ²ËĪe":897,"nÊ²ik":898,"nta":899,"ĠmnËĪo":900,"brÊĮ":901,"Ġus":902,"rËĪÉĶ":903,"prËĪo":904,"ĠnÊ²iÊĮp":905,"spÊ":906,"É¡Ê²Éª":907,"bÊ²ËĪe":908,"mÊ²":909,"ÉŃsÊ²ÊĮ":910,"spÊĮ":911,"estÊ²":912,"ĠnÊ²iÊĮpxÊĮdÊ²ËĪi":913,"ĠtrÊ²ËĪe":914,"ËĪar":915,"ĠjestÊ²":916,"ĠrËĪo":917,"nËĪoj":918,"vËĪu":919,"ĠbytÊ²":920,"ĠpÊ²ËĪer":921,"sËĪu":922,"ÉķtÉķ":923,"Ġda":924,"kÉŃÊ²u":925,"ËĪÉĽr":926,"ĠspÊ²i":927,"Ġmu":928,"skÊ²Éª":929,"mi":930,"ÉŃÊĮvÊ²ËĪe":931,"²ËĮ":932,"ĠkÊĮÉ¡dËĪÉĳ":933,"ĠmÊ²ËĪi":934,"ĠtÊĥÊ²":935,"ĠkÊ²i":936,"Įt":937,"ÊĮt":938,"fÊĥy":939,"ĠrÊĮsÊ²sÊ²ËĪi":940,"ĠzËĮa":941,"ĠtËĪÉĽ":942,"tÊĥÊ²ËĪenÊ²ijÉª":943,"fÊĮr":944,"vÉŃÊ²ËĪÉĳjitsÊĮ":945,"Ġtsy":946,"ËĮi":947,"vÉŃÊ²ËĪenÊ²ija":948,"pra":949,"tÊ²iÉŃÊ²ÊĮ":950,"vÊ²idÊ²ËĪe":951,"ĠbËĪoÉŃÊ²ijÉª":952,"ĠkÊĮtËĪorÊĮ":953,"Ġsk":954,"strËĪo":955,"er":956,"tsËĪy":957,"ĠsÊ²ËĪi":958,"ĠËĪotÊĥÊ²in":959,"ÊĴdÊ²ËĪe":960,"dÊĮvÊĮ":961,"ÊĥËĪo":962,"ĠdËĪoÉŃ":963,"ĠËĪÉĽtÊĮm":964,"lËĪÉĽ":965,"mp":966,"ĠÉŃËĪu":967,"ËĪak":968,"ĠsrÊ²ËĪed":969,"ĠznËĪÉĳ":970,"ĠbËĪÉĳ":971,"É¨x":972,"rÉª":973,"stf":974,"zvÊĮ":975,"nÉ¨x":976,"ÉŃÊ²isÊ²":977,"ÉŃÊ²ËĪÉª":978,"skËĪÉĳ":979,"ĠtÊĥÊ²iÉŃÊĮvÊ²ËĪe":980,"ĠsËĪu":981,"rÊ²idÊ²i":982,"stÊ²jju":983,"ĠaftÊĮ":984,"ĠnËĪuÊĴnÊĮ":985,"jja":986,"ĠvÊĮzmËĪo":987,"nÊ²ËĪenÊ²ija":988,"ks":989,"ĠÊĮbra":990,"vyj":991,"ĠtakËĪo":992,"ĠËĪuÊĴy":993,"ËĪÉµ":994,"Â».":995,"ĠsÉŃËĪutÊĥÊ²ÊĮ":996,"tÊĥÊ²ËĪenÊ²ija":997,"vÊĮj":998,"sÊ²sÊ²i":999,"vÊ²ËĪÉĳ":1000,"pËĪo":1001,"ĠÊĮnËĪÉĳ":1002,"ĠtakÊ²ËĪi":1003,"ktÊ²i":1004,"tsyju":1005,"ĠtÉĶ":1006,"ËĪats":1007,"strËĪÉĳ":1008,"ĠdÊ²ËĪeÉŃÊĮ":1009,"tÊ²ija":1010,"tËĪur":1011,"ĠbÊ²ËĪes":1012,"mÊ²ËĪer":1013,"É¡ut":1014,"fÊ²ËĪe":1015,"nÊĮm":1016,"ĠdruÉ¡Ê²ËĪi":1017,"rËĪÉĽ":1018,"ĠbËĪoÉŃ":1019,"Ġ201":1020,"Ġsa":1021,"vËĪÉĳtÊ²":1022,"ĠjÉªjËĪe":1023,"ĠsÉŃÊ²ËĪedu":1024,"nÊĮf":1025,"ĠkËĪÉĳÊĴ":1026,"skÊĮvÊĮ":1027,"fkÊ²Éª":1028,"ÊĴËĪÉĽnÊ²ija":1029,"ËĪat":1030,"ĠjËĪÉĽst":1031,"spÊ²ËĪe":1032,"vyjÉª":1033,"ĠtÊĮvËĪo":1034,"ÊĴÉĽ":1035,"xa":1036,"ĠÊĮs":1037,"mÊ²ËĪent":1038,"wÉĶ":1039,"ĠÉªntÊ²":1040,"rÊ²iËĪÉĳ":1041,"Ġpu":1042,"rËĪuk":1043,"juÉķijÉª":1044,"ÉŃkÊĮ":1045,"nÊĮvÊĮ":1046,"ĠËĪÉĽtÊĮvÊĮ":1047,"Įb":1048,"ÊĮb":1049,"zna":1050,"skÊ²ij":1051,"ĠpËĪoÉŃ":1052,"ĠvÊ²ËĪidÊ²i":1053,"znËĪÉĳ":1054,"ĠstËĪo":1055,"krËĪy":1056,"ĠnÊ²iÊĮpxÊĮdÊ²ËĪimÊĮ":1057,"jËĪÉĽ":1058,"ĠkËĪu":1059,"nnym":1060,"ĠprÊ²ËĪi":1061,"nnÊĮja":1062,"ĠÉ¡ËĪoda":1063,"ĠvËĮÉ¨":1064,"ĠsÊ²isÊ²tÊ²ËĪe":1065,"ÉŃÊ²ËĪenÊ²ija":1066,"ĠËĮu":1067,"ntÊĮf":1068,"ranÊ²ËĪi":1069,"stavÉŃÊ²ËĪÉĳ":1070,"Ê²ËĪa":1071,"Â»,":1072,"ĠjÉªÉķËĪe":1073,"ĠvËĪÉĳm":1074,"tÊ²ËĪÉĳ":1075,"ĠÊĮsnÊĮ":1076,"ĠdÊ²ËĪen":1077,"ĠÊĳdÊ²ËĪeÉŃÊĮ":1078,"ĠmËĪÉĶ":1079,"ĠsÉŃËĪo":1080,"ĠvÊĮzmËĪoÊĴnÊĮ":1081,"vËĪÉĳnÊ²ija":1082,"ĠÉĽÉŃÊ²i":1083,"jstvÊ²i":1084,"Ġbu":1085,"juÉķij":1086,"ĠprËĪÉĳvÊ²i":1087,"ĠS":1088,"rÉĶ":1089,"ËĪit":1090,"ĠtËĪom":1091,"ĠbËĮyÉŃÊĮ":1092,"20":1093,"ĠtÊĥÊ²ËĪem":1094,"ĠËĪa":1095,"vyx":1096,"),":1097,"ĠpËĪot":1098,"stvu":1099,"nka":1100,"ĠutÊĥÊ²ËĪÉĳ":1101,"ÉķtÉķi":1102,"ĠbËĪoÉŃÊĥy":1103,"ĠÉ¡ÉŃËĪÉĳ":1104,"Ġzna":1105,"tÊ²iÉŃÊ²ij":1106,"mÊĮt":1107,"rÊ²is":1108,"dnÊ²i":1109,"ĠmÊĮtÊ²i":1110,"kra":1111,"dÊĮm":1112,"Ê²dÊ²ËĪe":1113,"ntÊ²i":1114,"bÊ²ËĪÉĳ":1115,"ĠmËĮoÉ¡ut":1116,"ĠkrÊ²i":1117,"ĠspÊ²itsy":1118,"rËĪup":1119,"tÊĥËĪÉĽ":1120,"ĠdÊĮÉŃ":1121,"Ġ6":1122,"vÊ²ir":1123,"ĠkÊĮtËĪoryj":1124,"ĠfËĪo":1125,"nËĪovÊĮ":1126,"ĠÉĽk":1127,"tsyËĪo":1128,"nnÊĮjÉª":1129,"ĠÊĮsËĪo":1130,"rÊ²iÉª":1131,"strÊĮ":1132,"rÊ²ËĪet":1133,"vÊĮjit":1134,"Ġba":1135,"lËĪi":1136,"É²Ê²ËĪÉĽ":1137,"||":1138,"ktÊĮ":1139,"vÊ²itÊ²":1140,"ĠkËĪÉĳtÊĥÊ²i":1141,"ĠÊĴËĪyÊĳ":1142,"rtÊ²ËĪi":1143,"ËĪÉĽtÊĮ":1144,"zËĪo":1145,"sku":1146,"ĠdËĪÉĳÊĴy":1147,"ĮnËĪÉĳ":1148,"ÊĮnËĪÉĳ":1149,"ÊĴÉ¨":1150,"ÊĴËĪÉĽnÊ²ijÉª":1151,"Éķist":1152,"ĠpÉŃËĪÉĳ":1153,"dÊ²ËĪin":1154,"vÊ²ËĪetst":1155,"nËĪa":1156,"Ġva":1157,"nnÊĮsÊ²tÊ²Éª":1158,"ĠkÊĮmpËĪÉĳ":1159,"ĠprÊĮtsËĪÉĽ":1160,"vÉŃÊ²ËĪenÊ²ijÉª":1161,"prÊĮ":1162,"jn":1163,"dËĪÉĳr":1164,"ĠjavÉŃÊ²ËĪÉĳjitsÊĮ":1165,"ĠËĮÉĽm":1166,"ÉŃÊĮÉ¡ÊĮ":1167,"ĠspÊĮ":1168,"nnÊ²i":1169,"ĠÊĮprÊ²idÊ²i":1170,"kÊĮmÊ²Éª":1171,"jËĪja":1172,"ĠsËĪÉĳmy":1173,"ĠnÊ²ËĪeskÊĮ":1174,"É¨m":1175,"ÉŃtËĪÉĳ":1176,"bËĪu":1177,"É¡rÊĮ":1178,"ĠtËĪy":1179,"tÊ²iÉŃÊ²Éª":1180,"mÊĮÉķ":1181,"juÉķix":1182,"ntsy":1183,"ÊĥËĪÉĽnÊ²ija":1184,"dÊĮf":1185,"ËĪÉĽs":1186,"ĠÊĮbÊ":1187,"ĠÊĮbÊĮ":1188,"ĠkrËĪo":1189,"kÉŃËĪÉĳ":1190,"ËĪup":1191,"ntËĪÉĳ":1192,"bËĪy":1193,"jËĪÉĶ":1194,"vÊĮja":1195,"pÊ²ËĪe":1196,"Åĭk":1197,"ĠpËĪomÊĮÉķ":1198,"fËĪo":1199,"ĠpÊ²ËĪe":1200,"ĠA":1201,"Êĥyj":1202,"bnÊĮ":1203,"ĠtÊ²ËĪem":1204,"ĠsvÊĮjËĪe":1205,"ĠÊĮdnËĪÉĳ":1206,"Ð¾":1207,"on":1208,"Ġ7":1209,"Ġ10":1210,"vrÊ²i":1211,"ĠkrËĪÉĳ":1212,"nÊĥ":1213,"ÉŃnÊĮvÊĮ":1214,"rËĪovÊĮ":1215,"jij":1216,"ĠfsÊ²ivËĪo":1217,"ĠpËĪu":1218,"ĠpÊĮÉŃÊĮ":1219,"tÊĥÊ²iskÊ²ix":1220,"skËĪo":1221,"ĠC":1222,"vËĪa":1223,"Ġvz":1224,"dÊ²Éª":1225,"mÉ¨":1226,"vÊ²ËĪet":1227,"ĠvÊĮprËĪo":1228,"Ġ19":1229,"ÉŃnÊĮj":1230,"ĠmËĪu":1231,"ĠÉŃÊ²ËĪet":1232,"ĠsÊĮz":1233,"ĠprÊ²imÊ²i":1234,"ĠkÉĶ":1235,"ĠvËĪÉĳs":1236,"ÉķÊ":1237,"ÉķÊĮ":1238,"tsyj":1239,"sÊ²tÊ²ËĪÉª":1240,"tr":1241,"Ðµ":1242,"tÊĥÊ²Éª":1243,"ĠdËĪu":1244,"ĠsvÊĮËĪi":1245,"ĠbyÉŃ":1246,"nÊ²ËĪej":1247,"ËĪÉĽtÊĮmu":1248,"mÊ²in":1249,"ĠÊĴËĪÉĽn":1250,"fka":1251,"ĠÊĮbÊ²i":1252,"ĠËĮa":1253,"ĠÉķi":1254,"Ġusta":1255,"tÊĥÊ²nyx":1256,"ĠpÊĮËĪÉĽtÊĮmu":1257,"Ġ|":1258,"bÉŃÊ²i":1259,"ÊĴdu":1260,"ĠdÊĳ":1261,"ĠpÊĮsÉŃÊ²ËĪe":1262,"ĠÉ¡dÊ²ËĪe":1263,"ĠtÊĥÊ²ËĪerÊ²is":1264,"ÊĴa":1265,"ĠvÊĮÊĳ":1266,"ËĪÉĶÉķtÉķi":1267,"Ġnaj":1268,"ĠËĪÉĽtÊĮt":1269,"tÊ²a":1270,"ÉŃnyj":1271,"ĠbËĪu":1272,"sÊĮf":1273,"Ġfs":1274,"bÉŃÊĮ":1275,"prËĪÉĳ":1276,"ĠrabËĪotÊĮ":1277,"ĠtËĪÉ¨":1278,"stra":1279,"ÉŃaÉ¡ËĪÉĳ":1280,"xËĪodÊ²it":1281,"xËĪÉĳ":1282,"tËĪÉĽ":1283,"dÊĳÉĽ":1284,"Ê²ÊĮt":1285,"ĠpÉŃa":1286,"ĠsvÊ²ËĪÉĳ":1287,"nÊ²ËĪÉĳtÊ²":1288,"tÊĥÊ²nyjÉª":1289,"sty":1290,"vÊĮjitsÊĮ":1291,"ĠÐ":1292,"tÊĥÊ²ËĪitÊ²":1293,"ĠrÊ²ËĪe":1294,"ĠmnÊ²ËĪe":1295,"Ġ8":1296,"ĠspËĪo":1297,"vÊĮvÊĮ":1298,"ĠrÊ²iÉ¡Ê²i":1299,"ÊĥkÊ²Éª":1300,"ns":1301,"tÊĥÊ²iskÊ²ijÉª":1302,"ĠP":1303,"skÊ²ix":1304,"jitÊ²i":1305,"ĠÉ¡ËĪÉĽ":1306,"ÉŃÊ²ik":1307,"ĠmËĪa":1308,"ĠdÊĮstËĪÉĳ":1309,"ÉŃÊĮm":1310,"ĠnÊ²ËĪet":1311,"ĠfËĪor":1312,"ĠÉªnfÊĮr":1313,"ËĮÉĳ":1314,"rk":1315,"Ġpra":1316,"ĠM":1317,"xnÊĮ":1318,"tÊĥÊ²ËĪÉĳtÊ²":1319,"ĠdÊĮÉŃÊĴ":1320,"kÊĮx":1321,"Éķij":1322,"ĠÉĽf":1323,"ĠvÊ²ËĪÉĽ":1324,"ĠÉªspËĪoÉŃzu":1325,"ĠprÊĮiz":1326,"ÉŃËĪovÊ²i":1327,"ĠÊĥy":1328,"Ġak":1329,"Ġsm":1330,"bËĪoj":1331,"Ġras":1332,"ÉĽk":1333,"ĠstrËĪÉĳ":1334,"bÊ²irËĪÉĳ":1335,"ĠprÊĮbÉŃÊ²ËĪe":1336,"ÊĴdËĪÉĳ":1337,"É¡ÊĮnÊ²i":1338,"jax":1339,"ĠÊĮsnÊĮv":1340,"ĠsËĪÉĳmÊĮ":1341,"ĠfËĪÉĳ":1342,"ĠsÉŃËĪutÊĥÊ²ÊĮjÉª":1343,"ÉķËĪenÊ²ija":1344,"ĠktËĪur":1345,"ËĪal":1346,"dÊ²ËĪÉĳ":1347,"É¡Ê²ËĪe":1348,"ntÊ²ËĪi":1349,"ĠprËĪostÊĮ":1350,"znÊĮ":1351,"kÊĮvÊĮ":1352,"tÉķÉĽ":1353,"vÊĮrÊ²ËĪi":1354,"ĠÉªspËĪoÉŃzÊĮvÊĮ":1355,"Êĥa":1356,"rÊĮvÊĮtÊ²":1357,"ĠtrËĪÉĳ":1358,"rÊĴËĪÉĳ":1359,"ÉŃËĪoÉ¡Ê²i":1360,"ĠpÊĥËĪÉĽ":1361,"krËĪÉĳ":1362,"ÊĥnÊĮj":1363,"ĠzËĪa":1364,"mnÊĮ":1365,"tÊĥy":1366,"ĠtËĪu":1367,"vÊĮjut":1368,"ÉŃÊ²ËĪenÊ²ijÉª":1369,"rm":1370,"ĠÊĮpÊ²i":1371,"ĠÊĳi":1372,"ĠsÊ²ibÊ²ËĪÉĳ":1373,"ÊĥËĪÉĽnÊ²ijÉª":1374,"kÊ²ij":1375,"ĠÉªstËĪo":1376,"nÊ²ËĪeÊĥ":1377,"ĠmÊ²inÊ²ËĪÉĳ":1378,"ËĪÉĶva":1379,"ĠsÊ²tÊ²ËĪe":1380,"le":1381,"dËĪa":1382,"tÊĥÊ²kÊ²Éª":1383,"tÊĮry":1384,"É¡ËĪu":1385,"ĠÉªzmÊ²i":1386,"strËĪoj":1387,"ĠÉŃÊ²ËĪÉª":1388,"ÊĴyn":1389,"ĠbËĪÉ¨":1390,"ĠÉŃÊĮ":1391,"ÉŃÊ²in":1392,"ĠprÊĮdËĪu":1393,"jimy":1394,"ĠusÉŃËĪovÊ²i":1395,"ĠxÊĮrÊĮ":1396,"ĠsÊĮmÊĮ":1397,"ĠpÊ²ËĪi":1398,"ĠbÊ²isp":1399,"ĠstrÊĮ":1400,"brËĪÉĳ":1401,"tsÉĽ":1402,"mÊ²innÊĮ":1403,"ĠpÊĮja":1404,"tÊĥÊ²nyj":1405,"ĠÉŃÊ²ËĪu":1406,"É¡rËĪÉĳm":1407,"wËĪa":1408,"ĠrÊ²izu":1409,"vÊ²irÊĥ":1410,"ĠÊĮrÉ¡ÊĮnÊ²i":1411,"ĠÊĮtnÊĮ":1412,"tÊĥÉĽ":1413,"Êĥym":1414,"ĠrabËĪoty":1415,"ĠtÊ²ip":1416,"ur":1417,"sÊĮm":1418,"ĠnÊ²ËĪeskÊĮÉŃkÊĮ":1419,"ĠsÊ²tÊ²i":1420,"tÊĥÉ¨":1421,"dÉ¨":1422,"Ġap":1423,"stnÊĮ":1424,"kËĪof":1425,"tÊ²nÊ²i":1426,"nkÊ²Éª":1427,"ĠfsÊ²ËĪex":1428,"ĠkÊĮÉŃÊ²ËĪitÊĥÊ²i":1429,"dËĪÉĳtÊ²":1430,"ĠrÊ²izuÉŃtËĪÉĳ":1431,"ÑĤ":1432,"tÊĥÊ²iskÊĮj":1433,"ÊĳËĪe":1434,"ĠfÊ²ËĪi":1435,"dÊ²":1436,"ĠxËĪo":1437,"ĠÊĮdnÊĮ":1438,"ĠÉŃËĪutÊĥy":1439,"Ð°":1440,"ÉŃnyx":1441,"prÊ²iËĪja":1442,"²ËĮÉĽ":1443,"vÊ²ËĪisÊ²i":1444,"Ê²azËĪÉĳ":1445,"kËĪÉĳzy":1446,"rÊĴy":1447,"ĠÉĽÉŃÊ²ikt":1448,"tsu":1449,"ÊĥÊ":1450,"ÊĥÊĮ":1451,"skÊĮja":1452,"rabËĪo":1453,"dËĪÉĽ":1454,"ÊĮtvÊ²ËĪetst":1455,"rtÊ²i":1456,"kÊ²ix":1457,"ĠdÊĮku":1458,"ĠÉ¡ËĪodu":1459,"ÊĥyvÊĮ":1460,"nÊ²ËĪenÊ²ijÉª":1461,"ĠÊĮdÊ²ËĪin":1462,"ĠnÊ²ËĪekÊĮ":1463,"ĠrÊĮsÊ²sÊ²ËĪiÉª":1464,"ĠrËĪy":1465,"jif":1466,"Ġ0":1467,"bÉ¨":1468,"ĠÊĮsËĪobÊ²i":1469,"ĠbÊ²ËĪi":1470,"vËĪÉĽ":1471,"ËĪaw":1472,"ĠnÊ²ËĪix":1473,"nÉĽj":1474,"rÉĽ":1475,"ĠsËĪÉĶ":1476,"skÊ²ijÉª":1477,"...":1478,"vËĪÉĳnÊ²ijÉª":1479,"ÉŃÊĮf":1480,"dÊ²ËĪej":1481,"Ġupra":1482,"ĠÊĴËĪÉĽnÉķi":1483,"ĠsËĪÉĳj":1484,"ĠjËĪak":1485,"Ð¸":1486,"ĠÉ¡rËĪÉĳ":1487,"ĠsÊĮÊĮtvÊ²ËĪetst":1488,"py":1489,"ĠÉªntÊ²ÉĽ":1490,"ĠsÊĮstÊĮËĪja":1491,"tÊ²ËĪej":1492,"or":1493,"É¡ÊĮtËĪo":1494,"ĠkËĮÉĶ":1495,"nnuju":1496,"ÉŃÉŃÊ²i":1497,"ĠrËĪÉĳs":1498,"ÉŃnyjÉª":1499,"ĠËĪÉĽtÊ²i":1500,"kÊ²ËĪe":1501,"ĠpÊĮs":1502,"spÊ²i":1503,"stÊĮnÊĮ":1504,"âĢ¦":1505,"ÉķijÉª":1506,"ĠÉĶt":1507,"ĠrazvÊ²ËĪi":1508,"ĠktËĪo":1509,"Ġ9":1510,"nËĪÉĽ":1511,"ÉŃÊĮÉ¡Ê²ËĪi":1512,"mÊ²pÊ²i":1513,"tËĪy":1514,"ĠkÊĮnt":1515,"Ġkra":1516,"ĠfÊ":1517,"ĠfÊĮ":1518,"tÊĮtÊĥÊ²nÊĮ":1519,"ĠpÊĮzvÊĮ":1520,"ĠT":1521,"mÊĮtrÊ²ËĪe":1522,"zËĪu":1523,"vÊĮnÊ²ija":1524,"ĠbËĮyÉŃÊ²Éª":1525,"Éķu":1526,"ĠspËĪosÊĮ":1527,"ĠvËĪot":1528,"nnÊĮm":1529,"xi":1530,"ĠbÉŃÊĮÉ¡ÊĮ":1531,"ĠbËĮudu":1532,"ĠËĪobÉŃÊĮ":1533,"ĠnatÊĥÊ²ËĪÉĳ":1534,"vi":1535,"ĠÉªnfÊĮrmËĪÉĳ":1536,"tÊĥÊ²iskÊĮvÊĮ":1537,"nÊ²im":1538,"ĠtÊ²iÉŃÊ²i":1539,"ÊĥÉª":1540,"ĠÉķitËĪÉĳ":1541,"ras":1542,"Ġdla":1543,"tÊĥÊ²iskÊ²Éª":1544,"ĠmÊĮÉŃÊĮ":1545,"ĠÉ¡a":1546,"ĠÊĮk":1547,"ĠpÉŃÊĮ":1548,"Ð½":1549,"ĠvËĪoz":1550,"ĠprÊĮÉ¡rËĪÉĳm":1551,"ĠB":1552,"ĠÊĳdÊ²ËĪeÉŃÊĮtÊ²":1553,"parËĪÉĳ":1554,"ĠvnÊ²imËĪÉĳ":1555,"Ġar":1556,"wËĪÉĶ":1557,"ĠmnËĪoÉ¡ÊĮ":1558,"ĠÊĮÉ¡":1559,"ĠprÊ²itÊĥÊ²ËĪi":1560,"dÊ²ËĪeÉŃ":1561,"dÊ²itsÊĮ":1562,"ĠtÊ²ir":1563,"ĠÉ¡ÊĮtËĪo":1564,"jimÊĮ":1565,"kÊ²ijÉª":1566,"ĠpÊĮt":1567,"ĠprÊ²idÊĮ":1568,"ĠsÊĮÊĮp":1569,"ĠprÊĮvÊĮ":1570,"ĠvysËĪo":1571,"ËĪÉĶvÉĽ":1572,"vËĪyjÉª":1573,"skÊĮm":1574,"ĠmnËĪoÉ¡Ê²i":1575,"ĠsÊĮstËĪÉĳ":1576,"sudËĪÉĳr":1577,"ĠÊĮbËĪy":1578,"ĠËĪÉĽtÊĮj":1579,"ĠËĪurÊĮ":1580,"ĠdÉĶ":1581,"ĠÊĮnÉŃËĪÉĳ":1582,"ĠsÊĮÉ¡":1583,"stvÊĮm":1584,"ĠnÊĮtÊĥÊ²i":1585,"ĠpÊĥËĮÉĽ":1586,"ĠÊĮdnËĪÉĳkÊĮ":1587,"kËĪoj":1588,"tÊ²ir":1589,"Êĥka":1590,"zËĪÉĳtsyÉª":1591,"ĠrÊ²ikÊĮ":1592,"âĢĿ":1593,"tsÉ¨":1594,"ĠkÊĮr":1595,"ĠustanËĪo":1596,"ĠkakÊ²ËĪi":1597,"tÊ²Ê":1598,"tÊ²ÊĮ":1599,"ĠsrËĪo":1600,"ĠbÊ²ispÉŃËĪÉĳ":1601,"ĠprÊĮjËĪe":1602,"ĠtÊ²ËĪi":1603,"ĠstÊĮËĪit":1604,"ĠI":1605,"ËĪÉĶr":1606,"mÊ²inÊ²Éª":1607,"kËĪom":1608,"ĠÊĮsta":1609,"dÊ²irÊĴËĪÉĳ":1610,"ÊĳËĪÉĳ":1611,"ĠdÊ²ËĪejstvÊ²i":1612,"ktÊ²ËĪivnÊĮ":1613,"ĠkÉŃÊ²i":1614,"tra":1615,"ĠsvËĪoj":1616,"nËĪÉĽÉ¡ÉĶ":1617,"bstvÊ²i":1618,"ĠpÊ²ir":1619,"pËĪu":1620,"dÊ²ËĪitÊ²":1621,"lu":1622,"jËĪÉĶnts":1623,"ĠÊĮstËĪÉĳ":1624,"ĠÊĮbjjËĪe":1625,"nÉ¨m":1626,"ĠÉ¡ÊĮsudËĪÉĳr":1627,"ĠutÊĥÊ²ËĪe":1628,"nËĪyjÉª":1629,"ĠdËĮÉĶ":1630,"tka":1631,"strÊ²ËĪe":1632,"nst":1633,"dÊĳËĪÉĽ":1634,"vÊ²ËĪerÊ²i":1635,"tÊ²ijÉª":1636,"nÊ²ËĪiz":1637,"ÊĥÉĽ":1638,"Ê²ËĪÉĶ":1639,"zÊĮm":1640,"ÊĴdÊ²ËĪenÊ²ija":1641,"ĠsËĪobstvÊ²i":1642,"ĠÊĮdÊ²dÊ²ËĪe":1643,"nÊ²ikËĪÉĳ":1644,"ĠftÊĮ":1645,"ĠtËĪa":1646,"tÉ¨":1647,"Ġtru":1648,"ËĪÉ¨tÊĥ":1649,"ksÊ²i":1650,"ÉŃËĪy":1651,"aÉŃÊ²ËĪi":1652,"ĠkÊĮtËĪorÊĮja":1653,"Ġ15":1654,"ĠsÉŃÊĮ":1655,"imÊĮ":1656,"ĠvÊĮrÊ²iËĪÉĳ":1657,"vra":1658,"ĠpÊĮmÊ²i":1659,"nnymÊ²Éª":1660,"nÊ²ika":1661,"prÊ²imÊ²ËĪer":1662,"ĠËĪÉªmÊ²innÊĮ":1663,"ĠkËĪÉĳtÊĥÊ²istvÊ²i":1664,"ĠÊĴËĪyÊĳnÊ²Éª":1665,"ĠnËĮa":1666,"ĠÉŃËĪo":1667,"ĠmËĮoÊĴytÊ²i":1668,"ĠbyÉŃËĪÉĳ":1669,"pËĪÉĽ":1670,"ĠvÊ²ËĪer":1671,"Ġukra":1672,"tÊĥÊ²iskÊ²ij":1673,"Ġfa":1674,"ĠÊĮtkrËĪy":1675,"Êĥyx":1676,"ĠtÊĥÊ²a":1677,"kËĪa":1678,"ĠsÉŃÊ²ËĪedujit":1679,"stËĪa":1680,"ĠÉªsk":1681,"tÊĮr":1682,"ĠaftÊĮmÊĮ":1683,"zyvËĪÉĳ":1684,"xËĪod":1685,"pr":1686,"vÉĶ":1687,"ĠnÊ²idÊĮ":1688,"Ġ200":1689,"ĠrÊ²ibÊ²ËĪe":1690,"ĠÉªmÊ²ËĪejit":1691,"ĠËĪÉĽtÊ²Éª":1692,"Ġstra":1693,"ĠÊĮnÉŃËĪÉĳjn":1694,"vrÊ²imÊ²ËĪe":1695,"ĠÊĳdÊ²ËĪesÊ²":1696,"ĠbËĮudut":1697,"ĠrËĪÉĳz":1698,"kta":1699,"ĠzakËĪo":1700,"it":1701,"ĠrÊĮsp":1702,"mÊ²inËĪÉĳ":1703,"ĠfsÊ²iÉ¡dËĪÉĳ":1704,"ĠmÊ²ËĪeÊĴdu":1705,"ĠnÊ²ËĪekÊĮtÊĮry":1706,"ĠtÊ²ËĪex":1707,"Ġtr":1708,"ĠuvÊ²i":1709,"Ġtu":1710,"fa":1711,"ĠrÉĶ":1712,"ski":1713,"vËĪodnÊ²ÊĮ":1714,"ĠtrÊ²i":1715,"É¡rËĪu":1716,"ÉķËĪenÊ²ijÉª":1717,"ĠnÊĮtÊĥÊ²inËĪÉĳ":1718,"nty":1719,"ĠpÉŃËĪo":1720,"ĠËĪobrÊĮ":1721,"ĠÉªntÊ²ÉĽrÊ²ËĪe":1722,"Ġkva":1723,"ĠnËĪÉĳs":1724,"tÊĮk":1725,"lËĪa":1726,"pÊ²ËĪitÊ²":1727,"ĠzÊĮbÊĮ":1728,"Êĥu":1729,"xu":1730,"dÊ²ËĪet":1731,"vuju":1732,"ĠÊĮbÊ²ispÊ²ËĪe":1733,"ĠpÊ²irÊ²ËĪet":1734,"ĠÉŃËĪÉĳ":1735,"ĠtÊĥÊ²ËĪu":1736,"ĠmÊ²ËĪesÊ²ÊĮ":1737,"ĠtakËĪoj":1738,"tÊ²ËĪem":1739,"ĠspÊĮsËĪo":1740,"dÊĮrËĪo":1741,"nnÊĮstÊ²":1742,"ĠÊĴyÉŃËĪÉĳ":1743,"ssa":1744,"ĠÉ¡rËĪup":1745,"ĠtsvÊ²i":1746,"ĠbËĪÉĽ":1747,"ssÊĮ":1748,"om":1749,"ĠzavÊ²ËĪisÊ²i":1750,"ĠsÊ²ivËĪodnÊ²ÊĮ":1751,"ĠD":1752,"ĠkËĪÉĳÊĴdy":1753,"trËĪÉĳ":1754,"ÊĥËĪÉ¨":1755,"ktsyÉª":1756,"lËĪÉĶ":1757,"ĠnÊ²ËĪÉª":1758,"ĠrÊĮsÊ²sÊ²ËĪij":1759,"bËĪor":1760,"\".":1761,"tÊĥÊ²ËĪÉĳjitsÊĮ":1762,"ĠkÊĮtËĪoryx":1763,"\",":1764,"Ġfu":1765,"pÉŃÊĮ":1766,"ĠpÊĮkËĪÉĳ":1767,"tkÊ²i":1768,"ĠfkÉŃÊ²u":1769,"juÉķim":1770,"ĠrazÉŃÊ²ËĪi":1771,"ĠvÊĮsp":1772,"ĠprÊ²ËĪe":1773,"nÊĥy":1774,"ĠrËĪÉĶ":1775,"tp":1776,"ĠbÊĮÉŃÊĥËĪo":1777,"ĠG":1778,"vËĪyx":1779,"ĠÊĮbÊ²ispÊ²ËĪetÊĥÊ²i":1780,"ĠrÊ²ikÊĮmÊ²in":1781,"tsËĪo":1782,"ĠzÊĮja":1783,"ĠpÊĮmËĪo":1784,"ĠdÊĮpÊĮÉŃ":1785,"ĠvËĪybÊĮ":1786,"ĠËĮÉĽs":1787,"re":1788,"ĠfËĪotÊĮ":1789,"nÊ²ikÊ²Éª":1790,"nku":1791,"he":1792,"tÊĥÊ²nÊĮvÊĮ":1793,"ĠÊĮbÊ²azËĪÉĳ":1794,"fËĪÉĶ":1795,"ÊĳdÊ²ËĪe":1796,"vym":1797,"ĠpÊĮzvÊĮÉŃÊ²ËĪÉĳ":1798,"vËĪor":1799,"ĠpÊĮsÉŃÊ²ËĪed":1800,"trËĪu":1801,"ÊĥyjÉª":1802,"ĠkËĪÉĶ":1803,"ĠtÊĥÊ²iÉŃÊĮvÊ²ËĪek":1804,"ĠÉ¡ÊĮvÊĮrÊ²ËĪi":1805,"ĠdruÉ¡ËĪo":1806,"ĠaftÊĮmÊĮbÊ²ËĪi":1807,"sÉŃÊĮ":1808,"kËĪÉĳn":1809,"vÊĮm":1810,"Ġska":1811,"ĠÉªÉ¡rËĪÉĳ":1812,"ĠÉĽkÊĮ":1813,"ntu":1814,"ĠpÊĮdÊĮ":1815,"ÊĴÉª":1816,"vÊ²a":1817,"ĠÊĮts":1818,"ĠÉŃÊ²ËĪiÊĥ":1819,"ĠR":1820,"bra":1821,"rÊ²id":1822,"ĠzÊĮbÊĮÉŃÊ²i":1823,"ÉŃnÊĮja":1824,"ĠskazËĪÉĳ":1825,"Ġuda":1826,"tÊĥÊ²ËĪÉĳs":1827,"Ġ,":1828,"ĠÉªÉ¡rÊĮ":1829,"zÊĮvÊĮtÊ²":1830,"ĠfÊĮr":1831,"ĠËĪobÉŃÊĮsÊ²tÊ²Éª":1832,"ÑĢ":1833,"nÊĮk":1834,"ntÉĽr":1835,"dÊĮÉŃ":1836,"ĠkÊĮmÊ²":1837,"ÊĴu":1838,"ĠtÊĮvËĪÉĳ":1839,"lÉĶ":1840,"ĠÉªspËĪoÉŃzÊĮvÊĮtÊ²":1841,"ĠnÊĮprÊ²imÊ²ËĪer":1842,"fÊ²ËĪi":1843,"Ġâ":1844,"ĠÉªntÊ²ÉĽr":1845,"ĠF":1846,"rÉ¨":1847,"ĠdruÉ¡Ê²ËĪix":1848,"kÊ²ÉĽ":1849,"strËĪuk":1850,"Ġad":1851,"ÉķÊĮja":1852,"ĠÉ²":1853,"tÊ²iÉŃnyjÉª":1854,"ĠtsËĪÉĶ":1855,"ĠpËĪoÉŃzÊĮvÊĮ":1856,"mÉĶ":1857,"ĠtÊĥÊ²ËĪÉĳstÊĮ":1858,"nËĪyx":1859,"mËĪy":1860,"ratËĪu":1861,"É²Ê²u":1862,"tÊ²ËĪitÊ²":1863,"jtÊĥÊ²ËĪÉĳs":1864,"rÊ²ija":1865,"fÉĶ":1866,"jidÊ²i":1867,"ĠpÊĮkazËĪÉĳ":1868,"kËĪÉĶ":1869,"tÊ²ËĪiv":1870,"ĠdÊ²ËĪevu":1871,"ĠËĮi":1872,"ĠxÊĮrËĪo":1873,"tÊ²iÉŃnyx":1874,"ÊĴyt":1875,"ntÊĮ":1876,"tuËĪÉĳ":1877,"ĠrÊĮs":1878,"ĠkrÊĮ":1879,"ndÊ²i":1880,"É¡ry":1881,"Ġvra":1882,"ĠËĪÉªm":1883,"tÊĥÊ²ËĪÉĳjit":1884,"10":1885,"ĠprÉĶ":1886,"Ð»":1887,"ĠrÊ²ËĪi":1888,"rÊ²iËĪÉĳÉŃ":1889,"stËĪoj":1890,"ĠdËĮÉĽ":1891,"Ġ.":1892,"ÉŃnÊĮjÉª":1893,"wÉ¨":1894,"ĠsÊ²ijtÊĥÊ²ËĪÉĳs":1895,"ĠÉ¡rËĪu":1896,"ĠvrÊ²ËĪemÊ²inÊ²Éª":1897,"ĠusÉŃËĪu":1898,"ĠW":1899,"ĠnÊ²ivËĪo":1900,"ĠdvËĪÉĳ":1901,"at":1902,"ĠL":1903,"ĠtsËĪÉĽnt":1904,"jjÉª":1905,"ĠÉķËĪe":1906,"ĠnÊĮi":1907,"nda":1908,"tÊĥÊ²it":1909,"trÊĮ":1910,"ĠvÊ²ËĪidÊ²iÊ":1911,"ĠvÊ²ËĪidÊ²iÊĮ":1912,"sËĪy":1913,"nÊ²ËĪitÊ²":1914,"Ġ12":1915,"ĠrÊĮspÊĮ":1916,"ÉŃÊ²im":1917,"dÉĽ":1918,"ĠtÊĮr":1919,"ĠtÊĥÊ²iÉŃÊĮvÊ²ËĪeka":1920,"rËĪod":1921,"bÉŃÊ²u":1922,"sÊ²tÊ²ij":1923,"ĠkÉŃËĪÉĳ":1924,"ĠËĪju":1925,"sÉŃËĪo":1926,"Ġtra":1927,"ĠÊĥËĪÉĳ":1928,"ĠrazmÊ²ËĪe":1929,"stavÉŃÊ²ËĪÉĳjit":1930,"ĠËĪod":1931,"Ġzd":1932,"mÊ²ir":1933,"tÉĶ":1934,"ĠtrÊ²ËĪebu":1935,"kuf":1936,"ĠsmÊ²ËĪe":1937,"ÊĴdÊ²i":1938,"ĠtÉķ":1939,"bjÉĽ":1940,"ÊĳnÉĽ":1941,"Ð¼":1942,"ĠvÉŃa":1943,"ĠvÊ²ir":1944,"ĠpÊ²irÊ²ËĪi":1945,"ĠpËĪomÊĮÉķjju":1946,"ĠstÊĮrËĪo":1947,"mÊ²ËĪenty":1948,"ĠprÊĮtÊ²i":1949,"ĠjËĪa":1950,"tÊĥÊ²ËĪu":1951,"nÊĮx":1952,"xÊĮdÊ²ËĪÉĳ":1953,"Ê²ËĮÉĽ":1954,"ssÉŃÊ²ËĪe":1955,"rËĪÉĽf":1956,"ĠvypÊĮÉŃ":1957,"ĠspÊ²ËĪi":1958,"ĠmÊ²inËĪu":1959,"sÉŃËĪu":1960,"ĠsÊ²ËĪer":1961,"ĠpÊĮÉŃÊ²i":1962,"É¡ËĪÉĽ":1963,"tÊ²iÉŃstva":1964,"jËĪju":1965,"vÊ²ÉĽ":1966,"000":1967,"ar":1968,"ĠsÊ²ËĪebÊ²i":1969,"Ġju":1970,"Ê²ÉĶ":1971,"Éķim":1972,"ĠzamÊ²ËĪe":1973,"fku":1974,"bÊĮÉŃ":1975,"ĠtakÊ²ËĪijÉª":1976,"wËĪu":1977,"ĠmÊĮsk":1978,"ktÊĮf":1979,"ĠtrÊĮ":1980,"ĠÊĮrÉ¡a":1981,"tnyx":1982,"ĠvmÊ²ËĪe":1983,"ĠtËĮÉĽ":1984,"kty":1985,"ĠmuÉķËĪi":1986,"vÉŃÊ²ËĪÉĳjutsÊĮ":1987,"ĠprÊĮfÊ²i":1988,"ĠsÊĮvÊ²ËĪe":1989,"ĠukraËĪi":1990,"vÊ²itsÊĮ":1991,"ËĪÉĶvÉ¨x":1992,"ĠpËĮÉĽ":1993,"tÊ²ÉĽ":1994,"ĠdruÉ¡Ê²ËĪijÉª":1995,"ĠdÊĮstËĪÉĳtÊĮtÊĥÊ²nÊĮ":1996,"tsyÊĮnËĪÉĳ":1997,"ktÊ²ËĪiv":1998,"mËĪuÉķi":1999,"ĠtÊĥÊ²ËĪi":2000,"vÉĽ":2001,"ĠvËĪÉĳÊĴnÊĮ":2002,"ĠsÊĮvÊ²irÊĥ":2003,"ĠjÉªmËĪu":2004,"ĠkËĮÉĳ":2005,"stru":2006,"ĠprÊĮizvËĪod":2007,"vÊ²idÊ²ËĪenÊ²ija":2008,"dËĪÉĳnÊ²ija":2009,"il":2010,"tnyjÉª":2011,"nËĪom":2012,"ro":2013,"jËĪo":2014,"ĠmÊ²ËĪÉĽ":2015,"ĠmÊ²ËĪestÊĮ":2016,"ĠkËĪÉĳÊĴdyj":2017,"ĠH":2018,"ĠkÊĮÉŃÊ²ËĪitÊĥÊ²istvÊĮ":2019,"brÊ²ËĪÉĳ":2020,"kÊ²ËĪÉª":2021,"ĠpÊĥÉ¨":2022,"tÊĥa":2023,"ĠÉ²Ê²ËĮÉĽ":2024,"ĠdÊĮÉŃÊĴnËĪy":2025,"dÊĳi":2026,"jËĪa":2027,"rÊĮzÊĮ":2028,"vÊ²in":2029,"zd":2030,"É¡ra":2031,"ĠkrËĪomÊ²i":2032,"ĠmÊĮtÊ²irÊ²iËĪÉĳ":2033,"rËĪoj":2034,"pÉĶ":2035,"ĠsvÊĮËĪÉª":2036,"tsËĪÉĳ":2037,"ĠsÊ²ituËĪÉĳ":2038,"bËĪÉĽ":2039,"tÊĥÊ²ik":2040,"ĠprÊ²ijËĪe":2041,"kËĪÉĳzÊĮ":2042,"ËĪatsji":2043,"ĠkÊĮmpËĪÉĳnÊ²iÉª":2044,"ĠsvÊĮËĪju":2045,"Éķix":2046,"ĠÉªzvÊ²ËĪe":2047,"É²tÉķ":2048,"ÉķivÊĮ":2049,"É¡aÊĳËĪi":2050,"ĠdÊĮpÊĮÉŃnÊ²ËĪi":2051,"ÊĴËĪÉ¨":2052,"tÊĥËĪÉ¨":2053,"ĮÉŃÊ²i":2054,"ÊĮÉŃÊ²i":2055,"ĠsvÊĮjËĪej":2056,"puÉŃÊ²ËĪÉĳ":2057,"ÉŃÊ²ËĪitÊ²":2058,"ĠprÊ²iparËĪÉĳ":2059,"matÊ²ËĪi":2060,"Ġ18":2061,"ĠrËĮÉĽ":2062,"ĠbÊ²izÊĮ":2063,"tÊ²iÉŃnÊĮsÊ²tÊ²Éª":2064,"rta":2065,"ic":2066,"ĠdËĪoma":2067,"is":2068,"ĠpÊĮdÊ²dÊ²ËĪe":2069,"ĠdÊ²itÊ²ËĪej":2070,"ĠÊĮbrÊĮzÊĮ":2071,"ĠdrËĪu":2072,"krÊ²i":2073,"ĠprÊ²imÊ²ËĪe":2074,"ĠËĮÉĶras":2075,"vnÊ²i":2076,"ĠstatÊ²":2077,"ĠkrÊ²idÊ²ËĪi":2078,"ĠvÉŃËĪÉĳ":2079,"ĠdËĪoÉŃÊĴyn":2080,"tvÊ²i":2081,"rÊ²in":2082,"ssÉŃÊ²ËĪedÊĮvÊĮ":2083,"ĠtÊĥÉ¨":2084,"jËĪet":2085,"ĠprÊĮis":2086,"ĠprÊ²idsta":2087,"ĠxÊĮtÊ²ËĪÉĳ":2088,"ĠÊĮsu":2089,"Ġ30":2090,"ĠsÊĮtrËĪu":2091,"mËĪotrÊ²i":2092,"ËĪÉĶvÉ¨":2093,"ĠkÊĮÉŃ":2094,"ĠpÊĮÉŃËĪu":2095,"ĠbrËĪÉĳ":2096,"ĠËĮÉĽrËĪÉĽf":2097,"ĠrÊ²ËĪÉĳ":2098,"ĠÊĮsËĪobÊ²innÊĮ":2099,"ĠE":2100,"zdÊĮ":2101,"ĠprÊ²iÊĮb":2102,"tÊĥÊ²itËĪÉĳ":2103,"ĠbÊ²ispÉŃËĪÉĳtnÊĮ":2104,"ĠdÊĳËĪÉĽ":2105,"ÉŃËĪoÊĴy":2106,"ĠsvÊ²i":2107,"stÊĮf":2108,"Ê²ÊĮtsÊĮ":2109,"stËĪu":2110,"ĠÉªnÊĮ":2111,"rÊ²ËĪenÊ²ija":2112,"ĠzÊĮnÊ²imËĪÉĳ":2113,"ĠpÊĮvÊ²ËĪer":2114,"ĠbËĪystrÊĮ":2115,"ÊĴnyx":2116,"ĠpËĪÉĽ":2117,"ĠjÉªv":2118,"ĠÊĮtmÊ²ËĪe":2119,"ĠËĪÉĽm":2120,"dÊ²irËĪÉĳ":2121,"ĠpÊĮÉŃutÊĥÊ²ËĪitÊ²":2122,"mÊĮsÊ²tÊ²Éª":2123,"ĠknÊ²ËĪi":2124,"dËĪy":2125,"Ġc":2126,"ĠÉ¡ËĪot":2127,"ĠÉŃËĪutÊĥÊ²":2128,"ĠpÊĥÉĽ":2129,"tÊ²iÉŃnyj":2130,"nkÊ²i":2131,"Ê²ËĪerÉª":2132,"tÊ²iÉŃnÊĮj":2133,"ĠvËĪybrÊĮ":2134,"ĠsËĪum":2135,"fÊ²itsy":2136,"ĠbÊ²ËĪiÊĳnÉĽ":2137,"ĠsÊĮvrÊ²imÊ²ËĪe":2138,"ĠpÊĮstÊĮËĪja":2139,"rs":2140,"bÉŃÊ²ËĪej":2141,"ĠvÊĮzmËĪoÊĴnÊĮstÊ²":2142,"ĠfËĪu":2143,"ĠÊĮbÉŃa":2144,"ĠsuÉķist":2145,"Ñģ":2146,"ĠdÊ²ËĪeja":2147,"ĠN":2148,"ĠxÊĮrÊĮÊĥËĪo":2149,"kÊĮÉŃÊĮ":2150,"mÊ²ËĪentÊĮf":2151,"strÊ²i":2152,"rmËĪÉĳ":2153,"ĠÉĽksp":2154,"ĠtrËĪu":2155,"stup":2156,"ĠmÊ²idÊ²i":2157,"ĠrËĪus":2158,"tÊĮmËĪu":2159,"ĠtËĪÉĳm":2160,"skuju":2161,"ĠnÊĮstÊĮËĪja":2162,"nÊ²ËĪeÊĥnÊĮ":2163,"rËĪot":2164,"ĠËĪÉĳftÊĮ":2165,"vÊ²isÊ²tÊ²ËĪÉª":2166,"ĠsvÊĮji":2167,"ĠuspÊ²ËĪe":2168,"ĠtÊ²iÉŃÊ²ifËĪo":2169,"ĠÉ²ËĪi":2170,"ĠdÊĮrËĪo":2171,"ĠnÊ²ibÊĮÉŃ":2172,"ĠbÊĮÉŃÊ²ËĪe":2173,"Ġxa":2174,"ĠÊĮrÉ¡anÊ²ËĪiz":2175,"ĠpÊĮtÊĮmËĪu":2176,"ĠtÊ²ipÊ²ËĪerÉª":2177,"ÊĳinËĪo":2178,"ĠsÉŃÊ²ËĪi":2179,"fËĪor":2180,"ĠsÊ²isÊ²tÊ²ËĪemy":2181,"tsyf":2182,"ĠzatÊ²ËĪem":2183,"ĠÉĽffÊ²i":2184,"ĠsrËĪÉĳ":2185,"fÊ":2186,"ĠÉ¡ËĪÉĳ":2187,"É¡ÊĮm":2188,"ĠrËĪa":2189,"ĠzaÉķËĪi":2190,"ĠdÊĮbËĪÉĳ":2191,"ĠkvartÊ²ËĪi":2192,"mÊĮtrÊ²ËĪetÊ²":2193,"es":2194,"ĠpÊĥËĪÉĽs":2195,"xËĪot":2196,"ntÊĮm":2197,"ĠdÉŃÊ²ËĪi":2198,"vËĪovÊĮ":2199,"iz":2200,"Ġrass":2201,"ĠzdÊĮrËĪo":2202,"tnyj":2203,"ĠÊĮrÉ¡ËĪÉĳ":2204,"rËĪom":2205,"ĠsvÊ²ËĪe":2206,"stËĪup":2207,"ĠËĪobrÊĮzÊĮm":2208,"ĠzÊĮmÊ²i":2209,"ĠskÊĮ":2210,"ĠpÊĮpuÉŃÊ²ËĪÉĳ":2211,"ĠrasÊ²tÊ²ËĪe":2212,"ĠanËĪÉĳ":2213,"ĠbÊ²irÊ²ËĪe":2214,"201":2215,"ĠpÊĮÉŃÊ²ËĪe":2216,"ĠpÊĮsÊ²i":2217,"ĠsÊĮdÊ²irÊĴËĪÉĳ":2218,"ÊĳÉª":2219,"Ġh":2220,"wu":2221,"en":2222,"tÊĥÊ²ivÊĮ":2223,"ĠvnËĪu":2224,"ĠvnÊ²imËĪÉĳnÊ²ijÉª":2225,"tÊ²in":2226,"ÉŃkÊ²Éª":2227,"tÊ²iÉŃnÊĮvÊĮ":2228,"ĠËĮ":2229,"tÊĥÊ²ka":2230,"ĠsmËĮo":2231,"kÊĮja":2232,"ĠÉŃÊ²ËĪibÊĮ":2233,"ĠdvÊ²i":2234,"ĠtÊ²imÊ²pÊ²i":2235,"ĠnÊ²ikÊĮ":2236,"ĠdÊ²ËĪeÉŃÊĮtÊ²":2237,"ĠprÊ²idÉŃaÉ¡ËĪÉĳ":2238,"ĠstËĪoimÊĮ":2239,"ĠrubÉŃÊ²ËĪej":2240,"tÊ²ij":2241,"ĠrajËĪo":2242,"rÊ²ij":2243,"rËĪoda":2244,"rav":2245,"ĠmÊ²ËĪÉĳ":2246,"ĠmÊĮtÊ²irÊ²iËĪÉĳÉŃ":2247,"ĠbÊ²izÊĮpËĪÉĳ":2248,"nÊ²itsy":2249,"ĠprÊĮdÊĮÉŃ":2250,"ĠvÊ²ËĪetÊ²":2251,"ĠprÊ²idÊ²ËĪe":2252,"ĠsÊĮtrËĪudnÊ²i":2253,"ÊĴnyjÉª":2254,"rÉ¡Ê²i":2255,"mÊĮf":2256,"ĠnaÉŃÊ²ËĪitÊĥÊ²i":2257,"vÊ²ËĪitÊ²":2258,"ĠnadÊ²ËĪe":2259,"ĠkrÊ²ËĪe":2260,"krÊĮ":2261,"et":2262,"ĠfÊ²idÊ²irËĪÉĳ":2263,"fÊĮ":2264,"ĠtÊĥÊ²ËĪÉĳstÊ²":2265,"sÉŃa":2266,"nÊ²ikÊĮf":2267,"ĠprÊ²idstËĪÉĳ":2268,"ĠdÊ²ËĪenÉ¡Ê²Éª":2269,"ĠrÊĮdÊ²ËĪi":2270,"vËĪÉĳja":2271,"ĠËĪÉªszËĪÉĳ":2272,"ĠmÊ²irÊĮ":2273,"Ġfsp":2274,"ĠprÊ²idpÊĮ":2275,"Ġdu":2276,"ĠzÊĮkÉŃÊ²u":2277,"ok":2278,"vÊ²ËĪÉĽ":2279,"ĠsÊĮtsy":2280,"Ġw":2281,"ĠnÊĮru":2282,"ĠpÊĮÉŃutÊĥÊ²ËĪi":2283,"ĠnËĪÉĳdÊĮ":2284,"tsyjij":2285,"mÊĮj":2286,"rËĪof":2287,"ÉŃËĪok":2288,"ÊĳdÊ²i":2289,"vÊ²Éª":2290,"ËĪÉ¨j":2291,"ĠkÉŃÊ²ijËĪe":2292,"tËĪÉĳÉŃ":2293,"ĠkÊĮtËĪorÊĮj":2294,"ĠuÉ¡":2295,"vÊ²ËĪidÊ²i":2296,"ĠsuÉķistvËĪu":2297,"nÊ²u":2298,"nÊ²it":2299,"ĠprÊ²inÊ²imËĪÉĳ":2300,"stËĪÉĽ":2301,"ĠsÊĮx":2302,"ĠudÊĮ":2303,"stupËĪÉĳ":2304,"ĠspÊ²itsyaÉŃÊ²ËĪi":2305,"Ġnu":2306,"ĠÊĮsuÉķist":2307,"ĠkËĪÉĳr":2308,"ĠmaÊĥËĪy":2309,"ĠprËĮÉĶ":2310,"tÊ²isÊ²":2311,"ĠÉ¡ÊĮsudËĪÉĳrstvÊ²i":2312,"ĠÊĮsnËĪo":2313,"ĠudËĪo":2314,"ĠpÊĮdËĪo":2315,"jtÊ²ËĪÉª":2316,"ĠÊĮbËĪytÊĥÊ²nÊĮ":2317,"Ġnaz":2318,"ĠnËĪÉĳm":2319,"stËĪy":2320,"ËĪÉĽn":2321,"Ġpar":2322,"tÊĥÊ²iskÊĮja":2323,"ĠsÊ²tÊ²ËĪi":2324,"ĠkupÊ²ËĪitÊ²":2325,"ĠpÊ²itËĪÉĳ":2326,"ĠrÊ²ikÊĮmÊ²indËĪu":2327,"ĠzadËĪÉĳ":2328,"ËĪjut":2329,"ĠpËĪoÉŃnÊĮ":2330,"tstvÊ²i":2331,"ĠtrÊ²ËĪebÊĮ":2332,"ĠrÊ²iÊĥËĪy":2333,"ĠpËĪornÊĮ":2334,"nÊĮmÊ²Éª":2335,"juÉķivÊĮ":2336,"ĠpÊĮmÊĮ":2337,"ĠpÊĮvÊ²ËĪerxnÊĮ":2338,"ĠkÊĮÊĳinËĪo":2339,"ĠstrÊĮËĪi":2340,"ĠmÊ²itËĪo":2341,"vËĪi":2342,"ĠpÊĮrÊ²ËĪÉĳ":2343,"ĠprÊĮizvÊĮ":2344,"rujit":2345,"ĠkÊ²ËĪi":2346,"ĠsrËĪÉĳzu":2347,"ĠÉªssÉŃÊ²ËĪedÊĮvÊĮ":2348,"ĠtakÊ²ËĪim":2349,"tvÊ²irÊĴ":2350,"ĠmËĪÉĶÊĴÉĽ":2351,"tÊĥËĪÉĶ":2352,"ĠsvÊ²ËĪÉĳzÊĮ":2353,"tÊĮj":2354,"ĠrËĮÉĶ":2355,"ĠÉªzÊĮ":2356,"mÊĮm":2357,"tÊ²iÉŃstvÊĮ":2358,"ĠÊĳËĪe":2359,"ĠtÊĮÉ¡dËĪÉĳ":2360,"ĠrÊ²iÉ¡u":2361,"pÉŃËĪÉĳ":2362,"ĠaÉŃ":2363,"fÊĥyj":2364,"kËĪÉĳr":2365,"vÉ¨":2366,"50":2367,"pÉŃÊ²i":2368,"ĠprÊĮtsy":2369,"ĠfsÊ²ËĪem":2370,"ĠkrasÊ²ËĪi":2371,"ĮÉŃ":2372,"ÊĮÉŃ":2373,"ĠutÊĥÊ²ËĪi":2374,"ĠnaËĪu":2375,"ĠÉķf":2376,"ĠustrËĪoj":2377,"nÊĮja":2378,"ĠskËĪo":2379,"xËĪodÊ²itsÊĮ":2380,"ĠdÊ²irÊ²ËĪe":2381,"ĠdvËĪu":2382,"ÉŃÊ²ija":2383,"ĠÊĮtÊ²ËĪe":2384,"ÊĴËĪÉĽnÊ²iÉª":2385,"ĠfÊ²ËĪiÉŃ":2386,"ĠunÊ²i":2387,"kËĪÉĳmÊ²Éª":2388,"ĠpÊĮÉŃÊ²ËĪi":2389,"tnÊĮj":2390,"ĠprÊĮtsËĪÉĽss":2391,"ĠdËĪÉĽ":2392,"ËĪus":2393,"dÉŃÊ²i":2394,"mnËĪovÊĮ":2395,"rnÊĮvÊĮ":2396,"dËĪÉ¨":2397,"ËĪÉĶvÉĶ":2398,"ĠdnÊ²ËĪej":2399,"ĠdËĪa":2400,"ryvËĪÉĳ":2401,"ĠdÊĮmËĪÉĳ":2402,"ĠtÊ²itÊĥÊ²ËĪenÊ²ijÉª":2403,"ĠpraktÊ²ËĪi":2404,"ĠÊĮbu":2405,"ĠsÊĮbËĪoj":2406,"ĠmÊĮÉ¡":2407,"ĠtÊĥÊ²ivËĪo":2408,"ĠfsÊ²ËĪÉµ":2409,"ĠtËĪÉ¨m":2410,"stvÊ²innÊĮ":2411,"rÊ²idÊ²ËĪÉª":2412,"vÊĮÉŃ":2413,"vÊĮjÉª":2414,"É¡ÊĮtÊĮ":2415,"ndËĪÉĳ":2416,"ĠtakÊ²ËĪix":2417,"ĠÊĮprÊ²idÊ²iÉŃÊ²ËĪe":2418,"ĠtËĪoÊĴy":2419,"É²Ê²ËĪa":2420,"tsji":2421,"ntÉĽrnËĪÉĽ":2422,"kÊĮn":2423,"ĠvnÊ²i":2424,"ĠrÊ²iÉ¡Ê²istrËĪÉĳ":2425,"ĠÊĴËĪÉĳ":2426,"ĠsrÊ²ËĪedstva":2427,"tÊĥÊ²u":2428,"tku":2429,"ĠprÊ²iÊĮbrÊ²i":2430,"an":2431,"dka":2432,"vnÊĮjÉª":2433,"ĠmnËĪoÉ¡Ê²ijÉª":2434,"al":2435,"kËĪup":2436,"ĠbÊĮÉŃÊ²ËĪeÊĳ":2437,"ĠV":2438,"É¡rÊ²ËĪe":2439,"ĠtÊĥËĪÉĽ":2440,"ĠÉ¡ËĮÉĽ":2441,"ĠkÊĮnÊ²ËĪeÊĥnÊĮ":2442,"jasÊ²":2443,"Ġ/":2444,"ĠtÊĥÊ²itËĪÉĳ":2445,"tk":2446,"ĠvÉŃÊ²i":2447,"ĠËĮin":2448,"ĠzËĪÉĽ":2449,"tÊĥÊ²nÊĮja":2450,"ĠtÊ²irrÊ²i":2451,"natÊĥÊ²ËĪÉĳ":2452,"nËĪÉĶÉķtÉķi":2453,"ĠmÊĮÉ¡aÊĳËĪi":2454,"kËĪoÉŃ":2455,"stvÊ²ËĪi":2456,"ËĪardÊĳ":2457,"ĠÊĮtÉŃÊ²ËĪi":2458,"ĠÉ¡ÉŃa":2459,"ÊĴËĪÉĳtÊ²":2460,"ktËĪo":2461,"ĠtakËĪojÉª":2462,"ĠvÊĮs":2463,"ĠÊĮpÊ²irËĪÉĳ":2464,"ĠvÊĮprËĪos":2465,"ĠtËĪak":2466,"ĠpÊĮdrËĪo":2467,"ĠpÊĮdÉ¡ÊĮtËĪo":2468,"vÊĮjutsÊĮ":2469,"ĠËĪopy":2470,"Ġ11":2471,"nsÊĮ":2472,"dÊĳËĪi":2473,"ĠpÊĮtÊĥÊ²i":2474,"ĠkËĪa":2475,"ĠnÊĮvÊĮ":2476,"ËĪÉĶvatÉķ":2477,"ĠËĪÉĽtÊ²ix":2478,"tÊ²iÉŃnÊĮstÊ²":2479,"ĠprÊ²idu":2480,"ĠÉŃ":2481,"ed":2482,"ĠkakÊ²ËĪijÉª":2483,"tÊĥÊ²nym":2484,"ËĮÉĽs":2485,"ĠpÊĮra":2486,"tsËĪÉĽp":2487,"ĠÉ¡ÊĮr":2488,"rÊ²idÊ²ËĪi":2489,"kupËĪÉĳ":2490,"ËĪÉĳÉŃnyjÉª":2491,"ĠÊĮbjja":2492,"ktËĪu":2493,"bËĪoÉŃÊ²ijÉª":2494,"ĠsËĪÉĳjtÊ²i":2495,"ĠÉ¡ÊĮrÊĮ":2496,"ĠnÊ²ipÊĮ":2497,"xËĪi":2498,"ĠfpÊ²i":2499,"ĠsvÊĮËĪix":2500,"dstvÊ²i":2501,"ĠupÊĮ":2502,"ÉŃnym":2503,"ĠÊĮdnËĪoj":2504,"ĠsÊ²nÊ²i":2505,"ĠÉªskÉŃÊ²u":2506,"ĠstÊĮrËĪony":2507,"ĠsÊ²ir":2508,"ĠËĪÉĽta":2509,"ÉķËĪÉµ":2510,"ĠpÉĶv":2511,"Ġ14":2512,"rÊ²iÉ¡Ê²i":2513,"sÊ²Éª":2514,"Ð¾Ð":2515,"Ġkru":2516,"ĠtÊ²ixnÊĮ":2517,"ĠmnÊĮ":2518,"ĠÊĴËĪyÊĳn":2519,"zÉ¨":2520,"tsËĪyÊ":2521,"tsËĪyÊĮ":2522,"dÊ²ËĪeÉŃÊ²Éª":2523,"ĠuznËĪÉĳ":2524,"ĠtÊĥÊ²ËĪÉĳsÊ²tÊ²Éª":2525,"ĠmÉĶ":2526,"ĠÊĥa":2527,"ĠpËĪa":2528,"Ġ100":2529,"rÊ²itÊ²":2530,"ĠÉªndÊ²i":2531,"Ġsx":2532,"ĠvËĪody":2533,"tÊ²ËĪitÊ²i":2534,"tÊĥÊ²a":2535,"ĠpÊĮtÊĮ":2536,"tÊĥÊ²iskÊĮjÉª":2537,"ĠÉªstËĪotÊĥÊ²":2538,"stÉĶ":2539,"ĠsÉŃu":2540,"Ġand":2541,"ĠdvËĪux":2542,"ĠvysÊĮ":2543,"ĠËĪalÉĽ":2544,"ĠvËĪyÊĥy":2545,"trÊĮf":2546,"rÊĮmÊ²Éª":2547,"el":2548,"ĠÉŃa":2549,"__":2550,"jji":2551,"rÊ²ËĪen":2552,"ĠumÊ²ËĪe":2553,"tÊ²itÊ²":2554,"ĠrÊĮzrabËĪo":2555,"ĠmÊ²ËĪenÊ²ijÉª":2556,"ĠjËĪÉĽd":2557,"ĠÉ¡ru":2558,"rÊ²ËĪej":2559,"ĠmnÊĮÉ¡ÊĮ":2560,"ĠpÊĮtÊĥÊ²imËĪu":2561,"ÅĭÉ¡":2562,"nÊ²itÊ²":2563,"ĠÉ¡ÊĮÉŃÊĮ":2564,"ĠkakËĪoj":2565,"ĠprÊĮtÊ²ivÊĮ":2566,"ĠsÉŃËĪÉĳ":2567,"nËĪÉĶ":2568,"ĠpÊĮzvÊĮÉŃÊ²ËĪÉĳjit":2569,"nÊĳ":2570,"ĠnËĪÉĳt":2571,"ĠprÊĮizvÊĮdÊ²ËĪi":2572,"kËĪÉĳja":2573,"nsÊ²i":2574,"ĠÉªdÊ²i":2575,"ĠdËĪoÉŃÊĴnÊĮ":2576,"ĠdÊĮÉ¡ÊĮ":2577,"vËĪÉĳÉŃ":2578,"Êĥku":2579,"ËĪÉĳÉŃnyj":2580,"ĠÊĮtÉŃÊ²i":2581,"ĠkËĪÉĳÊĴdÊĮ":2582,"rnyx":2583,"ĠÊĮtsËĪu":2584,"ĠprÊĮtsydËĪu":2585,"ĠktËĪurÉĽ":2586,"ĠkÊĮmËĪÉĳ":2587,"ĠÉ¡ËĪorÊĮ":2588,"ĠnÊĮibËĪoÉŃÊ²ijÉª":2589,"ĠfÊĥËĪÉ¨":2590,"ĠÊĮkazËĪÉĳ":2591,"ĠÉĽÉŃÊ²iktrËĪo":2592,"Ħĸ":2593,"ĠsÊĮÊĮtvÊ²ËĪetstvÊ²i":2594,"Ġ16":2595,"ĠbÊĮÉŃÊĥy":2596,"jisÊ²ÊĮ":2597,"ËĪÉĳÉŃnÊĮj":2598,".,":2599,"dÉĶ":2600,"ÊĴËĪo":2601,"ËĪÉĳÉŃnyx":2602,"ĠmÊ²inËĪut":2603,"ĠÉªntÉĽrnËĪÉĽ":2604,"tÉĽ":2605,"É¡rÊ²i":2606,"rnyj":2607,"ĠtÊĥÊ²ËĪuv":2608,"ĠâĢŀ":2609,"ĠbÉŃÊĮÉ¡ÊĮda":2610,"nÊ²ivÊĮ":2611,"ĠvËĪoÉŃÊĮ":2612,"ĠsÉŃÊ²i":2613,"ĠzËĪo":2614,"ĠprÊ²iÊĳi":2615,"ĠvËĪozrÊĮ":2616,"ĠrÊ²isËĪu":2617,"ĠrÊ²ibÊ²ËĪenka":2618,"tÊĥÊ²ij":2619,"ĠlËĪup":2620,"ĠrÊĮsprÊĮ":2621,"ĠkÊĮtËĪorÊĮjÉª":2622,"pÉŃÊ²ËĪe":2623,"ĠkÉŃÊ²ËĪe":2624,"id":2625,"ÉĶvËĪaÉ²Ê²ÉĽ":2626,"ĠtÊ²imÊ²pÊ²iratËĪu":2627,"ĠprÊ²idÉŃÊĮ":2628,"ĠdÊ²ËĪi":2629,"ĠnÊĮzyvËĪÉĳ":2630,"ĠdvÊ²ËĪi":2631,"ĠvmÊ²ËĪesÊ²tÊ²i":2632,"ĠnajtÊ²ËĪÉª":2633,"nÊ²ix":2634,"ĠvËĪa":2635,"jËĪetsÊĮ":2636,"rnyjÉª":2637,"dÊ²ËĪejstvÊ²i":2638,"ÊĴËĪu":2639,"ĠnÊ²ËĪekÊĮtÊĮryjÉª":2640,"ĠÊĮbÊ²azËĪÉĳtÊ²iÉŃnÊĮ":2641,"ĠÉ¡u":2642,"ËĪoÉŃku":2643,"ĠnÊĮpra":2644,"ĠÉ¡ra":2645,"ĠpÊĮnÊ²imËĪÉĳ":2646,"ĠkrËĪy":2647,"xËĪodÊ²ÊĮt":2648,"ĠsÊĮÉ¡ÉŃËĪÉĳ":2649,"ĠÉŃÊ²ix":2650,"ĠpsÊ²i":2651,"nÊ²ËĪÉĳjitsÊĮ":2652,"ĠkËĪomnÊĮ":2653,"ĠdnÊ²ËĪÉĳ":2654,"ktu":2655,"ĠpÊĮstËĪÉĳ":2656,"ktÊĮr":2657,"sÉŃËĪÉĳ":2658,"ĠdÊĮmËĪÉĳÊĥ":2659,"ËĪÉĽÉŃ":2660,"ĠâĢľ":2661,"ĠtÊĥÊ²u":2662,"ch":2663,"ĠspÊĮsËĪob":2664,"ĠpÊĮtÊĥÊ²":2665,"tnÊĮvÊĮ":2666,"rÊĮx":2667,"ĠtÊ²irrÊ²itËĪo":2668,"ĠsrÊ²idÊ²ËĪÉª":2669,"kÊĮnÊĮ":2670,"ĠrabËĪotu":2671,"skÊĮjÉª":2672,"ĠâĦĸ":2673,"É¡nÊĮ":2674,"ĠfÊ²inËĪÉĳ":2675,"ĠsrÊ²ËĪedstf":2676,"rÊ²Éª":2677,"tÊĥÊ²ËĪitÊ²iÉŃnÊĮ":2678,"ĠÉ¡ÉŃËĪÉĳv":2679,"ĠpÊĮÉŃËĪutÊĥÊ²i":2680,"21":2681,"ĠmÊĮmÊ²ËĪent":2682,"ĠfstrÊ²ËĪe":2683,"ĠpËĪotÊĮm":2684,"mÊ²inÊ²i":2685,"ĠprÊĮfÊ²isÊ²sÊ²i":2686,"pËĮÉĽ":2687,"js":2688,"vÉ²Ê²ÉĽ":2689,"ĠsÉŃËĪuÊĴ":2690,"ĠpËĪoÉŃnÊĮstÊ²jju":2691,"ĠfkËĪu":2692,"Ġzap":2693,"ĠËĪÉªÉ¡ry":2694,"ĠbÊĮÉŃÊĥynst":2695,"ĠmÊ²idÊ²itsËĪy":2696,"ĠsvÊĮjiÉ¡ËĪo":2697,"sËĪof":2698,"ĠdÊ²ËĪets":2699,"ÉŃËĪoÉ¡Ê²iÉª":2700,"skÊ²ÉĽ":2701,"ĠpÊĮtsy":2702,"skÊ²im":2703,"ËĪÉĶvÉĽj":2704,"vnÊĮvÊĮ":2705,"Ġ13":2706,"ĠrÊ²iÊĴËĪy":2707,"ĠËĪokÊĮÉŃÊĮ":2708,"Ġkar":2709,"ĠÊĮtvÊ²ËĪe":2710,"ËĪil":2711,"tÊ²iÉŃÊ²im":2712,"nÊ²ËĪik":2713,"ĠvnËĪutrÊ²i":2714,"ĠbÊ²izÊĮpËĪÉĳsnÊĮ":2715,"ou":2716,"ĠsËĪÉĳjt":2717,"ĠpÊ²irÊ²ËĪiÊĮt":2718,"ĠÊĮrÉ¡ÊĮnÊ²izËĪÉĳ":2719,"ËĪami":2720,"Ġ50":2721,"ĠprÊĮdËĪÉĳ":2722,"nÊ²ËĪim":2723,"dËĪÉĳjit":2724,"ĠÊĮfÊ²itsy":2725,"ËĪaÉ²Ê²ÉĽ":2726,"ÊĮbrËĪÉĳ":2727,"ĠsprËĪÉĳ":2728,"tÊĥÊ²ku":2729,"nËĪutÊ²":2730,"ÊĴËĪytÊ²":2731,"ĠdÊĮvËĪo":2732,"ĠprËĪÉĶ":2733,"ĠvÉŃÊ²iËĪja":2734,"ĠjavÉŃÊ²ËĪÉĳjutsÊĮ":2735,"vÊĮnÊ²ijÉª":2736,"ĠÊĮtÊĥÊ²i":2737,"ĠfÊĮtÊĮ":2738,"tÊĥÊ²ivËĪo":2739,"ÊĴnyj":2740,"ĠpËĪÉĶt":2741,"ĠjÉĽ":2742,"ĠskatÊĥÊ²ËĪÉĳtÊ²":2743,"ĠpÊĮtrÊ²ËĪe":2744,"ÉŃyj":2745,"tÊĮra":2746,"nskÊĮj":2747,"ĠprËĪÉĳvÊ²iÉŃnÊĮ":2748,"ĠkÊĮtËĪorÊĮvÊĮ":2749,"ĠnaÉŃËĪo":2750,"ĠantÊ²i":2751,"ĠsvÊĮËĪimÊ²Éª":2752,"ĠpÊĮkupËĪÉĳ":2753,"skËĪoÉŃku":2754,"ĠdÊĮÉŃÊĴnËĪÉĳ":2755,"fÊĮrm":2756,"ĠjÉªËĪÉµ":2757,"ĠpÊĥËĮÉ¨":2758,"vÊĮtÊ²sÊ²ÊĮ":2759,"mËĪi":2760,"ĠpÊĥËĪÉ¨":2761,"ĠrazvÊ²ËĪitÊ²ija":2762,"ĠÊĮtsËĪÉĽ":2763,"zm":2764,"ĠkuÉŃ":2765,"É¡rËĪÉĳfÊ²i":2766,"ĠzdÊĮrËĪov":2767,"dÊĮk":2768,"Ġxi":2769,"ĠpÊĮmÊĮÉ¡ËĪÉĳ":2770,"Ð³":2771,"Ê²ËĪÉĽÉ¡ÉĶ":2772,"nkÊĮ":2773,"sËĪÉĶ":2774,"ruju":2775,"ÊĴÉĶ":2776,"Ñħ":2777,"ĠsÊ²ËĪeks":2778,"ĠbÉŃÊĮÉ¡ÊĮdarÊ²ËĪÉĳ":2779,"ĠtrÊ²ËĪÉª":2780,"ion":2781,"ĠpÊ²ËĪervyj":2782,"ĠprÊĮs":2783,"mËĪÉĽ":2784,"ing":2785,"ĠfÊĥËĪÉ¨st":2786,"ĠzakËĪÉĳ":2787,"ĠdÊ²ËĪej":2788,"Ġspa":2789,"Éķuju":2790,"ĠÉĽffÊ²ËĪe":2791,"ĠÉªmÊ²ËĪejut":2792,"rËĪuÊĴy":2793,"ow":2794,"ĠpÊĮskËĪoÉŃku":2795,"tÊĮmÊ²Éª":2796,"É²dÊĳÉĽ":2797,"tÊ²if":2798,"vËĪÉĳjit":2799,"prËĪÉĳvÊ²i":2800,"tËĪÉĶ":2801,"ÉķËĪÉĳjit":2802,"ÉĽnt":2803,"12":2804,"ÉĶvËĪaÉ²Ê²a":2805,"ĠstranÊ²ËĪi":2806,"ĠprÊ²idstavÊ²ËĪi":2807,"ÉŃka":2808,"ĠsËĪoÉŃ":2809,"ĠprÊĮfÊ²isÊ²sÊ²iÊĮnËĪÉĳ":2810,"ĠuvÊ²iÉŃÊ²ËĪitÊĥÊ²i":2811,"ĠpÊĮvy":2812,"ĠÉ¡ÉŃu":2813,"strÊ²ËĪi":2814,"nËĪosÊ²i":2815,"ĠaÉŃÊ²ik":2816,"ĠÉ¡Ê²ËĪi":2817,"rÊĮvÊĮnÊ²ija":2818,"ĠÉªspÊĮÉŃ":2819,"ĠkrËĪup":2820,"Ġan":2821,"ĠrÊ²imËĪo":2822,"ĠpÊ²ËĪÉĽ":2823,"ĠnÊ²idÊĮstËĪÉĳ":2824,"ÊĥËĪu":2825,"ĠmÊ²ËĪest":2826,"ytËĪÉĳ":2827,"tÊĮx":2828,"ĠÉªntÉĽrnËĪÉĽt":2829,"Åĭki":2830,"ft":2831,"rkÊ²i":2832,"jtÊ²isÊ²":2833,"ĠpÊĮdÊ²":2834,"vÉŃÊ²ikËĪÉĳ":2835,"ÉŃÊĳ":2836,"ËĪÉ¨mi":2837,"tyj":2838,"ĠbËĪardÊĳ":2839,"rËĪudÊĮvÊĮ":2840,"ĠËĪodzy":2841,"spÊĮrt":2842,"ĠkÊĮnstrËĪuk":2843,"ĠÉĽtËĪÉĳ":2844,"ĠsËĪy":2845,"ĠpÊ²ËĪÉĳ":2846,"ĠdÊ²izËĪÉĳ":2847,"sÊ²tÊ²ËĪÉĳ":2848,"ĠÊĮtk":2849,"dËĪut":2850,"nËĪÉĳvÉŃÊ²i":2851,"ĠkËĮa":2852,"ĠsvÊĮbËĪo":2853,"vnËĪo":2854,"ĠrËĪup":2855,"ĠËĮÉĽmËĮÉĽ":2856,"ksÊ²ËĪi":2857,"ĠnÊ²ËĪej":2858,"mjÉĽ":2859,"ĠfËĪunk":2860,"ĠsÊĮzda":2861,"lkÉĶ":2862,"ĠlËĪi":2863,"ĠËĮÉĽsËĪÉĽm":2864,"sÊ²ËĪÉĳ":2865,"puskËĪÉĳ":2866,"Ġ25":2867,"Ġ[":2868,"ĠvnÊ²ËĪeÊĥ":2869,"Ġ17":2870,"ĠtËĪysÊ²ÊĮ":2871,"ĠstËĪÉĳÉŃ":2872,"mÊ²ËĪenta":2873,"ĠbËĪudu":2874,"rËĪos":2875,"tÊĥÊ²ËĪÉĳjut":2876,"ĠrÊĮznÊĮ":2877,"mÊ²ËĪÉĳ":2878,"ĠdËĪumÊĮ":2879,"ĠsÊĮÊĮtvÊ²ËĪetstvu":2880,"dÊĴËĪÉĽ":2881,"ĠdruÉ¡ËĪoj":2882,"ÊĴËĪÉĶ":2883,"ËĪin":2884,"ĠstanËĪo":2885,"nËĪomÊ²i":2886,"ĠmÊ²ixa":2887,"xnÊ²ËĪi":2888,"tÊĥÊ²ËĪenÊ²iÉª":2889,"rmÊ²i":2890,"ĠkÊĮmpËĪÉĳnÊ²ija":2891,"ĠÊĮfÊĮrm":2892,"ĠxÊĮrÊĮktÊ²i":2893,"ÊĴÊ":2894,"ĠsÉŃËĪoÊĴnÊĮ":2895,"ÊĴÊĮ":2896,"ĠÊĮpÉŃËĪÉĳ":2897,"dÊ²ËĪerÊĴy":2898,"ĠO":2899,"É¡r":2900,"ĠusÉŃËĪovÊ²ijax":2901,"ĠpÊĮtsyjËĪe":2902,"ĠÉķËĪet":2903,"zvËĪo":2904,"ÊĴdÊ²ËĪenÊ²ijÉª":2905,"rnÊĮj":2906,"ĠÊĮbÊĮrËĪudÊĮvÊĮ":2907,"ÉŃyx":2908,"ÊĥÉ¨":2909,"ËĪjatnÊĮ":2910,"sÊ²tÊ²ÊĮ":2911,"19":2912,"ĠvËĪyrÊĮ":2913,"dnÊĮvÊĮ":2914,"Ġstu":2915,"ĠustanËĪovÉŃÊ²i":2916,"kÉŃa":2917,"ĠsÊ²imÊ²ËĪe":2918,"vÉŃÊ²ËĪenÊ²iÉª":2919,"ksÊ²imËĪÉĳ":2920,"ĠsËĪÉĳm":2921,"ĠprÊ²iÉŃÊĮ":2922,"ĠutÊĥÊ²ËĪÉĳsÊ²tÊ²i":2923,"dÊ²ËĪenÊ²ija":2924,"ĠpÊĮtrÊ²i":2925,"nskÊĮvÊĮ":2926,"ĠsÊĮmÊĮstÊĮËĪja":2927,"ĠmËĮa":2928,"ĠkÊĮtÊ²i":2929,"!!":2930,"ÉķÉª":2931,"tÊĥÊ²iskÊ²im":2932,"ĠutÊĥÊ²ËĪÉĳst":2933,"ĠÊĴyvËĪo":2934,"ĠdvÊ²ËĪiÉ¡ÊĮ":2935,"ĠnÊ²iÊ":2936,"ĠnÊ²iÊĮ":2937,"ÊĴna":2938,"ĠbÉŃÊ²ËĪi":2939,"ÉŃÊ²a":2940,"ĠprÊ²ËĪÉĳ":2941,"sÊ²t":2942,"jnÊ²i":2943,"ĠrÊ²iÉ¡Ê²iËĪo":2944,"tÊ²ikÊ²Éª":2945,"ĠvËĮÉĽ":2946,"brÊ²i":2947,"bÉĶ":2948,"Ġzv":2949,"ÉŃyjÉª":2950,"ot":2951,"ĠsÊ²imp":2952,"ËĪÉĳÉŃnÊĮvÊĮ":2953,"Ð¹":2954,"ĠtËĪot":2955,"ĠmÊ²ËĪenÊĥy":2956,"stvujit":2957,"ĠtËĪut":2958,"ce":2959,"ĠnÊ²itÊĥÊ²ivËĪo":2960,"ĠnapÊ²ËĪi":2961,"fÊ²ikËĪÉĳ":2962,"ĠÉªËĪju":2963,"ĠÉŃÊ²ixkËĪo":2964,"ĠsËĪÉĳmyx":2965,"ĠzÊĮbÊĮÉŃÊ²ivËĪÉĳnÊ²ija":2966,"ĠÉ¡ÊĮrËĪoda":2967,"nÉĶÉķtÉķ":2968,"ĠvÊ²ËĪit":2969,"ĠlËĪÉĽ":2970,"ĠvËĪÉ¨":2971,"ĠaftÊĮmËĪÉĳ":2972,"ĠmÊĮksÊ²imËĪÉĳ":2973,"rÊĮj":2974,"ĠanÊĮ":2975,"ĠËĪÉĽtÊ²im":2976,"ĠtÊĥËĪa":2977,"ĠtÊĮrÉ¡ËĪo":2978,"ĠpËĪomÊĮÉķÉª":2979,"kËĪovÊĮ":2980,"ĠrÊ²iÊĥËĪÉĽnÊ²ijÉª":2981,"ËĪaÉ²Ê²a":2982,"rÊ²ËĪÉĳt":2983,"ÉĶvËĪÉĽÉ¡ÉĶ":2984,"varÊ²ËĪi":2985,"ĠrasskËĪÉĳ":2986,"ĠtsvÊ²ËĪe":2987,"ĠÊĥËĪÉĽ":2988,"ĠdÊ²ËĪejstvÊ²ija":2989,"ĠËĪÉĽtu":2990,"ËĪuÊĥ":2991,"Ġsup":2992,"ĠÊĮtÊ²":2993,"ĠsÊĮf":2994,"tÊĥÊ²nÊĮjÉª":2995,"fi":2996,"ĠusÉŃËĪovÊ²ija":2997,"mÊ²intËĪÉĳ":2998,"ĠsvÊ²ËĪÉĳÊĳÉª":2999,"ĠzÊĮkÊĮnÊĮ":3000,"ĠËĪurÊĮv":3001,"ĠmËĪÉĳÉŃÊ²in":3002,"ÊĥkÊĮm":3003,"zËĪÉ¨":3004,"ri":3005,"mËĪÉĳtrÊ²i":3006,"ÉŃÊĳËĪÉĳ":3007,"nÊ²irËĪÉĳ":3008,"ĠrÊĮzrÊ²i":3009,"dËĪoÉŃ":3010,"dËĪÉĳnÊ²ijÉª":3011,"vÊĮz":3012,"ntÊĥÊ²i":3013,"ĠutÊĥÊ²ËĪÉĳstÊ²":3014,"ktsyja":3015,"ĠdÊĮstËĪup":3016,"dÊ²ÊĮ":3017,"vÊ²iÉŃ":3018,"ĠÉŃÊ²itÊĥÊ²ËĪenÊ²ija":3019,"ĠprÊĮisxËĪodÊ²it":3020,"ĠbËĮÉĽ":3021,"jstvÊ²ËĪi":3022,"ĠbÊĮÉŃÊĥËĪoj":3023,"ol":3024,"ĠÉĶp":3025,"nÊ²ËĪejÉª":3026,"ÉķÉĽ":3027,"ĠstËĪoimÊĮstÊ²":3028,"ĠËĪÉĽr":3029,"ĠnÊ²ËĪim":3030,"ĠÊĮtnÊĮÊĥËĪÉĽ":3031,"ĠudÊ²i":3032,"ĠÊĮrÉ¡ÊĮnÊ²izËĪÉĳtsyÉª":3033,"xËĪoda":3034,"ÉŃÊĮk":3035,"ĠsrËĪok":3036,"ĠvrÊ²i":3037,"ĠrÊĮzmÊ²i":3038,"ÊĥÉŃËĪo":3039,"dvÊ²ËĪi":3040,"ĠpÊĮtÊĥÊ²tÊ²ËĪÉª":3041,"juÉķÊĮja":3042,"ĠrÊĮsprÊĮstra":3043,"ÉķËĪestvÊ²i":3044,"ĠÊĮpËĪÉĳ":3045,"ĠsfËĪÉĶ":3046,"ĠpÊĮÊĴËĪÉĳ":3047,"ĠxÊĮÊĳËĪÉĳ":3048,"ĠnÊ²imnËĪovÊĮ":3049,"Ðº":3050,"ĠÊĮdnÊĮvËĪo":3051,"ĠÊĮbratÊ²ËĪi":3052,"nËĪÉĳja":3053,"ĠaktÊ²ËĪivnÊĮ":3054,"ĠtÊĥÊ²ÉŃÊ²ËĪe":3055,"jÉĶnts":3056,"rnÊĮja":3057,"nÊĮjÉª":3058,"ĠsmÊ²i":3059,"tÊ²iÉŃnym":3060,"ĠprÊ²idprÊ²iËĪja":3061,"ĠnÊ²iza":3062,"ĠrÊ²iÊĮÉŃÊ²i":3063,"vÊĮk":3064,"vÊ²idu":3065,"dra":3066,"ĠstrÊ²i":3067,"kÊ²im":3068,"ĠvËĪÉĶ":3069,"ĠpÊĮdËĪÉĳ":3070,"tÊĥÊ²ËĪÉĳj":3071,"ĠjÉªÊĴy":3072,"nÊ²ÊĮja":3073,"ĠtrËĪÉĳn":3074,"ĠÉ¡rÊ²i":3075,"30":3076,"ĠadmÊ²inÊ²i":3077,"dÊĳa":3078,"ĠuvÊ²ËĪidÊ²i":3079,"ĠÉŃÊ²itÊĥÊ²ËĪenÊ²ijÉª":3080,"ÉŃÊĮvÊĮ":3081,"ĠËĪonÊĮ":3082,"ĠskËĪÉĳ":3083,"É²Ê²ËĪÉĽj":3084,"rnÊĮjÉª":3085,"É²ik":3086,"Ġstru":3087,"ĠdÊ²ia":3088,"ĠdÊ²ËĪejatÊ²iÉŃnÊĮsÊ²tÊ²Éª":3089,"ĠudËĪÉĳ":3090,"vÊ²ËĪetstvÊ²i":3091,"ntsyÉª":3092,"ĠprÊĮbÉŃÊ²ËĪemy":3093,"pjËĪju":3094,"ĠsxËĪe":3095,"ĠvËĪozdu":3096,"ĠprÊĮja":3097,"ÉŃÊ²ËĪÉµ":3098,"ĠkÉŃÊ²ËĪi":3099,"dËĪoj":3100,"sÊ²tÊ²itËĪu":3101,"nÊ²ËĪenÊ²ij":3102,"rÉ¡Ê²ËĪi":3103,"imËĪuÉķi":3104,"//":3105,"kÊĮjÉª":3106,"ÊĴdÊĮ":3107,"ĠvËĪÉĳÊĥ":3108,"ĠpËĪÉĶl":3109,"ĠÉªÊĳdÊ²ËĪe":3110,"É¡ËĪÉĶ":3111,"É¡ÊĴÉĽ":3112,"ĠËĪin":3113,"ĠnÊ²iu":3114,"ĠvËĪypÊĮÉŃ":3115,"ĠtÊĥÊ²ËĪÉĳÉķi":3116,"ÉŃÊĮj":3117,"ĠtËĪÉĽÉ¡ÉĶ":3118,"bjËĪÉĽ":3119,"ĠÉ¡rÊĮ":3120,"brËĪÉĳtÊ²":3121,"ĠjÉªÉķËĪÉµ":3122,"ĠÉªndÊ²ivÊ²idu":3123,"Ã§":3124,"ĠprËĪÉĳvÊ²iÉŃÊĮ":3125,"Ġdvu":3126,"ĠÊĮdÊ²ËĪe":3127,"ĠnÊ²iÉŃÊĳËĪÉĳ":3128,"ĠÊĮÊĴy":3129,"ĠÉªnstru":3130,"ĠÉŃÊ²ËĪex":3131,"ÊĥËĪÉĽÉŃ":3132,"ĠvÊĮÊĳnÊ²ikËĪÉĳ":3133,"nËĪÉĳÉŃ":3134,"ĠbËĪÉĶ":3135,"ĠtÊĥÊ²isÉŃÊ²ËĪe":3136,"ÊĥÉŃÊ²ËĪÉª":3137,"tÊĥÊ²ËĪem":3138,"fkÊ²i":3139,"prÊ²a":3140,"ËĪim":3141,"ÊĳnÊ²i":3142,"dÊ²ËĪitÊ²i":3143,"ĠnËĪovyj":3144,"zËĪy":3145,"ĠpÊĮtÊ²i":3146,"dÊĴ":3147,"ĠkÊĮmÊ²pjËĪju":3148,"pÊ²in":3149,"ĠpraktÊ²ËĪitÊĥÊ²iskÊ²Éª":3150,"ĠkÊĮmpÊĮ":3151,"tÊ²iÉŃnÊĮjÉª":3152,"bÉŃÊ²ËĪi":3153,"ĠukËĪÉĳzÊĮ":3154,"ĠÊĮx":3155,"ĠnÊĮzna":3156,"ĠprÊ²iimËĪuÉķi":3157,"ĠnaxËĪodÊ²itsÊĮ":3158,"ĠvybÊ²irËĪÉĳ":3159,"ĠnÊĮbÉŃÊ²u":3160,"Ġjazy":3161,"ÊĴËĪÉĽnÊ²ij":3162,"rËĪÉ¨":3163,"sÊ²tÊ²ËĪej":3164,"ĠnÊ²iÊĮpxÊĮdÊ²ËĪimy":3165,"Éķli":3166,"ĠskËĪorÊĮ":3167,"ndu":3168,"ĠvÊĳËĪÉĳ":3169,"ĠnÊĮsÊ²i":3170,"nÊ²ËĪÉª":3171,"ĠprËĪa":3172,"vymÊ²Éª":3173,"ĠmËĪoÉķ":3174,"pkÊ²Éª":3175,"rma":3176,"sÊ²ËĪitÊ²":3177,"ĠmËĪÉĽ":3178,"bÉŃÊ²ËĪÉĳ":3179,"ĠstËĪÉĳtÊ²":3180,"ĠpËĪor":3181,"tsËĪÉ¨j":3182,"spÉĶ":3183,"zv":3184,"ĠfÊ²iÊĳËĪi":3185,"nÊĴ":3186,"ĠmÊĮr":3187,"ĠspËĪosÊĮp":3188,"ĠspËĪosÊĮbÊĮ":3189,"vËĪodÊ²itsÊĮ":3190,"ĠprÊ²ËĪiznÊĮ":3191,"ĠÊĥkËĪoÉŃ":3192,"ĠsÊĮjidÊ²i":3193,"nÊ²in":3194,"ĠÉªnÊĮÉ¡dËĪÉĳ":3195,"ksa":3196,"sÉ¨":3197,"tËĮÉĽ":3198,"ĠmÊ²ËĪesta":3199,"ĠdÊ²ijstvÊ²ËĪi":3200,"ĠsrÊ²ËĪedstvÊĮ":3201,"ĠprÊĮda":3202,"ËĪawa":3203,"ĠkÊĮntrËĪo":3204,"://":3205,"ĠÊĮzna":3206,"me":3207,"Ìĥ,":3208,"ĠËĪuÉŃÊ²i":3209,"dÊ²inËĪÉĳ":3210,"ĠvÊĮrÊ²iËĪÉĳnt":3211,"ĠpÉĶd":3212,"ĠvËĪybrÊĮtÊ²":3213,"ÊĥÉŃÊ²i":3214,"krÊ²ËĪe":3215,"ĠrabËĪotÊ²i":3216,"vÊ²it":3217,"dÊ²iÊ":3218,"dÊ²iÊĮ":3219,"ĠvzÉ¡":3220,"nÊ²a":3221,"ĠbËĪÉĽÉ²dÊĳÉĽ":3222,"jimyx":3223,"ĠÉªntÊ²ÉĽrÊ²ËĪes":3224,"ĠprÊ²ËĪinÊ²ÊĮ":3225,"mËĪÉĶ":3226,"ĠpÊĮdËĪob":3227,"ĠkartÊ²ËĪi":3228,"ĠzËĪÉĳpÊĮ":3229,"Ġvnu":3230,"ĠpÊĮjavÊ²ËĪi":3231,"ĠsÊ²irÉª":3232,"ËĪÉĶvÊ²ÉĽ":3233,"ĠpÊĮkrËĪy":3234,"ĠÊĥÊĥËĪÉĳ":3235,"ĠÉŃÊ²ËĪitsa":3236,"vÊ²itÊĥÊ²":3237,"dÊ²ËĪÉµ":3238,"ĠfsÊ²ËĪÉĳ":3239,"nskÊ²ij":3240,"Ġ24":3241,"ĠsÊĮvÊ²irÊĥËĪÉĽ":3242,"ÉŃÊ²ËĮ":3243,"ĠprÊ²idstËĪÉĳvÉŃÊ²i":3244,"ĠÉŃÊ²ikËĪÉĳr":3245,"ĠdÊĮvËĪoÉŃnÊĮ":3246,"ĠsÊĮv":3247,"ĠsÊ²imptËĪo":3248,"ĠdËĪÉĳnnyjÉª":3249,"ĠnËĪovyjÉª":3250,"ĠvËĪybÊĮr":3251,"ĠÊĮÉķu":3252,"ĠmÊ²ËĪesÊ²tÊ²i":3253,"ĠudËĪob":3254,"11":3255,"ËĪatsjÉĽ":3256,"ĠspÉĶ":3257,"ĠpÊĮzvËĪo":3258,"ĠubÊ²i":3259,"ĠznakËĪom":3260,"ĠtsËĪÉĽÉŃ":3261,"ĠÉĽffÊ²iktÊ²ËĪivnÊĮ":3262,"tËĪof":3263,"ttp":3264,"ĠkÊĮntsËĪÉĽ":3265,"ĠsvÊĮËĪim":3266,"vnÊĮj":3267,"nÊĮvÊ²ËĪe":3268,"ĠftÊĮrËĪoj":3269,"ĠustÊĮnÊĮ":3270,"vËĪÉĳjut":3271,"ĠprÊ²ikrËĪÉĳ":3272,"fÊĥyx":3273,"ÊĥËĪÉĳjit":3274,"ĠvËĪyÉ¡":3275,"ĠÊĮtvÊ²ËĪetstvÊ²i":3276,"ĠpÊĮdÊ²dÊ²ËĪerÊĥ":3277,"ĠsÉŃÊĮvËĪÉĳ":3278,"pÊ²isËĪÉĳ":3279,"mÊ²it":3280,"ĠstrËĪo":3281,"ÉŃnÊĮm":3282,"ĠkrËĪu":3283,"ĠÊĮtsËĪutstvÊ²i":3284,"ĠzavÊ²ËĪisÊ²imÊĮsÊ²tÊ²Éª":3285,"ĠdËĪom":3286,"strËĪoji":3287,"ĠnÊ²ika":3288,"Ġzm":3289,"tÊ²iÉª":3290,"ĠbÊ²u":3291,"rtËĪÉĳ":3292,"ĠpÊĮkËĪup":3293,"tÊĥÊ²nuju":3294,"bËĪÉĳty":3295,"rÊ²ËĪenÊ²ijÉª":3296,"mjËĪÉĽ":3297,"ĠzavÊ²ËĪisÊ²it":3298,"ĠÉªzu":3299,"ĠËĪotÊĥÊ²i":3300,"ĠsÊĮÉ¡ÉŃa":3301,"ĠÉŃÊ²ËĪitÊĥÊ²nÊĮ":3302,"Ġnap":3303,"ĠËĪjar":3304,"ĠrazÉŃÊ²ËĪitÊĥÊ²nyx":3305,"ĠvËĮÉ¨kÉĶ":3306,"ĠprÊ²idmÊ²ËĪe":3307,"ĠÊĮtÊĮ":3308,"ÊĥÊĮja":3309,"nkÊĮf":3310,"ĠÉªzvÊ²ËĪest":3311,"jimyjÉª":3312,"ĠÉªtËĪo":3313,"zÊĮf":3314,"ĠkÊĮtËĪorÊĮm":3315,"ĠprÊ²iÊĳidÊ²ËĪe":3316,"ĠrÊ²izuÉŃtËĪÉĳtÊ²i":3317,"ÊĴym":3318,"ĠrÊ²ikÉŃËĪÉĳ":3319,"ĠbumËĪÉĳ":3320,"ĠÉ¡ÊĮvÊĮ":3321,"tstvu":3322,"tÊĥÊ²ËĪ":3323,"rujitsÊĮ":3324,"ĠÉĶd":3325,"ĠjËĪej":3326,"ËĪÉĽmÉ¨":3327,"ĠrÊ²itsËĪÉĽp":3328,"vËĮÉĽ":3329,"ĠssËĪy":3330,"vËĪÉĳtÊ²sÊ²ÊĮ":3331,"tÊ²iÉŃÊ²ÊĮm":3332,"ĠsËĪÉĳmyjÉª":3333,"ssu":3334,"tËĪura":3335,"ĠÊĮdnÊ²ËĪim":3336,"ĠtËĪÉ¨lkÉĶ":3337,"ntÊĥ":3338,"ĠnËĪÉĳÊĥym":3339,"dvÊ²i":3340,"É¡nËĪo":3341,"skÉĶ":3342,"22":3343,"Ê²ËĪÉĳzÊĮ":3344,"ĠmÊ²iÉŃÉŃÊ²i":3345,"ĠstËĪa":3346,"tsyÊ":3347,"ĠnÊ²ËĪiÊĴy":3348,"tsyÊĮ":3349,"ĠvËĪyÉ¡ÉŃÊ²ÊĮ":3350,"ĠprÊĮvÊ²i":3351,"ĠtÊĥËĪÉ¨":3352,"mÊ²irÊ²i":3353,"dnÊĮj":3354,"ĠanËĪÉĳÉŃÊ²i":3355,"vÊ²idÊ²ËĪenÊ²ijÉª":3356,"ĠmnËĪoÊĴy":3357,"ĠtakËĪovÊĮ":3358,"Ġ+":3359,"ÊĮpÉķËĪe":3360,"ĠrukËĪÉĳmÊ²Éª":3361,"ĠX":3362,"ĠfÊ²inËĪÉĳnsÊĮ":3363,"ĠtËĪomu":3364,"vÊĮzmËĪo":3365,"tÊĥÊ²ËĪÉĳjutsÊĮ":3366,"Êĥyk":3367,"nnÊĮmu":3368,"vnÊĮja":3369,"ĠrËĪuvÉ²Ê²ÉĽ":3370,"ĠsËĪÉĳmyj":3371,"tyjÉª":3372,"xËĪÉĶ":3373,"ntrËĪÉĳ":3374,"nutÊ²":3375,"tÊĥÊ²nymÊ²Éª":3376,"ĠxËĪÉĳ":3377,"ĠÉ¡ËĪÉĶ":3378,"ĠnazËĪÉĳ":3379,"É²Ê²ËĪÉĶ":3380,"ĠvÊĮprËĪosy":3381,"ĠvÊ²ËĪersÊ²i":3382,"ĠnÊ²is":3383,"ĠU":3384,"ĠËĪurÊĮvÊ²in":3385,"Ġxu":3386,"ĠrabËĪotÊĮjit":3387,"ĠstrËĪÉĳny":3388,"ĠfÊĮrmÊ²i":3389,"tÊ²abrÊ²ËĪÉĳ":3390,"ÊĴnÊĮj":3391,"ĠËĮÉĽmËĪÉĽm":3392,"bÊ²ir":3393,"mËĪoj":3394,"ĠtsynËĪÉĳ":3395,"ĠbËĮudÊ²i":3396,"ÉŃÊ²ËĪej":3397,"ĠrËĪÉĳznyx":3398,"ĠjËĪuÊĥ":3399,"ĠrabËĪota":3400,"ĠnËĪÉĳÊĥyj":3401,"ĠkÊĮtËĪoruju":3402,"rÊ²ËĪisÊ²tÊ²i":3403,"ĠtÊĮÉŃ":3404,"stvÊĮvÊĮtÊ²":3405,"itÊ²":3406,"ĠkÊĮtÊ²iÉ¡ËĪo":3407,"vËĪodÊ²it":3408,"rÊ²ÊĮ":3409,"tsja":3410,"ĠprÊ²idus":3411,"ĠÉªnfÊĮrmËĪÉĳtsyÉª":3412,"ĠrÊ²iÉ¡Ê²istrËĪÉĳtsyÉª":3413,"ĠskËĪoÉŃkÊĮ":3414,"ĠsÊ²isÊ²tÊ²ËĪema":3415,"ĠtrudÊĮ":3416,"ĠK":3417,"ĠtËĪaÉ¡ÊĴÉĽ":3418,"ĠmÊ²iÊĴdu":3419,"nÊ²ËĪitÊ²i":3420,"ĠdÊĮsÊ²tÊ²i":3421,"ĠrÊĮzvÊ²i":3422,"bÉĽ":3423,"stËĪÉĽm":3424,"ĠuÉ¡ÊĮ":3425,"ĠnÊ²ËĪeskÊĮÉŃ":3426,"ÊĥnÊĮ":3427,"sÊ²tÊ²ËĪitÊ²":3428,"nÊ²ËĪets":3429,"ĠsvÊ²idÊ²ËĪe":3430,"ĠËĪopÉķi":3431,"ĠrÊĮsska":3432,"vËĪoÉŃ":3433,"nÊ²ËĪÉĳjit":3434,"ve":3435,"ĠpÊĮvËĪy":3436,"ĠsÊ²ËĪervÊ²i":3437,"âĢĵ":3438,"ĠtÊ²ixnÊ²ËĪi":3439,"sup":3440,"ĠpËĪÉĳmÊ²ÊĮ":3441,"drÊĮ":3442,"ĠpËĪoi":3443,"taÉŃ":3444,"ĠdËĪÉĳÉŃ":3445,"rÊ²iju":3446,"ÊĴdy":3447,"sÊ²ËĪem":3448,"ttÊĥÊ²i":3449,"pÊ²ir":3450,"ĠkÊĮntËĪÉĳ":3451,"ĠbrÊĮ":3452,"ĠupravÉŃÊ²ËĪenÊ²ija":3453,"vËĪÉĳnÊ²ij":3454,"stÉ¨":3455,"ĠpÊĮdkÉŃÊ²u":3456,"Ġ40":3457,"rÊĮvÊĮnÊ²ijÉª":3458,"ĠmÊ²irÊĮprÊ²iËĪja":3459,"ĠdËĪÉĳnnyx":3460,"ĠtsËĪy":3461,"ĠkËĪomp":3462,"ĠdvÊ²ËĪe":3463,"vÊĮf":3464,"dËĪof":3465,"ĠrÊĮsÊ²sÊ²ËĪijskÊĮj":3466,"ĠpÊĮnÊ²ËĪÉĳ":3467,"ĠrÊ²iÊĥËĪÉĽnÊ²ija":3468,"ĠutÊĥÊ²":3469,"ĠtÊ²irrÊ²itËĪorÊ²iÉª":3470,"sÊĮk":3471,"dnÊ²ËĪe":3472,"ĠÊĮtmÊ²i":3473,"tÊĥÊ²istvÊ²i":3474,"ĠkËĪur":3475,"ĠrËĪuvÉ²Ê²ÉĽÊĥ":3476,"kÊĮstÊ²":3477,"ĠvÊĮÊĮpÉķËĪe":3478,"znËĪÉĳtÊĥÊ²i":3479,"ĠnazËĪÉĳt":3480,"ĠbÊ²irÊ²ËĪemÊ²i":3481,"ĠËĪÉĽÉŃ":3482,"Ġsy":3483,"ĠvÊ²ËĪÉĽnts":3484,"ĠkÊĮrÊĮ":3485,"ĠÉ¡ËĪu":3486,"pÊ²ÉĽ":3487,"dnyx":3488,"nÊ²ËĪenÊ²iÉª":3489,"dnyjÉª":3490,"sÉŃËĪuÊĴy":3491,"dËĪÉĳjut":3492,"stry":3493,"ĠsuÉķistvËĪujit":3494,"15":3495,"dËĪÉĳtÊ²iÉŃ":3496,"ĠsÊĮÊĮpÉķËĪi":3497,"Ġsrav":3498,"jdÊ²ËĪet":3499,"ĠbËĪardÊĳÉĶ":3500,"ĠÉĽÉŃÊ²iktrÊĮ":3501,"ĠraÉķËĪe":3502,"ĠkÉŃa":3503,"ĠdËĪÉĳÉŃÊ²ijÉª":3504,"ĠÊĮbrabËĪo":3505,"ĠpÊĮÉŃÊ²ËĪez":3506,"ec":3507,"Ñı":3508,"ĠrabËĪotÊĮtÊ²":3509,"ĠnatÊĥÊ²ËĪÉĳÉŃa":3510,"ĠÊĮÊĥËĪy":3511,"ĠpÉŃanÊ²ËĪi":3512,"ksu":3513,"ĠbËĪÉ¨tÉķ":3514,"ĠpÊĮsÉŃÊ²ËĪednÊ²ijÉª":3515,"sÊ²in":3516,"ĠunÊ²ivÊ²ir":3517,"É¡ÉĽ":3518,"ĠtkËĪÉĳ":3519,"ĠÊĮkËĪÉĳzy":3520,"ĠËĪabÉ¨":3521,"ĠprËĪotÊ²if":3522,"ĠsËĪa":3523,"ĠpÊĮvrÊ²i":3524,"dÊĮx":3525,"nÊ²ËĪenÊ²iju":3526,"rËĪÉĳktÊ²i":3527,"tËĪÉ¨":3528,"fÉĽ":3529,"tËĪÉĳtsyÉª":3530,"ĠznËĪa":3531,"ĠsÊĮstavÉŃÊ²ËĪÉĳjit":3532,"vËĪÉĳÉŃÊ²Éª":3533,"É²Ê²ÉĽj":3534,"ĠÊĳim":3535,"sÊ²sÊ²iÉª":3536,"ĠprËĪÉĳva":3537,"ĠpÊĮxËĪo":3538,"ĠdrËĪuk":3539,"ĠprËĪÉĳvÊĮ":3540,"ÊĴËĪÉĳjit":3541,"ĠsÉŃÊ²ËĪiÊĥkÊĮm":3542,"nËĪosÊ²ÊĮ":3543,"sËĪÉĳnd":3544,"nÊ²imu":3545,"ĠtÊĥÊ²asËĪof":3546,"ĠskazËĪÉĳÉŃ":3547,"ĠpÊĮda":3548,"prÊĮvÊĮ":3549,"ĠnÊĮprÊ²a":3550,"rÉ¡a":3551,"ĠxÊĮrÊĮktÊ²irÊ²ËĪisÊ²tÊ²i":3552,"ĠdÊĮba":3553,"ĠmÊ²iÊĴduna":3554,"ĠsvÊ²ËĪet":3555,"ĠÊĮbrËĪÉĳ":3556,"xÉª":3557,"ÉŃnuju":3558,"rujut":3559,"nËĪojÉª":3560,"ĠprÊĮvÊ²ËĪer":3561,"ĠsËĪÉĳjta":3562,"sÊ²sÊ²ËĪe":3563,"ĠmnËĪoÉ¡Ê²ix":3564,"ĠÊĮbna":3565,"ĠtsvÊ²ËĪeta":3566,"Ġhttp":3567,"ĠprÊ²ËĪintsy":3568,"kÉŃËĪÉĳdy":3569,"ĠsÉŃÊ²ËĪedujuÉķijÉª":3570,"kix":3571,"ĠÊĮbÊ²ËĪÉĳzÊĮ":3572,"mÊ²ËĪÉª":3573,"ĠÊĮkru":3574,"ĠnÊ²ijËĪe":3575,"ĠstËĪÉĳÉŃÊ²Éª":3576,");":3577,"ftËĪo":3578,"ĠmËĪÉĶÊĴna":3579,"ĠpÉŃÊ²ËĪe":3580,"ĠtËĪotÊĥÊ²nÊĮ":3581,"ÉĶr":3582,"ĠÊĴyÉŃ":3583,"as":3584,"ĠspËĪÉĶ":3585,"ĠvÊĮjËĪe":3586,"Ñĥ":3587,"ĠvÊĮÉŃ":3588,"ĠpravÊ²ËĪi":3589,"ĠrukÊĮ":3590,"²ËĮi":3591,"prÊ²ËĪe":3592,"ÐµÑĤ":3593,"ĠsprËĪa":3594,"vËĪÉĳnÊ²iÉª":3595,"ĠÊĮbnÊĮ":3596,"ĠtÊ²ËĪek":3597,"ÊĥkÊ²i":3598,"ĠsÊĮxra":3599,"ÉĶvÊ²ËĪÉĽ":3600,"ĠsÊĮmÊĮstÊĮËĪjatÊ²iÉŃnÊĮ":3601,"ĠzÊĮjavÊ²ËĪi":3602,"ĠrËĪÉĳm":3603,"ĠkÊĮrËĪo":3604,"ĠÊĮprÊ²idÊ²iÉŃÊ²ËĪÉĳ":3605,"Ġthe":3606,"ĠdËĪÉĳnnyj":3607,"ĠvËĪÉĳÊĥyvÊĮ":3608,"xÊĮdÊ²ËĪitÊ²":3609,"É¡ÉŃa":3610,"spÊĮr":3611,"ĠsÊĮfsÊ²ËĪem":3612,"og":3613,"ĠrËĪÉĶku":3614,"ĠvÊĮzmËĪoÊĴnÊĮsÊ²tÊ²Éª":3615,"nËĪof":3616,"ĠsÊ²imÊ²":3617,"tÉķËĪÉĽ":3618,"ĠÉ¡rËĪÉĳÊĴdÊĮ":3619,"ĠupÊĮtrÊ²i":3620,"ĠÉªnstrËĪuk":3621,"jiÊĥ":3622,"ĠnËĪovÊĮ":3623,"ĠÊĮtnÊĮÊĥËĪÉĽnÊ²ija":3624,"ÊĥÉŃËĪÉĳ":3625,"ĠkËĪux":3626,"spËĪu":3627,"ad":3628,"ĠsÊĮbËĪy":3629,"ĠtakËĪÉĳja":3630,"ĠpÊ²irsÊĮ":3631,"Ġkr":3632,"Ġbuk":3633,"ĠÉªzmÊ²inÊ²ËĪenÊ²ija":3634,"rkÊ²Éª":3635,"ruf":3636,"ĠusÊ²ËĪi":3637,"ĠprÊ²isËĪu":3638,"Ìĥ.":3639,"ÊĴyj":3640,"ÊĴnym":3641,"ĠsÉŃËĪutÊĥÊ²ÊĮjax":3642,"ĠÊĥyrËĪo":3643,"ĠrabËĪotÊ²nÊ²i":3644,"ĠstrËĪÉĶ":3645,"ĠdÊ²iËĪÉĳ":3646,"ĠpÊĮk":3647,"ĠxÊĮtÊ²ËĪe":3648,"ĠnËĪÉĳÊĥÉª":3649,"tÊ²nÊ²ËĪe":3650,"ĠxarËĪÉĳktÊ²i":3651,"mÊ²ËĪen":3652,"ne":3653,"ĠzÊĮÉķi":3654,"É²Ê²ÉĽm":3655,"ĠsÊĮÉ¡ÉŃËĪÉĳsnÊĮ":3656,"ÉķËĪenÊ²iÉª":3657,"ĠrËĪÉĳnÊ²ijÉª":3658,"ĠËĮÉĽstËĪÉĽ":3659,"ĠsÊĮbÊ²irËĪÉĳ":3660,"ĠËĮÉĶtp":3661,"jËĪÉª":3662,"tÊĮvÊĮ":3663,"ĠvÊ²ËĪerx":3664,"ĠkÊĮÉŃÊ²ËĪe":3665,"ĠÉªskËĪus":3666,"ĠvÊĮsstÊĮnÊĮ":3667,"ĠÉªspËĪoÉŃzÊĮvÊĮnÊ²ija":3668,"stÊĮrËĪo":3669,"tnÊĮja":3670,"ĠÉªdÊ²ËĪe":3671,"ĠkÊĮpÊ²i":3672,"ĠÉ¡ËĪoÉŃÊĮ":3673,"pku":3674,"Åĭku":3675,"ĠznËĪÉĳtÊĥÊ²it":3676,"ĠkÊĮnts":3677,"ĠÉªzÊĮbra":3678,"Ġ21":3679,"ĠÊĮsnËĪovÊ²i":3680,"ĠtrÊ²ËĪebÊĮvÊĮnÊ²ija":3681,"ĠbÉŃÊ²i":3682,"ĠprÊ²a":3683,"ĠjËĪÉĽdna":3684,"nÊĳi":3685,"ĠÊĴyÉŃÊ²ËĪe":3686,"str":3687,"stÊĮm":3688,"ĠtÊ²a":3689,"ĠrÊĮzÊĮ":3690,"nËĪym":3691,"tyx":3692,"ĠnÊ²iprÊ²i":3693,"ĠsÊ²ËĪemÊ²":3694,"tsÉĶ":3695,"skÊ²ËĪi":3696,"ĠprÊĮbÉŃÊ²ËĪem":3697,"ĠÉªÉ¡rËĪÉĳtÊ²":3698,"Ġin":3699,"ÊĴda":3700,"ĠutÊĥÊ²ËĪity":3701,"snyj":3702,"tÊ²iÉŃÊ²ÊĮmÊ²Éª":3703,"ĠkÉŃËĪu":3704,"ĠzÉĶ":3705,"ĠmÊ²ËĪira":3706,"nÊ²ËĪet":3707,"ÊĥËĪÉĳtÊ²":3708,"ĠÉªmÊ²ËĪetÊ²":3709,"Ġ:":3710,"ĠÉªs":3711,"ĠvËĪypÉŃÊĮ":3712,"nÊ²ËĪerÉ¡Ê²i":3713,"stÉĽm":3714,"ĠuvÊ²ËĪerÊ²i":3715,"ĠnÊ²ËĪem":3716,"ĠktËĪurÉ¨":3717,"fsÊ²i":3718,"ĠnËĪaÊĥ":3719,"sÊ²tÊ²ir":3720,"ĠfËĪormu":3721,"ĠprÊĮizÊĮ":3722,"mÊ²inÊ²ËĪi":3723,"nÊ²ËĪÉĳjut":3724,"ĠvyzyvËĪÉĳ":3725,"ĠvydÊ²i":3726,"ĠfËĪi":3727,"nÊĮmÊ²ËĪi":3728,"rabËĪotÊĮ":3729,"ĠprËĪoÊĥ":3730,"trËĪo":3731,"vÊĮjim":3732,"ĠkËĪoÊĴÉª":3733,"pÉŃÊ²ËĪenÊ²ija":3734,"ĠrukÊĮvÊĮ":3735,"xËĪodÊ²i":3736,"tvÊĮ":3737,"ĠpÉŃÊ²i":3738,"strËĪÉĳn":3739,"tsjÉĽ":3740,"tuf":3741,"ĠÉªnvÊ²i":3742,"ĠrÉĽ":3743,"ĠpÊĮzvËĪoÉŃÊ²i":3744,"ĠÉªmËĪuÉķi":3745,"ĠkasËĪÉĳ":3746,"ĠaÉŃÊ²iksËĪÉĳnd":3747,"ĠxÊĮtÊ²ËĪitÊ²i":3748,"rÊĮËĪjatnÊĮ":3749,"ĠnaÉŃËĪoÉ¡ÊĮ":3750,"ĠsÊĮstËĪÉĳf":3751,"ĠrÊ²iÉ¡uÉŃÊ²ËĪÉĳ":3752,"ĠmÊ²ËĪa":3753,"ÉŃÊĮx":3754,"ĠpËĪÉĳr":3755,"vÉŃÊ²ËĪenÊ²ijim":3756,"rÊĥy":3757,"ĠtÊ²ËĪipa":3758,"ĠvÊĮÊĳdÊ²ËĪejstvÊ²i":3759,"ĠÊĮsËĪobÊĮ":3760,"ĠÊĮstaÉŃ":3761,"ĠsËĪÉĳmÊĮm":3762,"tÊ²ika":3763,"ĠsudÊ²ËĪe":3764,"ÉŃËĪom":3765,"vÊĮÉŃÊ²Éª":3766,"ĠsËĪÉĳmÊĮjÉª":3767,"sÉĶ":3768,"fËĪÉĳ":3769,"ĠrÊ²iÊĥËĪÉĽ":3770,"ĠÊĮpu":3771,"tÊĥÊ²ijÉª":3772,"ĠdÊ²itËĪÉĳ":3773,"ĠÊĮdnËĪo":3774,"ĠÊĴËĪÉ¨":3775,"ĠmÊ²ÉĽ":3776,"trÊ²ËĪÉª":3777,"Ġ000":3778,"ĠpÊ²irÊ²ivËĪo":3779,"vnyx":3780,"ĠÊĥtotËĪo":3781,"Ġat":3782,"ĠËĪÉĳd":3783,"ĠrabËĪot":3784,"ĠËĮÉĶp":3785,"sÊ²tÊ²ËĪÉĽ":3786,"ix":3787,"ĠnÊ²idÊ²ËĪe":3788,"ĠdÊ²ijstvÊ²ËĪitÊ²iÉŃnÊĮ":3789,"pp":3790,"Ġ22":3791,"É¡ÉŃËĪÉĳ":3792,"vtÊ²i":3793,"ĠnÊ²ËĪiÊĴ":3794,"ĠsÊ²ËĪetÊ²Éª":3795,"kÉĽ":3796,"skËĪof":3797,"ĠkËĪÉĳÊĴdÊĮvÊĮ":3798,"ĠbÊ²izÊĮpËĪÉĳsnÊĮsÊ²tÊ²Éª":3799,"rËĪodÊ²i":3800,"ĠzanÊ²ËĪÉĳ":3801,"bËĪoÉŃ":3802,"ĠustanËĪÉĳvÉŃÊ²i":3803,"ÉŃÊ²ËĪibÊĮ":3804,"bËĪÉĶ":3805,"ĠdÊ²irÊ²i":3806,"ĠrazmÊ²ËĪer":3807,"ĠÉªnfÊĮrmËĪÉĳtsyju":3808,"kËĪÉĳk":3809,"tÊĥÊ²im":3810,"ĠÊĴËĪÉĽnÉķiny":3811,"ĠÉªzbÊ²i":3812,"ĠsÊĮbÉŃÊ²u":3813,"ĠÉªm":3814,"ĠfsÊ²ËĪej":3815,"prËĪÉĳvÉŃÊ²i":3816,"um":3817,"ĠtËĪysÊ²ÊĮtÊĥÊ²":3818,"ĠprÊĮÉ¡rËĪÉĳmmy":3819,"Ġix":3820,"ĠkÊĮÉŃÉŃÊ²ËĪe":3821,"vËĪÉĳnÊ²ijim":3822,"ĠÊĴËĪyd":3823,"ĠrÊĮss":3824,"ĠdËĪoÉŃÉ¡ÊĮ":3825,"ĠnÊ²ibÊĮÉŃÊĥËĪo":3826,"rËĪofkÊ²Éª":3827,"ĠfËĪÉĳktÊĮ":3828,"ĠnËĪovyx":3829,"ĠvËĪyvÊĮ":3830,"kuju":3831,"ĠÊĮbraÉķËĪÉĳ":3832,"ĠsÊ²in":3833,"ĠsmÊĮtrÊ²ËĪetÊ²":3834,"ĠpËĪoÉŃzu":3835,"Ġfp":3836,"ĠvÊĮdÊĮ":3837,"ĠpÊĮrÊĮ":3838,"ĠÊĮtvÊ²ËĪet":3839,"ÊĴytsÊĮ":3840,"vÊ²itÊ²sÊ²ÊĮ":3841,"ĠdÊ²ËĪeÉŃÊ²i":3842,"ĠÊĮpÊ²isËĪÉĳ":3843,"ĠÉŃu":3844,"fÊ²itsËĪy":3845,"ÊĴytÊ²i":3846,"mÊ²int":3847,"stvÊ²ija":3848,"Ġkl":3849,"mÊĮtrÊ²ËĪÉĳ":3850,"sÊ²nÊ²ËĪi":3851,"dÊ²ËĪenÊ²ijÉª":3852,"ĠstÊĮËĪja":3853,"ÉŃÊ²ËĪit":3854,"ĠnÊ²ËĪekÊĮtÊĮryx":3855,"ĠdvÊ²ËĪer":3856,"dnyj":3857,"ÉĶvËĪanÉĽ":3858,"ĠkrËĪovÊ²Éª":3859,"ĠnÊ²ikÊĮÉ¡dËĪÉĳ":3860,"pka":3861,"ĠkÊ²itËĪÉĳ":3862,"ĠpÊĮstÊĮËĪjannÊĮ":3863,"ĠstanËĪovÊ²itsÊĮ":3864,"ĠuznËĪÉĳtÊ²":3865,"ĠpÊ²irÊ²idËĪÉĳ":3866,"ĠpÊĮdtvÊ²irÊĴ":3867,"tamÊ²ËĪi":3868,"com":3869,"rÊ²ËĪitÊ²i":3870,"ĠnËĪÉĳÊĥ":3871,"nÊ²ËĪu":3872,"nÊĮstÊ²":3873,"ĠprÊ²ËĪeÊĴdÊ²i":3874,"im":3875,"ĠsÊĮtÊĥÊ²itËĪÉĳ":3876,"ĠpÉŃËĪoÉķÊĮ":3877,"mat":3878,"ĠtÊ²ËĪÉĽ":3879,"ĠÉ¡rËĪuppy":3880,"ĠsÊ²imÊ²ËĪej":3881,"ĠmÊ²ËĪÉĽjs":3882,"ĠtsvÊ²ËĪet":3883,"zdnÊ²i":3884,"ĠtvÊĮ":3885,"ĠsÊ²nÊ²ËĪi":3886,"ĠÉĽkÊĮnËĪomÊ²i":3887,"ia":3888,"ĠjÉªdÊ²ËĪin":3889,"ĠËĪotÊĥÊ²irÊ²itÊ²":3890,"ĠnÊĮkÊĮ":3891,"É¡ÉŃÊĮ":3892,"kazËĪÉĳtÊ²":3893,"dÊ²ËĪitÊ²iÉŃ":3894,"ĠtÊ²ibÊ²ËĪÉĳ":3895,"ĠmÊĮbÊ²ËĪi":3896,"vnyjÉª":3897,"ĠpytËĪÉĳ":3898,"ĠpÊĮmËĪoÊĴyt":3899,"ndÊĮ":3900,"ĠprÊĮstrËĪÉĳn":3901,"kÊĮsÊ²tÊ²Éª":3902,"ĠusÉŃËĪuÉ¡Ê²Éª":3903,"ĠsfÊ²ËĪe":3904,"tÊ²iÉŃnÊĮja":3905,"ĠskazËĪÉĳtÊ²":3906,"xÉĶ":3907,"ĠsËĪut":3908,"Ê²at":3909,"ndÊĳ":3910,"ÊĴnÊĮvÊĮ":3911,"ĠÉ¡Ê²ËĪe":3912,"ĠmÊĮdÊ²ËĪeÉŃÊ²Éª":3913,"ĠpÊĮÉŃutÊĥÊ²ËĪenÊ²ija":3914,"ĠÉ¡ÊĮvÊĮrÊ²ËĪit":3915,"vÉŃÊ²ËĪÉĳtÊ²":3916,"ĠvËĪyÊĥ":3917,"ĠkuÉŃtËĪu":3918,"ĠÊĴur":3919,"tnym":3920,"tÊĥÊ²iskuju":3921,"Ġakku":3922,"ĠsÊ²ituËĪÉĳtsyÉª":3923,"É¡ÊĮtÊĮvÉŃÊ²ËĪenÊ²ija":3924,"ĠfÊĮtÊĮÉ¡rËĪÉĳfÊ²i":3925,"fËĪi":3926,"ĠbËĪonu":3927,"jm":3928,"kËĪuju":3929,"dÊ²ËĪiÉŃ":3930,"ĠvzÊĮ":3931,"ĠsÊĮÊĮtvÊ²ËĪetstvÊ²iÉª":3932,"Ġfra":3933,"nËĪova":3934,"tÊĥËĪÉĽÉ²Ê²a":3935,"ĠnaÉ¡rËĪu":3936,"ÉŃÊ²iÉª":3937,"ĠÊĮptÊ²i":3938,"ÉŃnÊ²ËĪej":3939,"ndy":3940,"ĠÉ¡ÉŃËĪÉĳvnÊĮjÉª":3941,"ĠzakrËĪy":3942,"ĠËĪÉĽtÊĮmu":3943,"ĠÉĽkÊĮnÊĮmÊ²ËĪi":3944,"ĠmËĪoj":3945,"ĠvÊ²iÉŃÊ²i":3946,"Ġrast":3947,"ĠpÊĮbÊ²ËĪe":3948,"ĠÊĮtra":3949,"ĠÊĳËĪem":3950,"ĠumÊ²i":3951,"ĠÉŃÊ²itsËĪo":3952,"ĠzËĪu":3953,"zma":3954,"Ñĭ":3955,"stÊĮËĪit":3956,"mÊĮx":3957,"ÉŃËĪof":3958,"stËĪÉĽmp":3959,"ĠvËĪÉĳÊĥy":3960,"Ġ199":3961,"ĠrÊĮsskazËĪÉĳ":3962,"pÉŃa":3963,"ntÊĮmÊ²Éª":3964,"zËĪovÊĮ":3965,"ĠstÊĮrÊĮ":3966,"ĠusÉŃËĪuk":3967,"ĠmÊĮskvÊ²ËĪe":3968,"Ġmi":3969,"ĠfËĪormy":3970,"ÊĥËĪÉĳja":3971,"ĠkanËĪÉĳ":3972,"ĠkÊĮs":3973,"ĠÊĴËĪÉĽnÉķin":3974,"kËĪomÊ²i":3975,"ĠpÊĮÉŃÊĮÊĴËĪy":3976,"ĠmÊ²ËĪÉĳx":3977,"stÊĮj":3978,"ĠnÊĮrmËĪÉĳ":3979,"tÊĥÊ²ËĪenÊ²ijim":3980,"ĠâĢ¢":3981,"ĠÉªnfÊĮrmËĪÉĳtsyja":3982,"spËĪo":3983,"Ġe":3984,"Ġfunk":3985,"ĠÊĥËĪu":3986,"ĠtrÊ²ËĪebujitsÊĮ":3987,"ĠmÊ²ikrÊĮ":3988,"ĠÊĮsËĪobÊ²innÊĮsÊ²tÊ²Éª":3989,"ĠmÊ²ËĪesÊ²ÊĮtsyf":3990,"dku":3991,"É²Ê²ÉĶ":3992,"ĠsÊ²izËĪo":3993,"ĠfÊ²idÊ²irËĪÉĳtsyÉª":3994,"ĠrÊ²iËĪÉĳ":3995,"sÊ²itÊ²":3996,"mÊ²ËĪitÊ²i":3997,"ĠnaÉŃÊ²ËĪitÊĥÊ²ijÉª":3998,"ĠjÉªsÊ²tÊ²ËĪÉĽ":3999,"ĠsÊ²ËĪerd":4000,"ĠjËĪakÉĶ":4001,"ĠkÊĮtËĪorym":4002,"kÊ²ir":4003,"ĠmÊĮtÊ²irÊ²iËĪÉĳÉŃÊĮf":4004,"ĠzbËĪor":4005,"mËĪa":4006,"ĠprËĪats":4007,"ge":4008,"ĠvËĪyxÊĮ":4009,"ĠpÊ²ËĪerÊ²i":4010,"tËĪÉĳk":4011,"ĠnÊĮr":4012,"ÉŃku":4013,"ĠprÊĮvÊ²ËĪerÊ²i":4014,"40":4015,"nÊĮsÊ²tÊ²Éª":4016,"rËĪok":4017,"dÊ²iÉª":4018,"tÊĥÊ²ËĪisÉŃÊ²i":4019,"ĠmÊ²ËĪirÊ²i":4020,"ĠÊĮÉ¡ranÊ²ËĪi":4021,"ĠzÊĮvÊ²irÊĥ":4022,"ĠtÉķËĪÉĽ":4023,"ww":4024,"ĠnÊ²ivÊĮzmËĪo":4025,"ĠspÊ²itsyËĪÉĳÉŃnÊĮ":4026,"ĠtsËĪÉĽny":4027,"ĠvÊ²iÉķist":4028,"ĠrÊ²ikÊĮmÊ²indËĪujitsÊĮ":4029,"fÊĥysÊ²":4030,"ĠbÊ²iz":4031,"ĠnÊĮnÊ²i":4032,"ĠdÊ²ËĪenÊ²ik":4033,"ĠfsÊ²ËĪu":4034,"ĠdËĪomÊ²i":4035,"ĠkÊ²ËĪe":4036,"pusk":4037,"ĠsvËĪÉĳ":4038,"naÉŃÊ²ËĪi":4039,"nÉ¡Ê²i":4040,"ĠfstrÊ²i":4041,"ĠÊĮpÉķËĪestvÊ²i":4042,"ranÊ²ËĪitÊ²":4043,"ĠjËĪÉĽdnak":4044,"ËĪÉĶvÉ¨m":4045,"ĠpartÊ²nÊ²ËĪe":4046,"ĠÉĽkspÉŃu":4047,"ĠpsÊ²ixÊĮ":4048,"ËĪatsja":4049,"ĠsÊĮstÊĮËĪjanÊ²ijÉª":4050,"ĠÊĮbj":4051,"ĠmËĪi":4052,"nËĪuju":4053,"ĠpËĮa":4054,"pËĪy":4055,"É²stf":4056,"vËĪÉĶ":4057,"ĠpÊĮtÊ²ËĪe":4058,"ĠjËĪÉĽÉ¡ÉĶ":4059,"ÉķËĪÉĽ":4060,"ÊĴËĪÉĳj":4061,"ĠsÊĮbËĪÉĳ":4062,"tÊĥÊ²ËĪÉĳja":4063,"ĠjËĪÉĽÉķli":4064,"ÉŃËĪoÉ¡Ê²ija":4065,"nkt":4066,"ËĪawÉ¨":4067,"ĠÊĥtËĪÉĳ":4068,"ĠvÊĮk":4069,"ÊĥtÊĥÉĽ":4070,"É¡ËĪa":4071,"juÉķimÊ²Éª":4072,"wËĪÉ¨":4073,"snyjÉª":4074,"ĠÉªspËĪoÉŃzujitsÊĮ":4075,"ĠxËĪÉĶ":4076,"am":4077,"ĠvÊ²ËĪesÊ²":4078,"rËĪÉĳn":4079,"ĠprËĪÉĳktÊ²i":4080,"ĠsvÊ²a":4081,"ĠkËĪÉĳtÊĥÊ²istva":4082,"ÊĥËĪyjÉª":4083,"ĠpÊĮprËĪo":4084,"ĠËĪurÊĮvnÊ²ÊĮ":4085,"ËĪÉĶvi":4086,"ĠbÊĮrÉª":4087,"ĠrËĪÉĳza":4088,"ĠsËĪÉĳmym":4089,"ĠtËĪÉĽÊĥ":4090,"rd":4091,"ÉŃÊ²ËĪet":4092,"jjËĪez":4093,"ĠrËĪukÊ²Éª":4094,"stnÊĮsÊ²tÊ²Éª":4095,"ĠuÉŃu":4096,"Ġdy":4097,"tËĪoj":4098,"ĠdÊĮkumÊ²ËĪenty":4099,"ÉķtÉķÉĽ":4100,"nÊ²ikÊĮm":4101,"tÊĥnÉĽ":4102,"ĠutvÊ²irÊĴ":4103,"ËĮÉĽm":4104,"ĠnËĪÉĳtÊĥÊ²ÊĮ":4105,"ÉĽf":4106,"ĠaftÊĮmÊĮbÊ²ËĪiÉŃÊ²ÊĮ":4107,"ĠvËĪydÊ²i":4108,"ĠnuÊĴ":4109,"Ê²ËĪÉĽn":4110,"tÊ²ËĪivnÊĮ":4111,"ÊĴËĪÉĽnÊ²ijim":4112,"vna":4113,"Ġ2018":4114,"skÊ²ËĪÉĽÉ¡ÉĶ":4115,"znËĪa":4116,"vrËĪÉĳ":4117,"Ġ23":4118,"ĠtÊ²ËĪeÉŃa":4119,"ĠparËĪÉĳ":4120,"ĠstrÊĮxÊĮ":4121,"ntÉ¨":4122,"ĠkËĪor":4123,"ĠdËĪoÉŃÉŃÊĮ":4124,"ĠÉªspËĪoÉŃzÊĮvÊĮnÊ²ijÉª":4125,"tsÊĮmÊ²Éª":4126,"ĠkËĪÉĳmÊ²i":4127,"ĠvÊ²iÉŃÊ²ËĪi":4128,"ĠÃ§":4129,"Ġau":4130,"ĠsÊĮstavÉŃÊ²ËĪÉĳ":4131,"ĠnÊĮtsyÊĮnËĪÉĳ":4132,"ĠstËĪu":4133,"ĠvËĪoÉŃÊĮs":4134,"spËĪubÉŃÊ²i":4135,"ĠsËĪozdÊĮ":4136,"ĠÊĮtnÊĮsÊ²ËĪi":4137,"jimyj":4138,"vnyj":4139,"ĠpÊĮÉŃ":4140,"ĠstruktËĪu":4141,"É¡ru":4142,"ĠspÊĮsËĪobnÊĮ":4143,"ĠvËĪyÉ¡ÊĮ":4144,"ĠkËĪÉĳtÊĥÊ²istvÊĮ":4145,"tnÊĮjÉª":4146,"us":4147,"Ð²":4148,"ĠpÊ²irsÊĮnËĪÉĳ":4149,"ĠprÊ²ivËĪy":4150,"ĠÉªÉ¡rËĪu":4151,"ĠprÊ²iÊ":4152,"ĠprÊ²iÊĮ":4153,"dÊĮmÊ²Éª":4154,"Éķf":4155,"ssy":4156,"ĠstatÊ²jËĪÉª":4157,"ĠsÊ²u":4158,"ĠmÊ²ËĪir":4159,"ĠprÊ²ijËĪem":4160,"Ġof":4161,"ÊĳiÉª":4162,"ĠprÊ²idprÊ²i":4163,"É¡rËĪa":4164,"tÉķËĪi":4165,"zËĪÉĽ":4166,"ĠnrËĪÉĳ":4167,"ntsÉĽ":4168,"kÊ²imÊ²Éª":4169,"nÊ²ËĪetÊ²i":4170,"fËĪort":4171,"tru":4172,"ĠdÊĮkumÊ²ËĪentÊĮf":4173,"vËĪojÉª":4174,"ĠprÊ²iznËĪÉĳ":4175,"Ġvyra":4176,"ËĪÉĳn":4177,"fËĪÉĽ":4178,"ĠvËĪoj":4179,"ĠrÊ²ËĪÉĳdÊĮm":4180,"rtÉĶ":4181,"ĠpÊĮpËĪÉĳ":4182,"ĠfËĪormÊ²i":4183,"ĠËĪodzyvy":4184,"18":4185,"ĠtrËĪÉĳnspÊĮrt":4186,"ĠkrÊ²idÊ²ËĪit":4187,"ĠÊĮsnÊĮvnËĪyjÉª":4188,"ĠsnËĪova":4189,"ĠdÊ²ËĪetÊ²Éª":4190,"ĠamÊ²irÊ²i":4191,"ĠÉ¡ÊĮrÊĮd":4192,"ĠrÊ²ispËĪubÉŃÊ²i":4193,"nÊ²ir":4194,"ĠsmËĪy":4195,"ÉķËĪÉĳjitsÊĮ":4196,"mÊĮmÊ²Éª":4197,"Ġ60":4198,"ĠznatÊĥÊ²ËĪitÊ²iÉŃnÊĮ":4199,"ĠzËĮÉĽ":4200,"tÊĥÉĶ":4201,"ĠtrÊ²ËĪetÊ²":4202,"ĠpÊĮdÊ²dÊ²ËĪerÊĴy":4203,"ĠunÊ²ikËĪÉĳ":4204,"skËĪu":4205,"ĠpÊĮvÊ²ËĪerxnÊĮsÊ²tÊ²Éª":4206,"ĠpÊĮÉŃnÊĮ":4207,"ĠbÉŃÊ²ËĪu":4208,"ĠprÊ²idÊ²ËĪetsÊĮ":4209,"ĠnÊ²ismÊĮtrÊ²ËĪÉĳ":4210,"ĠËĮÉĶd":4211,"fÊĥyjÉª":4212,"ĠÊĮtvÊ²i":4213,"ĠjÉªvrÊĮ":4214,"ĠÉ¡ÊĮrÊ²ËĪÉĳ":4215,"ndËĪÉĳrt":4216,"ĠtÊ²ËĪebÊ²i":4217,"krËĪo":4218,"nuf":4219,"frÊĮ":4220,"ÉĶvËĪi":4221,"liz":4222,"ĠprÊĮjËĪekt":4223,"ĠmÊĮtÊ²irÊ²iËĪÉĳÉŃy":4224,"dÊ²in":4225,"vÉŃÊ²ËĪenÊ²iju":4226,"É²ËĪika":4227,"ĠbrËĪo":4228,"bÊ²iÉŃ":4229,"nnÊ²ij":4230,"ÉŃÊĮmÊ²Éª":4231,"tÊĥÊ²iskÊ²imÊ²Éª":4232,"ĠrukÊĮvËĪod":4233,"ÉŃÊ²ikËĪo":4234,"pÊĮf":4235,"Ġjan":4236,"ĠvÊ²ËĪidy":4237,"ĠprËĪÉĳv":4238,"ĠtÊ²ipÉŃÊĮ":4239,"ĠËĪÉĽn":4240,"kim":4241,"ĠutÊĥÊ²ËĪÉĳsÊ²tÊ²ijÉª":4242,"ĠÊĮrÊ²iÉ¡Ê²i":4243,"jusÊ²":4244,"natÊĥÊ²ËĪÉĳÉŃa":4245,"ĠmËĪyÊĥ":4246,"ni":4247,"ĠnÊ²ËĪeskÊĮÉŃkÊ²ix":4248,"pÊĮÉŃnÊ²ËĪe":4249,"ĠÉ¡raÊĴdËĪÉĳ":4250,"ĠÊĮbrÊĮzÊĮvËĪÉĳnÊ²ija":4251,"ĠJ":4252,"ĠbÊ²ËĪiÊĳnÉĽs":4253,"ll":4254,"Ġ2017":4255,"ĠbËĪÉĽs":4256,"ĠvÊ²itamÊ²ËĪi":4257,"pÊ²ËĪer":4258,"ĠukraËĪiny":4259,"Ġ2019":4260,"tÉķa":4261,"fÊĥyvÊĮ":4262,"ĠprËĪÉĳvÊ²iÉŃa":4263,"nËĪÉ¨mi":4264,"Ê²ËĪÉµm":4265,"kwa":4266,"ĠvËĪi":4267,"ĠvzÊĮimÊĮ":4268,"ĠrÊ²imËĪont":4269,"ÊĥÉĶ":4270,"te":4271,"ĠkÊĮnsu":4272,"vnÉĶ":4273,"ĠdaÉŃnÊ²ËĪej":4274,"60":4275,"ĠsÊ²ËĪiÉŃnÊĮ":4276,"ĠdÊ²imÊĮ":4277,"ntsa":4278,"ĠdvÊ²iÊĴËĪÉĽnÊ²ija":4279,"tsËĪu":4280,"É²ËĪikuf":4281,"nna":4282,"ĠmÊ²inÊ²i":4283,"ĠpÊĮbÊ²i":4284,"ĠvÉŃadÊ²ËĪi":4285,"ĠsmÊĮ":4286,"ËĪop":4287,"ĠsmËĮoÊĴytÊ²i":4288,"ĠlËĪu":4289,"brÊ²ËĪe":4290,"ĠÊĮÉ¡rËĪom":4291,"ĠprÊ²ivÉŃÊ²ikËĪÉĳ":4292,"ĠfËĪÉĳj":4293,"Ġry":4294,"kÊĮntÊĥÊ²ËĪÉĳ":4295,"ĠsÉŃËĪova":4296,"Ġxra":4297,"ĠjurÊ²idÊ²ËĪi":4298,"tÊ²ÉĽr":4299,"vrÊ²ËĪe":4300,"rÊ²ËĪedkÊĮ":4301,"ĠÉªstËĪotÊĥÊ²nÊ²ik":4302,"bËĪa":4303,"ĠÉ¡ranÊ²ËĪi":4304,"tËĪok":4305,"ĠvËĪÉĳÊĥyj":4306,"tÊĥÊ²nÊĮstÊ²":4307,"ĠsamËĪÉĳ":4308,"ĠstËĪÉĳnÊ²it":4309,"ĠprÊĮizvËĪodstva":4310,"tÊĥËĪÉĽÉ²Ê²ÉĽ":4311,"mÊĮstÊ²":4312,"ĠpÊĮjËĪe":4313,"ĠprËĪÉĳzdnÊ²i":4314,"myx":4315,"jjif":4316,"ĠÊĮkÊĮntÊĥÊ²ËĪÉĳ":4317,"ĠpÉŃËĪÉĳsÊ²tÊ²i":4318,"ĠËĪoddy":4319,"ĠbrÊ²i":4320,"ĠjÉªdÊ²ËĪinstvÊ²i":4321,"ĠÉ¡dËĪÉ¨":4322,"ĠsnatÊĥÊ²ËĪÉĳÉŃa":4323,"fËĪa":4324,"stanËĪo":4325,"ĠWi":4326,"bÊ²in":4327,"pËĪom":4328,"snÊĮj":4329,"ĠznËĪÉĳtÊ²":4330,"ÉŃÊ²ÊĮx":4331,"Ê²dÊ²i":4332,"ĠËĮinfÉĶ":4333,"ĠkÊĮmpÊĮnÊ²ËĪe":4334,"ĠprÊĮmËĪy":4335,"tÊ²irbËĪu":4336,"ĠnËĪovÊĮvÊĮ":4337,"ĠraÊĳdÊ²ËĪe":4338,"ÉŃÊ²ËĪenÊ²iju":4339,"ĠdvÊĮ":4340,"ĠknËĪo":4341,"ĠaÉŃkÊĮ":4342,"rÊ²izËĪÉĳ":4343,"tÊĥÊ²iskÊĮm":4344,"zËĪa":4345,"rapÊ²ËĪi":4346,"ĠbÊĮÉŃÊĥynstvËĪo":4347,"ck":4348,"25":4349,"ĠÊĮbnarËĪuÊĴy":4350,"ĠÉªzvÊ²ËĪestnÊĮ":4351,"ĠpÊĮkËĪÉĳzy":4352,"200":4353,"É¡ËĪovÊĮ":4354,"ĠutÊĥÊ²rÊ²i":4355,"ĠËĪÉĳftÊĮr":4356,"tÊĥas":4357,"ĠstatÊ²jjËĪe":4358,"rka":4359,"bËĪof":4360,"ĠpËĪÉĳÉŃ":4361,"ĠrÊĮspÊĮÉŃËĪoÊĴy":4362,"Éķm":4363,"ĠxÊĮÉŃËĪo":4364,"ĠÉĽkspÊ²ËĪer":4365,"ĠtËĪon":4366,"ĠdruÉ¡Ê²ËĪimÊ²Éª":4367,"ĠpÊĮÉŃÊĮvÊ²ËĪi":4368,"ĠvzÉ¡ÉŃÊ²ËĪÉĳ":4369,"ĠprÉĶdËĪu":4370,"ĠprÊ²itÊĥÊ²ËĪiny":4371,"ĠstudÊ²ËĪe":4372,"ĠprÊ²imÊ²ËĪernÊĮ":4373,"ĠdËĪÉĶb":4374,"ĠlÉĽ":4375,"ĠfpÊĮÉŃnÊ²ËĪe":4376,"krÊ²ËĪet":4377,"ĠpÊĮÉŃutÊĥÊ²ËĪÉĳ":4378,"ÉŃÊ²ËĮÉª":4379,"ĠnÊ²iÊĮpxÊĮdÊ²ËĪimÊĮsÊ²tÊ²Éª":4380,"dvÊ²ËĪiÊĴy":4381,"ĠÉªstËĪorÊ²iÉª":4382,"pÉĽ":4383,"ĠdÉŃÊ²i":4384,"Ġ2016":4385,"ĠmnËĪoÊĴystvÊĮ":4386,"ĠÊĮdÊ²dÊ²i":4387,"kËĪÉĳs":4388,"ĠkudËĪÉĳ":4389,"tÊĥÊ²ËĪej":4390,"tÉĽr":4391,"ĠsËĪÉĳmÊ²Éª":4392,"ĠnarËĪu":4393,"kÊ²ÉĽm":4394,"srÊ²ËĪed":4395,"ĠkÊĮmmÊ²intËĪÉĳ":4396,"ĠprÊ²ËĪÉĳmÊĮ":4397,"ĠrÊĮznÊĮÊĮbrËĪÉĳ":4398,"ĠÉªdÊ²ËĪet":4399,"ĠkazËĪÉĳ":4400,"rÊ²ËĪejÉª":4401,"ĠadmÊ²inÊ²istrËĪÉĳ":4402,"pÊ²ËĪej":4403,"ĠrazÉŃÊ²ËĪitÊĥÊ²nyjÉª":4404,"ĠÊĮrÉ¡anÊ²ËĪizma":4405,"ĠÊĥkËĪo":4406,"ÊĳËĪirÊĮvÊĮ":4407,"ĠbÉŃËĪo":4408,"ĠÊĮtÊ²tÊ²ËĪe":4409,"ĠstËĪoÉŃ":4410,"ĠskËĪu":4411,"dÊ²ir":4412,"ndÊ²ËĪe":4413,"ĠpÉŃÊ²ËĪu":4414,"dÊ²iËĪo":4415,"ĠpÊĮpa":4416,"dnÊĮjÉª":4417,"ÉŃËĪosÊ²":4418,"ĠÉªspËĪoÉŃzujut":4419,"ÉŃÊ²ËĪÉĽn":4420,"ktÊĮm":4421,"ĠvzrËĪos":4422,"ÊĥÊĥy":4423,"ĠrËĪÉĳmkÊĮx":4424,"ĠÉªntÊ²ÉĽrÊ²ËĪesnÊĮ":4425,"ĠzaËĪja":4426,"É¡ÊĮf":4427,"ĠsÊĮzdËĪÉĳtÊ²":4428,"ĠprÊ²idÊĮstËĪÉĳ":4429,"ĠapparËĪÉĳ":4430,"jËĪÉĶntsÉĽ":4431,"dnÊĮja":4432,"Ġtur":4433,"ĠÉķËĪÉĽ":4434,"skÊ²ÉĽj":4435,"ĠÊĮpsÉŃËĪuÊĴy":4436,"ĠpËĪunk":4437,"ĠrazvÊ²ËĪitÊ²ijÉª":4438,"ĠÉ¡ÊĮÉŃËĪo":4439,"ĠÊĮfËĪor":4440,"ĠrasxËĪo":4441,"ĠmÊĮtÊ²irÊ²iËĪÉĳÉŃa":4442,"ĠbËĪa":4443,"wÉĽm":4444,"Ġfud":4445,"ĠdÊ²ËĪenÊ²i":4446,"ĠsËĮa":4447,"vatÉķ":4448,"sÊ²tÊ²ËĪer":4449,"rÊĮk":4450,"ĠtËĪÉĽn":4451,"ĠprÊĮdÊĮÉŃÊĴËĪÉĳ":4452,"ĠMa":4453,"snyx":4454,"ĠbÉŃÊĮ":4455,"ĠÉĽffÊ²iktÊ²ËĪiv":4456,"ĠzËĪÉĳpÊ²i":4457,"bËĪom":4458,"os":4459,"ĠpÊĮmÊĮÉ¡ËĪÉĳjit":4460,"ĠmËĪÉĳsÉŃÊĮ":4461,"ĠÉªntÊ²ÉĽrÉª":4462,"ĠmËĮÉĶ":4463,"ĠstËĪÉĳÉŃÊĮ":4464,"ĠkÊĮmpÉŃÊ²ËĪe":4465,"ĠnÊ²ivÊĮzmËĪoÊĴnÊĮ":4466,"ĠÉ¡ÉĶ":4467,"ĠÊĥËĪy":4468,"ĠpÊ²ËĪÉĽrÊĥ":4469,"ĠÊĮbËĪo":4470,"É¡rÊĮnÊ²i":4471,"ktÉ¨":4472,"dÊĴy":4473,"ir":4474,"ntuf":4475,"bÊĮtÊĮ":4476,"ĠÉĽkspÊ²i":4477,"ĠdajËĪet":4478,"ĠnÊ²idvÊ²ËĪiÊĴy":4479,"ĠÊĮsvÊ²i":4480,"ĠÉ¡ÊĮra":4481,"ĠÉĽkspÉŃua":4482,"ĠvÊĮstËĪo":4483,"vÊ²iÉŃÊ²Éª":4484,"ĠdÊ²ËĪejstvu":4485,"ĠnasÉŃÊ²ËĪe":4486,"ĠkÉŃÊ²u":4487,"ĠpÊĮvËĪyÊĥy":4488,"dËĪÉĶ":4489,"nÊ²iknÊĮvÊ²ËĪe":4490,"dÉ²Ê²ÉĽ":4491,"ÉŃÊ²ËĪÉĳtsyÉª":4492,"jËĪem":4493,"ĠkÉĶlËĪÉĽ":4494,"ĠpÊĮmÊ²iÉķËĪenÊ²ija":4495,"ĠÉķËĪÉĳ":4496,"ĠpÊ²itËĪÉĳnÊ²ija":4497,"ĠvÊ²irÊĮËĪjatnÊĮ":4498,"ĠutÊ²i":4499,"ĠfÊĮrmËĪÉĳ":4500,"ĠvnutrÊ²ËĪÉª":4501,"ĠpÊ²ËĪervuju":4502,"ĠbÉĽ":4503,"jimÊĮvÊĮ":4504,"nut":4505,"ÉŃÊ²ËĪenÊ²iÉª":4506,"ĠprÊ²idprÊ²inÊ²imËĪÉĳ":4507,"ĠÉĽnÊ²ËĪerÉ¡Ê²i":4508,"ĠdËĪÉĳnnÊĮj":4509,"ĠrasskËĪÉĳzy":4510,"ĠtvËĪor":4511,"ĠbÊ²iÊ":4512,"ĠbÊ²iÊĮ":4513,"tËĪa":4514,"ĠnÊĮtu":4515,"mÉĽ":4516,"nÊĥËĪÉĽ":4517,"nÊ²itÊ²i":4518,"ĠÉĽffÊ²ËĪekt":4519,"ĠsËĪÉĽ":4520,"ĠÉ²Ê²ËĪÉĽ":4521,"ĠÉ¡rÊ²ËĪe":4522,"vÊ²ËĪa":4523,"ĠupraÊĴ":4524,"ĠsÊĮdÊ²ËĪerÊĴy":4525,"ĠtrudËĪÉĳ":4526,"ĠvÉŃËĪÉĳsÊ²tÊ²Éª":4527,"stkÊ²Éª":4528,"ĠuvÊ²iÉŃÊ²i":4529,"ĠrËĪoÉŃ":4530,"ĠÊĮtÊĥÊ²ËĪi":4531,"ĠpÊĮÊĳËĪi":4532,"juÉķijisÊ²ÊĮ":4533,"brËĪa":4534,"ĠprÊĮÊĴy":4535,"vÊ²ÊĮtsÊĮ":4536,"ĠprÊ²iÉ¡ÊĮtËĪo":4537,"ĠprÊĮvÊ²idÊ²ËĪenÊ²ija":4538,"ĠdrÊĮ":4539,"ĠdÊĮrÊĮ":4540,"prÊ²ËĪi":4541,"ĠspÊ²ËĪisÊĮk":4542,"ĠtÊ²aÊĴËĪÉĽ":4543,"Êĥuju":4544,"ĠÉªssÉŃÊ²ËĪedÊĮvÊĮnÊ²ija":4545,"ĠrasÊ²tÊ²ËĪenÊ²ija":4546,"ĠdÊ²ËĪeÉŃa":4547,"kËĮÉĳ":4548,"nskÊ²ix":4549,"ĠmÊ²inÊ²imËĪÉĳ":4550,"ĠprÊ²idstavÉŃÊ²ËĪÉĳ":4551,"ng":4552,"ĠsÊĮvÊ²irÊĥËĪÉĽnnÊĮ":4553,"ĠpÊĮdxËĪodÊ²it":4554,"ĠÉķitËĪÉĳjitsÊĮ":4555,"ĠsÊĮkra":4556,"stÊ²jja":4557,"ĠpÊĮmÊ²ËĪi":4558,"ĠvËĪÉĳÊĥÉª":4559,"ĠsprÊĮ":4560,"fËĪu":4561,"ĠdÊ²iÊ":4562,"ĠdÊ²iÊĮ":4563,"ĠmËĪÉĳÉŃÊĮ":4564,"Ð´":4565,"ĠÊĮdnËĪu":4566,"ĠÊĥÊ":4567,"ĠÊĥÊĮ":4568,"ĠvÊĮÊĳnÊ²ËĪik":4569,"rtÉ¨":4570,"ĠprÊ²idvarÊ²ËĪi":4571,"jjËĪem":4572,"ĠtsËĮÉĽ":4573,"ÊĥÊĥ":4574,"ĠvËĪydÊĮ":4575,"kËĪÉĳx":4576,"ĠvÊĮspËĪoÉŃ":4577,"ĠnÊĮxÊĮdÊ²ËĪi":4578,"ĠbÊ²irÊ²ËĪemÊ²innÊĮsÊ²tÊ²Éª":4579,"ĠtÊĥÊ²ËĪÉĳst":4580,"ĠËĮÉĽmËĮÉĽÉŃÊ²ËĪÉĽn":4581,"wËĪat":4582,"jËĪÉĽmÉ¨":4583,"Ġsub":4584,"xÊĮd":4585,"tÊĥÉ²Ê²ÉĽ":4586,"ĠrÊĮÊĳdÊ²i":4587,"ÊĳjËĪja":4588,"ĠnÊĮstÊĮËĪjaÉķijÉª":4589,"tÊ²ËĪet":4590,"nkÊĮm":4591,"Ġ*":4592,"ĠÊĴËĪÉĽnÉķina":4593,"pËĪoÉŃ":4594,"od":4595,"âĢĶ":4596,"ĠassÊĮ":4597,"ĠprÊĮstËĪy":4598,"ssËĪÉĳ":4599,"sÊĮx":4600,"ĠfÊĮrmÊ²irÊĮ":4601,"ĠnËĪÉĳÊĥyx":4602,"ĠÊĮpsu":4603,"Įru":4604,"ÊĮru":4605,"ĠnËĪotÊĥÊ²":4606,"ĠmÊ²iÉŃÉŃÊ²iËĪo":4607,"ĠjÉªvrËĪo":4608,"ĠkÊĮmmu":4609,"ĠÉĽÉŃÊ²iktrÊ²ËĪi":4610,"ĠsÊ²iÉ¡":4611,"ĠÉŃÊ²ËĪits":4612,"ÉķËĪÉĳtÊ²":4613,"ĠzÊĮprÊ²i":4614,"Ĥ¬":4615,"vÉŃÊ²ËĪÉĳjit":4616,"vrÊĮ":4617,"80":4618,"nËĪosÊ²itsÊĮ":4619,"tÊĮrÊĮf":4620,"vËĪÉĳjitsÊĮ":4621,"ÊĴËĪÉĽÉ²Ê²a":4622,"Ġjanva":4623,"ĠÊĮÉ¡ranÊ²ËĪitÊĥÊ²i":4624,"rÊ²ËĪu":4625,"ĠsvÊĮjËĪem":4626,"____":4627,"ĠÊĮtrÊ²i":4628,"dÊ²itsyËĪo":4629,"ĠsËĪÉĳmÊĮvÊĮ":4630,"ĠkÊĮvËĪo":4631,"ĠprÊ²idstavÉŃÊ²ËĪÉĳjit":4632,"ÉķËĪenÊ²ij":4633,"ĠÉ¡ÉŃËĪÉĳza":4634,"tÊ²ËĪeta":4635,"17":4636,"ĠdÊ²ika":4637,"ĠkËĪaÊĴ":4638,"ĠvÉŃadÊ²ËĪeÉŃ":4639,"Ð»ÐµÑĤ":4640,"jÉĶn":4641,"ĠprÊĮtÊ²ivÊĮpÊĮ":4642,"ĠvÉĽ":4643,"ĠdrÊ²i":4644,"ĠstËĪÉĳÉŃa":4645,"ĠnÊĮturËĪÉĳ":4646,"ĠpÊĮzd":4647,"ĠÊĮbjjasÊ²":4648,"bËĪutÊ²":4649,"ĠvÊĳËĪÉĳtÊ²":4650,"rÊ²ËĪitÊ²":4651,"ĠÊĳiÉŃÊ²ËĪe":4652,"ĠmÉĽ":4653,"ĠÉ¡ËĪody":4654,"ĠfrËĪÉĳ":4655,"ĠapsÊĮ":4656,"ĠtrÊ²ËĪebujit":4657,"ÉķËĪÉĶ":4658,"ĠnÊ²iÊĮb":4659,"ĠsÊĮzdËĪÉĳnÊ²ija":4660,"ĠmÊ²ËĪeÉŃ":4661,"ĠvÊĮdËĪoj":4662,"ntÊ²ËĪirÊĮvÊĮ":4663,"ĠÊĮrÉ¡ËĪÉĳnÊĮf":4664,"Ġvi":4665,"tËĪÉĳtÊ²":4666,"ĠsÊĮzdËĪÉĳ":4667,"14":4668,"tsÊĮm":4669,"ĠtrËĪudnÊĮ":4670,"ÉķtÉķÉĶ":4671,"ĠbÊĮÉŃÊ²ËĪeÊĳnÊ²Éª":4672,"16":4673,"ĠsÊ²nÊ²imËĪÉĳ":4674,"nÊ²ËĪÉĳjutsÊĮ":4675,"tÊĥÊ²itsÊĮ":4676,"tÊ²iÉŃnuju":4677,"ĠpÊĮftÊĮ":4678,"ĠdÊĮbËĪÉĳvÊ²itÊ²":4679,"ĠdÊ²ikÊĮ":4680,"ĠprÊ²idna":4681,"ĠxÊĮtÊĥÊ²ËĪu":4682,"rËĪut":4683,"rÊ²ËĪit":4684,"ĠÉªnËĪy":4685,"tkÊĮ":4686,"ÉŃÊ²ËĪÉĳtÊ²":4687,"jimÊĮj":4688,"vËĪuju":4689,"ĠmÊĮjËĪe":4690,"Ġzb":4691,"mÊ²ËĪerÊ²i":4692,"ĠstarËĪÉĳ":4693,"tÊĥÊ²kÊ²i":4694,"ĠsÊ²isÊ²tÊ²ËĪem":4695,"tsuf":4696,"vÊĮÉŃÊ²i":4697,"ĠzdÊĮrËĪovjja":4698,"ĠrÊ²iËĪÉĳÉŃnÊĮ":4699,"vËĪoda":4700,"ĠrÊĮÊĥÊĥy":4701,"Ġstan":4702,"ĠpÊ²isËĪÉĳ":4703,"ĠpÊĮrÊ²ËĪÉĳtkÊ²i":4704,"âĢĿ.":4705,"ĠjÉĽj":4706,"jËĪÉĶntsÉ¨x":4707,"ĠdÊ²ËĪevÊĮ":4708,"ÊĥkÊĮj":4709,"ĠnÊ²iprÊ²iËĪja":4710,"ĠprÊĮjËĪekta":4711,"bÊ²irÊ²i":4712,"ĠÉķfÊ²ËĪÉĽ":4713,"ĠmÊ²ËĪesÊ²ÊĮts":4714,"tsyjax":4715,"ĠvrËĪÉĳ":4716,"ĠrÊ²izuÉŃtËĪÉĳt":4717,"ĠrÊ²ËĪÉĳt":4718,"bËĪora":4719,"vËĪÉĳjtÊ²i":4720,"ĠpÊĮsÉŃÊ²ËĪednÊ²i":4721,"ĠpÉŃÊĮÉķËĪÉĳ":4722,"Ġ27":4723,"ĠsÊĮdÊ²irÊĴËĪÉĳnÊ²ijÉª":4724,"dÊĳËĪÉĽÉ²Ê²a":4725,"ĠrËĪÉĳnÊĥy":4726,"skËĪoj":4727,"ĠvËĪÉĳÊĥym":4728,"ĠpÊĮdËĪu":4729,"pÊ²iÉŃ":4730,"ĠvÊĮzvra":4731,"Ġ2020":4732,"ĠÉªÉ¡rÊĮvËĪyjÉª":4733,"ĠrËĪÉĳznyjÉª":4734,"muju":4735,"ĠÉ¡Ê²inÊ²irËĪÉĳ":4736,"tÊĥÊ²istva":4737,"ĠrËĪynkÊ²i":4738,"dÊĳËĪÉĶ":4739,"ig":4740,"ĠpÊĮdrËĪob":4741,"Ð¡":4742,"ĠÉ¡rËĪa":4743,"ĠÊĮÉ¡rÊĮnÊ²i":4744,"ĠvwËĪa":4745,"É¡ÉŃÊ²ËĪi":4746,"ĠprÊĮtsËĪÉĽsÊ²sÊ²i":4747,"ĠËĪopÉķij":4748,"ĠkËĪonku":4749,"ĠpÊĮmÊ²ËĪimÊĮ":4750,"ĠsmÊ²ËĪer":4751,"tÊĥÊ²ix":4752,"ÉŃkÊ²i":4753,"Ġsma":4754,"no":4755,"ĠmÊĮÉŃÊĮdËĪy":4756,"ĠpanÊ²ËĪe":4757,"Êĳir":4758,"ËĪÉµm":4759,"ĠvnËĪutrÊ²innÊ²i":4760,"ĠpÊĮÉŃËĪo":4761,"bËĪovÊĮ":4762,"ĠbÊ²ËĪiÊĳnÉĽsa":4763,"stupÊ²ËĪi":4764,"ĠÉ¡ËĪorÊĮt":4765,"ĠsÊ²isÊ²tÊ²ËĪemu":4766,"ĠpÊĥËĪÉĽt":4767,"ËĪjutsÊĮ":4768,"ĠkÊĮnsuÉŃtËĪÉĳ":4769,"ĠprËĮa":4770,"ĠkrÊ²ËĪi":4771,"ĠprÊ²ivÊ²i":4772,"nnÊ²ikÊĮf":4773,"ĠznatÊĥÊ²ËĪenÊ²ijÉª":4774,"ĠvÊĮkrËĪuk":4775,"dÊĴÊ²":4776,"ĠnaÉŃÊ²ËĪitÊĥÊ²iÉª":4777,"ĠustrËĪojstvÊĮ":4778,"dÊ²inËĪo":4779,"pÊ²irÊ²i":4780,"ĠaÉ¡Ê²ËĪe":4781,"ĠapsÊĮÉŃÊ²ËĪu":4782,"ĠaprÊ²ËĪe":4783,"ËĪÉĽl":4784,"ĠukËĪÉĳzy":4785,"ĠÊĮkruÊĴËĪÉĳ":4786,"ĠvËĪÉĳmÊ²Éª":4787,"ĠprÊ²ivÊĮ":4788,"ÊĴyÉŃËĪÉĳ":4789,"ĠprÊ²iËĪja":4790,"ĠdÊ²ËĪevuÊĥkÊ²Éª":4791,"ĠprÊ²ËĪiby":4792,"ĠpÉŃÊ²ËĪi":4793,"ĠrassmËĪÉĳtrÊ²i":4794,"ĠtËĪys":4795,"ĠnËĪovÊĮsÊ²tÊ²Éª":4796,"ĠpÊ²ËĪervÊĮj":4797,"Éķa":4798,"tf":4799,"ĠaÉŃÉŃÊ²i":4800,"Ġaktu":4801,"ĠnatÊĥÊ²":4802,"ndÉĶ":4803,"ĠbÊĮÉŃÊĥËĪojÉª":4804,"vËĪot":4805,"kÉŃÊĮ":4806,"ĠzÊĮra":4807,"É¡ÊĮvËĪo":4808,"ĠxudËĪo":4809,"rÊĴÊ":4810,"rÊĴÊĮ":4811,"ĠvËĪoÉŃÊĮsy":4812,"ĠËĮintÉĽr":4813,"ĠÉĽÉ¡":4814,"ĠËĪok":4815,"ĠmÊ²ËĪesÊ²ÊĮtsa":4816,"rÊ²iÉ¡Ê²istrÊ²ËĪi":4817,"ĠnaprËĪÉĳvÉŃÊ²i":4818,"ĠamÊ²irÊ²ikËĪÉĳn":4819,"ĠrÊ²ikÊĮmÊ²indËĪÉĳ":4820,"ĠpËĪotÊĥÊ²":4821,"ĠsÊ²nÊ²ËĪe":4822,"ĠnÊ²izavÊ²ËĪisÊ²i":4823,"ĠsÊ²irÉ¡Ê²ËĪe":4824,"ĠdÊĮsÊ²tÊ²ËĪi":4825,"ĠnÊ²ipÊĮsrÊ²ËĪed":4826,"wÉĽ":4827,"ĠnÊĮpÊĮ":4828,"ĠsËĪÉĳmÊĮj":4829,"Ġ28":4830,"nrËĪÉĳ":4831,"ĠsrÊ²ËĪe":4832,"tÊ²iÉŃÊ²u":4833,"É¡ËĪovÊĮra":4834,"ĠsÊĮprÊĮvÊĮ":4835,"ĠvÊ²ËĪidÊĮf":4836,"É¡ËĪoÉŃ":4837,"ĠustÊĮnÊĮvÊ²ËĪitÊ²":4838,"ĠÊĮdnÊĮvrÊ²imÊ²ËĪe":4839,"ĠrÊ²isËĪur":4840,"dËĮÉĽ":4841,"ĠdÊ²ËĪeÉŃÊĮjit":4842,"tÊĥÊ²ËĪenÊ²iju":4843,"ĠÊĮrÊ²iÉ¡Ê²inËĪÉĳ":4844,"tÊĥÊ²nÊĮm":4845,"ĠprÊĮdËĪukty":4846,"ĠaftÊĮmËĪÉĳty":4847,"ĠkÊĮntÊ²ËĪe":4848,"nËĪÉĳdÊĮ":4849,"ĠbÊĮÉ¡ËĪÉĳ":4850,"ĠzÉĶstËĪa":4851,"ĠxrÊĮ":4852,"ĠnÊ²ËĪimÊ²Éª":4853,"ĠÉªnÊĮstrËĪÉĳ":4854,"ĠstandËĪÉĳrt":4855,"ĠspÊĮrtÊ²ËĪi":4856,"kwËĪa":4857,"ĠdavnËĪo":4858,"ĠnÊ²iiz":4859,"ĠnÊ²ËĪer":4860,"ĠÉ¡ËĪorÊĮdÊ²i":4861,"ĠtsyntrËĪÉĳ":4862,"ĠmÊĮÉŃy":4863,"ktËĪur":4864,"ĠaftÊĮmatÊ²ËĪi":4865,"snÊĮvÊĮ":4866,"zÉĶ":4867,"ĠprÊ²idusmËĪotrÊ²i":4868,"juÉķuju":4869,"ĠdÊĮÉ¡ËĪovÊĮra":4870,"ĠtsyÉŃÊ²i":4871,"ĠÊĮtÉŃÊ²ËĪitÊĥÊ²i":4872,"ĠprÊ²inÊ²imËĪÉĳtÊ²":4873,"ĠsÉŃËĪuÊĴby":4874,"ĠpÊĮr":4875,"ĠstranÊ²ËĪitsy":4876,"rÊ²iji":4877,"ÊĴnuju":4878,"ĠkvartÊ²ËĪiry":4879,"ĠpÊ²ËĪesÊ²":4880,"ËĪÉĳÉŃnym":4881,"ĠsÊ²ËĪemÊ²jÉª":4882,"ĠnÊ²iktËĪo":4883,"strÊĮjËĪe":4884,"ĠustrËĪojstva":4885,"ĠaktÊ²ËĪiv":4886,"skÊĮmu":4887,"13":4888,"ĠspËĪor":4889,"ĠmÊĮdÊ²ËĪeÉŃ":4890,"ĠspasÊ²ËĪi":4891,"tÊĥÊ²ËĪÉµ":4892,"vËĪodÊ²ÊĮt":4893,"ĠsustËĪÉĳ":4894,"rÊĮbÊĮ":4895,"ĠmÊĮskËĪof":4896,"muÉŃÊ²ËĪÉĳ":4897,"ĠzdËĪÉĳ":4898,"%.":4899,"ĠprËĪÉĳf":4900,"ĠbÊ²iÉŃ":4901,"ktsyju":4902,"mÊĮs":4903,"ĠsÉŃÊĮvËĪÉĳm":4904,"ĠpÊĮtrÊ²ibÊ²ËĪi":4905,"ĠnËĪÉĳÊĥyvÊĮ":4906,"ĠpÊ²irÊ²ËĪiÊ":4907,"ĠpÊ²irÊ²ËĪiÊĮ":4908,"ĠnapÊ²ËĪisÊĮ":4909,"ĠprÊĮvÊ²idÊ²ËĪe":4910,"Ġ26":4911,"dtsÊĮ":4912,"ĠpÊ²iÉķi":4913,"ĠkÉŃasÊ²sÊ²ËĪi":4914,"ĠvËĪyi":4915,"ĠvmÊ²ËĪestÊĮ":4916,"ratÊ²ËĪiv":4917,"tvÊ²ir":4918,"ĠkÊĮta":4919,"ĠpÊ²ËĪervÊĮvÊĮ":4920,"ĠnËĪomÊ²ir":4921,"ĠrÊĮbÊĮtÊĮ":4922,"vËĪym":4923,"ĠpÊĮdrÊĮ":4924,"ĠÊĮdnËĪom":4925,"ĠrÊĮÊĴdÊ²ËĪenÊ²ija":4926,"ĠkËĮÉĳÉ¡ËĪÉĽ":4927,"Ġg":4928,"ĠsÊĮvmÊ²ËĪe":4929,"24":4930,"ĠpÊĮtrÊ²ËĪebu":4931,"ĠsÊĮstÊĮËĪjanÊ²iÉª":4932,"msÊ²ÊĮ":4933,"kÉŃËĪo":4934,"ĠavÊ²i":4935,"ĠtrÊĮdÊ²itsyËĪo":4936,"ĠzÊĮÉŃÊĮ":4937,"ĠprÊ²ivy":4938,"ĠsÉĽ":4939,"ĠËĪopyt":4940,"ĠprÊĮtÊ²a":4941,"ĠÊĮbjjidÊ²i":4942,"ĠprÊ²idpÊĮÉŃaÉ¡ËĪÉĳ":4943,"ĠprÊ²imÊ²inÊ²ËĪenÊ²ija":4944,"stvÊ²innyx":4945,"vnÊĮsÊ²tÊ²Éª":4946,"ĠvËĪypu":4947,"ĠtÉķËĪÉĳ":4948,"ĠÊĮbjjËĪem":4949,"ĠÂ»":4950,"tÊ²u":4951,"mÊĮtsyËĪo":4952,"ĠpÊ²irÊ²ida":4953,"nËĪutÊ²sÊ²ÊĮ":4954,"ÉŃnymÊ²Éª":4955,"ĠkÊĮrËĪot":4956,"pÊ²ËĪÉĳ":4957,"rmy":4958,"ĠrËĪÉĽ":4959,"ÉĶvËĪanÉ¨":4960,"one":4961,"lo":4962,"ĠrÊ²ibÊ²ËĪenÊĮk":4963,"ĠËĪurÊĮvnÊ²i":4964,"ĠÉªnfÊ²ËĪe":4965,"ĠmÊ²iÊĴdunarËĪod":4966,"rÊ²ËĪina":4967,"ĠutÊĥÊ²ËĪeb":4968,"ĠsÊĮsÊ²ËĪe":4969,"ĠpËĪom":4970,"vÉ¡u":4971,"ĠpÊ²ËĪervyjÉª":4972,"pËĪat":4973,"ĠmÊ²ixanÊ²ËĪiz":4974,"zËĪÉĳtsyja":4975,"rÊ²ËĪÉĳtÊ²":4976,"tÊ²ËĪitÊĥÊ²iskÊ²ix":4977,"dÊ²ija":4978,"sÊ²ËĪiÉŃ":4979,"tÊ²ÉĽrÊ²i":4980,"ĠbËĪÉĳnkÊĮf":4981,"ĠtÊ²ËĪÉĳ":4982,"nËĪuÉŃ":4983,"ĠkartËĪo":4984,"ĠprÊ²idÊĮsta":4985,"xvËĪÉĳ":4986,"ĠpÊĮmËĪotÊĥÊ²":4987,"ĠxÊĮrËĪoÊĥyj":4988,"tÊ²ËĪitÊĥÊ²iskÊ²ijÉª":4989,"ĠËĮÉĽlÉĽ":4990,"ĠzÊĮrÊ²iÉ¡Ê²istrÊ²ËĪi":4991,"ĠpÊĮdrËĪobnÊĮ":4992,"ĠsÊĮstËĪÉĳvÊ²i":4993,"ĠdÊ²irÊ²ivÊ²ËĪÉĳ":4994,"ĠvËĪodu":4995,"ĠÉ¡ÊĮrËĪÉĳ":4996,"tËĪÉĳjit":4997,"ĠtakËĪom":4998,"rum":4999,"ĠkÊĮmÊ²ËĪi":5000,"Êĥyn":5001,"vËĪÉĳrÊ²i":5002,"ĠutÊĮ":5003,"ĠpÊĮsÊ²tÊ²i":5004,"ĠprÊ²idprÊ²iËĪjatÊ²ija":5005,"ĠpÊ²ÉĽ":5006,"skËĪÉĳtÊ²":5007,"ĠrÊ²ËĪetÊĥÊ²":5008,"ĠmËĪÉĳsÉŃa":5009,"ryj":5010,"stupÉŃÊ²ËĪenÊ²ija":5011,"ĠlËĪat":5012,"ĠdÊĮmËĪÉĳÊĥnÊ²ix":5013,"ĠsÊ²imptËĪomy":5014,"ĠsrÊ²i":5015,"ĠskÊ²ËĪi":5016,"Ġzu":5017,"ĠtrÊ²inÊ²i":5018,"ĠtÊĥÊ²ir":5019,"ĠkÊĮndÊ²i":5020,".)":5021,"juÉķixsÊ²ÊĮ":5022,"Ġarxi":5023,"putËĪÉĳ":5024,"zËĪor":5025,"ĠsÊ²ËĪiÉŃu":5026,"ËĮÉĽr":5027,"23":5028,"ĠbÊ²ispÊĮ":5029,"lËĪu":5030,"ĠsÊ²nÊ²ËĪÉĳ":5031,"ĠstranÊ²ËĪe":5032,"ĠdËĪÉĳÉŃÊĥy":5033,"ÊĴÊĴy":5034,"ĠvystupËĪÉĳ":5035,"nÊ²ikÊ²i":5036,"ĠzaÉķËĪity":5037,"ËĪÉĳr":5038,"ĠkÊĮnfÊ²i":5039,"rËĪofka":5040,"ĠrasÉķËĪi":5041,"ĠnÊĮja":5042,"ĠÊĮbratÊ²ËĪitÊ²sÊ²ÊĮ":5043,"ĠkËĪompÉŃÊ²ik":5044,"ĠvÊ²idËĪu":5045,"ĠdÊĮÉ¡ÊĮvËĪo":5046,"ÉķÉ²Ê²ÉĽ":5047,"ĠmÊ²ËĪerÊ²i":5048,"ÉŃym":5049,"dnÉĶ":5050,"ĠnËĪÉĶ":5051,"tym":5052,"Ġ2021":5053,"ĠÊĮpÊ²ËĪi":5054,"ĠmÊĮdÊ²ËĪe":5055,"myjÉª":5056,"pËĪa":5057,"ĠsudËĪÉĳ":5058,"ĠputÊ²i":5059,"tÊ²ËĪenÊ²ijÉª":5060,"ĠrÊĮmËĪÉĳ":5061,"ĠnazvËĪÉĳnÊ²ijÉª":5062,"ĠktËĪura":5063,"Ġto":5064,"ĠÊĮbrÊĮzÊĮvËĪÉĳ":5065,"ĠtÊĥÊ²ËĪÉĳj":5066,"ĠËĪofÊ²i":5067,"ĠmËĪÉĶÉ¡ÉĶ":5068,"ĠsudÊ²ËĪeb":5069,"ĠkakÊ²ËĪix":5070,"ĠdÊĳËĪÉĽÅĭki":5071,"nÊ²ibËĪutÊ²":5072,"skÊ²imÊ²Éª":5073,"....":5074,"nÊ²ËĪenÊ²ijim":5075,"ĠtrÊ²ËĪex":5076,"Ġli":5077,"ĠnÊ²imÊ²ËĪe":5078,"ĠmÊĮÉ¡ËĮu":5079,"ĠkÊĮra":5080,"tÊ²ËĪeÉŃ":5081,"vÊĮÉŃa":5082,"ĠlËĪa":5083,"ĠËĪÉĳvÉ¡u":5084,"tËĪÉ¨tÊĥ":5085,"ĠnarËĪo":5086,"ĠkËĪÉĳÊĴdÊĮj":5087,"tÊ²ËĪenÊ²ija":5088,"mÊ²inÊ²im":5089,"tÊĥÉ¨tÉķ":5090,"nÊĴy":5091,"ĠpÊĮsËĪÉĳ":5092,"ĠvÊ²ËĪiru":5093,"ĠzvÊĮ":5094,"ĠspËĪÉĳ":5095,"nÉ¡a":5096,"ĠmËĪuzy":5097,"ĠskÊĮrÊ²ËĪejÉª":5098,"tÊ²iju":5099,"ÊĴlËĪi":5100,"nËĪÉĽr":5101,"ĠÉªzbËĪÉĳ":5102,"ows":5103,"âĤ¬":5104,"xÊĮm":5105,"ĠpÊ²insÊ²i":5106,"vÊ²ËĪidnÊĮ":5107,"ĠkrÊĮvÊĮ":5108,"ÊĥËĪÉĽd":5109,"ĠrÊĮzrabËĪotÊĮ":5110,"ĠtËĪÉĽj":5111,"ĠtÉ¨":5112,"pËĪor":5113,"tion":5114,"ĠnatÊĥÊ²ËĪÉĳtÊ²":5115,"ĠstËĪorÊĮ":5116,"ĠzÊĮjavÉŃÊ²ËĪenÊ²ijÉª":5117,"ĠtsËĪÉĽÉŃjju":5118,"nal":5119,"ĠsÊĮstÊĮËĪit":5120,"tÊĮja":5121,"ĠzÊĮkÊĮnÊĮdËĪÉĳ":5122,"ĠprÊ²ivra":5123,"ËĪÉĳÉŃnÊĮja":5124,"ĠvÊ²iÉķistvËĪÉĳ":5125,"ĠtÊ²irapÊ²ËĪi":5126,"ĠvÊĮÉŃÊĮ":5127,"tÊĥÊ²ËĪÉª":5128,"vÉŃÊ²ËĪenÊ²ij":5129,"tÊ²sÊ²i":5130,"jkÊ²Éª":5131,"fu":5132,"Ġ2015":5133,"ĠstËĪÉĳfkÊ²Éª":5134,"vaÉŃÊ²ËĪi":5135,"ĠpÊĮnrËĪÉĳ":5136,"ĠÊĮttÊĥÊ²ËĪe":5137,"dÊĳËĪa":5138,"ĠvÊ²ËĪida":5139,"dÊ²iÉŃÊ²ËĪi":5140,"ĠtsËĪÉĽntr":5141,"ĠzatrËĪÉĳ":5142,"ĠputÊ²ËĪÉª":5143,"Ġspu":5144,"ĠxËĪu":5145,"ĠmÊĮnÊ²i":5146,"ndÊ²ËĪi":5147,"ĠbrËĪa":5148,"ĠprÊĮdËĪuktÊĮf":5149,"ĠnÊ²ikakÊ²ËĪi":5150,"ĠprÊĮmËĪyÊĥÉŃÊ²i":5151,"ĠprÊĮdËĪuktsyÉª":5152,"ĠvÊĮÊĳnÊ²ikËĪÉĳjit":5153,"É¡ÊĮj":5154,"ĠsÉŃËĪutÊĥÊ²ÊĮjif":5155,"É²tÉķa":5156,"))":5157,"ĠkÊĮÉŃËĪo":5158,"ĠkÊĮmfËĪort":5159,"Ġuva":5160,"ĠbyvËĪÉĳjit":5161,"rÉĽs":5162,"ĠprÊĮÉ¡rËĪÉĳmma":5163,"spÊĮsËĪo":5164,"ĠdrËĪuÉ¡a":5165,"Ġ500":5166,"dÊ²ËĪitÊ²sÊ²ÊĮ":5167,"ĠpÊĮnËĪÉĳdÊĮ":5168,"lËĪÉĽÊĴÉ¨":5169,"ÉķmËĮÉ¨":5170,"ĠstrÊ²ËĪe":5171,"ĠdÊ²ËĪevuÊĥka":5172,"ĠËĪuÉŃÊ²itsy":5173,"ĠprÊĮbÉŃÊ²ËĪema":5174,"ÉķËĪÉĳjut":5175,"ĠvÊĮzbu":5176,"ĠrÊ²izuÉŃtËĪÉĳty":5177,"ĠstËĪorÊĮnu":5178,"ĠsÊĮvÊ²ËĪets":5179,"ÉķistvÊĮ":5180,"ĠÊĮbÊ²ËĪi":5181,"ÊĥËĪuju":5182,"ĠvËĪypÊĮÉŃnÊ²i":5183,"ĠÉªstÊĮ":5184,"bÊ²iÉŃÊ²i":5185,"ĠÉ¡ËĪor":5186,"Įn":5187,"ÊĮn":5188,"pÉŃÊ²ËĪÉĳ":5189,"ËĮÉĶva":5190,"ĠËĪÉĳdrÊ²is":5191,"ĠsÉŃÊ²ËĪedujuÉķij":5192,"ĠnÊ²idÊ²ËĪeÉŃÊ²Éª":5193,"jamÊ²Éª":5194,"ĠvysÊĮkÊĮ":5195,"ĠnÊ²idËĪÉĳ":5196,"vÉĽt":5197,"ĠskÉŃËĪÉĳ":5198,"duf":5199,"mÊ²iÉª":5200,"ĠspÊ²ËĪe":5201,"ĠËĮinfÉĶrm":5202,"ĠnarËĪod":5203,"ĠpËĪÉĳru":5204,"ĠdÊĮÉŃÉ¡ÊĮ":5205,"bo":5206,"ĠbËĪoÉŃÊ²Éª":5207,"ĠÊĴËĪÉĽst":5208,"ĠprÊ²irËĪo":5209,"ĠtÊĥÊ²ËĪÉĳsa":5210,"jimsÊ²ÊĮ":5211,"ĠmÊ²itaÉŃ":5212,"ĠnÊ²isÊĮ":5213,"ÊĮbra":5214,"ĠdruÊĳjËĪja":5215,"ĠÉŃÊ²itsËĪÉĽ":5216,"mnÊĮjÉª":5217,"ĠdËĪÉĳnnÊĮvÊĮ":5218,"ĠvyrËĪÉĳ":5219,"Ġvu":5220,"Ġtsa":5221,"ndows":5222,"ĠmaÊĥËĪyny":5223,"ĠpÊ²ËĪisÊ²":5224,"ndÊĳÉ¨":5225,"ĠkasËĪÉĳjitsÊĮ":5226,"ĠdËĪoÉŃÉŃÊĮrÊĮf":5227,"ÊĥÊĮtÊ²":5228,"ĠrËĪÉĳdÊĮ":5229,"Ġrask":5230,"skix":5231,"ĠvÊĮdËĪÉĳ":5232,"ĠpÉĶvÊ²ËĪÉĽ":5233,"xËĪu":5234,"ĠÊĮprÊ²idÊ²iÉŃÊ²ËĪitÊ²":5235,"ĠpÊĮkÊĮ":5236,"Ġ29":5237,"ĠuÉ¡ÊĮÉŃËĪo":5238,"É¡Ê²iÉª":5239,"ĠprÊĮvÊ²isÊ²tÊ²ËĪÉª":5240,"ĠÉŃËĪutÊĥÊ²ÊĥyjÉª":5241,"Ð½Ð¸":5242,"ĠÊĴËĮÉĽ":5243,"ĠspasÊ²ËĪibÊĮ":5244,"ĠtËĪotÊĥÊ²kÊ²Éª":5245,"ÉŃuj":5246,"ĠxËĮa":5247,"tsËĪof":5248,"ĠÊĮsvÊĮ":5249,"ĠdÊ²ËĪejstvÊ²ijÉª":5250,"ĠprÊ²inÊĮ":5251,"ĠzËĪÉĳrÊĮbÊĮ":5252,"ĠpÊĮtpÊ²ËĪi":5253,"ĠprÊ²idÉŃaÉ¡ËĪÉĳjit":5254,"ĠznakËĪomstva":5255,"ĠÊĮznatÊĥÊ²ËĪÉĳjit":5256,"nskÊĮja":5257,"ĠÉ¡rËĪÉĳÊĴdÊĮn":5258,"ĠprÊĮsmËĪo":5259,"ĠjÉªdÊ²i":5260,"ĠpÊĮdxÊĮdÊ²ËĪÉĳ":5261,"pÊĮm":5262,"myj":5263,"vÉŃa":5264,"ĠubÊ²ËĪi":5265,"ĠËĮÉĶb":5266,"ĠnÊĮruÊĥËĪÉĽnÊ²ija":5267,"tnuju":5268,"ĠdÊĴËĪÉĽ":5269,"ĠrÊ²iÉ¡uÉŃÊ²ËĪi":5270,"ĠpÊĮvÊ²ËĪerxnÊĮstÊ²":5271,"Ġ...":5272,"ĠnËĮaj":5273,"ĠÊĮpÊ²isËĪÉĳnÊ²ijÉª":5274,"ĠtsËĪÉĽÉŃÊĮm":5275,"ĠpÊĮnÊ²ËĪÉĳtÊ²":5276,"ĠjÉªvrÊĮpÊ²ËĪej":5277,"ĠnËĪovÊĮj":5278,"ĠmÊĮksÊ²imËĪÉĳÉŃnÊĮ":5279,"stvÊ²ijÉª":5280,"ÊĴnÊĮsÊ²tÊ²Éª":5281,"jt":5282,"pÊĮd":5283,"ĠpÊ²irÊ²iÊ":5284,"ĠpÊ²irÊ²iÊĮ":5285,"ĠnÊ²idÊ²ËĪeÉŃÊ²u":5286,"ĠsÊĮstÊĮËĪjanÊ²ija":5287,"ĠnastrËĪoj":5288,"ĠËĪuÊĥ":5289,"ĠnÊ²iÉ¡a":5290,"ĠjanvarÊ²ËĪÉĳ":5291,"liÉķmËĮÉ¨":5292,"É²ËĪitÊĥ":5293,"Ġ80":5294,"ĠmÊ²ËĪinÊ²imu":5295,"mÉĽnt":5296,"ĠudËĪobnÊĮ":5297,"ĠmÊĮÉŃËĪo":5298,"ÊĴËĪyt":5299,"É¡ËĪÉĳtÊ²":5300,"drËĪÉĳ":5301,"nnÊ²ijÉª":5302,"ĠÊĮrÉ¡anÊ²ËĪizm":5303,"ĠprÊ²itÊĥÊ²ËĪem":5304,"ĠprËĪÉĳvda":5305,"jiva":5306,"ĠtÊĥÊ²imÊ²pÊ²i":5307,"ps":5308,"ĠpËĪodÊĴÊ²":5309,"ĠÉªÊĳdÊ²ËĪeÉŃÊ²ija":5310,"ĠdÊ²irÊĴËĪÉĳ":5311,"ĠpÊĮsÊ²itÊ²ËĪi":5312,"ĠpËĪustÊ²":5313,"tÊĥÊ²ËĪenÊ²ij":5314,"pusÊ²tÊ²ËĪi":5315,"ĠkrÊĮsnÊĮ":5316,"ĠtfËĪÉĶ":5317,"ÉŃk":5318,"ĠdÊĮÉ¡ÊĮvËĪor":5319,"ĠmËĪÉĳja":5320,"ĠpÊĮdÊ²tÊĥÊ²i":5321,"ĠprÊ²ikra":5322,"ĠarÊĮ":5323,"ĠxrÊ²i":5324,"pÊ²inÊ²Éª":5325,"ĠtÊĥÊ²rÊ²i":5326,"sÉŃ":5327,"ĠzËĪÉĶ":5328,"ĠprÊ²iÉ¡ÉŃa":5329,"rnym":5330,"ÉķËĪestf":5331,"ĠpÊĮzvËĪoÉŃÊ²it":5332,"ĠjËĪÉĶ":5333,"ĠbaÉŃ":5334,"ĠdÊ²ËĪeÉŃÊĮjut":5335,"ĠpÊĮrÊ²ËĪÉĳdÊĮk":5336,"ĠdÊ²ËĪejstvÊ²ij":5337,"ĠkÊĮpÊ²itËĪÉĳ":5338,"ÉŃÊĮÊĴËĪÉĽnÊ²ija":5339,"ĠsÊ²tÊ²ËĪepÊ²inÊ²Éª":5340,"ĠËĪÉªmÊ²ÊĮ":5341,"ĠustanËĪofkÊ²Éª":5342,"rnÊĮm":5343,"bÊĮk":5344,"ĠvËĪozduxa":5345,"ĠpÊĮsÉŃÊ²ËĪednÊ²ij":5346,"ĠxÉĶ":5347,"ha":5348,"ĠxÊĮÉŃÊĮ":5349,"ĠkrËĪÉĳj":5350,"ĠvÊĮspa":5351,"ĠkÊĮÉŃÊ²i":5352,"tsyjamÊ²Éª":5353,"tsk":5354,"nËĪÉĳtÊĥÊ²i":5355,"ĠsvÊ²ËĪer":5356,"ĠkÊĮnstrËĪuktsyÉª":5357,"rkËĪo":5358,"ĠukrÊ²i":5359,"ĠxËĪotÊĥÊ²it":5360,"ĠÊĮtnÊĮÊĥËĪÉĽnÊ²iÉª":5361,"ĠsËĪummu":5362,"ĠÉªstËĪorÊ²ija":5363,"ĠpÊĮtÊ²intsy":5364,"Ð¾Ð²":5365,"ËĪÉĳÉŃnÊĮjÉª":5366,"ĠtÊĮvËĪÉĳrÊĮf":5367,"rÊ²u":5368,"ĠvÊ²ËĪes":5369,"ĠnËĪÉĳÊĥy":5370,"dÊ²ÊĮm":5371,"ĠÊĮtnËĪosÊ²ÊĮ":5372,"ĠpÊĮsmÊĮtrÊ²ËĪetÊ²":5373,"ĠnËĪavÉĽt":5374,"II":5375,"ĠÉĶsËĪÉĶ":5376,"ĠÊĮstajËĪetsÊĮ":5377,"sts":5378,"ĠnatÊĥÊ²ËĪÉĳÉŃÊ²i":5379,"ĠaÉĽ":5380,"ĠtkËĪÉĳnÊ²Éª":5381,"ĠkÊ²itËĪÉĳj":5382,"ĠÊĮdnÊĮvrÊ²imÊ²ËĪennÊĮ":5383,"kËĪojÉª":5384,"ĠtsvÊ²it":5385,"ĠsËĪÉĶbjÉĽ":5386,"ĠvÊ²ËĪÉĽntsÉĽj":5387,"skËĪovÊĮ":5388,"ĠÊĮbÉŃadËĪÉĳjit":5389,"Ð³Ð¾":5390,"ĠÊĮpËĪÉĳsnÊĮ":5391,"ĠudÊĮvËĪoÉŃ":5392,"ĠkÉŃÊ²ijËĪentÊĮf":5393,"77":5394,"ĠaktÊ²i":5395,"ĠÊĮtÉŃÊ²ËĪitÊĥÊ²nÊĮ":5396,"ĠmËĪÉĳt":5397,"ĠbukmÊ²ËĪe":5398,"ÑģÑĤ":5399,"ĠmÊ²istËĪÉĳ":5400,"lik":5401,"Ġvd":5402,"ĠÉªspÊĮÉŃnÊ²ËĪi":5403,"strËĪÉĳi":5404,"lËĪÉĽp":5405,"Åĭka":5406,"ĠvÊĮÊĳnÊ²iknÊĮvÊ²ËĪe":5407,"ĠrassmËĪotrÊ²i":5408,"ktsyj":5409,"ĠspÊ²itsyaÉŃÊ²ËĪisty":5410,"nÊ²ËĪem":5411,"ĠvÊĮj":5412,"É¡ÉŃÊ²ËĪij":5413,"Ġ90":5414,"ĠÊĮtmÊ²ËĪetÊ²itÊ²":5415,"ĠdËĪÉĳnnym":5416,"ĠtËĪoj":5417,"ĠzrÊ²ËĪenÊ²ija":5418,"ÉŃÊ²ËĪenÊ²ij":5419,"ĠvËĪozrÊĮsta":5420,"ĠdruÉ¡Ê²ËĪim":5421,"ĠrÊĮd":5422,"ĠkÊĮmÊ²pjËĪjutÊ²ÉĽr":5423,"ĠÊĮtkazËĪÉĳ":5424,"ĠtÊ²ikËĪu":5425,"ĠÊĮtvÊ²ËĪer":5426,"ÊĳËĪej":5427,"ĠkÊĮtÊ²iÉ¡ËĪorÊ²iÉª":5428,"ĠjÉªdÊ²ËĪi":5429,"ĠaÉŃÉŃÊ²irÉ¡Ê²ËĪi":5430,"nÉĽk":5431,"ĠputÊ²iÊĥËĪÉĽ":5432,"ĠÊĮtsËĪutstvÊ²ijÉª":5433,"ti":5434,"ĠvÊ²isÊ²":5435,"ĠpÊ²irvÊĮ":5436,"ĠsÊĮbrËĪÉĳ":5437,"ĠprÊ²ivËĪodÊ²it":5438,"ĠkÊ²isÉŃÊĮ":5439,"ĠravnËĪo":5440,"ĠpÊĮxu":5441,"ĠÊĮtÉŃÊ²itÊĥÊ²ËĪÉĳjitsÊĮ":5442,"ĠÊĮtpra":5443,"ĠÉªnfÊĮrmÊĮtsyËĪo":5444,"ĠpÊĮÉ¡ËĪo":5445,"pi":5446,"rak":5447,"ĠmÊ²itÊĥÊ²":5448,"ĠpÊĮÊĴËĪÉĳÉŃuj":5449,"ĠsÊ²ËĪiÉŃy":5450,"ĠduxËĪo":5451,"ĠsÊĮËĪju":5452,"nÊ²iÊĥ":5453,"bÊĮf":5454,"ĠÉĽpÊ²i":5455,"ĠjapËĪo":5456,"ĠdÊ²ijËĪe":5457,"ĠÊĮbÊĮrËĪudÊĮvÊĮnÊ²ija":5458,"ĠprÊĮtsËĪÉĽssa":5459,"ĠpakÊ²ËĪe":5460,"ĠprÊĮsÊ²tÊ²itËĪu":5461,"Ġ2014":5462,"ĠÉªnËĪÉĳtÊĥÊ²i":5463,"vnym":5464,"ĠsmÊĮt":5465,"ÊĥËĪÉĳjitsÊĮ":5466,"ff":5467,"ĠmËĪar":5468,"sÊ²ËĪenÊ²ija":5469,"ĠmËĪÉĳrta":5470,"ĠÉ¡ÊĮvÊĮrÊ²ËĪitÊ²":5471,"ĠtÊ²iÉŃÊ²ifËĪon":5472,"suf":5473,"ĠkÊĮntsy":5474,"ĠdËĪÉĳnnÊĮm":5475,"ĠstrËĪÉĳn":5476,"ĠtÊĥÊ²ËĪutÊ²":5477,"ĠfÊ²ivra":5478,"ĠprÊ²iparËĪÉĳty":5479,"É¡nËĪosÊ²tÊ²i":5480,"ĠzÊĮbÊĮÉŃÊ²ivËĪÉĳnÊ²ij":5481,"Ġsmart":5482,"ĠpÊĮzna":5483,"ĠËĮuÊĴÉ¨":5484,"ĠjÉªÊĴydnÊ²ËĪe":5485,"ĠsÊĮsËĪu":5486,"ĠpËĪÉĶttÊĥas":5487,"ÉŃÊĮÊĴ":5488,"Ġvyda":5489,"ĠkÊ²ir":5490,"tÊĥÊ²ËĪuv":5491,"ËĪon":5492,"ĠÊĥËĪÉĳk":5493,"ĠsÊ²im":5494,"ËĪoÊ":5495,"ËĪoÊĮ":5496,"prËĪa":5497,"ĠbÉŃÊ²iÊĴËĪÉĳj":5498,"ĠmuÉķËĪin":5499,"ĠustËĪoj":5500,"ĠsËĮamÉĶ":5501,"ĠÊĮsnÊĮvnËĪoj":5502,"ĠmÊ²itËĪÉĳÉŃ":5503,"ĠpÊ²irÊ²imÊ²i":5504,"ĠkÊĮnku":5505,"tÊĥÊ²at":5506,"ĠkËĪÉĳrty":5507,"rËĪÉĳnÊ²ijÉª":5508,"ĠfËĪunktsyÉª":5509,"É²tÉķÉĽ":5510,"ĠtÊĥÊ²isÉŃËĪo":5511,"ĠÊĮsnÊĮvnËĪom":5512,"ĠÉ¡ÉŃavËĪÉĳ":5513,"ĠsmËĮoÊĴyt":5514,"ĠkÊĮmÊ²bÊ²i":5515,"juÉķijsÊ²ÊĮ":5516,"xËĪodÊ²ÊĮtsÊĮ":5517,"dÉŃÊ²ËĪi":5518,"Ġustra":5519,"ĠÉªspËĪoÉŃzujutsÊĮ":5520,"ntsyf":5521,"ĠzÊĮkrÊ²i":5522,"ĠÊĮbÊ²ËĪe":5523,"ĠÊĮptÊ²imËĪÉĳ":5524,"ud":5525,"nÊ²iku":5526,"ĠprÊ²ikrËĪÉĳsnÊĮ":5527,"ĠvËĪartÉĶ":5528,"ĠsËĪÉĳxÊĮ":5529,"ĠmÊĮskvËĪÉĳ":5530,"trÊĮm":5531,"ĠdÊĮxËĪo":5532,"ĠturÊ²ËĪi":5533,"ĠunÊ²ivÊ²irsÊ²i":5534,"ĠvËĪypÊ²i":5535,"ĠnËĪas":5536,"fÊĥyjsÊ²ÊĮ":5537,"ĠsÊ²tÊ²ËĪeny":5538,"ĠsÊ²isÊ²tÊ²ËĪemÊ²i":5539,"Éķika":5540,"ĠÊĴyÉŃËĪu":5541,"ĠkÊĮÉŃÊ²ËĪitÊĥÊ²istva":5542,"ĠrastvËĪo":5543,"ĠtÊĥËĪas":5544,"tÊĥÉ¨m":5545,"ĠÉ¡ÊĮrËĪÉĳzdÊĮ":5546,"pËĪÉĶ":5547,"ĠvÊĮspËĪoÉŃzÊĮvÊĮ":5548,"fkÊĮj":5549,"tÊ²iÉŃnymÊ²Éª":5550,"tÊĮrÊĮm":5551,"ĠrÊĮsstÊĮËĪja":5552,"fÊ²ik":5553,"jitÊ²isÊ²":5554,"ĠknÊ²ËĪiÉ¡Ê²Éª":5555,"ĠsfËĪÉĶjÉĽ":5556,"ĠdrÊ²ËĪe":5557,"ĠY":5558,"ĠmuÉķËĪina":5559,"tËĪor":5560,"ĠxËĪodÊ²i":5561,"vËĪÉĳÉŃa":5562,"pÉŃÊ²ËĪenÊ²ijÉª":5563,"ĠmÊ²itÊĮ":5564,"Ġ70":5565,"skËĪoÉŃkÊĮ":5566,"ĠbrÊ²ËĪe":5567,"É¡Ê²ËĪÉª":5568,"ĠsÊ²iÉŃ":5569,"ĠprËĪatsÉ¨":5570,"ĠvÊ²isÊ²mËĪÉĳ":5571,"ĠprÊ²ËĪess":5572,"ĠprÊ²imÊ²inÊ²ËĪenÊ²ijÉª":5573,"ĠsËĮÉ¨":5574,"nÊ²ËĪirÊĮvÊĮ":5575,"ĠÊĮpstÊĮËĪja":5576,"ĠznakËĪo":5577,"xÊĮf":5578,"ĠkËĪurs":5579,"ĠÊĥËĪÉ¨":5580,"ĠÊĮsnÊĮvnËĪyx":5581,"ĠpËĪy":5582,"ĠprËĪofÊ²i":5583,"ĠÊĮbÊĮrËĪo":5584,"ĠkÊĮmÊ²i":5585,"ĠjËĪÉĽÊĥtÊĥÉĽ":5586,"ĠsamËĪo":5587,"ĠrajËĪonÊ²i":5588,"ĠfpÊ²ir":5589,"ĠvrËĪÉĳtÊĥÊ²":5590,"ĠprÊ²iÉ¡ÊĮtÊĮvÉŃÊ²ËĪenÊ²ija":5591,"ĠÊĴyvÊĮ":5592,"ĠnÊĮsÊ²iÉŃÊ²ËĪenÊ²ija":5593,"ĠmÊĮskvËĪy":5594,"ĠuvÊ²ËĪidÊ²itÊ²":5595,"tÊ²nÊ²ik":5596,"vÊ²ËĪÉª":5597,"ĠtËĪopÉŃÊ²i":5598,"ĠzaprËĪo":5599,"ĠvÊ²ËĪep":5600,"tÊĥÊ²kÊĮj":5601,"ĠputÊ²ËĪem":5602,"Ġmok":5603,"Ġkam":5604,"ĠstËĪÉĳrÊĥy":5605,"ÉŃËĪutÊĥÊ²":5606,"ĠÉªvËĪÉĳ":5607,"jjËĪer":5608,"ers":5609,"ĠvÊ²iÉķËĪestf":5610,"ĠprÊ²idÊĮt":5611,"nËĪymÊ²Éª":5612,"sÊ²tÊ²ÊĮmÊ²Éª":5613,"ĠdÊ²iaÉ¡nËĪosÊ²tÊ²i":5614,"rÊ²ËĪÉª":5615,"ĠpÊĮsÊ²tÊ²ipÊ²ËĪe":5616,"stËĪÉĶ":5617,"ĠkËĪil":5618,"ĠdÊ²ikabrÊ²ËĪÉĳ":5619,"ĠvÊ²is":5620,"ĠrËĪost":5621,"ĠpubÉŃÊ²i":5622,"ĠmÊĮÉ¡ÉŃÊ²ËĮÉª":5623,"Ð¿":5624,"ĠdÊ²iÊĥËĪÉĽ":5625,"jna":5626,"krËĪÉĽ":5627,"ĠprÊ²ivÊ²isÊ²tÊ²ËĪÉª":5628,"ĠvysËĪokÊĮj":5629,"ĠÊĮktÊ²abrÊ²ËĪÉĳ":5630,"ĠxËĪotÊ²":5631,"dÊ²ij":5632,"ĠdÊĮbrÊĮ":5633,"ĠkÊĮntrËĪÉĳ":5634,"ĠËĮÉĽr":5635,"dËĪuÊĥ":5636,"ĠrÊĮsÊ²sÊ²ËĪija":5637,"ĠzËĮÉĽtËĪÉĽ":5638,"nsÊ²ËĪi":5639,"ĠkËĪÉĳÊĴytsÊĮ":5640,"ËĪoÉŃy":5641,"ĠtÊĥÊ²asÊ²tÊ²ËĪi":5642,"ĠÉŃÊ²itÊ²i":5643,"ĠprÊĮstËĪo":5644,"ĠprÊĮvÊĮdÊ²ËĪitÊ²":5645,"ÊĴnÊĮja":5646,"ĠbÊĮÉŃÊĥËĪÉĳja":5647,"ĠprÊĮtsydËĪury":5648,"tur":5649,"ĠsÊ²intÊ²abrÊ²ËĪÉĳ":5650,"bËĪÉ¨":5651,"tÊ²ËĪiÉŃ":5652,"kvÊ²i":5653,"ĠprÊĮstËĪoj":5654,"ĠbÊ²itËĪo":5655,"nËĪok":5656,"ĠtrÊ²ËĪebÊĮvÊĮ":5657,"bÉŃÊ²ËĪenÊ²ija":5658,"ÉŃËĪÉĳktÊ²i":5659,"jËĪÉĶntsÉ¨":5660,"ĠÊĮfËĪormÊ²i":5661,"vÉŃÊ²ËĪÉĳjut":5662,"ĠbÊĮÉŃÊĥËĪyjÉª":5663,"ĠkÊ²ËĪÉĽ":5664,"ĠsÊ²tÊ²ËĪen":5665,"ĠfËĪorma":5666,"ĠtÊĥÊ²ËĪÉĳstnÊĮsÊ²tÊ²Éª":5667,"ÊĴËĪÉĽÉ²Ê²ÉĽ":5668,"ĠbÊĮÉŃnÊ²ËĪi":5669,"ntÊ²ËĪe":5670,"ĠsÊĮÊĮpÉķËĪÉĳjit":5671,"bÉŃÊ²ËĪenÊ²ijÉª":5672,"ĠnapËĪom":5673,"ÊĴËĪÉĳjitsÊĮ":5674,"ĠanÉ¡ÉŃÊ²ËĪij":5675,"dÊĳitÉķ":5676,"ĠspËĪu":5677,"ĠÉ¡Ê²iÊ":5678,"ĠÉ¡Ê²iÊĮ":5679,"tÊ²ijim":5680,"ĠukazËĪÉĳ":5681,"tki":5682,"tsÊĮx":5683,"ĠdÊ²izËĪÉĳjn":5684,"ĠzËĮÉĽtËĪÉĽw":5685,"ĠfstËĪÉĳ":5686,"stËĪÉĳtÊ²Éª":5687,"ĠpËĪoÉŃÊ²i":5688,"ĠÉ¡ÊĮvÊĮrÊ²ËĪÉĳt":5689,"vËĪaÉ²Ê²a":5690,"ĠdÊ²ËĪejatÊ²iÉŃnÊĮstÊ²":5691,"ĠÊĥu":5692,"Ġmy":5693,"mÊ²inta":5694,"ĠÉ¡ÉŃubËĪo":5695,"ĠÊĳimÊ²ËĪe":5696,"min":5697,"ĠprÊĮÉ¡rËĪÉĳmm":5698,"nËĮa":5699,"ĠpÊĮrËĪo":5700,"rtÊĮ":5701,"ĮbÊĮ":5702,"ÊĮbÊĮ":5703,"ĠvËĪyzvÊĮ":5704,"ĠvÊ²idÊ²iÊĮ":5705,"ÊĴËĪytÊ²i":5706,"âĢĻ":5707,"sËĪobÊ²i":5708,"ĠrÊĮsprÊĮstranÊ²ËĪe":5709,"ĠstÊĮÉŃÊ²ËĪi":5710,"ĠdruÉ¡ËĪojÉª":5711,"jËĪal":5712,"Ġsku":5713,"ĠvÊ²ËĪetÊĥÊ²i":5714,"tËĪyrÊ²i":5715,"ÉŃÊ²ËĪep":5716,"dËĪoÉŃÊĴy":5717,"ĠprÊ²iÊĮbrÊ²isÊ²tÊ²ËĪÉª":5718,"ĠkÉŃËĪÉĳss":5719,"ĠnÊĮtÊĥÊ²inËĪÉĳjit":5720,"ĠaftÊĮmÊĮbÊ²ËĪiÉŃ":5721,"ĠvËĪydÊ²iÉŃÊ²i":5722,"ĠÊĴËĪÉĽÉŃ":5723,"ĠrukÊĮvÊĮdÊ²ËĪi":5724,"ĠsÉŃÊ²ËĪedujuÉķim":5725,"Ġbj":5726,"ĠrÊ²ËĪejtÊ²i":5727,"ÊĴnÊĮstÊ²":5728,"ĠvÊ²ËĪÉĽlÉĽ":5729,"ĠÊĮsuÉķistvÉŃÊ²ËĪÉĳjitsÊĮ":5730,"nÊ²its":5731,"ht":5732,"ĠmuÉŃ":5733,"ĠsÊĮdÊ²ËĪerÊĴyt":5734,"ĠmuÉķËĪiny":5735,"ĠmÊ²itaÉŃÉŃÊ²ËĪi":5736,"dËĪÉĳjitsÊĮ":5737,"ĠrÊ²iÊĴËĪym":5738,"ssÊĮf":5739,"ĠmÊ²itËĪot":5740,"dÊĳÉĶ":5741,"ÑĮ":5742,"ÊĴÉ¨tÉķ":5743,"ÊĴËĪÉĽnÊ²iju":5744,"ĠkËĪomu":5745,"ĠstËĪÉĳtu":5746,"ĠÉŃÊ²ËĪinÊ²iÉª":5747,"ĠÊĥËĪo":5748,"ĠWindows":5749,"ÉŃÊ²ËĪetÊ²":5750,"ĠzÊĮrÊ²iÉ¡Ê²istrÊ²ËĪirÊĮvÊĮ":5751,"xÊĮtÊ²":5752,"brËĪo":5753,"ĠÊĮtkryvËĪÉĳ":5754,"ÉŃÊĮja":5755,"nuÉŃ":5756,"ĠzÉĽ":5757,"ĠstËĪoimÊĮsÊ²tÊ²Éª":5758,"ntÉĽ":5759,"ĠvËĪozrÊĮsÊ²tÊ²i":5760,"ĠtabÉŃÊ²ËĪe":5761,"op":5762,"ĠzÊĮjavÊ²ËĪiÉŃ":5763,"ĠtËĪÉĶ":5764,"ĠdÊĮkumÊ²ËĪent":5765,"rsÊ²i":5766,"ÊĴËĪa":5767,"ÊĴyjÉª":5768,"ĠÊĮkrËĪÉĳ":5769,"ĠfÊ²iÉ¡ËĪu":5770,"tÊĥÊ²nÊ²ika":5771,"ĠtÊĥÊ²ËĪuvstvÊĮ":5772,"ĠÊĳËĪemÉŃÊ²Éª":5773,"90":5774,"ĠÊĴËĪÉĳÉŃÊĮ":5775,"stËĪÉ¨tÊĥ":5776,"be":5777,"ĮtÊ²ËĪe":5778,"ÊĮtÊ²ËĪe":5779,"swu":5780,"ĠtsËĪÉĽntra":5781,"ĠkËĮÉĳËĪÉĽm":5782,"nÊ²e":5783,"ĠtÊ²imÊ²pÊ²iratËĪury":5784,"ĠfkËĪus":5785,"É¡ÊĮrÊĮ":5786,"ĠtÊ²ËĪip":5787,"ĠzËĮap":5788,"ĠdnÊ²ËĪÉª":5789,"ĠËĪobÉŃÊĮstÊ²":5790,"ĠÉŃËĪutÊĥÊ²Êĥyx":5791,"ĠÉ¡Ê²ËĪip":5792,"ĠnÊ²ikakÊ²ËĪix":5793,"ĠprÊ²idy":5794,"ĠrËĪÉ¨":5795,"ĠnavÊ²ËĪe":5796,"Ġxva":5797,"vÊ²ÊĮt":5798,"ĠvËĪystÊĮ":5799,"ĠvÊĮzra":5800,"lÉĽm":5801,"ĠvÊ²iÉŃÊ²ikÊĮ":5802,"ĠÉ¡ÊĮsÊ²tÊ²ËĪi":5803,"stvujut":5804,"ĠvÊ²ÉĽ":5805,"stvÊ²innÊĮvÊĮ":5806,"stÊĮk":5807,"ĠusÊ²ËĪiÉŃÊ²i":5808,"ĠrËĪosta":5809,"tËĪom":5810,"ĠÊĮtnÊĮsÊ²ËĪitÊ²iÉŃnÊĮ":5811,"ĠrËĪuÊĴ":5812,"ĠpËĪoÉŃa":5813,"ĠfpÊ²itÊĥÊ²at":5814,"ĠtÊ²ixnÊĮÉŃËĪoÉ¡Ê²iÉª":5815,"ĠpÊ²ËĪÉĳtÊ²":5816,"ĠmÊ²inÊ²ËĪu":5817,"ĠprËĮÉĽ":5818,"ĠËĮÉĶtpÉĶvÊ²ËĪÉĽ":5819,"Ġzvu":5820,"ĠsÊ²ËĪim":5821,"ĠprÊ²iduprÊ²i":5822,"Éķik":5823,"tËĪÉĳkÊ²Éª":5824,"ÊĴÉĽj":5825,"ĠÊĮpubÉŃÊ²i":5826,"ĠpÊ²itÊĥÊ²ËĪÉĳ":5827,"ĠtabÉŃÊ²ËĪi":5828,"skrÊ²i":5829,"stvÊ²innyjÉª":5830,"ĠsÊĮm":5831,"ĠÉ¡rÊ²ËĪi":5832,"ĠtrËĪa":5833,"Ġ35":5834,"ĠrÊĮspÊĮÉŃaÉ¡ËĪÉĳ":5835,"ĠprÊ²idÊĮtvra":5836,"ĠmËĮi":5837,"Ġupa":5838,"jËĪesÉŃÊ²Éª":5839,"ĠnÊ²ibÊĮÉŃÊĥËĪoj":5840,"70":5841,"ĠusÉŃËĪovÊ²ij":5842,"ĠvËĪu":5843,"ĠjavÉŃÊ²ËĪÉĳ":5844,"Ġhttps":5845,"ĠprÊ²itÊĥÊ²ËĪinÊĮj":5846,"ĠkÊĮntsËĪÉĳ":5847,"ĠrajËĪona":5848,"ĠkuÉŃtËĪury":5849,"ĠÉ¡ÊĮsudËĪÉĳrstva":5850,"ĠtËĪakÊ²ÉĽ":5851,"tstvujit":5852,"ĠdÊ²irÊ²ËĪev":5853,"ĠuvËĪa":5854,"ĠtÊĥÊ²rÊ²iz":5855,"ĠÊĮsËĪoby":5856,"Ġy":5857,"ĠmÊ²inÊ²ËĪi":5858,"bÊ²Éª":5859,"ÉŃÊ²ËĪÉĳjitsÊĮ":5860,"ĠdÊĳËĪi":5861,"rÊĴËĪÉĽ":5862,"ĠpÉŃËĪÉĳtÊ²":5863,"fki":5864,"ËĪÉµt":5865,"ĠËĪopÉķim":5866,"ÊĥËĪa":5867,"tkÊĮf":5868,"ĠÊĳËĪim":5869,"nÊ²itsa":5870,"ĠsÊ²ËĪiÉŃ":5871,"ĠËĪÉĶp":5872,"ĠÉªnvÊ²isÊ²tÊ²ËĪi":5873,"tsËĪÉĽnt":5874,"sÊĮmÊ²Éª":5875,"ĠpÊĮÉŃÊĮÊĴËĪÉĽnÊ²ijÉª":5876,"ĠsvÊ²ir":5877,"ĠsaÉŃËĪo":5878,"ĠprÊĮfÊ²ËĪe":5879,"Ġrasp":5880,"sËĪÉ¨":5881,"ĠvnÊ²ËĪeÊĥnÊ²ij":5882,"ĠÊĮpÊ²irËĪÉĳtsyÉª":5883,"ĠzÊĮsÊ²i":5884,"ĠÊĮtsy":5885,"tÊĥnËĪÉĽÉ¡ÉĶ":5886,"ĠzakËĪon":5887,"ĠaftËĪo":5888,"ĠzvËĪu":5889,"ĠanËĪÉĳÉŃÊ²is":5890,"Ñĩ":5891,"rÊ²ËĪiÊ":5892,"rÊ²ËĪiÊĮ":5893,"ĠsfÊ²ËĪerÊ²i":5894,"ĠtsËĪÉĽntrÊ²i":5895,"ĠËĪÉĶsup":5896,"sËĪa":5897,"sypËĪÉĳ":5898,"tÊ²iÉŃstf":5899,"ĠËĪÉĽk":5900,"ĠutÊĥÊ²i":5901,"ĠzÊĮmÊ²itÊĥÊ²ËĪÉĳ":5902,"bËĪyjÉª":5903,"ĠËĪopÉķijÉª":5904,"ĠkakÊ²ËĪim":5905,"ĠÉ¡ÉŃËĪÉĳs":5906,"ĠznÊĮ":5907,"ĠprÊ²idnaznËĪÉĳtÊĥÊ²i":5908,"ĠbËĪÉ¨wÉĶ":5909,"ĠdËĪÉĳtÊ²":5910,"ĠnÊ²ikÊĮÉŃËĪÉĳ":5911,"ĠbËĪÉ¨w":5912,"ĠznËĪÉĳju":5913,"ĠvaÊĴ":5914,"ĠkstËĪÉĳtÊ²Éª":5915,"ĠtÊĥÊ²itËĪÉĳtÊ²":5916,"sËĪovÊĮ":5917,"rÊĮÉŃÊ²ËĪi":5918,"ĠudÊ²ivÊ²ËĪi":5919,"ĠaÉŃÊ²iksËĪÉĳndr":5920,"znyjÉª":5921,"pÉŃËĪo":5922,"ĠpÊĮi":5923,"ÉŃÊ²iÉ¡ËĪÉĳ":5924,"ĠÉķfÊ²ËĪa":5925,"ĠdÊĳa":5926,"strËĪoitÊ²":5927,"ĠprÊ²idydËĪu":5928,"rku":5929,"ĠmËĪÉĳÉŃ":5930,"ĠÉªntÊ²ÉĽrnÊ²ËĪetÊ²i":5931,"ĠsrÊ²ËĪednÊ²ij":5932,"ĠmËĪÉĳssÊĮ":5933,"ĠvËĪojny":5934,"ĠxarËĪÉĳktÊ²ir":5935,"ĠpÉĶmËĪÉĶ":5936,"ĠxÊĮrÊĮktÊ²irÊ²ËĪisÊ²tÊ²ikÊ²Éª":5937,"ĠprÊĮdÊĮÉŃÊĴËĪy":5938,"ĠsÉŃÊ²ËĪedstvÊ²i":5939,"xÊĮÊĴdÊ²ËĪenÊ²ija":5940,"ĠbËĪÉĳnka":5941,"Įx":5942,"ÊĮx":5943,"ĠtÊĮvËĪÉĳra":5944,"ĠprÊ²inÊ²i":5945,"ĠaprÊ²ËĪeÉŃÊ²ÊĮ":5946,"ĮnÊ²ËĪe":5947,"ÊĮnÊ²ËĪe":5948,"ĠprÊĮtÊ²aÊĴËĪÉĽnÊ²iÉª":5949,"ĠpÊĥÉ¨pËĪat":5950,"ĠÉªzbÊ²iÊĴËĪÉĳtÊ²":5951,"ĠstatÊ²jËĪja":5952,"ĠtakËĪuju":5953,"ĠpÊĮmËĪoÉ¡ut":5954,"tÊĥÊ²istvÊĮ":5955,"ĠrÊ²ispËĪubÉŃÊ²ikÊ²Éª":5956,"ËĪÉªÉŃÊ²Éª":5957,"ĠnËĪÉĳÊĥa":5958,"ĠukrËĪÉĳ":5959,"ĠkÊĮbÊ²i":5960,"ĠkÊ²iÉŃÊĮ":5961,"Ġuz":5962,"ĠsmartfËĪo":5963,"nÉ¡":5964,"vÉĶd":5965,"vËĪom":5966,"ram":5967,"ĠbËĪoÉŃÊĥym":5968,"ĠdËĪostup":5969,"ĠspËĮÉĶ":5970,"ĠsÊ²ËĪeksa":5971,"ĠtÊĥËĪÉĽÉ²":5972,"sÊ²it":5973,"ĠÊĳËĪer":5974,"ĠurÊĮ":5975,"âĢĿ,":5976,"ĠsËĪÉĽr":5977,"ĠtÊ²ËĪer":5978,"ĠvÊ²ËĪeÉķÉª":5979,"ĠvÊ²ËĪeka":5980,"ĠsrËĪokÊ²Éª":5981,"tÊ²ËĪitÊĥÊ²iskÊĮj":5982,"ĠdyxËĪÉĳ":5983,"tËĪÉĽÉ¡ÉĶ":5984,"ÉĽts":5985,"mÊ²ËĪentÊĮm":5986,"sÉŃÊ²ËĪedÊĮvÊĮ":5987,"ĠRe":5988,"ĠÊĮtprËĪÉĳ":5989,"tna":5990,"ĠbËĮudÊ²itÊ²i":5991,"ĠrÊĮvnÊĮ":5992,"ĠsÊ²ivËĪodnÊ²ÊĮÊĥ":5993,"ĠvÊĮsprÊ²i":5994,"ĠpÊĮpuÉŃÊ²ËĪÉĳrnÊĮ":5995,"wam":5996,"pËĪi":5997,"tÊĥÊ²nÊĮsÊ²tÊ²Éª":5998,"ĠtÉķËĪÉĳtÊ²iÉŃnÊĮ":5999,"kÉŃÊ²i":6000,"ist":6001,"wtÉĶ":6002,"ĠptÊ²ËĪi":6003,"ĠrÊĮsprÊ²idÊ²i":6004,"ËĪatÉ¨":6005,"ĠÉªËĪjuÉŃÊ²ÊĮ":6006,"ĠzabËĪo":6007,"ĠÊĮrÊ²iji":6008,"ÊĴdËĪÉĳjitsÊĮ":6009,"Ġfrants":6010,"stËĪuju":6011,"lnÉĽ":6012,"ĠËĮÉĶrÉ¡a":6013,"ĠfËĪÉĶ":6014,"rËĪus":6015,"ĠstratÊ²ËĪe":6016,"stka":6017,"É¡ËĪof":6018,"ĠÉ¡ÉŃÊĮ":6019,"ĠprÊ²iparËĪÉĳt":6020,"pÊ²itÊ²irbËĪu":6021,"ĠspÊĮkËĪoj":6022,"Ġnad":6023,"bÊ²iÉŃÊ²Éª":6024,"mym":6025,"strÊ²ËĪejÉª":6026,"Ġnast":6027,"stËĪÉĳn":6028,"ĠrabËĪotÊĮjut":6029,"ĠxÊĮÊĳËĪÉĳj":6030,"ĠtÊĥÊ²itËĪyrÊ²i":6031,"ĠrÊ²iÉ¡Ê²iÊĮnËĪÉĳ":6032,"ĠÉªntÊ²ËĪi":6033,"ĠudaÉŃËĪosÊ²":6034,"rÊ²a":6035,"tsta":6036,"kÉŃÊ²ËĪe":6037,"nnÊ²ikÊ²Éª":6038,"ĠÉĽkspÉŃuatËĪÉĳtsyÉª":6039,"ĠkÊĮÉŃÊĮ":6040,"ĠËĪobrÊĮs":6041,"ĠÉªËĪjunÊ²ÊĮ":6042,"ĠkÊĮmÊ²pjËĪjutÊ²ÉĽ":6043,"ĠbËĪÉĽndÉĶ":6044,"ĠspËĪÉĶsup":6045,"Ġmuzy":6046,"tkÊĮj":6047,"ĠsËĪÉĳnkt":6048,"ÊĴdanÊ²ËĪi":6049,"dÊ²ËĪetÊ²":6050,"uw":6051,"zda":6052,"Êĥyt":6053,"ĠvÊĮrÊ²iËĪÉĳnty":6054,"ĠrÊ²iÊĴËĪymÊ²i":6055,"ĠudÊĮvÉŃÊ²i":6056,"ĠpÊĮnËĪÉĳdÊĮbÊ²i":6057,"Ê²ËĪÉĶv":6058,"ÊĴdÊ²ËĪenÊ²ij":6059,"ĠfpÊ²irvËĪyjÉª":6060,"ĠdÊĮÉŃÊ²ikËĪo":6061,"ĠvÊĮprËĪosÊĮm":6062,"ĠprÊ²ixËĪodÊ²itsÊĮ":6063,"ĠpÊĮÉŃutÊĥÊ²ËĪÉĳjitsÊĮ":6064,"ĠÉ¡rÊ²ËĪÉĳ":6065,"pÉŃÊ²ËĪi":6066,"sÊ²tÊ²itÊ²":6067,"ĠmassËĪÉĳ":6068,"ĠprÊ²idÊĮstavÉŃÊ²ËĪÉĳ":6069,"stvÊ²innÊĮj":6070,"ĠmÊ²irÊĮprÊ²iËĪjatÊ²ija":6071,"raz":6072,"ĠnËĪy":6073,"ew":6074,"ËĪÉĳÉŃnuju":6075,"ĠkÊĮnkrÊ²ËĪet":6076,"ĠÉ¡Ê²irmËĪÉĳ":6077,"ĠÉ¡Ê²irËĪo":6078,"ĠsuprËĪu":6079,"ÊĴdÊ²ËĪenÊ²iÉª":6080,"spÊ²ÉĽ":6081,"dËĪÉĳÉŃ":6082,"ÊĥÉ¨x":6083,"ĠbÊĮji":6084,"ÉŃÊ²iks":6085,"ĠzakËĪontÊĥÊ²i":6086,"sÉŃÊ²ËĪedstvÊ²i":6087,"45":6088,"É²itÉķ":6089,"ĠdÊ²iputËĪÉĳ":6090,"ex":6091,"ĠnÊĮpÊĮmÊ²inËĪÉĳ":6092,"Êĳin":6093,"ĠbËĪud":6094,"ĠrÊ²ËĪisk":6095,"ĠnaxËĪodÊ²ÊĮtsÊĮ":6096,"ĠprÊ²iÊĥÉŃËĪo":6097,"lÉ²Ê²ÉĽ":6098,"rÊ²isËĪu":6099,"Ê²ËĪÉĽr":6100,"ĠpÊ²ËĪervyx":6101,"ĠÊĮtnËĪosÊ²itsÊĮ":6102,"ndÉ¨":6103,"ĠtrËĪo":6104,"nÉĽt":6105,"nus":6106,"ĠnÊĮjabrÊ²ËĪÉĳ":6107,"nÊĮva":6108,"brËĪÉĳtÊ²sÊ²ÊĮ":6109,"ĠprÊĮÉ¡nËĪo":6110,"ĠpÊĮtrÊ²ËĪebnÊĮ":6111,"rËĮÉĶ":6112,"fÊ²ikËĪÉĳtsyÉª":6113,"ĠÉ¡ÊĮsudËĪÉĳrstvÊ²innÊĮj":6114,"ĠnalËĪÉĽÊĴÉ¨":6115,"ĠÉ¡rÊĮÊĴdanÊ²ËĪi":6116,"ĠkÊ²iÊĥËĪÉĽ":6117,"ĠprÊ²itÊ²sÊ²i":6118,"ĠvnÊ²imËĪÉĳnÊ²ija":6119,"ĠnËĪok":6120,"ĠpÊĮtrÊ²ËĪebujitsÊĮ":6121,"raktÊ²ËĪe":6122,"dËĪÉĳx":6123,"ÉŃÊ²ËĪenÊ²ijim":6124,"ĠbËĮudÊ²im":6125,"Ġpla":6126,"ĠsÉŃÊ²ËĪedÊĮvÊĮ":6127,"ĠÉªtËĪoÉ¡Ê²i":6128,"Ġ300":6129,"ĠzÊĮpÊĮÉŃ":6130,"ĠzrÊ²ËĪe":6131,"ĠprÊĮvËĪodÊ²itsÊĮ":6132,"xËĪoj":6133,"ĠÉ¡Ê²inÊ²i":6134,"ĠtrËĪÉĳv":6135,"ĠstËĪÉĶ":6136,"ĠtsËĪÉĽÉŃÊ²Éª":6137,"01":6138,"ĠkÊĮÉŃÉŃÊ²i":6139,"ĠÉªspytËĪÉĳ":6140,"ĠnÊ²idÊĮstËĪÉĳtÊĮtÊĥÊ²nÊĮ":6141,"ĠpÊĮsÉŃÊ²ËĪedu":6142,"ĠzÊĮvÊĮ":6143,"ast":6144,"vËĪodÊ²i":6145,"ĠÉĽkrËĪÉĳ":6146,"ĠÉªnsÊ²tÊ²itËĪu":6147,"ĠrÊĮdÊ²ËĪitÊ²iÉŃÊ²ij":6148,"ĠsmÊ²ËĪesÊ²":6149,"ĠpËĪi":6150,"ĠmÊĮmÊ²ËĪenta":6151,"mja":6152,"ĠtÊ²imÊ²pÊ²iratËĪura":6153,"ĠbËĪÉĳnk":6154,"dËĪom":6155,"dkÊĮj":6156,"nÊ²ËĪÉµ":6157,"ĠzÊĮby":6158,"ino":6159,"ĠzbËĪo":6160,"ĠskrËĪy":6161,"ĠnÊ²ipÊĮsrÊ²ËĪedstvÊ²innÊĮ":6162,"ĠprÊ²idpÊĮtÊĥÊ²":6163,"ĠÉ¡rËĪÉĳdu":6164,"ĠsÉ¨":6165,"ĠkÊ²ËĪÉĽdÉ¨":6166,"ĠÊĮsvÊĮbÊĮ":6167,"ĠkËĪodÊ²i":6168,"ĠÊĮdda":6169,"ĠkÊĮmpËĪÉĳnÊ²ij":6170,"mÊĮn":6171,"ĠspËĪosÊĮbÊĮm":6172,"ËĪÉĶvaw":6173,"ĠpÊ²a":6174,"ĠÊĥtÊĥÉĽ":6175,"ĠmÊ²itËĪody":6176,"mÊĮvÊĮ":6177,"nÊ²itsÊĮ":6178,"ĠkËĪoÊĴu":6179,"ĠpÊĮnÊ²i":6180,"ĠsvÊĮjËĪemu":6181,"ĠvËĪyÉ¡ÉŃÊ²ÊĮdÊ²it":6182,"ĠÉ²ËĪiÊĥ":6183,"dnym":6184,"datk":6185,"bÊĮvÊĮtÊ²":6186,"ĠjazËĪy":6187,"ĠËĪÉªmÊ²inÊ²Éª":6188,"ĠprËĪÉĳvÊ²iÉŃ":6189,"ĠsÉŃËĪy":6190,"dÊĳaw":6191,"ĠpÉŃat":6192,"ĠvËĪoÉŃ":6193,"ĠanÊĮÉŃÊĮÉ¡Ê²ËĪi":6194,"blËĪi":6195,"ËĪÉĽf":6196,"dÊ²ËĪÉµt":6197,"ĠvrÊ²ËĪemÊ²inÊ²im":6198,"ĠÊĥtrËĪÉĳ":6199,"mËĪof":6200,"ĠkakËĪojÉª":6201,"ĠkËĪoÉŃ":6202,"snÊĮja":6203,"É²Ê²ËĪÉĶv":6204,"ĠdÊ²ËĪetÊ²ÊĮ":6205,"dÊ²iËĪÉĳ":6206,"ĠvmÊ²i":6207,"ktÊĮra":6208,"rkÊ²ËĪe":6209,"ĠsÊ²nÊ²ËĪÉĳtÊ²":6210,"ĠmuÊĥ":6211,"ĠaÉ¡rÊ²i":6212,"nËĪuÉŃsÊ²ÊĮ":6213,"ĠÊĮpÉķi":6214,"ĠnËĪÉĳvy":6215,"ĠspËĪosÊĮby":6216,"tÊĥËĪa":6217,"Â«":6218,"Ġakt":6219,"nnÊ²ik":6220,"ĠsËĪumma":6221,"sÊ²sÊ²ija":6222,"ĠvÊĮspÊ²i":6223,"rÊ²ËĪÉĳjit":6224,"ĠprÊ²imÊ²ËĪer":6225,"ĠnÊ²ibÊĮÉŃÊĥËĪy":6226,"ĠxrÊĮnÊ²ËĪi":6227,"ÊĳitÊ²":6228,"nter":6229,"ĠtÉķËĪi":6230,"vja":6231,"tsËĪÉĶ":6232,"ĠktËĪotËĪo":6233,"ĠvaÉŃÊ²ËĪu":6234,"ĠsÊ²ituËĪÉĳtsyja":6235,"É²ËĪitsÉ¨":6236,"bvÊ²ËĪÉª":6237,"ĠxÊĮrËĪoÊĥyjÉª":6238,"ĠzakËĪona":6239,"ĠprÊĮvÊ²ËĪerÊ²itÊ²":6240,"É¡ËĪÉĳja":6241,"ĠdËĮÉĽËĪÉĽr":6242,"ĠmÊ²inÊ²isÊ²tÊ²ËĪer":6243,"ĠpÊĮÉŃutÊĥÊ²ËĪiÉŃ":6244,"ÊĥËĪÉĽnÊ²ij":6245,"jdÊ²i":6246,"ÉŃnÊĮsÊ²tÊ²Éª":6247,"tËĪÉĽr":6248,"ĠrÊ²iÊĳËĪi":6249,"ĠdrËĪuÉ¡ÊĮm":6250,"ĠnÊĮu":6251,"ĠprÊĮxËĪodÊ²it":6252,"ĠÉĽÉŃÊ²imÊ²ËĪenty":6253,"ÉŃnÊĮstÊ²":6254,"ĠkËĪÉĳp":6255,"Ġdvux":6256,"ĠÊĥtËĪu":6257,"oc":6258,"ĠprÊ²inÊ²ËĪÉĳtÊ²":6259,"ĠurËĪo":6260,"ĠnaskËĪoÉŃkÊĮ":6261,"ĠkvÊĮÉŃÊ²i":6262,"ĠxÊĮraktÊ²ËĪe":6263,"ĠmÊ²ËĪetÊĮ":6264,"ĠvÊĳ":6265,"ĠÊĥyrÊ²i":6266,"vÉŃÊ²inÊĮ":6267,"ĠÊĮbÊĮrËĪudÊĮvÊĮnÊ²ijÉª":6268,"ĠustËĪÉĳ":6269,"ĠfËĪÉĳkt":6270,"tsyËĪonnyx":6271,"brÊĮzÊĮ":6272,"ĠpÊĮsÊ²tÊ²ipÊ²ËĪennÊĮ":6273,"pÊĮÉŃÊ²i":6274,"ĠmuzykËĪÉĳ":6275,"ĠrazmÊ²ËĪera":6276,"ĠprÊĮfÊ²iÉŃËĪÉĳktÊ²i":6277,"lt":6278,"mÊ²inÊĮ":6279,"dÊĮj":6280,"dÊ²ËĪiÉŃÊ²Éª":6281,"ĠËĮÉĽf":6282,"ĠÉªmmu":6283,"ĠÊĮrËĪuÊĴy":6284,"ĠÊĮbvÊ²i":6285,"pÊ²ËĪÉĽ":6286,"tsjÉĶ":6287,"ĠnÊ²ij":6288,"sna":6289,"ĠÊĮtÉŃÊ²ËĪitÊĥÊ²ijÉª":6290,"É¡ÊĮvÊĮrÊ²ËĪi":6291,"Ð±":6292,"tÊ²it":6293,"ĠprÊĮdËĪukt":6294,"ĠxrËĪÉĳ":6295,"ĠbystrÊ²ËĪejÉª":6296,"ĠvËĪÉĳÊĥyx":6297,"ratÊ²ËĪi":6298,"ĠÊĮdÊ²inËĪÉĳ":6299,"ĠuÉŃutÊĥËĪÉĽ":6300,"ly":6301,"ĠtÊ²ixnÊĮÉŃËĪoÉ¡Ê²i":6302,"ĠxËĪotÊĥÊ²itsÊĮ":6303,"ĠnÊ²ivÊ²i":6304,"ĠsÊ²irtÊ²i":6305,"dÊ²ÊĮt":6306,"kËĪomÊ²itÊ²sÊ²ÊĮ":6307,"ĠfÊ²ËĪe":6308,"ĠÉ¡arËĪÉĳ":6309,"ĠsÊĮÊĴa":6310,"ĠtÊ²ËĪeÉŃÊĮ":6311,"ÊĥËĪÉĽnÊ²iÉª":6312,"ĠÊĴyvËĪotnyx":6313,"ĠkrÊ²ËĪep":6314,"ĠzarËĪÉĳnÊ²ijÉª":6315,"ĠutÊĮtÊĥÊ²":6316,"ÊĴËĪÉª":6317,"ĠprÊ²inÊ²ËĪÉĳ":6318,"ĠnÊ²imËĪu":6319,"xËĪa":6320,"ĠsÊĮÊĮtvÊ²ËĪetstvÊ²innÊĮ":6321,"ĠdÊĮpÊĮÉŃnÊ²ËĪitÊ²iÉŃnyjÉª":6322,"ĠtÊĮÉŃÉķi":6323,"ĠarÊĮmËĪÉĳ":6324,"ĠzvÊ²ËĪe":6325,"ĠkljËĪÉĽ":6326,"tuju":6327,"ĠÊĴËĪytÊ²":6328,"ĠËĪÉªÉ¡r":6329,"ĠÊĮbrazËĪu":6330,"ĠÊĮbmÊ²ËĪe":6331,"ĠmÊ²ËĪenÊ²i":6332,"ĠnÊ²iÊĮbËĪy":6333,"ÉŃÊĮÊĴËĪÉĽnÊ²ijÉª":6334,"pÊ²isËĪÉĳtÊ²":6335,"ĠsÊ²ikËĪu":6336,"ĠtrËĪup":6337,"ĠËĮÉĽmËĪÉĽÉŃ":6338,"ĠtÊ²ËĪexnÊ²ikÊ²Éª":6339,"04":6340,"ĠvratÊĥÊ²ËĪÉĳ":6341,"bÊĮj":6342,"ĠÊĥkËĪoÉŃy":6343,"ĠkÉĶlËĪÉĽj":6344,"Êĥt":6345,"ĠsÊ²irdÊ²ËĪe":6346,"ĠÊĮtvÊ²ËĪersÊ²tÊ²i":6347,"ĠsÊ²iksu":6348,"ĠGo":6349,"sÊ²ËĪer":6350,"ÉŃÊ²ÊĮmÊ²Éª":6351,"ĠmËĪoja":6352,"ĠsÊĮbËĪytÊ²ija":6353,"ĠÊĮËĪoÊĮ":6354,"ÉŃÊ²izËĪÉĳtsyÉª":6355,"ĠdvÊ²ËĪerÊ²Éª":6356,"ĠpÊ²ËĪensÊ²i":6357,"bËĪojÉª":6358,"dÊ²itÊ²":6359,"ĠtÊĥÊ²ÊĮ":6360,"ĠsËĪoÉŃnÊ²i":6361,"sh":6362,"ĠpÉŃÊĮtÊ²i":6363,"ĠÊĮstavÉŃÊ²ËĪÉĳ":6364,"Ġ=":6365,"ĠpËĪutÊ²":6366,"ĠpÊĮstÊĮnÊĮ":6367,"ĠÉªnÊ²itsy":6368,"ĠkakËĪÉĳja":6369,"ĠpÊĮsta":6370,"ÅĭÉ¡u":6371,"mÊĮr":6372,"ĠlÉĶ":6373,"tnÊĮm":6374,"ĠÉªnÉ¡":6375,"ĠvÉŃadÊ²ËĪimÊ²ir":6376,"ĠupÊĮtrÊ²ibÉŃÊ²ËĪÉĳ":6377,"ĠmunÊ²itsy":6378,"ĠpÉŃËĪÉĳsÊ²tÊ²ikÊĮ":6379,"ĠfsÊ²imËĪu":6380,"ĠÊĮkazËĪÉĳÉŃÊĮsÊ²":6381,"isp":6382,"ĠËĪoddyxa":6383,"ĠbÉĶ":6384,"ÊĥkËĪa":6385,"ÊĴËĪÉĳjut":6386,"tÊĥÊ²ËĪok":6387,"ĠskËĪorÊĮstÊ²":6388,"ĠakkurËĪÉĳ":6389,"ĠfÊ²ivraÉŃÊ²ËĪÉĳ":6390,"ĠprÊ²ipÊĮ":6391,"ĠnrËĪÉĳvÊ²itsÊĮ":6392,"fÊ²itsËĪyrÊĮvÊĮ":6393,"rÉ¡ÊĮ":6394,"ĠÊĮtnÊĮÊĥËĪÉĽnÊ²ij":6395,"É¡Ê²ÉĽ":6396,"vÉŃÊ²in":6397,"ĠprÊ²iimËĪuÉķistva":6398,"Ġ2013":6399,"ĠÊĮtnËĪosÊ²ÊĮtsÊĮ":6400,"ĠkÊ²isÉŃËĪo":6401,"ĠprÊ²idÉŃÊĮÊĴËĪÉĽnÊ²ija":6402,"kËĮa":6403,"ĠÉ¡Ê²idrÊĮ":6404,"skim":6405,"ĠrÊ²iÊĮÉŃÊ²izËĪÉĳtsyÉª":6406,"ĠÉ¡ÉŃazËĪÉĳ":6407,"ĠÉ¡ÊĮtËĪovy":6408,"bnÊĮjÉª":6409,"ĠvzÉ¡ÉŃÊ²ËĪÉĳt":6410,"ĠvÊĮdÊ²ËĪi":6411,"ÊĥËĪÉĳjut":6412,"ĠjËĪakÊ²ÉĽ":6413,"ĠprÊ²iÉŃÊĮÊĴËĪÉĽnÊ²ijÉª":6414,"ĠÊĮsÉŃÊĮÊĴ":6415,"ĠbÊĮÉŃÊĥËĪuju":6416,"ĠsËĪutkÊ²Éª":6417,"ĠvËĪÉĳÊĥa":6418,"ÉŃÊĮsÊ²tÊ²Éª":6419,"ĠtsvÊ²itËĪof":6420,"ĠadmÊ²inÊ²istra":6421,"ĠÉ¡rËĪuppa":6422,"fÊĥyjisÊ²ÊĮ":6423,"ÊĴmÊ²ËĪitÊ²i":6424,"ĠxËĪa":6425,"styjÉª":6426,"Ġbra":6427,"ĠarÊ²ËĪe":6428,"ĠnËĪoÉ¡Ê²Éª":6429,"ĠrÊ²istÊĮ":6430,"muf":6431,"ĠrÊĮssmÊĮtrÊ²ËĪe":6432,"ÉŃÊĮÉ¡Ê²ËĪitÊĥÊ²iskÊ²ix":6433,"ĠpÊĮdÊĮz":6434,"ÉŃÊ²ËĪety":6435,"É¡ÉĶt":6436,"tsËĮÉĽ":6437,"ĠpËĪoÉŃzÊĮvÊĮtÊ²iÉŃÊ²ij":6438,"lËĪar":6439,"ĠkËĪÉĳrtu":6440,"ĠprÊĮpÊ²ËĪi":6441,"ĠsvËĪojstva":6442,"ĠzËĪÉĳnÊ²ÊĮ":6443,"ĠzdÊĮrËĪovjjÉª":6444,"35":6445,"ĠaÉ¡Ê²ËĪents":6446,"ĠÉ¡ÊĮÉŃÊĮv":6447,"ĠprÊ²imÊ²ËĪeru":6448,"ĠrÉĶdÊĳËĪi":6449,"rËĪÉĳv":6450,"ĠnÊ²iÊĮpxÊĮdÊ²ËĪimyjÉª":6451,"ĠximÊ²ËĪi":6452,"ĠÉªstÊĮrÊ²ËĪi":6453,"ĠpÊ²ËĪervÊĮm":6454,"bjËĪÉĶ":6455,"ÊĳËĪirÊĮvÊĮtÊ²":6456,"ĠdÊĮvÊ²ËĪerÊ²i":6457,"nkÊĮj":6458,"nÊ²ËĪÉĳtÊ²sÊ²ÊĮ":6459,"staw":6460,"ĠzadËĪÉĳtÊĥÊ²ÊĮ":6461,"ĠÉªtËĪÉĳk":6462,"ĠsuÉķistvÊĮ":6463,"ĠutÊĥÊ²ËĪÉĳstÊ²nÊ²ikÊĮf":6464,"É¡ËĪodnÊĮ":6465,"pÊĮÊĳËĪi":6466,"ĠÉªmÊ²ËĪejitsÊĮ":6467,"vÊĮjtÊ²i":6468,"ĠdËĪumÊĮju":6469,"ĠÊĮxrËĪÉĳ":6470,"ĠukraËĪinÊ²i":6471,"ĠvÊĮspËĪoÉŃzÊĮvÊĮtÊ²sÊ²ÊĮ":6472,"kÊĮva":6473,"nÊ²ËĪiÉŃ":6474,"ĠatmÊĮs":6475,"ĠsvÊ²itÊĮ":6476,"ĠsËĪÉĳnktpÊ²itÊ²irbËĪu":6477,"ĠrËĪynka":6478,"ĠvÊ²isÊ²ËĪe":6479,"rÊ²ËĪirÊĮvÊĮ":6480,"ĠzaÉ¡rËĪu":6481,"ntsji":6482,"jjËĪera":6483,"jjim":6484,"ĠvuÉŃ":6485,"tÊĥÊ²ËĪÉĳjnÊĮ":6486,"ĠdÊ²isÊ²ËĪÉĳ":6487,"ĠstrÊĮËĪitÊ²iÉŃstva":6488,"ĠpÊĮdËĪÉĳr":6489,"kÊĮtÊ²i":6490,"Ġla":6491,"dÊĳËĪÉĽÉ²Ê²ÉĽ":6492,"ĠfÊĮtÊĮÉ¡rËĪÉĳfÊ²iÉª":6493,"ĠnÊ²iprËĪÉĳvÊ²i":6494,"ÉĶm":6495,"ÉŃÊĮÊĴËĪytÊ²":6496,"ĠznËĪÉĳjit":6497,"ĠvyzyvËĪÉĳjit":6498,"ĠmÊ²ËĪin":6499,"ĠsËĪÉĳmÊĮja":6500,"rËĮa":6501,"ĠmËĪÉ¨":6502,"ĠsËĪam":6503,"ĠnÊ²izÊĮ":6504,"ĠÉĽÉŃÊ²imÊ²ËĪentÊĮf":6505,"tÊ²ik":6506,"Ġ#":6507,"ĠrazmÊ²ËĪerÊ²i":6508,"statÉķ":6509,"mÊĮÉ¡aÊĳËĪi":6510,"ĠdruÉ¡ËĪovÊĮ":6511,"intÊ²ÉĽrÊ²i":6512,"ĠÉ¡ÊĮrmÊĮ":6513,"ĠÊĮfÊĮrmÉŃÊ²ËĪenÊ²ija":6514,"ĠnÊĮkÊĮnÊ²ËĪets":6515,"ĠpÊĮtÊĮÉŃ":6516,"É¡ËĪÉĳÉŃ":6517,"ĠsÊĮzdËĪÉĳnÊ²ijÉª":6518,"rÊ²idÊ²ijËĪe":6519,"stÉĽmp":6520,"ĠÂ·":6521,"ĠÊĮxËĪo":6522,"ĠÉªspËĪoÉŃzÊĮvÊĮnÊ²iÉª":6523,"ĠnatÊĥÊ²ËĪÉĳÉŃ":6524,"ĠxtsËĪÉĽ":6525,"ĠâĢ¦":6526,"ĠjËĮÉĽ":6527,"ĠÉĶst":6528,"tÊĥu":6529,"rujutsÊĮ":6530,"Ġ45":6531,"bÊ²ËĪitÊ²":6532,"ĠrËĪodstvÊ²i":6533,"Ġtrans":6534,"ĠdÊ²izËĪÉĳjnÊ²i":6535,"ĠÉªzbËĪÉĳvÊ²itÊ²sÊ²ÊĮ":6536,"ÉŃÊ²ËĪÉĳjut":6537,"ĠsxËĪema":6538,"fÉŃÊ²ËĪi":6539,"ĠsaÉŃËĪÉĳ":6540,"ĠÊĮbÊ²ispÊ²ËĪetÊĥÊ²ivÊĮjit":6541,"ĠkÊĮntrÊĮÉŃÊ²ËĪi":6542,"ĠrËĮÉĶz":6543,"kru":6544,"ĠÉªnÉ¡rÊ²idÊ²ijËĪe":6545,"ĠËĪÉĳvÉ¡usta":6546,"ĠmËĮÉĽ":6547,"ĠrasÊ²tÊ²ËĪi":6548,"ĠkÊĮza":6549,"ĠkrËĪa":6550,"ĠvËĪyvÊ²i":6551,"ĠThe":6552,"99":6553,"ĠspÊ²itsyÊĮÉŃÊ²i":6554,"dÉŃÊ²innÊĮ":6555,"tskÊ²ij":6556,"ĠmnÊ²ËĪenÊ²iju":6557,"ĠstabÊ²ËĪi":6558,"vÉŃÊ²Éª":6559,"ĠÊĮtÊ²ËĪetÊĥÊ²istvÊ²i":6560,"ĠkÊĮrrÊ²i":6561,"ĠtÊ²ËĪep":6562,"ĠÉŃÊ²ËĪistÊ²jja":6563,"ĠvÊĮrËĪo":6564,"tsËĪa":6565,"ĠtÊĥÊ²ity":6566,"zrËĪÉĳ":6567,"ĠzËĪÉĳf":6568,"ĠnÊĮxÊĮdÊ²ËĪÉĳ":6569,"ĠmÊ²ËĪetrÊĮf":6570,"fÊĮrmËĪÉĳ":6571,"ĠfsÊ²ËĪemÊ²Éª":6572,"ĠmarÊĥ":6573,"ĠprÊ²ijËĪema":6574,"tÊĥnÉ¨x":6575,"É¡rafÊ²ËĪi":6576,"Ġwa":6577,"ĠtÊĮvËĪÉĳr":6578,"ĠmÊĮnÊĮ":6579,"sÊ²iÉŃ":6580,"ĠpÊ²ËĪervÊĮjÉª":6581,"ĠzÊĮpÊĮ":6582,"ĠdrËĪÉĶ":6583,"nskÊ²ijÉª":6584,"ĠbukmÊ²ËĪekÊ²ir":6585,"ĠpÊĮsvÊ²a":6586,"Ġkrup":6587,"tsynËĪÉĳ":6588,"ĠËĪÉĳrmÊ²i":6589,"znyx":6590,"bÊ²it":6591,"ĠpÊĮÉŃutÊĥÊ²ËĪÉĳtÊ²":6592,"max":6593,"ĠdÊĮpuskËĪÉĳ":6594,"ĠÊĮrÉ¡ÊĮnÊ²izËĪÉĳtsyja":6595,"ĠtÊĥÊ²ËĪÉĳs":6596,"ĮtnÊĮ":6597,"ÊĮtnÊĮ":6598,"ĠvÊĮzvrËĪÉĳ":6599,"ĠvÊĮspÊ²itËĪÉĳ":6600,"ntsËĪÉĽ":6601,"ĠmÊĮÉ¡aÊĳËĪin":6602,"ĠprÊ²imÊ²inÊ²ËĪÉĳtÊ²":6603,"ĠpÊĮzvÊĮÉŃÊ²ËĪÉĳjut":6604,"ĠbÉŃËĪÉĳ":6605,"ĠrÊ²idËĪÉĳ":6606,"fÊĥÉĽ":6607,"ĠnamnËĪovÊĮ":6608,"ĠzÉŃÊĮ":6609,"ĠsmÊ²ËĪertÊ²Éª":6610,"ĠstËĪÉĳry":6611,"ĠsÊ²imÊ²jjËĪe":6612,"sËĪok":6613,"ĠzÊĮnÊ²imËĪÉĳtÊ²sÊ²ÊĮ":6614,"ntsÉ¨":6615,"vÊ²ËĪej":6616,"ssaÊĴËĪy":6617,"ĠtËĪÉ¨x":6618,"stËĪoin":6619,"ĠrËĪÉĳdÊ²Éª":6620,"ĠÊĮfËĪormÊ²itÊ²":6621,"ĠÉ¡dÊĳËĪÉĽ":6622,"snym":6623,"ĠzakËĪÉĳs":6624,"stÉĽ":6625,"ĠnÊĮstrÊĮjËĪe":6626,"ĠfÊ²ËĪiÉŃm":6627,"ĠkËĪÉĳm":6628,"stËĪof":6629,"ĠsÉĶ":6630,"ĠmÊ²istËĪÉĳx":6631,"ĠÊĮsnËĪovÊĮ":6632,"ĠkÊĮnkrÊ²ËĪe":6633,"ÉķËĪÉĳtÊ²sÊ²ÊĮ":6634,"ĠÉ¡aÊĳËĪe":6635,"tnymÊ²Éª":6636,"Ġzar":6637,"ĠstsËĪÉĽ":6638,"ĠmËĪajÉĶ":6639,"ĠÉªzÉ¡ÊĮtËĪo":6640,"ĠpÊĮÉ¡Ê²ËĪi":6641,"ĠsuÉķistvËĪujut":6642,"ĠÉªÉŃ":6643,"rts":6644,"Ġzdr":6645,"ĠÉĽnÊ²ir":6646,"Ê²ËĪÉµt":6647,"vnÊĮstÊ²":6648,"ĠÉªmËĪuÉķistva":6649,"ĠzadËĪu":6650,"ĠdÊ²ËĪetÊ²ÊĮm":6651,"ĠvvÊ²i":6652,"ĠkÊĮntËĪo":6653,"ĠnÊ²idËĪÉĳvnÊĮ":6654,"ÉĽrdËĪÉĽ":6655,"ĠÊĥkËĪÉĶ":6656,"ĠzÊĮkazËĪÉĳtÊ²":6657,"ina":6658,"ÉŃÊ²ËĪeta":6659,"ĠfunktsyÊĮnËĪÉĳ":6660,"ĠkÊĮmÊ²pÊ²in":6661,"ĠsÊĮvmÊ²i":6662,"ĠznatÊĥÊ²ËĪi":6663,"ÊĥËĪÉĽnÊ²ijim":6664,"ĠpÊĮnrËĪÉĳvÊ²i":6665,"nÊ²iv":6666,"ĠsÊĮsta":6667,"vÉŃÊ²ËĪÉĳtÊ²sÊ²ÊĮ":6668,"ËĪalnÉĽ":6669,"ĠtsynÊ²ËĪe":6670,"ĠfËĪil":6671,"Ġ31":6672,"ĠnÊĮtÊĥÊ²inËĪÉĳjitsÊĮ":6673,"ĠËĪokna":6674,"ĠprÊ²inÊĮdÉŃÊ²i":6675,"ĠÊĮtÊĥÊ²irÊ²id":6676,"ĠnÊ²idvÊ²ËĪiÊĴymÊĮsÊ²tÊ²Éª":6677,"ĠpÊ²irspÊ²i":6678,"ĠÊĮbÊ²ispÊ²ËĪetÊĥÊ²inÊ²ija":6679,"ĠprÊ²ivÉŃÊ²i":6680,"ĠmÊ²ËĪery":6681,"ĠËĪjabÉŃÊĮ":6682,"Ġum":6683,"vnÉĽ":6684,"ĠbrËĪÉĳtÊ²":6685,"ĠÊĮsnÊĮvËĪÉĳnÊ²iÉª":6686,"ĠpÊĮpËĪy":6687,"ĠkrËĪÉĳja":6688,"Ð·":6689,"É²Ê²ËĪÉĽÉ²Ê²a":6690,"ËĪix":6691,"sÊ²ir":6692,"Ġzda":6693,"sÊ²ÊĮt":6694,"znÊĮj":6695,"ĠdÊĮstËĪoin":6696,"):":6697,"ĠznÊĮmÊ²inÊ²ËĪi":6698,"tÊĥÊ²nÊ²i":6699,"muÉŃÊ²ËĪi":6700,"lËĪinÉĽ":6701,"ĠfaktÊ²ËĪi":6702,"ĠtÉĽr":6703,"ĠpÊĮsÉŃÊ²ËĪedstvÊ²ija":6704,"ĠÉªspËĪoÉŃzÊĮvÊĮnÊ²ijim":6705,"ĠprËĪoÉķi":6706,"ĠÉĶb":6707,"ĠsÊ²ËĪevÊ²i":6708,"ĠnËĪovÊĮjÉª":6709,"vÊ²ÊĮ":6710,"ĠdÊ²ËĪeÉŃ":6711,"ĠprÊĮjtÊ²ËĪÉª":6712,"ĠmËĪÉĳsÊ²tÊ²ir":6713,"ĠsÊ²ËĪerdtsy":6714,"ĠkÊĮmËĪÉĳndy":6715,"ĠsÉŃËĪoj":6716,"ĠvypÊĮÉŃnÊ²ËĪenÊ²ija":6717,"ĠÉ¡ËĪoÉŃÊĮvu":6718,"ĠsËĪobstvÊ²innÊĮsÊ²tÊ²Éª":6719,"ĠfËĪa":6720,"ĠrÊĮzdra":6721,"ĠxÊĮrËĪoÊĥym":6722,"xÊĮÉŃ":6723,"ĠprÊĮstËĪÉĳ":6724,"ĠrÊ²itsËĪÉĽpt":6725,"].":6726,"ËĪÉ¨k":6727,"^,":6728,"ĠsÊĮtrËĪudnÊ²ikÊĮf":6729,"ĠpÉŃËĪÉĳn":6730,"ĠtÊĥÊ²it":6731,"ĠbÊĮËĪja":6732,"ĠjazËĪyk":6733,"!!!":6734,"ĠpÊĮvÊĮ":6735,"ĠaÉŃÊ²iksÊ²ËĪe":6736,"ĠÉªÉ¡":6737,"ĠustanËĪofka":6738,"nnÊĮstÊ²jju":6739,"É¡ÊĮmÊ²Éª":6740,"ĠaÉĽrÊĮ":6741,"ĠrasÊ²tÊ²ËĪenÊ²ijÉª":6742,"ĠËĪopÉķistva":6743,"ĠfkÉŃËĪÉĳ":6744,"ndËĪo":6745,"jimÊĮja":6746,"mÊ²ËĪitrÊ²i":6747,"ĠnËĪuÊĴyn":6748,"dËĪÉĳÉŃÊ²Éª":6749,"ĠdËĪob":6750,"ËĮÉĽsËĪÉĽr":6751,"sÉŃu":6752,"ĠpÊĮjavÉŃÊ²ËĪÉĳjitsÊĮ":6753,"ĠÉ¡ÊĮrantÊ²ËĪi":6754,"26":6755,"ĠrÊ²ib":6756,"ĠbËĪoÉŃÊĥyx":6757,"ĠpÊĮËĪja":6758,"ĠutÊĥÊ²ËĪetÊĮm":6759,"ĠzarpÉŃËĪÉĳ":6760,"ĠstÊĮrËĪon":6761,"ĠdÊ²itËĪÉĳÉŃÊ²Éª":6762,"ratËĪur":6763,"ĠbÊ²iÉŃÊĮ":6764,"ĠÊĮÉ¡rËĪo":6765,"vËĪÉĶÉķtÉķi":6766,"ĠÉªntÊ²in":6767,"ĠmÊĮtÊĥÊ²i":6768,"ÉŃÉŃÊĮ":6769,"ĠkËĪomnÊĮty":6770,"ntk":6771,"ĠmÊ²inÊ²irËĪÉĳ":6772,"ĠbrËĪÉĳu":6773,"ĠpÊ²ËĪervym":6774,"ĠpÊĮdÊ²iÉŃÊ²ËĪi":6775,"nÊ²ËĪis":6776,"ogle":6777,"ĠsÊ²ËĪeÉŃ":6778,"ĠprÊ²iparËĪÉĳtÊĮf":6779,"ÉŃkÊĮj":6780,"ĠrÊ²ibÊ²ËĪÉĳ":6781,"ĠmÊĮntËĪÉĳ":6782,"ĠÉŃÊ²itÊ²iratËĪu":6783,"ĠÊĥyrÊĮ":6784,"ĠprÊĮizvËĪodstvÊĮ":6785,"ĠvËĪyj":6786,"sÉĽ":6787,"suÉŃ":6788,"ĠpËĪÉĳrtÊ²i":6789,"dÊ²tÊ²i":6790,"tsyËĪonnyjÉª":6791,"kryvËĪÉĳ":6792,"atÊ²ËĪi":6793,"ĠsÊ²irÉ¡Ê²ËĪej":6794,"kÊ²ÉĽj":6795,"Ġ2012":6796,"ĠnÊĮsÉŃa":6797,"ÊĴnymÊ²Éª":6798,"ĠpÊĮsËĪobÊ²i":6799,"ĠÉŃÉ¡ËĪo":6800,"ĠdavÉŃÊ²ËĪenÊ²ijÉª":6801,"ÉķikÊĮf":6802,"ĠzapËĪoÉŃ":6803,"ĠakkumuÉŃÊ²ËĪÉĳ":6804,"nÊ²ËĪeta":6805,"ĠÉªzÉ¡ÊĮtÊĮ":6806,"ĠËĪum":6807,"ĠÉªntÊ²ËĪim":6808,"ÉŃËĪÉĳsÊ²":6809,"ĠdÊ²ËĪerÊ²i":6810,"ËĪawu":6811,"ĠnÊĮruÊĥËĪÉĽnÊ²ijÉª":6812,"ĠtËĪur":6813,"ĠdÊĳËĪÉĽtÉķi":6814,"ĠÊĮfÊ²itsyËĪÉĳÉŃnÊĮ":6815,"ĠÊĮtprËĪÉĳvÊ²i":6816,"ĠmÊ²ËĪinÊ²imum":6817,"ĠnÊ²ËĪekÊĮtÊĮ":6818,"ĠÉªnstrËĪuktsyja":6819,"ÉĶvËĪanÉ¨x":6820,"ĠmÉĶÊĴlËĪi":6821,"kÊĮr":6822,"ĠpÊĮsÉŃÊ²ËĪedÊĮvÊĮ":6823,"pt":6824,"ĠbÊĮta":6825,"ĠvarÊĥ":6826,"ĠÊĮtkËĪÉĳ":6827,"ĠËĪÉĳktsyÉª":6828,"mb":6829,"ĠpËĪoÉŃzÊĮvÊĮtÊ²sÊ²ÊĮ":6830,"ÊĥËĪytÊ²":6831,"ĠÉ¡ÉŃËĪÉĳvnyj":6832,"ÉĶvËĪana":6833,"ĠpÊĮdËĪumÊĮ":6834,"ĠprÊ²itÊĥÊ²ËĪin":6835,"ĠzÊĮpÊ²i":6836,"ĠÊĮtkÉŃÊ²u":6837,"ĠdvumÊ²ËĪÉĳ":6838,"ĠmÊĮÉ¡ÉŃ":6839,"ĠÊĮbÊ²ispÊ²ËĪetÊĥÊ²itÊ²":6840,"ĠÊĮkrËĪu":6841,"ĠpÊĮdÊ²dÊ²ËĪerÊĥkÊ²Éª":6842,"ĠÊĮstÊĮnÊĮ":6843,"Ġ$":6844,"ĠstËĮa":6845,"Ġart":6846,"ĠpÊ²isÊ²":6847,"ĠkËĪot":6848,"kËĪami":6849,"fÊĥÊĮja":6850,"ĠIn":6851,"ĠpÊĮj":6852,"ĠjËĪem":6853,"ĠupravÉŃÊ²ËĪenÊ²ijÉª":6854,"ĠzvÊ²i":6855,"ĠnaÊĴmÊ²ËĪitÊ²i":6856,"ĠÉ¡ÊĮvÊĮrÊ²ËĪÉĳ":6857,"ĠsudÊ²":6858,"ĠpËĪÉĳmÊ²ÊĮtÊ²Éª":6859,"ĠvËĮÉ¨kÉĶnËĪa":6860,"ĠdÊĳawËĪa":6861,"ĠvypuskËĪÉĳ":6862,"ĠsÉŃËĪovÊĮ":6863,"ĠvÊĮprËĪosÊĮf":6864,"izÊĮ":6865,"ĠsÊ²tÊ²ËĪiÉŃÊ²i":6866,"tÊ²irËĪÉĳ":6867,"ĠaÉŃkÊĮÉ¡ËĪo":6868,"rÊ²it":6869,"dnÊĮm":6870,"ĠtvÊ²ËĪer":6871,"vËĪÉĳr":6872,"ĠazËĪÉĳ":6873,"ĠbÊĮÉŃÊ²ËĪeÊĳn":6874,"ÉķixsÊ²ÊĮ":6875,"srËĪo":6876,"ĠstÉĶ":6877,"ĠvÉ¨sËĪÉĶ":6878,"ĠÊĮbutÊĥÊ²ËĪenÊ²ija":6879,"ĠzrÊ²ËĪi":6880,"vÊ²ËĪeÉŃ":6881,"É¡rËĪÉĶ":6882,"ÉŃËĪÉĳn":6883,"ĠvËĪybÊ²irÊ²i":6884,"ĠtÊ²iÉŃÊ²ifËĪona":6885,"tÊ²iÉŃnÊĮm":6886,"jiÊĴ":6887,"ĠnuÊĴnËĪÉĳ":6888,"ĠsËĪummy":6889,"ĠxranÊ²ËĪenÊ²ija":6890,"ĠzËĪÉĳj":6891,"ĠvÊĮrÊ²iËĪÉĳntÊĮf":6892,"kËĪÉĶÉķtÉķi":6893,"ĠpËĮÉĶd":6894,"ĠsvÊ²ËĪeta":6895,"ĠvÊ²ËĪersÊ²iÉª":6896,"vÉŃÊ²iny":6897,"ĠÉªntÊ²insÊ²ËĪi":6898,"ËĪom":6899,"ĠsÊĮÊĴaÉŃÊ²ËĪenÊ²iju":6900,"ĠvËĪyja":6901,"05":6902,"taj":6903,"bÊ²ËĪitÊ²sÊ²ÊĮ":6904,"ĠrÊĮdÊ²ËĪitÊ²iÉŃÊ²Éª":6905,"stvÊ²innyj":6906,"ĠpravÊ²ËĪitÊ²iÉŃstva":6907,"int":6908,"ĠstrÊ²imÊ²ËĪi":6909,"ĠuÉŃ":6910,"ĠvÉŃÊ²iËĪjanÊ²ijÉª":6911,"ĠpÊĮstËĪÉĳvÊ²itÊ²":6912,"ĠfËĮi":6913,"ĠprÊ²iÊĳidÊ²ËĪenta":6914,"ĠpÊĮÉŃutÊĥÊ²ËĪenÊ²ijÉª":6915,"ÊĴymËĪÉĳ":6916,"ĠËĪobu":6917,"styj":6918,"fy":6919,"ĠnËĪÉĳmÊ²Éª":6920,"ĠpÊĮstupËĪÉĳ":6921,"ĠnËĮÉĶ":6922,"tÊ²ËĪitÊĥÊ²iskÊ²ij":6923,"Ġon":6924,"ĠpÉŃËĪoxÊĮ":6925,"ĠkrËĪÉĳjnÊ²i":6926,"ĠvypÊĮÉŃnÊ²ËĪÉĳtÊ²":6927,"ĠÊĮbrÊĮzÊĮvËĪÉĳnÊ²ijÉª":6928,"tsyÊĮnÊ²ËĪe":6929,"sÉŃËĪuÊĴ":6930,"ĠÉĽmËĪo":6931,"vËĪodu":6932,"ĠpÉŃasÊ²tÊ²ËĪi":6933,"ĠprÊĮku":6934,"sÊ²ËĪet":6935,"ĠsmËĪÉĳ":6936,"ĠktËĪurÉ¨x":6937,"tÊ²ËĪitÊĥÊ²iskÊĮvÊĮ":6938,"ĠprÊ²ida":6939,"ĠspÊ²itsyaÉŃÊ²ËĪistÊĮf":6940,"ĠspÊĮsËĪobstvujit":6941,"tÊ²ikÊ²i":6942,"tÊ²iku":6943,"ĠvÊ²iÉŃÊĮ":6944,"ĠvÉ¨dËĪa":6945,"ĠÊĴËĪydkÊĮsÊ²tÊ²Éª":6946,"ĠbÊ²izu":6947,"ut":6948,"ĠprÊ²iÊĳidÊ²ËĪent":6949,"ĠspÊ²itsyËĪÉĳÉŃnyjÉª":6950,"ĠrabËĪotÊĥÊ²ij":6951,"Ê²ËĪÉĳtÊ²":6952,"ĠÊĮbÉŃÊ²ik":6953,"wÉĶn":6954,"ĠnÊĮpravÉŃÊ²ËĪenÊ²ija":6955,"bl":6956,"xÉĽ":6957,"ĠËĪopÉķivÊĮ":6958,"ĠrÊ²ËĪedkÊĮ":6959,"ĠrÊ²iÉ¡uÉŃÊ²ËĪÉĳrnÊĮ":6960,"ĠnuÊĴnËĪy":6961,"ĠdËĪy":6962,"jËĪÉµ":6963,"ĠnÊĮstÊĮËĪjaÉķij":6964,"ĠrÊĮzru":6965,"tnÊĮsÊ²tÊ²Éª":6966,"ĠvzrËĪosÉŃyx":6967,"ĠsÊĮznËĪÉĳ":6968,"stvÊĮmÊ²Éª":6969,"ĠÉ¡ÊĮspËĪo":6970,"ĠrÊ²iÊĥËĪytÊ²":6971,"ĠnajlËĪÉĽp":6972,"ËĪiÉŃ":6973,"ĠtudËĪÉĳ":6974,"ÉŃÊ²ËĪÉĳjit":6975,"ĠÊĮtmÊ²ËĪetÊ²iÉŃ":6976,"ĠpÉŃatfËĪor":6977,"ĠtÊĥÊ²iÉŃÊĮvÊ²ËĪeku":6978,"pÊ²isÊ²":6979,"ĠÉªspËĪoÉŃzuja":6980,"ĠvËĮi":6981,"lnËĪÉĽÉ¡ÉĶ":6982,"ĠkÊĮnfÉŃÊ²ËĪi":6983,"ĠbÊĮÉŃÊĥynstvÊ²ËĪe":6984,"skÊĮf":6985,"É²im":6986,"nÊ²ina":6987,"pÊĮtÊ²ËĪe":6988,"ĠzastËĪÉĳ":6989,"Ġvru":6990,"pÊĥÉĽ":6991,"ĠzÊĮrabËĪotÊĮ":6992,"ĠunÊ²itÊĥÊ²":6993,"ĠprÊĮtsydËĪura":6994,"ord":6995,"ĠpÊĮdrËĪobnÊ²ijÉª":6996,"É¡ram":6997,"27":6998,"bÉŃËĪo":6999,"stnÊĮj":7000,"03":7001,"zÊĮvËĪÉĳtÊ²":7002,"ĠPa":7003,"ĠutÊĥÊ²ËĪityvÊĮtÊ²":7004,"ĠfÊĥËĪÉ¨stkÊ²ÉĽ":7005,"ĠfudbËĪoÉŃ":7006,"vÊ²ËĪizÊĮ":7007,"ĠdmÊ²ËĪitrÊ²i":7008,"ĠËĪinnÉ¨x":7009,"ĠpÉŃÊ²ËĪÉĳ":7010,"ĠrasÊ²tÊ²ËĪenÊ²ij":7011,"mÊ²ËĪernÊĮ":7012,"ĠrazmÊ²ËĪery":7013,"ĠrasÉķËĪity":7014,"ĠÊĮstËĪÉĳvÊ²itÊ²":7015,"ĠrÉĶz":7016,"ĠnÊĮzyvËĪÉĳjut":7017,"Ġ>":7018,"vÊ²azËĪÉĳ":7019,"ĠfxËĪodÊ²it":7020,"mÊĮjÉª":7021,"ĠpÊĥËĮÉ¨É¡ÉĶt":7022,"ĠprÊ²ibËĪo":7023,"ĠpÊĮÉŃÊĮÊĴËĪÉĽnÊ²ija":7024,"ÊĥËĪÉĽÉ¡ÉĶ":7025,"vstvÊ²ËĪi":7026,"ĠÉ¡ËĮÉĶ":7027,"ĠdÊĳÉĽ":7028,"ĠpÊĮjavÊ²ËĪiÉŃÊĮsÊ²":7029,"ĠtËĪÉĳj":7030,"ĠpËĪoÊĴÊĴy":7031,"ÉĽkËĪa":7032,"ĠprÊ²iÉŃÊĮÊĴËĪÉĽnÊ²ija":7033,"ĠÉĽnÊ²ËĪerÉ¡Ê²iÉª":7034,"ĠÉĶbËĪÉĽ":7035,"fÊĥym":7036,"ĠpÊĮsrÊ²ËĪed":7037,"ĠpÊ²ËĪervÊĮja":7038,"ea":7039,"ĠrassmËĪotrÊ²im":7040,"ÑĢÐ°":7041,"ĠtÊĥÊ²ËĪemu":7042,"tÊ²jËĪja":7043,"É²tÉķi":7044,"ÊĳËĪitÊ²":7045,"ĠpÊĮstra":7046,"ÐŁ":7047,"ĠzÊĮjavÉŃÊ²ËĪenÊ²ija":7048,"ĠsÊ²ËĪerdtsa":7049,"ÉŃÉŃÊ²ËĪe":7050,"ĠÊĮsnÊĮvËĪÉĳnÊ²ija":7051,"ĠÊĮstÊĮrËĪo":7052,"dËĪÉĳtÊ²iÉŃÊ²ÊĮ":7053,"ĠprÊ²iparËĪÉĳta":7054,"É¡ji":7055,"ĠtËĪoÉŃ":7056,"ĠkËĪÉĳÊĴdÊĮm":7057,"ÉŃÊ²ËĪetÊ²nÊ²i":7058,"ĠÊĴurnaÉŃÊ²ËĪi":7059,"ĠdwËĪu":7060,"ĠtÊ²ËĪemu":7061,"ĠkÊĮtËĪorÊĮmu":7062,"ĠmËĪÉĳma":7063,"ĠÉĶstËĪat":7064,"ĠdavÉŃÊ²ËĪenÊ²ija":7065,"ĠpÊ²irÊ²ËĪed":7066,"znÊĮjÉª":7067,"ĠdÊĮkazËĪÉĳ":7068,"28":7069,"ĠdvÊ²ËĪiÉ¡ÊĮtÊ²iÉŃÊ²ÊĮ":7070,"ĠpÊĮdÊĮjdÊ²ËĪet":7071,"ĠvÉŃÊĮ":7072,"ĠtÊĥÊ²itËĪÉĳjtÊ²i":7073,"ĠbËĪystry":7074,"Ġaf":7075,"tÊ²ËĪit":7076,"É¡ÊĮvÊĮ":7077,"ĠupravÉŃÊ²ËĪÉĳ":7078,"ĠtÊ²iËĪÉĳ":7079,"ĠmunÊ²itsypËĪÉĳ":7080,"ĠpÉŃËĪoÉķÊĮdÊ²Éª":7081,"nÊĳËĪi":7082,"nat":7083,"ĠpÊ²ËĪiÉķÉª":7084,"ĠbÊ²ibÉŃÊ²i":7085,"kËĪÉĳm":7086,"ĠnËĪÉĳtÊĥÊ²ÊĮÉŃ":7087,"ĠÉ¡rËĪÉĳdusÊĮf":7088,"ĠÊĮvÊĮ":7089,"ĠktËĪu":7090,"ĠvÊ²inËĪo":7091,"ĠrÊ²iÊĥËĪyÉŃÊ²Éª":7092,"ĠzÊĮbÊĮÉŃÊ²ivËĪÉĳnÊ²ijÉª":7093,"ĠÊĮtvÊ²ËĪetstvÊ²innÊĮstÊ²":7094,"ĠÉªspËĪy":7095,"ĠzatÊĥÊ²ËĪem":7096,"ÊĴËĪÉĽj":7097,"ĠvËĪyjasÊ²":7098,"rÊ²ËĪezÊĮ":7099,"co":7100,"ĠprÊ²iÉ¡ÊĮtËĪovÊ²itÊ²":7101,"ĠdËĮÉĶdatk":7102,"ĠmÊ²itËĪodÊ²i":7103,"ĠÉ¡Ê²ipÊ²ir":7104,"ĠzabËĪy":7105,"ĠdaËĪjut":7106,"ĠmÊĮÉŃ":7107,"ĠznËĪÉĳnÊ²ija":7108,"ĠÉ²ËĪix":7109,"ĠmËĪÉĶÊĴÉĽÊĥ":7110,"Ġana":7111,"ĠmËĪoz":7112,"fÊĮrmÊ²i":7113,"É²ËĪiki":7114,"dÊĮvÊĮtÊ²":7115,"zÉĽ":7116,"ĠmÉ²Ê²ÉĽ":7117,"ĠnÊ²izna":7118,"jtsa":7119,"znÊĮja":7120,"ĠÉĽkspÊ²irÊ²i":7121,"rÊĴËĪy":7122,"ĠtÊĮkÊĮ":7123,"vËĪaÉ²Ê²ÉĽ":7124,"ĠvyxÊĮd":7125,"Éªn":7126,"ĠkvadrËĪÉĳ":7127,"ĠÊĥËĪÉ¨p":7128,"pusÊ²tÊ²ËĪitÊ²":7129,"ĠÊĮpÉŃËĪÉĳty":7130,"ĠÊĴËĪytÊ²iÉŃÊ²ij":7131,"ÊĥnËĪoj":7132,"ĠmÊĮËĪÉª":7133,"É¡Ê²ija":7134,"sÊ²tÊ²ÊĮx":7135,"ÉķËĪestvÊ²innÊĮ":7136,"ĠtrËĪÉĳnspÊĮr":7137,"Ġ2022":7138,"ĠsÊĮtrËĪudnÊ²ikÊ²Éª":7139,"rÊĮsÊ²sÊ²ËĪi":7140,"tÊĥÊ²ËĪitÊ²sÊ²ÊĮ":7141,"ĠrÊ²ikÊĮmÊ²indËĪÉĳtsyÉª":7142,"ĠstrÊĮËĪitÊ²iÉŃstvÊĮ":7143,"ĠnËĪovÊĮja":7144,"trÊ²ËĪe":7145,"ĠsmËĮoÉ¡ut":7146,"ĠÉªntÊ²ÉĽrÊ²isËĪu":7147,"ÊĴËĪyÉŃ":7148,"njjÉª":7149,"ĠvrÊ²imÊ²ËĪe":7150,"nax":7151,"ĠkËĪompÉŃÊ²iks":7152,"mËĪotr":7153,"ĠxÊĮÉŃÊĮdÊ²ËĪiÉŃ":7154,"ĠmËĮoÊĴym":7155,"mÊ²ËĪetrÊĮf":7156,"tÊĥÊ²kÊĮmÊ²Éª":7157,"ĠnabËĪor":7158,"ĠprÊ²idËĪu":7159,"ĠrËĪynÊĮk":7160,"**":7161,"ĠnÊ²idÊ²ËĪeÉŃ":7162,"ĠdËĮÉ¨":7163,"Ñİ":7164,"ĠznËĪÉĳjitÊ²i":7165,"ĠpÊĮdvÊ²ËĪe":7166,"ĠÉ¡raÊĴdËĪÉĳn":7167,"ĠtÊĮvËĪÉĳry":7168,"ĠzÊĮkÊĮnÊĮdËĪÉĳtÊ²iÉŃ":7169,"ĠvÊ²ËĪÉĽlu":7170,"ĠÊĮtvÊ²ËĪetstvÊ²innÊĮsÊ²tÊ²Éª":7171,"ĠzdËĪÉĳnÊ²ija":7172,"vrÊ²ËĪemÊ²i":7173,"ĠprÊ²imÊ²inÊ²ËĪÉĳjitsÊĮ":7174,"sÊĮn":7175,"ĠÊĮtrÊ²itsËĪÉĳ":7176,"ĠÊĴyÉŃËĪÉĳtÊ²iÉŃnÊĮ":7177,"ĠznatÊĥÊ²ËĪenÊ²ija":7178,"É²Ê²i":7179,"%,":7180,"ĠkËĪopÊ²i":7181,"ĠtÊ²u":7182,"ie":7183,"ĠÉªntÉĽrnËĪÉĽtmÊĮÉ¡aÊĳËĪi":7184,"ĠpÊ²irÊ²imÊ²ËĪe":7185,"ÊĴÉ¨stËĪa":7186,"ĠiP":7187,"tÊĥÊ²ËĪÉĳtÊ²sÊ²ÊĮ":7188,"mm":7189,"nËĪosÊ²it":7190,"ĠÉŃÊ²itÊĥÊ²ËĪe":7191,"sÊĮjidÊ²i":7192,"ĠÊĮrÉ¡ÊĮnÊ²izËĪÉĳtsyj":7193,"ĠpÊĮrËĪÉĳ":7194,"ĠbËĪÉĳÉŃ":7195,"rÊĮpÊ²i":7196,"ÉŃÊ²ËĪisÊ²":7197,"Ġ150":7198,"ĠÊĮrÉ¡ËĪÉĳny":7199,"jËĮÉĽ":7200,"ĠprÊĮstrËĪÉĳnstvÊĮ":7201,"ĠprÊ²iËĪjatnÊĮ":7202,"tÊ²irÊ²Éª":7203,"ÐĹ":7204,"ĠËĪuÉŃ":7205,"ĠsÊĮxranÊ²ËĪitÊ²":7206,"ĠzapËĪÉĳ":7207,"ĠpÊ²itËĪÉĳnÊ²ijÉª":7208,"ĠfrËĪuk":7209,"ĠÊĮtkrËĪytÊ²":7210,"ĠbÊĮÉŃÊĥËĪovÊĮ":7211,"ĠdÊĴËĪo":7212,"ĠmÊĮÉŃyÊĥËĪÉĳ":7213,"vËĪÉĳÉŃÊĮsÊ²":7214,"ĠnËĪovuju":7215,"ĠdÊ²irÊ²ËĪeva":7216,"mÊ²ËĪentÊĮmÊ²Éª":7217,"ĠmÊ²ÉĽÊĥkËĪa":7218,"ĠpÊĥÉ¨pËĪatku":7219,"ĠvÊ²ËĪÉĽÅĭk":7220,"ĠsravnÊ²ËĪenÊ²iju":7221,"ĠpËĪoÉŃnyj":7222,"ĠkvartÊ²ËĪirÊ²i":7223,"ĠrÊĮzÉ¡ÊĮ":7224,"ÉĶvËĪÉĶ":7225,"ĠstandËĪÉĳr":7226,"ĠÊĮrÉ¡anÊ²ËĪizmÊ²i":7227,"ĠkÊĮtËĪorymÊ²Éª":7228,"ĠzmÊ²ËĪa":7229,"É¡ËĪÉĳjit":7230,"vËĪymÊ²Éª":7231,"ĠvÊĮdÊ²ËĪe":7232,"bÊ²ËĪir":7233,"tsyÊĮnÊ²ËĪi":7234,"qu":7235,"ĠdnÊ²ËĪem":7236,"ĠsÊ²irÊ²idÊ²ËĪi":7237,"ĠÊĮbjjËĪektÊĮf":7238,"Êĥto":7239,"ĠassÊĮrtÊ²i":7240,"sÊ²ija":7241,"ĠvËĮÉĶ":7242,"ĠaftÊĮmÊĮbÊ²ËĪiÉŃÊ²ij":7243,"ĠvnËĪof":7244,"ĠsvÊ²ËĪÉĳÊĳ":7245,"É¡ÊĮÉŃ":7246,"ĠnatÊĥÊ²ËĪÉĳÉŃÊĮ":7247,"ĠkÊĮmmÊ²ËĪer":7248,"rÊ²ËĪij":7249,"ĠzÊĮintÊ²ÉĽrÊ²i":7250,"pe":7251,"ĠmÊĮjËĪej":7252,"ÉŃÊ²ËĪek":7253,"tÊĥÊ²ivÊĮtÊ²":7254,"ĠmÊĮrÊ²i":7255,"ĠÊĥtËĪop":7256,"stnyx":7257,"ĠaksÊ²i":7258,"ĠpÊĮssaÊĴËĪy":7259,"ĠspËĪosÊĮbÊĮf":7260,"ÉŃÊĮÉ¡Ê²ËĪitÊĥÊ²iskÊ²ijÉª":7261,"ĠsÊĮÉŃ":7262,"ĠtÊ²ËĪekst":7263,"tsyËĪonnÊĮj":7264,"ÐĲ":7265,"ĠktËĪuÊĴÉ¨":7266,"ĠsvÊ²idÊ²ËĪenÊ²ija":7267,"rÊ²ËĪeja":7268,"styx":7269,"ĠkÊĮntËĪÉĳkt":7270,"ratËĪo":7271,"ĠbËĪuk":7272,"ĠzatËĪo":7273,"vÊ²ËĪerx":7274,"ĠpËĪoÉŃnÊĮj":7275,"kar":7276,"ĠnËĪam":7277,"ĠvËĪybÊ²irÊ²itÊ²i":7278,"ĠmÊ²ixanÊ²ËĪi":7279,"ĠÉķitËĪÉĳjut":7280,"ĠdÉĶstËĪÉĽmp":7281,"bËĮÉĽ":7282,"ÊĳdÊ²ËĪeÉŃ":7283,"nÊĮsÊ²ËĪitÊ²":7284,"ĠpÊĮÊĴËĪÉĳÉŃujsta":7285,"ine":7286,"ĠdÉ²Ê²ËĪa":7287,"snÊĮjÉª":7288,"ĠÉ¡ÊĮrÊ²i":7289,"tÊ²ËĪÉĳÉ¡Ê²i":7290,"nstrËĪuk":7291,"ĠZ":7292,"ho":7293,"ĠkvartÊ²ËĪiru":7294,"ĠpÉĶdËĪÉĶ":7295,"ĠpËĪoisk":7296,"ĠvÊ²ËĪidu":7297,"ÊĥkÊĮmÊ²Éª":7298,"É¡nÊ²ËĪi":7299,"ĠnajdÊ²ËĪe":7300,"dnÊ²ik":7301,"datÉķ":7302,"ĠÉŃÊĮbÊĮ":7303,"ĠsubjjËĪe":7304,"ĠnÊ²iprÊĮ":7305,"ĠÊĮpÊ²ËĪÉĳtÊ²":7306,"ĠsÊĮvÊ²ËĪety":7307,"ĠtÊĥÊ²irÊ²i":7308,"ĠdÊ²irÊ²ËĪektÊĮr":7309,"ĠpÊĮdnÊ²imËĪÉĳ":7310,"ĠvyÊĥy":7311,"vËĪÉĳnÊ²iju":7312,"ĠËĪÉªsÊ²tÊ²i":7313,"tÊĥÊ²ika":7314,"ĠÊĮfÊ²itsyËĪÉĳÉŃnyj":7315,"ĠbyvËĪÉĳjut":7316,"Ġkur":7317,"ĠupraÊĴnÊ²ËĪenÊ²ija":7318,"ĠdÊĮmËĪof":7319,"dÊ²ËĪit":7320,"ĠsvÊ²ËĪerxu":7321,"io":7322,"ĠdÊĮstÊĮ":7323,"ntÊĮx":7324,"ĠutÊĥÊ²ËĪÉĳstÊĮk":7325,"ËĮaw":7326,"nkÊ²ËĪe":7327,"É¡ËĪon":7328,"ver":7329,"ĠutÊĥÊ²ËĪÉĳstka":7330,"ĠzadËĪÉĳtÊĥÊ²Éª":7331,"ĠprÊ²itÊĥÊ²ËĪina":7332,"ÉŃnÊĮmu":7333,"ĠnÊĮtÊĥÊ²inËĪÉĳjut":7334,"Êĳija":7335,"ĠpÉŃËĪoÉķÊĮtÊ²":7336,"ÊĮbÊĮrËĪot":7337,"ĠÊĴyÉŃËĪÉĳnÊ²ijÉª":7338,"ĠÉªspËĪyty":7339,"ĠpÊĮÉŃutÊĥÊ²ËĪiÉŃÊ²Éª":7340,"bËĪyx":7341,"ĠvnËĪutrÊ²innÊ²ij":7342,"vËĪut":7343,"nÊ²ijij":7344,"ðŁ":7345,"ĠtÉĽ":7346,"ĠbÉŃËĪok":7347,"ĠpÊĮdrËĪu":7348,"tax":7349,"ÉŃÊĮjÉª":7350,"ĠvËĪypÊĮÉŃnÊ²itÊ²":7351,"ĠjÉªkÊĮtÊ²i":7352,"ĠfÊĥËĪÉ¨stkÉĶ":7353,"tËĪÉĶr":7354,"ĠkÊĮmpÊĮÊĳËĪi":7355,"po":7356,"ĠÉŃËĪutÊĥÊ²Êĥyj":7357,"É¡w":7358,"dÊ²ËĪerÊĴÊĮ":7359,"Ġpl":7360,"ĠvËĪyÉŃÊ²i":7361,"ĠvËĪypÉŃÊĮty":7362,"ĠpÊĮÉŃËĪutÊĥÊ²itsÊĮ":7363,"de":7364,"ĠpÊĮsÊ²ËĪe":7365,"ĠvËĪÉĳÊĥu":7366,"ĠuspÊ²ËĪeÊĥnÊĮ":7367,"ĠsÊ²ËĪix":7368,"ĠmnÊ²ËĪenÊ²ijÉª":7369,"Ê²ËĪÉµx":7370,"ĠtÊĥÊ²itvÊ²ËĪer":7371,"É¡ËĪÉĶd":7372,"ptÊ²ËĪi":7373,"ĠprÊ²ËĪiznÊĮkÊ²Éª":7374,"ĠÉ¡ÉŃËĪÉĳvnÊĮja":7375,"ĠmÊ²ËĪebÊ²iÉŃ":7376,"mÊĮtÊ²i":7377,"ÊĥytÊ²":7378,"ĠrÊ²ËĪet":7379,"stsy":7380,"ĠprÊ²iby":7381,"ĠmÊĮÉŃÊĮdÊ²ËĪe":7382,"ĠprÊ²is":7383,".|":7384,"ĠÉ¡wËĪu":7385,"ĠbytÊĮ":7386,"rÊ²ËĪiÉŃ":7387,"ĠzarÊ²ËĪÉĳ":7388,"ĠvÊ²ËĪerxnÊ²ij":7389,"ĠsÊĮÊĮpÉķËĪiÉŃ":7390,"ĠmÊĮnta":7391,"ĠsrÊ²ËĪednÊ²im":7392,"ĠtsÉĶ":7393,"ĠkupÊ²ËĪi":7394,"ĠsÊĮvÊ²ËĪeta":7395,"ĠdÊ²if":7396,"ĠkËĪÉĳÊĴdÊĮja":7397,"ĠvÊ²inÊĮ":7398,"bnyjÉª":7399,"ĠkËĪonkur":7400,"ĠpÊĮÉŃnÊĮtsËĪÉĽ":7401,"ĠtradÊ²ËĪi":7402,"ĠpÊĮÉŃËĪutÊĥÊ²itÊ²i":7403,"ĠÉªdÊ²iËĪÉĳÉŃnÊĮ":7404,"ĠprÊĮvÊ²ËĪerkÊ²Éª":7405,"ĠpÊĮkËĪupkÊ²Éª":7406,"ĠsmÊĮtrÊ²ËĪitÊ²i":7407,"ĠprÊĮbÉŃÊ²ËĪemu":7408,"ĠspusÊ²tÊ²ËĪÉĳ":7409,"ĠmÊ²iÊĴdunarËĪo":7410,"ĠvÉŃadÊ²ËĪe":7411,"ĠnastËĪoÉŃkÊĮ":7412,"ĠtÉķËĪÉĶ":7413,"ÉķËĪer":7414,"ĠtsËĪÉĽn":7415,"tymÊ²Éª":7416,"ĠpÊĮvËĪodu":7417,"dËĪujÉĽ":7418,"ĠdlatËĪÉĽÉ¡ÉĶ":7419,"nlËĪinÉĽ":7420,"ĠdÊ²ËĪevuÊĥyk":7421,"Ġup":7422,"ĠÉŃÊ²ËĪidÊ²i":7423,"ĠnÊ²irÊ²ËĪedkÊĮ":7424,"ĠpÊĮjavÉŃÊ²ËĪenÊ²ija":7425,"ĠbÊ²ibÉŃÊ²iÊĮtÊ²ËĪe":7426,"ĠvÊ²irtÊ²i":7427,"ĠtÊ²ËĪemÊ²i":7428,"ĠrÊ²iÊĥËĪyÉŃ":7429,"tËĪovÊĮ":7430,"ĠuspÊ²ËĪeÊĥ":7431,"02":7432,"ĠGoogle":7433,"ĠpÊĮstrËĪoji":7434,"dËĪÉĳja":7435,"ĠavÊ²iÊ":7436,"ĠavÊ²iÊĮ":7437,"Ġsna":7438,"bÉŃÊĮÉ¡ÊĮ":7439,"ĠsvÊ²ËĪÉĳzÊĮnÊĮ":7440,"kuÉŃ":7441,"ÊĥËĪÉĶ":7442,"man":7443,"vnuju":7444,"ĠsÉŃËĪÉĳbÊĮ":7445,"ĠÉªspËĪoÉŃzujtÊ²i":7446,"ĠÊĮprÊ²idÊ²iÉŃÊ²ËĪi":7447,"ĠÉĽtËĪÉĳpÊ²i":7448,"ndÊ²iks":7449,"kwad":7450,"ĠsÊĮr":7451,"07":7452,"ĠkrÊ²idÊ²i":7453,"ĠprÊ²itÊĥÊ²ËĪinÊ²i":7454,"ĠprÊĮizvËĪodÊ²itsÊĮ":7455,"ĠÉŃÊ²itsy":7456,"ĠÊĮbras":7457,"ĠsrËĪoka":7458,"55":7459,"ktÊĮmÊ²Éª":7460,"ĠsnËĪÉĳ":7461,"ĠdavËĪÉĳjtÊ²i":7462,"spÊĮmÊ²inËĪÉĳ":7463,"ĠpÊĮdÊĮbrËĪÉĳtÊ²":7464,"tÊĥÊ²ÊĮt":7465,"ĠsÊĮvÊ²ËĪet":7466,"vÊĮmÊ²Éª":7467,"dËĪaÉ²Ê²a":7468,"dtsÊĮtÊ²":7469,"ĠrÊĮspÊ²i":7470,"ĠzapÊ²ËĪi":7471,"krÉĽ":7472,"rÉĶd":7473,"ĠprÊ²idstËĪÉĳvÉŃÊ²iny":7474,"ĠumÊ²ËĪenÊĥy":7475,"ĠnËĪat":7476,"ĠfËĪÉĳktÊĮrÊĮf":7477,"ĠtsËĪyf":7478,"vÊĮvÊĮtÊ²":7479,"strËĪoi":7480,"Ġam":7481,"ĠÊĳËĪi":7482,"Ġ198":7483,"ĠfËĪonÊ²i":7484,"hone":7485,"ĠdvÊ²ËĪerÉª":7486,"ĠnÊĮvÊ²i":7487,"ĠrÊĮsÊ²sÊ²i":7488,"ĠaptÊ²ËĪe":7489,"ĠÊĮtÊĥÊ²":7490,"ĠÉªnÊĴy":7491,"ĠpÊĮtsyjËĪentÊĮf":7492,"ĠrÊ²ibÊ²ËĪÉµ":7493,"ĠuÉŃutÊĥÊ²":7494,"ÉŃÊĮÉ¡Ê²Éª":7495,"Ġznaj":7496,"ĠÉķrËĪÉĶ":7497,"vÊĮjuÉķijÉª":7498,"rabËĪÉĳty":7499,"ÉķÉĶ":7500,"ĠvuÉŃkËĪÉĳn":7501,"100":7502,"ĠdÊĮstËĪÉĳfka":7503,"eg":7504,"xÊĮÉŃÊ²Éª":7505,"zËĪujÉĽ":7506,"ĠmÊĮÉ¡aÊĳËĪinÊ²i":7507,"Ġzaj":7508,"ĠprÊĮtsËĪÉĽntÊĮf":7509,"our":7510,"Ġ2011":7511,"ĠbËĪardÊĳÉĽj":7512,"ĠkËĪÉĳÊĴdÊĮmu":7513,"ÉŃÊ²ËĮÉĽrdËĪÉĽ":7514,"33":7515,"ĠzÊĮmÊ²isÊ²tÊ²ËĪi":7516,"ĠtÊĥÊ²ÉŃÊ²ËĪen":7517,"ĠxËĪi":7518,"ĠbËĪuduÉķim":7519,"tÊĮn":7520,"ĠzanÊ²ËĪÉĳtÊ²ija":7521,"ĠËĮÉĽmËĮÉĽÉŃÊ²ËĮÉĽrdËĪÉĽ":7522,"tvÊĮrÊ²ËĪi":7523,"ĠstanËĪovÊ²ÊĮtsÊĮ":7524,"ĠnÊĮtÊĥÊ²":7525,"tÊ²ËĪivnyx":7526,"ĠrÊ²iÉ¡Ê²iËĪona":7527,"dru":7528,"ĠpÊĮnËĪÉĳdÊĮbÊ²itsÊĮ":7529,"ĠlËĪÉĶ":7530,"ĠËĮuÊĴÉ¨tk":7531,"ĠÊĮrÊ²ËĪe":7532,"spÊĮsËĪobnÊĮ":7533,"ĠxÊĮtÊ²ËĪÉĳt":7534,"tÊĮjÉª":7535,"ĠvzÊĮimÊĮdÊ²ËĪejstvÊ²i":7536,"ĠudaÉŃÊ²ËĪitÊ²":7537,"ĠkakËĪuju":7538,"ĠÉķitËĪÉĳjit":7539,"ĠÊĮxÉŃa":7540,"zvÊ²i":7541,"ĠkËĪorpu":7542,"ĠstÊĮÉŃËĪo":7543,"ĠfrantsËĪus":7544,"prÊĮtÊ²i":7545,"ĠmÊ²ËĪenÊ²idÊĴy":7546,"ĠpÊĮjavÉŃÊ²ËĪÉĳjutsÊĮ":7547,"ĠsÊĮtsyËĪÉĳÉŃnyx":7548,"ĠbumËĪÉĳÉ¡Ê²Éª":7549,"ĠpÊĮdÊ²tÊĥÊ²irk":7550,"ĠkÉŃËĪÉĳssa":7551,"ĠvÊ²intÊ²i":7552,"nÊĥËĪÉĳ":7553,"ÐĴ":7554,"ĠpÉĽ":7555,"ĠaÉŃÊ²i":7556,"ĠprÊ²idstavÊ²ËĪitÊ²iÉŃÊ²Éª":7557,"ĠprÊĮdvÊ²i":7558,"ĠutÊĥÊ²rÊ²iÊĴdÊ²ËĪenÊ²ija":7559,"ĠÉªdÊ²ËĪeÉª":7560,"ÉŃÊ²ina":7561,"ĠËĪjaÉ¡ÊĮ":7562,"ĠrÊĮsskazËĪÉĳÉŃ":7563,"ĠkËĪilka":7564,"É¡ËĮÉĽ":7565,"É²stfa":7566,"ĠÉŃÊ²imËĪo":7567,"ĠÊĮÉŃÊ²i":7568,"ĠzakËĪu":7569,"ĠÊĮpsÉŃÊ²ËĪedÊĮvÊĮ":7570,"ĠsÊ²ivËĪodnÊ²ÊĮÊĥnÊ²ij":7571,"29":7572,"ĠstatÊ²ËĪi":7573,"ĠvÊĮdÊ²ËĪitÊ²iÉŃ":7574,"ĠnÊĮtÊĥÊ²a":7575,"stsÉĽ":7576,"ĠÊĴËĪyÊĳnÊ²i":7577,"É¡lÉĶ":7578,"ĠadmÊ²inÊ²istrËĪÉĳtsyÉª":7579,"mÊ²ËĪera":7580,"Ġkf":7581,"ĠvÊ²ËĪesÊ²tÊ²Éª":7582,"rÊ²isÊ²tÊ²ËĪi":7583,"znyj":7584,"ĠpÊĮftËĪo":7585,"tsyËĪonnyj":7586,"tskÊĮvÊĮ":7587,"ĠpÉŃanÊĥËĪÉĽ":7588,"ĠPro":7589,"kÉŃËĪÉĳtkÊ²Éª":7590,"ĠzËĪÉĳpÊ²isÊ²Éª":7591,"ĠprÊ²ivÊ²idÊ²ËĪe":7592,"Ê²ËĪÉµr":7593,"ĠÊĮstËĪÉĳÉŃÊĮsÊ²":7594,"ktÊ²ËĪej":7595,"tÊ²irna":7596,"ĠÊĮtÉŃÊ²itÊĥÊ²ËĪÉĳjutsÊĮ":7597,"ĠsÊĮvrÊ²imÊ²ËĪennyjÉª":7598,"ĠvÊ²irtÊ²ikËĪÉĳ":7599,"ÉŃymÊ²Éª":7600,"rËĪÉĳÉŃ":7601,"strÊĮf":7602,"ĠkÊĮzax":7603,"rËĪÉĳja":7604,"ĠÉĶnlËĪinÉĽ":7605,"ĠËĪostry":7606,"ĠÊĴyÉŃÊ²ËĪi":7607,"ĠprÊĮizÊĮÊĥÉŃËĪo":7608,"davËĪÉĳ":7609,"ĠpÊĮdÊ²dÊ²irÊĴËĪÉĳ":7610,"ĠkËĪofÊ²i":7611,"ĠpÊĮprËĪobu":7612,"ĠÊĮbrabËĪotkÊ²Éª":7613,"ĠstËĪÉĳdÊ²iÉª":7614,"ĠxudËĪoÊĴ":7615,"roid":7616,"ĠbÉŃÊ²ËĪe":7617,"ĠtsyfrÊĮ":7618,"ĠvdrËĪuk":7619,"ĠsÊĮtsyËĪÉĳÉŃnÊĮj":7620,"jdÊ²ËĪe":7621,"Ġbux":7622,"ĠuÉ¡ÉŃÊ²i":7623,"ĠmÊĮtËĪo":7624,"ĠvÉĶ":7625,"ĠrËĪuk":7626,"ĠËĪal":7627,"ĠfÊĮrmÊ²irËĪu":7628,"bÊ²ËĪet":7629,"ĠbËĪudtÊĮ":7630,"bÊ²ËĪer":7631,"tsyËĪonnÊĮvÊĮ":7632,"Ìģ":7633,"ĠrËĪoda":7634,"06":7635,"ĠnaÉŃÊ²ËĪi":7636,"dÉŃÊ²Éĳ":7637,"ĠnÊ²ËĪiÊĴnÊ²ij":7638,"tÊ²iÉŃa":7639,"ĠnaznËĪÉĳtÊĥÊ²i":7640,"rÊĮvÊĮÉŃ":7641,"ĠprÊ²ËĪesssÉŃËĪuÊĴ":7642,"ĠdÊĮrÊĮÉ¡Ê²ËĪi":7643,"ĠvÊ²ËĪersÊ²ija":7644,"ĠzÊĮnÊ²imËĪÉĳjit":7645,"ĠpÊĮkËĪÉĳzÊĮ":7646,"ĠÊĮpÊĮ":7647,"ĠfundËĪÉĳ":7648,"ĠnÊ²iÊĮpxÊĮdÊ²ËĪimÊĮstÊ²":7649,"ĠkÊĮntrËĪoÉŃ":7650,"nÊĮprÊ²imÊ²ËĪer":7651,"ĠvËĪofsÊ²i":7652,"zji":7653,"ĠrÊĮsÊ²sÊ²ËĪijskÊ²ix":7654,"ĠparËĪo":7655,"ÉķËĪu":7656,"pËĮÉĽËĪÉĽl":7657,"ĠmËĪÉĳs":7658,"ĠmËĪÉĳksÊ²i":7659,"tÊĥÊ²ËĪom":7660,"ĠvÊĮÊĳdÊ²ËĪejstvÊ²ija":7661,"ĠÊĮdÊ²inËĪo":7662,"ĠvÉŃÊ²iËĪjajit":7663,"ĠprÊĮdaf":7664,"ĠmËĪÉĳtÊ²irÊ²Éª":7665,"ĠknÊ²ËĪiÉ¡a":7666,"nÊĮÉŃÊ²i":7667,"nÊ²itËĪÉĳ":7668,"ĠtakÊ²ËĪimÊ²Éª":7669,"nnÊ²ika":7670,"ĠsËĪutÊĮk":7671,"ĠsÊ²ËĪerÊ²iÉª":7672,"rÊ²ËĪin":7673,"ĠËĮÉĶtÊĥÉ¨":7674,"É¡lËĪÉĶ":7675,"ĠvËĪybÊĮrÊ²i":7676,"tÊ²ikÊĮf":7677,"ĠrÊĮtsyËĪo":7678,"ËĪÉĳÉŃnymÊ²Éª":7679,"ĠrÊĮznÊĮvÊ²ËĪidnÊĮ":7680,"ĠzÊĮtÊĥÊ²a":7681,"ĠnÊĮÊĮbÊĮrËĪot":7682,"mnÊĮja":7683,"ĠzÊĮvÊ²i":7684,"ĠprÊ²iÊĥÉŃËĪosÊ²":7685,"ĠparËĪÉĳmÊ²it":7686,"ËĮÉĽf":7687,"ĠjÉªdÊ²inÊ²ËĪi":7688,"ĠtÊĥÊ²imÊ²pÊ²iÊĮnËĪÉĳ":7689,"ĠstËĪoj":7690,"ÉķinËĪy":7691,"ĠÊĮsËĪÉĳ":7692,"pÉŃÊ²ik":7693,"ĠudÊĮstÊĮ":7694,"ĠÉķËĪi":7695,"ĠËĪostrÊĮ":7696,"ĠspËĮÉĽ":7697,"vÊĮÉŃÊĮ":7698,"ĠtÊ²ËĪepÉŃÊĮ":7699,"ĠÉ¡ÊĮÉŃËĪovy":7700,"ĠvÊ²ËĪidÊ²itÊ²":7701,"ĠsÊĮÊĮru":7702,"ĠnËĪÉĳtÊĥÊ²ÊĮÉŃÊ²Éª":7703,"ĠatmÊĮsfÊ²ËĪe":7704,"ĠkartËĪofÊ²i":7705,"ĠsÊ²ituËĪÉĳtsyju":7706,"ĠÊĳir":7707,"sw":7708,"É¡ËĪÉĳmÊ²Éª":7709,"Ð½Ðµ":7710,"ĠsÉŃËĪutÊĥÊ²ÊĮj":7711,"ĠprÊ²idpÊĮtÊĥÊ²itËĪÉĳ":7712,"Éķimu":7713,"ÊĴnÊĮjÉª":7714,"ĠsÉŃÊ²ËĪiÊĳi":7715,"ĠpÊĮm":7716,"ĠvybÊ²irËĪÉĳtÊ²":7717,"ĠbËĪonus":7718,"ĠÉªzÉ¡ÊĮtÊĮvÉŃÊ²ËĪenÊ²ija":7719,"rÊĮjÉª":7720,"nÊĮsÊ²ËĪi":7721,"vÊ²iÉŃa":7722,"ĠdËĪostu":7723,"ĠÉªzmÊ²inÊ²ËĪitÊ²":7724,"ĠdËĪÉĳta":7725,"ĠsÊ²ËĪervÊ²is":7726,"ĠfËĪoru":7727,"ĠpÊĮkËĪÉĳzyvÊĮjit":7728,"wËĪÉĽ":7729,"ĠsÊ²ËĪetÊ²":7730,"ĠAnd":7731,"ĠkÊĮmËĪÉĳnda":7732,"ĠmÊ²a":7733,"ĠÉªntÊ²iÉŃ":7734,"ĠrukÊĮvËĪodstvÊĮ":7735,"ĠxranÊ²ËĪi":7736,"ÊĥËĪytÊ²i":7737,"ÊĥÊĥtËĪÉĳ":7738,"ĠtÊĥÊ²uvstvÊ²ËĪi":7739,"stnyj":7740,"ĠtÊ²iËĪo":7741,"ĠpÊĮÉŃutÊĥÊ²ËĪÉĳjit":7742,"ĠprÊ²ipÊ²ËĪÉĳ":7743,"ĠkapËĪu":7744,"ĠkÊĮntrËĪoÉŃÊ²ÊĮ":7745,"nÊ²ikÊĮmÊ²Éª":7746,"ĠkÊĮrpÊĮ":7747,"dÊ²mÊ²ËĪÉª":7748,"ĠtÊ²iÉŃÊ²ivÊ²ËĪizÊĮ":7749,"ĠÉªzmÊ²inÊ²ËĪenÊ²ij":7750,"ĠÉĶbËĪÉĽts":7751,"tÊĮtÊ²":7752,"ĠpÊ²irÊ²iÊĮdÊ²ËĪi":7753,"ĠtÊĥÊ²ËĪÉĳstÊ²jju":7754,"sÊ²ij":7755,"ĠvÊ²izu":7756,"ĠturnÊ²ËĪi":7757,"ĠpÊĮdÉ¡ÊĮtËĪofkÊ²Éª":7758,"ĠpÊĮzdra":7759,"ĠÉ¡ÉŃubÊ²i":7760,"ĠpÊĮvÊ²i":7761,"Ð¤":7762,"Ġvyja":7763,"vÊĮkËĪÉĳ":7764,"ĠvÊ²irnËĪutÊ²":7765,"ĠpÊĮtsyjËĪenta":7766,"ĠkÊ²ÉĽ":7767,"ĠÉªÉ¡rÊĮvËĪoj":7768,"Ġ2010":7769,"ĠkrasËĪo":7770,"Ġth":7771,"Ġvzy":7772,"ĠÉ¡rud":7773,"ÉķikÊ²Éª":7774,"ĠnapËĪomnÊ²im":7775,"ĠsvÊ²idÊ²ËĪetÊ²iÉŃ":7776,"vËĮu":7777,"ĠvËĪozdux":7778,"est":7779,"ĠpÊĮvyÊĥËĪÉĽnÊ²ijÉª":7780,"ĠsrÊ²ËĪedstvÊĮmÊ²Éª":7781,"nÉĶÉ²tÉķ":7782,"ĠaftËĪobu":7783,"trÊ²a":7784,"ĠsÊĮvrÊ²imÊ²ËĪennyx":7785,"ĠprÊ²ibÉŃÊ²i":7786,"ĠÉ¡ËĪoÉŃy":7787,"ĠstrËĪÉĳnÊĮx":7788,"ĠumÊ²inÊĥËĪÉĳ":7789,"ĠaÉŃtÊ²irna":7790,"ĠraÊĳdÊ²ËĪeÉŃÊ²i":7791,"ÉķfÊ²at":7792,"rtu":7793,"ĠkÊĮÉĽf":7794,"tÊĥÊ²ivÊĮjitsÊĮ":7795,"bnyx":7796,"75":7797,"ĠÊĴurnËĪÉĳ":7798,"ĠËĮawtÉĶ":7799,"ĠprÊĮÉ¡rËĪÉĳmmu":7800,"ĠktËĪurÉ¨m":7801,"ĠdvÊ²iÊĴËĪÉĽnÊ²ijÉª":7802,"lnÉ¨x":7803,"pÊ²itÊĥÊ²ËĪÉĳ":7804,"kËĮi":7805,"ĠdÊ²ivËĪÉĳ":7806,"lnËĪÉĶÉķtÉķi":7807,"09":7808,"ĠpubÉŃÊ²ikËĪÉĳ":7809,"ptÊĮ":7810,"ĠtrÊĮn":7811,"É²ËĮi":7812,"ĠkÊĮntsyntrËĪÉĳ":7813,"Įs":7814,"ĠsËĮÉ¨tu":7815,"ĠvÊĮzdËĪuÊĥ":7816,"ÊĮs":7817,"ĠËĮÉĶsÉĶ":7818,"tÊ²ËĪivnyjÉª":7819,"ËĮÉĽrËĪÉĽ":7820,"ĠspËĪort":7821,"ĠËĮÉĽsËĮÉĽs":7822,"ĠÊĮkËĪo":7823,"ĠtarÊ²ËĪi":7824,"dÊ²ËĪÉª":7825,"ÉķimÊ²Éª":7826,"ĠmÊ²id":7827,"ĠÉ¡rËĪÉĳfÊ²i":7828,"fÊ²itsyjËĪe":7829,"ĠbËĪoÉŃÊĥyj":7830,"ĠrÊ²ia":7831,"ĠfÊĥËĪÉ¨stkix":7832,"jËĪÉĽÉ²tÉķa":7833,"nÊ²ËĪiÉŃÊ²Éª":7834,"ĠÉĽta":7835,"ĠzdÊĮ":7836,"ĠnÊĮkazËĪÉĳ":7837,"ĠvËĪyz":7838,"Â°":7839,"lÉĽj":7840,"ĠÊĴynËĪÉĳ":7841,"ĠÉĶkËĪÉĶ":7842,"ĠmÊ²iÉŃÉŃÊ²iËĪonÊĮf":7843,"ĠsÊ²tÊ²ËĪiÉŃ":7844,"ĠstÊĮÉŃk":7845,"spËĪÉĶ":7846,"ĠknËĪopku":7847,"ĠpÉĶvËĪin":7848,"ĠmËĪorÊ²i":7849,"ĠsÊ²ËĪevÊ²ir":7850,"ĠprÊĮtsËĪÉĽnt":7851,"ĠsÊ²tÊ²irËĪÉĳ":7852,"ĠsÉŃËĪuÊĥÊĮ":7853,"ĠvËĪÉĳÊĥymu":7854,"ĠpÊĮmÊĮÉ¡ËĪÉĳjut":7855,"Ê²ËĪo":7856,"vËĪodÊĮf":7857,"ĠÊĮÉ¡ÊĮ":7858,"gram":7859,"ĠrÊĮzÉŃÊ²i":7860,"ĠprÊ²irËĪod":7861,"ĠznËĪÉĳjut":7862,"ĠnÊ²imËĪÉĳ":7863,"ĠbËĪÉ¨wa":7864,"bnÊĮja":7865,"ĠpÊĮdÉŃÊ²i":7866,"Ê²ËĮi":7867,"ĠzÊĮÊĴy":7868,"ĠtsËĪÉĽÉŃÊ²ij":7869,"ÉŃÊ²ËĪif":7870,"ĠËĪÉĶn":7871,"ĠCo":7872,"dnÊ²ij":7873,"ĠÊĮÉķuÉķËĪenÊ²ija":7874,"ntËĪo":7875,"É¡ÉŃÊ²ËĪÉĳ":7876,"brÉª":7877,"ĠkrÊ²ËĪem":7878,"ĠÉĽmÊĮ":7879,"lnÉ¨":7880,"ĠÊĮstaÉŃnËĪyjÉª":7881,"ĠmÊ²ËĪÉĽjstsÉĽ":7882,"É¡ÊĮx":7883,"2018":7884,"ĠÉªnvaÉŃÊ²ËĪi":7885,"ĠzÊĮtÊĥÊ²astËĪuju":7886,"kÊ²ËĪÉĽÉ¡ÉĶ":7887,"ĠfÊ²iksÊ²ËĪi":7888,"ĠÉªnÊĴynÊ²ËĪe":7889,"ĠvËĪyzvÊĮtÊ²":7890,"nËĪuÉŃÊĮsÊ²":7891,"stÉĶs":7892,"ĠstËĪoÉŃkÊĮ":7893,"ĠmÊ²ËĪestu":7894,"95":7895,"ĠudÊĮvÉŃÊ²itvÊĮ":7896,"ĠrÊ²istÊĮrËĪÉĳ":7897,"ÉŃÊĮÉ¡a":7898,"ĠLa":7899,"ĠËĪÉĳÉŃ":7900,"ĠÊĮfÊĮrmÉŃÊ²ËĪenÊ²ijÉª":7901,"tskÊĮj":7902,"th":7903,"ĠtsËĪÉĽÉŃÊ²ÊĮx":7904,"ĠlËĮi":7905,"fÊĥyxsÊ²ÊĮ":7906,"ĠmËĪodu":7907,"ĠkÊĮt":7908,"É¡ÊĮtËĪÉĳ":7909,"ĠpÊĮdtvÊ²ir":7910,"rËĪovÊĮnÊ²ija":7911,"bÉŃÊ²ËĪu":7912,"ĠkËĪÉĳd":7913,"É¨t":7914,"tÊĥÊ²inÊ²Éª":7915,"ĠÉ¡rup":7916,"ĠsmÊĮÉ¡":7917,"ĠrabËĪotÊĥÊ²ix":7918,"ĠbÊĮrÊĮ":7919,"ĠnasËĪo":7920,"É¡ËĪuju":7921,"ĠdÊĮsÊ²tÊ²iÊĴËĪÉĽnÊ²ija":7922,"ĠprÊĮtÊĥÊ²itËĪÉĳ":7923,"ĠÊĮbÊĮÉŃËĪo":7924,".:":7925,"ĠuÉŃËĪutÊĥÊ²":7926,"ĠraÊĳdÊ²ËĪeÉŃ":7927,"ĠnÊĮzyvËĪÉĳjitsÊĮ":7928,"ĠprÊ²ËĪibyÉŃ":7929,"ĠdÊĮkumÊ²ËĪenta":7930,"ĠstÊĮrÊĮnËĪÉĳ":7931,"ĠÊĮdÊ²ËĪeÊĴdy":7932,"wrÉĶ":7933,"ĠzÊĮpÉŃa":7934,"mÊ²ËĪet":7935,"tÊĮrÊ²i":7936,"ĠtËĪÉĽras":7937,"rurÉ¡Ê²ËĪi":7938,"ĠrasxËĪody":7939,"ĠprËĪÉĳzd":7940,"ĠbËĪÉĳÊĳi":7941,".).":7942,"ĠuÉ¡rËĪo":7943,"tÊ²ËĪer":7944,"ĠrukËĪÉĳx":7945,"ĠzakËĪonÊĮm":7946,"ĠÊĮbutÊĥÊ²ËĪenÊ²ijÉª":7947,"ĠkÉĶnt":7948,"ÊĥkÊĮ":7949,"fÉĽr":7950,"ĠÉ¡ÊĮtËĪof":7951,"ĠprÊ²idvarÊ²ËĪitÊ²iÉŃnÊĮ":7952,"ĠprÊĮdËĪÉĳÊĴÉª":7953,"ĠsÉŃËĪof":7954,"ĠsÊĮs":7955,"ËĮÉĳtËĪÉĽ":7956,"ĠxarËĪÉĳktÊ²ira":7957,"ĠtsËĪaw":7958,"mÊĮja":7959,"ĠÊĮsÊĮ":7960,"ĠtÊ²irapÊ²ËĪiÉª":7961,"ĠsËĪÉ¨":7962,"ĠQ":7963,"vÉŃÊ²ina":7964,"ktÊĥÊ²i":7965,"tÊĥÊ²irËĪÉĳ":7966,"ĠpÊ²irÊ²iÊĴy":7967,"rÊ²ËĪÉĳjut":7968,"ĠvnÊ²ËĪe":7969,"ĠsÊ²irtÊ²ifÊ²ikËĪÉĳ":7970,"ĠusÊ²i":7971,"ĠvrËĪodÊ²i":7972,"ĠjazykËĪÉĳ":7973,"stnyjÉª":7974,"ĠÉªsxÊĮdÊ²ËĪÉĳ":7975,"ĠkÊĮÉĽffÊ²itsyjËĪe":7976,"ĠrabËĪotÊ²nÊ²ikÊĮf":7977,"zËĮÉĽ":7978,"ËĮÉĽn":7979,"ĠkrËĪupnyx":7980,"Ġfor":7981,"njja":7982,"pkÊĮj":7983,"ĠkrÊĮsÊĮ":7984,"ĠdÊĮpÊĮÉŃnÊ²ËĪitÊ²iÉŃnÊĮ":7985,"livËĪÉĶÉķtÉķi":7986,"ĠprÊ²amËĪy":7987,"ÊĥËĪÉĽnÊ²iju":7988,"ĠvËĪaÊĴ":7989,"ĠpÊĮrÊ²ËĪÉĳdka":7990,"ĠsaxËĪÉĳ":7991,"tÊ²ËĪenÊĳi":7992,"kËĪÉĳtÊĥÊ²istvÊ²i":7993,"ĠsÉŃÊ²ËĪedujuÉķix":7994,"ĠkËĪup":7995,"vÉŃÊ²ËĪetÊĥÊ²":7996,"vÊ²im":7997,"jdËĪut":7998,"natÊĥÊ²ËĪÉĳÉŃnÊĮ":7999,"É¡ÊĮtËĪÉĳvÉŃÊ²i":8000,"ĠvÊ²iÉŃÊĮsÊ²i":8001,"br":8002,"tkÊĮmÊ²Éª":8003,"ĠnÊ²iizvÊ²ËĪe":8004,"ĠprÊĮzrËĪÉĳ":8005,"sÊ²tÊ²in":8006,"ĠdrËĪÉĳ":8007,"ĠzÊĮvÊ²irÊĥËĪÉĽ":8008,"ĠprÊ²itÊĥÊ²ËĪe":8009,"ĠÊĮpubÉŃÊ²ikËĪovÊĮ":8010,"bÉŃ":8011,"nËĪosÊ²ÊĮt":8012,"vÊ²ËĪiru":8013,"nËĪÉĶÉķtÉķÉĶ":8014,"ĠtÊ²iÉŃÊ²ifËĪonu":8015,"ĠmnÊĮÉ¡ÊĮtÊĥÊ²ËĪisÉŃÊ²i":8016,"É¡nu":8017,"ĠvËĪyiÉ¡ry":8018,"stnÊĮjÉª":8019,"ÉŃÊ²its":8020,"ĠdËĪÉĳnnÊĮja":8021,"ĠpÊ²ËĪetÊĥÊ²inÊ²Éª":8022,"vÊĮÉŃÊĮsÊ²":8023,"ĠplËĪa":8024,"ĠzËĪÉĳm":8025,"ĠvËĪybÊĮra":8026,"ĠrÊ²izuÉŃtËĪÉĳtÊĮf":8027,"vÊ²ËĪiÉŃ":8028,"mËĪotÊĥÊ²i":8029,"ĠskËĪÉĳzÊĮ":8030,"ĠËĪutrÊĮm":8031,"ĠnÊ²ivÊ²ËĪe":8032,"ĠÉªÉ¡rÊĮkËĪof":8033,"ĠxÊĮrÊĮktÊ²irÊ²i":8034,"vitÉķ":8035,"ĠpÊĮjavÉŃÊ²ËĪenÊ²ijÉª":8036,"36":8037,"vËĪÉĳjutsÊĮ":8038,"tÊ²tÊ²ËĪÉª":8039,"ÊĳËĪÉª":8040,"ĠËĮÉĽsËĮÉĽsËĮÉĽsËĪÉĽr":8041,"ĠkÊĮrÉª":8042,"tnÊĮstÊ²":8043,"bÊ²iËĪo":8044,"ĠvÊ²irtu":8045,"ĠaktÊ²ËĪi":8046,"tal":8047,"ĠkËĮÉĶn":8048,"ĠpÊ²ËĪitÊ²":8049,"É¡ranÊ²ËĪi":8050,"dnÊĮsÊ²tÊ²Éª":8051,"ĠpÊĮtËĪo":8052,"stËĪÉĳna":8053,"ĠmaÊĥËĪynu":8054,"stvÊ²innÊĮjÉª":8055,"ĠjËĪevrÊĮ":8056,"ĠpÊĮdrÊĮÊĳdÊ²i":8057,"ĠpÊ²ËĪesÊ²nÊ²Éª":8058,"ĠsnÊĮ":8059,"pÊĮk":8060,"ĠsËĪobrÊĮ":8061,"ĠsÊĮvÊ²irÊĥËĪÉĳ":8062,"ĠavËĪÉĳ":8063,"ĠÊĴËĪu":8064,"ĠprÊ²idÉŃaÉ¡ËĪÉĳjim":8065,"ĠdÊ²ËĪejstvujit":8066,"bli":8067,"ĠÉªzÊĮbraÊĴËĪÉĽnÊ²ija":8068,"skËĪorÊ²i":8069,"ĠËĪoba":8070,"ĠtÊ²ÊĮ":8071,"ĠÉŃÊ²ËĪetÊĮm":8072,"ĠstrÊ²ËĪi":8073,"ĠpÊĮbËĪo":8074,"ĠÉªskËĪÉĳtÊ²":8075,"mail":8076,"ËĪitÉ¨":8077,"ÊĳËĪer":8078,"ftsa":8079,"ĠrÊ²imËĪonta":8080,"rÊĮvÊĮtÊ²sÊ²ÊĮ":8081,"ĠdÊĮbÊ²ËĪitÊ²sÊ²ÊĮ":8082,"ĠpÊĮdËĪÉĳrÊĮk":8083,"ĠnarkËĪo":8084,"nstru":8085,"ĠÉ¡ruzÊĮ":8086,"ĠbÊĮr":8087,"ĠjazykÊ²ËĪe":8088,"ĠÉªÉķi":8089,"ĠpÊĮrtËĪÉĳ":8090,"ĠdËĪÉĶmu":8091,"ĠrastvËĪor":8092,"ĠsÉŃutÊĥÊ²ËĪi":8093,"sÊ²tÊ²ika":8094,"tÊĥÊ²iskÊĮmu":8095,"vËĪÉĳjim":8096,"ssËĪo":8097,"ĠjurÊ²ËĪi":8098,"nn":8099,"ĠÉªÉ¡rÊ²ËĪe":8100,"ĠpËĪÉĽw":8101,"ĠbutËĪy":8102,"08":8103,"É¡Ê²in":8104,"ÉķijisÊ²ÊĮ":8105,"ter":8106,"ĠÊĮbzËĪor":8107,"ËĪad":8108,"ĠkÉŃÊ²ËĪu":8109,"ĠmaÊĥËĪyna":8110,"ĠfprËĪo":8111,"ĠarÊ²ËĪen":8112,"ĠsÊĮÊĮpÉķËĪenÊ²ija":8113,"ĠÊĴËĪÉĽrt":8114,"ĠpÊĮdËĪobnyjÉª":8115,"kËĪor":8116,"ÉķËĪÉĳÉŃ":8117,"ĠÉªzmÊ²ËĪe":8118,"ĠËĮÉĽmÉ¡ËĪÉĽ":8119,"Ġ36":8120,"ĠsÊ²tÊ²ËĪepÊ²in":8121,"ĠsÊ²iÉ¡nËĪÉĳ":8122,"ĠzÊĮmÊ²inÊ²ËĪitÊ²":8123,"ĠdÊĮvÊ²i":8124,"mÊ²itr":8125,"ĠvwËĪÉĶ":8126,"kÊĮvÊ²i":8127,"ĠpÊĮkazËĪÉĳtÊ²":8128,"ĠmaÊĥÊĥtËĪÉĳ":8129,"ĠvysËĪokÊĮja":8130,"ĠstËĮÉĶ":8131,"trud":8132,"vËĪÉĳÉŃsÊ²ÊĮ":8133,"ĠtsvÊ²itÊĮ":8134,"ktsji":8135,"xkËĪÉĳ":8136,"ÉŃÊ²ËĪina":8137,"ĠprÊ²isÊĮjidÊ²i":8138,"ĠuvÊ²iÉŃÊ²ËĪitÊĥÊ²itÊ²":8139,"ĠaksÊ²issu":8140,"ĠpÉĶl":8141,"ĠnÊ²ikËĪÉĳk":8142,"tstËĪa":8143,"Ġpru":8144,"ĠpÊ²irÊ²istËĪÉĳ":8145,"ĠÉªstËĪorÊ²iju":8146,"tÊĥÊ²ËĪÉĳÉŃ":8147,"ĠsÊĮrÊ²i":8148,"ĠÊĥtÊĥÉĽÉ¡ËĪu":8149,"ĠtÊ²ÉĽ":8150,"44":8151,"ĠpanÊ²ËĪeÉŃÊ²Éª":8152,"ĠpÊĮÊĴy":8153,"ÉŃarËĪu":8154,"ĠprÊĮsÊ²tÊ²itËĪutkÊ²Éª":8155,"ĠnÊ²iisp":8156,"swa":8157,"ĠrÊ²izuÉŃtËĪÉĳtÊĮm":8158,"ĠpÉĶdËĪÉĶb":8159,"ĠÊĮtÊ²ËĪets":8160,"ĠmÊĮdÊ²ËĪeÉŃÊ²ij":8161,"mËĪuju":8162,"ĠmÊ²ËĪebÊ²iÉŃÊ²Éª":8163,"ĠprÊĮdËĪukta":8164,"ĠjÉªÊĴydnÊ²ËĪevnÊĮ":8165,"ĠkakËĪojtËĪo":8166,"ÉŃÊ²ËĪena":8167,"ĠËĪovÊĮ":8168,"tÊĥÊ²itÊ²":8169,"www":8170,"tkËĪa":8171,"ĠrËĪuku":8172,"se":8173,"ĠktËĪÉĶ":8174,"ĠzËĪafÊĥÉĽ":8175,"ĠpÊĮmÊ²iÉķËĪenÊ²ijÉª":8176,"nskÊĮm":8177,"vÊ²ËĪÉĽÅĭk":8178,"rËĪyf":8179,"ÊĴËĪydÊĮ":8180,"jskÊĮvÊĮ":8181,"kÊĮÉŃ":8182,"ĠvÊĮÊĮru":8183,"jk":8184,"ĠjËĪo":8185,"ĠkÊ²inËĪo":8186,"tÊĥnÉ¨":8187,"ĠpÊ²insÊ²iËĪo":8188,"ĠprËĪoÊĥÉŃÊĮm":8189,"ĠpÊĮprËĪobÊĮvÊĮtÊ²":8190,"dÉĽn":8191,"ĠrÊĮzbÊ²irËĪÉĳ":8192,"zdnÊĮ":8193,"ĠdÊ²ipÊĮÊĳËĪi":8194,"jimÊĮjÉª":8195,"ĠÊĮdÊ²dÊ²ËĪeÉŃnyx":8196,"ĠpÉĶtÊĥËĪÉĽ":8197,"mÊĮÉŃ":8198,"ĠÊĴyÉŃjËĪja":8199,"ĠrËĪoÉŃÊ²i":8200,"ĠpÊĮnÊ²ËĪÉĳtnÊĮ":8201,"sÊĮvËĪÉĳtÊ²":8202,"Ðļ":8203,"ĠtrËĪÉĽ":8204,"ĠkÊĮsmÊ²i":8205,"ntsyja":8206,"vËĪodÊ²ÊĮtsÊĮ":8207,"bÊ²irnËĪÉĳ":8208,"ĠdÊĴ":8209,"ĠzÉ¡ËĪÉĶ":8210,"Ġal":8211,"ĠËĪosÊ²in":8212,"ĠstrËĪÉĶnÉ¨":8213,"ĠxÊĮtÊ²ËĪeÉŃ":8214,"ĠpËĮÉĶzÉĶ":8215,"sËĪÉĽ":8216,"ĠsÊ²ind":8217,"ĠÉĶkËĪÉĶwÉĶ":8218,"vÉĶÉķtÉķ":8219,"ĠkÉŃÊ²inÊ²ËĪi":8220,"ĠbÊĮÉŃÊ²i":8221,"ÉĶvËĪaÉ²Ê²u":8222,"ĠtÊ²ixnÊĮÉŃËĪoÉ¡Ê²ija":8223,"ĠtkËĪÉĳn":8224,"ÊĥÊĥËĪy":8225,"ÉķËĪenÊ²iju":8226,"tÊ²mÊ²ËĪÉª":8227,"wËĮa":8228,"ĠpËĪÉĶlstsÉĽ":8229,"rËĪyx":8230,"ĠsrÊ²ËĪedy":8231,"lËĪÉĽÉ²Ê²a":8232,"ĠnÊĮÉŃÊĮÉ¡ÊĮ":8233,"ĠvdÊĮ":8234,"ĠÉĽfÊ²ËĪi":8235,"juÉķimu":8236,"nsy":8237,"ĠsËĪorta":8238,"ĠjÉªsÊ²tÊ²ËĪÉĽstvÊ²innÊĮ":8239,"matËĪo":8240,"brÊ²ËĪi":8241,"Ġmaj":8242,"ĠtsËĪÉĽlu":8243,"ĠÊĥtu":8244,"tÊĥËĪÉĽÉ¡ÉĶ":8245,"ĠdÊ²itÊ²mÊ²ËĪÉª":8246,"rËĪÉĳtsyÉª":8247,"ĠvnËĪutrÊ²innÊ²ix":8248,"ĠprÊ²ËĪinÊ²ÊĮtÊĮ":8249,"lar":8250,"rÊ²ËĪeÉª":8251,"rÊ²izËĪÉĳtÊ²":8252,"dËĪÉĳnÊ²iÉª":8253,"tska":8254,"ĠtËĪam":8255,"ĠutÊĥÊ²ËĪeta":8256,"ĠÊĮsÊ²tÊ²i":8257,"ĠpÊĮÉŃaÉ¡ËĪÉĳ":8258,"ĠmËĪozÉ¡a":8259,"ĠpÊĮÊĴyÉŃËĪÉĳ":8260,"tsym":8261,"nÉĽm":8262,"ĠÊĮdÊ²i":8263,"ĠÊĮtsËĪÉĽnkÊ²Éª":8264,"ĠprÊĮtsËĪÉĽssy":8265,"ĠvÊ²irÊĮËĪjatnÊĮstÊ²":8266,"Ġ%":8267,"ĠÉ¡rËĪÉ¨":8268,"stfa":8269,"ĠpËĪoÉŃzÊĮvÊĮtÊ²iÉŃ":8270,"ÉķËĪÉĳjutsÊĮ":8271,"ĠdÊ²inËĪÉĳ":8272,"sÊ²tÊ²ËĪÉĳx":8273,"ĠuxËĪot":8274,"ĠbÊ²isÊ²ËĪe":8275,"ĠnavÊ²ËĪernÊĮjÉª":8276,"ĠÉªnfÊ²ËĪektsyÉª":8277,"ĠupÉŃËĪÉĳ":8278,"ĠazËĪÉĳrt":8279,"ĠrËĪusskÊ²ij":8280,"ĠÊĮsnËĪovy":8281,"nÊ²aÉŃËĪÉĳ":8282,"ËĮÉĽÅĭ":8283,"ĠnÊĮmÊ²i":8284,"ËĪalÉ²Ê²ÉĽ":8285,"ĠfÊ²isÊ²tÊ²i":8286,"ĠnËĪovym":8287,"ĠrazvÊ²ËĪitÊ²iju":8288,"ĠvÊĮji":8289,"ĠnastËĪÉĳ":8290,"ĠfËĪir":8291,"ĠrÊ²ikÉŃËĪÉĳm":8292,"ĠpÊĮÊĳi":8293,"ĠtÊ²ixnÊĮÉŃËĪoÉ¡Ê²ij":8294,"38":8295,"ĠdÊ²iËĪÉĳÉ¡nÊĮ":8296,"ĠvÊĮÊĳnÊ²iknÊĮvÊ²ËĪenÊ²ija":8297,"ĠassÊĮtsy":8298,"zÊĮj":8299,"ÉŃËĪoÊĴyn":8300,"ĠÊĳdÊ²ËĪeÉŃÊĮÉŃ":8301,"OS":8302,"dyxËĪÉĳ":8303,"ĠnasËĪy":8304,"zÉĽnt":8305,"ĠtËĪysÊ²ÊĮtÊĥÊ²Éª":8306,"tÊ²im":8307,"ĠsuÉķËĪestvÊ²i":8308,"rÊ²ik":8309,"âĢ¦âĢ¦":8310,"ĠnÊ²iÊĮÊĴËĪydÊĮ":8311,"ĠjËĮÉĽdnÉĶ":8312,"ĠsmËĪotrÊ²i":8313,"ĠsmÊĮtrÊ²ËĪe":8314,"ĠpÊ²isÊ²mËĪo":8315,"vaÊĥ":8316,"ĠdaÉŃnÊ²ËĪejÊĥym":8317,"ktuf":8318,"ĠÊĳËĪerkÊĮÉŃÊĮ":8319,"ĠÉĽffÊ²iktÊ²ËĪivnÊĮstÊ²":8320,"ĠtÊ²ik":8321,"ĠmÊ²in":8322,"ĠprÊĮd":8323,"ĠpÊĮdxËĪodÊ²ÊĮt":8324,"ÉŃÊ²ËĪÉĳtsyja":8325,"rnymÊ²Éª":8326,"ĠpÊĮrt":8327,"ĠprÊ²idusmËĪÉĳtrÊ²i":8328,"ĠÊĮbÉŃast":8329,"ĠzadËĪÉĳtÊĥÊ²":8330,"ĠdÊ²iÉŃÊĮ":8331,"prÉĶ":8332,"stnÊĮvÊĮ":8333,"ĠÊĮf":8334,"ĠkËĪaÊĴdÉ¨":8335,"ĠkÊĮrÊĮÉŃÊ²ËĪe":8336,"ĠpÊĮdxËĪot":8337,"ĠpÊ²irÊ²ËĪiÊĮda":8338,"ĠprÊ²idstavÊ²ËĪitÊ²iÉŃ":8339,"ĠdÊ²iÉŃËĪÉĳ":8340,"ĠvËĪyvÊĮt":8341,"ĠkËĪÉĳrtÊĮ":8342,"Ġ?":8343,"dÊ²inËĪy":8344,"ĠprÊĮÉ¡rËĪÉĳmmÊ²i":8345,"ĠfprËĪotÊĥÊ²im":8346,"ĠmnËĪoÉ¡ÊĮjÉª":8347,"sËĪi":8348,"ĠpÊĮru":8349,"Ġ-":8350,"É¡rÉĶ":8351,"jËĪi":8352,"ĠÉ¡ÉŃËĪÉĳvnym":8353,"ĠmËĪyÊĥtsy":8354,"ĠnÊ²idÊĮstËĪÉĳtkÊ²Éª":8355,"ĠpËĪÉĳspÊĮrt":8356,"ĠkakËĪovÊĮ":8357,"ĠpÊ²irÊ²itÊĥÊ²ËĪisÉŃÊ²i":8358,"ÉŃÊĮÉ¡Ê²ËĪitÊĥÊ²iskÊĮvÊĮ":8359,"ĠsamÊ²ËĪi":8360,"ĠbÊ²iÉŃarËĪu":8361,"ĠdÊĮpÊĮÉŃnÊ²ËĪitÊ²iÉŃnyx":8362,"ksËĪÉĳ":8363,"tÉķËĪÉĶ":8364,"ĠrÊ²iÉ¡Ê²istrËĪÉĳtsyja":8365,"nÊ²ËĪit":8366,"rÊ²ËĪentsyÉª":8367,"ĠkËĪuxnÊ²Éª":8368,"ĠpÊĮprÊĮ":8369,"nkÊĮx":8370,"bÊ²irÊ²ËĪe":8371,"ĠpËĪomnÊ²itÊ²":8372,"ĠmËĪuÉķi":8373,"ĠsÉŃÊ²ixkËĪÉĳ":8374,"bÊ²itÉķ":8375,"nËĪos":8376,"ĠÉªnvÊ²ËĪe":8377,"ĠÊĮtnÊĮÊĥËĪÉĽnÊ²ijÉª":8378,"ĠvnÊ²id":8379,"ĠarxitÊ²i":8380,"ĠÉŃÊ²ËĪitÊĥÊ²nÊĮsÊ²tÊ²Éª":8381,"ĠkrÊ²itÊ²ËĪe":8382,"ĠsÊ²nÊ²iÊĴËĪÉĽnÊ²ijÉª":8383,"ĠzËĪony":8384,"ĠtsvÊ²itËĪy":8385,"ĠruÉŃÊ²ËĪe":8386,"ĠmÊ²ik":8387,"Ġ1000":8388,"tÊĥnÉĽj":8389,"ĠËĮintÉĽrnÉĽt":8390,"ĠkrËĪuÉ¡":8391,"ÊĴyk":8392,"zvÊ²ÉĶ":8393,"ĠÊĮdÊ²dÊ²ËĪeÉŃnÊĮ":8394,"ĠkÊĮÉŃÉŃÊ²iktÊ²ËĪi":8395,"ĠmÊĮrËĪo":8396,"ĠÊĮtÊ²nÊ²i":8397,"ĠmÊ²irÊĮprÊ²iËĪjatÊ²ij":8398,"ĠsÊĮprÊĮtÊ²i":8399,"ĠvÉŃadÊ²ËĪimÊ²i":8400,"zvu":8401,"Ġsw":8402,"hi":8403,"ĠÊĮstanËĪo":8404,"nnÊĮsÊ²tÊ²ij":8405,"ĠÉªnvÊ²isÊ²tÊ²i":8406,"Ðŀ":8407,"mËĪujÉĽ":8408,"ĠËĮidÉĽ":8409,"ĠkËĪoÊĴy":8410,"nÊ²iÉŃ":8411,"ÉŃËĪovÊĮ":8412,"ĠrËĮÉĶspÉĶ":8413,"rËĪofku":8414,"ĠdÊ²ikÊĮratÊ²ËĪiv":8415,"xËĪodÊĮf":8416,"ĠËĪÉªmÊ²Éª":8417,"ele":8418,"É²Ê²ËĪÉĽÉ²Ê²ÉĽ":8419,"ĠspËĪÉĳÉŃ":8420,"É¡ËĪÉĳx":8421,"tÊĥÊ²nÊ²ik":8422,"tÉ²Ê²ÉĽ":8423,"ĠËĪotrÊĮ":8424,"ÊĳiÉŃ":8425,"ĠtrÊ²ivËĪo":8426,"Ðľ":8427,"ĠsÊĮÊĮpÉķËĪenÊ²ijÉª":8428,"tstvujut":8429,"ĠÉ¡ÊĮsÊ²tÊ²ËĪej":8430,"ĠtrÊ²ËĪebÊĮvÊĮnÊ²ij":8431,"ĠdËĪÉĶbÊĴÉĽ":8432,"ld":8433,"ĠpÊ²ËĪiÊĥyt":8434,"ĠnËĪormy":8435,"ĠmËĪysÉŃÊ²Éª":8436,"ĠFa":8437,"jËĪef":8438,"ĠvÊ²ËĪidÊĮm":8439,"ĠÉŃÊĮbÊĮratËĪo":8440,"ÉķËĪenÊ²ijim":8441,"ĠÉªsprËĪÉĳ":8442,"ĠmËĪÉĳtÊ²":8443,"ĠvÊ²ËĪidnÊĮ":8444,"ĠÉªtÊ²tÊ²ËĪÉª":8445,"sÊĮÉŃ":8446,"ÊĴyvÊĮtÊ²":8447,"ĠdruÊĳËĪej":8448,"ĠsÊĮrÊ²ivnÊĮ":8449,"ĠÊĮtkËĪÉĳzy":8450,"ĠÊĳËĪemÉŃÊ²u":8451,"ĠdÉ²ËĪi":8452,"line":8453,"ĠÊĮÉ¡rËĪomnÊĮjÉª":8454,"ĠpÊĮkrËĪytÊ²ija":8455,"ĠprÊ²imÊ²":8456,"ĠprÊ²idÉŃÊĮÊĴËĪÉĽnÊ²ijÉª":8457,"ĠvÊĮÊĳnÊ²ikËĪÉĳjut":8458,"ĠÊĥËĮÉĳtËĪÉĽ":8459,"ĠrabËĪotÊĥÊ²ijÉª":8460,"ĠznakËĪomstf":8461,"ĠspÊĮsËĪobny":8462,"É¡rÊ²a":8463,"ĠÐ¼":8464,"ĠÉŃÊ²itsËĪÉĽnÊĳi":8465,"ËĪiÉ²Ê²ÉĽ":8466,"ĠspÊĥËĪÉĽ":8467,"ĠdÊĮmËĪoj":8468,"ent":8469,"ĠvysËĪokÊ²ij":8470,"vÉŃaÊĴ":8471,"ĠkusËĪo":8472,"ĠmËĪuÊĥ":8473,"lËĮi":8474,"Ġim":8475,"Ð½Ñĭ":8476,"ĠvÊ²itÊĥÊ²ËĪe":8477,"jivËĪo":8478,"ĠmÊ²ËĪÉĳsÊĮ":8479,"ĠpÉĶf":8480,"ĠzakËĪÉĳn":8481,"ĠmuÊĳËĪe":8482,"ĠvÊĮÉŃÊĮsËĪÉĳ":8483,"ĠÉĽmÊĮtsyÊĮnËĪÉĳ":8484,"48":8485,"zÉĽm":8486,"ÊĥyÉŃ":8487,"ĠraÊĥÊĥËĪy":8488,"zdy":8489,"ĠzapËĪu":8490,"ĠÊĮbratÊ²ËĪitÊ²":8491,"zvËĪÉĶ":8492,"ĠnÊ²izavÊ²ËĪisÊ²imÊĮ":8493,"jËĪÉĽÉ¡ÉĶ":8494,"ĠkrupnÊ²ËĪej":8495,"mÊ²intÊ²ËĪi":8496,"ĠsÊ²izËĪon":8497,"mÉĽr":8498,"ĠxudËĪoÊĴy":8499,"ĠprÊĮjËĪektÊĮf":8500,"ĠÉªssÉŃÊ²ËĪedÊĮvÊĮnÊ²ijÉª":8501,"ĠkËĪomnÊĮtÊ²i":8502,"ĠfËĪirmÉ¨":8503,"ĠprËĪÉĳktÊ²ikÊ²i":8504,"ĠpaÉŃËĪÉĳ":8505,"ĠsuÉķËĪestvÊ²innÊĮ":8506,"ĠfspËĪom":8507,"jimym":8508,"ĠbÉŃÊ²iÊĴËĪÉĳjÊĥyjÉª":8509,"ĠprÊĮÉ¡ËĪu":8510,"ĠvËĪyiÉ¡rÊĮ":8511,"ĠsfÊĮrmÊ²i":8512,"ĠkÊ²inÊĮ":8513,"lay":8514,"eb":8515,"ĠÉ¡arËĪÉĳntÊ²i":8516,"so":8517,"ĠpÊĮnÊ²imËĪÉĳtÊ²":8518,"ĠÉŃÊ²ËĪestÊ²":8519,"ĠvËĪozrÊĮst":8520,"ktÊ²ËĪÉĽ":8521,"ĠtÊĥËĪasu":8522,"ntsÉ¨x":8523,"ĠvÊ²ËĪesa":8524,"ĠmËĪÉĳr":8525,"ĠvÊ²ËĪÉĳ":8526,"mÊ²ija":8527,"ĠskÉŃËĪo":8528,"É¡rÊ²aÊĳ":8529,"É²ËĪitst":8530,"mÊ²ËĪentÊ²i":8531,"ĠkÊĮndÊ²idËĪÉĳ":8532,"ĠsÉĽr":8533,"bÊ²ÊĮt":8534,"ĠnÊĮmÊ²ËĪera":8535,"ĠtËĮÉĽlÉĽ":8536,"ĠÉĽtËĪÉĳp":8537,"rÊĳ":8538,"ĠprÊĮtÊ²ivÊĮpÊĮkazËĪÉĳ":8539,"ĠÉĽÉŃÊ²iktrËĪonnÊĮj":8540,"tsÉĽnt":8541,"ĠstÊĮrÊĮnÊ²ËĪe":8542,"ĠkÊĮmÊ²pÊ²insËĪÉĳ":8543,"ĠfstrÊ²ËĪetÊĥÊ²Éª":8544,"ĠrÊ²ibÊ²ËĪenku":8545,"Ð½Ð°":8546,"ĠtÊĥËĪÉ¨li":8547,"ËĪÉĳtsyÉª":8548,"ik":8549,"jskÊ²ij":8550,"ĠxÉŃÊĮ":8551,"drËĪo":8552,"ĠvÊ²iÉŃÊĮsÊ²ipÊ²ËĪe":8553,"Ġ400":8554,"ĠsÊĮxranÊ²ËĪi":8555,"ĠvËĪyji":8556,"duju":8557,"ĠpÊĮtÊĥÊ²ËĪuv":8558,"ĠbÊ²ËĪeÉŃyj":8559,"ĠtÊ²indÊ²ËĪe":8560,"ĠrËĮÉĶzvÊ²ÉĶ":8561,"ĠsmÊ²ËĪÉª":8562,"ĠxÊĮrÊĮktÊ²irÊ²izËĪu":8563,"ĠÊĥkËĪÉĳ":8564,"tËĪÉĳtsyja":8565,"ÊĳiÊ":8566,"ÊĳiÊĮ":8567,"ĠrËĪodÊ²i":8568,"mÊ²ËĪesÊ²ÊĮ":8569,"nÊ²ÊĮÉŃ":8570,"ĠÉªÊĳdÊ²ËĪeÉŃÊ²ij":8571,"ĠsÊĮbËĪytÊ²ij":8572,"ĠÊĮsnÊĮvnËĪym":8573,"ĠÉªnstrËĪuktsyÉª":8574,"ĠskazËĪÉĳÉŃa":8575,"vÊĮnÊ²iÉª":8576,"ĠzÊĮda":8577,"ĠrazmÊ²ËĪerÊĮf":8578,"ĠpÊĮjasÊ²nÊ²ËĪi":8579,"dÊ²ËĪenÊ²iÉª":8580,"ĠÊĮbjjËĪekta":8581,"ĠftÊĮrËĪovÊĮ":8582,"ĠÉªzmÊ²inÊ²ËĪi":8583,"ĠÉ¡ÊĮvÊĮrÊ²ËĪitsÊĮ":8584,"ÉŃÊĮstÊ²":8585,"ĠÉķfÊ²ËĪat":8586,"pÊ²it":8587,"ĠkÊĮrÊ²ËĪi":8588,"ĠbËĪok":8589,"ĠvËĪyrÊĮÊĴy":8590,"sÊ²iÉª":8591,"ĠpÊĮsmËĪotrÊ²i":8592,"ĠÉķast":8593,"ÉŃuju":8594,"Įd":8595,"ĠÊĮtkazËĪÉĳtÊ²sÊ²ÊĮ":8596,"ÊĮd":8597,"tËĮÉĽpËĪÉĽ":8598,"ĠrËĮÉĽÉ¡u":8599,"ĠspÉĶtkËĪa":8600,"ĠËĪot":8601,"ĠtËĪÉĽmu":8602,"ĠpÊĮmÊ²iÉķËĪenÊ²iÉª":8603,"ĠjaËĪi":8604,"dÊ²jju":8605,"ĠzÊĮÉ¡rÊ²aÊĳ":8606,"ĠsxËĪemy":8607,"ĠsÊĮvÊ²irÊĥËĪy":8608,"ĠpÊ²ËĪerÊ²itÊĥÊ²in":8609,"ĠtrËĪuby":8610,"bËĪÉĳÉŃ":8611,"ĠÊĮbÉŃadËĪÉĳjut":8612,"un":8613,"ĠpÊ²irÊ²idËĪÉĳtÊĥÊ²Éª":8614,"kÊĮstÊ²jju":8615,"ĠÊĥkËĪoÉŃÊ²i":8616,"ĠpÊĮvyÊĥËĪÉĽnÊ²ija":8617,"ĠvypÊĮÉŃnÊ²ËĪÉĳ":8618,"ĠuvÉŃaÊĴ":8619,"ryvËĪÉĳtÊ²":8620,"stÊ²jjÉª":8621,"ĠÊĮbratÊ²ËĪitÊ²i":8622,"ĠpÉĶz":8623,"ĠÉ¡ÊĮsudËĪÉĳrstvÊ²innÊĮvÊĮ":8624,"ĠnarÊ²ËĪÉĳ":8625,"ĠsÊĮÊĮtvÊ²ËĪetstvujuÉķijÉª":8626,"ÊĮrÊ²a":8627,"ĠÊĮbÉŃÊ²i":8628,"ËĪarÉ¨":8629,"ĠnÊ²if":8630,"ĠvratÊĥÊ²ËĪÉª":8631,"vÊ²itÊĥÊ²ÊĮ":8632,"rastËĪÉĳ":8633,"sÊ²a":8634,"ĠÊĳimËĪoj":8635,"ĠmÊ²iÊĥ":8636,"ĠsmÊ²ËĪesÊ²Éª":8637,"ĠdÊĮstËĪoj":8638,"ĠsÊĮprÊĮvÊĮÊĴdËĪÉĳ":8639,"ĠrÊĮspÊĮrÊ²a":8640,"ÊĳÉĽ":8641,"tÉķitÉķ":8642,"ĠÊĮbrÊ²i":8643,"É¡rÊĮf":8644,"ÉŃÊĮÉ¡Ê²ËĪitÊĥÊ²iskÊĮj":8645,"ĠvvÊ²ËĪerx":8646,"bÊĮÉŃÊ²ËĪi":8647,"ĠpÊ²irspÊ²iktÊ²ËĪi":8648,"fo":8649,"tÉķÉĶ":8650,"rskÊ²ij":8651,"znÊĮvÊĮ":8652,"ĠnÊĮtÊĥÊ²inËĪÉĳja":8653,"ĠtkËĪÉĳnÊ²ij":8654,"skÊ²ËĪix":8655,"kËĪÉĳu":8656,"ĠfÊĥËĪÉ¨stkim":8657,"ĠpÊĮÉŃutÊĥÊ²ËĪÉĳjut":8658,"ĠprÊĮvÊ²idÊ²ËĪenÊ²ijÉª":8659,"ĠtÊĥÊ²ËĪistÊĮ":8660,"ĠtÊĥÊ²iÉŃÊĮvÊ²ËĪekÊĮm":8661,"ĠÉªpÊĮtÊ²ËĪe":8662,"ĠrËĪÉĳÊĳnÊ²i":8663,"ĠÉ¡rËĪÉĳmÊĮ":8664,"ËĮÉĽmËĪÉĽs":8665,"vnÊĮm":8666,"pkÊ²i":8667,"jÉĽm":8668,"ĠprËĮÉĶva":8669,"ĠkÊĮrÊ²i":8670,"ĠspËĪorta":8671,"ĠnÊ²ina":8672,"dÊ²ik":8673,"ĠpÊĮkrËĪytÊ²ijÉª":8674,"ml":8675,"ĠbËĪÉĳbu":8676,"ĠbÊĮrËĪo":8677,"Åĭkuf":8678,"kÊĮÉŃËĪÉĳ":8679,"ÊĴÉĶn":8680,"ĠmÊĮÉŃÊĮdËĪoj":8681,"ĠÉŃÊ²ËĪetÊ²":8682,"ĠkËĪÉĶÉ²":8683,"ĠbasÊ²sÊ²ËĪe":8684,"ĠpÊĮÉŃÊ²ËĪitÊ²ikÊ²Éª":8685,"ĠakkurËĪÉĳtnÊĮ":8686,"ĠnÊĮrkÊĮ":8687,"vÉŃÊ²innyjÉª":8688,"ĠÊĮprÊ²idÊ²iÉŃÊ²ËĪÉĳjitsÊĮ":8689,"ÊĴËĪÉĳÉŃ":8690,"ĠËĪjajtsa":8691,"ĠtÊĥËĪÉĽba":8692,"fski":8693,"Ġ2000":8694,"ĠvratÊĥÊ²ËĪu":8695,"zva":8696,"ĠpËĪoÉŃnÊĮvÊĮ":8697,"ÉķmÉ¨":8698,"ĠprËĪÉĳzdnÊ²ik":8699,"ĠÊĮprÊ²idÊ²iÉŃÊ²ËĪenÊ²ija":8700,"ĠuprÊĮ":8701,"ĠsjjËĪe":8702,"ktÊĮx":8703,"ĠkrËĪof":8704,"Ġmil":8705,"Ġde":8706,"ĠnÊ²u":8707,"ĠÊĮbraÉķËĪenÊ²ija":8708,"ĠÉ¡Ê²im":8709,"ĠtÊĥÊ²ËĪisÉŃa":8710,"ĠnaÉ¡rËĪuskÊ²Éª":8711,"ĠkËĪoÊĴa":8712,"ĠprÊ²imÊ²inÊ²ËĪÉĳ":8713,"ĠnËĪor":8714,"Éķin":8715,"ËĪawÉĽm":8716,"ĠÊĳimÉŃÊ²ËĪe":8717,"ĠbukvËĪÉĳ":8718,"rnuju":8719,"kËĪÉĳÉŃ":8720,"ĠxirurÉ¡Ê²ËĪi":8721,"spËĪÉĽ":8722,"ĠjÉªvrËĪopy":8723,"ĠamÊ²ËĪerÊ²i":8724,"ĠrÊĮsÊ²sÊ²ËĪijskÊĮvÊĮ":8725,"ĠzÊĮru":8726,"ĠkÉĶbjËĪÉĽ":8727,"ĠdÊ²ËĪu":8728,"ĠÉªnstrumÊ²ËĪent":8729,"vÊ²itÊ²i":8730,"ĠfxËĪodÊ²ÊĮt":8731,"ĠÉ¡ranÊ²ËĪitsy":8732,"stÊĮmÊ²Éª":8733,"ÊĳËĪit":8734,"ĠprÊĮvËĪodÊ²ÊĮt":8735,"ĠvnÊ²imËĪÉĳtÊ²iÉŃnÊĮ":8736,"ĠstËĪÉĳvÊĮk":8737,"ĠËĮap":8738,"vÉŃÊ²ÊĮ":8739,"ĠvrÊ²imÊ²inËĪÉĳ":8740,"ÉŃÊ²ËĪÉĳjutsÊĮ":8741,"ÊĳirËĪovÊĮ":8742,"ĠvÊ²ËĪetÊĥÊ²irÊĮm":8743,"ĠpËĪÉĳrtÊ²iÉª":8744,"ĠkÊĮmÊ²ËĪisÊ²sÊ²iÉª":8745,"jd":8746,"ĠxËĪÉĽ":8747,"ĠuvÊ²iÉŃÊ²itÊĥÊ²ËĪenÊ²ijÉª":8748,"ĠspÊĮrts":8749,"ĠËĮÉĶtpÉĶvÊ²ËĪÉĽd":8750,"ĠtrÊ²ËĪebujut":8751,"ĠËĪÉªz":8752,"stupÉŃÊ²ËĪenÊ²ijÉª":8753,"ĠsÊĮvÊ²ËĪetu":8754,"32":8755,"ĠrÊ²iÊ":8756,"ĠrÊ²iÊĮ":8757,"34":8758,"ĠzËĪÉĳpÊ²isÊ²":8759,"ĠrÊ²ËĪejtÊ²ink":8760,"ĠprÊ²idÉŃaÉ¡ËĪÉĳjut":8761,"ĠkÊĮmÊ²bÊ²inËĪÉĳ":8762,"pÊĮx":8763,"pÊ²ËĪervyx":8764,"ĠandrÊ²ËĪej":8765,"ĠÉªmmunÊ²i":8766,"37":8767,"ĠÊĮdÊ²dÊ²ËĪeÉŃa":8768,"sÊ²tÊ²ËĪu":8769,"É¡wÉĶ":8770,"ĠxÊĮtÊ²ËĪeÉŃÊĮsÊ²":8771,"ĠpÉĶÉ²Ê²ËĪÉĽ":8772,"ĠstÊĮnÊĮ":8773,"ĠrÊ²ikÊĮmÊ²indËĪujim":8774,"ĠtrÊ²ix":8775,"vÊĮjuÉķij":8776,"ĠnËĪynÊ²iÊĥ":8777,"ËĪÉĶrÉ¨":8778,"ĠpÊĮstarËĪÉĳ":8779,"ĠkrasÊ²ËĪivyjÉª":8780,"stvujtÊ²i":8781,"ĠdruÉ¡ËĪuju":8782,"bËĮÉ¨":8783,"ĠÊĴËĪytÊ²iÉŃÊ²Éª":8784,"É¡rÊĮm":8785,"ĠÉ¡ËĪÉĳza":8786,"ĠÉĶsËĪÉĶbÉ¨":8787,"ĠuskÊĮ":8788,"ĠkrÊ²ËĪiÊĳi":8789,"ĠzaxvËĪÉĳ":8790,"ĠkËĪak":8791,"spa":8792,"ÉŃÊ²is":8793,"ndÊ²iÉª":8794,"ĠarÊ²i":8795,"ÊĳËĪÉĶ":8796,"lka":8797,"ÐµÑĢ":8798,"dnÊ²ijÉª":8799,"vÊ²idÉŃÊ²ËĪi":8800,"ĠuÉķËĪer":8801,"ĠsrÊ²ËĪednÊ²ivÊĮ":8802,"tsËĪÉ¨jnÉĽ":8803,"ĠmÊ²ËĪinu":8804,"ĠvÊĮspaÉŃÊ²ËĪi":8805,"rÊ²ivËĪÉĳ":8806,"ĠpÊĮmÊ²iÉķËĪenÊ²ij":8807,"zdËĪÉĳ":8808,"ntrÊĮ":8809,"tkÉĶ":8810,"vÊĮÉŃÊ²isÊ²":8811,"ĠzËĮÉĶ":8812,"ĠÉ¡rËĪudÊ²Éª":8813,"ĠpÊĮkazËĪÉĳtÊ²iÉŃÊ²Éª":8814,"ĠÉŃÊ²ËĪektÊĥÊ²i":8815,"ĠsvÊ²ËĪÉĳzÊĮnnyjÉª":8816,"ÊĥËĪÉ¨kwad":8817,"jjivÊĮ":8818,"ĠustrËĪojstf":8819,"ÊĴËĪÉĽli":8820,"ĠÉªnvÊ²ËĪestÊĮ":8821,"ĠvËĪÉĳnnÊĮj":8822,"ĠmÉĶÊĴËĪÉĽ":8823,"ĠÉķitËĪÉĳtÊ²":8824,"ĠpÊĮmÊ²ËĪe":8825,"ĠubÊ²idÊ²ËĪi":8826,"ĠvnÊ²ËĪis":8827,"ĠuvÊ²idÊĮm":8828,"ĠÉªssÉŃÊ²ËĪedÊĮvÊĮnÊ²ij":8829,"ĠkÊĮrrÊ²ËĪe":8830,"ĠkÉŃÊĮ":8831,"tar":8832,"ĠÊĮsnÊĮvnËĪÉĳja":8833,"Ġtua":8834,"ĠsmËĪysÉŃ":8835,"up":8836,"ĠuspÊĮ":8837,"ĠkrÊĮvËĪÉĳ":8838,"ĠkÊĮmpÉŃÊ²ik":8839,"ktËĪora":8840,"ĠsÊ²tÊ²imuÉŃÊ²ËĪi":8841,"________":8842,"ĠÉªzmÊ²inÊ²ËĪenÊ²ijÉª":8843,"ĠpÊĮÊĳËĪitsyÉª":8844,"ĠnastËĪoj":8845,"ĠprÊ²imÊ²inÊ²ËĪÉĳjut":8846,"vÊĮdÊ²ËĪitÊ²":8847,"ntÉĶ":8848,"ramÊ²ËĪi":8849,"bnÊĮj":8850,"ÊĳËĪets":8851,"vjju":8852,"ĠbrÊ²u":8853,"ĠtÊĥÊ²asËĪy":8854,"ËĪitsÊĮ":8855,"ĠÉªzvÊ²i":8856,"ĠAndroid":8857,"ĠvwËĪaÉķÉ²Ê²ÉĽ":8858,"ĠfasËĪÉĳ":8859,"spÊ²ËĪÉĽ":8860,"ĠudÊĮstÊĮvÊ²i":8861,"pÊĮr":8862,"ĠzdÊĮrËĪovÊĮ":8863,"ĠadvÊĮkËĪÉĳ":8864,"ĠpÊ²atÊ²ËĪÉª":8865,"ĠsÊĮzdavËĪÉĳtÊ²":8866,"ĠpÊĮÊ":8867,"ĠpÊĮÊĮ":8868,"sÊ²im":8869,"bnyj":8870,"ĠzavÊ²ËĪi":8871,"ĠËĮÉĶfÉĽ":8872,"ÉķËĪa":8873,"ĠÉ¡rËĪuppÊ²i":8874,"ĠmËĮatÉĽr":8875,"ĠÉĽkÊĮnËĪomÊ²ikÊ²Éª":8876,"ĠkËĪaÊĴd":8877,"ĠrukÊĮvÊĮdÊ²ËĪitÊ²iÉŃ":8878,"ĠprÊ²idprÊ²iËĪjatÊ²ij":8879,"ĠktËĪurÉĽj":8880,"ĠsÊĮts":8881,"ĠsyÉ¡rËĪÉĳ":8882,"ĠspÊĮsËĪobÊ²in":8883,"ĠprËĪotÊĥÊ²ijÉª":8884,"ĠartÊ²ËĪi":8885,"ĠznËĪÉĳtÊĥÊ²i":8886,"ĠÉªdÊ²ËĪeja":8887,"ĠfËĮÉĶ":8888,"ĠmarkÊ²ËĪe":8889,"ĠstÊĮÉŃÊ²ËĪitsy":8890,"ĠÉ¡w":8891,"ksÊĮm":8892,"ĮbrÊĮzÊĮ":8893,"ÊĮbrÊĮzÊĮ":8894,"vËĪyÊĥy":8895,"Ġada":8896,"ĠutrËĪÉĳ":8897,"sÊ²tÊ²a":8898,"rf":8899,"ĠvËĪystu":8900,"rÊ²iÊ":8901,"rÊ²iÊĮ":8902,"Ġ32":8903,"Ġ00":8904,"ĠprÊ²idÊ²ËĪerÊĴy":8905,"ĠmarÊĥrËĪu":8906,"ÉķtÉķËĪi":8907,"ÊĴnÊĮm":8908,"ĠËĮÉĶtpÉĶv":8909,"ĠÊĴyÉŃÊ²i":8910,"ĠprÊĮxÊĮdÊ²ËĪi":8911,"tËĪon":8912,"ĠskËĪorÊĮsÊ²tÊ²Éª":8913,"tÊ²iÉŃstvÊ²i":8914,"ĠdÊĮmËĪÉĳÊĥnÊ²ijÉª":8915,"ĠËĪÉĶf":8916,"ĠvËĪynu":8917,"nnÊ²ix":8918,"tstva":8919,"bËĪuju":8920,"ĠÉ¡rÊ²ip":8921,"ĠrËĪoÉŃÊ²Éª":8922,"ĠÊĮsna":8923,"nkÊĮmÊ²Éª":8924,"fik":8925,"ĠmÊĮÉŃÊĮdËĪyx":8926,"ĠrÊ²iÊĥËĪÉĽnÊ²ij":8927,"krËĪu":8928,"ĠÉªmÊ²":8929,"ĠtrËĮa":8930,"ĠÉ¡ÊĮrmËĪo":8931,"ĠvwËĪas":8932,"tÉķu":8933,"ĠApp":8934,"ĠsvËĪÉĳdÊ²":8935,"ĠknÊ²ËĪiÉ¡u":8936,"rÊ²ËĪetÊ²":8937,"ÊĴyÉŃÊ²Éª":8938,"ĠtÊ²ÊĮÊĴy":8939,"pÉ¨":8940,"jËĪenÊ²ija":8941,"vËĪanÉĽ":8942,"Ġlu":8943,"ĠkÊ²ËĪijif":8944,"ĠÉªmËĪuÉķistvÊĮ":8945,"ĠËĪoÉŃ":8946,"ĠkÊĮÉŃÊ²in":8947,"ÑĤÐ¸":8948,"bÊ²ËĪiÉŃ":8949,"trÉª":8950,"ĠprÊĮji":8951,"Ġpy":8952,"dnuju":8953,"ĠzakËĪÉĳza":8954,"É¡nÊĮvÊ²ËĪe":8955,"ĠpÊĮtÊ²irÊ²ËĪÉĳ":8956,"ĠfstrËĪoji":8957,"ĠxvatËĪÉĳjit":8958,"ĠÊĴËĪÉ¨tÉķa":8959,"stupËĪÉĳjit":8960,"ĠvarÊĥËĪa":8961,"ÐºÐ°":8962,"ĠzvÊ²ÉĶ":8963,"ĠtËĪakix":8964,"ĠÉŃÊ²ikËĪÉĳrstva":8965,"ĠtÊ²ipÉŃËĪo":8966,"ndËĮÉĽ":8967,"ĠpÊĮfsÊ²i":8968,"ĠbuxÉ¡ËĪÉĳÉŃ":8969,"ĠvËĮÉ¨da":8970,"ĠskrÊ²i":8971,"ĠpÉĶjËĪa":8972,"ĠaftÊĮmatÊ²ËĪitÊĥÊ²iskÊ²Éª":8973,"rÊ²ËĪent":8974,"ĠpÊĮzvÊĮnËĪo":8975,"ob":8976,"ĠnÊĮvÊ²ËĪi":8977,"stÊĮfÉķi":8978,"ĠÊĮkÊ²i":8979,"mÊĮtÊĮ":8980,"ĠspÊ²itsyËĪÉĳÉŃnyx":8981,"ĠpÊĮtrËĪÉĳ":8982,"tÊ²iÉŃÊ²ËĪe":8983,"rax":8984,"ĠÉªnÊ²itsyatÊ²ËĪi":8985,"ĠustËĪojtÊĥÊ²i":8986,"ĠvÊ²ËĮÉĽ":8987,"ĠsËĪon":8988,"kadÊ²ËĪe":8989,"ĠdÊ²iÊĮÉ¡nÊĮ":8990,"ÉķËĪen":8991,"ĠzÊĮxÊĮ":8992,"ĠumÊ²inÊĥËĪÉĽ":8993,"ĠanËĪÉĳÉŃÊ²iza":8994,"ĠpÊĮsËĪu":8995,"ĠnÊĮsÊ²ËĪi":8996,"ĠÉ¡Ê²irmËĪÉĳnÊ²iÉª":8997,"ĠÉ¡ubÊ²irnËĪÉĳ":8998,"ĠÊĮÊĥËĪypkÊ²Éª":8999,"ĠprÊ²ËĪintsyp":9000,"ĠarxËĪi":9001,"vÊ²ËĪets":9002,"ĠmarÊ²ËĪi":9003,"ĠnÊĮpÊ²isËĪÉĳtÊ²":9004,"pËĪÉĽv":9005,"ĠnÊ²ibÊĮÉŃÊĥËĪyjÉª":9006,"ĠtÊĥÊ²rÊ²izvy":9007,"ĠpÊ²ÊĮ":9008,"ĠutÊĥÊ²ËĪÉĳstÊ²nÊ²ikÊ²Éª":9009,"ĠDe":9010,"vÉŃÊ²ËĪÉĳjim":9011,"ĠkrÊ²idÊ²ËĪita":9012,"ÉķËĪej":9013,"ĠusÉŃËĪy":9014,"É²Ê²ËĪÉĽjÊĥÉĽ":9015,"tt":9016,"tsÉĶv":9017,"ĠpÉŃatÊ²ËĪe":9018,"ĠËĮÉĽlÉĽkt":9019,"ĠprÊĮdËĪÉĳÊĴy":9020,"ov":9021,"ĠÉªr":9022,"ĠËĮÉĽmvËĮÉĽ":9023,"ĠnaÊĥÉŃÊ²ËĪÉª":9024,"ĠpÊĮdbËĪor":9025,"ĠrÊ²ËĪej":9026,"tÊĥÊ²ÊĮja":9027,"nÊ²inÉ¡rËĪÉĳ":9028,"ĠvËĪyxÊĮt":9029,"ĠkËĮÉĳvËĪÉĽ":9030,"ĠvÊ²ËĪeÉķij":9031,"ĠÊĥËĪa":9032,"ĠuvÊĮÉŃ":9033,"ĠfËĪon":9034,"ĠmnËĪoj":9035,"2017":9036,"ÉķinËĪÉĳ":9037,"ĠzÊĮrabËĪÉĳty":9038,"ĠpËĪÉĳra":9039,"skÊĮx":9040,"pÊ²isÊ²Éª":9041,"ĠzÊĮmÊĮ":9042,"ĠtrÊ²ËĪi":9043,"ĠvÊĮÊĳdÊ²ËĪejstvÊ²ijÉª":9044,"ĠvËĪopÊ²ËĪervyx":9045,"ĠÊĮÉ¡rÊĮnÊ²itÊĥÊ²ËĪenÊ²ija":9046,"ĠfsÊ²ËĪetËĪÉĳkÊ²Éª":9047,"ĠdÉ¨":9048,"ĠsËĪyn":9049,"sny":9050,"ĠprÊ²idÊ²ËĪeÉŃÊĮx":9051,"bËĪardÊĳ":9052,"ĠmÉ¡nÊĮvÊ²ËĪe":9053,"Ġ2009":9054,"ĠÉĶkËĪa":9055,"ĠjÉĽd":9056,"ĠmËĪÉĳssu":9057,"ĠbÊĮkÊĮ":9058,"ĠprÊĮvÊĮdÊ²ËĪi":9059,"ĠpÉĶÉ²Ê²ËĪÉĽvaÊĥ":9060,"ĠdËĮÉĶtÉ¨":9061,"ĠsÉŃÊĮvËĪÉĳmÊ²Éª":9062,"ĠsaxËĪÉĳra":9063,"ĠpÊĮjavÊ²ËĪiÉŃÊ²isÊ²":9064,"ĠzwËĪÉĶ":9065,"ĠÊĮbÉŃadËĪÉĳ":9066,"ĠÊĮbjji":9067,"ĠÉķastÉŃÊ²ËĪi":9068,"ĠnaprËĪa":9069,"ĠËĪÉĳdrÊ²i":9070,"Ġ250":9071,"ÉŃÊĮsÊ²sÊ²i":9072,"tËĪury":9073,"rÊ²inbËĪu":9074,"ĠpÊ²insÊ²iÊĮnÊ²ËĪe":9075,"ÉŃËĪyx":9076,"ĠprÊ²isËĪutstvÊ²i":9077,"Ġdra":9078,"vÊĮju":9079,"strÊĮvÊĮ":9080,"vÊĮx":9081,"tÊĥÉĽÉ²":9082,"ÉŃÊ²ËĪin":9083,"ĠfpÊ²irÊ²ËĪet":9084,"ĠÊĴyÉŃÊ²ËĪezy":9085,"ĠrÉ¨":9086,"ĠmÊĮtÊ²irÊ²i":9087,"skÊĮmÊ²Éª":9088,"kva":9089,"ĠfËĮu":9090,"ÉķinËĪo":9091,"ĠsËĪoÉŃntsy":9092,"ĠdËĪanÉ¨x":9093,"Ġre":9094,"ĠkÊĮnstrËĪuktsyja":9095,"ĠÊĮdÊ²inËĪÉĳkÊĮ":9096,"ĠdvÊĮj":9097,"ĠUS":9098,"ĠrÊĮstvÊĮ":9099,"ĠrÊ²ikÊĮmÊ²indËĪujut":9100,"ĠÊĳdÊ²ËĪeÉŃkÊ²Éª":9101,"ĠÊĴËĪÉĽbÉ¨":9102,"39":9103,"!Â»":9104,"fÊĥuju":9105,"ynnÊĮ":9106,"ĠbÊ²ir":9107,"ĠÉŃÊ²inÊ²ËĪej":9108,"ĠzÊĮÉŃÊ²i":9109,"ĠpËĪÉĳmÊ²ÊĮtÊ²":9110,"ĠkÊ²irpÊ²ËĪi":9111,"ĠdÊĴËĪy":9112,"ÉĶvËĪanÉĶ":9113,"ĠsÊ²imÊ²jËĪja":9114,"mjast":9115,"sÊ²ËĪenÊ²ijÉª":9116,"ÊĴËĪom":9117,"ĠkËĪaktËĪo":9118,"ĠprÊ²iÊĳintËĪÉĳ":9119,"bÊĮm":9120,"tsËĪom":9121,"tkÊĮx":9122,"ĠËĪom":9123,"ĠpÊĮza":9124,"ĠpÊĮpuÉŃÊ²ËĪÉĳrnyx":9125,"ĠÊĮtÉŃÊ²ËĪitÊĥÊ²nyj":9126,"ĠÉªmÊ²ËĪejutsÊĮ":9127,"ĠpÊĮdÉ¡ÊĮtËĪofka":9128,"ĠÉªspËĪÉĳ":9129,"ĠpÊĮdËĪÉĳtÊ²":9130,"ĠspÊĮsËĪobnÊĮstÊ²":9131,"ĠnamÊ²ËĪerÊ²i":9132,"ĠsÊ²tÊ²ik":9133,"ĠkÊĮÉŃÊ²ËĪitÊĥÊ²istvÊĮm":9134,"ĠprÊĮmÊ²i":9135,"Ġaw":9136,"ĠtaÉŃËĪÉĳ":9137,"ĠÊĮtsËĪutstvÊ²iÉª":9138,"ĠbÊ²izÊĮpËĪÉĳsnÊĮstÊ²":9139,"ĠÊĮbrabËĪÉĳty":9140,"É¡Ê²ij":9141,"ĠkrËĪupnyjÉª":9142,"stvÊ²innym":9143,"ĠfÊ²ËĪiÉŃmy":9144,"ĠsÊĮËĪop":9145,"ĠnapËĪoÉŃ":9146,"ĠdËĪÉĳnnÊĮjÉª":9147,"prÊ²ËĪÉª":9148,"nÊ²akËĪÉĳ":9149,"ĠbaÉŃkËĪo":9150,"??":9151,"ĠpËĪÉĳrÊ²in":9152,"ĠvmÊ²iÊĥËĪÉĳ":9153,"ĠsrÊ²idnÊ²i":9154,"ĠappÊ²i":9155,"ĠsfÉĶ":9156,"ĠkÊĮÉŃÊ²ËĪitÊĥÊ²istvÊ²i":9157,"rÊĮvÊĮÉŃÊ²Éª":9158,"ĠpËĪoiska":9159,"ĠfÊ²idÊ²irËĪÉĳÉŃnÊĮvÊĮ":9160,"ĠsËĪok":9161,"lizËĪatsji":9162,"ĠbÊ²ispÉŃËĪÉĳtnyjÉª":9163,"ĠÉŃÊĮÉ¡Ê²ËĪi":9164,"ĠfpwËĪÉ¨":9165,"ĠËĮinvÉĽ":9166,"ĠpËĮu":9167,"ĠprÉĶjËĪÉĽ":9168,"ÉĽn":9169,"vÊ²ij":9170,"ĠprËĪosÊ²":9171,"ĠbaÉŃËĪÉĳ":9172,"stnÊĮja":9173,"ĠpÊĮdËĪÉĳtÊĥÊ²Éª":9174,"ĠfunktsyÊĮnÊ²ËĪi":9175,"ĠrÊ²ËĪÉĳda":9176,"ĠÊĮpÊ²ËĪisÊĮ":9177,"ĠftÊĥÊ²irËĪÉĳ":9178,"nansÊ²ËĪi":9179,"ĠÉŃÊ²itÊĥÊ²ËĪenÊ²iÉª":9180,"ĠÊĥÉŃÊ²ËĪu":9181,"ĠfËĪorm":9182,"bÊĮvÊĮ":9183,"rÊĴÊĮt":9184,"udbu":9185,"ĠËĪinnÉĽ":9186,"rËĮÉĽ":9187,"ĠpÊĮds":9188,"jum":9189,"sÊ²ËĪu":9190,"sÉĽm":9191,"ard":9192,"ĠbËĪÉĳnkÊ²Éª":9193,"ĠvÊ²idÊ²iËĪo":9194,"ĠvnutrÊ²i":9195,"dÊ²a":9196,"ĠmËĪyÊĥts":9197,"ĠÊĥtuka":9198,"ĠspÊ²itsyÊĮÉŃÊ²iÊĳËĪirÊĮvÊĮ":9199,"ÉŃt":9200,"ĠartÊ²i":9201,"ĠvarËĪu":9202,"ruja":9203,"rÊĮva":9204,"ĠpÊ²itÊ²irbËĪu":9205,"ĠvËĪozÉŃÊ²i":9206,"rÊ²ËĪirÊĮvÊĮtÊ²":9207,"ĠpÊĮpy":9208,"ĠrËĪot":9209,"ĠCh":9210,"ĠrÊĮdÊ²iÊĮ":9211,"ĠandrËĪo":9212,"ĠËĪÉªÉķi":9213,"ĠpÊĮkupËĪÉĳtÊ²":9214,"ĠuÊĴËĪÉ¨":9215,"ĠprËĪoÊĥÉŃÊĮvÊĮ":9216,"ĠnajdÊ²ËĪetÊ²i":9217,"ĠÊĮtkrËĪo":9218,"ĠprÊĮtsËĪÉĽssÊĮ":9219,"sf":9220,"ĠnÊ²izakËĪo":9221,"ĠdÊ²ËĪerÊ²ivÊĮ":9222,"lËĪÉĽÉ²Ê²ÉĽ":9223,"ĠzamÊ²ËĪena":9224,"ĠmÊ²ËĪer":9225,"ĠnËĮau":9226,"ĠÉŃÊ²itÊĥÊ²ËĪitÊ²":9227,"dÉĶv":9228,"ĠpÊĮvÊ²ËĪe":9229,"tÉķÉĽm":9230,"dvËĪÉĳ":9231,"ĠÃ§ist":9232,"vrËĪo":9233,"dËĪat":9234,"nËĪuÉŃa":9235,"ĠÊĮpËĪo":9236,"ĠpÊĮstÊĮfÉķi":9237,"ÊĴytÊ²":9238,"ĠpÊĮraÊĳËĪi":9239,"ĠnazvËĪÉĳtÊ²":9240,"ĠubrËĪÉĳtÊ²":9241,"ĠÊĮbÊ²ispÊ²ËĪetÊĥÊ²inÊ²ijÉª":9242,"ĠnÊĮznatÊĥÊ²ËĪenÊ²ija":9243,"ĠÉ¡ÉŃËĪÉĳvy":9244,"xva":9245,"Ð¾Ð¼":9246,"ĠkËĪÉĳrta":9247,"ÉŃËĪÉĳd":9248,"ĠÉŃÊ²ikvÊ²i":9249,"É²iz":9250,"vÊ²ËĪÉĶ":9251,"ĠðŁ":9252,"ĠkakËĪom":9253,"ĠÊĥyrÊĮkËĪo":9254,"ĠprÊ²idjja":9255,"ÊĴdËĪÉĳtÊ²":9256,"ĠvËĪyxÊĮda":9257,"ĠmÊĮntËĪÉĳÊĥ":9258,"vËĪÉĳÉŃÊ²isÊ²":9259,"stvÊ²ij":9260,"ĠÊĴdËĪÉĳtÊ²":9261,"ĠpËĪoÉŃnÊĮjÉª":9262,"ĠÊĮsÊ²ËĪe":9263,"rÊ²ËĪÉĳjitsÊĮ":9264,"tÊĮÉŃÊ²i":9265,"Ġ75":9266,"ĠkÉŃÊĮsÊ²sÊ²i":9267,"ĠkuÉŃtËĪur":9268,"ĠpÊ²irÊ²ijtÊ²ËĪÉª":9269,"ĠÊĮkËĪÉĳ":9270,"ÊĴËĪÉĳt":9271,"Ġ2008":9272,"46":9273,"ĠmËĪÉĳssy":9274,"ĠpÊĮpuÉŃÊ²ËĪÉĳrnyjÉª":9275,"tÊ²iÉŃnÊĮstÊ²jju":9276,"pÊ²ÉĽj":9277,"ĠzÊĮvÊ²irÊĥËĪy":9278,"ĠuvaÊĴËĪÉĳ":9279,"ĠfËĪirm":9280,"ĠprÊĮtsËĪÉĽssÊĮf":9281,"nÊ²ijamÊ²Éª":9282,"ĠjËĪaki":9283,"ĠaksÊ²issuËĪÉĳ":9284,"VI":9285,"brÊ²itËĪÉĳ":9286,"zmu":9287,"ÉĻ":9288,"rÊ²itÊ²ËĪe":9289,"ĠËĮÉĽn":9290,"ĠfÊ²ËĪirmy":9291,"ËĪujÉĽ":9292,"ĠÉªÉ¡rËĪÉĳjit":9293,"bËĪardÊĳÉĽj":9294,"asino":9295,"kËĪuda":9296,"ĠpÊĮÉ¡ÊĮvÊĮrÊ²ËĪi":9297,"ĠÐ¿":9298,"ĠprÊ²idstËĪÉĳvÊ²itÊ²":9299,"mÊ²pÊ²ËĪi":9300,"jimÊĮstÊ²":9301,"ĠmËĪamÉ¨":9302,"stupÊ²ËĪitÊ²":9303,"skÊ²ËĪijÉª":9304,"pÊ²Éª":9305,"ĠsÊĮÊĮpÉķËĪiÉŃÊ²Éª":9306,"ĠÊĮkËĪÉĳzyvÊĮjit":9307,"ĠzdËĮÉĽ":9308,"ĠzadËĪoÉŃÊĴy":9309,"ĠprÊĮtsydËĪuru":9310,"ÉŃÊ²atsËĪyÊĮ":9311,"ĠsÊ²ikrÊ²ËĪe":9312,"ĠpÊĮmnÊ²ËĪitÊ²i":9313,"lnÉĶ":9314,"kËĪÉĳjit":9315,"ĠmÊĮÉ¡ÉŃËĮa":9316,"ĠprÊĮizvÊĮdÊ²ËĪitÊ²iÉŃÊ²ÊĮ":9317,"ĠsÊĮÉ¡ÉŃasÊ²ËĪi":9318,"ĠtËĪopÉŃÊ²iva":9319,"ĠpÊĮxudÊ²ËĪenÊ²ija":9320,"ĠnÊĮpravÉŃÊ²ËĪenÊ²iÉª":9321,"ĠprÊĮizvÊĮdÊ²ËĪitÊ²iÉŃÊ²ij":9322,"stsÉ¨":9323,"ĠnËĪoudbu":9324,"ĠkazËĪÉĳÉŃÊĮsÊ²":9325,"ĠswËĪu":9326,"ĠrËĪyby":9327,"ĠrÊ²iËĪÉĳktsyÉª":9328,"ĠdÊĳËĪawa":9329,"lax":9330,"rskÊĮvÊĮ":9331,"ĠÊĮbraÊĳËĪets":9332,"ĠuxËĪoda":9333,"ĠnastËĪÉĽmp":9334,"ĠkrÊ²u":9335,"rujtÊ²i":9336,"ĠpËĪunkt":9337,"ĠÊĳdÊ²ËĪeÉŃÊĮÉŃÊ²Éª":9338,"ĠnÊ²ËĪef":9339,"ĠLi":9340,"ĠnÊ²iisprËĪÉĳ":9341,"ĠÊĮbÊ²ËĪÉĳzÊĮnnÊĮsÊ²tÊ²Éª":9342,"ĠvyrËĪÉĳÉķi":9343,"mpa":9344,"ĠdËĪuÊĴÉĶ":9345,"dËĪaÉ²Ê²ÉĽ":9346,"ĠbËĪÉ¨wÉ¨":9347,"juf":9348,"ĠpÊĮÉŃÊĮÊĴËĪÉĽnÊ²iÉª":9349,"wat":9350,"dÊĴËĪÉĽta":9351,"ĠÊĥËĪÉĽr":9352,"vÊ²ËĪiÉŃÊ²Éª":9353,"ome":9354,"ĠpÉŃatÊ²ËĪitÊ²":9355,"ĠpÊĮvrÊ²iÊĴdÊ²ËĪenÊ²ija":9356,"ĠkÉŃÊ²ijËĪentÊĮm":9357,"ĠÊĮprÊ²idÊ²iÉŃÊ²ËĪenÊ²ijÉª":9358,"ĠprÊ²idstavÊ²ËĪitÊ²iÉŃÊ²ij":9359,"ĠÉªnÉ¡rÊ²idÊ²ijËĪenty":9360,"ĠÊĮtvÊ²ËĪety":9361,"ĠkrËĪÉĶ":9362,"vÊĮt":9363,"Ġis":9364,"ĠnÊĮvÊ²ir":9365,"Ð»Ð¸":9366,"ĠmËĪoÉŃ":9367,"ĠiPhone":9368,"ÊĴdËĪÉĳjit":9369,"ĠHD":9370,"ĠtabÉŃÊ²ËĪetkÊ²Éª":9371,"Ġ38":9372,"ĠkÉķËĪÉĶ":9373,"ĠÉªnËĪoj":9374,"ĠustËĪojtÊĥÊ²ivÊĮ":9375,"ÊĳËĪem":9376,"ĠpÊĮdËĪobnyx":9377,"ĠÊĴËĪo":9378,"ĠnajbËĪardÊĳÉĽj":9379,"ĠprËĪav":9380,"ĠdÉŃÊ²inËĪÉĳ":9381,"Ġ)":9382,"ĠkÊĮsÊ²tÊ²ËĪu":9383,"ÉŃÊĮÊĴËĪy":9384,"ĠvzyskËĪÉĳ":9385,"tÊĥÉĽj":9386,"ĠkÊ²ip":9387,"ĠtÊ²ËĪema":9388,"ĠÊĮtÊĮbra":9389,"ĠrÊĮzÊĮbrËĪÉĳtÊ²sÊ²ÊĮ":9390,"ĠsrÊ²ËĪedstvÊĮm":9391,"ntku":9392,"stvËĪo":9393,"ĠnÊ²ËĪekÊĮtÊĮrÊĮjÉª":9394,"wËĪÉĽÉ¡ÉĶ":9395,"ĠznËĪÉĳnÊ²ij":9396,"ÊĴd":9397,"ĠvÊĮsstÊĮnÊĮvÉŃÊ²ËĪenÊ²ija":9398,"ĠpËĪoÉŃzÊĮvÊĮtÊ²iÉŃÊ²ÊĮ":9399,"wËĪÉĶÉķtÉķi":9400,"ĠpsÊ²ixËĪo":9401,"ĠÉŃËĪuk":9402,"ĠpÊ²irvÊ²ËĪi":9403,"ĠprÊ²idÊĮstËĪÉĳvÊ²itÊ²":9404,"ĠtÊ²ËĪemy":9405,"ĠtÊĥÊ²ËĪernyj":9406,"ÊĥËĪÉĽj":9407,"ĠsÊ²ËĪimvÊĮ":9408,"mËĪaÉ¡a":9409,"tÊĥÊ²iny":9410,"ĠdÊ²ËĪeÉŃÊĮjitsÊĮ":9411,"ĠzÊĮrubÊ²ËĪe":9412,"ĠsÊĮÊĮtvÊ²ËĪetstvujit":9413,"ĠzËĪÉĳdnÊ²i":9414,"ĠnËĪÉĳÊĥu":9415,"rÊ²ËĪex":9416,"ĠÊĮbrËĪÉĳtnÊĮ":9417,"ĠÉŃÊ²ËĪist":9418,"ĠpÊĮÉŃutÊĥÊ²ËĪiÉŃÊĮsÊ²":9419,"ĠÉªnstrumÊ²ËĪenty":9420,"ĠbrÊ²itËĪÉĳ":9421,"ĠsÊĮbrËĪÉĳtÊ²":9422,"ĠtÊĮvËĪÉĳrÊ²i":9423,"ĠÉªndÊ²ivÊ²iduËĪÉĳÉŃnÊĮ":9424,"bnÊĮvÊĮ":9425,"ĠfaktÊ²ËĪitÊĥÊ²iskÊ²Éª":9426,"ĠËĪopyta":9427,"ĠutÊĥÊ²ËĪityvÊĮja":9428,"ĠkÉŃÊ²ijËĪenta":9429,"ËĪawÉĶ":9430,"ĠdÊĮrËĪoÉ¡Ê²Éª":9431,"ĠpËĮÉĶli":9432,"ĠËĪuk":9433,"ĠjÉĽÊĴËĪÉĽli":9434,"ĠustËĪa":9435,"bur":9436,"ĠkÉŃÊ²ËĪetkÊ²Éª":9437,"rÊĮn":9438,"ĠpËĪÉĶlski":9439,"xÊĮÊĴdÊ²ËĪenÊ²ijÉª":9440,"lÉĶÉ¡Ê²ËĪi":9441,"zËĪÉĳtsyju":9442,"ĠpËĪÉĶnat":9443,"ĠfÊĮÉŃ":9444,"bËĪÉĳja":9445,"ĠrËĪÉĳdu":9446,"Ġktur":9447,"xrËĪÉĶ":9448,"rËĪÉĽd":9449,"ËĪalnÉ¨":9450,"ĠpÊĮdÊ²dÊ²ËĪerÊĥku":9451,"ĠtÊĥËĪaÉķÉĽ":9452,"rÊ²ijij":9453,"ĠrÊĮzvÊ²ivËĪÉĳjitsÊĮ":9454,"ĠvnËĪutrÉª":9455,"ĠsÉŃa":9456,"ĠtËĪÉĽmat":9457,"ĠdvÊ²ËĪiÉ¡ÊĮtÊ²iÉŃ":9458,"ĠÊĮbusÉŃËĪo":9459,"ĠpÊĮpytËĪÉĳ":9460,"tÊĥËĪÉĽÉ²":9461,"sÊ²tÊ²ËĪera":9462,"taÉŃjËĪja":9463,"ĠpÊĮÉŃÊ²ËĪeznyjÉª":9464,"ĠÃ§istËĪÉĶr":9465,"ĠfËĮa":9466,"Ġust":9467,"ĠbÊĮk":9468,"ĠÊĴËĪÉĳn":9469,"rËĪovÊĮnÊ²ijÉª":9470,"mËĪÉĳn":9471,"nÊ²ÊĮx":9472,"ÉŃjja":9473,"ĠzËĪÉĶstaw":9474,"ĠrastËĪu":9475,"ĠpÊĮÉŃËĪoÊĴy":9476,"ĠjÉªvÉ¡Ê²ËĪe":9477,"ĠrÊĮzÉ¡ÊĮvËĪo":9478,"ĠnastrËĪojkÊ²Éª":9479,"ĠsÊĮntÊ²i":9480,"ĠvÊ²ËĪepsËĪÉĳ":9481,"ÉŃÊ²ËĪetÊĮf":9482,"ĠbukvËĪÉĳÉŃnÊĮ":9483,"Ġsam":9484,"sÊ²ibÊ²ËĪir":9485,"ĠtÊ²ËĪÉĽstÊĮ":9486,"ĠnÊĮpÊĮÉŃ":9487,"tkÊĮm":9488,"Ê²ÉĽm":9489,"ĠÉķËĪÉĽbjÉĽ":9490,"ĠÉ¡ËĪosÊ²tÊ²Éª":9491,"sÊ²sÊ²iju":9492,"ĠËĪopu":9493,"ĠÊĮkËĪÉĳzyvÊĮjitsÊĮ":9494,"ĠfËĪonda":9495,"ÐĿ":9496,"ĠaudÊ²i":9497,"ĠpamjËĪÉĽ":9498,"ĠtrÊĮns":9499,"sËĪÉĳÉŃ":9500,"ĠÉ¡ÊĮÉŃu":9501,"ĠtÊ²iÉŃÊ²ËĪe":9502,"prÊĮjËĪe":9503,"ĠpÊĮkËĪupkÊ²i":9504,"ite":9505,"ĠÊĮznakËĪomÊ²itÊ²sÊ²ÊĮ":9506,"sÉŃÊ²ËĪedstvÊ²ijÉª":9507,"ĠtsËĪÉĽrk":9508,"ĠjÉĽdËĪÉ¨":9509,"ĠpÊĮxËĪoÊĴy":9510,"ĠraÉķËĪet":9511,"ĠprÊĮstrËĪÉĳnstva":9512,"ĠÉ¡ar":9513,"ĠÊĮtsËĪÉĽnka":9514,"stuf":9515,"ĠrasstrËĪoj":9516,"ĠkÉŃÊ²ËĪetÊĮk":9517,"ĠubËĪor":9518,"ÉĶvËĪawa":9519,"ĠdÊ²ËĪevuÊĥku":9520,"ĠÉĽnÊ²i":9521,"ĠtÊ²ËĪexnÊ²ika":9522,"pazËĪo":9523,"dt":9524,"ĠdÊĮxËĪot":9525,"strËĪa":9526,"ĠrÊ²ikÉŃËĪÉĳmy":9527,"ĠpÊĮkazËĪÉĳtÊ²iÉŃ":9528,"ĠpÊĮÉŃÊ²ËĪitsyÉª":9529,"ĠrÊĮsk":9530,"dÊ²ËĪeÉŃÊĮ":9531,"stËĪÉ¨":9532,"Ġvwa":9533,"ĠdÊ²ËĪeÉŃu":9534,"ĠanÊ²i":9535,"tÊĥËĪÉĽÉ²Ê²u":9536,"jËĪÉĶntsa":9537,"ÐĶ":9538,"ĠprÊ²itÊĥÊ²i":9539,"tÊ²ira":9540,"ÊĥÉ¨m":9541,"kËĪujÉĽ":9542,"ire":9543,"ĠkËĪÉĳÊĴduju":9544,"Ġpuzy":9545,"pÊĮÉŃËĪu":9546,"ĠmassËĪÉĳÊĥ":9547,"vÊĮÉŃÊ²ËĪu":9548,"ĠrÊĮzrabËĪottÊĥÊ²i":9549,"tÊ²ËĪivnÊĮm":9550,"ĠkÉĶÊĴËĪÉ¨":9551,"ĠdÊĮstËĪÉĳfkÊ²Éª":9552,"ĠmËĪoÉķnÊĮstÊ²":9553,"ĠkÉŃËĪup":9554,"ĠÉ¡ÊĮzÊĮ":9555,"ĠzËĪubÊĮf":9556,"vÊ²if":9557,"ĠpÊĮsÊĮ":9558,"ĠrËĮÉĽa":9559,"ĠnËĪotÊĥÊ²jju":9560,"kax":9561,"ĠrÊĮsÊ²sÊ²iËĪja":9562,"ÑĨ":9563,"ĠprÊ²idmÊ²ËĪety":9564,"ĠÉ¡ËĮÉĶspÉĶ":9565,"ĠkÊĮntsËĪÉĽp":9566,"ĠzÊĮÉ¡ÊĮ":9567,"ĠdÊ²itËĪÉĳÉŃÊ²ij":9568,"dÉĽm":9569,"65":9570,"ĠprÊ²iÉ¡ÊĮtÊĮ":9571,"tor":9572,"ĠÊĮprÊ²idÊ²iÉŃÊ²ËĪennyjÉª":9573,"ĠbËĪuduÉķijÉª":9574,"Ġfspuw":9575,"sÊ²tÊ²ikÊ²Éª":9576,"pÉĽw":9577,"ĠsËĪutÊ²Éª":9578,"ĠÉ¡ÊĮrÊ²izÊĮ":9579,"ĠakadÊ²ËĪe":9580,"ĠdËĮÉĶskÉĶ":9581,"ĠpÊĮbÊ²idÊ²ËĪi":9582,"zdÊĮrÊĮ":9583,"ĠÉŃÊĮkÊĮ":9584,"ĠutÊĥÊ²ËĪÉĳstkÊ²i":9585,"tÊ²itÊ²i":9586,"ĠvzÉ¡lËĪÉĽ":9587,"ĠbÊ²iskÊĮ":9588,"ĠÉ¡ÊĮrÊ²ËĪÉĳtÊĥÊ²ij":9589,"net":9590,"tÊĥÊ²ËĪit":9591,"ĠmÊĮÊĥËĪÉĽ":9592,"ĠzvÊ²ËĪÉĶ":9593,"vÊ²ËĪitÊ²sÊ²ÊĮ":9594,"ĠrÊ²ËĪeskÊĮ":9595,"ĠÊĮbÊĮzna":9596,"ĠÉ¡rËĪo":9597,"ĠnÊ²ivy":9598,"ÊĥtÊĥ":9599,"ĠakkËĪÉĳu":9600,"Ġco":9601,"ĠpÊĮdvÊ²ir":9602,"^.":9603,"ĠÊĴËĪydkÊĮstÊ²":9604,"ĠÉªnËĪyx":9605,"ĠÉ¡rËĪom":9606,"ĠpÊĮÉ¡a":9607,"snËĪovÊĮ":9608,"ĠrÊĮzvÉŃÊ²i":9609,"xËĪodu":9610,"rÊ²ikÊĮ":9611,"ĠudÊ²ËĪerÊĴy":9612,"ĠzËĪÉĳpÊĮx":9613,"ĠnÊĮka":9614,"ĠuËĪjut":9615,"ĠstËĪÉĳtus":9616,"vÊĮjasÊ²":9617,"ĠprÊĮizvËĪodstvÊ²i":9618,"ĠËĪopÉķÊĮja":9619,"ĠstakËĪÉĳ":9620,"spËĪor":9621,"ĠbÊ²ispÊĮkËĪo":9622,"struktËĪu":9623,"ĠzarËĪu":9624,"nÉĽr":9625,"ĠmÊ²itrËĪo":9626,"mnËĪo":9627,"ĠmÊ²inÊ²ËĪÉĳtÊ²":9628,"ĠapÊ²iÉŃ":9629,"ĠpÊ²irÊ²isÊ²i":9630,"ĠpÊĮsrÊ²ËĪedstvÊĮm":9631,"ĠÉ¡Ê²ip":9632,"ĠspÊ²itsyaÉŃÊ²ËĪist":9633,"ĠnazvËĪÉĳnÊ²ijim":9634,"ĠzÊĮfÊ²i":9635,"ĠsÉŃËĪoÊĴnÊĮsÊ²tÊ²Éª":9636,".||":9637,"ĠvËĪal":9638,"ĠbaktÊ²ËĪÉĽ":9639,"ĠkÊĮmmÊ²intËĪÉĳrÊ²iÉª":9640,"stfÉĶ":9641,"ĠklËĪa":9642,"ĠsÉŃËĪutÊĥÊ²ÊĮÉª":9643,"vrÊ²ËĪemÊ²innÊĮ":9644,"ÊĥkËĪo":9645,"nnÊ²ikÊĮm":9646,"ĠkarmËĪÉĳ":9647,"kÊĮnËĪomÊ²i":9648,"dÊĴËĪÉĽt":9649,"ĠwËĪÉĶ":9650,"ĠdmÊ²ËĪitrÊ²ij":9651,"ĠvysËĪokÊ²im":9652,"mÊĮÉŃÊ²i":9653,"ĠfsÉŃÊ²ËĪedstvÊ²ijÉª":9654,"ĠÊĮpÊĥËĪy":9655,"ĠrÊ²iÉ¡Ê²iËĪonÊ²i":9656,"ĠmËĪusÊĮ":9657,"tÊ²iÉŃÊ²i":9658,"ĠmËĪÉĳÊĥyn":9659,"trËĪa":9660,"ĠsÊĮbÊ²i":9661,"dËĪoÉŃÉ¡ÊĮ":9662,"ĠnËĪaÊĥÉĽj":9663,"ĠÉªzÉ¡ÊĮtËĪÉĳvÉŃÊ²i":9664,"ĠzÊĮrabËĪotÊĮtÊ²":9665,"nËĪomu":9666,"ĠpÉŃËĪÉĳnÊ²i":9667,"daÉ¡ËĪo":9668,"ĠnËĮÉĶvÉĶ":9669,"ĠpÊĮvÉŃÊ²i":9670,"ĠupËĪÉĳ":9671,"ĠkÉŃËĪÉĳsÊ²sÊ²i":9672,"ĠvËĮÉ¨pÉĶ":9673,"rÊ²ËĪets":9674,"ĠjÉªdËĪy":9675,"ÉŃs":9676,"ĠmÊĮÉŃÊĮkËĪo":9677,"swËĪu":9678,"dwu":9679,"ĠtÊĥÊ²ËĪuvstva":9680,"ĠprÊ²amËĪoj":9681,"tÊĥËĪÉĽs":9682,"ĠtsËĪÉĽrkvÊ²Éª":9683,"ĠÊĥyrËĪokÊ²ij":9684,"ĠprÊĮdËĪÉĳÊĥ":9685,"ktÉĶr":9686,"ĠËĮinfÉĶrmËĪatsjÉĽ":9687,"ĠfÊ²inansÊ²ËĪi":9688,"vËĪÉĳj":9689,"ĠspÊĥÉĽ":9690,"ĠdËĪostupa":9691,"ÊĴËĪÉĳja":9692,"ĠftÊĮrËĪÉĳja":9693,"mÊ²a":9694,"ĠvËĮu":9695,"zÊĮk":9696,"ĠstrËĪoja":9697,"ĠzdrËĪÉĳv":9698,"ĠprËĮÉĶdu":9699,"lin":9700,"nskÊĮjÉª":9701,"ĠpÊĮdtvÊ²irÊĴdËĪÉĳ":9702,"Ðĵ":9703,"ĠnasËĪyÉķi":9704,"bet":9705,"ĠprÊ²iÊĮdÊĮ":9706,"ĠsÊĮjidÊ²inÊ²ËĪenÊ²ija":9707,"tÊ²nÊ²ËĪi":9708,"ĠaktÊ²ivÊ²ËĪi":9709,"ĠaÉŃÊ²u":9710,"ĠvÊ²isnËĪoj":9711,"ĠpÊĮtpÊ²isËĪÉĳ":9712,"ĠudaÉŃÊ²ËĪenÊ²ija":9713,"rÊ²ijax":9714,"ĠmÊĮnÊ²itËĪo":9715,"ĠÊĮpstanËĪo":9716,"ĠÊĥÊĮkÊĮÉŃËĪÉĳ":9717,"ĠsÊĮvÊ²irÊĥËĪÉĽn":9718,"tsÉĽs":9719,"ĠrÊ²iÊĴy":9720,"ĠwËĪat":9721,"ĠbÊĮÉŃÊĥynstvËĪÉĳ":9722,"ĠËĪodzyf":9723,"ĠanÊĮÉŃÊ²i":9724,"ĠÊĴa":9725,"ĠdÊ²iÊĮÉ¡nÊĮsÊ²tÊ²ËĪi":9726,"ÊĥËĪoÉŃ":9727,"ĠÉĶfËĪÉĽ":9728,"ĠkËĪursa":9729,"ÊĥËĪÉĽÉ²Ê²a":9730,"jËĪenÊ²ijÉª":9731,"ĠuvÉŃÊ²ikËĪÉĳ":9732,"ĠzÊĮnÊ²imËĪÉĳjitsÊĮ":9733,"vnymÊ²Éª":9734,"ËĮÉĽsËĪÉĽm":9735,"ĠtrÊ²ËĪetÊ²ij":9736,"tÊ²itÊ²sÊ²ÊĮ":9737,"ĠtsËĪÉĶÉķ":9738,"ĠvËĪynuÊĴdÊ²i":9739,"ĠdÊ²iÊĮpazËĪo":9740,"mÊ²itrÊ²ËĪi":9741,"ĠÊĮÊĴydËĪÉĳ":9742,"ĠpÊĮstradËĪÉĳ":9743,"ËĪÉ¨tÊĥnÉĽ":9744,"É²Ê²ËĪami":9745,"zdËĪu":9746,"ĠtfÉĶ":9747,"ĠparËĪÉĳmÊ²itry":9748,"ua":9749,"ĠmËĪuvi":9750,"ĠvÊ²iÉŃÊ²ikÊĮÉŃÊ²ËĪep":9751,"ĠkËĪontÊĥÊ²i":9752,"ĠkÊĮrm":9753,"ĠaudÊ²itËĪo":9754,"ĠÉªtaÉŃjËĪja":9755,"vÊ²itËĪÉĳ":9756,"ĠnÊ²isÊĮvÊ²irÊĥ":9757,"zËĪÉĶ":9758,"ĠdÊĮpusÊ²tÊ²ËĪi":9759,"ĠËĪÉĳf":9760,"ĠbÊĮÉŃÊ²ËĪeÊĳnÊ²i":9761,"ĠfËĪunktsyj":9762,"ĠrÊ²iÊĴËĪyma":9763,"znËĪÉĳtÊĥÊ²in":9764,"tÊ²ËĪitÊĥÊ²iskÊĮja":9765,"xËĪovÊĮ":9766,"ĠrÊ²iÊĥËĪÉĳ":9767,"Êĥki":9768,"ĠÊĴyÉŃÊ²ËĪiÉķ":9769,"ktËĪÉĳ":9770,"ĠpÉĶvËĪÉĶ":9771,"tÊĥËĪÉĶnÉĽ":9772,"ËĪÉĽt":9773,"ĠÉŃËĪutÊĥyjÉª":9774,"vaÊĴ":9775,"ĠmÊ²irÊĮvËĪoj":9776,"ĠdÊĮkumÊ²intËĪÉĳ":9777,"ĠtÊ²iÊ":9778,"ĠtÊ²iÊĮ":9779,"Ġprav":9780,"ost":9781,"ĠrËĪas":9782,"Ġab":9783,"ĠpÊ²irÊ²ikÉŃÊ²u":9784,"ĠrukËĪoj":9785,"ĠÊĮdnÊĮmËĪu":9786,"ĠtÊĮksÊ²ËĪi":9787,"Â»:":9788,"ĠpÊĮdbÊ²irËĪÉĳ":9789,"ĠmÊ²ËĮÉĽ":9790,"rÊĴa":9791,"uÉ¡ËĪoÉŃ":9792,"ĠbËĮa":9793,"ĠnÊĮprÊ²amËĪuju":9794,"ĠmËĪÉĳtkÊ²Éª":9795,"ĠstËĪÉĳÉŃkÊ²i":9796,"tsax":9797,"É²stfÉĶ":9798,"ĠÉ²ËĪim":9799,"ĠkËĪodÊ²iksa":9800,"tÊ²iÉŃstvÊĮm":9801,"ĠÊĴu":9802,"ĠtÊĥÊ²istÊĮ":9803,"jka":9804,"ĠsËĪÉĳjtÊĮf":9805,"strËĪojkÊ²Éª":9806,"ĠfÊ²iÉŃÊĮ":9807,"ĠdËĪoktÊĮr":9808,"ER":9809,"xËĪe":9810,"ĠÊĮbraÉķËĪÉĳtÊ²sÊ²ÊĮ":9811,"ĠmÉĶÊĴËĪÉĽmÉ¨":9812,"ĠspÊĮrtsmÊ²ËĪe":9813,"ĠpÊ²irÊ²iÉ¡ÊĮvËĪo":9814,"ĠaspÊ²ËĪe":9815,"sÊ²tÊ²ÊĮm":9816,"xud":9817,"ĠprËĮatsÉĶv":9818,"Ġ55":9819,"ĠpÊ²irÊ²inÊ²i":9820,"vjËĪju":9821,"ĠÉªndu":9822,"ĠbrËĪÉĳuÊĳi":9823,"ĠÉªskËĪusstva":9824,"ĠtÊĥÊ²ÉŃÊ²ËĪenÊĮf":9825,"ĠtÊĥÊ²ËĪuvstvu":9826,"ÉķtÉķa":9827,"ĠÉ¡ÊĮsudËĪÉĳrstvÊĮ":9828,"mÊ²ËĪin":9829,"ĠskËĮÉĶ":9830,"ĠtÊĮrmÊĮ":9831,"jËĪÉĶntsÉĶ":9832,"ĠfskËĪorÊ²i":9833,"ĠvËĮÉ¨ma":9834,"ĠÊĮpsÉŃËĪuÊĴyvÊĮnÊ²ija":9835,"che":9836,"É¡lËĪÉĶnda":9837,"ĠÉ¡ÊĮsudËĪÉĳrstvÊ²innyx":9838,"stanËĪÉĳvÉŃÊ²i":9839,"ĠsÊĮÊĮtnÊĮ":9840,"ĠaÉ¡rÊ²iÉ¡ËĪÉĳ":9841,"krËĪÉĽÉķÉĽ":9842,"Ð»Ð°":9843,"ĠkËĪÉĳrt":9844,"ĠsÊĮdÊ²irÊĴËĪÉĳnÊ²ija":9845,"ĠvËĪyÉ¡ÉŃÊ²ÊĮdÊ²itÊ²":9846,"rus":9847,"ĠII":9848,"ĠpravÊ²ËĪitÊ²iÉŃstvÊĮ":9849,"ct":9850,"ĠkÊĮmmunÊ²ikËĪÉĳ":9851,"ĠmaÉ¡nÊ²ËĪi":9852,"ĠdÊĳËĪÉĽÉ²":9853,"mËĪÉĶÉķtÉķi":9854,"É¡ËĪÉĳjitsÊĮ":9855,"ĠfantËĪÉĳ":9856,"ĠzÊĮÉ¡ÊĮtËĪo":9857,"ĠpËĪoÉŃÊĮsÊ²tÊ²Éª":9858,"ĠkÊĮmpÊĮnÊ²ËĪenty":9859,"ĠnÊ²iËĪÉµ":9860,"ĠdÊĮbËĪÉĳvtÊ²i":9861,"jik":9862,"ĠdrËĪuÉ¡u":9863,"ĠkÊĮnsÊ²ir":9864,"ĠmÊ²ËĪedÉŃÊ²innÊĮ":9865,"ĠzÊĮfÊ²iksÊ²ËĪi":9866,"ËĪÉµtsÊĮ":9867,"mÊ²ËĪetrÊ²i":9868,"ĠfËĮina":9869,"dnymÊ²Éª":9870,"ËĪalnÉ¨x":9871,"ĠÊĮrËĪÉĳ":9872,"ĠËĪovÊĮÉķÉª":9873,"ĠÊĮrÉ¡ÊĮnÊ²izËĪovÊĮ":9874,"ĠpÊĮsÉŃÊ²ËĪednÊ²ix":9875,"ĠAd":9876,"ĠÊĮbjjËĪekt":9877,"skËĪÉĳja":9878,"tsËĪÉĽÉ¡ÉĶ":9879,"ÉĽrËĪÉĶ":9880,"ĠÐĲ":9881,"ĠÉªntÊ²i":9882,"ÉŃÊ²ËĪen":9883,"ĠÉªntÊ²ÉĽrfÊ²ËĪe":9884,"tsËĪÉ¨jnÉ¨x":9885,"ËĪof":9886,"ĠËĮÉĽndËĮÉĽ":9887,"ĠÉªnspÊ²ËĪe":9888,"ĠrÊĮzu":9889,"ĠsÉŃËĪovnÊĮ":9890,"ĠrÊ²iËĪÉĳÉŃnyjÉª":9891,"ÊĥymÊ²Éª":9892,"ĠÊĮtsËĪÉĽnÊ²i":9893,"ĠtÊĥÊ²ityrÊ²ËĪex":9894,"ĠankÊ²ËĪe":9895,"ĠÊĥtukatËĪur":9896,"ĠmÊ²itÊĥÊ²tËĪÉĳ":9897,"ĠsÊĮstËĪÉĳva":9898,"ĠdËĮÉĶÉķfÊ²at":9899,"ĠzarËĪuvnÉĶ":9900,"ĠÉªznatÊĥÊ²ËĪÉĳÉŃnÊĮ":9901,"ËĮÉĽrËĪÉĽn":9902,"ĠrÊĮdÊ²iËĪÉĳ":9903,"ĠpËĪoÉŃzÊĮvÊĮtÊ²iÉŃÊ²Éª":9904,"ĠsÊ²isÊ²tÊ²ËĪemÊĮj":9905,"ĠËĪÉªÉ¡ÊĮ":9906,"ĠmaÉŃËĪy":9907,"ĠÉĽrÊĮ":9908,"ĠstrËĪovÊĮ":9909,"ĠprÉĶÉ¡rËĪa":9910,"ĠnÊ²iÊĮpxÊĮdÊ²ËĪimyx":9911,"zyvËĪÉĳtÊ²":9912,"ment":9913,"ĠÉĽÉŃÊ²imÊ²ËĪent":9914,"ĠmÊĮÉ¡aÊĳËĪina":9915,"ĠvÊ²irnËĪutÊ²sÊ²ÊĮ":9916,"ËĪum":9917,"ĠprÊ²iÉ¡ÊĮ":9918,"ĠtÊĥÊ²asÊ²tÊ²ËĪej":9919,"ĠrÊ²iÉ¡Ê²istrËĪÉĳtsyju":9920,"ĠvÊ²ËĪedÊĮm":9921,"ĠdÊ²ËĪenÊ²iÊĴnyx":9922,"ĠantÊ²ibÊ²iËĪo":9923,"ĠrËĪuÊĴnÉ¨x":9924,"ĠrÊĮsstÊĮËĪjanÊ²ijÉª":9925,"ĠsuxËĪi":9926,"ĠrÊ²iÊĳ":9927,"ĠpÊĮËĪjavÊ²itsÊĮ":9928,"ÊĴny":9929,"ĠprÊ²idmÊ²ËĪet":9930,"ĠpËĮÉĽËĪÉĽr":9931,"ĠpÊĮstupÊ²ËĪi":9932,"ĠftÊĮrËĪom":9933,"blËĪÉĽ":9934,"ĠmÊ²ËĪiru":9935,"ĠtÊ²irmÊĮ":9936,"ĠtÊĥÊ²ËĪÉµ":9937,"ĠkÊĮnÊ²ËĪets":9938,"tÊ²irpÊ²ËĪe":9939,"ÊĴËĪÉĳtÊ²sÊ²ÊĮ":9940,"ĠprÊĮdÊĮÉŃÊĴËĪytÊ²iÉŃnÊĮstÊ²":9941,"ĠÊĮbrÊ²ËĪe":9942,"ĠvÊĮzmËĪoÊĴnÊĮsÊ²tÊ²ij":9943,"ĠÊĮkÊĮntÊĥÊ²ËĪÉĳnÊ²ija":9944,"31":9945,"tÊ²ËĪita":9946,"Ġuxud":9947,"ĠudÊĮvËĪoÉŃstvÊ²ijÉª":9948,"ĠprÊĮvÊĮsÉŃËĪÉĳ":9949,"ĠpÊĮpÊ²i":9950,"jam":9951,"ĠnÊĮÉ¡rÊ²i":9952,"ĠËĪoddyx":9953,"ĠtrÊ²ËĪebÊĮvÊĮnÊ²ijam":9954,"ĠpÊĮdvÊ²ËĪi":9955,"ĠvykÉŃÊ²u":9956,"ĠsvÊ²idÊ²ËĪetÊ²iÉŃstvÊĮ":9957,"ĠmÊ²ËĪÉĽndÊĳÉ¨":9958,"ĠutÊĥÊ²ËĪÉĳsÊ²tÊ²ija":9959,"ĠÊĥËĪou":9960,"ĠkurÊ²ËĪi":9961,"ĠfËĪÉĳktÊĮry":9962,"ĠËĮÉĽk":9963,"ĠÊĮpÉķËĪenÊ²ija":9964,"rÊĮËĪja":9965,"ĠupÊĮtrÊ²ibÉŃÊ²ËĪÉĳtÊ²":9966,"ĠÉªnfÊ²ik":9967,"vËĪÉ¨":9968,"ĠÉªsÊ²tÊ²i":9969,"ĠmÊĮÉŃÊĮdËĪyjÉª":9970,"ĠsÊ²ikËĪunt":9971,"ĠkËĪuxÊĮ":9972,"ĠËĪÉĳrmÊ²iÉª":9973,"ĠkasËĪÉ¨":9974,"ĠpartÊ²nÊ²ËĪer":9975,"mÊ²isÊ²ÊĮ":9976,"ĠprÊ²itÊ²sÊ²idËĪÉĳtÊ²iÉŃ":9977,"ĠmÊ²ËĪetÊĮdÊĮf":9978,"ĠfamÊ²ËĪi":9979,"ĠpÊ²idaÉ¡ËĪo":9980,"ĠmËĪam":9981,"ĠpÊĮpËĪÉĳstÊ²":9982,"ĠbÊĮrÊĮdËĪÉĳ":9983,"ĠËĪÉĳdrÊ²isu":9984,"Ġ(Â«":9985,"ĠÊĮttsËĪÉĳ":9986,"ĠmËĪÉĶÉ¡":9987,"ĠdÊ²isp":9988,"ĠvysËĪokÊ²ijÉª":9989,"É¡jËĪÉĽ":9990,"ĠÉªzbÊ²irËĪÉĳ":9991,"sÉŃËĪÉĳf":9992,"ĠparËĪÉĳmÊ²i":9993,"rabËĪÉĳ":9994,"jÉĽkt":9995,"ĠbÉŃÊĮÉ¡ÊĮprÊ²iËĪja":9996,"ĠrËĮa":9997,"fËĪuj":9998,"ĠmwËĪÉĶ":9999,"ĠÊĮkazËĪÉĳÉŃsÊ²ÊĮ":10000,"41":10001,"vËĪiÉķtÉķÉĽ":10002,"ĠdÊĮÉŃÊĴnÊĮ":10003,"Ġpi":10004,"ĠÊĮtkËĪuda":10005,"ĠÉ¡ÉĶdÊĳËĪi":10006,"ĠÉ¡rËĪupp":10007,"ĠmÊ²ËĪÉĽtÉķ":10008,"É¡Ê²iËĪo":10009,"ĠprÊ²idpÊĮÉŃaÉ¡ËĪÉĳjit":10010,"ĠsÉŃËĪoja":10011,"ĠnÊĮvÊĮÉ¡ËĪo":10012,"jimÊĮsÊ²tÊ²Éª":10013,"ĠrazmÊ²ËĪerÊĮm":10014,"ĠzËĪÉĳftrÊĮ":10015,"rÊ²ËĪis":10016,"vÊ²isÊ²ËĪi":10017,"ĠÊĮpÉŃËĪÉĳta":10018,"tÉŃÊ²i":10019,"rÊ²idÊĮ":10020,"É¡Ê²ibËĪÉĳ":10021,"ĠbËĪÉĳr":10022,"Ġvza":10023,"rËĪujÉĽ":10024,"ĠmËĪÉĳssa":10025,"spÊ²ÉĽtÊĥËĪÉĽ":10026,"ĠËĪÉĶnÉĽ":10027,"tÊĥna":10028,"mÊĮk":10029,"ĠkËĮÉĶmp":10030,"sÉŃÊ²ËĪi":10031,"ĠËĮutÊĥÉĽ":10032,"ĠnÊĮtÊĥÊ²inËĪÉĳtÊ²":10033,"sÉŃÊ²ËĪenÊ²ija":10034,"ĠÉ¡Ê²ir":10035,"ĠÉĶxrËĪÉĶ":10036,"ĠprÊ²ivÊĮs":10037,"ĠraskrËĪy":10038,"bÊ²irbËĪÉĳ":10039,"ĠzËĪonÊ²i":10040,"ĠzdrÊĮvÊĮ":10041,"tÊ²abrÊ²ËĪe":10042,"ĠdÊ²ifÊ²ËĪe":10043,"ĠsÊ²irÊ²ËĪe":10044,"ĠmËĪuÊĴa":10045,"rtÉĽ":10046,"ĠpÊĮsÊ²tÊ²ËĪe":10047,"dÊĳÉĽtÉķ":10048,"ĠsÊ²iÉŃÊĮ":10049,"ĠprÊ²irËĪody":10050,"ÊĥkÉĶ":10051,"ĠÊĮby":10052,"ĠÊĮtsynÊ²ËĪitÊ²":10053,"ĠnuÊĴdËĪÉĳ":10054,"ĠsÊ²nÊ²ËĪiÊĳitÊ²":10055,"ĠsÊĮvmÊ²ËĪestnÊĮ":10056,"zmÊ²i":10057,"rÊĮËĪi":10058,"ĠfxËĪot":10059,"ĠpÊĮmÊ²idËĪo":10060,"ĠprÊĮÉ¡rÊ²i":10061,"ĠdÊ²izËĪÉĳjna":10062,"ĠÊĮÉķuÉķËĪenÊ²ijÉª":10063,"rat":10064,"ĠsÊĮtsyËĪÉĳÉŃnÊĮ":10065,"ĠprÊ²ËĪinÊ²ÊĮÉŃÊ²Éª":10066,"47":10067,"ĠprÊ²ËĪeÊĴ":10068,"xÊĮÊĳËĪÉĳ":10069,"ĠvrËĪa":10070,"ĠsËĪoÉŃÊ²Éª":10071,"ĠsvÊ²ËĪÉĳzÊĮnnyx":10072,"ĠznËĮa":10073,"ĠÉ¡ÊĮrÊĥ":10074,"turËĪa":10075,"ĠprÊ²itÊĥÊ²ËĪinÊĮm":10076,"ĠpÉŃËĪÉĳty":10077,"ÊĥnÊ²i":10078,"ĠpÊĮtÊĮÉŃËĪoÉ¡Ê²iÉª":10079,"ÊĥtÊĥa":10080,"ĠÊĮdnÊ²ËĪÉª":10081,"ĠÊĮkruÊĴËĪÉĳjuÉķij":10082,"ĠÊĮptÊ²imÊ²i":10083,"tÊ²ËĪivnyj":10084,"ĠprÊĮkuratËĪu":10085,"tÉĽm":10086,"ĠkÊĮmpÊĮnÊ²ËĪentÊĮf":10087,"wki":10088,"ÊĥtÊ²i":10089,"ĠCa":10090,"ĠÉĽffÊ²iktÊ²ËĪivnÊĮsÊ²tÊ²Éª":10091,"ĠvÊĮsprÊ²inÊ²imËĪÉĳ":10092,"Î¿":10093,"mpu":10094,"ĠvÊĮsstÊĮnÊĮvÊ²ËĪitÊ²":10095,"xnÉĶ":10096,"vÉĽr":10097,"ĠfprËĪÉĳvÊ²i":10098,"ĠrÊ²ËĪis":10099,"vÊĮnÊ²iju":10100,"ĠustrËĪÉĳi":10101,"ĠjÉªvrËĪopÊ²i":10102,"ĠrÊ²a":10103,"ĠdÊĮstËĪupny":10104,"ĠdÊ²irÊĴËĪÉĳtÊ²":10105,"ĠaÉŃÊ²iksÊ²ËĪej":10106,"kÊĮmu":10107,"ktÊ²ËĪÉĳ":10108,"drÊ²i":10109,"ĠnÊĮxÊĮdÊ²ËĪitÊ²sÊ²ÊĮ":10110,"ĠpÊĮkÉŃËĪo":10111,"ĠsvÊĮbËĪody":10112,"ĠËĪopÉķistvÊĮ":10113,"ÉŃÊ²iju":10114,"ĠpÊĮmËĪoÉķ":10115,"ĠstranËĪÉĳ":10116,"ĠfÊ²iÊĳiÊĮ":10117,"ĠvrÊ²ËĪÉĳt":10118,"ĠkanËĪÉĳÉŃ":10119,"ntsyj":10120,"ĠznËĪÉĳk":10121,"ĠÊĮrÉ¡anÊ²ËĪi":10122,"tÊĥÊ²ikÊ²Éª":10123,"49":10124,"Ġ&":10125,"lnÉĽj":10126,"ĠprÊ²ixÊĮdÊ²ËĪi":10127,"ĠsÊ²imptËĪomÊĮf":10128,"ĠsÉŃÊ²idÊ²ËĪitÊ²":10129,"dna":10130,"ĠspËĮÉĽtsja":10131,"vËĪÉĳÉŃÊĮ":10132,"krËĪÉ¨":10133,"Ġfska":10134,"ĠtÊĥËĪÉ¨m":10135,"vaw":10136,"rÊ²idÊ²Éª":10137,"ĠÉªntÊ²ÉĽrvjËĪju":10138,"ĠsÊĮÊĮtvÊ²ËĪetstvujuÉķij":10139,"ĠzalËĪÉĽ":10140,"vÊĮÉŃsÊ²ÊĮ":10141,"pÊĮmÊ²Éª":10142,"ĠËĮusta":10143,"ĠdavËĪÉĳtÊ²":10144,"tÊĥËĪu":10145,"ĠsyrÉª":10146,"IN":10147,"ĠrÊ²iaÉ¡Ê²ËĪi":10148,"ĠÉ¡ÉŃËĪu":10149,"ĠprÊĮdËĪoÉŃÊĴy":10150,"ĠtÊ²imÊ²pÊ²iratËĪurÊ²i":10151,"ĠkurËĪo":10152,"ĠprÊ²istËĪup":10153,"ĠrÊ²ikÉŃËĪÉĳma":10154,"ĠsËĪotÊ²":10155,"ĠËĪjakÊĮ":10156,"ĠÉªmÊ²i":10157,"ĠprÊĮdËĪÉĳÊĴa":10158,"fe":10159,"ĠsÊĮvmÊ²isÊ²tÊ²ËĪi":10160,"Ġvypa":10161,"ĠtÊĥÊ²ix":10162,"ĠkËĪÉĳÉŃ":10163,"stÊĮn":10164,"Êĳij":10165,"oy":10166,"ĠmËĪÉĳrkÊ²Éª":10167,"ĠÉªspÊĮÉŃnÊ²ËĪenÊ²ija":10168,"Ġ120":10169,"É¡ËĪÉĳjut":10170,"ÊĳiËĪÉĳ":10171,"ĠpÊĮxËĪoÊĴyjÉª":10172,"ore":10173,"2016":10174,"ĠzÊĮkÊĮnÊĮdËĪÉĳtÊ²iÉŃstva":10175,"tÊ²nÊ²ika":10176,"ĠzrËĪÉĶ":10177,"rÊ²ijif":10178,"ĠsvÊ²ËĪeÊĴy":10179,"ĠpwËĪÉ¨":10180,"ĠstrËĪÉĶÉ²Ê²ÉĽ":10181,"vÊ²ËĪÉĽÉ²Ê²a":10182,"Ġ2007":10183,"ĠutÊĥÊ²ËĪÉĳstkÊ²Éª":10184,"Ġfpr":10185,"ËĪÉĽrÉ¨":10186,"ĠvËĮa":10187,"ĠxÊĮÊĳËĪÉĳjstvÊ²i":10188,"ĠrÉĶdÊĳËĪa":10189,"ĠÊĮprÊ²idÊ²iÉŃÊ²ËĪennyx":10190,"ĠvÊ²in":10191,"ÉŃÊĮÉ¡Ê²ËĪitÊĥÊ²iskÊ²ij":10192,"ĠprÊ²iu":10193,"ĠÉ¡ËĪa":10194,"ĠvËĪyÉŃÊĮ":10195,"tsyjam":10196,"ĠÊĮstaÉŃnËĪyx":10197,"fta":10198,"ĠpÊĮvÊ²idÊ²ËĪenÊ²ija":10199,"42":10200,"ĠprÊĮmÊ²iÊĴËĪu":10201,"ËĪawÉĽ":10202,"ĠbËĪudÊ²tÊ²i":10203,"nÊĮvÊĮj":10204,"ĠkÊ²isÉŃËĪoty":10205,"ĠEx":10206,"ĠpÊĮkÊĮÉŃÊ²ËĪenÊ²ija":10207,"ĠfÊĮrmÊ²irÊĮvËĪÉĳnÊ²ija":10208,"ĠdrÊ²ivÊ²isÊ²ËĪi":10209,"tÊĥÊ²ikÊĮf":10210,"fra":10211,"ÉĽtsËĪÉ¨":10212,"ĠtÊĥÊ²irnÊĮ":10213,"pis":10214,"ĠdËĮÉĶskÉĶnËĪa":10215,"ĠdÊĮmÊĮ":10216,"ĠrÊ²ËĪiska":10217,"ĠÉ¡ÉŃËĪÉĳvnÊĮj":10218,"ĠkrËĪÉĳskÊ²Éª":10219,"kËĮÉĶ":10220,"stËĪÉĳntsyÉª":10221,"ĠspÊ²itsyËĪÉĳÉŃnyj":10222,"ĠaftÊĮmËĪÉĳt":10223,"ĠÉªzÉŃÊ²ËĪi":10224,"ĠÉ¡ËĮÉĽËĮÉĽrËĪÉĽn":10225,"ĠkÊĮtÊ²iÉ¡ËĪorÊ²ija":10226,"ĠdÊ²inËĪÉĳmÊ²i":10227,"ĠÐľ":10228,"É¡ÊĮrËĪod":10229,"ĠÊĮknËĪo":10230,"ÊĮxra":10231,"mpËĪu":10232,"ĠspÊĮkËĪojnÊĮ":10233,"xÉ¨":10234,"ĠÉªnfrÊĮ":10235,"mjÉĽÊĥ":10236,"ĠzapËĪÉĽv":10237,"ĠpÊĮÉŃutÊĥÊ²ËĪiÉŃa":10238,"rÊĮvËĪÉĳtÊ²":10239,"ĠpËĪÉĳry":10240,"ĠtÊĥÊ²ÊĮstÊĮ":10241,"var":10242,"ĠsfËĪÉĶix":10243,"ĠkÊ²iÊĥËĪÉĽtÊĥÊ²nÊ²ika":10244,"ĠpÊ²inÊĮ":10245,"ĠtrËĪÉĳnspÊĮrta":10246,"ĠrÊ²isËĪursÊĮf":10247,"dËĪar":10248,"ĠËĪÉĽf":10249,"ĠÊĴÉ¨":10250,"ĠtamËĪo":10251,"ĠpÊ²ËĪÉĽÅĭk":10252,"ĠÉªzÊĮbraÊĴËĪÉĽnÊ²ijÉª":10253,"stÉ¨tËĪu":10254,"ber":10255,"ĠprÊ²ikËĪÉĳ":10256,"ĠsfËĪÉĶjÉĶ":10257,"ĠsÊ²imÊ²ËĪena":10258,"ÉŃÊĮn":10259,"ftsÉ¨":10260,"ĠÉªzba":10261,"ĠukraËĪina":10262,"ĠmÊĮjivËĪo":10263,"ĠstËĪÉĳnut":10264,"ĠsÉŃÊĮÊĴËĪy":10265,"ĠpÊĮtÊ²":10266,"ĠpÊ²irÊ²ËĪe":10267,"tkÊ²ij":10268,"dÊĮn":10269,"ĠkrasÊ²ËĪivÊĮ":10270,"ĠrËĪÉ¨Åĭku":10271,"ĠmËĪoÉķnÊĮsÊ²tÊ²Éª":10272,"zËĪÉĳp":10273,"ĠnÊĮpa":10274,"ĠuvËĪaÉ¡ÉĽ":10275,"kuÉŃÊ²ËĪÉĳ":10276,"ĠrÊ²itsËĪÉĽpty":10277,"ĠÊĮtkÉŃÊĮ":10278,"ĠkÊĮmprÊ²ËĪe":10279,"Ê²ÉĽr":10280,"ĠsÊ²izËĪona":10281,"ĠrÊ²ibÊ²ËĪÉĳta":10282,"syÉŃËĪÉĳ":10283,"ĠÊĥabÉŃËĪo":10284,"Ġ37":10285,"ĠprÊĮjavÉŃÊ²ËĪenÊ²ija":10286,"iÉŃ":10287,"ĠmÊ²ËĪedÊ²i":10288,"ĠÊĮtpËĪu":10289,"Ġuzna":10290,"ĠÊĥÉŃËĪÉĳ":10291,"ĠzakËĪup":10292,"ĠnaÉŃËĪoÉ¡a":10293,"ĠfpÊ²ËĪi":10294,"ĠpÊ²ËĪisÊ²mÊ²i":10295,"ĠkËĪÉĳÊĴdym":10296,"nËĪujÉĽ":10297,"ĠtsËĪÉĽnu":10298,"ĠxÉŃËĪo":10299,"ĠfÊ²iÊĳËĪitÊĥÊ²iskÊ²ix":10300,"Ġmar":10301,"tÊ²ËĪif":10302,"ĠspËĪosÊĮbÊĮmÊ²Éª":10303,"ĠÊĮtÊĮpÉŃÊ²ËĪenÊ²ija":10304,"tva":10305,"ĠpÊĮÉ¡Ê²ËĪip":10306,"ĠvËĪyjtÊ²Éª":10307,"snab":10308,"ĠrazÉŃÊ²ËĪitÊĥÊ²nymÊ²Éª":10309,"ĠnÊ²isËĪu":10310,"ĠsËĪobstvÊ²innÊĮj":10311,"ide":10312,"ws":10313,"zÊĮtsyÉª":10314,"ĠmÊĮtÊ²irÊ²iËĪÉĳÉŃÊĮm":10315,"ĠnÊĮrmËĪÉĳÉŃnÊĮ":10316,"dËĪÉĳm":10317,"ĠmÊ²ixanÊ²ËĪizm":10318,"ĠÉĽkspÊ²irtÊ²ËĪi":10319,"ĠÉŃËĪoÊĥkÊ²Éª":10320,"ĠsËĪÉĳnk":10321,"ĠrasxËĪodÊĮf":10322,"ĠpÊĮraÉŃÉŃÊ²ËĪe":10323,"vÊĮjitÊ²i":10324,"ĠmasÊ²sÊ²ËĪi":10325,"Ð¾ÑĢ":10326,"ĠxËĮÉĶ":10327,"fÊ²ËĪer":10328,"ĠprÊ²ipÊĮdavËĪÉĳ":10329,"ĠnapÊĥËĪÉ¨kwad":10330,"ÉŃaktÊ²ËĪi":10331,"ĠÉ¡ÊĮrÊ²izÊĮnt":10332,"ĠÐ¢":10333,"ĠzakËĪÉĳzy":10334,"ĠkËĮÉĶmu":10335,"ĠpËĪod":10336,"rËĪojÉª":10337,"jtÊ²ËĪi":10338,"Ġist":10339,"ĠassÊĮrtÊ²imÊ²ËĪent":10340,"pËĪot":10341,"Ð»ÑĮ":10342,"ĠËĮintÉĽ":10343,"ĠÊĮtvÊ²itÊĥÊ²ËĪÉĳjit":10344,"ĠrabËĪotÊĥÊ²ivÊĮ":10345,"ĠstÊĮËĪjat":10346,"ĠprÊ²idstavÉŃÊ²ËĪÉĳjut":10347,"ĠpÊĮjavÊ²ËĪiÉŃsÊ²ÊĮ":10348,"ĠdÉĽ":10349,"skËĪÉĳzy":10350,"ĠmËĪÉĳksÊ²imu":10351,"ĠËĪÉĳk":10352,"ĠstrËĪÉĳx":10353,"ĠpËĮÉĶpu":10354,"ĠnÊĮstrÊĮjËĪenÊ²ijÉª":10355,"sÊ²ËĪitÊ²i":10356,"ÅĭÉ¡a":10357,"ĠsprËĪÉĳvÊ²itÊ²sÊ²ÊĮ":10358,"É¡Ê²ijÉª":10359,"ĠprÊ²itÊ²ËĪenÊĳi":10360,"ĠvysËĪokÊĮvÊĮ":10361,"ĠnÊĮsÊ²ËĪitÊ²":10362,"ĠsÉŃÊ²ËĪedÊĮvÊĮtÊ²iÉŃnÊĮ":10363,"ĠdËĪuÊĥÉª":10364,"ĠrÊĮzmnÊĮ":10365,"ĠbËĪonusy":10366,"ĠpÊ²irÊ²ijËĪe":10367,"krÊĮvÊ²ËĪe":10368,"ÊĥËĪÉĽÉ²Ê²ÉĽ":10369,"ĠjËĪÉĽdÉĽn":10370,"tÊĥËĪÉ¨ma":10371,"ĠÊĥka":10372,"ÉķitËĪÉĳtÊ²":10373,"ĠrÉĶzm":10374,"ke":10375,"ĠzvÊ²ÉĽ":10376,"ĠtsËĪu":10377,"ĠskÉŃËĪÉĳdy":10378,"ĠdÊĮbËĪy":10379,"ĠpÊĥËĮÉĽtsta":10380,"ĠnÊ²ikakËĪovÊĮ":10381,"ĠkÊ²ËĪem":10382,"ĠÊĮbjjavÉŃÊ²ËĪenÊ²ija":10383,"ĠxÊĮÉŃÊ²i":10384,"ĠfÊ²ËĪiÉŃma":10385,"ĠÊĮbjjËĪema":10386,"ĠÉŃÊ²itsËĪom":10387,"ĠrasÊ²tÊ²ËĪet":10388,"ĠvrÊ²ËĪet":10389,"ĠbËĮÉĶ":10390,"ÊĥkÊ²ËĪÉª":10391,"ĠÉ¡ÊĮrÊĮdskËĪoj":10392,"book":10393,"ĠxrÊ²isÊ²tÊ²i":10394,"ĠmÊ²idvÊ²ËĪe":10395,"ĠbÊ²izusÉŃËĪo":10396,"ĠdvËĪa":10397,"ĠpakÊ²ËĪet":10398,"ĠzÊĮintÊ²ÉĽrÊ²isËĪovÊĮ":10399,"ĠuÉŃy":10400,"ĠnaprËĪÉĳ":10401,"ĠkËĪomnÊĮtu":10402,"ĠËĮÉĽmvËĮÉĽdËĪÉĽ":10403,"ĠlËĮÉĶ":10404,"ÉŃÊ²inËĪÉĳ":10405,"ĠmÊ²inËĪuty":10406,"nÊ²ijax":10407,"zjÉĽ":10408,"ĠËĪak":10409,"ĠmÊĮnÊ²ik":10410,"ĠprÊĮxËĪodÊ²ÊĮt":10411,"ĠprÊ²imÊ²inÊ²ËĪÉĳjutsÊĮ":10412,"ĠnÊĮpravÉŃÊ²ËĪenÊ²ijÉª":10413,"ĠdnÊ²iv":10414,"ĠprÊĮtÊ²ËĪiv":10415,"ĠzaËĪjafku":10416,"ĠmasÊ²tÊ²ËĪera":10417,"ĠunÊ²ivÊ²irsÊ²itÊ²ËĪeta":10418,"ĠusÉŃËĪo":10419,"ĠÊĮsËĪobÊĮjÉª":10420,"nÊ²ÊĮt":10421,"ĠsÊĮmÊĮu":10422,"ÐµÐ½":10423,"ĠbÊĮÉ¡ÊĮ":10424,"ĠpÊĮu":10425,"ĠsamËĪomu":10426,"ĠzvukÊĮ":10427,"ĠubÊ²ËĪij":10428,"ĠdÊ²istsy":10429,"ĠprÊĮÊĴyvËĪÉĳnÊ²ija":10430,"ci":10431,"ĠsutÊ²":10432,"nÊĮvyjÉª":10433,"ĠzaÉķËĪita":10434,"Ġyou":10435,"ĠmÉŃËĪÉĳd":10436,"ĠutÊĥÊ²ËĪÉµ":10437,"ĠdÊĮrËĪoÉ¡Ê²i":10438,"ĠtrËĪÉĶ":10439,"ĠvyxËĪodÊ²it":10440,"ĠdÊ²ËĪetskÊ²ij":10441,"ĠzdrÊĮvÊĮÊĮxra":10442,"ĠstËĪaÉ²Ê²ÉĽ":10443,"vÉŃÊ²innyx":10444,"ĠvÊ²azËĪÉĳ":10445,"ĠzÊĮkryvËĪÉĳ":10446,"sprÊĮ":10447,"jÉĶntsËĪÉĽÉ¡ÉĶ":10448,"ĠzabËĪu":10449,"ĠzdrËĪÉĳvstvujtÊ²i":10450,"ĠvÊ²idÊ²ËĪet":10451,"ĠvysÊĮtËĪÉĳ":10452,"bjËĪÉĶr":10453,"ĠkustËĪÉĳ":10454,"ĠmÊ²idÊ²ika":10455,"ĠjËĪÉĽdnÉ¨m":10456,"ĠstudÊ²ËĪentÊĮf":10457,"ĠprÊ²idÊĮstavÉŃÊ²ËĪÉĳjit":10458,"ĠmÊ²ËĪinÊ²Éª":10459,"ĠmÊĮntaÊĴËĪÉĳ":10460,"Ð»ÐµÑĤÐ½Ð¸":10461,"ĠÉ¡ÉŃÊ²i":10462,"ĠvypÊĮÉŃnÊ²ËĪenÊ²ijÉª":10463,"ĠsklËĪÉĽ":10464,"ĠÉªzrËĪÉĳ":10465,"ĠÊĮpÊ²irÊĮ":10466,"ĠpÊĮpÊĮÉŃ":10467,"ĠssËĪyÉŃka":10468,"ĠvÊĮspaÉŃÊ²ËĪenÊ²ijÉª":10469,"rÊĳËĪi":10470,"rÊ²ikÊ²Éª":10471,"Ġzam":10472,"ĠËĪosÊ²injju":10473,"ĠÉ¡ÉŃazËĪÉĳmÊ²Éª":10474,"ĠÉķm":10475,"ĠdrËĪo":10476,"ĠsËĪÉĳxÊĮr":10477,"ĠdËĮÉĶtÉ¨tÊĥËĪÉĶ":10478,"ĠbuÉŃ":10479,"ĠÉªdËĪut":10480,"ĠÉªntÊ²ÉĽrÊ²ËĪesnyjÉª":10481,"ĠpÊĮtrÊ²a":10482,"ĠpËĪar":10483,"ĠbrÊ²ËĪen":10484,"ĠkÉŃËĪuba":10485,"ĠsÊĮvrÊ²imÊ²ËĪennÊĮj":10486,"ĠvÊ²it":10487,"tËĪÉĳtsyju":10488,"ĠrabËĪotÊ²nÊ²ika":10489,"strÊ²ËĪebÊĮvÊĮ":10490,"ĠfÊ²ËĪer":10491,"ĠdÊ²ikÉŃa":10492,"ĠsmÊ²ËĪertÊ²":10493,"tÊĮsÊ²tÊ²Éª":10494,"tÊĥÊ²ËĪÉĳÉŃÊ²Éª":10495,"ĠmÊ²ixËĪÉĳ":10496,"ĠÉ¡Ê²iÉ¡Ê²i":10497,"ĠËĪuÉ¡ÊĮÉŃ":10498,"ĠÉªnÊĮstrËĪÉĳnnyx":10499,"ĠvdËĪoÉŃ":10500,"ĠkÊĮmÊ²pÊ²i":10501,"rÉ¡ÊĮn":10502,"ĠsuxËĪoj":10503,"ĠËĮÉĶkrÉĽ":10504,"ĠprÊ²inÊ²imËĪÉĳjit":10505,"ĠtÊĥËĪÉĽÉ²ÉķtÉķ":10506,"bratÉķ":10507,"ĠÉ¡ÊĮdËĪof":10508,"ĠrËĪÉĳznymÊ²Éª":10509,"fsÊ²ËĪe":10510,"Ġ65":10511,"ĠpÊĮbÊ²ËĪedy":10512,"ĠvwËĮa":10513,"ĠÊĮbmÊ²ËĪen":10514,"ĠdÉĶstËĪa":10515,"prËĪotÊ²if":10516,"ĠzËĮapÉĶ":10517,"ĠxËĪuÊĴy":10518,"nad":10519,"ryjÉª":10520,"ĠpÊĮprËĪobujtÊ²i":10521,"tÊ²ËĪina":10522,"spÊĮrtÊ²i":10523,"ĠmÊ²ËĪestnÊĮvÊĮ":10524,"rskÊĮj":10525,"bËĪoÉŃÊ²i":10526,"em":10527,"ĠvznËĪo":10528,"ndÊĳÉĽ":10529,"xËĪody":10530,"ĠpÉĶtÊĥËĪÉĶ":10531,"ĠzÊĮÉ¡ru":10532,"ĠsÊĮËĪjuza":10533,"ĠpÊĮtsyjËĪent":10534,"ĠukÉŃËĪÉĳdy":10535,"ĠnÊĮvÊ²itÊĥÊ²":10536,"ĠÉªnfrÊĮstruktËĪu":10537,"ĠkafÊ²ËĪe":10538,"ĠzaÉ¡ËĪÉĳ":10539,"ÊĥËĪÉª":10540,"ĠpÊĮrËĪoj":10541,"43":10542,"ËĪÉ¨v":10543,"ĠnÊ²idÊĮrÊĮ":10544,"jËĪu":10545,"ĠpubÉŃÊ²ËĪi":10546,"dËĪÉĳmÊ²Éª":10547,"zÊĮvyj":10548,"ĠrËĪozy":10549,"ĠbÊ²inËĪÉĳ":10550,"ĠpÊĮÉŃÊ²ËĪeznÊĮ":10551,"ĠnËĪovÊĮm":10552,"ĠkakÊ²ËĪijÉªtËĪo":10553,"ĠpÉĶstËĪa":10554,"ĠÉªtËĪÉĳ":10555,"ĠËĮinfÉĶrmËĪatsji":10556,"ĠsÉĽkÊĮnËĪomÊ²i":10557,"ĠrËĮu":10558,"ĠsÊ²itÊ²ËĪÉĳ":10559,"ĠprÊĮizvÊĮdÊ²ËĪitÊ²iÉŃ":10560,"smÊ²ËĪe":10561,"icro":10562,"partËĪÉĳ":10563,"html":10564,"ĠnÊĮprÊ²aÊĴËĪÉĽnÊ²ijÉª":10565,"vËĪÉĳÉŃÊ²i":10566,"ĠÉ¡ÊĮvÊĮrÊ²ËĪiÉŃ":10567,"ĠstrËĪa":10568,"Ġsprav":10569,"ĠzËĪoÉŃÊĮ":10570,"zumÊ²i":10571,"ĠÉªnstrumÊ²ËĪentÊĮf":10572,"tÊ²irÊ²i":10573,"ĠsÊĮsËĪudÊĮf":10574,"ĠÊĮtkËĪÉĳs":10575,"kÊ²ËĪÉĽ":10576,"ĠnÊĮvÊĮsÊ²ibÊ²ËĪir":10577,"ĠlËĪidÊĴ":10578,"ĠÉĶÉ¡rËĪÉĶ":10579,"ĠÊĮpsÉŃËĪuÊĴyvÊĮnÊ²ijÉª":10580,"ÊĥËĪok":10581,"ĠbÉŃÊĮÉ¡ÊĮdËĪÉĳ":10582,"pÊĮj":10583,"É²ix":10584,"ĠtÊĥÊ²inËĪo":10585,"stvËĪÉĳ":10586,"mËĪok":10587,"ĠukazËĪÉĳtÊ²":10588,"ssÊĮm":10589,"ĠËĪalbÉĶ":10590,"ĠËĮartÉ¨":10591,"ĠnÊĮvÊĮrËĪo":10592,"ĠsÊĮzdajËĪet":10593,"ĠkÉŃÊ²ijËĪent":10594,"ĠprÊ²idÉŃËĪoÊĴy":10595,"ĠrÊĮspÊĮÉŃËĪoÊĴyn":10596,"ĠdËĮÉĽtËĮÉĽpËĪÉĽ":10597,"ĠnÊĮprÊ²aÊĴËĪÉĽnÊ²ija":10598,"ĠpÉĶtstËĪa":10599,"kÊ²ËĪet":10600,"ĠrËĪusskÊ²ijÉª":10601,"stvÊ²ijim":10602,"ĠnÊĮvÊ²irnÊ²akËĪÉĳ":10603,"mÉĶts":10604,"ĠrÊĮzrÊ²iÊĥËĪÉĽnÊ²ija":10605,"bÊĮr":10606,"ĠbËĪuduÉķivÊĮ":10607,"ĠÐ¡":10608,"ĠmËĮatÉĽrj":10609,"ĠpËĪoÉŃÊ²ÊĮ":10610,"ĠprÊ²ËĪibyÉŃÊ²Éª":10611,"ÉŃÊ²iÉķi":10612,"juÉķimsÊ²ÊĮ":10613,"ĠsvÊ²azËĪÉĳ":10614,"ĠprÊĮvÊ²ËĪerka":10615,"ĠbÊ²ispÉŃËĪÉĳtnyj":10616,"ĠfstrÊ²itÊĥÊ²ËĪÉĳjutsÊĮ":10617,"ĠtrËĪÉĳxÊĮ":10618,"ĠÊĮÉ¡u":10619,"ĠvÊ²iÊĳËĪi":10620,"ĠvnËĪutrÊ²innÊ²ijÉª":10621,"ĠnÉĶ":10622,"ĠÉªzmÊ²iÉŃ":10623,"ĠÉŃÊĮkËĪÉĳ":10624,"rakt":10625,"ĠstÊĮÉŃÊ²ËĪe":10626,"ĠrajËĪon":10627,"2019":10628,"rÊ²iÉŃ":10629,"ĠfËĮuÅĭk":10630,"Ġ01":10631,"ĠuÉŃËĪutÊĥÊ²ÊĥytÊ²":10632,"ĠnÊĮibËĪoÉŃ":10633,"Ġskwa":10634,"ĠÉĶf":10635,"ĠkËĪÉĳmÊ²in":10636,"ĠkÊĮmÊ²pjËĪjutÊ²ÉĽra":10637,"ĠdruÉ¡ËĪÉĳja":10638,"ĠÊĮstaËĪjutsÊĮ":10639,"ÉŃÊ²ÊĮt":10640,"ĠsÊĮÉŃdËĪÉĳ":10641,"ĠprÊĮstÊĮ":10642,"ĠÊĮpÊ²irËĪÉĳtsyj":10643,"sÊ²ÊĮtÊ²":10644,"ĠunÊ²itÊĥÊ²tÊĮ":10645,"ĠkËĮu":10646,"ĠÐĴ":10647,":.":10648,"ĠspÊĮsËĪobnÊĮsÊ²tÊ²Éª":10649,"rujim":10650,"ĠkÉŃÊ²ËĪej":10651,"ĠspÊ²itsyËĪÉĳÉŃnÊĮj":10652,"ĠdÊĮrÊĮÉ¡Ê²ËĪijÉª":10653,"vÊ²is":10654,"ĠandrËĪoit":10655,"ĠprÊ²istupÉŃÊ²ËĪenÊ²ija":10656,"ĠrËĪusskÊĮj":10657,"ĠfËĪÉĶr":10658,"ĠkrasËĪoty":10659,"kÉĶÉ²":10660,"ĠsËĪÉĳjty":10661,"mpy":10662,"tÊ²nÊ²ikÊĮf":10663,"Êĥny":10664,"vrÊ²imÊ²ÊĮ":10665,"ĠtsËĪÉĽÉŃyj":10666,"vid":10667,"ĠkËĪÉĳmÊ²iry":10668,"rÊĮs":10669,"nËĪÉĶÉķi":10670,"ĠÉ¡ÊĮÉŃÊĮsÊĮ":10671,"ĠÉ²Ê²ËĮÉĽza":10672,"ĠÊĮrÉ¡ÊĮnÊ²izÊĮ":10673,"ĠprÊĮtÊĮ":10674,"tÊ²iÉŃny":10675,"É¡lÉĶnd":10676,"ĠunÊ²ivÊ²irs":10677,"tski":10678,"ĠÊĮdÊ²dÊ²ËĪeÉŃnyjÉª":10679,"dÊ²iÉŃ":10680,"ĠprÊĮjdÊ²ËĪet":10681,"É²ski":10682,"nÊ²ËĪety":10683,"ĠprÊ²iÊĮbrÊ²itËĪÉĳ":10684,"fÊ²ikËĪÉĳtsyja":10685,"ĠÊĥËĪÉĽstÊ²":10686,"ĠnÊ²iudËĪÉĳ":10687,"ĠmÉĶÊĴlËĪivÉĶÉķtÉķ":10688,"ĠprÊĮdÊĮÉŃÊĴËĪÉĳjit":10689,"ĠsjjËĪem":10690,"ĠfËĮinans":10691,"jdÊĳÉĽ":10692,"nËĪÉĽntÊĥ":10693,":||":10694,"ĠpÊĮnrËĪÉĳvÊ²iÉŃÊĮsÊ²":10695,"sÊ²ijÉª":10696,"ÉĽt":10697,"ĠÉ¡ÊĮÉŃÊĮvÊ²ËĪe":10698,"ĠtÊĮrÉ¡ËĪovÉŃÊ²Éª":10699,"namÊ²ËĪi":10700,"Ê²ÉĽt":10701,"ĠkrÊ²iptÊĮ":10702,"ĠkÊĮma":10703,"ftÊĮrËĪyx":10704,"ĠtÊ²ÉĽsÊ²tÊ²ËĪi":10705,"ĠËĮutÊĥÉĽst":10706,"ĠkrËĪÉĳjnÊ²ij":10707,"AR":10708,"ĠvÊ²iÉŃÊ²itÊĥÊ²i":10709,"ĠdÊ²ËĪejstvÊĮvÊĮtÊ²":10710,"ĠbÊĮÉŃnËĪyx":10711,"ĠsËĪyna":10712,"ĠvËĪÉĳÊĴnyx":10713,"ĠnaÉ¡rËĪÉĳ":10714,"ĠBa":10715,"Ġbru":10716,"ĠÊĮbËĪoÉª":10717,"ĠvdÊĮxnÊĮ":10718,"ĠfÊĮrmËĪÉĳtÊ²i":10719,"Ġfsk":10720,"ĠspÊ²ËĪekt":10721,"dÊ²ËĪÉĳt":10722,"ĠÉ¡ËĪup":10723,"Ġjaj":10724,"tÊ²ËĪitÊĥÊ²iskÊĮjÉª":10725,"ĠrÊ²izuÉŃtËĪÉĳta":10726,"Ġstsy":10727,"ĠuvÊ²iÉŃÊ²ËĪitÊĥÊ²ivÊĮjitsÊĮ":10728,"ĠËĪÉªp":10729,"ĠkËĪompÉŃÊ²iksa":10730,"ĠÊĴËĪÉĶ":10731,"ĠbÊ²irÊ²i":10732,"bjÉĽrËĪa":10733,"prËĪovÊĮ":10734,"ĠÉ¡ÉŃÊ²ËĪÉĳ":10735,"ĠnËĪaÊĥÉ¨x":10736,"ĠËĪÉªsk":10737,"ĠxranÊ²ËĪitÊ²":10738,"Ð¢":10739,"ĠpÊĮdÊ²dÊ²ËĪerÊĴyvÊĮtÊ²":10740,"ĠdrÊ²ËĪev":10741,"ĠstËĪÉĳntsyÉª":10742,"ĠdÊĮmËĪÉĳÊĥnÊ²ij":10743,"ĠmËĪyÊĥy":10744,"ĠvËĪydÊ²iÉŃÊ²itÊ²":10745,"ĠÉĽnÊ²irÉ¡ÊĮ":10746,"ĠmÊĮÉŃÊĮkËĪÉĳ":10747,"ĠÉĽkspÊ²ËĪerty":10748,"ĠpÊĮdrÊĮzumÊ²i":10749,"ĠvËĪovrÊ²imÊ²ÊĮ":10750,"ĠtÊ²imÊ²pÊ²iratËĪur":10751,"ĠaktÊ²ËĪivnÊĮstÊ²":10752,"ĠtsËĪyk":10753,"ĠËĮuÊĴÉ¨tkÉĶv":10754,"ĠÉŃËĪÉĳÊĳi":10755,"swËĪa":10756,"ĠmÊ²iÊĴ":10757,"ĠpÊĮÉŃÊ²ËĪÉĳ":10758,"ĠÊĮsËĪobÊ²innÊĮsÊ²tÊ²ij":10759,"ya":10760,"ĠËĪjandÊ²iks":10761,"nÊĮÉŃ":10762,"ĠÉ¡ÉŃËĪÉĳvnÊĮvÊĮ":10763,"ĠdËĪotÊĥÊ²":10764,"ĠpÉŃanÊ²ËĪirujitsÊĮ":10765,"rtËĪy":10766,"ĠÉ¡ËĪoÉŃÊĮs":10767,"ĠsÊ²idÊ²ËĪe":10768,"ĠtÊĥÊ²ËĪetkÊĮ":10769,"ĠrÊ²ijËĪe":10770,"stÊĥÉĽ":10771,"ĠvÊĮsÊ²":10772,"ĠprÊĮstËĪyjÉª":10773,"ĠvÊ²irxËĪo":10774,"ĠÊĮtvÊ²ËĪersÊ²tÊ²ija":10775,"ĠYou":10776,"ĠÉ¡Ê²ipÊĮ":10777,"ÊĴnÊ²imu":10778,"spÊ²ËĪi":10779,"ĠsÊĮÉ¡ÉŃaÊĥËĪÉĽnÊ²ija":10780,"ĠkÊĮrnÊ²i":10781,"ĠrÊ²iÉ¡uÉŃÊ²i":10782,"ĠjÉªdÊ²ËĪinstvÊ²innyj":10783,"ĠdËĪobrÊĮ":10784,"ËĪimi":10785,"ga":10786,"ĠÉªtËĪoÉ¡ÊĮm":10787,"ĠbÉŃÊ²ËĪiÊĴy":10788,"ĠdÊ²ipartËĪÉĳ":10789,"tÊĥÊ²ËĪiÉŃ":10790,"ĠpÊĮiskËĪo":10791,"vÊ²ËĪit":10792,"tÊĥÊ²inËĪy":10793,"ĠzaÉķËĪitu":10794,"88":10795,"ĠmÊ²istÊĮ":10796,"ĠnasÉŃÊ²ËĪed":10797,"ee":10798,"ĠtsvÊ²itËĪo":10799,"ĠnÊĮdÊ²i":10800,"ĠjËĪÉĽdnÉĶ":10801,"ĠspÊĥÉĽdËĪa":10802,"ĠpËĮÉĽkËĪÉĳ":10803,"ĠnaÉŃËĪok":10804,"ĠpÊ²isËĪÉĳtÊ²":10805,"ÊĥÊĥËĪÉĽ":10806,"ĠvzrËĪÉĶ":10807,"tÊĥÊ²ËĪet":10808,"ĠvÊĮpÉŃÊĮ":10809,"rËĪovÊĮk":10810,"ĠdÊ²ËĪevÊĮtÊĥÊ²kÊ²Éª":10811,"ĠvÊĮzmÊ²i":10812,"ĠkÊĮmpËĪÉĳnÊ²ijij":10813,"rujuÉķijÉª":10814,"ĠstËĮÉĶs":10815,"ÉŃta":10816,"jjij":10817,"skÊĮr":10818,"spËĮÉĽ":10819,"ĠÊĮtvÊ²ËĪetÊ²itÊ²":10820,"ĠsËĪobstvÊ²innÊĮvÊĮ":10821,"Ġvypusk":10822,"ĠfÊ²iÉŃÊ²i":10823,"vËĮi":10824,"ble":10825,"ĠprÊ²iÊĮbrÊ²itÊ²ËĪe":10826,"ĠrassÉŃÊ²ËĪedÊĮvÊĮ":10827,"ĠsÊ²tÊ²inÊ²ËĪe":10828,"ĠsÊĮdÊ²ËĪe":10829,"vËĪoÊĳ":10830,"ĠsadËĪo":10831,"ĠtÉĽm":10832,"ĠkÊĮmpËĪÉĳnÊ²iju":10833,"ĠrazvÊ²ËĪitÊ²iÉª":10834,"ĠÉ¡ÊĮÉŃÊ²i":10835,"ĠmÊ²itËĪÉĳÉŃÉŃa":10836,"ĠvÊĮstrÊ²ËĪebÊĮvÊĮ":10837,"ĠnÊĮsÊ²ikËĪo":10838,"ÊĴut":10839,"ĠpÊ²irvÊĮnatÊĥÊ²ËĪÉĳ":10840,"ĠkËĪuxnÊ²i":10841,"tÊ²ixnÊ²ËĪi":10842,"ptÊ²i":10843,"vÊ²idÊ²ËĪenÊ²iÉª":10844,"ĠApple":10845,"ĠkËĪorpus":10846,"?Â»":10847,"ĠmËĪÉĳÉŃÊ²inkÊ²ijÉª":10848,"ĠsprËĪav":10849,"ĠdÊ²iskÊĮm":10850,"É¡ÉŃÊ²a":10851,"ĠpÊĮtÊ²ËĪerÊ²ÊĮ":10852,"ĠkturËĪÉĽÉ¡ÉĶ":10853,"ĠraÉķËĪeta":10854,"snymÊ²Éª":10855,"ĠstËĪÉĳfka":10856,"dÊĳÉ¨":10857,"ĠdËĪoÉŃÊĥy":10858,"ĠtsyÉŃÊ²ËĪi":10859,"ĠkrÊ²ipÉŃÊ²ËĪenÊ²ija":10860,"ĠxfËĪi":10861,"ĠbÊĮÉŃnËĪovÊĮ":10862,"ĠsÊ²tÊ²ËĪekÉŃa":10863,"pËĪÉĽw":10864,"ĠpÉŃËĪÉĳtÊ²jjÉª":10865,"kÊĮmpËĪÉĳ":10866,"ĠukraÊĥËĪÉĽnÊ²ija":10867,"vz":10868,"ĠfstrÊ²itÊĥÊ²ËĪÉĳjitsÊĮ":10869,"ĠarxitÊ²iktËĪu":10870,"Ð½Ð¾":10871,"ĠÉ¡ÉŃËĪÉĳvnyx":10872,"ĠmÉ²Ê²ËĪÉĽj":10873,"stËĪoja":10874,"ĠpÊĮkupËĪÉĳtÊ²iÉŃÊ²ij":10875,"ĠpÉĶn":10876,"ĠrÊĮma":10877,"vnÊ²ik":10878,"rkÊĮf":10879,"ĠtÊ²ËĪÉĽst":10880,"pÊĮtrÊ²i":10881,"ĠsÊĮbËĪÉĳk":10882,"ĠsÊĮstËĪÉĳvÊ²it":10883,"ĠpÊĮvÉŃÊ²iËĪja":10884,"ĠvÊĮsstanËĪÉĳvÉŃÊ²i":10885,"ĠzmÊ²ËĪÉĽ":10886,"ca":10887,"ĠÊĴyvÊĮtËĪÉĳ":10888,"ĠzbÊ²irbËĪÉĳ":10889,"ĠvÊĮskrÊ²i":10890,"Éķiny":10891,"ĠudaÉŃÊ²ËĪenÊ²ijÉª":10892,"ĠpÊĮvÊ²idÊ²ËĪenÊ²ijÉª":10893,"bud":10894,"ĠrÊ²iÊĳËĪer":10895,"ĠjËĮa":10896,"ĠpÊĮznakËĪomÊ²i":10897,"ĠvËĪoftÊĮrËĪyx":10898,"ĠzdËĮÉĽtsÉ¨":10899,"Ġ33":10900,"ĠVi":10901,"ĠpÊĮÉŃÊ²itsËĪÉĽ":10902,"66":10903,"ĠmÊĮmÊ²ËĪenty":10904,"kup":10905,"ith":10906,"ĠbjÉĽ":10907,"ĠparÉŃËĪÉĳ":10908,"ĠtÊ²ËĪÉĳÊĴy":10909,"nÊ²inËĪy":10910,"ĠfÊ²inËĪÉĳnsÊĮvyx":10911,"É¡nÊ²i":10912,"mymÊ²Éª":10913,"ĠÊĮrÊ²ijintÊ²ËĪirÊĮvÊĮ":10914,"ĠzasÉŃËĪuÊĴy":10915,"ĠÊĮrÉ¡ËĪÉĳna":10916,"ĠÊĮnÉŃËĪÉĳj":10917,"ĠnÊ²imËĪÉĳÉŃÊĮ":10918,"ĠsvÊ²it":10919,"ĠrÊ²iÉŃÊ²ËĪi":10920,"ĠbÉŃÊĮkÊ²i":10921,"ĠsmÊĮÉ¡ÉŃÊ²ËĮÉª":10922,"ĠpÊĥËĮÉĽtÉķi":10923,"ĠÉ¡rËĪuppu":10924,"ĠpÊĮkazËĪÉĳnÊ²ija":10925,"É¡ÊĮrÊ²ËĪit":10926,"rËĪosÉŃÊĮ":10927,"knÊĮvÊ²ËĪe":10928,"ĠsËĮu":10929,"bÊ²ËĪitÊ²iÉŃÊ²ij":10930,"ĠustanËĪÉĳvÉŃÊ²ivÊĮjitsÊĮ":10931,"ĠkÊĮmpËĪÉĳkt":10932,"ĠpÉĶÊĴ":10933,"Ġspra":10934,"tÊĥÊ²ÊĮrÊĮ":10935,"ĠrÊ²iÉŃÊ²i":10936,"ĠvÉŃËĪÉĳÉ¡Ê²Éª":10937,"ÊĴËĪÉĳÉŃÊ²Éª":10938,"ĠutÊĥÊ²ËĪet":10939,"ĠkËĪos":10940,"ĠzËĮavÉĶd":10941,"ĠËĮÉĽlÉĽmËĪÉĽ":10942,"ĠprÊĮjËĪekty":10943,"ĠnÊ²ibÊĮÉŃÊĥËĪyx":10944,"ĠvÊĮÉŃÊ²i":10945,"ĠpÊĮfsÊ²idnÊ²ËĪe":10946,"ĠdËĪÉĳst":10947,"ĠaktÊ²ËĪivnÊĮsÊ²tÊ²Éª":10948,"ĠpÊĮÉŃÊ²ËĪeznyx":10949,"ĠÊĮtkrËĪytÊ²ija":10950,"ĠsvÊ²ËĪÉĳzÊĮny":10951,"fsÊ²iÉ¡dËĪÉĳ":10952,"ĠÉªzvÊ²ËĪestnyx":10953,"ĠmaÊĥËĪynÊ²i":10954,"ĠprÊ²imÊ²inÊ²ËĪenÊ²iju":10955,"skËĪursÊ²i":10956,"ĠfËĪont":10957,"ÉĽnÊ²ËĪerÉ¡Ê²i":10958,"ĠpÊĮtrÊ²ibÊ²ËĪitÊ²iÉŃ":10959,"ĠjÉªÊĴymÊ²ËĪesÊ²ÊĮ":10960,"Ġman":10961,"ĠprÊ²ÊĮ":10962,"ĠmÊĮnÊ²ikÊ²ËĪu":10963,"ËĪÉ¨klÉĽ":10964,"ĠvnÊ²izËĪÉĳp":10965,"rÊ²ËĪeÉŃ":10966,"ĠrÊĮdÊ²i":10967,"ĠzaÉŃÊ²ËĪi":10968,"ĠnËĪaÊĥÉĽ":10969,"ĠxÊĮrËĪoÊĥÊĮja":10970,"ĠsprÊĮvÊ²idÉŃÊ²ËĪi":10971,"ĠmÊ²ËĪasta":10972,"ĠuswËĪu":10973,"ĠmÊĮkÊ²i":10974,"ĠnÊĮmÊ²inËĪÉĳ":10975,"ĠpÊ²ËĪerÊ²its":10976,"ĠtËĮÉĽxnÉĶ":10977,"ĠprÊ²ivyÊĥËĪÉĳjit":10978,"ĠlËĪudÊĳi":10979,"ĠtrudÊĮvËĪoj":10980,"ĠfrÊ²i":10981,"ĠmÊ²idÊ²itsËĪynskÊĮj":10982,"ĠdËĪÉĳttÊĥÊ²i":10983,"ĠÉĶtsËĪÉĽ":10984,"kwat":10985,"ĠsËĪÉĳmymÊ²Éª":10986,"ĠprÊĮfÊ²iÉŃËĪÉĳktÊ²ikÊ²Éª":10987,"ĠstratÊ²ËĪeÉ¡Ê²iÉª":10988,"ĮpÊ²i":10989,"ÊĮpÊ²i":10990,"Ð¾Ð´":10991,"ĠprÊ²irËĪodÊ²i":10992,"ĠuvÊ²iÉŃÊ²itÊĥÊ²ËĪenÊ²ija":10993,"ĠprÊ²inÊ²imËĪÉĳjut":10994,"ĠrÊ²isËĪunÊĮk":10995,"tÊ²ËĪiÉŃÊ²Éª":10996,"ĠprËĪatsÉĽ":10997,"ĠaÉŃÊ²iksËĪÉĳndra":10998,"ĠdÊ²ËĪesÊ²ÊĮtÊ²":10999,"ĠpÊĮtÊ²ËĪerÊ²Éª":11000,"ĠssËĪyÉŃkÊ²Éª":11001,"ĠÉªkËĪo":11002,"jskÊĮj":11003,"ÊĴËĪÉĳjutsÊĮ":11004,"ĠkrËĪÉĽ":11005,"ĠnabËĪo":11006,"ĠvÊĮspÊ²ËĪi":11007,"ĠrËĪusskÊĮvÊĮ":11008,"ĠprÊĮdÊ²i":11009,"mÊĮÉ¡ËĪÉĳ":11010,"ĠÊĮstÊĮrËĪoÊĴnÊĮ":11011,"ĠËĮuÊĴÉĶn":11012,"ĠÉ¡ÊĮrÊĮdËĪof":11013,"ĠprÉĽ":11014,"ĠkÊĮrpËĪu":11015,"ĠtÊ²ËĪÉµ":11016,"ĠpËĪÉĳrnÊ²ÊĮ":11017,"znËĪÉĳk":11018,"ĠmÊ²ËĪetÊĮdÊĮm":11019,"ĠvÊ²inÊĮÉ¡rËĪÉĳ":11020,"Êĥx":11021,"ĠsÊ²ikrÊ²ËĪet":11022,"ĠmËĮÉĶÊĴ":11023,"ĠdruÊĳjËĪjamÊ²Éª":11024,"sÊ²isÊ²tÊ²ËĪe":11025,"ntsja":11026,"ĠarËĪÉĳ":11027,"ĠÊĮbÊ²ËĪÉĳzÊĮn":11028,"ĠkÊĮÊĮr":11029,"ĠprÊĮtÊ²ivÊĮpÊĮÉŃËĪo":11030,"ĠnÊĮnÊ²isÊ²tÊ²ËĪÉª":11031,"ĠÊĳdÊ²ËĪeÉŃÊĮjtÊ²i":11032,"ĠËĪaÊĥ":11033,"ĠmÊĮskËĪofskÊĮj":11034,"ĠprÊĮÉ¡rÊ²ËĪe":11035,"sÊ²tÊ²itÊ²i":11036,"ĠtÊĮmËĪÉĳ":11037,"ĠÊĮstrËĪo":11038,"nÊ²ËĪetsÊĮ":11039,"ĠsÉŃÊĮÊĴ":11040,"snuju":11041,"ktÉķÉĽ":11042,"rÊĥËĪy":11043,"ĠprÊ²idmÊ²ËĪetÊĮf":11044,"vËĪÉĳtsyÉª":11045,"ĠspÊ²itsyfÊ²ËĪi":11046,"ĠsÊĮstËĪÉĳvÊ²itÊ²":11047,"znym":11048,"fÊ²ËĪiÉŃ":11049,"ĠsvÊĮËĪÉµ":11050,"jskÊ²ix":11051,"ĠÉĽffÊ²ËĪekta":11052,"ĠpËĪost":11053,"dja":11054,"ÉŃÉŃËĪÉĳ":11055,"nsÊĮf":11056,"ĠÊĮpa":11057,"ĠprÊ²amËĪo":11058,"ÉķikÊĮm":11059,"ĠstrËĪoj":11060,"ĠpÊĮkrËĪÉĳ":11061,"nÊĮmu":11062,"ĠÊĮdÊ²ËĪeÊĴdu":11063,"ĠusÊ²ËĪiÉŃÊ²ija":11064,"ĠprÊ²ixËĪodÊ²it":11065,"ĠdÊĳËĪiÉķ":11066,"ĠËĪÉĽtÊ²imÊ²Éª":11067,"tÊĥÊ²inËĪo":11068,"kÊ²in":11069,"ËĪobrÊĮ":11070,"zÊĮx":11071,"ĠxÊĮrËĪoÊĥyvÊĮ":11072,"Ġ600":11073,"ĠbÊ²ËĪeÉŃÊĮvÊĮ":11074,"ĠstruktËĪur":11075,"ĠnËĪÉĶvÉĽ":11076,"ĠbËĮÉĽspÊ²ÉĽtÊĥËĪÉĽ":11077,"ĠprÊ²iimËĪuÉķistvÊĮ":11078,"ĠstruktËĪury":11079,"ĠpÊĮkryvËĪÉĳ":11080,"ĠÊĥËĪÉ¨pkÉĶ":11081,"ĠrËĪÉĳzu":11082,"ĠstrËĪÉĳÊĥ":11083,"spÊĮndÊ²ËĪe":11084,"ĠstupÊ²ËĪe":11085,"ĠËĮÉĶt":11086,"ndËĪovÊĮ":11087,"try":11088,"ĠpÊĮsvÊ²aÉķËĪe":11089,"ĠaÉŃkÊĮÉ¡ËĪoÉŃ":11090,"ĠtËĪutaj":11091,"ÉŃÊĮsÊĮ":11092,"ĠÊĳirkËĪÉĳ":11093,"ĠËĪorÉ¡ÊĮn":11094,"prÊ²ËĪeÊĴnÊ²imu":11095,"nÊ²ËĪikÊĮf":11096,"zvËĪu":11097,"ĠÉªskÊĮ":11098,"dÊĮrÊĮ":11099,"ÉĽÉŃÊ²i":11100,"ĠpÊĥËĪÉĽdÉĽ":11101,"nnÉĽ":11102,"tÊĥÊ²ËĪen":11103,"ĠsÊ²intÊ²i":11104,"ĠpÉĶÉķËĪa":11105,"Ġdarm":11106,"ĠprÊĮizvÊĮdÊ²ËĪitÊ²iÉŃÊ²Éª":11107,"ĠrÊ²iÊĥËĪyÉŃa":11108,"ĠutÊĥÊ²ËĪenyjÉª":11109,"tÉ¨x":11110,"ĠfÉŃËĪÉĳ":11111,"kÉŃÊ²ËĪi":11112,"²ËĮiz":11113,"ĠpÊ²itËĪom":11114,"ĠÊĮÉ¡ËĪon":11115,"ĠmÊ²idÊ²itsËĪynskÊ²ix":11116,"ĠËĮÉĽwrÉĶ":11117,"ĠnËĪaÊĥÉ¨m":11118,"ÉŃÊĮÉ¡ÊĮf":11119,"ĠÊĮtvËĪÉĳ":11120,"ĠsprËĪo":11121,"Ġ48":11122,"ĠkartÊ²ËĪinkÊ²Éª":11123,"ĠvÊ²ËĪeÉķ":11124,"jËĪÉĶntsÉ¨m":11125,"ĠkrËĪÉĳsnyj":11126,"ĠbËĪyfÊĥyj":11127,"ĠÉĽpËĪo":11128,"ĠstranÊ²ËĪitsu":11129,"org":11130,"ĠsvÊ²ËĪi":11131,"nËĪuÉŃÊ²isÊ²":11132,"ÉŃÊ²izËĪovÊĮ":11133,"ĠzÊĮmÊ²isÊ²tÊ²ËĪitÊ²iÉŃ":11134,"ĠzÊĮvÊ²idÊ²ËĪenÊ²ija":11135,"ĠblËĪi":11136,"ĠrÊĮzrÊ²iÊĥËĪÉĽnÊ²ijÉª":11137,"ĠÉªstËĪotÊĥÊ²nÊ²ikÊĮf":11138,"ĠsÊĮsrÊ²idÊĮ":11139,"ĠprÊĮstËĪyx":11140,"ĠmuÊĳËĪej":11141,"ĠÉķËĪÉĳstÊ²jjÉª":11142,"ĠdÊĮÉŃÉ¡ÊĮvÊ²ËĪe":11143,"ĠpÊĮnÊ²ËĪÉĳtÊ²ijÉª":11144,"vdÉĽ":11145,"xËĪof":11146,"ĠspÉĽts":11147,"vËĪÉĳjuÉķijÉª":11148,"ntÉĽm":11149,"ĠÉĶbjËĪÉĽ":11150,"sÊ²ËĪiÉŃa":11151,"ĠpÊĮsÊ²itÊ²ËĪitÊ²":11152,"ËĪona":11153,"ĠdÊ²iÊĥËĪÉĽvÉŃÊ²i":11154,"nÊĮstÊ²jju":11155,"ĠspËĪosÊĮba":11156,"ĠÉĽndÊĮ":11157,"tÊĥÊ²kÊĮx":11158,"ĠprÊ²inÊ²ËĪÉĳtÊ²ija":11159,"ĠCO":11160,"rËĪÉĳtÊĮr":11161,"ĠrÊ²ibÊ²ËĪenkÊĮm":11162,"nÊĮru":11163,"ĠdÊ²ËĪetskÊĮj":11164,"ĠtÊ²ËĪipÊĮf":11165,"ĠÉ¡ËĮÉĽÉ¡ËĪÉĽ":11166,"ĠprËĪÉĳktÊ²ika":11167,"ĠdÊ²ËĪetskÊ²ix":11168,"ĠmÊ²ËĪestnyx":11169,"ĠrËĪusskÊĮm":11170,"ĠËĪÉĳftÊĮra":11171,"ĠnarËĪoda":11172,"ĠÊĮpÊ²ËĪisy":11173,"tyvÊĮjit":11174,"ĠprÊĮjavÉŃÊ²ËĪÉĳjitsÊĮ":11175,"ĠvËĪÉĳÊĴnym":11176,"ĠÊĴyÉŃËĪÉĳnÊ²ija":11177,"É¡zËĪÉĳ":11178,"ĠsÊĮbËĪÉĳkÊ²Éª":11179,"ĠvÉŃÊ²u":11180,"syxËĪÉĳ":11181,"É¡ÉŃÊ²i":11182,"ĠpËĪoÉŃzujutsÊĮ":11183,"ÊĥtÊĥËĪÉ¨":11184,"ĠÉ¡ÊĮtËĪovÊ²itÊ²":11185,"ĠÉŃÊ²ËĪitÊĥÊ²nyj":11186,"ĠmÊĮtÊĮ":11187,"ĠfÊ²ir":11188,"ĠzdËĪa":11189,"ĠzËĪÉĳpu":11190,"nuÉŃa":11191,"ÉĽtËĪÉĳ":11192,"ĠpÉ¨t":11193,"Ġ197":11194,"ĠÉĽkskËĪursÊ²i":11195,"ĠSa":11196,"ĠkËĪÉĳÊĴdÊĮjÉª":11197,"ĠtfËĪÉĶjÉĽ":11198,"ĠusÉŃËĪovÊ²iÉª":11199,"vÊĮstÊ²":11200,"zÊĮvyjÉª":11201,"sji":11202,"ĠaÉ¡rÊ²isÊ²sÊ²ËĪi":11203,"ĠnÊ²imÊ²ËĪets":11204,"ntsjÉĽ":11205,"ill":11206,"ĠËĪaw":11207,"ĠÊĮsnËĪovu":11208,"ĠdËĪÉĳty":11209,"pÉĽr":11210,"ĠprÊĮÊĥÉŃËĪo":11211,"ĠvÊ²ËĪidÊ²iÉŃ":11212,"ĠËĪjasnÊĮ":11213,"vËĪof":11214,"ÑĦ":11215,"ĠprÊ²idÉŃÊĮÊĴËĪytÊ²":11216,"kËĪur":11217,"ĠËĮÉĶbÉĶv":11218,"ĠpÊ²irÊ²idvÊ²i":11219,"ĠmËĪÉĳmy":11220,"ĠpÊĮji":11221,"ĠpËĪoprÊ²ËĪeÊĴnÊ²imu":11222,"ĠsÊĮpÊ²ËĪer":11223,"ĠÊĮdÊ²dÊ²iÉŃÊ²ËĪenÊ²ija":11224,"ĠpÊ²ËĪiÉķu":11225,"ĠnaËĪukÊ²Éª":11226,"ĠÊĮtsËĪutstvujit":11227,"ĠpÊĮraÊĴËĪÉĽnÊ²ija":11228,"ĠprÊ²iÊĥËĪÉĽÉŃ":11229,"Ġint":11230,"jnËĪÉĽÉ¡ÉĶ":11231,"ĠÉªÉ¡rÊĮvËĪyx":11232,"ĠzÊĮpuskËĪÉĳ":11233,"ĠmËĪÉĳÉŃÊĮvÊĮ":11234,"ĠsÉŃutÊĥÊ²ËĪÉĳjnÊĮ":11235,"ntsyju":11236,"ĠtabÉŃÊ²ËĪitsy":11237,"tÊĥÊ²ËĪo":11238,"ĠkupËĪÉĳ":11239,"ĠMo":11240,"ÉĶn":11241,"ĠÉ²ËĪits":11242,"vÊĮr":11243,"ĠtÊ²ËĪeÉŃÊ²i":11244,"ĠËĪobuf":11245,"ĠnÊĮktÊ²ËĪej":11246,"ĠÊĮdnËĪÉĳÊĴdy":11247,"ĠumÊ²ËĪenÊĥytÊ²":11248,"jÉĶntk":11249,"ĠvËĮÉĽtËĪÉĽ":11250,"ĠnaÉ¡rÊ²ËĪe":11251,"ĠvratÊĥÊ²ËĪom":11252,"ĠÉ¡dÊ²ËĪetËĪo":11253,"ĠpÊĮvËĪyÊĥynnÊĮj":11254,"ĠxvËĪÉĳ":11255,"ĠnÊ²isÊĮvÊ²irÊĥynnÊĮ":11256,"ĠkËĪÉĳrtÊ²i":11257,"ĠtÊĥËĪÉĽÉ²ÉķtÉķi":11258,"ĠuvÊ²ËĪerÊ²iny":11259,"tËĪona":11260,"ĠkÊĮkÊĮ":11261,"dÊ²irÊĴËĪy":11262,"Ġsmok":11263,"ĠkÊĮntÊ²ËĪek":11264,"fÊĥymsÊ²ÊĮ":11265,"ftsuf":11266,"barÊ²ËĪi":11267,"ÊĴÉĽÉ²":11268,"stÊ²jjif":11269,"ĠmÊ²inÊ²isÊ²tÊ²ËĪerstva":11270,"ĠzanÊ²ËĪÉĳtÊ²ij":11271,"ĠudËĪÉĳr":11272,"ĠmËĪÉĳsÉŃÊĮm":11273,"ĠÊĮbzËĪo":11274,"ĠnÊ²iÊĴy":11275,"stym":11276,"ĠrutÊĥÊ²":11277,"ĠkÊĮmÊ²itÊ²ËĪeta":11278,"ĠÊĮtnÊĮÊĥËĪÉĽnÊ²ijax":11279,"ĠparÊ²ËĪi":11280,"ĠvÊ²ËĪÉĽl":11281,"ĠmÊĮrËĪÉĳ":11282,"ĠsÊ²irÊ²idÊ²ËĪinÊ²i":11283,"ĠpÉĶÊĳËĪÉĶ":11284,"pas":11285,"ĠÊĮbmÊ²ËĪena":11286,"jskÊ²ijÉª":11287,"ĠÉ¡ÊĮspÊĮ":11288,"prÊ²imÊ²i":11289,"ĠantÊ²ËĪi":11290,"rÊ²ËĪenÊ²iÉª":11291,"AN":11292,"ĠpÊĮdÊ²dÊ²ËĪerÊĥka":11293,"ĠkÊ²iÉŃÊĮÉ¡rËĪÉĳm":11294,"ĠsÊ²irÊ²i":11295,"mÊ²ËĪennÊĮ":11296,"ĠnaÊĴËĪÉĳ":11297,"ĠspÉĽtsjËĪal":11298,"ĠsrÊ²ËĪednÊ²ÊĮja":11299,"ĠpËĪÉĳdÊĮ":11300,"stan":11301,"ĠpÊĮdkËĪo":11302,"ĠvypÊĮÉŃnÊ²ËĪÉĳjitsÊĮ":11303,"Ðł":11304,"ĠdÊ²ËĪetskÊ²ijÉª":11305,"ĠÉªmÊ²pÊ²i":11306,"ĠbuxÉ¡ËĪÉĳÉŃtÊ²ir":11307,"ĠkÊĮrpËĪusa":11308,"ĠÊĮpÉŃa":11309,"ĠbËĪutÊ²":11310,"ĠpÊ²ËĪÉĶ":11311,"ĠupÉŃÊĮ":11312,"ĠrÊĮstÊĮ":11313,"tÊ²ËĪivnÊĮj":11314,"kla":11315,"²ËĮa":11316,"nkÊ²ËĪÉª":11317,"ĠrËĪÉĳzvÊ²i":11318,"ĠpËĮÉĶÉķa":11319,"ĠbÊ²irÊ²ËĪemÊ²innÊĮ":11320,"jimuju":11321,"vÊ²ËĪÉĳzÊĮ":11322,"ĠdÊ²imÊĮnst":11323,"ĠtÉ¨ÉķËĪÉĽ":11324,"ÉªbÊĮ":11325,"ĠÉªndÊ²ikËĪÉĳ":11326,"sÊ²ËĪÉª":11327,"ĠÉªspËĪoÉŃzÊĮvÊĮtÊ²sÊ²ÊĮ":11328,"Ġzub":11329,"ĠnÊ²iÊĮpxÊĮdÊ²ËĪima":11330,"ĠxÊĮÊĳËĪÉĳjstva":11331,"ĠutÊĥÊ²ËĪÉĳstkÊĮf":11332,"ĠnaËĪutÊĥÊ²nÊĮ":11333,"ĠbÊĮÉŃÊ²ËĪeÊĳnÊ²ij":11334,"nÊ²iÉŃÊĮsÊ²":11335,"stvÊ²innÊĮja":11336,"stÊĮja":11337,"ĠnÊĮvÊĮrËĪoÊĴdÊ²i":11338,"lnÉ¨m":11339,"ĠkÊĮmËĪÉĳndu":11340,"sËĪudÊ²i":11341,"ĠvÊĮsstÊĮnÊĮvÉŃÊ²ËĪenÊ²ijÉª":11342,"ĠsÊĮzdËĪÉĳnÊ²iÉª":11343,"ĠzavÊ²ËĪe":11344,"ĠrËĪÉĳÊĳnÊ²itsa":11345,"ÉŃÊ²iÉķÊĮ":11346,"ere":11347,"ĠrastvËĪora":11348,"ĠdÉĽtsËĪÉ¨":11349,"Ġkry":11350,"ĠprÊĮÉ¡nËĪos":11351,"bÉŃa":11352,"ĠpÊ²ËĪensÊ²iÉª":11353,"ĠuÉŃËĪy":11354,"ĠjÉªkÊĮtÊ²irÊ²inbËĪu":11355,"ĠxËĮÉĳ":11356,"ĠÉŃÊ²ËĪistÊ²jjif":11357,"ĠpËĪÉĶr":11358,"Ġbud":11359,"ĠsÊĮÉ¡ÉŃaÊĥËĪÉĽnÊ²ijÉª":11360,"tÊĥki":11361,"ĠGa":11362,"ĠubÊ²irËĪÉĳ":11363,"stËĪar":11364,"tÊĥÊ²kÊĮ":11365,"ĠfËĪunktsyja":11366,"ĠpÊĮdjjËĪe":11367,"ĠutÊ²ËĪe":11368,"ĠnÊ²iÊĴyÉŃËĪÉĳ":11369,"ĠkarkËĪÉĳ":11370,"ĠkampËĪÉĳ":11371,"star":11372,"ĠtÊ²ixnÊ²ËĪitÊĥÊ²iskÊ²ijÉª":11373,"ĠbËĪÉĳzy":11374,"ĠsÊ²ËĪerÊ²ija":11375,"nÊ²ËĪÉĳja":11376,"nËĪut":11377,"ĠËĮÉĶÉ¡ra":11378,"ĠtÊ²ipÉŃËĪÉĳ":11379,"ĠtÊĥw":11380,"ĠapparËĪÉĳt":11381,"ĠÊĮtmÊ²itÊĥÊ²ËĪÉĳjitsÊĮ":11382,"ĠsÊĮtÊĥÊ²itËĪÉĳnÊ²ijÉª":11383,"zËĪaÉ²Ê²ÉĽ":11384,"ÊĳËĪirujit":11385,"ĠÉªspËĪoÉŃzujit":11386,"ĠknÊ²ËĪik":11387,"ĠÉŃËĪutÊĥÊ²Êĥym":11388,"ĠnÊĮbÊ²irËĪÉĳ":11389,"ĠÊĮtnÊĮÊĥËĪÉĽnÊ²iju":11390,"ĠzÊĮdÊ²irÊĴËĪÉĳ":11391,"ĠpÊ²irÊ²ivËĪot":11392,"ĠzÊĮkÊĮnÊĮdËĪÉĳtÊ²iÉŃstvÊĮm":11393,"tÊĥËĮÉĽ":11394,"ĠtsËĪÉĶras":11395,"ÉŃÊ²ËĪetÊĮ":11396,"ĠvËĪyvÊ²isÊ²tÊ²Éª":11397,"ĠsËĪÉĳt":11398,"ĠtËĪop":11399,"ĠkËĪonkursa":11400,"ktsyjij":11401,"ĠprÊĮdu":11402,"ĠspÊ²its":11403,"É¡ËĪor":11404,"vËĪody":11405,"ÊĥÉĽj":11406,"ĠmËĪoÉŃÊĮ":11407,"ĠupÊĮmÊ²inËĪÉĳ":11408,"ĠÊĮËĪÉĳ":11409,"ĠÊĮdÊ²dÊ²ËĪeÉŃkÊ²Éª":11410,"ÊĴËĪÉĶnÉĽ":11411,"ĠsÊĮÊĮpÉķËĪÉĳ":11412,"sËĪÉĳtÊ²":11413,"ĠÉ¡rËĪÉĶ":11414,"ĠpËĪodÊĴÊ²vy":11415,"ĠprÊĮizvÊ²idÊ²ËĪe":11416,"ĠsÉŃËĪyÊĥÊĮ":11417,"ĠstsynËĪÉĳ":11418,"ĠpsÊ²ixËĪi":11419,"ĠÊĮÉ¡rËĪomnyj":11420,"bËĪym":11421,"ĠBo":11422,"ĠpÊĮÉ¡ru":11423,"bÊ²itrËĪÉĳ":11424,"ĠnazvËĪÉĳnÊ²ija":11425,"rËĪi":11426,"mjËĪa":11427,"ĠprÊĮvÊ²idÊ²ËĪenÊ²iÉª":11428,"ĠÊĮstËĪÉĳÉŃÊ²isÊ²":11429,"ĠsÊĮvrÊ²imÊ²ËĪennyj":11430,"ĠrÊ²ËĪetÊĥÊ²Éª":11431,"ĠvÊĮrÊĮ":11432,"ĠsÉŃËĪuÊĴbu":11433,"kËĪovÊĮj":11434,"ĠpÊĮvrÊ²iÊĴdÊ²ËĪe":11435,"ĠDa":11436,"dÊĳin":11437,"85":11438,"ĠbÊĮÉŃnÊ²ËĪitsy":11439,"ĠpustËĪy":11440,"rnÊĮstÊ²":11441,"ĠprÊ²iÊĥÉŃÊ²ËĪÉª":11442,"ĠprÊĮbÉŃÊ²ËĪemÊĮj":11443,"ĠsÉŃutÊĥÊ²ËĪÉĳj":11444,"jznËĪÉĳk":11445,"jivÊ²i":11446,"ĠxËĪoÉŃ":11447,"ĠstËĪÉĳvÊ²itÊ²":11448,"tÊĥÊ²inÊĮ":11449,"ĠËĮaktu":11450,"ĠËĪjavnÊĮ":11451,"tÊĮÉŃ":11452,"ĠËĮÉĽsËĮÉĽmËĪÉĽs":11453,"ÉķlËĪi":11454,"ĠskÊĮr":11455,"ĠkÊĮrÊĳËĪi":11456,"ĠdÊ²irÊ²ËĪektÊĮra":11457,"ĠvysËĪokuju":11458,"Ġrav":11459,"ĠprÊĮiÊĥÊĥËĪÉĽ":11460,"ĠsÉŃËĪÉĳby":11461,"ĠvÉŃËĪÉĳstÊ²":11462,"ĠËĪjarkÊĮ":11463,"ĠtÉķÉĽkËĪa":11464,"kÉĶm":11465,"ĠkËĪonkurs":11466,"ĠvwËĮaÉķtÉķi":11467,"ĠsrËĪotÊĥÊ²nÊĮ":11468,"ĠrËĪazÉĽm":11469,"nsa":11470,"ĠnamÊ²ËĪe":11471,"ĠÊĮstËĪÉĳnÊ²itsÊĮ":11472,"ĠsÉŃËĪuÊĴyt":11473,"ĠfÊĮrmÊ²irÊĮvËĪÉĳnÊ²ijÉª":11474,"ĠkÊĮmmunËĪÉĳ":11475,"ÉĶvËĪÉ¨mi":11476,"ĠpÊ²irÊ²ivÊĮ":11477,"ÊĳidÊ²ËĪe":11478,"ĠnaprËĪotÊ²if":11479,"ĠkrasÊ²ËĪivyj":11480,"ĠÊĴyÉŃËĪudka":11481,"ĠpÊĮstanËĪo":11482,"ĠÉ¡ÊĮrmÊĮnËĪÉĳ":11483,"ustrËĪoj":11484,"stuju":11485,"Ġ<":11486,"mple":11487,"Ġ09":11488,"ĠpÊĮtrÊ²ËĪebÊĮ":11489,"ĠkartÊ²ËĪiny":11490,"ĠvvÊ²isÊ²tÊ²ËĪÉª":11491,"ĠmËĪÉĳÉŃÊ²inkÊ²ij":11492,"ĠrÊĮzrabËĪotkÊ²Éª":11493,"sÉĽr":11494,"ĠsÊĮdÊ²ËĪerÊĴÊĮt":11495,"pËĮÉĶ":11496,"jma":11497,"ĠÉªzbËĪy":11498,"ĠaÉŃÉ¡ÊĮrÊ²ËĪit":11499,"ĠpÊĮdÉ¡ÊĮtËĪovÊ²itÊ²":11500,"ĠÉ¡ÊĮÉŃÊĮvËĪoj":11501,"ĠpÊĮpuÉŃÊ²ËĪÉĳrnÊĮstÊ²":11502,"ĠrÊ²iÊĥËĪÉĽnÊ²ijim":11503,"bÊ²iÉŃÊ²ËĪi":11504,"tsyn":11505,"ĠukÉŃËĪÉĳ":11506,"Ð¾Ð¹":11507,"ĠpËĪoÉŃnÊĮm":11508,"ĠËĪÉĶd":11509,"ĠzËĮax":11510,"tËĪÉĳrÊ²i":11511,"ĠSo":11512,"ĠpËĮÉĶzÉ¨":11513,"É¡ËĪÉĳnt":11514,"Ġwww":11515,"ĠpÉŃÊĮdËĪy":11516,"ĠsÊĮstÊĮËĪjaÉŃÊĮsÊ²":11517,"ĠnatËĪÉĳÉŃ":11518,"ĠsvÊ²ËĪÉĳzy":11519,"ĠÉ¡ÉŃÊ²ËĪi":11520,"ĠÉĽÉ¡Êĳi":11521,"ĠkÊĮrÊ²ËĪitÊĥÊ²nÊ²i":11522,"ĠfËĪÉĳjÉŃ":11523,"ĠÊĳrËĪu":11524,"ĠÊĮddyxËĪÉĳ":11525,"lËĪatsji":11526,"ÉŃÊ²ËĪitÊ²i":11527,"ĠnaprËĪavdÉĽ":11528,"ĠÊĮbutÊĥÊ²ËĪÉĳ":11529,"rËĪyva":11530,"dskÊĮj":11531,"ĠÉªÉķËĪe":11532,"ĠkÊĮbÊ²inÊ²ËĪet":11533,"ÉŃÊĮva":11534,".),":11535,"ĠÉŃÊ²ËĪexkÊ²ix":11536,"ĠpÊĮÉŃÊ²ËĪitÊ²ika":11537,"ph":11538,"ĠtatÊ²jËĪja":11539,"ĠjakËĪÉĶÉķtÉķi":11540,"bnÊ²ËĪi":11541,"ĠstËĪy":11542,"ĠzadÊ²ËĪe":11543,"ĠrÊĮÊĳËĪe":11544,"ĠrasskËĪÉĳzyvÊĮjit":11545,"ĠÉªnËĪyjÉª":11546,"stËĪÉĳnÊ²i":11547,"ĠpÉŃËĪotnÊĮ":11548,"Ġ//":11549,"67":11550,"ĠmËĪorÊ²ÊĮ":11551,"ĠrÊĮbÊĮtÊĮdËĪÉĳ":11552,"ÉŃasÊ²tÊ²ËĪi":11553,"ĠÉ¡ËĪÉĳs":11554,"ĠprÊĮsmËĪotra":11555,"ĠbÊĮrËĪotÊ²sÊ²ÊĮ":11556,"ĠvËĪozduxi":11557,"ĠËĪutra":11558,"ĠkÊĮp":11559,"Ġpry":11560,"tËĪÉĳmÊ²Éª":11561,"ĠbËĪystryj":11562,"ĠtÊĥÊ²ËĪestÊ²":11563,"ĠÉŃÊ²ËĪinÊ²ija":11564,"²ËĮÉĽr":11565,"ĠnËĪÉĳjdÊ²i":11566,"ÉķijsÊ²ÊĮ":11567,"ĠÉĽÉ¡zËĪÉĳ":11568,"ĠznËĪÉĳÉŃ":11569,"sÊĮËĪju":11570,"ĠprÊ²isËĪutstvujit":11571,"ĠrÊ²iÊĮbÊ²iÉŃÊ²i":11572,"ĠarbÊ²itrËĪÉĳ":11573,"ĠÉªspra":11574,"tÊ²tÊ²ËĪe":11575,"ĠrÊĮsÊ²sÊ²ËĪijskÊ²ij":11576,"ĠrÊ²iÊĴysÊ²sÊ²ËĪe":11577,"ĠÉ¡ËĮÉĶspÉĶdËĪar":11578,"É¡ÊĮrËĪÉĳ":11579,"ĠpÊ²ËĪÉĳtÊ²nÊ²i":11580,"Ġ39":11581,"ĠsravnÊ²ËĪi":11582,"ĠÑģ":11583,"É¡lÉĽ":11584,"tÊ²ËĪim":11585,"ĠpÉĶprËĪa":11586,"ĠnÊ²iÊĮdnÊĮ":11587,"xËĪodÊĮm":11588,"ĠkÊĮmpÉŃÊ²ËĪekt":11589,"ĠkÊĮntrÊĮÉŃÊ²ËĪirÊĮvÊĮtÊ²":11590,"ĠfrËĪÉĳntsyÉª":11591,"mËĪÉ¨":11592,"vÊ²ÉĶ":11593,"ĠzdËĪÉĳnÊ²ijÉª":11594,"jËĮÉĶ":11595,"ĠÊĴËĪÉĽny":11596,"ĠprÊ²idstÊĮËĪit":11597,"ĠnÊ²ikakËĪoj":11598,"ĠdËĪomu":11599,"2020":11600,"ĠÉªdÊ²ËĪej":11601,"ĠdÊ²iaÉ¡nËĪosÊ²tÊ²ikÊ²Éª":11602,"ĠÉ¡Ê²irmÊ²i":11603,"Ġ2006":11604,"ĠÉ¡rËĪunt":11605,"tÊĥnÉĶ":11606,"ĠstËĪÉĳtÊ²jju":11607,"ul":11608,"ĠpÊĮzdnÊ²ËĪejÉª":11609,"ĠustranÊ²ËĪitÊ²":11610,"ĠstËĪoÉŃÊ²i":11611,"ĠbjËĪÉĽ":11612,"ĠËĪuksu":11613,"ĠrÊĮzumÊ²ËĪe":11614,"ĠprÊ²imÊ²inÊ²ËĪenÊ²ijim":11615,"ĠÉ¡rËĪÉĳÊĴdÊĮnÊ²i":11616,"ĠzÉŃÊĮu":11617,"dÊĮÉ¡ÊĮ":11618,"lan":11619,"ĠpÊĮsmËĪotrÊ²itÊ²i":11620,"vÉŃÊ²innyj":11621,"ĠrÊ²iÉ¡Ê²iËĪonÊĮf":11622,"ĠÉ¡Ê²ËĪer":11623,"ĠmÊ²ËĪÉĽjstsu":11624,"ĠËĮÉĶsÉĶb":11625,"ĠÊĴËĪÉ¨tÉķÉĽ":11626,"ĠsËĮamÉĶxËĪÉĶ":11627,"ÉĽs":11628,"ĠmÊĮdÊ²i":11629,"ĠÊĴyÉŃjjËĪe":11630,"ĠËĮuÉ²i":11631,"ĠsÊ²tÊ²ikÉŃÊ²ËĪÉĳ":11632,"ĠfËĪÉĳjÉŃy":11633,"ĠvËĪypÉŃÊĮt":11634,"ĠmÊĮÉŃÊ²ËĪit":11635,"ĠsarËĪÉĳ":11636,"ĠurÊĮÊĴËĪÉĳj":11637,"ĠzËĪÉĳÉŃ":11638,"ĠustanËĪofkÊ²i":11639,"ĠÊĮptsyËĪo":11640,"cebook":11641,"ĠrÊ²iËĪÉĳktsyja":11642,"mo":11643,"rÊ²iÉ¡u":11644,"ĠÊĮtÊĥÊ²irÊ²idnËĪoj":11645,"ĠÊĮbÊ²iz":11646,"ĠÊĮbÊ²itËĪÉĳ":11647,"sÊ²tÊ²ËĪÉĳmÊ²Éª":11648,"ĠËĪotpusk":11649,"Ġ;":11650,"ĠsubbËĪo":11651,"ĠfkËĪusu":11652,"lÉĽt":11653,"pÉĶzËĪÉ¨":11654,"ĠnapÊ²ËĪisÊĮÉŃ":11655,"ĠvaÉŃÊ²ËĪe":11656,"ĠkËĮi":11657,"ĠkvartÊ²ËĪira":11658,"ĠzdrÊĮvÊĮÊĮxranÊ²ËĪenÊ²ija":11659,"ĠfpÊĮ":11660,"tkÊ²ijÉª":11661,"ree":11662,"ĠmÊ²ixaËĪiÉŃ":11663,"ĠÊĮtkrÊĮvÊ²ËĪe":11664,"stÊĮvÊĮ":11665,"ĠfÊĥËĪÉĽ":11666,"ËĪiÉ¡ry":11667,"ËĪatÉĽm":11668,"ĠËĮÉªbÊĮ":11669,"ĠmÊ²ikrËĪo":11670,"ĠvÊĮprËĪosa":11671,"ĠfÉŃËĪo":11672,"kËĪÉĳt":11673,"ĠamÊ²":11674,"ĠsfËĪÉĶjÉĽj":11675,"ĠrÊ²ifÊ²i":11676,"ĠvydÊ²iÉŃÊ²ËĪenÊ²ija":11677,"ĠÉ¡ÉŃÊ²u":11678,"tÊĥÊ²iÊĥ":11679,"ĠnËĮaturËĪa":11680,"dÊĳËĪÉĽmÉ¨":11681,"ĠdËĪumÊĮtÊ²":11682,"ĠpÊĮvËĪysÊ²itÊ²":11683,"ĠnaËĪuk":11684,"ĠujËĪe":11685,"ĠprÊĮÊĥËĪÉĽÉŃ":11686,"ĠÊĴyvËĪut":11687,"ĠpÊĮtrÊ²ibÊ²ËĪitÊ²iÉŃÊ²ij":11688,"vËĪÉĳtÊĮ":11689,"É¡ÉŃËĪo":11690,"ĠmËĪÉĳÉŃÊ²inkÊ²ix":11691,"ĠsÊ²tÊ²ikÉŃËĪo":11692,"ĠpËĪotÊĥÊ²ik":11693,"jjËĪeznÊĮ":11694,"Ġbank":11695,"ĠdÊĮÉŃÊĴnÊĮst":11696,"ĠbÊĮrabËĪÉĳ":11697,"ĠkÊĮnsta":11698,"ÊĴËĪyÉŃÊ²Éª":11699,"ĠsmËĪysÉŃÊ²i":11700,"dÊ²ikvËĪÉĳ":11701,"Ê²adËĪÉĶ":11702,"ĠpÊ²irÊ²iÊĮdÊ²ËĪitÊĥÊ²iskÊ²Éª":11703,"ĠbÊ²izusÉŃËĪovnÊĮ":11704,"ĠsÊĮbÊ²isÊ²ËĪe":11705,"ĠmnËĪoÉ¡Ê²im":11706,"ĠsÊĮdÊ²ËĪerÊĴytsÊĮ":11707,"ĠkÊĮntËĪÉĳktÊ²i":11708,"ĠËĮÉĶkrÉĽÉķ":11709,"ĠÊĮtÊĥÊ²ivÊ²ËĪidnÊĮ":11710,"ĠÉ¡ruppÊĮ":11711,"ĠjÉªÉŃÊ²ËĪena":11712,"ĠnÊĮrÊ²i":11713,"ĠjÉªÊĴyÉ¡ËĪodnÊĮ":11714,"ÑĤÐ°":11715,"ĠfspÊĮmÊ²inËĪÉĳ":11716,"ĠpÊ²ËĪÉĽrÊĥÉ¨":11717,"ĠpËĪonÊ²ÊĮÉŃ":11718,"ĠdÊĮxËĪoda":11719,"ĠprÊ²ikrÊ²i":11720,"ĠmÊ²ËĪaw":11721,"ĠÉªzvÊ²ËĪestnyj":11722,"ĠvystupËĪÉĳjit":11723,"ĠÉ¡rÊĮÊĴdanÊ²ËĪina":11724,"ĠkrËĪym":11725,"mÊĮÉŃÊĮ":11726,"dzÊĮ":11727,"ĠÊĮsÊĮznËĪÉĳ":11728,"ÉŃÉŃ":11729,"ĠvËĪyÊĥyÉŃ":11730,"ĠÉ¡ÉŃubÊĮ":11731,"vËĪala":11732,"ĠÉªstËĪotÊĥÊ²nÊ²ikÊ²Éª":11733,"ĠxËĪot":11734,"ĠvyzyvËĪÉĳjut":11735,"ĠÊĥkËĪoÉŃa":11736,"tsvÊ²ËĪet":11737,"stÊ²sÊ²ÊĮ":11738,"vÊ²ËĪik":11739,"Ġfi":11740,"spËĪorta":11741,"ĠnÊĮsÉŃaÊĴdËĪÉĳ":11742,"ĠËĮÉĶtÊĥÉ¨vËĪiÉķtÉķÉĽ":11743,"ntsÉĶ":11744,"ĠvËĪytÊĥÊ²i":11745,"ĠftËĪÉĽ":11746,"ĠdÊ²ËĪetskÊĮvÊĮ":11747,"ĠnjËĪju":11748,"ĠsÊ²ËĪiÉŃa":11749,"ĠÊĳimÉŃÊ²ËĪÉĳ":11750,"ĠsËĪobstvÊ²innÊĮ":11751,"ĠvzrËĪosÉŃÊĮ":11752,"ĠtÉĽrËĪÉĽ":11753,"nÊ²iji":11754,"nÊ²irËĪovÊĮ":11755,"ĠupakËĪo":11756,"raft":11757,"É¡rËĪÉĳfÊ²ija":11758,"vËĮa":11759,"ĠdËĪoÉŃk":11760,"ĠvÊ²iÉŃÊ²ikÊĮbrÊ²itËĪÉĳ":11761,"ĠpÊĮsmÊĮtrÊ²ËĪe":11762,"vËĪÉĳÉŃÊ²u":11763,"É¡rËĪÉĳfÊ²iÉª":11764,"ĠprÊĮmËĪyÊĥÉŃÊ²innÊĮsÊ²tÊ²Éª":11765,"jËĪami":11766,"jtÊ²ËĪisÊ²":11767,"ĠËĪÉĳktsyja":11768,"ĠpÊĮkÊ²ËĪi":11769,"ĠrabËĪotÊĮÉŃ":11770,"sÉŃÊ²ËĪÉª":11771,"xÉŃËĪÉĳ":11772,"ĠÊĮsnÊĮvnËĪovÊĮ":11773,"ratÊ²ËĪivnÊĮ":11774,"É²its":11775,"ĠzËĮastÉĶs":11776,"ĠÃ":11777,"ĠuspÊ²ËĪexa":11778,"ĠpapÊ²ËĪi":11779,"svÊĮ":11780,"rÊĮvÊĮn":11781,"kanËĪÉĳ":11782,"ĠprÊĮjiktÊ²ËĪi":11783,"ĠstakËĪÉĳn":11784,"Ġfsta":11785,"ĠsfËĪÉĶim":11786,"ĠsËĪobstvÊ²innyj":11787,"zaÉķËĪi":11788,"rÊ²im":11789,"ĠpubÉŃÊ²ikËĪÉĳtsyÉª":11790,"xËĪÉª":11791,"znËĪatÊĥa":11792,"ĠÊĮtprËĪÉĳvÊ²itÊ²":11793,"ĠprÊ²ispÊĮ":11794,"ĠuÉŃutÊĥËĪÉĽnÊ²ija":11795,"ĠtËĪÉ¨pu":11796,"ĠdÊ²ifÊ²itsËĪy":11797,"ĠrÊĮzmÊ²iÉķËĪenÊ²ija":11798,"ĠprÊ²ibËĪor":11799,"ĠsËĪudÊ²":11800,
[...]
